#version: 0.2
t h
i n
a n
e r
o n
r e
th e
a t
e n
o u
o r
e s
a l
i s
t o
in g
an d
e d
a r
i t
o f
a s
i c
l e
i on
s t
o m
i l
en t
a c
e l
y ou
r o
f or
s e
c h
b e
v e
h e
a d
o w
i d
l y
a y
a m
o l
e t
i m
i th
i g
v er
at ion
a re
c t
w h
o t
th at
w ith
a b
s u
u t
i r
u s
c e
u n
t er
u r
a g
p ro
c om
c on
l o
er s
al l
il l
e m
T he
t r
n e
a p
i f
u l
o p
m o
ou r
w e
re s
es s
p l
es t
d e
k e
f r
h a
er e
e x
ou t
you r
p e
s o
ig h
at e
s h
a in
q u
m ent
ou n
ar t
an t
on e
p er
c an
it y
ha ve
l d
i v
T h
o d
i ve
w as
i es
b y
th er
p r
fr om
w or
ac t
th is
n ot
p o
is t
w ill
t e
en d
c l
u m
igh t
an y
or t
f e
ar d
om e
u p
in d
u st
d o
i al
c o
g r
I n
ou ld
g e
el l
i p
m e
id e
g h
ab le
o k
2 0
g o
i e
b ut
u d
m a
e ar
ac k
h as
in e
ic e
ag e
a v
t im
ac h
ou gh
p ort
< /
al ly
ion s
as t
u re
d er
wor k
l i
b o
for m
com p
c re
ic h
mo re
n ow
i re
ver y
d u
u se
m y
oun d
at ed
s er
w ay
d ay
the ir
a f
g et
f er
it e
an s
f o
i z
the y
t s
a il
is h
i b
c k
ou s
as s
s p
a k
en ce
on g
s ome
e v
it s
I t
an ce
o ther
tim e
ig n
ab out
p art
W e
ow n
wh ich
con t
i a
ac e
0 0
n o
c r
as e
st r
th ing
p re
b er
y ear
d is
b r
c ess
am e
ne w
b l
e p
el y
wh o
Th is
ic k
al so
ct ion
. .
W h
f ul
A n
o ver
ent s
ar y
ation s
ic al
m an
ar k
20 1
t y
re e
in ter
d r
i le
ne ed
en s
in t
it ion
com m
pro v
re n
l l
the m
p le
po s
a w
s pe
C h
li ke
h el
il d
h is
or s
wh en
j ust
S t
th ere
re at
c ial
th an
wh at
be en
p h
p res
of f
l ow
t ing
c ol
d es
ser v
h ow
in k
c or
h er
k now
w ould
f ir
ch o
an g
b u
w o
c us
u e
mo st
a ke
v el
Y ou
o g
en c
e f
h ad
w ere
in to
at er
th r
c i
ad d
c a
ad e
n ing
c ur
hel p
ma ke
s y
m er
I f
w ell
a u
c ent
op le
m ay
re ad
lo ok
ol d
ver s
in cl
b ack
c oun
f in
m in
ro w
r y
at ing
thr ough
on ly
pro du
le ct
re g
ic es
ap p
1 9
at es
o b
se e
pe ople
s a
fo re
or y
j e
o se
be t
fir st
h igh
at t
a ir
) .
e very
p t
i ed
i an
u al
v is
m on
com e
un der
A s
per i
d if
c ar
m ed
v ie
the se
H e
ing s
the n
w ant
ment s
fe ct
f l
su p
i ous
wh ere
if ic
se t
d on
t ain
c er
je ct
re d
m any
ib le
res s
ul t
p ers
to p
en er
it ies
in ess
pl ay
g u
su r
re l
le t
is e
R e
c al
ca use
st and
it t
ar ch
b us
to m
k ing
o s
ur n
su re
ic t
l ine
go od
st ud
t wo
sh ould
re qu
r ight
vie w
s el
u ch
form ation
on s
e ver
ev en
af ter
b as
ation al
st em
il y
k s
m ark
if e
year s
in v
l and
d own
g reat
y s
il ity
1 0
an ge
U n
f un
c le
d el
C on
F or
su ch
C om
s ite
c ould
b est
T r
us ed
tr y
incl ud
u res
a th
l es
l ess
bo ok
f ind
is s
ro om
ul ar
h ome
h o
s he
al th
con d
m uch
des ign
c es
s s
u bl
al s
at a
st art
s im
b le
em ent
l ong
at ch
gr am
m em
t ake
h ere
ter n
ol og
An d
bus iness
at ive
dif fer
en g
way s
in formation
b el
con s
pers on
P ro
s m
s ide
N e
e as
l ight
sy stem
g an
j o
ic s
ex peri
w r
su b
e ach
i o
c all
id ent
n er
as h
pe ct
) ,
of t
p ut
i x
ur ing
su l
m ain
em p
we b
be ing
c ed
vel op
m ade
am p
sa id
str u
c are
d s
A l
Th ere
ex t
s ay
in st
de velop
s k
l ar
be cause
sh ow
ch n
l ed
m s
produ ct
prov id
v en
A r
f act
pl ace
f am
h and
cho ol
an n
be fore
ou se
tr ans
l ife
do es
f ol
th ose
r a
c our
pr of
v ed
c lo
s ol
w ard
re t
it ed
we e
O n
v al
d id
S e
u b
d ing
t al
ag es
iv es
S o
wor ld
th ink
wh ile
20 0
pro cess
d et
n um
ar r
al ity
iz e
E n
iv ing
f ree
l ist
p ol
B ut
ch e
ch ar
v ing
th ough
c ap
le g
p ur
po st
s to
l ot
F r
sel f
H ow
ion al
D e
d ata
ar ound
t ak
i vers
differ ent
to o
pro gram
l ast
pl ic
p ubl
bu ild
le ad
se arch
sup port
fe el
us ing
es e
g l
in ce
sh ip
mark et
t on
of fer
u g
.. .
s al
de c
co ver
an k
comm un
a z
ou p
s ign
ag ain
p ay
s ing
3 0
he ad
The y
go ing
T o
re ally
po int
in s
P r
it ing
ire ct
av ail
te chn
i end
s ame
f ic
Ne w
o c
n ess
ow er
E x
serv ice
ire d
h im
pres ent
we en
le ar
lo ve
i ent
im port
p ar
all ow
N o
v ent
ch ild
ke ep
g ener
B e
ter s
ren t
a x
st ill
ce pt
i er
mon th
as on
or der
C o
re al
- -
i ver
id er
s it
m iss
pos s
r un
w ater
he alth
bet ween
C l
op t
f ound
a ve
g y
in cre
bo th
inter est
fol low
experi ence
fr iend
v ar
Wh at
f il
pl an
op en
avail able
A d
et y
iz ed
Wh en
b re
at ure
comp any
or gan
is su
i or
h app
te am
tr act
res p
itt le
re sul
b lo
v es
wee k
al ways
ex p
fe w
includ ing
5 0
c ut
op er
s chool
le vel
B o
n et
in es
b ers
u ally
ar m
00 0
lo y
sm all
p ass
serv ices
ab ility
prov ide
i el
P l
M o
a ut
lo c
ap h
num ber
S h
ro ss
ant s
olog y
pro per
part ic
pro ject
or d
B r
per form
lo ad
for t
i qu
ur al
O ur
1 2
man ag
are a
A ll
co st
ed u
as k
u de
re ce
it ch
bas ed
g g
p at
su m
cl ass
l ittle
. ,
m ust
with out
v ir
thing s
cont in
d uring
A t
m us
de p
ent er
ad v
it al
bet ter
h ard
ic ally
1 8
pro ble
um p
W ith
g row
S er
g ot
ist s
od y
G r
qu est
w on
qu ality
fam ily
un t
one y
spe cial
b ig
g ive
ch ange
import ant
th ree
some thing
ef fect
read y
L o
spe c
cont ro
ap pro
re port
h ouse
c cess
ful l
R o
M y
cus tom
el s
tr ain
ex am
so ci
on line
m et
ard s
o to
se cond
ish ed
U S
re st
i ents
e qu
l im
a ther
iv id
k es
en se
ac cess
ar s
me et
d irect
L e
jo y
f f
coun t
with in
com es
l a
ap plic
gr oup
t est
at ely
lo cal
G o
ut ion
tr i
p ower
ent ial
are n
pr om
ne x
I s
work ing
day s
cour se
c y
ch ang
an other
cur rent
c as
p ly
g in
1 5
m ight
g er
are d
le ase
on t
f ac
r ic
nex t
prof ess
pres s
ph oto
c ell
act iv
ust r
pl ac
o th
to day
b en
mo ve
Th at
fo od
re m
inv est
b ro
ma king
c ase
e lect
comp le
add ition
s ince
publ ic
a h
l aw
web site
v ide
look ing
ot e
cons ider
b al
mer ic
gr aph
st ate
a way
pr act
our s
J o
D r
h ist
s c
at or
et s
sh op
n or
at s
C ol
need s
m ill
R es
r is
a im
f t
i um
if y
b ed
1 1
A meric
am es
t urn
le ction
A f
W or
p op
st y
ne ver
under stand
b ody
enc es
u ck
if ied
eas y
S he
I N
tri but
O r
stud ents
e y
s oft
v ol
su ccess
p or
pro te
! !
poss ible
op e
re search
stru ct
em s
iv en
be aut
to w
2 5
ke y
emp loy
b ab
p ot
C an
iv ed
ie ve
con ne
bu y
w al
on d
p ing
un d
m oney
w om
end ing
ail s
er y
enc y
w in
u es
ge ther
p age
it ions
, ”
che ck
as ed
de v
ivers ity
C oun
end ed
ful ly
p ain
h old
min ut
lear n
O ne
on es
person al
Th ese
d i
ap pe
b it
E R
product s
s on
t ed
per fect
lar ge
D o
M an
A p
al ong
un ch
ev ent
w are
unt il
cre ate
st at
en joy
vis it
c u
ou th
com ing
iqu e
T e
ater ial
to gether
. "
c ame
ex pect
us h
d em
b or
k ind
g ame
st e
ind ivid
1 4
is ter
m en
th or
m at
s ch
w he
if ul
f ace
is tr
fo cus
child ren
n ight
gr ound
b all
as ter
fe at
iz ation
P h
n ame
l ing
tr a
p ed
iel d
ha ving
incl ude
mem bers
vir on
contro l
ben ef
s w
ir d
work s
B l
t em
cont act
ap er
t en
im e
un e
ur y
ic le
M ay
r ist
g re
n on
is ed
is ion
h ol
sh are
pur ch
j ob
commun ity
tr ad
a ud
h ip
oft en
re view
so cial
af f
build ing
p ack
1 6
m al
is ing
inst all
Af ter
tr av
cont ent
cer tain
individ ual
d ate
be come
tim es
ill s
ul ation
re f
is m
n ational
ne ar
wh y
f ar
sp ace
cle an
se ver
mem ber
edu c
f our
id s
pr ice
cle ar
l ab
it er
In tern
comp an
re cent
i ke
m aterial
cor ding
in al
wo od
A N
p ast
iv ely
know n
2 4
or ies
b on
to ol
st ep
viron ment
M ar
f lo
qu ick
te ach
B u
h um
n am
ne y
bo ard
p an
it ive
u ro
O N
g n
me ans
ma kes
spec ific
develop ment
vide o
I D
cur ity
A T
In d
get ting
h y
l ink
ex per
en ough
pos ition
ac ross
m om
w a
How ever
1 7
a id
cont ain
m ind
con f
beaut iful
A c
f low
s ell
re du
port un
f av
m it
ro ll
j or
r ound
n ers
d one
call ed
again st
1 00
mo del
mus ic
t reat
and s
oun t
Ch rist
sh ort
1 3
v ious
go ver
oth ers
pe cial
n ment
requ ire
miss ion
cre d
t ell
al ready
201 8
ph one
op portun
R E
c amp
fer ence
resp ons
an al
id ay
th od
le ast
conne ct
g ar
pl ain
ust ry
re am
act ion
m ult
r ange
dep end
ar ing
off ers
N or
le ft
cor d
S te
m ar
de al
st er
ag o
Y our
tr u
fr ont
ur ther
de fin
f ut
n g
p ie
bel ow
if t
do ing
d am
does n
tow n
M ed
ab o
ut ions
in ation
re ach
le y
19 9
n at
ro p
ot t
A u
A S
d om
sh o
br ing
ple ase
w ind
al e
il t
pro ve
ma jor
cr ip
ro ad
our ce
on ce
med ia
Un iversity
custom ers
add ress
bre ak
ch all
ty p
coun try
Ser v
fe e
d en
ap s
ie f
act ually
ough t
4 0
i k
minut es
I S
var i
e e
re co
l ive
ate g
ens ive
spe ak
s ound
se ason
cus s
compan ies
f ield
partic ular
feat ures
mill ion
w ent
con om
an e
res h
ind ustry
off ic
re comm
ip s
i ate
u su
om et
im p
pr iv
li k
c ity
r on
be gin
did n
re p
du e
w ide
m p
me an
G od
f it
g iven
h ours
comp et
P o
C ar
F l
s top
stud y
ret urn
val ue
proble m
re ason
com b
cl aim
m il
start ed
proper ty
sever al
f ast
st ay
ot s
du ct
ward s
fut ure
sp ir
em ail
comp let
issu es
exam ple
ou ch
or ig
ac y
v o
requ ired
f ill
h al
w w
il ities
in a
ear ly
F o
en vironment
t ic
S y
p ict
s l
ver t
profess ional
an ces
in o
ty pe
wom en
in ed
our ces
str ong
sim ple
M e
T H
G u
manag ement
w atch
to mer
say s
c ult
m ot
v i
id es
bo x
every thing
n ed
ure d
w er
f all
s cre
techn ology
ou d
though t
sty le
c ard
h ot
c ing
rel ation
N ow
g est
D es
el f
peri od
con cer
au gh
b ar
p ick
part y
201 7
abo ve
id ence
e le
or ing
com fort
ne cess
st ory
ac count
pre t
fl u
t able
he art
ith er
me thod
E S
system s
con tract
inv ol
A C
need ed
led ge
A ir
P lease
s ize
ic y
tak ing
se curity
im es
ib ility
equ ip
M on
l ater
Wh ile
m ach
ab l
month s
an ks
it ical
su per
ish ing
dis cuss
l iving
d ist
t ar
8 0
a i
in ing
F e
_ _
h n
in ts
st aff
p aren
am ount
perform ance
comple te
N ot
m atch
P art
d ig
C r
S c
clo se
char ac
p en
sing le
cl ick
who le
D on
do or
provid es
friend s
quest ions
se lect
resul ts
D is
pr int
au thor
2 2
re main
gr ad
A R
b ur
resul t
to ok
Americ an
trav el
P er
s ci
issu e
6 0
crip t
m ing
u ation
u ary
av ing
S p
g en
at ic
tr ack
pos ed
whe ther
A P
E uro
O R
c ast
w all
in c
cus tomer
follow ing
appro ach
ct or
for d
us er
w ar
ur ch
ide a
provid ed
t our
train ing
applic ation
I T
f urther
B y
re le
new s
me as
sto ck
sit es
at ors
var ious
C he
g ed
h on
m ber
en sure
det er
us es
chang es
, "
te gr
down load
i ans
se m
pl ant
de f
ener gy
Jo hn
wal k
t ax
se en
won der
est abl
qu ite
comp ut
y et
an cial
en ing
us ers
sim ply
nat ural
S u
ha ir
ow s
wor d
201 9
ph ys
ho st
pot ential
as ing
ap e
ex ist
ag ed
cl ients
ific ation
in it
ent ion
un ique
sur ance
A L
we ight
res ident
sh all
l s
w el
re present
any thing
pecial ly
s ent
id ed
are as
spe ct
er al
po se
sto re
sal es
C al
d ed
e conom
mo der
l at
es pecially
f ive
am ong
cho ose
al most
hist ory
im prove
proble ms
g lo
s af
et c
ul es
some one
dr aw
vers ion
m ag
n al
s ess
st it
J une
O f
a ur
w ed
j our
wor ds
port s
hal f
ent ire
St ate
th ird
co ok
partic ip
h ope
design ed
m id
Un ited
for ward
ex c
s at
your self
ide as
tak en
c ou
il ar
ip le
sub ject
c am
p aper
J ust
res pect
del iver
opt ions
relation ship
P ark
pl at
iv al
br and
Con t
gover nment
2 3
r ad
loc ated
M in
ass ist
ce ed
rel ated
pop ular
E D
I C
reg ard
vis ion
S ome
v an
su gg
wor th
ev ents
sugg est
dr y
includ es
commun ic
hum an
S im
201 6
cred it
i res
m ess
g ain
part ment
itt ed
quest ion
d ou
u fact
col or
ang u
h om
Euro pe
g ir
w ish
hel d
reco gn
f ire
lik ely
S outh
every one
bel ieve
fav or
ition al
sel ves
stru ction
sign ific
i ence
m or
m ix
r al
ple ment
a ver
r ate
leg al
U K
on y
el se
ab les
do cu
comm on
s en
re cord
l ic
am az
pl es
per cent
prote ct
ac cept
you ng
fir m
bu ilt
tak es
recomm end
c op
so on
Q u
b and
h ind
ut e
how ever
b ill
know ledge
book s
sk in
in tegr
fo ot
itch en
g ing
ic ro
t ext
col lect
rece ive
no v
requ est
d y
er a
er ing
ter m
necess ary
B ar
N ational
en n
educ ation
ag ing
through out
fun ction
gener al
v ia
x im
ser ies
Re g
s we
le x
ul l
ail y
b an
re et
det ails
e ither
set ting
plat form
b ad
c ir
purch ase
g es
s ens
ent ly
wh ite
bl ack
lear ning
P ar
ic a
su it
off ice
current ly
ris k
cre ated
incre ase
usu ally
J an
se em
add ed
land s
bab ly
le ge
happ y
or k
cr ib
blo g
b i
t it
ast ic
te e
dif fic
wr iting
en e
opt ion
Wor ld
signific ant
f ix
activ ities
2 6
h ar
re ct
re fer
dr ive
main tain
imp act
A M
M r
contin u
P e
contin ue
” ,
mo b
2 1
W ill
ap point
C or
to ld
ra ther
tr ip
H ere
M ark
o re
ro le
tal k
F in
f resh
try ing
C ity
car bon
b ud
s pr
ex act
S chool
er t
it ems
E N
p ark
cer t
sk ills
ro du
pro bably
lo ss
tr ue
co ol
ens en
comm it
istr ation
t ouch
ay s
im age
up on
read ing
addition al
soft ware
mat ter
su n
ob ject
R ep
to tal
enc ed
e cut
t t
t re
is n
ag re
fin ancial
iz ing
H ouse
be hind
Intern ational
k ids
et er
opportun ity
g ress
lo ck
rece ived
p ath
201 5
eas ily
co re
man ufact
as soci
Fr om
omet imes
ve h
H is
er r
out side
oun tain
act ive
m as
u ge
fe ature
reg ular
room s
fam il
med ical
eng ine
pret ty
2 8
C ent
H ensen
b row
market ing
equip ment
moder n
H igh
I I
g iving
u x
ent al
cond itions
. ”
b ul
m un
program s
offic ial
s qu
pre vent
sim ilar
S un
ac cording
want ed
wee ks
v ot
of fee
itt en
b ir
o il
in side
ex tra
orig inal
A pr
s es
it or
T V
c up
is es
A D
P ol
l angu
u ff
end s
cor por
7 0
L on
id ge
cho ice
cover ed
Bu ild
priv ate
f ile
en ed
ap pl
allow s
S E
st ain
ma il
work ed
As soci
mom ent
po ints
ans wer
pract ice
Coun ty
h am
ac c
se ts
ab ly
cl im
get s
pre p
au tom
sum mer
quick ly
low er
fin al
Ar t
amaz ing
ch es
fil m
grow th
M c
ce le
sal e
benef its
lab or
E very
c il
in surance
el t
d ress
b ing
h or
k er
pre vious
project s
vari ety
I m
w ise
ard en
-- --
cele br
Y ork
run ning
g as
la unch
A m
z e
ex cell
qu al
then tic
typ es
Lon don
U p
sol ution
char ge
av es
cre t
provid ing
meet ing
L et
l ate
no thing
produ ction
charac ter
l ines
G e
b ase
f ail
look s
air s
includ ed
diffic ult
9 0
for ce
pr ior
og le
Com p
tool s
se ction
can not
ask ed
D ay
h ab
s ource
am a
av o
enc our
Serv ice
J u
m ine
s ix
us s
stand ard
saf ety
A F
S ep
f ig
m ass
is ions
En g
d aily
s le
re mo
se qu
.. ..
gl ass
effect ive
l in
st ant
ter ms
com pl
res ources
comm er
app ly
g ames
ag r
lo g
long er
dec ision
t ies
con tribut
ef fic
lat est
A ct
G et
W ell
n a
n ice
r out
s mo
is on
fe ed
dis play
3 5
cl us
E d
H o
b s
b ath
g ives
le ave
lead ers
net work
cost s
an im
col lection
Mo re
expect ed
S T
sup pl
appe ar
flo or
chall eng
c ash
d rop
cr af
An y
ann oun
p al
ist ic
reg ister
Al so
Nor th
S m
mo d
high er
l ay
ad a
Th anks
ys is
det ail
H er
u k
ic ated
ad vert
En gl
plan ning
O M
r an
art icle
sol utions
any one
We b
St ates
exp lo
A re
ser ve
St ud
loc ation
plac es
Engl ish
I P
i et
l er
l ives
en ge
as es
tr ies
est im
spe ed
cor rect
mach ine
b t
u it
dr ink
lead ing
resp on
f urn
h ib
high ly
Apr il
S al
l if
ight s
wr itten
scre en
O U
prov ed
treat ment
M arch
se par
G reat
d iv
s ed
s ong
” .
he ar
not e
po ol
201 4
cent er
organ ization
s end
id a
att ention
E ven
n ut
t ur
k itchen
r ing
de ep
201 3
N et
O c
s ense
se ems
inter national
19 8
pol icy
photo s
D ev
an ced
ubl ic
material s
W est
c offee
s il
id ing
ag ement
201 2
level s
appro pr
F ir
lim ited
Go ogle
A ustr
e ad
st or
part s
er c
it ure
On ce
at tract
il le
C enter
n s
p s
Th ank
int rodu
He alth
in ner
res er
co de
my self
sp end
help s
sa ve
S at
e es
f re
ad min
act ions
mob ile
4 5
at ives
ad em
ex plain
iz es
aw are
c ul
d ol
in ary
su f
go al
pre m
S up
n ia
er g
Tr ans
success ful
con duct
lot s
Mo st
A b
F ace
K e
W ind
adv ant
h it
w it
af fect
ho od
Ad d
pie ce
comput er
2 7
an a
re member
bro ad
bor n
a ul
im m
end er
dev ice
A ug
G re
O T
w arm
im med
im plement
Th en
av y
ak ing
show s
dig ital
M us
a ign
t as
at o
P resident
de cor
pr im
gr ade
stand ing
bab y
H ome
to wards
te le
um e
applic ations
E T
k y
r i
dec ided
Cal i
re lease
ach ieve
5 00
c ure
i am
ent ry
ct ions
ass ess
trad itional
glo bal
res ol
ak es
mor ning
aver age
A fr
ess ential
ear ch
cre ating
min im
rest aur
recent ly
b ag
h our
cond ition
profess ion
excell ent
O ff
oc cur
depend ent
h aps
ter r
stud ent
favor ite
h uge
inst ead
cour t
pay ment
Ju ly
commer cial
C C
em o
str ate
exper t
c ross
d le
he at
em ents
ment ion
sa fe
cons ist
pol itical
docu ment
Cali for
f ab
p aid
ig ation
do g
ser ious
hand s
health y
consider ed
cou ple
t ick
ens ion
ang er
mult iple
f ish
k en
n y
in form
st one
be gan
De partment
gre en
Fl or
G er
S an
ic les
serv ed
D irect
bas is
hol iday
at ter
al tern
att ack
sur pr
right s
interest ed
Califor nia
n es
p et
im ag
ict ion
cap t
pur pose
Des ign
invol ved
/ /
E L
P at
h ous
ar ter
exact ly
cr y
paren ts
tr ust
fr ame
ex cept
let ter
cas es
pict ure
Austr al
Wh y
fin ish
friend ly
langu age
s cal
to ber
un te
its elf
part ners
plac ed
b ot
re as
ve y
pre fer
pre ci
tar get
ar ant
cl ient
group s
i very
n ature
cl ub
go es
ib ly
" .
L aw
c ards
ed eral
dis tribut
interest ing
blo ck
it ation
est s
inter net
c and
n ation
r ich
pr ices
form er
Se e
P S
e at
up d
comple x
Te chn
Bl ack
V al
W ed
th us
or g
be y
ex erc
them selves
hist or
dev ices
Fir st
st ress
prom ot
wa it
bud get
O S
i ation
ac qu
camp aign
s po
in nov
it ely
sp ot
individual s
comfort able
O ver
ch ann
pos itive
pat ients
Oc tober
Face book
f air
o od
es ter
con sul
iv ity
ie w
reg ul
Re ad
in flu
on to
In c
du c
sur round
develop ed
anal ysis
C our
H ol
c at
h tt
m m
r u
ill ed
reg ion
require ments
exist ing
G ener
I M
ch air
ant ic
swe et
pro gress
ap t
ap an
ren g
than k
grow ing
d est
Americ a
E l
M any
v ille
it es
ro ck
be came
think ing
ey e
respons ible
B us
view s
emp or
ww w
p ages
s ort
s ometimes
ag ree
ie ved
Tr ump
w ine
lo st
Fr iday
Bo ok
wonder ful
S am
j ud
p p
au thentic
inst it
redu ce
I L
f a
lar gest
post ed
D av
c ateg
e ase
p ul
publ ished
sat is
: //
S tr
m is
ur s
mo ther
car ry
report ed
Intern et
G l
W he
ic ed
2 9
F ree
in j
pl ans
str ateg
photo graph
B en
J apan
im ages
ell ow
business es
experi enced
sit uation
st age
de ath
eng th
oper ation
Go od
Flor ida
f arm
ly ing
ell ing
des crib
Sep tem
appropr iate
s aw
pl us
direct ly
anal y
f elt
r ules
ex ecut
coun tries
Com mun
blo od
dam age
vi ol
Aug ust
an c
at ory
st ar
st reng
est ate
ann ual
invest ment
regard ing
Build ing
Septem ber
E duc
p m
z a
ch em
play ing
E ach
J e
M ake
g ree
r ough
u be
ad vis
ct ure
um b
pres sure
bas ic
wr ite
defin itely
M em
b ow
m ir
ar i
lo v
sh ot
201 1
sy n
offer ed
P al
st uff
con sum
care er
feel ing
W ar
i ers
s n
st ick
em pt
ex press
start ing
turn ed
o o
s low
Pro gram
Pr of
cript ion
G over
f ine
con struction
was n
cre am
str a
ron ic
c row
ch ance
lo ved
cr u
bl ue
wr ong
l ack
the s
ber t
ob tain
gu arant
0 9
I ON
P re
r ain
chall enge
cam era
furn iture
E C
h op
ac es
ir ing
own ers
school s
understand ing
Gre en
we ar
sci ent
3 3
P C
it em
st ream
ad s
if f
ind ic
high est
mean ing
g ift
med ic
wom an
M od
qu e
In t
produ ce
ad just
ag ue
tr ied
ven ue
allow ed
begin ning
complet ely
L a
R uss
as pect
ac cur
he ard
id ents
incre d
bir th
B er
ab s
ide al
ev idence
ef fort
establ ished
O ut
t w
ch urch
ash ion
process ing
d ream
l am
ap art
go als
ous ly
play ers
Gr oup
H ot
S S
S ince
s cr
in struct
or al
ing ton
un g
op tim
ind ustr
ident ify
cap ital
i ately
t le
the me
il es
ad es
than ks
incre asing
vol unte
H ar
g am
201 0
Ch ar
olog ical
eas ier
spir it
phys ical
ve mber
ex as
fe et
part ies
gu id
gu ide
differ ence
Lo ok
chang ed
IN G
ey es
hom es
h i
s old
v ant
pro ced
aw ard
edu le
adv ice
benef it
rep air
Jan uary
Associ ation
avo id
B est
g arden
s am
ther n
li er
offer ing
pict ures
wed ding
T M
k new
It al
olog ies
No vember
nor mal
Serv ices
Po st
bey ond
Bus iness
w id
in come
ne igh
coun ts
sup ply
sm art
8 8
l ation
mo vie
help ing
tru ly
deter min
b um
f an
im press
ig r
ce mber
con cept
co ach
Su per
i ar
th ous
ers on
af fic
del ivery
aud ience
opportun ities
veh icle
C E
P R
S ci
r up
en h
or ge
al one
sy ch
organ iz
Wor k
sess ion
Dev el
B el
f ant
g ave
t ag
im in
over all
fun d
trans fer
employ ee
ref lect
d ish
f requ
De cember
M ag
p ush
re li
sp ent
ho sp
S w
b ank
o st
con ven
Ch ina
prof it
Br it
activ ity
D el
E ar
f lex
s av
ab ilities
mo ving
effect s
init ial
S en
W al
pl ate
not ice
jo in
Fe br
7 5
P N
S pe
n d
p ite
y al
z z
em ot
ne g
att le
pat ient
certain ly
respon se
Febr uary
T A
V ir
ren ch
ext rem
shop ping
sw itch
associ ated
M icro
c el
s ports
u ate
contro ll
Coun cil
cult ure
famil ies
Sat ur
K ing
R ed
b ound
ro of
con vers
In ter
ma xim
cent ury
ten ance
cop y
B ig
s and
dis tr
happ en
pat tern
dem and
Sc ott
M ac
l ength
in de
ist ics
car r
TH E
ser ver
man age
help ed
fin ally
play er
techn ical
Sy stem
jour ney
3 6
b ol
v ote
ch an
be ach
ap preci
b ly
i ance
l iter
m aster
be ha
con su
af ford
empor ary
L ife
re w
am ent
if ts
An g
Al though
Pl an
prote ction
employ ees
stat ement
4 4
D own
L u
O b
Y es
we ather
de cl
ev al
back ground
Sh op
und red
dou ble
Educ ation
Satur day
A ma
T O
was te
but ton
use ful
enc ies
trans port
week end
step s
Ind ia
Europe an
C ur
S to
c um
f em
part ner
9 9
C am
I R
R el
T y
c ab
im ent
form s
comp on
play ed
Christ mas
T od
u el
re h
de gree
ate ver
gr and
ear n
near ly
profession als
P ort
c in
use um
own er
alth ough
tem per
augh ter
mess age
stra ight
M al
p ump
r id
v it
lo an
say ing
cap e
method s
Sun day
P A
R em
S ch
d ark
ic ious
do ors
comp reh
Wh ite
dr iving
sch edule
pie ces
reas ons
st ation
pe ace
per haps
cover age
enter tain
Wind ows
strate gy
S ol
T exas
r om
in fo
ab sol
su stain
200 9
vent ion
particular ly
meas ure
Devel op
4 8
B ay
H el
f ashion
p up
t ren
in sp
Cl ick
rem ind
Can ada
Ap ple
Off ice
3 2
M et
R et
U se
Y ear
ut il
ain s
requ ires
experi ences
num bers
teach ing
vo ice
es tern
se ven
pl ent
In st
ib r
ib er
str ict
col ors
Au to
complet ed
Che ck
immed iately
E M
R ev
v ill
st on
se lection
de ad
au to
look ed
see ing
fil es
power ful
exper ts
contain s
Ama z
e k
h undred
it ary
pl ants
ke pt
comp ared
pres ident
open ing
Col lege
review s
gir l
Comp any
h us
o red
for ts
un it
iv il
rel ax
craf t
L ight
m itted
ol f
br ight
pass ion
Lo ve
report s
struct ure
sle ep
advant age
D an
f at
g old
s light
th reat
al ing
com ment
stud ies
iqu es
nam ed
cand id
extrem ely
9 5
E ast
M a
S pr
W r
tr affic
ra el
keep ing
Dav id
w est
ar ies
ve get
ad y
work ers
light ing
Be cause
vide os
dem on
wa iting
rele ased
relationship s
effic ient
O L
V er
V is
t end
ro l
sh ared
Cl ub
stor age
consul t
B ro
D uring
w inter
ar ily
con stant
cl ud
br ought
wel come
O ther
m ountain
in y
ap y
fr uit
Bo ard
chang ing
minut e
men u
Afr ica
at ically
al bum
che ap
oc cas
rele vant
communic ation
F ind
W ood
r ates
ul ts
dr ug
col labor
tal king
AN D
connect ed
deter mine
) :
C A
C H
W ash
a head
st ories
us ion
ag er
con ference
lo se
produ ced
cell s
ste el
tit le
spr ing
3 1
i ant
ad o
cl in
who se
inter view
Con ference
visit ors
sem bly
D ata
E m
E lect
I F
P ho
S k
c it
g ent
ic ing
An other
may be
fin ished
light s
ret ail
ord ers
htt p
3 8
P ay
m ap
z er
am in
ap ers
pre par
fort un
sell ing
stit ute
bot tom
U AF
W all
n ur
re ve
tr ail
ul tim
res ist
stand ards
fun ds
present ed
vir t
Is rael
econom ic
restaur ant
exerc ise
D emo
T ur
s ou
mo ved
att end
amp ion
dec isions
exp ensive
ele ments
challeng es
plent y
t ail
in spir
an ch
is try
ac com
est y
pos es
col lege
serv ing
ef forts
Ar ch
Pl ay
conne ction
buy ing
Mon day
sci ence
establ ish
Austral ia
J es
P D
T op
t or
w ild
re move
st ates
ex clus
cl es
ear lier
coun ter
incre ased
ord in
manag ed
Res earch
model s
O pen
g ather
n ic
il s
can cer
ens es
Ch in
add ing
fl av
Cour t
Whe ther
G A
d a
bo y
resp ond
di et
register ed
advert ising
J er
M A
at ively
In formation
Re al
main tenance
bed room
win ning
Ph il
Ac cording
smo oth
I V
L ord
S ur
d at
d ict
t ips
is ation
cre ative
St reet
sub s
move ment
corpor ate
Prof ess
c atch
d ining
m arr
m icro
pr ay
Ch urch
lar ger
show er
class ic
bill ion
Pe ople
5 5
O s
f ight
t ree
un k
dis cover
cor ds
iss ion
follow ed
conf ig
hab it
Tod ay
4 6
H ave
L ike
v est
re ality
St art
19 6
sc en
!! !
learn ed
Ind ian
manufact ur
lov ely
C ap
l uck
se a
se cure
Wh ere
sur face
proper ties
bal ance
n ames
in dependent
es ome
ch at
he avy
ser t
val u
gener ally
Cl ass
lim it
link s
suf fer
distr ict
Demo cr
I B
s pl
gr ant
agre ement
7 6
M id
com ments
od es
want s
ded icated
dol lar
C D
b ott
ant i
there fore
T ake
U N
f ather
st reet
ad vent
op in
sh own
ment al
focus ed
Bl ue
mult i
Part y
hus band
3 00
J ack
M or
s now
en su
ire ction
other wise
col d
gu ests
call s
develop ing
val ues
pract ices
clean ing
" ,
T er
W el
f ederal
ass ign
cr itical
test ing
g al
ed ge
um n
cret ary
mention ed
Direct or
F ID
P aul
e th
se at
pl ug
te en
ple as
car s
sur v
Com mission
find ing
sit u
exp and
adv ance
init i
nut r
S ub
o x
p ow
t ask
v ac
an cing
en a
el ig
ig er
ck et
fam ous
l amp
m es
ex hib
pass ed
big gest
Chin ese
C all
L ast
P L
b ought
f ing
pos it
team s
graph ic
comb ination
hot el
dist ance
3 9
S et
g one
s core
as er
ol der
me chan
list ed
wind ow
agr am
4 9
d ump
as su
ic an
was h
even ing
Gener al
describ ed
h ur
j u
l or
l ux
is land
ac ity
ro id
ut ter
tr ade
att empt
great er
US A
stat us
Christ ian
mil es
separ ate
scal e
O h
e ight
le ts
ro te
be comes
ut ely
sh aring
Wh o
An n
mark s
hand le
A B
act ual
Ch o
ang ing
ob vious
rel ig
New s
allow ing
met al
E X
F ol
M er
w ife
er ous
or ial
it ors
tr ou
major ity
Will iam
announ ced
Gover nment
L in
b a
l ap
m ist
y es
y ing
th row
an cy
ac adem
ct ors
dis ease
Un der
could n
200 7
open ed
soci ety
plac ement
mot ion
mid dle
continu ed
ro s
so le
Ch ild
pres ents
pol ice
nor th
install ed
sho ot
fill ed
suit able
pal m
altern ative
fant astic
E ner
P M
e ating
e lection
l unch
r ace
for get
sp read
Ch ic
cent ral
dec ide
loc ations
prep ared
industr ial
thous ands
compreh ensive
M art
i os
n el
r um
will ing
det e
him self
Ph one
__ __
jour nal
Wash ington
B re
B al
B as
F ound
H D
M ic
N at
R ich
S C
g a
n om
p sych
le aves
il ing
su gar
techn iques
paren t
remain s
e gg
r ide
w rote
le an
ce p
mo dif
qu ir
pers pect
Com mit
elect ions
sc ene
Rep ublic
hous es
b atter
w ire
sh ape
ear ning
design s
commun ities
sch ed
econom y
prim ary
R iver
d irection
y ard
st al
ap ter
de bt
pol it
second s
squ are
fig ure
fa ith
organiz ations
D A
I ts
g un
i ency
s co
s outh
ed s
ot a
pres ence
arch ite
shop s
detail ed
streng th
I G
O F
i be
m ort
be at
ha ven
cl oud
sol id
process es
cult ural
F ort
d aughter
wh atever
ber g
dr iver
3 4
T S
to ward
tal ent
200 8
adv anced
pack age
flow ers
FID O
C amp
P ress
d ur
r or
r ies
th ers
ag on
te ch
do ctor
form at
pre c
sy mp
build ings
techn ologies
iver se
orig in
Mark et
commit tee
C are
T al
m and
ill ustr
em b
tr ial
br ands
br idge
val id
oper ations
cas ino
Or gan
ceed ings
Micro soft
consu mer
Amaz on
F L
W ater
b es
re pe
to t
ul ed
sp ending
cor ner
pt ion
cal cul
Pro duct
On line
Pl us
elect ric
pop ulation
M ill
O ld
R om
S how
b id
d ut
g all
k ick
ag ency
invest ig
---- ----
bath room
explo re
aspect s
Jes us
8 00
B ack
M P
g age
ing red
ic o
ab ase
has e
br ain
inter ior
web sites
pol ic
lead er
direct or
usu al
prep are
F ire
H y
S pecial
T wo
T ues
V ol
y e
el ess
qu arter
20 00
St and
ph ones
fact ors
sto res
sch em
ru le
slight ly
7 8
H um
L ake
V e
d inner
r are
s au
po or
up date
li br
comp ar
prof ile
beaut y
install ation
meas ures
appoint ed
tas te
D istr
N ext
S il
r ail
t ure
it ude
im prov
help ful
fore ign
att ach
arr ang
iel ds
ele ment
Ener gy
M S
R S
d ie
t un
in fr
er ve
as p
ig ence
Th urs
fun ding
lead s
Be fore
month ly
charac ters
R O
T ime
p atch
z y
as king
ic ians
you th
ad ults
de b
me ant
ev ol
market s
manag er
pain t
teach er
conf idence
clim ate
absol utely
P ower
f ly
k a
r ical
er n
be coming
am s
con fl
ear th
St ar
cho ices
att or
oper ating
prom ote
respons ibility
Sim ulation
Net work
minim um
Distr ict
E mp
F rench
M ary
k ill
est ic
art ist
any where
no on
gu ess
proper ly
mil itary
appl ied
Eng land
fab ric
Develop ment
F am
L ist
P ublic
S um
c ular
re put
ag no
ill a
out door
pr oud
wor ry
cr it
aw esome
leg is
clear ly
exc ited
gir ls
Cent re
Ang el
A v
F un
P et
V iew
k ers
br ief
dr ivers
Wed nes
chem ical
Pho to
Chic ago
G en
P an
c ivil
f ans
p air
v ior
res idents
ach el
bl es
ep is
dem o
D ep
G old
b urn
g ins
ar gu
un less
de als
Th rough
li qu
Tr av
bel ie
Pro ject
clo sed
az ine
wal king
deliver ed
resol ution
scient ific
Tues day
B C
K ey
d ro
r ap
s ources
ap os
inv ent
fac ilities
fav our
tru th
Ke ep
satis f
neg ative
N ote
T able
a j
h all
o v
in et
re c
em er
coun ting
import ance
aud io
watch ing
discuss ion
D iv
G al
M ain
M aster
s is
u gh
ed om
ch ain
pro to
ist an
ck s
pre ne
vis iting
cap acity
run s
hold s
Ap p
enjoy ed
Med ical
compet ition
leaders hip
Thurs day
C O
H or
J ames
i pe
ain ing
des k
oc cup
cy cle
exc iting
famil iar
Down load
Commit tee
H am
M ob
p in
r ac
se ctor
em erg
art ists
ant a
pr ise
though ts
pur poses
small er
Is lam
sound s
encour age
upd ated
guarant ee
rup t
maxim um
C ong
L ab
k id
r ise
r ub
re me
ir t
con v
con stit
bl ing
comm itted
sur vey
ann ed
ship s
educ ational
G lo
k m
r at
th ick
ac compl
el imin
se y
pro posed
op h
act s
In stitute
ound s
bus y
Te am
job s
Eng ine
strateg ies
neigh bor
hosp ital
Brit ish
Scott ish
polic ies
M el
M ach
m el
m outh
o de
s port
ic on
il ed
con tr
tr ig
our selves
pl astic
bo at
cre te
sp here
own ed
show ing
Fr ank
pay ing
happ ens
appro xim
ify ing
setting s
prem ium
partners hip
Wednes day
7 7
B ur
B row
a is
f est
j ack
y a
in i
you t
The ir
out put
not es
del icious
jo ined
num erous
Man agement
dy nam
tre es
err or
insp ired
fortun ately
. )
1 st
D ef
n av
ar row
le aving
co hol
form ed
cre ation
cr is
man ner
app ed
call ing
provid er
class es
spec ies
hy dr
typ ically
rad io
autom atically
C ert
J our
W il
e co
i j
p on
ad opt
reg istration
publ ish
Mus ic
A A
B lo
C reat
D O
D et
t a
y er
al ed
ce an
bo ost
concer ns
select ed
veh icles
Ger man
H all
M iss
T om
d im
g ate
in ct
pr in
col our
cour ses
list en
Ro yal
rem ote
claim s
mot or
sess ions
cert ific
Commun ity
guid ance
B ed
F il
F lo
Q ual
R u
f aster
h es
t d
ap proved
ha el
cr im
br ings
fl at
start s
az z
gener ation
vol ume
reach ed
speak ing
Vir gin
4 2
B ud
F re
K ind
L L
M il
M ountain
U sing
un ning
me al
know s
good s
Se ction
dep ending
prote in
recomm ended
chann el
instit utions
Cong ress
C us
G ar
H app
P res
p a
at ers
el ine
ro t
ad or
pro of
con serv
Th ose
br ush
int age
ren tal
vis ual
clo s
On ly
interest s
oper ate
Bo th
Ro ad
pract ical
assess ment
tick ets
incred ible
3 7
i est
in stru
en able
ent re
ul ate
col ate
sy m
put ting
post s
pay ments
happ ened
bro ken
di agno
sch ol
Med ia
appoint ment
expert ise
sau ce
H ist
N OT
P eter
re ci
re ference
it ate
ir on
ter min
pro pos
des ire
ca used
mem ory
cons ci
sk y
contin ues
Ser ies
influ ence
accur ate
temper ature
4 7
C B
C y
S ing
d ial
r ics
s ha
con struct
de cre
od ies
pr inc
port ion
int ell
Fo od
assist ance
tas ks
perspect ive
D S
L ou
N O
it ar
it age
tr uck
ul ty
we ak
sh ap
co ast
perform ed
nor m
docu ments
aware ness
elig ible
E v
U C
W ord
k it
p y
r d
t ough
lo ans
fe ar
ph il
most ly
ci ples
Le ad
claim ed
feed back
tele vision
instruct ions
5 6
B A
D en
I r
L os
P ass
P erson
f old
u 09
ac ter
sh ar
art s
co vers
int ended
des pite
As s
ult ure
Se curity
fic ient
big ger
Ac adem
Sc ot
hon est
chann els
Sci ence
dat abase
entre prene
8 5
U I
j un
r ating
s or
v ies
de partment
up s
ib ilities
cur ren
Se cretary
200 5
poss ibly
test s
elect ronic
defin ed
environment al
Cont act
Techn ology
S ou
T own
a e
c ities
h ub
r ank
ver se
con cent
200 4
sit ting
fac ing
suppl ies
B et
C as
E as
J on
e ch
n one
p apers
in sul
so il
bl ed
fir ms
read ers
gu ard
inst ant
So ci
sign ed
Co ast
train ed
ste ad
teach ers
sho es
lic ens
anim als
distribut ion
S ar
h ire
t ight
ag ent
up load
ind o
ack s
iz on
Pro ceedings
support ed
ship ping
Ex ecut
success fully
perfect ly
redu ced
brow ser
surround ing
categ ory
reli able
cit iz
tot ally
Mob ile
E E
S wed
b our
er ies
at ures
co al
ho ok
stru gg
law s
comb ined
Fol low
A g
M ich
N E
R A
g ment
re venue
re cords
as sets
de part
ain t
ip es
sp in
comm ission
sim ulation
200 6
Pl ace
Gr and
mil k
bur g
dou bt
beha vior
ingred ients
B ank
H ope
S and
Z e
k o
l it
w ing
al d
tr ick
ex po
inter nal
enc ing
fl ight
eng agement
provid ers
sal t
cept ion
fac ility
Med ic
cir cum
seem ed
occas ion
reci pe
1 50
N C
O P
S ha
S ign
V an
a ult
h un
after noon
dep th
cy cl
sty les
event ually
AL L
histor ical
afford able
D I
L at
d ance
d anger
at mo
un its
com plain
ne ys
dis covered
med ium
top ic
gu ys
gl ad
Ro ck
meet ings
graph y
specific ally
conf ident
dom ain
lic ense
conduct ed
determin ed
convers ation
compon ents
hundred s
Mic hael
C re
D i
H a
K o
L im
L ong
d ied
g ifts
k ins
al y
su sp
mo de
fe es
ph en
would n
see king
stand s
support ing
Col or
employ ment
tru cture
reason able
qual ified
* *
A lex
B ill
T or
Y OU
b ust
i Phone
al cohol
st ated
ro y
se ats
ch ick
art icles
see k
sk i
support s
Is land
food s
whe el
dom in
Russ ian
enh ance
accom mod
symp tom
4 1
L td
S P
p il
er ed
ab led
ur ban
com plic
ul ous
pl ates
ex change
Th om
li ament
dis count
reg ional
fl ag
sub mit
appe ared
purch ased
mom ents
reco very
augh t
Fam ily
approxim ately
b io
d ivid
h id
i en
i age
m ut
’ .
st re
st ances
ac counts
am b
ex pl
um in
ip ping
ast ing
pos itions
cent re
emp has
arr ant
En vironment
appe ars
mach ines
Par is
agre ed
song s
introdu ced
wit ter
carr ied
H aving
L y
N Y
f le
t ut
t ons
t ables
w s
ic ian
om en
be am
Ch ris
og a
As sembly
play s
jo int
inst ance
show ed
char ges
miss ed
cut ting
Do es
pan el
wall s
Cent ral
remo ved
rout e
announ ce
birth day
proced ure
H ill
U R
g s
v ary
in ch
an o
el ines
out s
He ad
fact or
effect ively
graph ics
members hip
cook ing
particip ants
accept ed
Ge orge
demon str
opin ion
Found ation
C at
C up
F A
L E
M useum
Q ue
d ent
p hase
s ides
y o
re place
it a
ex cess
qu iet
ther apy
co in
ip al
ens ions
pos ite
ra ised
prom ise
pain ting
return ed
tick et
appreci ate
O p
V ill
o bl
w is
in ations
as tructure
ag ents
con sequ
ex tract
pe p
te a
ak s
app s
Ser ver
consum ers
entertain ment
valu able
C ard
M ad
W estern
l ived
p itch
ed itor
ly mp
ur ies
mo vies
cho colate
present ation
Be aut
Ro om
hold ers
sen ior
previous ly
Sup port
cep ts
Jour nal
6 5
I ll
M O
T our
T est
f ields
in put
ak er
pre gn
ci ent
bel ong
ra ise
pur su
commit ment
innov ation
Japan ese
pow der
academ ic
A I
L ar
R os
T it
j ump
k in
v as
cont emporary
And roid
So cial
200 3
keep s
fac es
hold ing
May be
equip ped
John son
particip ate
foot ball
fix ed
div ision
spirit ual
esty le
Hum an
K now
V ide
e per
f uel
k n
r iver
s aving
w ick
se cut
po ly
ip ped
pre dict
just ice
fun ctions
bre ath
access ible
fac il
kind s
wind ows
grad uate
lands cape
Ital ian
exclus ive
dollar s
Wel come
Execut ive
? ?
B E
B ra
D id
F urther
K ar
L O
S uch
at re
ar ms
ol es
out standing
qu ot
bl ess
ree k
serv es
clo thes
En ter
feel s
Co de
net works
aren t
bro ther
research ers
ester day
inde x
Scot land
6 6
f ishing
s ac
t il
al le
al og
se x
ad apt
ber ry
know ing
cho os
Un ion
Com put
Se cond
Fr ance
miss ing
sw im
protect ed
appear ance
Ab out
tw ice
lux ury
Glo bal
E P
E r
S ometimes
W atch
f ro
s ight
er as
re cording
for ced
he aring
ul a
ul ations
tern al
sub stant
ext ensive
char ged
ord inary
mat ters
Ph ys
bring ing
mot iv
concer ned
refer red
fail ure
inform ed
expo sure
2 nd
5 2
B ir
F all
L and
M ont
ad ium
not iced
comp are
her o
eng er
sto red
ris ks
tre ated
A G
B i
F ull
K en
S ource
T im
c ot
p ull
s ized
s izes
t ics
u ated
v end
im proved
enc oun
min or
person ally
ident ity
care fully
report ing
consider ing
compet itive
cert ified
regular ly
acc ident
emot ional
liqu id
6 4
A ccess
I de
L ED
M at
b ell
c m
i to
v intage
in fl
re strict
it oring
om b
un iversity
em a
pl anned
af t
rel atively
real ize
miss ions
Ro bert
platform s
rout ine
estim ated
estim ates
suf ficient
satis fact
emerg ency
crim inal
B each
J im
O w
O lymp
T ube
f ell
v ital
ed ition
it is
for ces
con crete
oun ts
bo ys
aw a
Ch ampion
gu y
wr it
Fr anc
last ing
Pr ince
invest ors
feat uring
aud i
iter ia
integr ated
brow n
Hot el
igr ation
fem ale
confl ict
rap id
phil os
E conom
G B
H i
M os
V o
W as
p od
t es
and er
he av
ol s
ag ric
Th ough
St at
fore st
ict or
great est
world wide
sal ad
happ ening
mus ical
Per form
recogn ized
park ing
Sm art
admin istr
admin istration
imag ine
Mem bers
flex ible
Rev iew
vill age
Happ y
D V
S oft
T R
] .
b read
b attle
g ender
er o
us her
res ource
cont ext
cho sen
wr iter
mus cle
prom pt
Can ad
Cont rol
fre edom
dog s
Ger many
sam ple
virt ual
situ ations
batter y
libr ary
ugh t
B M
L ive
U s
V ER
a the
f al
f as
g ard
an x
to x
op y
ack now
bl ind
man ual
let ters
Con d
bel ief
At l
equ al
ger y
pick ed
challeng ing
proced ures
I A
S U
s ister
u c
in corpor
an es
ic ial
le ather
ro ot
am ed
con firm
em br
qu ant
ach ieved
ult ural
Pro v
Ar ab
Te le
Min ister
mess ages
record ed
innov ative
conven ient
inspir ation
sched uled
infr astructure
Soci ety
E p
S af
i us
m ous
s cript
w et
ic ation
ad ata
we alth
sp aces
ak a
ca ught
set t
bas ically
sign s
gener ate
organ ic
resul ting
rece iving
lif estyle
ato es
Inst agram
C lean
H and
O per
R ad
S M
W H
m ad
n u
p to
st im
for um
be ar
su c
ag encies
we ap
ast s
coun ty
mon t
bas k
ident ified
che ese
leg ant
cut e
und ers
Man ager
tell ing
manufact uring
bing o
effic iency
consist ent
regul ations
frequ ently
manufactur er
reput ation
prin ciples
Lou is
symptom s
5 9
D u
D ig
F est
R est
S earch
b ike
g or
l ie
in struction
st ars
am ing
un ivers
con vention
ne got
up per
me at
work shop
comp ens
ci pl
att emp
top ics
mark ed
Com mer
Tr aining
arr ived
cap able
Cl oud
Ad min
organ ized
four th
break fast
official s
Val ley
volunte ers
CE O
transport ation
Spr ing
Virgin ia
atmo sphere
J un
T witter
U T
i ety
t aught
th in
re placement
en de
il st
be gins
su d
ter ed
pro spect
qu ar
end ant
gr at
port fol
every day
ific ations
link ed
Air port
discuss ed
Art icle
launch ed
wit ness
capt ure
incred ibly
Ital y
hid den
4 00
C hair
D ut
F our
G ame
I ran
M ot
U l
V A
r aw
st ations
he ight
ul ated
sh ots
co very
br id
au th
coun sel
ho le
sim pl
Pro te
clo ser
sol ve
leg s
poss ess
health care
elect ed
Au thor
dom estic
speak er
histor ic
medic ine
Mod ern
consci ous
C R
H A
M ars
T em
W in
g ro
l on
m ic
r ig
s an
t at
z one
in quir
ac le
ac he
se as
ly n
pro ceed
res to
sh ift
In stead
but ter
high light
Con ne
she et
Ste el
priv acy
Dis ney
draw n
cert ification
Sal es
spl it
% .
D ou
d ates
e ast
t ap
v ast
z en
ent r
im ate
ial ly
me als
str ain
Wh ich
ens ity
col l
As ia
eng age
200 1
cover ing
sc ope
thor ough
communic ations
collect ed
attract ive
Russ ia
orge ous
candid ate
dump ster
norm ally
C ha
G all
G arden
L S
L ibr
S ky
l aser
t ub
st ret
sh ut
cl ar
dr iven
stud io
There fore
Bo x
adv oc
hard ware
la yout
turn s
por ters
Ap plic
resident ial
bir ds
mass ive
affect ed
conven ience
epis ode
proto col
clos ely
0 4
C P
M ass
P rem
R ob
S ho
V PN
d ia
v ic
v ation
v oc
w ers
ou red
ve ter
ne ck
ge o
ca uses
vis ited
Le e
offic ers
recogn ition
lay er
restaur ants
bow l
pattern s
tren d
Dan iel
5 3
C L
F ederal
i ro
r ug
re ar
or ter
al and
and om
ed er
ar a
st uck
st unning
un able
ur ally
cre ates
cr ibe
An ton
inter pret
prov en
app arent
don es
sur ing
az y
sign al
win ner
cu it
break ing
dist inct
engine ering
remo val
explain ed
Mus lim
antic ip
inj ury
controll ed
circum stances
K itchen
K ore
M ax
S a
S qu
S pan
b ird
f if
g on
m i
p ure
on going
re new
et te
us age
ex ternal
wor se
ind ing
In vest
In dones
new sp
man ent
ition ally
spe ction
air port
sk ill
list ening
Fr iend
di am
near by
roll ing
gar age
concer n
vot es
anim al
bag s
upd ates
sustain able
flav or
favour ite
5 7
F air
F und
c able
t i
en thus
or row
se am
wh om
em ber
pl um
not ed
gr ap
gr av
ell a
li ber
make up
mer ch
fil ed
grow n
contain ing
recogn ize
EN T
bul bs
surpr ise
dest ination
Ear th
clud ed
Qual ity
stre ets
sud den
B on
F OR
S ports
e en
m ur
s ending
th y
re ject
at tribut
ad ult
am ounts
ur ation
pro p
ear ned
bo ot
no ise
You Tube
19 7
mon itor
bel t
ext ension
product ive
ret ro
200 2
arr ay
De c
par am
found ed
expect ations
host ed
object s
mort gage
accompl ish
dynam ic
indo or
L ink
L earn
V ictor
b order
g olf
r ated
w an
w arrant
se cret
con ver
we et
de posit
Th er
ell ed
when ever
mon d
mon itoring
emp ty
Se a
speak ers
box es
fall s
match es
stock s
mix ed
fail ed
tur ning
impress ive
certific ate
Franc is
Canad ian
enthus i
3 rd
S A
T ry
b odies
c ow
i at
s in
t one
in tr
an cient
he ating
ol a
ap prov
pr ison
up coming
ren ce
des cription
del ight
design er
organ is
Sh ould
perform ing
enter prise
Po int
suggest ed
Look ing
constant ly
relig ious
Child ren
Academ y
5 8
B ow
I O
M s
M ult
V ery
d iction
s op
ic ations
con ut
ke ys
ma kers
bo ards
att ended
En d
dec ades
got ten
bor row
share s
remain ing
def ense
dry er
tit les
significant ly
force ment
uk a
sil ver
hous ing
categ ories
collabor ation
prepar ation
resist ance
marr ied
bott le
Emp loy
neighbor hood
Ass ist
Vide o
B B
C ons
F it
H ard
L iter
O D
c af
d ers
n ative
v a
w aters
ac ing
ac id
ct s
fr u
qu ote
co ordin
ans wers
sp ark
cont est
no ck
dr am
ade qu
app ing
cer em
gu est
sub mitted
list s
cap abilities
order ed
found ation
incre ases
Le ague
buy ers
roll er
return s
author ities
Fin ally
Stud ents
crow d
apart ment
wid th
luck y
advent ure
improv ing
portfol io
C over
L A
L og
P ict
b arr
l ish
m useum
y ers
’ ,
em ails
ak ed
ang le
head s
issu ed
manag ers
elect rical
invol ve
Sp ir
Sm ith
volunte er
Rem ember
trou ble
Perform ance
2 50
L oc
V E
i ated
v s
om a
se min
op s
ex ceed
per mission
act ing
cl ip
af fil
St ation
add s
set tle
Un fortunately
En joy
Co ok
manag ing
enter ed
exam ples
equ ival
trad ing
ref resh
pan els
print ing
improve ment
feature d
drink ing
Afr ican
Vis it
ultim ate
Arch ite
Mart in
crit ic
sym bol
choos ing
B S
C ast
N on
O pt
Y et
c ake
p un
r am
t ack
t ast
or ation
st ake
am ber
mo ist
we aring
In de
cre w
ak istan
cr ash
cr iteria
fir med
fun dam
Ar ts
trans l
head ed
week ly
exp enses
gg ing
class room
ball ot
lab el
inc ident
dut y
' .
C ir
D UI
J ose
N ight
S H
T each
s can
t u
ig an
ig en
are s
lo go
lo ves
sh el
was her
do ctors
col og
des ired
Tr ad
post ing
search ing
Le g
iven ess
night s
mal e
Des pite
super vis
tax es
cru cial
clin ical
Thom as
A sh
L um
M M
O k
W is
d ust
d iverse
g orgeous
h an
p it
y esterday
re vol
en ables
al ign
ac ious
ch er
wh el
ur a
sp ons
no vel
bl ank
sup posed
trans ition
trans lation
Se lect
ivers ary
pass ing
Air y
author ity
walk ed
host ing
entire ly
communic ate
sens itive
vot er
celebr ate
cry pto
pul led
strateg ic
wid ely
Sen ate
vac ation
legis lation
Brow n
L ine
M u
N iger
P ad
P ot
S anta
V en
b acter
f ers
h oney
m l
m ile
o ven
al ty
ver age
su ng
con vent
if ies
ess ay
fr ustr
gr ain
ann a
trans form
Lo ck
US T
redu cing
camp us
offic er
respect ive
agr aph
farm ers
abs or
sav ings
compon ent
Wr iting
deb ate
curren cy
Libr ary
) ;
5 1
H P
W ild
f its
i ors
k illed
l ad
w estern
en em
as sum
ic ts
st ro
ol ic
ig ate
mo le
oun der
per mit
ell er
str ing
pres er
fact s
direct ed
tem plate
bon us
Ste ve
Au thentic
Fin ancial
candid ates
trig ger
5 4
A ud
F C
H S
H on
J ud
N ever
P ack
T ION
W ay
d ating
g ers
l augh
r andom
en roll
st ance
im possible
op hy
mo ves
res ort
dis cipl
pos ing
Ch all
reg ions
gu itar
del ay
Tr ust
ath let
cons ent
ext ended
feel ings
invest igation
along side
contain ed
suggest s
integr ation
hor se
Sm all
express ion
flex ibility
satisfact ion
! "
0 1
C ape
D C
E f
E li
L ittle
M ir
f ellow
p ill
th ir
is k
ic ate
le mon
ch art
lo sing
ers hip
igh ter
co ck
gr ass
We ek
techn ique
exp ans
Br and
appe al
AT ION
Car ol
stop ped
function al
compl iance
Ze aland
B all
c rop
h ers
h ang
h arm
m ph
w ave
in ent
ou l
el er
ch ief
be er
tr ips
op ens
sh ire
per t
cr ime
ple ased
sur gery
jo ining
gl ing
avail ability
fil ter
nam ent
cam eras
respect ively
maintain ing
contribut e
schem e
writ ers
C red
G ir
J ay
N av
O W
P T
V C
r ick
t ip
th read
in spection
on om
the ory
or ient
ir ts
com ed
fe ction
comp at
bl end
ful fill
ph r
read er
sup plement
Com ple
Pro per
Ex peri
Ex press
real ized
ben ch
consider ation
purch asing
respons es
Ste p
deal ing
Sy r
Don ald
print ed
photograph y
sou l
Profess ional
demo cr
Color ado
stret ch
E state
M ex
N um
R ight
S Q
b in
b anks
f is
l ined
r ice
s ad
le te
su spect
we igh
out come
rel ief
inv ited
For m
eng aged
ven ues
ret ire
publ ishing
poss ibility
dep loy
spec ified
plac ing
Te ch
sever e
flow er
connect ions
concer ning
contract or
regard less
decor ative
guid elines
dish es
pleas ant
chick en
Fest ival
gor ith
Span ish
J ul
L ind
P ut
c ue
l ift
m oun
r ome
s of
t went
y ellow
in depend
re presents
lo ving
pr inter
some what
some where
fin ishing
should n
view ers
main ly
ext reme
clo sing
Ex am
gener ated
pass word
Lo cal
mill ions
bed s
stat ements
gover n
RE E
199 0
lik ed
Part ners
Per haps
Qu est
autom atic
Web site
immed iate
surpr ising
inde ed
hur t
licens ed
4 th
6 00
9 6
F ac
H om
H im
P ac
R am
R ol
W ould
Y oun
m ate
n ine
s lot
ing ly
ar rest
ro les
ch ampion
su me
ap ple
iv ate
pr icing
end ar
up grade
over whel
fl ash
rel and
Tr ade
ext ent
clo thing
dec ade
par agraph
Be ing
mus cles
uck y
gre w
IS O
Of fic
Cor por
SE O
increasing ly
fal se
B ob
E A
M umb
S ound
T ok
T ax
p ink
r ay
an i
ent it
ot ic
art work
per manent
ind er
gr y
sp ots
dis put
them es
je ction
Ne ed
put s
head ing
enjoy ing
fig ures
drink s
award ed
coach ing
eval uation
Angel es
Islam ic
Bud d
Dig ital
equival ent
0 8
K ent
M ade
S O
S eas
T ay
c s
g ut
n arrow
v ine
re tain
en suring
il der
el ly
ch apter
us al
con cepts
de eper
end ers
inter face
vers ions
vis ible
view ing
ath y
care ful
too th
happ iness
special ist
hol der
sho ck
typ ical
draw ing
continu ing
PS A
Hol ly
execut ive
Je wish
Cur rent
consult ation
lap top
attor ney
Sum mer
propos al
Vill age
bask et
Indones ia
Mumb ai
( “
A h
B ul
H en
L iving
P y
P en
P ubl
P akistan
b are
d edu
m ac
p as
s q
s ink
t iny
u zz
re ward
to od
ab y
if i
pl ed
pr ize
bo o
comp ass
fer ences
str act
produ cing
att ress
He art
cons ists
Pro c
hand ling
program ming
vent ure
test ed
fac ed
gre es
sell er
rep airs
Fo rest
Me an
II I
appl ies
prim arily
prefer red
veget ables
marr iage
manufactur ers
Rich ard
wire less
gall ery
adopt ed
Cus tom
cot ton
B it
E U
I reland
K a
L D
M en
O K
O x
W i
b ury
d il
p es
s ick
in tim
and a
le man
st ers
he aling
et ime
ig ent
ill ness
Th us
end o
cr ack
spe ech
ian o
Com mon
ix el
pol l
applic able
struct ures
199 8
fit ness
match ing
cook ies
Rep air
Pol icy
langu ages
spo ke
fair ly
scient ists
hosp it
Shop ify
prepar ing
egg s
cris is
shar p
unders tood
auth ors
seam less
0 3
0 6
F ar
F ig
H aw
N A
P ur
W E
W a
p ace
r ust
w ich
or n
st ir
se ctions
su s
ur ning
con clus
ul um
your s
form al
cus h
min i
tom orrow
stud ied
For d
book ing
emp ower
program me
bre ast
enter ing
With out
control s
tell s
strong ly
advert is
implement ation
thes is
grant ed
assign ed
fing er
Trav el
rat io
accommod ation
approv al
hers elf
B ase
B ible
B ath
B uck
D ark
G M
L ev
W ant
e ed
h ide
l ies
p ad
or a
al gorith
is ol
st ack
ab use
con firmed
out comes
sh ine
pr a
col le
fin ance
air craft
set up
less ons
check ing
benef icial
def ault
spect rum
mag n
worth y
Pol ice
reser ve
reser ves
surpr ised
Wed ding
cat alog
photograph s
Mag azine
Mid dle
Nat ural
repe ated
Rom an
citiz ens
param et
0 5
D om
S her
W A
b one
e legant
g ap
h at
v y
о в
in fect
the less
il er
you n
ut es
un a
un expected
mo od
de ck
20 20
av en
man n
St ill
col ours
peri or
lar g
clo ck
Pr ior
Or der
pack ed
complet ion
Par liament
har mon
err ors
Ge org
frame work
Profess or
suffer ing
ju ice
obvious ly
Creat ive
conserv ation
fas cin
entr ance
Spir it
4 3
? "
B ased
C li
C ross
F low
L Y
R emo
T enn
c ers
c ott
c odes
d ess
g reg
t all
t ill
y an
re placed
the tic
as sem
de grees
any more
gr ab
li kes
new ly
dr ag
int ent
ren der
fore ver
bel ieved
eas es
activ ely
aim s
stat istics
whe els
exper im
defin ition
Gu ide
contract s
acc eler
estim ate
except ion
authentic ator
Char les
sav ed
tren ds
reve aled
ultim ately
establish ment
dete ct
sco red
attach ed
satisf ied
elimin ate
contr ast
Swed ish
suc ceed
dia bet
cerem ony
SQ L
1 20
6 7
8 7
B R
G ive
P op
c ured
r ush
v ess
in ches
re ly
es h
is a
ac cord
wh ilst
ur l
Th ree
po ker
In surance
ma x
cr uit
br ill
dr one
Ch apter
ca using
ian ces
view ed
fact ory
fol k
ra ising
Bo ston
access ories
law yer
Americ ans
ground s
require ment
depend s
mar gin
stay ing
travel ing
tour ism
comput ers
Just ice
percent age
loss es
stain less
except ional
mir ror
System s
beha vi
PD F
pleas ure
Kind le
anx iety
fis cal
youn ger
0 2
B ol
B road
C ome
D E
H T
S us
Y e
a fr
at ics
as sembly
ac counting
et ic
um s
co gn
av a
comm and
comm only
Ch ief
og ue
person ality
leg it
No v
plan et
house hold
Res p
exper iment
fit ting
Fo re
hab its
correct ly
advant ages
htt ps
obtain ed
Int rodu
cab in
IB PSA
invent ory
Bed room
LL C
Dut ch
? ”
C ut
E le
G E
a er
b ass
c art
d ash
z ing
z il
al ter
it i
ch ronic
lo ose
ill ing
op posite
res idence
sh ell
wor st
po cket
up grad
co conut
St one
ef f
down town
Con serv
trans actions
arr ive
Cl in
redu ction
reach ing
199 9
suggest ions
mix ture
accept able
recommend ations
ches ter
Am ong
cry stal
promot ion
streng then
hop ing
vit amin
Inst all
nur sing
initi atives
Lat in
Beaut iful
inquir y
! )
' ,
A ward
B achel
F i
K y
L ic
L ow
R ef
Z PN
c od
l ake
p ipe
s ought
st ic
st itch
st ery
ac ed
el lect
ag ues
ul ing
int ention
prov ision
aw ards
col oring
cho se
As ian
ific ial
Pr om
meet s
test im
Jo in
model ing
address es
Reg istration
tee th
cool ing
bul b
vot ers
minim al
Austral ian
controll er
Ty pe
drug s
Democr ats
sor ry
strugg le
grap her
fru its
Pac ific
6 9
C ab
C OM
C reek
C opy
G D
M other
M aterial
P ier
R ail
V i
d f
d ental
f lying
с т
at ivity
se es
et ch
mo on
pr ide
ind u
pre ced
her itage
min ing
Re port
del ivers
differ ences
develop er
Ar sen
On tar
follow s
lim its
dev ot
flo od
click ing
author ized
tour ist
exist ence
particip ation
cir cuit
refer ences
associ ation
celebr ation
fab ulous
holiday s
hop es
indic ate
zer o
ensu s
archite ct
archite cture
origin ally
compar ison
attor neys
Engine ering
pep per
Ide as
sop hist
Lum ia
Chall enge
expans ion
Ontar io
9 00
A gr
A ge
A wards
B ang
H u
P enn
a es
b age
p ine
r ings
in cent
re nov
as y
il ly
id ers
ther mal
any way
ach es
work place
str i
inter action
prov isions
off ices
des cribe
Pro cess
Al bert
sk illed
prof its
ret urning
arr ival
exam ine
public ation
strong er
invol ving
Sp ace
gen u
approach es
hon or
represent ative
Cont in
Mr s
object ive
suppl ier
serious ly
Sam sung
88 8
Sto re
passion ate
Bra zil
swim ming
larg ely
3 50
7 2
B O
F R
H un
M ike
R on
T ha
b ond
f ired
n m
p ic
r ack
s lo
е r
re sume
ar io
as ide
se al
ch a
be ans
ag ar
pro s
pl ot
ex posed
qu is
iz za
dis eases
You th
pers ons
And rew
io x
list ing
sign ature
ric ulum
Col lection
wal ks
dam aged
break s
potential ly
gain ed
clim bing
broad cast
trust ed
pray er
nutr ition
shoot ing
____ _
belie ves
Person al
danger ous
DV D
igen ous
A gain
B a
C in
D aily
F ix
K at
M ah
O ak
S D
S n
S on
S pain
d ated
h ill
w ins
y oga
in f
en forcement
al k
st able
for th
em on
iv als
pr ime
cr azy
dr a
int on
tain s
fun ded
cons in
sm ile
develop ers
fol ks
ins ight
Pr int
fil ms
Sh ar
la id
pack ages
nat urally
news letter
represent ation
Get ting
nation ally
slow ly
Sen ior
intell igence
Wis consin
6 2
D ue
F resh
G ames
H ER
M UST
U L
b ars
c ater
h ate
k il
o h
p our
t emporary
w ines
en abled
al leg
il legal
se ed
ch ances
ol id
et ies
ig s
cl er
gr an
dr ain
des er
fore cast
eng aging
sm ell
ins ights
oper ational
Pl ant
lim e
Col umb
trad ition
hum ans
Ind ustr
watch ed
contract ors
represent ing
mag azine
integr ity
spr ay
apply ing
introdu ce
introdu ction
inj uries
dream s
liter ally
ensu res
initi ative
desk top
Hist ory
entreprene ur
complic ated
1 000
B es
E ll
F arm
F REE
H as
N AD
P age
R R
T urn
d ad
f ounder
o z
y ards
z ip
th on
re action
as set
st ones
om s
ch ron
ad mission
ir a
pro b
tr ay
de fic
cl ude
dis covery
bl ow
inter active
ang el
fin est
every where
rel ations
mem ories
bre w
Br idge
direct ory
Res ume
tow el
employ er
visit or
sw ing
sens ors
prior ity
Add itionally
imm une
essential ly
chair man
gam ing
Ob ama
Jack son
polit ics
Det ails
Cre ate
Lim ited
tut orial
tat too
Squ are
mur der
bacter ia
6 8
9 8
D er
E ver
G olf
J i
J ones
L i
O cean
V ent
b at
c oup
h anging
l en
m ud
o cean
t um
t ired
al a
as ks
am m
ha w
ex plan
sh ade
Th ink
pr ises
gr ate
has h
iz er
some how
int ense
reg ulation
ob served
att itude
find s
design ers
Co st
With in
sty lish
employ ed
flo oring
request ed
continu ous
character istics
encour aged
suppl iers
attack s
jud ge
guarant eed
convers ations
GA AP
scen es
Democr atic
Gold en
rec ipes
princ iple
vic tim
Liter ary
Columb ia
C lear
D ie
M D
O ct
R un
R ust
S l
W omen
Z one
c av
i i
i ates
j a
n arr
t ie
v ict
v ibr
z o
th s
in ated
an th
re v
or ange
ch ips
ad option
ot al
ir r
so ver
um es
ach ie
sp on
int ellect
St an
pres sing
coun cil
fin ancing
vis its
Re cent
bas ement
Con sul
sub sequ
ext end
product ivity
activ ated
invest ments
comple ting
por ter
Nor thern
hot els
bur gh
sem i
cook ed
particip ating
subject s
deliver ing
request s
maintain ed
Associ ate
Ho sp
Trans port
club s
dest roy
carry ing
viol ence
gent le
Phil ip
Mach ine
schol ar
Mich el
Que en
Further more
gard ens
Experi ence
Tok yo
Tay lor
% ,
0 7
L earning
O C
U t
W inter
b icy
c ro
d ies
h r
n ike
p endant
t ro
re in
as sert
be th
ce iling
mo du
de cent
li ver
br a
produ ces
fun ny
sto od
Ex p
par alle
poss ibilities
bre ed
move ments
bal anced
check s
focus ing
install ing
wood en
199 7
sho re
sl ip
Gu ard
track s
war ning
host s
improve ments
sat ell
object ives
respon ding
deep ly
explain s
implement ed
consum ption
meaning ful
industr ies
gam bling
Bel ow
initial ly
Ret r
util ize
Word Press
pil ot
adequ ate
entit led
Mean while
brill iant
modu le
A ff
H E
I ce
R a
S ave
] ,
f u
g od
h ug
i Pad
n is
r in
r if
t ab
t ape
v ul
in ery
on ed
ing u
it ory
ic ip
be an
be half
ol ive
ct ive
su ite
su perior
ut ility
de em
sh elf
has n
li ability
bo ss
cal m
cal ories
sure ly
great ly
Com pan
Pr act
child hood
Co ach
important ly
train s
fac ulty
Dr ive
Fo ot
Cr u
represent ed
Pe ace
dress ing
occur s
occur red
Plan ning
eval uate
assu me
emer ging
shap ed
Eas tern
philos ophy
Saf ety
fundam ental
diabet es
7 3
C ON
D iet
G ent
H al
N ok
P os
S or
S ty
m ouse
m attress
r ied
s ail
t iff
re fund
st amp
el ing
ch airs
ne ut
res ent
qu il
ant ique
ge ar
An sw
att ending
tal ks
Ex change
ax y
gy m
plan e
cy ber
di pl
purch ases
flo ors
comb ine
necess arily
invol ves
sens or
vot ing
Stud ies
lif etime
campaign s
sam ples
evol ution
schol ars
CB D
decre ase
cycl ing
emphas is
consequ ences
Comput er
compat ible
F ish
G reg
L uka
M and
M oney
N P
N ations
N ature
b ands
e book
t act
in spect
al er
am end
pl ied
de leg
co at
comp ress
ser vers
inter act
As k
should er
Con f
Ar men
gener ic
gy pt
pat ent
special ly
US B
Res ort
buy er
focus es
ball s
hol es
hy dro
mar ine
Me thod
track ing
appl iances
contribut ion
acqu ired
Brit ain
mountain s
expand ed
earning s
dut ies
Stand ard
arrang ements
eco system
Hist or
expl oring
Cond ition
Rad io
compens ation
revol ution
C Z
D ream
F ab
H ou
M ur
M ess
M ix
V ers
W I
b old
h t
k i
t ures
en o
al umin
il ton
pl ing
fr aud
pe ak
gr ants
An aly
St or
Tr u
mem or
eng ers
person nel
Al tern
rece ip
equ ity
Do ctor
beautiful ly
flow s
fast est
remain ed
assist ant
lands cap
extra ordinary
Every one
stor m
cab inet
gather ed
subs id
habit at
Market ing
-------- --------
entreprene urs
acknow led
gon na
twent y
B ag
E qu
E gypt
F act
H arr
S ug
T ar
e c
g i
p ounds
r anging
u ment
re mark
ent ity
se eds
ol ution
su res
tr as
op posed
fr iger
ex ists
od d
end a
cre ativity
cr ush
ber ries
ple ments
fl aw
Tr ack
gram s
To y
point ed
ris ing
!! !!
dem ands
compet itors
stay ed
Me et
mag ic
Cont ent
blog s
lock ed
path s
compl iment
suppl ied
rom antic
demon strate
mist ake
Av ail
rapid ly
Econom ic
pod cast
newsp aper
organis ations
Niger ia
convent ional
retire ment
Arsen al
( $
9 7
A K
E ss
G H
N T
P sych
R ose
S B
S end
S av
S ense
T ree
c ia
i as
l ers
n ie
p df
r ation
r iding
s cor
t une
y n
re str
re fin
it able
ad el
ce ived
ag en
com position
ne ither
op position
end less
ach i
ak ers
ak sh
low est
back s
10 th
less on
iss ions
ann iversary
che aper
leg end
Pr im
oper ator
loc ate
load ed
hard er
hard ly
power ed
prom ised
bed rooms
Bu y
199 6
ino is
fall ing
ele v
clim b
iam i
Pre vious
accur acy
Ber lin
thous and
inspir ing
Cap ital
Blo om
construct ed
pregn ancy
oles ale
agric ulture
apparent ly
warrant y
Carol ina
Youn g
colle agues
grate ful
B aby
C ro
E aster
F ast
G a
K im
M un
T un
T imes
W W
b ay
i per
o le
u er
th ro
on ial
re ception
ar ian
et ry
ut ional
ur b
ur ious
con vey
lo s
mo date
fr anch
ha z
sh ad
sh orter
ant ib
work out
cre en
ib l
sp a
str ange
dis pos
ick et
dif f
cons olid
clo sure
special ists
equ ally
press ion
invest ing
Jo sh
contain er
Sim ply
Every thing
encour aging
contribut ions
Her itage
Are a
promot ing
Over all
medic ations
Hel lo
gold en
efficient ly
reve al
accom modate
conv in
nav igate
Follow ing
Ill inois
facil itate
quot es
Rest aur
Gall ery
Holly wood
afr aid
? !
D ol
G _
M Y
P ers
T am
f iber
g utter
j i
l oud
re lying
at om
or ous
is ms
om er
be es
ab und
ab stract
un i
ur is
con version
ust in
sp acious
19 76
je wel
rel ative
ath on
trans action
sign ing
Co ordin
cut s
Br ad
Wor ks
Au th
Gu ys
phys ician
text ure
talk ed
Ho ly
consist ently
capt ured
authentic ation
Mem ber
optim al
Tur key
exhib ition
Sil ver
legis l
rub ber
jun ction
rank ed
wis dom
substant ial
vend ors
Conne ct
Kore a
Copy right
sophist icated
Retr ieved
B ody
C ase
D og
M ust
M att
P I
g gling
l ip
m its
p ip
s our
t ender
v ard
in her
re cruit
es is
ab and
lo b
ap ol
so red
ure au
We ight
str ip
int u
col leg
ob serv
where as
let ting
For ce
Al li
hand y
Se attle
arr ange
az e
No thing
Ad vis
few er
special ized
bab ies
Ap pro
tem plates
gre y
treat ments
connect ing
Fo x
flu id
lat ter
saf ely
Min istry
craf ts
distribut ed
hi king
Sol utions
iny l
Ann ual
dur ation
Tal k
Sou thern
Cas ino
mut ual
Atl antic
interpret ation
vul ner
A venue
B an
B at
B and
B lock
C er
C ath
F ather
H V
J eff
K ans
M iami
P ick
Q U
T X
g el
p ets
on ic
the ast
to ile
ed ges
le af
ac cus
im plic
un usual
ur t
pro hib
con vert
em bed
ex ha
pr ints
wor n
ist a
ast ed
dis charge
ang ers
19 th
pt on
car tr
fl our
sup porters
design ing
Al ways
develop ments
trans formation
az a
At tor
direct ions
employ ers
check ed
Mar ia
Ac count
road s
cast le
har i
Build ings
qual ify
Up on
rout es
feed ing
acqu is
instit ution
scr atch
fan cy
Ear ly
Sto ck
Ret urn
Bro ok
bott les
opin ions
situ ated
Product s
Ve gas
Lab or
fest ival
painting s
Soft ware
weap ons
Admin istration
Francis co
intellect ual
2 16
C a
K ir
X L
b unch
e er
l ady
m ates
p ens
p enc
t ile
u co
v ous
ç i
re call
en or
al ive
it ter
st s
ro g
su its
un iverse
ter ior
The atre
ex port
sh if
Th ings
20 th
St ay
col umn
ang es
bu ck
cent ers
fl ights
gu ides
prof iles
clo set
Pr ime
Ex t
gener ous
loc ally
ask a
Lo om
Ro ber
second ary
elect ron
law yers
Col l
priv ile
comb at
rad iation
Reg ard
official ly
target ed
block s
El çi
Commun ications
Mem orial
beach es
clud es
rare ly
Pan el
argu ment
Fil m
quar ters
sudden ly
stake holders
Ef fect
Proper ty
sof a
Nok ia
3 D
7 1
B ear
C F
C lar
D ar
G or
G ard
H R
R C
R ent
S W
U ser
a ired
b ills
b aking
t ank
w ider
in er
re now
ed ia
st adium
ac les
ro se
ro bust
ch ap
de but
fr ames
sh irt
can cel
um my
ma ker
bo ots
ans en
cr usher
str ive
dis ability
br ick
aw n
St ory
ph arm
produ cer
high lights
gu ards
Un ivers
eng ines
care d
trans parent
leg ally
Ad van
organ isation
graph ical
Man ufact
contain ers
gar lic
Sy n
cult iv
wer en
pick ing
ES T
grad u
AR T
cript ions
represent atives
Fin ance
park s
glass es
ran king
Stud io
reser ved
implement ing
surround ed
Gl ass
Pal est
abs ence
tw ist
tag s
frequ ent
emot ion
relig ion
Bas ic
talent ed
chemical s
instru ments
intell igent
instant ly
univers ities
resto re
Cons ider
spons or
Mex ico
Kent ucky
Georg ia
Ye ah
5 th
C ze
G y
M E
R yan
T ell
e colog
h ence
l ens
m old
n t
p sum
r ors
in ar
on der
the atre
at ile
al o
al ysis
is ure
to y
it ting
st ability
il ation
il ty
el der
ro ots
ro yal
ad ap
id al
with draw
un limited
ag gress
tr ash
ne uro
if ier
res id
oun ce
art ificial
form ing
ish op
An im
over view
inter views
int end
au ction
ult ane
land ing
Con struction
Tr ail
fol der
cour age
val uation
sing ing
load ing
prom inent
cas ual
Af fil
Wor king
tribut ion
Or ig
ste ady
tar gets
print able
AP I
def ine
div isions
Sup reme
resol ve
Read ing
King dom
insp ire
sou thern
Jer sey
assu red
Ag ency
Environment al
caf fe
Pict ure
Eli za
Current ly
accord ance
spon sored
Hou ston
Loom ans
B log
D ump
I ra
K r
N ice
N avy
R ay
R achel
S elf
T en
T ai
U r
V I
V iet
[ [
i ary
l u
m b
p el
t age
t ours
w ake
re y
re cept
re ply
ed it
le ep
ad op
ad mit
ver ify
su red
un ion
pro secut
ul pt
sh r
um a
In tegr
no se
br on
man if
inter vention
want ing
cal endar
Con tract
olog ist
char ging
sal ary
oper ated
18 0
els on
profess or
Res erve
Or ange
sho e
fill ing
period s
wish es
else where
recommend ation
Reg ister
21 st
acc um
Im age
mass age
nut s
acqu ire
surround ings
advis e
stream ing
impress ion
carr ier
liter ature
config uration
scen ario
plug in
lamp s
Cho ose
instru ment
Ir ish
bour ne
obl ig
administr ative
attemp ts
Applic ation
Loc ated
satell ite
Restaur ant
exha ust
Cze ch
C ry
E s
G ifts
H old
H air
K n
P ret
S I
S ir
S top
S ever
S ER
U k
a than
b atch
c ulation
c ouch
g iant
h ike
l an
p ha
r ival
о д
al es
ac o
ro b
ch ip
ab road
de pos
In nov
cur riculum
19 70
don ations
rel ating
tom ato
Un like
sim ultane
stru ggling
ann el
trans mission
opt ional
Mo ve
met adata
individ ually
review ed
pack ing
trav elling
respons ibilities
vo id
scre ening
AC K
wonder ing
collect ing
brow se
prevent ion
warm ing
tele phone
EL CZ
spo ken
consul ting
express ed
Inter est
Ob ject
virt ually
surv ive
EX AM
sole ly
modif ied
Republic an
prec ise
repe at
electric ity
Eas y
Ly n
Lar ge
ende av
moun ted
Bit coin
paramet ers
fascin ating
Introdu ction
Viet nam
C ivil
M t
M atch
P ow
T ro
T ower
b its
c ence
m art
m ary
m ount
p ig
p ound
s oup
t ent
th ma
in cur
an ony
an ches
to ys
ar thr
ch ed
ve t
am boo
ir ty
In fo
cor n
bu b
bu ff
au x
produ cers
experi encing
build s
Pr ivate
resul ted
ord an
pat io
nor thern
Coun try
past a
mind s
study ing
super b
stit ution
diffic ulty
More over
separ ately
Hol iday
describ es
Je ws
Spe ed
emot ions
gather ing
mechan ical
illustr ation
rail way
rupt ion
Cert ified
depart ments
encoun ter
tox ic
athlet es
hospit als
Bes ides
vict ory
Ira q
! ”
8 th
9 1
A x
C T
D y
G T
G row
K ay
M ount
P a
P s
S em
S ure
S hel
b ors
d iversity
n ail
p izza
t emp
w aves
е н
е ѕ
or ate
es cape
ed iting
st airs
ac ular
be e
ad ed
un certain
un known
ist ical
co sm
co operation
work shops
comp elling
iz z
over come
des c
cur ious
gu ilty
Re qu
Pro du
sol ar
think s
list ings
pol ar
post er
gener ations
opt ical
follow ers
pass es
perform ances
All en
cost ly
pot atoes
pain ted
tra it
ON E
begin ners
Che ap
sent ence
among st
Sim ple
gain s
Cor ps
imm igr
Techn ical
IL L
retail ers
mist akes
dur able
investig ate
Gal axy
icon ic
Mich igan
Vo ice
negot i
Commer ce
iro pract
Jose ph
Cred it
dedu ct
Cath olic
HV AC
B ad
B ird
C ould
I ron
K an
N ur
P ump
R s
S L
W ow
g ig
h ack
k ne
es see
al ert
ic ipal
se cured
ch op
ver sus
An alysis
des erve
mer ely
inv al
Co ol
real istic
net working
photo grapher
wood s
dam ages
AC T
Fe b
dig est
pen alty
Sp ider
cop ies
knowledge able
display ed
lay ers
fre el
prem ier
document ation
altern atives
Val ent
tag ged
frequ ency
Lu ke
absol ute
Met adata
threat s
Elect oral
exclus ively
subs cription
fight ing
Bre ak
divid ed
obl igation
sett led
Commer cial
dram atic
Avail able
Advan ced
caffe ine
" "
6 3
7 9
A Y
E V
E mail
F M
H ad
K ings
L ib
L ady
N elson
S ale
S ony
S aint
T E
T w
g ross
h ou
j et
m igration
n est
s ne
t ube
і ng
in se
in os
re con
re med
the ater
ou ter
ic ting
el and
am en
us ive
un dry
ag enda
qu ilt
ther ap
work er
cont ents
Wh atever
ful ness
Ch ess
inv o
inv ite
olog ists
jo ys
stru ck
hand ed
Ex cell
run ners
12 5
gg ed
custom ized
Col lect
Mar ine
Ste phen
Part icip
select ing
grad uated
rad ical
sens it
Thanks giving
consist ency
nes ota
sn ap
pow ers
mechan ism
Stand ards
citiz en
NE W
pregn ant
Olymp ic
incorpor ated
fif th
Seas on
explan ation
Aff airs
Eliza beth
arthr itis
A e
A ction
C N
C V
C le
C offee
F O
F ive
F eder
G ift
J ob
K ong
N ame
R ome
R ick
R ather
R ental
R SS
V L
W ine
b ou
d ney
j ail
l ord
l ane
p he
s ion
t rem
v in
w and
е t
ed ited
ar c
it ative
ro d
se ating
lo op
lo gin
ex it
ex ts
out let
sh ed
qu ery
ment ary
act ed
form ats
sp el
sp are
dis tract
dr aft
ll a
St adium
ph y
des tru
row s
every body
car ing
don t
top s
Re ally
find ings
cour ts
Fr ame
sing er
Pr ice
Ex cel
-- -
prom ising
press ed
struct ured
Ph D
Ind igenous
hy per
redu ces
Au tom
address ed
vari eties
claim ing
table t
heart s
discuss ions
dist ingu
phys ically
glo be
Min nesota
hor izon
lin ear
log ical
smo ke
display s
div or
imm igration
Cour se
apart ments
transfer red
Spe c
remind er
wild life
ox y
dete ction
sco res
Swed en
prompt ly
stro ke
genu ine
7 4
7 00
A z
A ustin
B L
F I
G R
G ary
J ama
K ids
L ot
P ath
U V
c col
f are
f itted
r ural
t о
x x
а r
in ate
in sert
re vis
en viron
ing er
st ages
ent ries
con cluded
all ic
we ird
de lete
sh irts
oun ge
can cell
ok ay
port able
ish es
dis orders
man ip
dr ome
dr ama
cor responding
reg ards
fl oral
tom atoes
ict ed
she ets
mem br
ash es
process or
char ity
ton ight
organ izing
blo gging
ord ination
law n
sc ulpt
Coun sel
mat ic
mom s
plain tiff
199 5
rep et
stop s
meas uring
meas ured
comput ing
Qu ick
collect ions
autom ated
speed s
cure ment
regul atory
fa ult
indic ates
identify ing
Har ry
TM L
Post ed
Met ro
occas ions
Tur k
Oh io
Lin ux
Trav is
rec ip
Div ision
jack et
hub anes
BM W
embr ace
attemp ting
thorough ly
anticip ated
plum bing
Inde ed
Jay al
overwhel ming
legit imate
Answ er
receip t
renow ned
9 3
A w
A part
C ub
D R
D ub
G il
H TML
J a
L ess
L ux
N ut
S ite
T C
c ats
f ed
f iction
h iring
m ers
m ature
n ations
t issue
u ous
it z
le ague
il a
ac compan
ch est
lo d
em pl
tr im
so d
ant ly
up hol
ust er
do s
ma th
ear s
ign ore
str ike
An ne
inter pre
int ensity
Ch annel
wo of
had n
ian a
gu ided
sur g
sub tle
hand led
ann ually
De af
pay roll
Cl ay
special ty
Lo v
la undry
elect ro
Dr agon
clear ance
cred ited
crip ts
cult ures
concer t
method ology
protect ing
Rep resent
tre as
answer ing
celebr ated
mod ules
attract ions
imag ination
preci ous
inj ured
analy tics
medic ation
optim ization
Del ivery
peace ful
Spr ings
Elect ric
IF RS
Class ic
Cus tomer
facil it
reject ed
Victor ia
Ven us
Cli ent
achie ving
Compan ies
Gent leman
dipl om
environ ments
6 1
9 4
A li
D am
G ree
J ane
K nock
M ind
M arr
N ick
O ft
P E
R ud
R ights
S i
S pect
b att
c ous
f ib
h en
p iano
t ied
v ice
” )
in ity
on ion
on ies
re cover
es tr
se cretary
be aring
ay a
ag an
op pon
de ar
de fe
pr iced
wor ried
act or
any time
ind icated
li x
du al
my th
sp an
cr ate
An th
dr ives
ph ia
col ored
cus sing
back ed
back yard
19 50
sup plements
Al an
leg acy
Pr in
Br is
Br ing
Gr ade
win ners
ste am
conf usion
sell ers
respons ive
vo cal
Sy dney
fall en
Dis cover
mag ical
mag net
hope fully
craf ted
pool s
tur no
terr or
pet ition
exerc ises
Ben ch
consum ing
adjust ments
push ed
roof ing
president ial
Jer usal
limit ations
calcul ated
arrang ed
tun nel
Mary land
princ ipal
Ev ents
DI Y
heav ily
agric ultural
Author ity
Anton ion
phr ase
Syr ia
conclus ion
adel phia
aksh mi
Rober ts
Ae gir
Jerusal em
A ut
C I
F u
G P
G as
H an
N ob
S K
S ay
S ree
S pot
W D
c c
f ax
h its
i ac
i OS
m aps
v able
z ed
in corporate
on a
on ing
re venues
is ters
ar ia
as thma
st ur
ac res
se gment
he im
ad ing
ow ed
am ic
de let
gh an
but tons
bo ther
form ula
sp ell
some body
pre v
Ch i
St ick
back pack
let te
10 1
Un it
wr ap
clo th
ret reat
char ming
De cor
gl ue
Pr ague
fil ing
oper ates
Bo y
Mo vie
Sh are
Sh ort
bro thers
Dr aw
aim ed
11 th
IN R
Ap ply
gre et
AT E
stay s
Fe el
Cr im
bur ning
Su ccess
spect acular
exc av
respect ed
mix ing
appoint ments
SE C
answer ed
spo kes
influ enced
anc ers
instruct or
push ing
eval u
Auto spin
fortun ate
tail ored
Ter ms
lux urious
Mill er
AA ID
insul in
sex ual
Bir th
restrict ed
weap on
Tem ple
Cast le
Ox ford
vess els
devot ed
Attor ney
Jayal akshmi
9 th
A long
B U
D un
D oc
E st
F inal
G ul
L ater
M L
M as
M uch
N emb
O l
P rep
S ab
S creen
T reat
d irt
h u
p uzz
s tom
v inyl
о л
re tr
re cru
re friger
to ler
ar o
se ctors
be ats
be gun
ve ys
he ated
et ics
ig e
un likely
tr ails
ul u
de fect
art istic
te es
gr ace
ma them
sp at
ak en
ia h
cr ust
dis counts
dis cussing
man ually
pres erve
bu cket
sy l
ob st
car ri
cer y
sur ge
Re cords
ath ers
And y
wr ites
sol ving
tal e
process ed
Ad am
met ro
pract ition
Jo y
tow els
ER S
expect ing
town s
199 1
199 4
compet e
table ts
Per fect
plant ed
phys icians
popular ity
recogn ised
accept ance
integr ate
function ality
agre ements
Cent ury
Up date
terr ible
advis ed
Pal ace
Gover nor
scr ibe
enh anced
bound aries
appreci ated
temper atures
sustain ability
remind ed
relax ed
veget ation
clin ic
resist ant
eth nic
constit u
coast al
Champion ship
audi ences
veter ans
merch and
govern ments
Hen ry
iox id
Ji ang
alumin um
Alli ance
simultane ously
Oft en
Antonion i
Nemb hard
A gre
B BC
C ell
C os
H L
H op
I mag
L angu
M B
N one
P od
S wit
V eter
b out
d ar
d ot
j ug
j uris
o res
r hy
x y
р а
re set
re sem
the w
is er
to s
ar ise
for k
ch ef
ter y
ag ers
em an
do se
der ived
bo hydr
sp ouse
cr imin
pre d
br anches
inter actions
cor respond
ang les
back up
19 60
As sess
design ated
sub mission
show case
sol ved
ins on
par liament
gener ating
Cl imate
var ied
oper ators
pass engers
aut umn
Ro y
met ers
bro ke
ling ton
ref uge
Mar c
hy brid
sell s
music ians
camp ing
Fl ash
scre ens
Des cription
ES S
bur st
excell ence
commer ce
Well s
198 8
Trans lation
Book s
copy right
pup s
clud ing
trail er
Israel i
nic ely
IV E
Sur vey
subs crib
umn i
Fort un
epis odes
constit ution
nav igation
cris p
Bet ter
announce ment
restrict ions
belief s
Bow l
refresh ing
Offic er
gut ters
Lic ense
testim ony
stri king
Hosp ital
assert ion
Uk rain
sensit ivity
ccol i
Swit zer
! ).
% )
9 2
C AN
C ele
D ress
E F
E ric
F urn
P urch
R he
R aj
S mo
S ize
b ite
b und
c ents
d or
e ign
f ur
f ake
f ails
h att
l b
l ining
m ild
p ads
w iring
о б
an no
er ry
er als
re verse
en i
al ph
al arm
to ss
im per
un fortunately
ur er
con junction
ke en
ex plic
od ge
ud es
An t
Ch rome
col n
ink ansen
19 80
fl ies
inv itation
world s
De ep
Pr inc
Cl inton
organ ize
Sh inkansen
load s
vir us
Gr ad
Gr aph
unt ary
bro ker
public ly
pain ful
Man chester
cu is
ste in
roll ed
treat ing
compet ing
bar a
def end
cir cle
manufact ured
remo ving
drop ped
Stud y
198 2
achieve ment
pul se
analy ze
Mod el
adjust ed
coach es
decl ared
entertain ing
relax ing
Phil adelphia
advent ures
mes h
William s
patch es
propos als
Lead ership
occasion ally
Tor onto
fle et
pursu e
Kar l
LO VE
Phys ical
vend or
Us ers
acknow ledge
quant ity
lad ies
enem y
surprising ly
Corpor ation
subsequ ent
deem ed
Foot ball
convin ced
Valent ine
. -
. ).
A ren
B I
D ur
E vent
J ess
N Z
O il
R ivers
S IM
T ER
Z o
c ope
e gh
f ires
f lix
h ills
p ub
u ed
у о
і ѕ
in n
en ess
be ef
are t
are st
all as
em ark
pl ies
sh am
can n
po o
co zy
gr id
In tell
ish ment
other apy
dis order
An na
prov ince
St ain
reg on
see ks
att ain
He y
where ver
And re
Ne ther
sk ip
sol o
cap ability
ton es
present ations
12 th
ivid ual
Res ources
personal ized
Man ual
enjoy able
contact ed
ten nis
trad emark
Ind ividual
AS E
ik a
match ed
select ions
ape ut
van ity
engine ers
appl iance
labor atory
sequ ence
Net flix
condition ing
terr itory
viol ation
Wal es
cin ema
attend ance
schem es
compar able
dro ve
Mel bourne
phen omen
Tit le
stim ul
Jun ior
Mot or
Prote ction
Muslim s
Assist ant
settle ment
Py thon
Lev el
Flow ers
Die go
Stor age
lob by
colleg es
Dump ster
turno ver
C it
D ry
G ill
G iven
H ay
M I
N ic
O regon
P H
S ess
S AP
U P
V it
b ible
d ensity
e uro
g ow
l um
m n
n r
p ending
p unch
u ing
w art
y ield
en joys
st all
om ed
he ct
ad ays
com posed
con ferences
ap ore
res cue
est one
te ens
ach ed
pre ad
dis aster
dis appointed
dr al
Ch ange
bu zz
vers atile
min ister
pers ist
del iber
Tr ip
start up
ident ification
sing les
order ing
applic ants
invest ed
kind le
ste ep
ball ots
address ing
cuss ion
sl ices
tour ists
Sim ilar
fire place
Bar bara
bi ology
tit led
har vest
Im port
Let ter
Ge o
Ho st
Any one
church es
Sci ent
TA G_
Cam bridge
Port land
straight forward
Hel p
assign ment
ox ide
Lin coln
cep ting
Vol unte
licens ing
seas ons
Prem ier
Num ber
Pier re
Industr ial
cav ity
Consul t
Transport ation
paralle l
acquis ition
Palest in
Sever al
depos its
stom ach
Nether lands
A qu
B ou
B ry
B ishop
C ow
C row
D ance
D ays
F a
H ills
J ordan
K ate
K aren
L iz
M W
M om
R alph
S ong
T ext
T otal
b ally
c cer
d well
h ob
j er
l enses
n ish
n ick
p sy
s its
v ance
an ne
al i
is ely
to ll
ar med
le e
le verage
ac re
ac cent
el a
ad her
con strain
ne at
op les
de af
fr agr
out doors
qu eries
art en
wor ship
tim ely
comp act
fo am
ev ident
own s
.. ...
over night
St aff
bu g
reg ime
app et
med iate
rel ate
Re cord
amp s
ret ired
exp ense
fac ial
rem ot
Can cer
14 0
contact s
ten ant
clean er
mind ed
flow ing
speak s
scre w
grad ually
moder ate
cir cles
vot ed
hor r
reser vation
prem ises
resol ved
prefer ences
authentic ators
Str ong
rough ly
La ure
determin ing
reflect s
Del hi
decl ine
Mal ays
pup ils
Light ing
throw ing
modif y
sis ters
rac ing
Cert ific
Flo rence
Ru le
hes itate
diagno sis
rating s
confident ial
Ul tim
orient ed
arrest ed
Remo ve
Recent ly
Sty le
Condition ing
Sug ar
scor ing
pip eline
Birth day
7 th
B ell
B io
C and
C lo
D ash
I dent
K elly
L or
L as
L iber
M ap
N D
R av
T L
W onder
b n
b inding
d ale
g ently
m u
p ion
p ixel
t ang
t rop
in cial
re plic
at r
en to
as m
as gow
le ak
be k
ab ling
un iqu
pro portion
all erg
ex terior
po em
In to
ip ur
port ions
comp ly
pre sum
bl ame
bl asting
air line
under lying
car bohydr
ener g
bel ly
light weight
sub stance
pol ish
To gether
fil ters
pat ience
effect iveness
prom ises
15 th
activ ation
invest or
Res olution
tem ple
aff airs
board ing
round ed
omet ric
comb ines
TH ER
wall paper
IC O
van ia
gain ing
collect ive
continu ously
bul k
difficult ies
fig ured
fre ely
jud gment
crow n
accur ately
impress ed
carr ies
Rel ations
measure ment
Amaz ing
flav ors
suffer ed
nutr ients
ox id
elig ibility
fing ers
Republic ans
arrang ement
dial ogue
shap es
YOU R
pep pers
editor ial
fro zen
VER Y
diam eter
retro grade
involve ment
Archite ct
Inde x
Bath room
Penn syl
Albert a
bicy cle
Pract ice
Sor ry
neut ral
Armen ian
ht ml
Toy ota
jewel ry
embed ded
elder ly
mb H
accompan ied
sod ium
merchand ise
Furn iture
apeut ic
8 6
B right
B arr
C S
E ye
G reek
G mbH
H oney
K ev
L an
M ail
M aking
P O
P aren
R ap
T I
V ac
V ista
W OR
a thing
b ted
b omb
d ive
f y
f ont
j ac
k nock
l ender
o ret
s car
s ights
v acc
н ы
an ut
re ck
re placing
to l
le ver
ch ant
am ins
ab il
lo re
lo gy
igh ters
per mitted
od ds
end or
gr ip
ack et
ib u
ev il
ign ored
bl own
man us
dr ied
dr ones
need ing
int ro
ren s
ink le
ning s
cur ing
old est
requ iring
ys ide
she ep
ident ical
amp a
val ley
Fr ont
De ath
par ad
Ad vert
organ ised
Br ian
perform s
At t
met res
count less
ben e
consider able
lab els
Mar vel
teach es
Ind ustry
camp s
depend ence
deal er
sl ice
dig it
tour nament
establ ishing
cook ie
color ful
integr al
har sh
maintain s
prevent ing
drop s
hit ting
Design s
jud g
Gl asgow
execut ives
owners hip
Int el
fem in
dim ensions
diagno sed
Sing apore
complain t
complain ts
Beaut y
vas cular
kn ife
Mat thew
Cond itions
Tele vision
nu clear
advoc ate
diam ond
moist ure
Ok ay
Authentic ator
Comple te
basket ball
compass ion
cush ion
Cin ema
remark able
vulner able
enor mous
bron ze
trem end
oxy gen
hubanes war
Fortun ately
Pennsyl vania
' :
. ),
A E
A do
B ureau
C ou
C av
D allas
E mer
G reet
J enn
P ep
S po
] ]
f i
g au
i Cloud
j azz
k u
n od
p c
p aving
r ane
s i
г о
re ction
or ious
al ike
st akes
ch ill
ad as
im mun
un like
com promise
lo vers
if er
ha ul
out line
so y
sh i
can vas
not ification
co s
co ins
ell i
av iation
bo asts
Ch ap
des per
cor ners
enc lo
incl usion
row ave
ob serve
vis ibility
let on
less ly
gram mar
wr ist
different ly
exam ination
ond a
stat ic
trad itions
pack aging
bon ds
cred ential
anal og
199 3
vo ices
super vision
Cr usher
IT Y
aur a
exc it
Min i
IC ES
Reg ional
fix tures
refer ral
School s
touch es
qual ities
Great er
Techn ologies
sort s
ari os
neigh bors
Bel g
dead line
catch ing
Mor ons
Ve h
accompl ished
Cert ification
Wil son
Sar ah
Medic aid
sac rif
Mos cow
confirm ation
gro cery
Dou ble
veter an
prop ag
independ ently
bare ly
experim ents
Prom ot
victim s
Coordin ator
Ur ban
Turk ish
rhy th
Switzer land
Cele br
Ado be
1 30
B art
C af
C ra
D J
D at
E th
F E
F ellow
G un
G ate
N u
O thers
P G
P ink
R d
R ules
S cr
S ix
T U
T us
Y oga
b ids
b inary
h ell
h int
m one
o ved
t ical
t ier
in fection
on en
re wards
ou ds
is ons
se cre
ch ic
he m
ad mitted
ap ples
pe er
so o
cl ips
part ial
pre st
dis abled
ick s
comm ands
them ed
ph er
og en
old s
lect ure
att est
att ende
air y
mon et
tain ing
eas tern
tal ents
az ines
train er
met er
Can on
di agram
stat istical
whe at
clean ed
specific ations
conf used
season al
Car ter
stop ping
sl ide
wel comed
IC E
hom eless
bill ing
foot age
bad ly
impact s
bath rooms
198 9
affect ing
broad er
decor ated
decor ating
fab rics
dest inations
rock s
categ or
Ben ef
execut e
execut ion
syn drome
util ized
veget able
habit ats
vac u
wash ing
prec ision
prec isely
mand atory
improv es
satisf y
ador able
honest ly
Jon as
hun ting
bless ed
Stat istics
univers al
Prem ium
enem ies
magn ific
Clin ical
Agr ic
vibr ant
destroy ed
Ess ential
penc il
Agre ement
Assess ment
bene ath
excit ement
B ot
D ate
D ining
E co
G O
J en
L isa
M ol
N AS
P as
P ast
R ot
S audi
V 1
V R
e z
f ence
m g
m um
m ask
p i
r of
r ib
s cent
t ort
t ails
th е
th umb
in th
in ser
in sured
ed e
ac company
ac cepting
el i
el ab
ly mph
ot ive
ab ul
ut en
com pr
em issions
fr ag
ex tr
per ception
per ceived
po ver
co on
ell ers
bo ats
fo ss
dis abilities
ens ely
cur ities
au g
min istry
For um
Com ing
wr apped
ner vous
Se c
So on
Be gin
friend ship
Gr an
US D
access ed
appe aring
Ph ill
reach es
Po ly
bur den
wel coming
regard ed
cop per
enn ial
crib ed
High way
contribut ed
Ed ition
Sal t
OU LD
admin ister
erg arten
imag ery
finish es
mir rors
cream y
Out look
smart phone
determin ation
reli ability
sand wich
Em ily
valu ed
surv ival
PL AC
DA Y
termin al
demonstr ated
Fall s
Atl anta
Clean ing
liber al
iat ric
Teach er
enroll ment
democr acy
Partners hip
algorith ms
pra ise
Resp ons
Bachel or
kil omet
coup on
WI TH
Feder ation
Lov ely
8 2
8 3
F ield
J ac
K rist
N iss
P ages
R ain
S ac
S ide
S weet
T ow
T err
W o
W y
W enger
a we
g em
j am
l bs
m ere
r ays
t exts
u a
u ce
о r
re vers
to e
ed ly
om ite
ad i
ad hes
us able
ce ive
com posite
de pression
out fit
qu art
art if
Th ird
te ars
ome ga
ma j
ma id
has sle
port al
li able
my ster
ass ort
cr aw
dis miss
bl ade
inter nationally
enc od
19 20
car pet
sur faces
10 10
cle ans
Com b
Tr ain
book ed
light ly
Ar my
post al
offer ings
oc y
var ies
Ad dress
Le wis
vol tage
por tray
bor ough
trav els
ref ers
ref used
nam ents
hy po
gover ning
ik i
concer ts
grad uation
wel ve
cou ples
cou pled
Park s
ban king
seem ingly
squ ee
cup s
celebr ating
Act ive
smo king
Add itional
minim ize
document ed
complex ity
syn chron
Ber n
rid ic
sleep ing
Ma jor
UAF V1
scen arios
surv ived
kill ing
Div i
Fre edom
Cy ber
susp ension
discount ed
motiv ated
prospect s
Mult i
disput e
pas te
Wi Fi
cush ions
quis ite
narr ative
sover eign
cartr idge
cuis ine
Malays ia
3 60
8 4
D if
F ut
K u
K it
P ed
P it
P ap
R T
S in
T re
T ick
X P
b ac
b ump
c ub
d ings
f on
g low
j unk
k g
k el
n ell
p ile
r ons
s cared
w y
w ound
н а
р е
at i
en ix
is an
le isure
om an
il i
for cing
for gotten
ol ar
ig ious
tr ib
ne arest
mo ck
pl a
out lets
ment or
can o
can y
pr on
fe ars
ind irect
do ck
In spir
work force
ak h
str aw
new est
dr um
ens ional
St ir
add le
ca ution
cent uries
read ily
min erals
under ground
bas ics
fun dra
cle ver
Se cret
program mes
support ive
gl ory
ug s
To ols
techn icians
Co re
happ ily
blo gg
oper ative
Mo ore
sum mar
custom ize
Le ban
cas inos
Res er
tribut e
Man hatt
ref lection
flo ating
Bu ff
short ly
RE S
AS M
vert ical
Mon th
mach inery
pen al
draw s
mess aging
function ing
swe ep
lock s
engine er
TV VL
acc idents
dress ed
six th
Sep t
log ic
Ed in
separ ated
198 6
fre ight
Ab ility
imm ers
obtain ing
neigh bour
profit able
appreci ation
consult ant
respond ed
IB M
nom inated
batter ies
Through out
Def ense
Den ver
jun ior
concent rate
Jon athan
hun gry
excess ive
Tit an
Ep is
Sky pe
Gir ls
independ ence
Quest ion
Quest ions
ifi able
behavi ors
cogn itive
cabin ets
haw k
refin ed
dispos al
membr ane
Langu age
Niss an
A ve
A id
B or
B run
C ann
D M
H ur
I mp
J r
L ad
N FL
O liver
P interest
R ound
S N
S ter
S even
T ed
U su
Y u
Y ellow
b od
c d
c ill
d ell
d augh
e ing
f el
i ot
r as
r uled
s ke
s ons
t win
w ages
z ens
о n
in trig
at ie
es y
al t
st ip
se ys
be c
am pl
ag greg
pro test
com ic
em ade
tr yside
ul tra
we ed
sh out
po inter
go v
av an
av el
ast ro
bo iler
my stery
fo ster
inter n
ren ting
Ch and
like wise
under take
fl ush
don ate
Re quest
cal e
Com mand
home owners
bel oved
Ar k
trans fers
prof ound
sto ve
sign als
Ex tra
present ing
health ier
bre wer
bre athing
loy al
Gr ant
Lo onen
met ab
US E
rest oration
Le on
Le ather
Le gal
Is lands
law suit
consider ably
Col oring
IN C
IN E
Or ch
trad ers
compan ion
AN Y
gover nor
vari ations
ane ous
TH IS
rele ases
assist ed
van illa
favor ites
enn a
sun set
sun ny
mun icipal
lif ting
198 5
introdu cing
profession ally
document ary
promot ions
sold iers
Shop ping
fem ales
rom ance
cheap est
Indian a
spl ash
Set ting
polit icians
OF F
bid ding
partnership s
Know ledge
encoun tered
conscious ness
mic rowave
proceed s
newsp apers
Friend s
delight ed
Archite cture
tack le
cher ry
democr atic
Wa it
architect ural
Ut ah
haz ard
intu itive
Kev in
attende es
fundra ising
daugh ters
1 10
3 10
4 80
? )
A gent
B un
C AR
D al
D ak
K id
M p
M all
M ann
N ap
O G
Q ur
R og
T K
T aking
T ampa
V ar
c ant
d ivers
f ought
g ad
i ology
l ace
r us
t weet
w ides
y r
” ),
in sur
in hib
an gry
on ions
re ver
en velop
al umni
ed itors
om ing
ent ed
se ment
ver ified
ot ing
ab is
con spir
tr an
ess ence
ess ays
ha i
pe at
qu o
ant ioxid
not ch
not ified
do zens
co ating
co ordination
gr inding
comp ound
ck ets
sp her
ak o
no de
br anch
ep ic
dr af
ens ively
cor p
wo re
ci um
rel ates
Con stitution
she er
And erson
Al most
Ar izon
sol ic
How ard
De ad
pay s
head er
rece ives
class ification
exam s
met rics
cy l
Af ghan
understand s
vol untary
prote ins
appe aling
lab s
pan ic
anal ys
mar athon
vo ir
bar rel
eral d
particip ant
associ ate
according ly
hor n
Im ages
fail ing
Any way
Stud ent
tur b
conduct ing
Pat rick
Read y
advis or
sn acks
scr ap
Sw iss
switch ed
demand ing
Mal ibu
vit amins
Play er
nic he
journal ist
Organ ization
Sum mit
CO 2
Ham ilton
clos est
Medic ine
Ko h
prospect ive
highlight ed
tap es
Kore an
merch ant
affil iates
tast y
Gir l
champion ship
Budd hist
experim ental
GD PR
Cru z
Vers ion
GH z
Dub ai
delet ed
Aren a
Jess ica
TAG_ UAFV1
eli hood
Manhatt an
Usu ally
TAG_UAFV1 _
8 9
: )
A my
C ash
D ag
D ist
D ental
J ason
K ill
L es
L ay
M organ
N a
O H
P in
P or
P ie
P ure
R ub
S now
X box
c ig
e cho
h ired
j ury
l as
l av
m ant
p ir
p ies
r ally
r ides
s word
t empor
y og
н и
an cer
re model
the ories
en abling
ed y
ar on
il and
ch amber
id y
am el
im um
im ents
su mer
su ited
ut ed
un lock
The me
tr ap
ap olog
res hold
ther net
act ress
ine vit
ach ing
ck a
part ially
cr unch
dis k
dis appoint
br ass
int ensive
Ch amber
wo ol
don ated
ener y
arch ae
cle ared
ubl in
ix els
Ar c
hand ful
trans mit
ese at
To o
techn ological
Ex pl
Ex per
loy alty
mus h
adv ances
grow s
contro vers
local ity
contact ing
May or
far mer
treat s
cred its
gar bage
199 2
rep s
reason ably
mil it
Fe ed
click s
sci ences
gen etic
cast ing
tax i
mag azines
mor al
Reg ion
bi as
refer ring
mob ility
encour ages
encour agement
Act iv
affect s
regul ated
Gener ally
pul ling
Look s
neg lect
switch ing
Ob vious
grand children
Pho enix
nur ses
config ured
assu med
gun s
Fire place
element ary
asp ir
Frank lin
dim ensional
Sing le
concent ration
Invest ment
shel ter
Ash ley
Corpor ate
intim ate
algorith m
Tenn essee
dess ert
render ed
aband oned
Pow der
iropract ic
Lux ury
Anth ony
stur dy
spat ial
Ukrain e
Stain less
Vit amin
Arizon a
) (
B h
C op
C any
C arr
F red
H ous
J azz
L G
L ane
M C
M ath
M ission
M endo
O t
S it
S ad
S ust
T on
T ab
T ag
U E
W ear
W ire
d ough
d ancing
e ager
f fer
f ighters
h ors
i ere
l ately
l ene
m igr
n as
n our
p has
r anks
s kept
v on
w ax
or ia
to os
ar ising
le asing
el le
ro bot
ch un
he el
ver ification
em en
pl as
ex empt
ant e
can s
pr ais
te c
te ous
do zen
In cludes
bo red
fer til
man ages
int ake
Ch an
there by
off line
ink s
fin als
don ation
cal cium
arch ive
del icate
Con sumer
Com plain
Tr ue
iss ance
ble m
ann y
trans it
trans formed
blo ss
pass enger
rece iver
class ified
contin ually
18 th
met ric
addition ally
shop pers
struct ural
ery l
14 th
ref use
educ ate
step ping
ID E
roll s
Med iter
Part ner
grad es
Che m
Qu ery
bi ological
tit ude
cool er
bul let
AD HD
mail ing
moment um
cret ion
clus ive
198 3
Health y
Ke en
inform al
promot ional
Str aw
Pal m
optim ize
smart phones
organiz ational
reflect ed
Sw an
Sw itch
decl ined
waste water
Ty p
Ma j
Elect ronic
discover ing
modif ications
bes ides
Pet ers
sport ing
eco systems
publish er
UR L
secut ive
sac red
grat ulations
Applic ations
absor b
pill ar
repeated ly
Ky oto
memor able
legend ary
toile t
gradu ates
manif est
incur red
amen ities
explic it
Intell igence
remot ely
uniqu ely
Paren ts
Edin burgh
Obvious ly
8 1
B os
B IO
C AS
D ear
D ublin
F P
F at
G S
G ates
M ort
N ad
N ach
O z
P aper
R h
R and
R od
T P
T a
T el
V M
V in
V od
W ol
Y uk
c v
c ies
d iving
f usion
j ar
l ively
n an
p ics
t welve
u le
ü r
′ ′
in ely
in expensive
the oret
en rich
or er
is co
is lands
st ap
el lo
ch ains
ch arts
am i
am er
am id
am ple
ot y
ab sent
ce ment
un comfortable
ag ger
com bo
com posing
tr aged
ap o
res ign
fr act
sh y
per mits
ther apeutic
po etry
co inc
ie val
iz ations
bl ast
An ti
Ch at
ang ular
well ness
coun tryside
under taking
He at
bas es
Con vention
Tr cka
ash ed
ext ensions
Ar m
prof ic
char m
post ers
ug al
ins ist
Ex hib
allow een
Pl at
Br on
exam ined
count ed
elect oral
por k
non profit
16 0
far ms
AN T
wa ist
Christ ians
deal t
defin es
compet ent
Fo cus
Gu y
vi ation
ned y
elf are
comfort ably
AC C
bur ied
approach ing
sem ester
ded ication
dry ing
protect ive
soon er
dy ing
refer r
SE EA
autom ation
cil iation
base ball
Comp et
avo ided
198 7
sil k
dol omite
imag in
Design ed
pul ses
execut ed
viol ent
sn ack
adjust ment
adjust able
Out door
Sci ences
Mag ic
Inter ior
maxim ize
bol t
fat al
expand ing
Who le
journal ism
emb ark
meant ime
brief ly
Main tenance
conserv ative
truck s
insul ation
upload ed
depart ure
Hope fully
expl oration
fle w
Ken nedy
infl amm
philos oph
Chair man
renew ed
Fit z
barr iers
Publ ish
cott age
Resp ond
upgrad ed
Tha iland
Histor ic
Harr is
franch ise
shad ow
uni form
implic ations
Regard less
Gor don
Requ ired
Spec ific
Crim son
obst acles
jac ent
Greet ing
rane an
vacu um
pover ty
Mendo za
Mediter ranean
, '
A uck
A aron
B Y
B apt
C ars
C rew
C athe
F ail
G ra
H ong
L am
M ent
M ental
P ain
P ok
P ER
R us
S F
S id
S pl
S port
T ah
T ouch
V ice
W inner
b iz
c ules
d ense
e po
f s
g le
g ue
g ates
g aps
i ator
k ar
k its
l ol
l un
l ag
l ug
l ighter
p ale
p ension
r im
t v
t an
t ends
u ments
v ations
w anna
y ar
th al
re cess
es a
al pha
ing o
ed ar
it en
el ite
se wing
ch en
be ings
ve gg
ad m
wh is
un ve
un ited
un necessary
pro xim
ill ion
mo des
mo squ
fr idge
ha ha
pe ers
per ed
per mal
per pet
od a
ind ul
gr ave
In door
gh ost
ast on
pre view
pre lim
pre ference
new er
des ir
des ires
bu gs
read s
bet a
high way
fl ed
fl esh
rel atives
land lord
down s
del ays
ement ia
sub scribe
De an
De gree
plic ity
gl am
market place
az awa
exp end
Pl ate
partic les
sum mit
sum mary
pot s
gre ens
hum id
position ed
round s
Ste uer
deal ership
den ied
Car bon
card io
Des k
pick s
discuss es
gen e
inc idents
hom emade
hab il
explo res
OU R
Fir m
Health care
assess ed
consist ing
altern ate
imag ined
Law rence
upd ating
Book mark
jud ges
reported ly
Whe el
analy sts
chem istry
Vir t
44 AD
fashion ed
Light room
Pay Pal
nur se
ju ven
psych ological
tun ed
Dep ending
Table egh
occup ation
occup ied
Cy cle
weak ness
Los s
Bet ween
dent ist
Test ament
Olymp ics
instruction al
counsel ing
clar ity
distinct ive
attribut ed
Cir cle
supervis or
Pot ter
thir ty
1990 s
Fore ign
Conserv ation
Tha i
brew ery
Tru th
Tun es
legisl ative
recruit ment
Univers al
Innov ation
anony mous
divor ce
surg ical
Prin cess
Purch ase
Volunte er
Palestin ian
Vac ation
penal ties
Dak ota
Sust ain
Auck land
permal ink
Steuer mann
A le
B N
B rew
D est
D NA
F er
F ine
F ashion
G ould
G PS
G PLAC
I o
L ion
L iver
L ands
L aura
M ET
T LS
U M
b amboo
e u
e ve
h ann
h unt
l akes
l ounge
n ity
n els
o ak
r it
s om
s lots
t ire
t ension
v ig
а nd
re cycl
is sa
to ck
to dy
ed o
ar in
st ere
ac ies
ac credited
he al
im bur
wh iting
pro ceedings
con secutive
ul s
ke e
fr ied
ex changes
pe anut
so ap
sh ades
qu it
act ors
fe as
up al
In n
ast y
bo oth
du b
ev a
cr ates
dis cretion
Wh olesale
off s
ang a
sy rup
ob sess
fl ip
should ers
after wards
Un til
ho e
sim mer
jo ints
care s
pol ls
De al
last ic
pay day
vent ions
Be y
Ad ams
week ends
pass ive
pass port
bal lo
Jo e
dev ast
Do or
ware house
Te a
ste ering
tra its
educ ated
nam ely
conf using
music ian
wind s
AC H
dist ant
pen et
hon our
plant ing
Of fer
cou ver
favor able
sen iors
amaz ed
firm ly
Cor p
touch ing
28 th
squ ad
Im prove
celebr ations
avo iding
furn ish
sil ent
sil ly
Pat rol
target ing
cand le
innov ations
rock et
Gl en
cru ise
Sw ift
consu me
pup il
util izing
strict ly
relax ation
config ure
mechan isms
wash ed
ros ion
journal ists
sched ules
bes ide
libr aries
fest ivals
dynam ics
Flo or
itar ian
Medic are
Op tim
substant ially
AG ES
infl ation
Admin istr
simpl er
Sa fe
conver ted
enthusi asm
semin ar
crypto currency
mole cular
delay ed
vine gar
rust ic
Tenn is
Install ation
Sn ap
Analy tics
acknowled ged
crush ing
compliment ary
consolid ation
abund ance
Kir k
electron ics
Coll ins
Clar ke
cultiv ation
oblig ations
Produ ction
immigr ants
Kan azawa
constrain ts
trop ical
bted ly
magnific ent
brewer ies
Cany on
Cathe dral
Io T
) ?
2 25
4 30
A X
A ld
A bu
B ush
C ass
D N
E specially
F al
G i
G ro
H ab
H ans
H alloween
I l
J INR
L ag
L uck
M ine
M eas
N ep
P ixel
R en
T an
_ EXAM
b un
b ull
c key
d imin
g ur
i Tunes
k iss
n i
n it
t el
é e
а t
th a
in ction
in aug
re form
re imbur
en quir
ou tr
ar re
ar om
as tr
as sure
st um
st iff
ol ph
pro state
pro active
pro curement
ul ating
res on
res iding
sh ifts
art ic
po ser
up id
ip ment
me ga
av oc
tim ing
iz able
ass ists
part ly
cr imes
over s
ren d
aw k
St age
off set
col onial
bu ilder
cur ved
cent res
reg ret
19 40
vis ions
mon ster
under graduate
He avy
fl ame
Com ments
cons ensus
jo ke
io let
ext ends
che er
lot te
ship ped
Be at
Cl are
Ad achi
oper a
Sh ipping
itch ens
enter prises
special izes
Ro of
direct ors
activ ists
bro ider
pract icing
sc ary
Col labor
Res ults
und ou
clear ing
mar gins
omet er
fill er
gen re
approach ed
download ing
download ed
brand ing
signific ance
firm ware
cir culation
manufact ure
ham mad
Up per
Ed ward
Ed itor
anim ated
drop ping
dol l
warm th
atter ed
promot ed
influ ences
Je an
advis ory
reflect ing
Spe aking
Vir go
liter acy
decl ar
Sol ar
sustain ed
Vis ual
consult ants
Other wise
Jer ry
pray ers
196 7
Cap tain
attempt ed
Cho ice
ros se
perspect ives
trial s
MP 3
proto type
Hor se
publish ers
diagno stic
strugg led
trick y
pil gr
flag s
Que ens
extract ion
pursu ant
Land ing
hero es
resto red
rug s
diction ary
barr ier
discipl ine
Syr ian
Sus an
renov ation
Process ing
Diet ary
Prim ary
ibl ical
Auth nr
Kans as
aggress ive
Object ive
buff et
Excell ent
recip ient
Ja ipur
Gree ce
estr ian
defe ated
Certific ate
manus cript
gau ge
credential s
TK _EXAM
wides pread
( "
6 th
B T
C ot
C edar
D ual
D ave
D IS
D ana
G em
I E
J et
K G
L if
M um
N ash
O B
R AM
S leep
W S
b ind
b aked
c akes
j aw
m arch
p interest
r he
s ends
t ts
w age
w ires
y en
п о
in fin
en cry
and in
it ations
ent ities
ac er
you ts
ch in
ch rome
ly rics
im posed
wh olesale
com fy
lo os
ul tras
res il
so ccer
igh th
per su
po ke
In struct
ok ing
li est
get ic
fo ol
bl ink
man ship
dr agon
Ch amp
ph an
cor ruption
cur ve
back ing
fin ances
min eral
bet ting
car a
med itation
fl ats
land o
Un less
bel ts
Pro gress
ner ve
arr ing
arr ass
De b
Ex pert
Be ij
real ised
gy psum
Br id
12 8
cost ume
class ical
equ ation
local s
graph s
Res pon
Or lando
ER E
stat ut
ten ants
mar ble
40 1
Car ib
environment ally
later al
ming ton
war ned
hon ored
Su z
brand ed
assist ing
protect s
integr ating
text ures
Pol it
corpor ations
celebr ity
prior ities
.... ....
198 4
sil ence
Trans formation
inform ative
distribut e
stress ed
thank ful
crow ded
hop ed
volunte ering
Char lotte
vill a
vill ages
Wood stock
Os lo
Os car
Democr at
eth ics
PL E
trou bles
lap se
Bal i
nom ine
illustr ated
ingred ient
Vol ume
Dep ut
Brow se
NO W
trick s
Van couver
domin ant
vary ing
poly ester
motiv ation
Review s
BB Q
dram atically
Opt ions
fulfill ing
Haw ai
behavi our
HER E
quil ts
recept or
Jama at
sham poo
Caf é
Fut ure
Buff alo
conspir acy
Bey ond
undou btedly
Beij ing
, ’
2 D
5 76
A RE
B orn
D em
E ind
E van
I K
J ump
J ules
J ava
M G
N U
N ation
N BA
O EM
R out
T ony
T reas
U D
W ars
W oman
b il
f id
f ountain
h ung
i ating
l is
l ending
m ans
o ke
p ond
r ab
t am
w ings
w ives
z ones
th reshold
re vel
es cal
and al
ic ide
le ap
ch or
ch im
ch rom
be verage
ad jacent
im aging
ig ue
ab dom
ut ing
ur ers
pro pr
com mod
con e
if ted
our i
est e
fr aming
qu er
qu et
od iversity
not ify
cl ouds
do c
ok ed
tim eless
ach use
bo il
comp aring
comp iled
cre ator
ser ial
fo x
br aska
over looking
pres so
fir ing
thr illed
min is
ious ly
mark ing
fun eral
home page
mem orial
here in
Pro to
Ne braska
Al ice
hand made
Fr an
sal mon
dec iding
Be ck
plan es
When ever
pass age
Pl ans
Br om
pat ri
give away
My SQL
met ic
applic ant
cy cles
cas ter
activ ate
comple ment
pract ically
Res ident
key word
Coun t
Ap parent
ped al
hol istic
pack s
install ations
hy p
AS T
ik u
necess ity
pen gu
travel ed
Sp a
wel ding
glo bally
particip ated
exc use
sat ur
Reg ular
swe at
ban ner
Associ ates
qual ification
qual ifications
contribut ing
anim ation
announ ces
OM E
respon ds
div ide
div ine
decor ation
achieve ments
assess ments
resol utions
cross ing
Pat io
eat en
influ ential
describ ing
indic ation
Har vard
Work shop
Red e
liter ary
decl are
background s
dark ness
Ver mont
Em ma
Pay ment
UAF Authnr
reve als
exhib it
____ ____
dur ability
rail road
attach ment
List en
Hor izon
ais er
gate way
Ev ans
ALL Y
complic ations
wick et
Mass achuse
Ther apy
critic ism
Trad itional
frustr ating
Way ne
cock tail
comed y
deploy ment
Hom es
stir ring
advertis ements
Ele mentary
Cab inet
aes thetic
deser ves
aler ts
Meet ing
Cry stal
deduct ible
destru ction
evalu ating
practition ers
anno ying
cann abis
phenomen on
Bry an
Laure n
tremend ous
Veh icle
sacrif ice
prest igious
foss il
Leban on
controvers ial
inflamm ation
proxim ity
prelim inary
Massachuse tts
. ;
. ’
3 80
A Z
A then
B end
B attle
C ad
C old
C ultural
C isco
D rop
E PD
F ill
F if
F ile
F ury
H art
H ear
I deal
N ar
N ich
P is
P il
P are
P un
R I
R V
R ow
S ic
S ex
S team
T B
T ip
W heat
b is
b ie
b ane
d ip
i encies
k h
l id
l ig
l ung
m elt
p ines
r idge
r uling
r anges
t ion
t ong
t anks
t ires
t asting
u pl
v ivid
w n
z hou
з а
н ов
in ence
in no
in coming
re act
re bound
es presso
al ay
ic he
ic ons
st en
ro gen
ch lor
ve gan
ct ed
un ting
un wanted
con ce
lo gged
ne gl
mo thers
de feat
fr on
so ever
iv or
po ckets
cl a
um en
In cre
In side
go ogle
ine f
li a
af ood
iz ers
sp am
sp ite
sp icy
sp ends
It ems
pre h
dis c
br ace
bl ues
Wh ilst
need le
pres cription
off ense
col lar
des ert
add itions
incl usive
19 30
mon cler
car to
car ved
inv iting
inv ites
Tr affic
home owner
ho ly
sim plicity
cons iders
ced es
ret ention
Se an
arr iving
ship ment
run ner
Ad ult
Go v
prom o
bal con
Wor ds
por ch
key board
mal aria
install ment
24 th
step ped
13 th
mar vel
break down
omet ime
comb ining
ino a
Me chan
TH AT
account able
dist ress
paren cy
Part s
AR D
ming ham
def ence
saf er
Park er
cir cular
fix ing
commit tees
lin er
stor ms
attract ed
Sat urn
cul inary
decor ations
surpr ises
stress ful
apt or
Sam ple
instit ute
Dav is
lov eseat
stick y
stick ing
EC T
iar ies
controll ing
Met al
threat ened
Sk in
Mor ris
Camp us
Special ist
Bud get
Academ ic
rank ings
bless ing
Enter prise
Bir mingham
gard ening
Saf ari
grat itude
tat toos
inquir ies
symbol s
tast es
label ed
Trad ing
assum ing
mole cules
preser ved
crop s
harm ful
moun ting
Common s
Dom in
infect ions
assem bled
vess el
incent ive
Der by
scholar ship
amend ment
atom y
accus ed
Brook lyn
chap ters
Nob ody
prev ents
refriger ator
defect s
Imag ine
Veter ans
juris diction
rhyth m
Pit ts
Tick ets
Afghan istan
Yuk on
desir able
Virt ual
Deput y
Pare to
. '
7 20
A V
A void
B lasting
B hubaneswar
C K
C M
C og
C lose
F el
G am
H ence
J am
K es
K os
L ate
L ower
L ots
L akes
L aser
R an
R ah
S ens
T ol
V IP
W V
W AN
W ik
Y ang
Y oz
a qu
b ake
d in
d un
d ign
d itch
d irty
g ang
i y
k an
m are
n ier
r ag
r aces
s ided
u to
in qu
on ia
the at
the ft
en compass
or nament
es ity
ar my
it iner
le aks
st arter
ch ol
ch amp
be ams
he t
id i
ol as
im en
ab normal
ag a
con es
con front
tr ace
pe g
so da
sh ame
sh ield
po ena
cl ust
ind ia
gr illed
gr ains
ip edia
go spel
sp ine
ev es
cont amin
no body
dis advant
dis pens
bl er
over seas
St amp
pres chool
pres cribed
des criptions
thr ive
app y
tain ment
sur veys
Re ports
bus es
ict ions
view er
inv as
10 7
Con ver
Tr ib
cond itional
wr aps
sub stitute
care ers
Al ab
inst ances
sk etch
char ities
De e
De anna
search es
sal on
ank le
head quarters
point ing
Ex clusive
happ ier
Pl um
Mo on
Mo de
ask et
vir uses
special ize
lim itation
access ing
public ations
consider ations
Dr iving
sc am
aster y
tra uma
review ing
pack aged
24 0
Mar g
Mar io
connect s
dom ains
ik er
Fo ster
pick led
Cr af
Per ry
def endant
walk way
tax ation
wonder ed
Just in
Cont emporary
rad ar
suggest ing
suggest ion
Sim on
har ass
Fin land
sun light
associ ations
mas cara
brow sing
ham mer
autom otive
Am anda
prior it
mod est
OU T
reser vations
explain ing
Direct ors
capt uring
block ed
Wed dell
progress ive
farm ing
analy tical
Commun ication
Program s
crow ds
lack ing
guarant ees
indic ators
Hot els
Wal k
switch es
distr icts
Lu c
measure ments
Year s
girl friend
Start ing
196 1
Mor ning
Ann iversary
emb arrass
gall on
gall eries
Ve get
evol ved
Photo shop
inet een
arrow s
Miss ouri
Ru th
Mil itary
Mountain s
Lead er
lit igation
OP O
Alex ander
announce ments
ticket ing
belong s
belong ing
Comput ing
minor ity
Was te
Arab ic
Arab ia
Du ke
Ul tra
Pict ures
scan ning
Hon or
enroll ed
thread s
onom ic
Publ ished
Bachel ard
cod ing
Kat ie
Equ ipment
Fact ory
Kans ai
Lyn n
Dy nam
invo ice
Gul f
Rivers ide
hob by
intro duct
elab orate
abul ary
stap le
Respond ent
habil itation
andin av
Respon se
statut ory
Hawai i
Brom me
EPD M
Yoz ak
disadvant aged
3 45
4 50
5 000
6 18
7 50
A ide
B am
B ike
C art
C ream
C ateg
D or
F ul
G IR
H end
H amp
H ub
H IV
K ol
L ed
L unch
N L
N ico
P ill
P ul
P HP
P lastic
R ab
R isk
S el
T N
T u
U m
W AS
[ /
a ide
c ort
d ys
d ementia
h ilar
j an
j ab
l est
l ips
o on
p g
p ins
s id
t ai
t iles
w i
w elfare
а n
е с
н о
in jection
on ds
re actions
re modeling
the tics
en grav
or ative
al titude
to second
st abil
el ong
el ier
ro it
for given
ch alk
he x
ol i
et al
im mer
ut ical
ut ilities
ce il
un ions
ur gent
lo ver
em y
tr unk
ne ath
ke eper
ex empl
pe ar
pe aks
so cks
was ting
not able
po le
te ar
um atic
ok es
du plic
no s
br ave
ile e
cor rosion
ca ve
He aven
Re lease
Re ferences
10 3
For mer
ath lete
Pro vide
sm ith
Ne uro
ident ifiable
Al aska
develop s
trans plant
ra ises
val ve
En h
But ter
sto len
Fr uit
gl ance
To ol
rent als
fil tr
bre athe
Br anch
Gr ay
Gr ound
Go ing
might y
law ful
sc op
ator ies
bed ding
vol umes
research er
pot ato
bor ne
face book
trad ed
pack et
16 th
Bu ilt
Ac res
Ste wart
ale gal
vari ation
vari able
vo y
sl ides
Not ice
Dis cussion
jour neys
IC T
record ings
recommend s
fix ture
oil s
Pol ish
corpor ation
remember ed
tele com
occur ring
cross ed
capt ures
former ly
regul ate
mir acle
syn thesis
iff s
ades h
supply ing
Super vis
Ear lier
notice able
Big Query
consu med
rid ers
veget arian
collabor ative
Ter min
exhib its
AB A
ba it
sched uling
faith ful
strength s
Camp aign
calcul ate
reput able
conv ince
contr ary
certific ates
brush ing
sha ke
decre ased
Den mark
shar pen
Sou theast
Coast al
consequ ence
belong ings
pursu ing
Jim my
wealth y
CR M
Anton io
Victor ian
Employ er
Employ ees
Log ic
frustr ated
trigger ed
phr ases
Jul ia
overwhel med
dil igence
Broad way
pros per
defic it
deleg ates
restr iction
ibl ings
Pers ian
Cer tain
shif ting
uncertain ty
Frame work
Est abl
Prep are
Joy ce
bund le
secre ts
myster ious
neighbour hood
hors es
Chem ical
Carib bean
propr iet
( )
/ .
2 60
B ever
B AS
C ET
C akes
C 2010
C ulture
D a
D iam
E legant
G ains
H at
J acqu
K K
K S
K er
K il
K night
L ie
M ul
M az
M LS
N ear
N ike
P references
S we
S co
S chem
T i
U sed
V P
V AT
V ari
X R
c ros
d read
d les
d amp
d rew
f fin
f ats
g ency
h ay
h ort
h ats
i ations
m all
m ally
n ineteen
p estic
p ixels
r age
r amp
s well
s lower
s aves
t g
t issues
v ens
w avel
м и
о р
і n
ا ل
” ).
in correct
in habit
an or
an mar
re ap
re covered
re porters
re cycling
or ches
es cap
al ien
is l
ed itions
ar is
ar gue
st als
st ub
st upid
ent on
se g
be ating
ad verse
ad iten
am ended
am bit
ol in
ver ages
su ck
ir l
ur ge
com poser
con sole
con greg
tr ance
if ting
op o
de ce
out lined
pe el
pe oples
ain e
po et
te as
any body
In v
ip her
tim ore
work flow
cre ep
ser y
We ather
ber ger
year ly
dis rupt
inter ventions
prov incial
Ch eryl
ph p
cor relation
cus tody
19 00
mon uments
fl or
top ped
sur fing
os is
stem s
land ed
10 5
ho ven
long est
eas iest
Ar gent
cap su
pur ple
ank ed
30 pm
techn ically
gener ates
Co al
found ing
bre ach
Br uce
All Acres
dep ot
Gr am
Gr ace
met allic
Is su
15 00
IN T
key words
dev il
learn ers
bit coin
cu le
ling u
quick er
Ste ven
defin ite
Car thy
Fl ick
Sy m
sl iced
Gu arant
thought ful
dig ging
phys ics
init iate
human ity
dou bles
sens ation
bi kes
agre es
Mc Carthy
dress es
hor mone
Im plement
character ized
remo ver
Act ually
Ed ge
center ed
Gre y
promot es
Str ateg
mother board
death s
syn thetic
indic ating
indic ator
Ber ry
Rel ated
grand father
cin em
Sch olar
Wr ite
OL L
Bro thers
Find ing
Jer seys
Ter ry
willing ness
nom ination
psych ology
polit an
IG HT
RO I
Emp ire
satisf ying
hall s
Lab our
elimin ating
mel an
NOT E
susp ended
submit ting
tut or
wick ets
Enter tainment
Oper ations
quar ium
Rob inson
geo carbon
Fit ness
semin ars
fundam ent
tu ition
blank et
transform ing
Authentic ation
cock tails
Comple x
Mex ican
deploy ed
reward ing
harmon ic
Cli ents
assem ble
Clin ic
Rail way
incent ives
stri kes
angel o
anth rop
irr igation
fu els
landscap ing
Tam il
sour ced
Gard ens
ecolog ical
adap ted
Orig in
prosecut ors
Mt C
kne e
inse cts
horizon tal
treas ure
oppon ent
magnet ic
imper ative
уо u
carbohydr ates
Dat abase
Benef its
Epis ode
yog urt
Bapt ist
awk ward
declar ation
Cot ton
Eind hoven
Rede emer
wavel ength
, .
3 20
3 30
A th
B elt
C arm
C ER
D ick
E mir
G ay
G RE
H U
H Z
H ell
L ex
M ason
M AN
N y
N ev
P ope
R F
R ange
R idge
S 6
S ul
S ight
S age
S had
S ets
U X
V intage
W R
Y o
Y esterday
a a
b ree
c aves
h man
l ich
l ush
n ails
o y
p its
r ip
r ational
s ip
s ometime
u an
w ow
é s
т е
in ars
re marks
en zy
is ers
ent ers
ac ids
ro be
se ated
be verages
he y
ot er
ot on
un ified
ag ne
com prises
em ic
ne o
ex cluded
ex cluding
pe as
sh er
ment ally
iv ic
pr one
not ion
ort ion
gr ill
In stit
av ed
li b
cre ations
cre atures
ans as
ass ium
ak i
ace utical
no od
pre val
dis sert
br is
over time
comm em
add iction
cur y
cent ric
min es
fore most
pt ic
pt ions
vis a
mon s
mon ument
under go
fl ick
sup pose
bus h
ons ite
mark ers
Com m
Tr i
less er
ho o
ss on
place holder
ann ah
char coal
leg ance
post ure
gl imp
Ex plain
Ex erc
vent ures
rent ed
water ing
found ations
Bo ys
Mo ving
Sh ip
Br ain
Br ick
All ow
All ah
My anmar
bro ccoli
Jo hann
Dr upal
sc enery
ris es
uck er
por trait
25 6
pot ent
expect ation
ste ak
men us
mat ory
ime o
ON S
specific ation
position ing
ster ed
defin ing
Au ction
vari ables
omet ry
lik elihood
Po ol
Car o
comb inations
Gu id
account ability
contract ion
Che f
Cal endar
Some one
ging er
cir cul
commit ments
touch ed
launch es
launch ing
qual ifying
character istic
sequ ently
bath s
challeng ed
pal ace
advert ise
separ ation
attract ion
Sup pl
broad band
imm ensely
terr ace
EL L
letter head
nation wide
Sam uel
viol in
oo o
crow ned
Ber ke
Group s
Char acter
sam pling
Work ers
bound ary
pump kin
cit ations
pray ing
valid ity
calcul ations
investig ative
confl icts
argu ed
rac ial
thick ness
prin cess
Sing h
hub by
commission ed
ski ing
accommod ations
Ros s
forest s
Members hip
incorpor ates
negot iate
Tem plate
tub es
voc abulary
fif ty
thy roid
enthusi asts
museum s
shel ves
frustr ation
Cred its
Lind a
hospit ality
detect ed
upgrad es
Contin ue
Hun ter
Industr ies
prob ation
tutorial s
flaw s
Track er
Gy psum
withdraw al
negoti ations
inval id
uphol stery
batt les
mathem atics
psy cho
Cav uco
Jenn ifer
Belg ium
Jac ob
disappoint ing
theoret ical
traged y
Liver pool
ultras ound
Proto col
Apparent ly
Pitts burgh
Kes hari
Alab ama
tai wan
" )
1 12
= "
A H
A ID
B ond
B UT
C has
C SS
F F
F em
F ant
G ot
H ok
L IF
M ut
M ang
M AR
N J
N ik
O mega
P ear
R D
R ace
R io
S ame
S lots
S IG
T T
T ask
T ips
V ision
V illa
V imeo
W ats
W arrant
Y out
Y ES
Z ach
Z aditen
a us
b ones
f ier
h ust
i op
j s
k al
l ion
l oft
l enders
m apping
p am
p ap
p ings
p son
p ony
r h
r ider
r ivals
s ar
s ie
s ake
s lim
s iblings
t ens
u ity
v ape
w ishing
w ilder
z i
д е
е го
к а
th ur
re minis
at ility
en light
ou x
is y
as leep
ic ion
ic op
st oring
el o
for got
he ights
ow e
ig ating
ver bal
are lla
ab ad
ab ases
us a
un fold
ag ic
con gress
if iers
de cess
fr a
fr action
ex clude
out reach
Th under
cl ing
fe ver
up front
ind a
co ated
gr ay
gr ape
In it
ach t
cre ational
get away
pre decess
dis cour
dis semin
inter mediate
prov ing
what soever
ph ins
col oured
bu cks
ca fe
old ing
app ell
att it
under neath
car p
He ather
arch ives
good ness
even ly
For mal
ho re
sm arter
Ne il
ext ending
sk irts
Ar med
pur suit
search ed
gl itter
sign age
Co ck
opt ed
small est
aut onom
fort une
hard wood
ather ine
sc roll
aim ing
25 th
Coun ter
mat ur
Bl u
trad es
Bu ying
cred ible
defin itions
AS S
mp 3
Car l
Fl u
vi able
card iac
flu ff
Mon aco
ai res
Fe at
Cr ush
Sc andinav
22 7
wed dings
Some thing
skin care
integr ates
Cor ner
EN D
brow s
Mc L
Mc Donald
hor ror
contribut or
clus ion
Web inar
IM E
sweet ness
Whe els
analy se
viol ations
Educ ational
La unch
Out side
concept ual
reli ance
length y
Lu ther
Ty ler
Sch edule
remind ers
seven th
threat ening
Bro ker
collabor ate
Wall paper
tail or
counter top
flav our
dat abases
Os aka
scen ic
Wel d
assign ments
throw n
Bal timore
Nat al
beat en
Care er
illustr ations
Organ ic
evol ving
worry ing
argu ments
elimin ated
oph ys
Det roit
Gar age
Bet a
susp icious
amb ass
predict able
heav en
Ep son
Iran ian
Mot ion
brid ges
rig orous
CP U
geo graphical
attribut es
delight ful
Cover age
align ed
Week end
Exam ples
isol ation
exception ally
dash board
Conserv ative
pic nic
cater ing
Ell is
Cost a
Philip pines
Michel angelo
hug ely
Psych ology
shif ted
Tai wan
adop ting
desc end
Voice Computer
Clay ville
Rud olph
Bris bane
recru iting
carri age
parliament ary
Andre a
Similar ly
Crow n
Advert ising
Agric ulture
assort ment
ridic ulous
Ark ansas
Sustain able
satur ated
ceil ings
Gains ight
ambit ious
! ),
' '
1 15
3 000
3 16
: -
A k
A y
D D
D elt
E ither
E thernet
F av
F AT
F lex
G C
G ab
H ire
H ours
I ES
J O
K ur
L ucky
L odge
M K
M AT
M ED
N IS
N ET
P V
P hase
R ing
R ac
S ud
S ink
S ah
S ri
T ank
V as
W end
Y a
c end
e Commerce
f ills
f aul
h iding
k itchens
m ol
o bey
p ants
p ipes
r ix
r ats
t ors
t les
t exas
u ct
u able
v ouch
w ifi
” ?
er on
re ne
re ign
re ll
en force
al ous
al gam
to d
it ated
it ime
as ser
il ies
se afood
ch t
ch ase
id ges
am ate
are l
ct uary
ut ers
un happy
con clude
lo ys
all ies
res ide
fr ies
fr ank
ex otic
out dated
so ak
ain ed
ain ts
Th ing
pr izes
po ems
cl ay
um ato
ud ge
ail ed
sp ices
ign on
ign ition
cr icket
dis comfort
dis agree
br ide
bl ers
inter acting
dr ums
int endo
ren al
cor rection
thr iving
cur tain
cur ios
cur tains
well s
read ings
reg ener
high lighting
don ors
ener getic
gu ilt
Re ed
cal or
itt ens
10 80
Con vers
Con crete
Con gratulations
design ation
Pro of
ner ves
ash i
show room
hand les
trans parency
De ck
gl uco
ug ly
... "
az ing
par ish
No de
real m
Cl ark
project ed
perform ers
unt ed
appro ve
lim iting
Le ave
count ies
la h
Go a
ric ane
turn out
Or acle
pot assium
Do ing
kind ness
Ph rom
Bl ues
tem pt
install er
trav elled
trav ellers
ref urb
far ther
conf ess
cred ibility
ster dam
sho ots
season ed
compet ence
pict ured
strong est
dist ur
Fe atures
Not es
Dis tribution
gen es
deter ior
sent ences
econom ical
glo ves
jour n
IC S
Bar ry
sens es
suit es
Am sterdam
contribut es
Ho es
explo s
explo red
acqu iring
spot ted
IL O
photograph ers
analy zing
ung le
optim ized
Char lie
repair ing
PR O
Spe aker
36 5
pump s
remind s
fat igue
Ma them
tend ency
Sk ills
diet ary
Phil os
196 4
eth ical
teen age
posit ively
mand ate
kill er
Fun eral
Gen esis
Dep ot
Blo od
dim ension
Kind er
sha ft
Person ally
curren cies
strugg les
behavior al
Ha us
wheel chair
divid end
NY C
Chris to
demonstr ation
FA Q
Tour ism
adapt ive
Mont ana
Ide a
Olymp ia
anx ious
script ure
Prote in
Conne ction
voc ational
coordin ator
moist ur
absor bed
Never theless
orient ation
fulfill ment
suspect ed
govern ance
Heart burn
Fig ure
isol ated
paramet ric
infect ed
Mah ar
bicy cles
Exp lore
Coach ing
Tar get
elev ated
observ ation
prohib ited
Affil iate
Orig inal
Pret ty
recon ciliation
Aw esome
Nut r
Doc ument
Mas ters
correspond ence
refuge es
subscrib ers
Sess ions
fragr ance
appet ite
Dash board
soo thing
attest ation
cleans ing
fon ts
Var ious
Peters burg
referr als
Luck ily
Hamp shire
dissert ation
Berke ley
Yout ube
umato id
Phrom ac
" ;
0 22
0 52
2 B
8 50
A viation
B less
B erg
B illy
C u
C um
C 90
C apt
E PA
F S
F ed
F ly
F light
F CC
I g
I sa
K B
K E
K al
K le
L is
M ight
M ai
N ag
N az
P U
P ic
P our
P ine
P sy
P RES
R ena
S ant
S low
T ul
U ran
V 8
V ene
W N
W ard
W arr
X X
Y emen
b end
b ats
b orders
c ad
c ited
c ables
d ots
g love
h ier
i od
j ah
k ed
k ms
n ik
p u
u ble
v е
z oo
л а
th rew
re sur
re claimed
at ar
ing e
it ious
st an
ch i
be have
he tt
am matory
im ental
pro be
pro position
con fin
all a
de fer
de bit
fr amed
out look
so ils
igh teous
sh red
ment ors
ment oring
per fection
Th ane
ist le
ust ard
ial s
In dependence
bo iling
ail ing
ib les
sp reading
ign oring
no x
str ings
inter change
inter iors
Ch arter
hel icop
ph o
ef t
cur s
well ery
min s
lect ures
mon o
under way
under taken
med ian
med ieval
don or
bas il
Com fort
ho ckey
ble ed
inst inct
sk ate
show cas
ub a
So lyn
free zing
list ened
pol ished
cap tain
last s
gl orious
market ers
ins ane
New castle
Be ha
Ad venture
organ ise
Sh ot
perform er
12 1
house holds
ense m
la hom
Go spel
ger an
activ ist
expect s
sw ift
aud it
Bu hari
ON LY
development al
17 th
Ac counting
redu ctions
connect ivity
Nor mally
mar sh
dam aging
Med ian
Gu est
vi be
Now adays
Dis play
AP P
rele asing
tax pay
sent iment
government al
Min or
else a
bi odiversity
fresh ly
bud s
sun shine
lock ing
path ways
Pol itical
stain s
stain ed
celebr ities
Comp are
Comp act
sle eve
log istics
Ed wards
Any thing
pal ate
ran ch
Stud ios
lif ted
song writer
Ke ith
27 th
condition ed
court esy
atter y
attack ing
block ing
fair y
ester ol
instit utional
Str ate
Har bor
enh ancing
Wal ker
bol a
fem tosecond
IR A
tren dy
Met allic
Ver ify
occas ional
anch or
Top ics
micro phone
config ur
Like wise
gal van
AB C
Under standing
investig ations
prepare s
Hy dr
poor ly
civil ization
conv iction
oph ile
Mach ines
Mach inery
yout ube
pa use
