{"<UNK>":0,"<PAD>":1,"<s>":2,"<s/>":3,"\u0003":4,"\b":5,"\u0019":6,"!":7,"\"":8,"#":9,"$":10,"%":11,"&":12,"'":13,"(":14,")":15,"*":16,"+":17,",":18,"-":19,".":20,"/":21,"0":22,"1":23,"2":24,"3":25,"4":26,"5":27,"6":28,"7":29,"8":30,"9":31,":":32,";":33,"<":34,"=":35,">":36,"?":37,"@":38,"A":39,"B":40,"C":41,"D":42,"E":43,"F":44,"G":45,"H":46,"I":47,"J":48,"K":49,"L":50,"M":51,"N":52,"O":53,"P":54,"Q":55,"R":56,"S":57,"T":58,"U":59,"V":60,"W":61,"X":62,"Y":63,"Z":64,"[":65,"\\":66,"]":67,"^":68,"_":69,"`":70,"a":71,"b":72,"c":73,"d":74,"e":75,"f":76,"g":77,"h":78,"i":79,"j":80,"k":81,"l":82,"m":83,"n":84,"o":85,"p":86,"q":87,"r":88,"s":89,"t":90,"u":91,"v":92,"w":93,"x":94,"y":95,"z":96,"|":97,"}":98,"~":99,"":100,"":101,"":102,"":103,"":104,"":105,"":106,"":107,"":108,"":109,"":110,"":111,"¡":112,"¢":113,"£":114,"¥":115,"§":116,"©":117,"«":118,"¬":119,"­":120,"®":121,"°":122,"±":123,"·":124,"»":125,"¿":126,"À":127,"Á":128,"Â":129,"Ã":130,"Ä":131,"Å":132,"Ç":133,"È":134,"É":135,"Í":136,"Î":137,"Ñ":138,"Ó":139,"Ö":140,"×":141,"Ø":142,"Ú":143,"Ü":144,"ß":145,"à":146,"á":147,"â":148,"ã":149,"ä":150,"å":151,"æ":152,"ç":153,"è":154,"é":155,"ê":156,"ë":157,"í":158,"î":159,"ï":160,"ñ":161,"ò":162,"ó":163,"ô":164,"õ":165,"ö":166,"ø":167,"ù":168,"ú":169,"û":170,"ü":171,"ý":172,"Ā":173,"ā":174,"ă":175,"ą":176,"ć":177,"ċ":178,"Č":179,"č":180,"ď":181,"Đ":182,"đ":183,"ē":184,"ĕ":185,"ė":186,"ę":187,"ě":188,"ğ":189,"ĩ":190,"Ī":191,"ī":192,"İ":193,"ı":194,"ł":195,"ō":196,"ő":197,"œ":198,"ř":199,"ś":200,"Ş":201,"ş":202,"Š":203,"š":204,"ū":205,"ů":206,"ų":207,"ź":208,"ż":209,"Ž":210,"ž":211,"ƒ":212,"ư":213,"ȏ":214,"ə":215,"ʁ":216,"ʏ":217,"ʹ":218,"ʺ":219,"ʼ":220,"ʿ":221,"ˈ":222,"ː":223,"́":224,"̃":225,"̈":226,"̋":227,"̶":228,"͞":229,"Έ":230,"Α":231,"Δ":232,"Ε":233,"Η":234,"Ι":235,"Κ":236,"Λ":237,"Μ":238,"Ν":239,"Ο":240,"Ρ":241,"Σ":242,"Φ":243,"Ω":244,"ά":245,"έ":246,"ή":247,"ί":248,"α":249,"β":250,"γ":251,"δ":252,"ε":253,"ζ":254,"η":255,"θ":256,"ι":257,"κ":258,"λ":259,"μ":260,"ν":261,"ο":262,"π":263,"ρ":264,"ς":265,"σ":266,"τ":267,"υ":268,"φ":269,"χ":270,"ω":271,"ό":272,"ύ":273,"ώ":274,"Ђ":275,"А":276,"Б":277,"В":278,"Г":279,"Д":280,"Е":281,"Ж":282,"З":283,"И":284,"К":285,"Л":286,"М":287,"Н":288,"О":289,"П":290,"Р":291,"С":292,"Т":293,"У":294,"Ф":295,"Х":296,"Ч":297,"Э":298,"Ю":299,"Я":300,"а":301,"б":302,"в":303,"г":304,"д":305,"е":306,"ж":307,"з":308,"и":309,"й":310,"к":311,"л":312,"м":313,"н":314,"о":315,"п":316,"р":317,"с":318,"т":319,"у":320,"ф":321,"х":322,"ц":323,"ч":324,"ш":325,"щ":326,"ъ":327,"ы":328,"ь":329,"э":330,"ю":331,"я":332,"ё":333,"ѕ":334,"і":335,"ԛ":336,"ַ":337,"ָ":338,"ג":339,"ע":340,"ר":341,"،":342,"ء":343,"أ":344,"إ":345,"ا":346,"ب":347,"ة":348,"ت":349,"ج":350,"ح":351,"خ":352,"د":353,"ذ":354,"ر":355,"ز":356,"س":357,"ش":358,"ص":359,"ض":360,"ظ":361,"ع":362,"غ":363,"ف":364,"ق":365,"ك":366,"ل":367,"م":368,"ن":369,"ه":370,"و":371,"ى":372,"ي":373,"ً":374,"ک":375,"گ":376,"ی":377,"۪":378,"ܐ":379,"ܘ":380,"ܛ":381,"ܝ":382,"ܢ":383,"ܣ":384,"ं":385,"अ":386,"आ":387,"इ":388,"उ":389,"ए":390,"औ":391,"क":392,"ग":393,"च":394,"छ":395,"ज":396,"ट":397,"ढ":398,"ण":399,"त":400,"थ":401,"द":402,"ध":403,"न":404,"प":405,"ब":406,"भ":407,"म":408,"य":409,"र":410,"ल":411,"व":412,"श":413,"ष":414,"स":415,"ह":416,"़":417,"ा":418,"ि":419,"ी":420,"ु":421,"ू":422,"े":423,"ै":424,"ो":425,"ौ":426,"्":427,"।":428,"ത":429,"ര":430,"ശ":431,"ൂ":432,"ൃ":433,"്":434,"ก":435,"ข":436,"ค":437,"ง":438,"ด":439,"ต":440,"น":441,"บ":442,"ป":443,"พ":444,"ม":445,"ย":446,"ร":447,"ล":448,"ว":449,"ส":450,"อ":451,"ั":452,"า":453,"ิ":454,"ี":455,"ู":456,"฿":457,"เ":458,"ใ":459,"ไ":460,"่":461,"้":462,"Ḥ":463,"ḥ":464,"ṣ":465,"Ṭ":466,"ṭ":467,"ạ":468,"ế":469,"ệ":470,"ọ":471,"ố":472,"ộ":473,"ờ":474,"​":475,"‌":476,"‍":477,"‎":478,"‐":479,"–":480,"—":481,"―":482,"‘":483,"’":484,"“":485,"”":486,"„":487,"†":488,"•":489,"‰":490,"′":491,"›":492,"※":493,"⁄":494,"⁕":495,"₤":496,"€":497,"₹":498,"℗":499,"←":500,"↑":501,"→":502,"⇨":503,"∂":504,"∑":505,"−":506,"∼":507,"≈":508,"≠":509,"≡":510,"≥":511,"≫":512,"⋯":513,"⌖":514,"□":515,"►":516,"◆":517,"○":518,"●":519,"◼":520,"♥":521,"♫":522,"✅":523,"✈":524,"✓":525,"✔":526,"❤":527,"➡":528,"、":529,"。":530,"「":531,"」":532,"【":533,"】":534,"い":535,"う":536,"か":537,"が":538,"き":539,"く":540,"し":541,"た":542,"だ":543,"っ":544,"て":545,"で":546,"と":547,"ど":548,"に":549,"の":550,"は":551,"ふ":552,"ぶ":553,"ま":554,"み":555,"や":556,"よ":557,"ら":558,"り":559,"る":560,"れ":561,"を":562,"ん":563,"ア":564,"ィ":565,"イ":566,"ウ":567,"オ":568,"カ":569,"ク":570,"コ":571,"シ":572,"ジ":573,"ス":574,"ズ":575,"セ":576,"ナ":577,"ニ":578,"フ":579,"ブ":580,"ペ":581,"ホ":582,"ボ":583,"ミ":584,"ム":585,"ュ":586,"ラ":587,"リ":588,"ル":589,"ロ":590,"ン":591,"・":592,"ー":593,"一":594,"与":595,"专":596,"世":597,"业":598,"个":599,"中":600,"丷":601,"为":602,"主":603,"乐":604,"乾":605,"予":606,"事":607,"二":608,"于":609,"云":610,"井":611,"交":612,"产":613,"享":614,"京":615,"人":616,"今":617,"他":618,"以":619,"传":620,"位":621,"体":622,"依":623,"修":624,"借":625,"假":626,"儿":627,"元":628,"充":629,"全":630,"八":631,"六":632,"关":633,"兼":634,"内":635,"农":636,"出":637,"分":638,"到":639,"前":640,"功":641,"勇":642,"化":643,"北":644,"华":645,"及":646,"友":647,"双":648,"发":649,"变":650,"古":651,"史":652,"号":653,"司":654,"合":655,"吒":656,"含":657,"和":658,"品":659,"員":660,"哪":661,"商":662,"囉":663,"园":664,"国":665,"图":666,"國":667,"園":668,"在":669,"场":670,"埼":671,"堂":672,"場":673,"夏":674,"外":675,"大":676,"夷":677,"奕":678,"奖":679,"女":680,"好":681,"如":682,"威":683,"婚":684,"嫩":685,"学":686,"宋":687,"家":688,"容":689,"寺":690,"寿":691,"展":692,"工":693,"己":694,"市":695,"希":696,"幅":697,"干":698,"年":699,"幹":700,"度":701,"康":702,"建":703,"开":704,"弁":705,"式":706,"当":707,"役":708,"彼":709,"心":710,"志":711,"思":712,"急":713,"恋":714,"恩":715,"想":716,"我":717,"户":718,"房":719,"所":720,"打":721,"托":722,"据":723,"推":724,"掲":725,"描":726,"故":727,"教":728,"敢":729,"数":730,"文":731,"新":732,"方":733,"旅":734,"日":735,"时":736,"明":737,"易":738,"映":739,"昨":740,"昭":741,"是":742,"時":743,"景":744,"暗":745,"書":746,"曾":747,"最":748,"月":749,"有":750,"望":751,"期":752,"本":753,"机":754,"杨":755,"板":756,"林":757,"查":758,"柯":759,"梅":760,"楷":761,"楽":762,"機":763,"欅":764,"款":765,"步":766,"武":767,"水":768,"沢":769,"法":770,"注":771,"泽":772,"活":773,"涉":774,"清":775,"渡":776,"港":777,"漉":778,"澤":779,"点":780,"爱":781,"物":782,"特":783,"玉":784,"玩":785,"现":786,"球":787,"理":788,"生":789,"用":790,"画":791,"界":792,"留":793,"発":794,"的":795,"盛":796,"着":797,"知":798,"码":799,"示":800,"社":801,"神":802,"离":803,"私":804,"秘":805,"空":806,"立":807,"站":808,"童":809,"第":810,"简":811,"算":812,"籠":813,"米":814,"約":815,"純":816,"紧":817,"絹":818,"綫":819,"線":820,"约":821,"纽":822,"线":823,"细":824,"经":825,"给":826,"编":827,"网":828,"置":829,"群":830,"習":831,"耍":832,"育":833,"能":834,"腐":835,"自":836,"色":837,"节":838,"英":839,"草":840,"荐":841,"薩":842,"行":843,"补":844,"表":845,"補":846,"西":847,"言":848,"計":849,"話":850,"語":851,"讓":852,"议":853,"讯":854,"设":855,"询":856,"语":857,"说":858,"谈":859,"豆":860,"贈":861,"走":862,"跟":863,"路":864,"車":865,"车":866,"辑":867,"进":868,"述":869,"造":870,"進":871,"部":872,"都":873,"配":874,"酒":875,"释":876,"野":877,"金":878,"银":879,"長":880,"长":881,"開":882,"関":883,"關":884,"问":885,"间":886,"阐":887,"际":888,"陆":889,"陸":890,"際":891,"電":892,"非":893,"音":894,"题":895,"駅":896,"體":897,"麗":898,"黃":899,"가":900,"간":901,"개":902,"거":903,"건":904,"것":905,"게":906,"격":907,"결":908,"경":909,"계":910,"고":911,"공":912,"과":913,"교":914,"국":915,"규":916,"그":917,"글":918,"급":919,"기":920,"꾸":921,"나":922,"난":923,"남":924,"낮":925,"내":926,"널":927,"년":928,"노":929,"녹":930,"는":931,"니":932,"다":933,"단":934,"대":935,"데":936,"도":937,"되":938,"두":939,"드":940,"든":941,"들":942,"등":943,"디":944,"라":945,"락":946,"래":947,"랜":948,"럼":949,"레":950,"력":951,"렴":952,"로":953,"론":954,"롤":955,"률":956,"를":957,"리":958,"립":959,"마":960,"막":961,"매":962,"명":963,"모":964,"무":965,"문":966,"물":967,"므":968,"미":969,"믿":970,"및":971,"바":972,"반":973,"발":974,"배":975,"벌":976,"보":977,"본":978,"부":979,"분":980,"브":981,"비":982,"빈":983,"사":984,"상":985,"색":986,"샷":987,"서":988,"설":989,"성":990,"세":991,"센":992,"셔":993,"션":994,"소":995,"속":996,"송":997,"수":998,"순":999,"술":1000,"쉐":1001,"쉽":1002,"스":1003,"습":1004,"시":1005,"신":1006,"심":1007,"아":1008,"앙":1009,"야":1010,"양":1011,"어":1012,"업":1013,"없":1014,"엇":1015,"었":1016,"에":1017,"여":1018,"역":1019,"연":1020,"영":1021,"오":1022,"왔":1023,"외":1024,"요":1025,"용":1026,"우":1027,"운":1028,"워":1029,"원":1030,"월":1031,"위":1032,"유":1033,"육":1034,"으":1035,"은":1036,"을":1037,"의":1038,"이":1039,"인":1040,"일":1041,"임":1042,"입":1043,"있":1044,"자":1045,"작":1046,"장":1047,"재":1048,"저":1049,"적":1050,"전":1051,"점":1052,"정":1053,"제":1054,"조":1055,"좌":1056,"주":1057,"준":1058,"중":1059,"지":1060,"질":1061,"집":1062,"처":1063,"척":1064,"천":1065,"체":1066,"총":1067,"축":1068,"출":1069,"츠":1070,"치":1071,"크":1072,"타":1073,"탁":1074,"터":1075,"테":1076,"톤":1077,"통":1078,"트":1079,"티":1080,"파":1081,"판":1082,"패":1083,"페":1084,"평":1085,"포":1086,"품":1087,"프":1088,"필":1089,"하":1090,"학":1091,"한":1092,"할":1093,"합":1094,"항":1095,"해":1096,"핸":1097,"현":1098,"호":1099,"화":1100,"환":1101,"히":1102,"":1103,"":1104,"":1105,"":1106,"":1107,"":1108,"️":1109,"﻿":1110,"�":1111,"🌱":1112,"🌴":1113,"🍹":1114,"🎂":1115,"🏉":1116,"🏴":1117,"🏷":1118,"🐛":1119,"🐜":1120,"💕":1121,"💥":1122,"😀":1123,"😉":1124,"😍":1125,"🙁":1126,"🙂":1127,"🤤":1128,"󠁢":1129,"󠁣":1130,"󠁧":1131,"󠁬":1132,"󠁳":1133,"󠁴":1134,"󠁷":1135,"󠁿":1136,"th":1137,"in":1138,"an":1139,"er":1140,"on":1141,"re":1142,"the":1143,"at":1144,"en":1145,"ou":1146,"or":1147,"es":1148,"al":1149,"is":1150,"to":1151,"ing":1152,"and":1153,"ed":1154,"ar":1155,"it":1156,"of":1157,"as":1158,"ic":1159,"le":1160,"ion":1161,"st":1162,"om":1163,"il":1164,"ent":1165,"ac":1166,"el":1167,"you":1168,"ro":1169,"for":1170,"se":1171,"ch":1172,"be":1173,"ve":1174,"he":1175,"ad":1176,"ow":1177,"id":1178,"ly":1179,"ay":1180,"am":1181,"ol":1182,"et":1183,"im":1184,"ith":1185,"ig":1186,"ver":1187,"ation":1188,"are":1189,"ct":1190,"wh":1191,"ot":1192,"that":1193,"with":1194,"ab":1195,"su":1196,"ut":1197,"ir":1198,"us":1199,"ce":1200,"un":1201,"ter":1202,"ur":1203,"ag":1204,"pro":1205,"com":1206,"con":1207,"lo":1208,"ers":1209,"all":1210,"ill":1211,"em":1212,"The":1213,"tr":1214,"ne":1215,"ap":1216,"if":1217,"ul":1218,"op":1219,"mo":1220,"our":1221,"we":1222,"res":1223,"ess":1224,"pl":1225,"est":1226,"de":1227,"ke":1228,"fr":1229,"ha":1230,"ere":1231,"ex":1232,"out":1233,"your":1234,"pe":1235,"so":1236,"igh":1237,"ate":1238,"sh":1239,"ain":1240,"qu":1241,"ment":1242,"oun":1243,"art":1244,"ant":1245,"one":1246,"per":1247,"can":1248,"ity":1249,"have":1250,"ld":1251,"iv":1252,"Th":1253,"od":1254,"ive":1255,"was":1256,"ies":1257,"by":1258,"ther":1259,"pr":1260,"from":1261,"wor":1262,"act":1263,"this":1264,"not":1265,"po":1266,"ist":1267,"will":1268,"te":1269,"end":1270,"cl":1271,"um":1272,"ight":1273,"any":1274,"ort":1275,"fe":1276,"ard":1277,"ome":1278,"up":1279,"ind":1280,"ust":1281,"do":1282,"ial":1283,"co":1284,"gr":1285,"In":1286,"ould":1287,"ge":1288,"ell":1289,"ip":1290,"me":1291,"ide":1292,"gh":1293,"able":1294,"ok":1295,"20":1296,"go":1297,"ie":1298,"but":1299,"ud":1300,"ma":1301,"ear":1302,"ack":1303,"has":1304,"ine":1305,"ice":1306,"age":1307,"av":1308,"tim":1309,"ach":1310,"ough":1311,"port":1312,"</":1313,"ally":1314,"ions":1315,"ast":1316,"ure":1317,"der":1318,"work":1319,"li":1320,"bo":1321,"form":1322,"comp":1323,"cre":1324,"ich":1325,"more":1326,"now":1327,"ire":1328,"very":1329,"du":1330,"use":1331,"my":1332,"ound":1333,"ated":1334,"ser":1335,"way":1336,"day":1337,"their":1338,"af":1339,"get":1340,"fer":1341,"ite":1342,"ans":1343,"fo":1344,"iz":1345,"they":1346,"ts":1347,"ail":1348,"ish":1349,"ib":1350,"ck":1351,"ous":1352,"ass":1353,"sp":1354,"ak":1355,"ence":1356,"ong":1357,"some":1358,"ev":1359,"its":1360,"It":1361,"ance":1362,"other":1363,"time":1364,"ign":1365,"about":1366,"part":1367,"We":1368,"own":1369,"which":1370,"cont":1371,"ia":1372,"ace":1373,"00":1374,"no":1375,"cr":1376,"ase":1377,"str":1378,"thing":1379,"pre":1380,"ber":1381,"year":1382,"dis":1383,"br":1384,"cess":1385,"ame":1386,"new":1387,"bl":1388,"ep":1389,"ely":1390,"who":1391,"This":1392,"ick":1393,"also":1394,"ction":1395,"..":1396,"Wh":1397,"ful":1398,"An":1399,"over":1400,"ents":1401,"ary":1402,"ations":1403,"ical":1404,"man":1405,"ark":1406,"201":1407,"ty":1408,"ree":1409,"inter":1410,"dr":1411,"ile":1412,"need":1413,"ens":1414,"int":1415,"ition":1416,"comm":1417,"prov":1418,"ren":1419,"ll":1420,"them":1421,"ple":1422,"pos":1423,"aw":1424,"spe":1425,"Ch":1426,"like":1427,"hel":1428,"ild":1429,"his":1430,"ors":1431,"when":1432,"just":1433,"St":1434,"there":1435,"reat":1436,"cial":1437,"than":1438,"what":1439,"been":1440,"ph":1441,"pres":1442,"off":1443,"low":1444,"ting":1445,"col":1446,"des":1447,"serv":1448,"how":1449,"ink":1450,"cor":1451,"her":1452,"know":1453,"would":1454,"fir":1455,"cho":1456,"ang":1457,"bu":1458,"wo":1459,"cus":1460,"ue":1461,"most":1462,"ake":1463,"vel":1464,"You":1465,"og":1466,"enc":1467,"ef":1468,"had":1469,"were":1470,"into":1471,"ater":1472,"thr":1473,"ci":1474,"add":1475,"ca":1476,"ade":1477,"ning":1478,"cur":1479,"help":1480,"make":1481,"sy":1482,"mer":1483,"If":1484,"well":1485,"au":1486,"cent":1487,"ople":1488,"may":1489,"read":1490,"look":1491,"old":1492,"vers":1493,"incl":1494,"back":1495,"coun":1496,"fin":1497,"min":1498,"row":1499,"ry":1500,"ating":1501,"through":1502,"only":1503,"produ":1504,"lect":1505,"reg":1506,"ices":1507,"app":1508,"19":1509,"ates":1510,"ob":1511,"see":1512,"people":1513,"sa":1514,"fore":1515,"ory":1516,"je":1517,"ose":1518,"bet":1519,"first":1520,"high":1521,"att":1522,"air":1523,").":1524,"every":1525,"pt":1526,"ied":1527,"ian":1528,"ual":1529,"vis":1530,"mon":1531,"come":1532,"under":1533,"As":1534,"peri":1535,"dif":1536,"car":1537,"med":1538,"vie":1539,"these":1540,"He":1541,"ings":1542,"then":1543,"want":1544,"ments":1545,"fect":1546,"fl":1547,"sup":1548,"ious":1549,"where":1550,"ific":1551,"set":1552,"don":1553,"tain":1554,"cer":1555,"ject":1556,"red":1557,"many":1558,"ible":1559,"ress":1560,"ult":1561,"pers":1562,"top":1563,"ener":1564,"ities":1565,"iness":1566,"play":1567,"gu":1568,"sur":1569,"rel":1570,"let":1571,"ise":1572,"Re":1573,"cal":1574,"cause":1575,"stand":1576,"itt":1577,"arch":1578,"bus":1579,"tom":1580,"king":1581,"os":1582,"urn":1583,"sure":1584,"ict":1585,"line":1586,"good":1587,"stud":1588,"two":1589,"should":1590,"requ":1591,"right":1592,"view":1593,"sel":1594,"uch":1595,"formation":1596,"ons":1597,"ever":1598,"even":1599,"after":1600,"bas":1601,"ational":1602,"stem":1603,"ily":1604,"ks":1605,"mark":1606,"ife":1607,"years":1608,"inv":1609,"land":1610,"down":1611,"great":1612,"ys":1613,"ility":1614,"10":1615,"ange":1616,"Un":1617,"fun":1618,"cle":1619,"del":1620,"Con":1621,"For":1622,"such":1623,"Com":1624,"site":1625,"could":1626,"best":1627,"Tr":1628,"used":1629,"try":1630,"includ":1631,"ures":1632,"ath":1633,"les":1634,"less":1635,"book":1636,"find":1637,"iss":1638,"room":1639,"ular":1640,"home":1641,"ho":1642,"she":1643,"alth":1644,"cond":1645,"much":1646,"design":1647,"ces":1648,"ss":1649,"ubl":1650,"als":1651,"ata":1652,"start":1653,"sim":1654,"ble":1655,"ement":1656,"long":1657,"atch":1658,"gram":1659,"mem":1660,"take":1661,"here":1662,"tern":1663,"olog":1664,"And":1665,"business":1666,"ative":1667,"differ":1668,"eng":1669,"ways":1670,"information":1671,"bel":1672,"cons":1673,"person":1674,"Pro":1675,"sm":1676,"side":1677,"Ne":1678,"eas":1679,"light":1680,"system":1681,"gan":1682,"jo":1683,"ics":1684,"experi":1685,"wr":1686,"sub":1687,"each":1688,"io":1689,"call":1690,"ident":1691,"ner":1692,"ash":1693,"pect":1694,"),":1695,"oft":1696,"put":1697,"ix":1698,"uring":1699,"sul":1700,"main":1701,"emp":1702,"web":1703,"being":1704,"ced":1705,"velop":1706,"made":1707,"amp":1708,"said":1709,"stru":1710,"care":1711,"ds":1712,"Al":1713,"There":1714,"ext":1715,"say":1716,"inst":1717,"develop":1718,"sk":1719,"lar":1720,"because":1721,"show":1722,"chn":1723,"led":1724,"ms":1725,"product":1726,"provid":1727,"ven":1728,"Ar":1729,"fact":1730,"place":1731,"fam":1732,"hand":1733,"chool":1734,"ann":1735,"before":1736,"ouse":1737,"trans":1738,"life":1739,"does":1740,"fol":1741,"those":1742,"ra":1743,"cour":1744,"prof":1745,"ved":1746,"clo":1747,"sol":1748,"ward":1749,"ret":1750,"ited":1751,"wee":1752,"On":1753,"val":1754,"did":1755,"Se":1756,"ub":1757,"ding":1758,"tal":1759,"ages":1760,"ives":1761,"So":1762,"world":1763,"think":1764,"while":1765,"200":1766,"process":1767,"det":1768,"num":1769,"arr":1770,"ality":1771,"ize":1772,"En":1773,"iving":1774,"free":1775,"list":1776,"pol":1777,"But":1778,"che":1779,"char":1780,"ving":1781,"though":1782,"cap":1783,"leg":1784,"pur":1785,"post":1786,"sto":1787,"lot":1788,"Fr":1789,"self":1790,"How":1791,"ional":1792,"De":1793,"data":1794,"around":1795,"tak":1796,"ivers":1797,"different":1798,"too":1799,"program":1800,"last":1801,"plic":1802,"publ":1803,"build":1804,"lead":1805,"search":1806,"support":1807,"feel":1808,"using":1809,"ese":1810,"gl":1811,"ince":1812,"ship":1813,"market":1814,"ton":1815,"offer":1816,"ug":1817,"...":1818,"sal":1819,"dec":1820,"cover":1821,"ank":1822,"commun":1823,"az":1824,"oup":1825,"sign":1826,"again":1827,"pay":1828,"sing":1829,"30":1830,"head":1831,"They":1832,"going":1833,"To":1834,"really":1835,"point":1836,"ins":1837,"Pr":1838,"iting":1839,"irect":1840,"avail":1841,"techn":1842,"iend":1843,"same":1844,"fic":1845,"New":1846,"oc":1847,"ness":1848,"ower":1849,"Ex":1850,"service":1851,"ired":1852,"him":1853,"present":1854,"ween":1855,"lear":1856,"love":1857,"ient":1858,"import":1859,"par":1860,"allow":1861,"No":1862,"vent":1863,"child":1864,"keep":1865,"gener":1866,"Be":1867,"ters":1868,"rent":1869,"ax":1870,"still":1871,"cept":1872,"ier":1873,"month":1874,"ason":1875,"order":1876,"Co":1877,"real":1878,"--":1879,"iver":1880,"ider":1881,"sit":1882,"miss":1883,"poss":1884,"run":1885,"water":1886,"health":1887,"between":1888,"Cl":1889,"opt":1890,"found":1891,"ave":1892,"gy":1893,"incre":1894,"both":1895,"interest":1896,"follow":1897,"experience":1898,"friend":1899,"var":1900,"What":1901,"fil":1902,"plan":1903,"open":1904,"available":1905,"Ad":1906,"ety":1907,"ized":1908,"When":1909,"bre":1910,"ature":1911,"company":1912,"organ":1913,"issu":1914,"ior":1915,"happ":1916,"team":1917,"tract":1918,"resp":1919,"ittle":1920,"resul":1921,"blo":1922,"ves":1923,"week":1924,"always":1925,"exp":1926,"few":1927,"including":1928,"50":1929,"cut":1930,"oper":1931,"school":1932,"level":1933,"Bo":1934,"net":1935,"ines":1936,"bers":1937,"ually":1938,"arm":1939,"000":1940,"loy":1941,"small":1942,"pass":1943,"services":1944,"ability":1945,"provide":1946,"iel":1947,"Pl":1948,"Mo":1949,"aut":1950,"loc":1951,"aph":1952,"number":1953,"Sh":1954,"ross":1955,"ants":1956,"ology":1957,"proper":1958,"partic":1959,"project":1960,"ord":1961,"Br":1962,"perform":1963,"load":1964,"fort":1965,"iqu":1966,"ural":1967,"Our":1968,"12":1969,"manag":1970,"area":1971,"All":1972,"cost":1973,"edu":1974,"ask":1975,"ude":1976,"rece":1977,"itch":1978,"based":1979,"gg":1980,"pat":1981,"sum":1982,"class":1983,"little":1984,".,":1985,"must":1986,"without":1987,"vir":1988,"things":1989,"contin":1990,"during":1991,"At":1992,"mus":1993,"dep":1994,"enter":1995,"adv":1996,"ital":1997,"better":1998,"hard":1999,"ically":2000,"18":2001,"proble":2002,"ump":2003,"With":2004,"grow":2005,"Ser":2006,"got":2007,"ists":2008,"ody":2009,"Gr":2010,"quest":2011,"won":2012,"quality":2013,"family":2014,"unt":2015,"oney":2016,"special":2017,"big":2018,"give":2019,"change":2020,"important":2021,"three":2022,"something":2023,"effect":2024,"ready":2025,"Lo":2026,"spec":2027,"contro":2028,"appro":2029,"report":2030,"house":2031,"ccess":2032,"full":2033,"Ro":2034,"My":2035,"custom":2036,"els":2037,"train":2038,"exam":2039,"soci":2040,"online":2041,"met":2042,"ards":2043,"oto":2044,"second":2045,"ished":2046,"US":2047,"rest":2048,"ients":2049,"equ":2050,"lim":2051,"ather":2052,"ivid":2053,"kes":2054,"ense":2055,"access":2056,"ars":2057,"meet":2058,"direct":2059,"Le":2060,"joy":2061,"ff":2062,"count":2063,"within":2064,"comes":2065,"la":2066,"applic":2067,"group":2068,"test":2069,"ately":2070,"local":2071,"Go":2072,"ution":2073,"tri":2074,"power":2075,"ential":2076,"aren":2077,"prom":2078,"nex":2079,"Is":2080,"working":2081,"days":2082,"course":2083,"cy":2084,"chang":2085,"another":2086,"current":2087,"cas":2088,"ply":2089,"gin":2090,"15":2091,"might":2092,"ger":2093,"ared":2094,"lease":2095,"ont":2096,"fac":2097,"ric":2098,"next":2099,"profess":2100,"press":2101,"photo":2102,"cell":2103,"activ":2104,"ustr":2105,"plac":2106,"oth":2107,"today":2108,"ben":2109,"move":2110,"That":2111,"food":2112,"rem":2113,"invest":2114,"bro":2115,"making":2116,"case":2117,"elect":2118,"comple":2119,"addition":2120,"since":2121,"public":2122,"ah":2123,"law":2124,"website":2125,"vide":2126,"looking":2127,"ote":2128,"consider":2129,"bal":2130,"meric":2131,"graph":2132,"state":2133,"away":2134,"pract":2135,"ours":2136,"Jo":2137,"Dr":2138,"hist":2139,"sc":2140,"ator":2141,"ets":2142,"shop":2143,"nor":2144,"ats":2145,"Col":2146,"needs":2147,"mill":2148,"Res":2149,"ris":2150,"aim":2151,"ft":2152,"ium":2153,"ify":2154,"bed":2155,"11":2156,"Americ":2157,"ames":2158,"turn":2159,"lection":2160,"Af":2161,"Wor":2162,"pop":2163,"sty":2164,"never":2165,"understand":2166,"body":2167,"ences":2168,"uck":2169,"ified":2170,"easy":2171,"She":2172,"IN":2173,"tribut":2174,"Or":2175,"students":2176,"ey":2177,"soft":2178,"vol":2179,"success":2180,"por":2181,"prote":2182,"!!":2183,"possible":2184,"ope":2185,"research":2186,"struct":2187,"ems":2188,"iven":2189,"beaut":2190,"tow":2191,"25":2192,"key":2193,"employ":2194,"bab":2195,"pot":2196,"Can":2197,"ived":2198,"ieve":2199,"conne":2200,"buy":2201,"wal":2202,"ond":2203,"ping":2204,"und":2205,"money":2206,"wom":2207,"ending":2208,"ails":2209,"ery":2210,"ency":2211,"win":2212,"ues":2213,"gether":2214,"page":2215,"itions":2216,",”":2217,"check":2218,"ased":2219,"dev":2220,"iversity":2221,"Coun":2222,"ended":2223,"fully":2224,"pain":2225,"hold":2226,"minut":2227,"learn":2228,"One":2229,"ones":2230,"personal":2231,"These":2232,"di":2233,"appe":2234,"bit":2235,"ER":2236,"products":2237,"son":2238,"ted":2239,"perfect":2240,"large":2241,"Do":2242,"Man":2243,"Ap":2244,"along":2245,"unch":2246,"event":2247,"ware":2248,"until":2249,"create":2250,"stat":2251,"enjoy":2252,"visit":2253,"cu":2254,"outh":2255,"coming":2256,"ique":2257,"Te":2258,"aterial":2259,"together":2260,".\"":2261,"came":2262,"expect":2263,"ush":2264,"dem":2265,"bor":2266,"kind":2267,"game":2268,"ste":2269,"individ":2270,"14":2271,"ister":2272,"men":2273,"thor":2274,"mat":2275,"sch":2276,"whe":2277,"iful":2278,"face":2279,"istr":2280,"focus":2281,"children":2282,"night":2283,"ground":2284,"ball":2285,"aster":2286,"feat":2287,"ization":2288,"Ph":2289,"name":2290,"ling":2291,"tra":2292,"ped":2293,"ield":2294,"having":2295,"include":2296,"members":2297,"viron":2298,"control":2299,"benef":2300,"sw":2301,"ird":2302,"works":2303,"Bl":2304,"tem":2305,"contact":2306,"aper":2307,"ten":2308,"ime":2309,"une":2310,"ury":2311,"icle":2312,"May":2313,"rist":2314,"gre":2315,"non":2316,"ised":2317,"ision":2318,"hol":2319,"share":2320,"purch":2321,"job":2322,"community":2323,"trad":2324,"aud":2325,"hip":2326,"often":2327,"review":2328,"social":2329,"aff":2330,"building":2331,"pack":2332,"16":2333,"mal":2334,"ising":2335,"install":2336,"After":2337,"trav":2338,"content":2339,"certain":2340,"individual":2341,"date":2342,"become":2343,"times":2344,"ills":2345,"ulation":2346,"ref":2347,"ism":2348,"national":2349,"near":2350,"why":2351,"far":2352,"space":2353,"clean":2354,"sever":2355,"member":2356,"educ":2357,"four":2358,"ids":2359,"price":2360,"clear":2361,"lab":2362,"iter":2363,"Intern":2364,"compan":2365,"recent":2366,"ike":2367,"material":2368,"cording":2369,"inal":2370,"wood":2371,"AN":2372,"past":2373,"ively":2374,"known":2375,"24":2376,"ories":2377,"bon":2378,"tool":2379,"step":2380,"vironment":2381,"Mar":2382,"flo":2383,"quick":2384,"teach":2385,"Bu":2386,"hum":2387,"nam":2388,"ney":2389,"board":2390,"pan":2391,"itive":2392,"uro":2393,"ON":2394,"gn":2395,"means":2396,"makes":2397,"specific":2398,"development":2399,"video":2400,"ID":2401,"curity":2402,"AT":2403,"Ind":2404,"getting":2405,"hy":2406,"link":2407,"exper":2408,"enough":2409,"position":2410,"across":2411,"mom":2412,"wa":2413,"However":2414,"17":2415,"aid":2416,"contain":2417,"mind":2418,"conf":2419,"beautiful":2420,"Ac":2421,"flow":2422,"sell":2423,"redu":2424,"portun":2425,"fav":2426,"mit":2427,"roll":2428,"jor":2429,"round":2430,"ners":2431,"done":2432,"called":2433,"against":2434,"100":2435,"model":2436,"music":2437,"treat":2438,"ands":2439,"ount":2440,"Christ":2441,"short":2442,"13":2443,"vious":2444,"gover":2445,"others":2446,"pecial":2447,"nment":2448,"require":2449,"mission":2450,"cred":2451,"tell":2452,"already":2453,"2018":2454,"phone":2455,"opportun":2456,"RE":2457,"camp":2458,"ference":2459,"respons":2460,"anal":2461,"iday":2462,"thod":2463,"least":2464,"connect":2465,"gar":2466,"plain":2467,"ustry":2468,"ream":2469,"action":2470,"mult":2471,"range":2472,"depend":2473,"aring":2474,"offers":2475,"Nor":2476,"left":2477,"cord":2478,"Ste":2479,"mar":2480,"deal":2481,"ster":2482,"ago":2483,"Your":2484,"tru":2485,"front":2486,"urther":2487,"defin":2488,"fut":2489,"ng":2490,"pie":2491,"below":2492,"ift":2493,"doing":2494,"dam":2495,"doesn":2496,"town":2497,"Med":2498,"abo":2499,"utions":2500,"ination":2501,"reach":2502,"ley":2503,"199":2504,"nat":2505,"rop":2506,"ott":2507,"Au":2508,"AS":2509,"dom":2510,"sho":2511,"bring":2512,"please":2513,"wind":2514,"ale":2515,"ilt":2516,"prove":2517,"major":2518,"crip":2519,"road":2520,"ource":2521,"once":2522,"media":2523,"University":2524,"customers":2525,"address":2526,"break":2527,"chall":2528,"typ":2529,"country":2530,"Serv":2531,"fee":2532,"den":2533,"aps":2534,"ief":2535,"actually":2536,"ought":2537,"40":2538,"ik":2539,"minutes":2540,"IS":2541,"vari":2542,"ee":2543,"reco":2544,"live":2545,"ateg":2546,"ensive":2547,"speak":2548,"sound":2549,"season":2550,"cuss":2551,"companies":2552,"field":2553,"particular":2554,"features":2555,"million":2556,"went":2557,"conom":2558,"ane":2559,"resh":2560,"industry":2561,"offic":2562,"recomm":2563,"ips":2564,"iate":2565,"usu":2566,"omet":2567,"imp":2568,"priv":2569,"lik":2570,"city":2571,"ron":2572,"begin":2573,"didn":2574,"rep":2575,"due":2576,"wide":2577,"mp":2578,"mean":2579,"God":2580,"fit":2581,"given":2582,"hours":2583,"compet":2584,"Po":2585,"Car":2586,"Fl":2587,"stop":2588,"study":2589,"return":2590,"value":2591,"problem":2592,"reason":2593,"comb":2594,"claim":2595,"mil":2596,"started":2597,"property":2598,"several":2599,"fast":2600,"stay":2601,"ots":2602,"duct":2603,"wards":2604,"future":2605,"spir":2606,"email":2607,"complet":2608,"issues":2609,"example":2610,"ouch":2611,"orig":2612,"acy":2613,"vo":2614,"required":2615,"fill":2616,"hal":2617,"ww":2618,"ilities":2619,"ina":2620,"early":2621,"Fo":2622,"environment":2623,"tic":2624,"Sy":2625,"pict":2626,"sl":2627,"vert":2628,"professional":2629,"ances":2630,"ino":2631,"type":2632,"women":2633,"ined":2634,"ources":2635,"strong":2636,"simple":2637,"Me":2638,"TH":2639,"Gu":2640,"management":2641,"watch":2642,"tomer":2643,"says":2644,"cult":2645,"mot":2646,"vi":2647,"ides":2648,"box":2649,"everything":2650,"ned":2651,"ured":2652,"wer":2653,"fall":2654,"scre":2655,"technology":2656,"oud":2657,"thought":2658,"style":2659,"card":2660,"hot":2661,"cing":2662,"relation":2663,"Now":2664,"gest":2665,"Des":2666,"elf":2667,"period":2668,"concer":2669,"augh":2670,"bar":2671,"pick":2672,"party":2673,"2017":2674,"above":2675,"idence":2676,"ele":2677,"oring":2678,"comfort":2679,"necess":2680,"story":2681,"account":2682,"pret":2683,"flu":2684,"table":2685,"heart":2686,"ither":2687,"method":2688,"ES":2689,"systems":2690,"contract":2691,"invol":2692,"AC":2693,"needed":2694,"ledge":2695,"Air":2696,"Please":2697,"size":2698,"icy":2699,"taking":2700,"security":2701,"imes":2702,"ibility":2703,"equip":2704,"Mon":2705,"later":2706,"While":2707,"mach":2708,"abl":2709,"months":2710,"anks":2711,"itical":2712,"super":2713,"ishing":2714,"discuss":2715,"living":2716,"dist":2717,"tar":2718,"80":2719,"ai":2720,"ining":2721,"Fe":2722,"__":2723,"hn":2724,"ints":2725,"staff":2726,"paren":2727,"amount":2728,"performance":2729,"complete":2730,"Not":2731,"match":2732,"Part":2733,"dig":2734,"Cr":2735,"Sc":2736,"close":2737,"charac":2738,"pen":2739,"single":2740,"click":2741,"whole":2742,"Don":2743,"door":2744,"provides":2745,"friends":2746,"questions":2747,"select":2748,"results":2749,"Dis":2750,"print":2751,"author":2752,"22":2753,"remain":2754,"grad":2755,"AR":2756,"bur":2757,"result":2758,"took":2759,"American":2760,"travel":2761,"Per":2762,"sci":2763,"issue":2764,"60":2765,"cript":2766,"ming":2767,"uation":2768,"uary":2769,"aving":2770,"Sp":2771,"gen":2772,"atic":2773,"track":2774,"posed":2775,"whether":2776,"AP":2777,"Euro":2778,"OR":2779,"cast":2780,"wall":2781,"inc":2782,"customer":2783,"following":2784,"approach":2785,"ctor":2786,"ford":2787,"user":2788,"war":2789,"urch":2790,"idea":2791,"provided":2792,"tour":2793,"training":2794,"application":2795,"IT":2796,"further":2797,"By":2798,"rele":2799,"news":2800,"meas":2801,"stock":2802,"sites":2803,"ators":2804,"various":2805,"Che":2806,"ged":2807,"hon":2808,"mber":2809,"ensure":2810,"deter":2811,"uses":2812,"changes":2813,",\"":2814,"tegr":2815,"download":2816,"ians":2817,"sem":2818,"plant":2819,"def":2820,"energy":2821,"John":2822,"walk":2823,"tax":2824,"seen":2825,"wonder":2826,"establ":2827,"quite":2828,"comput":2829,"yet":2830,"ancial":2831,"ening":2832,"users":2833,"simply":2834,"natural":2835,"Su":2836,"hair":2837,"ows":2838,"word":2839,"2019":2840,"phys":2841,"host":2842,"potential":2843,"asing":2844,"ape":2845,"exist":2846,"aged":2847,"clients":2848,"ification":2849,"init":2850,"ention":2851,"unique":2852,"surance":2853,"AL":2854,"weight":2855,"resident":2856,"shall":2857,"ls":2858,"wel":2859,"represent":2860,"anything":2861,"pecially":2862,"sent":2863,"ided":2864,"areas":2865,"spect":2866,"eral":2867,"pose":2868,"store":2869,"sales":2870,"Cal":2871,"ded":2872,"econom":2873,"moder":2874,"lat":2875,"especially":2876,"five":2877,"among":2878,"choose":2879,"almost":2880,"history":2881,"improve":2882,"problems":2883,"glo":2884,"saf":2885,"etc":2886,"ules":2887,"someone":2888,"draw":2889,"version":2890,"mag":2891,"nal":2892,"sess":2893,"stit":2894,"June":2895,"Of":2896,"aur":2897,"wed":2898,"jour":2899,"words":2900,"ports":2901,"half":2902,"entire":2903,"State":2904,"third":2905,"cook":2906,"particip":2907,"hope":2908,"designed":2909,"mid":2910,"United":2911,"forward":2912,"exc":2913,"sat":2914,"yourself":2915,"ideas":2916,"taken":2917,"cou":2918,"ilar":2919,"iple":2920,"subject":2921,"cam":2922,"paper":2923,"Just":2924,"respect":2925,"deliver":2926,"options":2927,"relationship":2928,"Park":2929,"plat":2930,"ival":2931,"brand":2932,"Cont":2933,"government":2934,"23":2935,"rad":2936,"located":2937,"Min":2938,"assist":2939,"ceed":2940,"related":2941,"popular":2942,"ED":2943,"IC":2944,"regard":2945,"vision":2946,"Some":2947,"van":2948,"sugg":2949,"worth":2950,"events":2951,"suggest":2952,"dry":2953,"includes":2954,"communic":2955,"human":2956,"Sim":2957,"2016":2958,"credit":2959,"ires":2960,"mess":2961,"gain":2962,"partment":2963,"itted":2964,"question":2965,"dou":2966,"ufact":2967,"color":2968,"angu":2969,"hom":2970,"Europe":2971,"gir":2972,"wish":2973,"held":2974,"recogn":2975,"fire":2976,"likely":2977,"South":2978,"everyone":2979,"believe":2980,"favor":2981,"itional":2982,"selves":2983,"struction":2984,"signific":2985,"ience":2986,"mor":2987,"mix":2988,"ral":2989,"plement":2990,"aver":2991,"rate":2992,"legal":2993,"UK":2994,"ony":2995,"else":2996,"ables":2997,"docu":2998,"common":2999,"sen":3000,"record":3001,"lic":3002,"amaz":3003,"ples":3004,"percent":3005,"protect":3006,"accept":3007,"young":3008,"firm":3009,"built":3010,"takes":3011,"recommend":3012,"cop":3013,"soon":3014,"Qu":3015,"band":3016,"hind":3017,"ute":3018,"however":3019,"bill":3020,"knowledge":3021,"books":3022,"skin":3023,"integr":3024,"foot":3025,"itchen":3026,"ging":3027,"icro":3028,"text":3029,"collect":3030,"receive":3031,"nov":3032,"request":3033,"dy":3034,"era":3035,"ering":3036,"term":3037,"necessary":3038,"Bar":3039,"National":3040,"enn":3041,"education":3042,"aging":3043,"throughout":3044,"function":3045,"general":3046,"via":3047,"xim":3048,"series":3049,"Reg":3050,"swe":3051,"lex":3052,"ull":3053,"aily":3054,"ban":3055,"reet":3056,"details":3057,"either":3058,"setting":3059,"platform":3060,"bad":3061,"cir":3062,"purchase":3063,"ges":3064,"sens":3065,"ently":3066,"white":3067,"black":3068,"learning":3069,"Par":3070,"ica":3071,"suit":3072,"office":3073,"currently":3074,"risk":3075,"created":3076,"increase":3077,"usually":3078,"Jan":3079,"seem":3080,"added":3081,"lands":3082,"bably":3083,"lege":3084,"happy":3085,"ork":3086,"crib":3087,"blog":3088,"bi":3089,"tit":3090,"astic":3091,"tee":3092,"diffic":3093,"writing":3094,"ene":3095,"option":3096,"World":3097,"significant":3098,"fix":3099,"activities":3100,"26":3101,"har":3102,"rect":3103,"refer":3104,"drive":3105,"maintain":3106,"impact":3107,"AM":3108,"Mr":3109,"continu":3110,"Pe":3111,"continue":3112,"”,":3113,"mob":3114,"21":3115,"Will":3116,"appoint":3117,"Cor":3118,"told":3119,"rather":3120,"trip":3121,"Here":3122,"Mark":3123,"ore":3124,"role":3125,"talk":3126,"Fin":3127,"fresh":3128,"trying":3129,"City":3130,"carbon":3131,"bud":3132,"spr":3133,"exact":3134,"School":3135,"ert":3136,"items":3137,"EN":3138,"park":3139,"cert":3140,"skills":3141,"rodu":3142,"probably":3143,"loss":3144,"true":3145,"cool":3146,"ensen":3147,"commit":3148,"istration":3149,"touch":3150,"ays":3151,"image":3152,"upon":3153,"reading":3154,"additional":3155,"software":3156,"matter":3157,"sun":3158,"object":3159,"Rep":3160,"total":3161,"enced":3162,"ecut":3163,"tt":3164,"tre":3165,"isn":3166,"agre":3167,"financial":3168,"izing":3169,"House":3170,"behind":3171,"International":3172,"kids":3173,"eter":3174,"opportunity":3175,"gress":3176,"lock":3177,"received":3178,"path":3179,"2015":3180,"easily":3181,"core":3182,"manufact":3183,"associ":3184,"From":3185,"ometimes":3186,"veh":3187,"His":3188,"err":3189,"outside":3190,"ountain":3191,"active":3192,"mas":3193,"uge":3194,"feature":3195,"regular":3196,"rooms":3197,"famil":3198,"medical":3199,"engine":3200,"pretty":3201,"28":3202,"Cent":3203,"Hensen":3204,"brow":3205,"marketing":3206,"equipment":3207,"modern":3208,"High":3209,"II":3210,"giving":3211,"ux":3212,"ental":3213,"conditions":3214,".”":3215,"bul":3216,"mun":3217,"programs":3218,"official":3219,"squ":3220,"prevent":3221,"similar":3222,"Sun":3223,"according":3224,"wanted":3225,"weeks":3226,"vot":3227,"offee":3228,"itten":3229,"bir":3230,"oil":3231,"inside":3232,"extra":3233,"original":3234,"Apr":3235,"ses":3236,"itor":3237,"TV":3238,"cup":3239,"ises":3240,"AD":3241,"Pol":3242,"langu":3243,"uff":3244,"ends":3245,"corpor":3246,"70":3247,"Lon":3248,"idge":3249,"choice":3250,"covered":3251,"Build":3252,"private":3253,"file":3254,"ened":3255,"appl":3256,"allows":3257,"SE":3258,"stain":3259,"mail":3260,"worked":3261,"Associ":3262,"moment":3263,"points":3264,"answer":3265,"practice":3266,"County":3267,"ham":3268,"acc":3269,"sets":3270,"ably":3271,"clim":3272,"gets":3273,"prep":3274,"autom":3275,"summer":3276,"quickly":3277,"lower":3278,"final":3279,"Art":3280,"amazing":3281,"ches":3282,"film":3283,"growth":3284,"Mc":3285,"cele":3286,"sale":3287,"benefits":3288,"labor":3289,"Every":3290,"cil":3291,"insurance":3292,"elt":3293,"dress":3294,"bing":3295,"hor":3296,"ker":3297,"previous":3298,"projects":3299,"variety":3300,"Im":3301,"wise":3302,"arden":3303,"----":3304,"celebr":3305,"York":3306,"running":3307,"gas":3308,"launch":3309,"Am":3310,"ze":3311,"excell":3312,"qual":3313,"thentic":3314,"types":3315,"London":3316,"Up":3317,"solution":3318,"charge":3319,"aves":3320,"cret":3321,"providing":3322,"meeting":3323,"Let":3324,"late":3325,"nothing":3326,"production":3327,"character":3328,"lines":3329,"Ge":3330,"base":3331,"fail":3332,"looks":3333,"airs":3334,"included":3335,"difficult":3336,"90":3337,"force":3338,"prior":3339,"ogle":3340,"Comp":3341,"tools":3342,"section":3343,"cannot":3344,"asked":3345,"Day":3346,"hab":3347,"source":3348,"ama":3349,"avo":3350,"encour":3351,"Service":3352,"Ju":3353,"mine":3354,"six":3355,"uss":3356,"standard":3357,"safety":3358,"AF":3359,"Sep":3360,"fig":3361,"mass":3362,"isions":3363,"Eng":3364,"daily":3365,"sle":3366,"remo":3367,"sequ":3368,"....":3369,"glass":3370,"effective":3371,"lin":3372,"stant":3373,"terms":3374,"compl":3375,"resources":3376,"commer":3377,"apply":3378,"games":3379,"agr":3380,"log":3381,"longer":3382,"decision":3383,"ties":3384,"contribut":3385,"effic":3386,"latest":3387,"Act":3388,"Get":3389,"Well":3390,"na":3391,"nice":3392,"rout":3393,"smo":3394,"ison":3395,"feed":3396,"display":3397,"35":3398,"clus":3399,"Ed":3400,"Ho":3401,"bs":3402,"bath":3403,"gives":3404,"leave":3405,"leaders":3406,"network":3407,"costs":3408,"anim":3409,"collection":3410,"More":3411,"expected":3412,"ST":3413,"suppl":3414,"appear":3415,"floor":3416,"challeng":3417,"cash":3418,"drop":3419,"craf":3420,"Any":3421,"announ":3422,"pal":3423,"istic":3424,"register":3425,"Also":3426,"North":3427,"Sm":3428,"mod":3429,"higher":3430,"lay":3431,"ada":3432,"Thanks":3433,"ysis":3434,"detail":3435,"Her":3436,"uk":3437,"icated":3438,"advert":3439,"Engl":3440,"planning":3441,"OM":3442,"ran":3443,"article":3444,"solutions":3445,"anyone":3446,"Web":3447,"States":3448,"explo":3449,"Are":3450,"serve":3451,"Stud":3452,"location":3453,"places":3454,"English":3455,"IP":3456,"iet":3457,"ler":3458,"lives":3459,"enge":3460,"ases":3461,"tries":3462,"estim":3463,"speed":3464,"correct":3465,"machine":3466,"bt":3467,"uit":3468,"drink":3469,"leading":3470,"respon":3471,"furn":3472,"hib":3473,"highly":3474,"April":3475,"Sal":3476,"lif":3477,"ights":3478,"written":3479,"screen":3480,"OU":3481,"proved":3482,"treatment":3483,"March":3484,"separ":3485,"Great":3486,"div":3487,"sed":3488,"song":3489,"”.":3490,"hear":3491,"note":3492,"pool":3493,"2014":3494,"center":3495,"organization":3496,"send":3497,"ida":3498,"attention":3499,"Even":3500,"nut":3501,"tur":3502,"kitchen":3503,"ring":3504,"deep":3505,"2013":3506,"Net":3507,"Oc":3508,"sense":3509,"seems":3510,"international":3511,"198":3512,"policy":3513,"photos":3514,"Dev":3515,"anced":3516,"ublic":3517,"materials":3518,"West":3519,"coffee":3520,"sil":3521,"iding":3522,"agement":3523,"2012":3524,"levels":3525,"appropr":3526,"Fir":3527,"limited":3528,"Google":3529,"Austr":3530,"ead":3531,"stor":3532,"parts":3533,"erc":3534,"iture":3535,"Once":3536,"attract":3537,"ille":3538,"Center":3539,"ns":3540,"ps":3541,"Thank":3542,"introdu":3543,"Health":3544,"inner":3545,"reser":3546,"code":3547,"myself":3548,"spend":3549,"helps":3550,"save":3551,"Sat":3552,"ees":3553,"fre":3554,"admin":3555,"actions":3556,"mobile":3557,"45":3558,"atives":3559,"adem":3560,"explain":3561,"izes":3562,"aware":3563,"cul":3564,"dol":3565,"inary":3566,"suf":3567,"goal":3568,"prem":3569,"Sup":3570,"nia":3571,"erg":3572,"Trans":3573,"successful":3574,"conduct":3575,"lots":3576,"Most":3577,"Ab":3578,"Face":3579,"Ke":3580,"Wind":3581,"advant":3582,"hit":3583,"wit":3584,"affect":3585,"hood":3586,"Add":3587,"piece":3588,"computer":3589,"27":3590,"ana":3591,"remember":3592,"broad":3593,"born":3594,"aul":3595,"imm":3596,"ender":3597,"device":3598,"Aug":3599,"Gre":3600,"OT":3601,"warm":3602,"immed":3603,"implement":3604,"Then":3605,"avy":3606,"aking":3607,"shows":3608,"digital":3609,"Mus":3610,"aign":3611,"tas":3612,"ato":3613,"President":3614,"decor":3615,"prim":3616,"grade":3617,"standing":3618,"baby":3619,"Home":3620,"towards":3621,"tele":3622,"ume":3623,"applications":3624,"ET":3625,"ky":3626,"ri":3627,"decided":3628,"Cali":3629,"release":3630,"achieve":3631,"500":3632,"cure":3633,"iam":3634,"entry":3635,"ctions":3636,"assess":3637,"traditional":3638,"global":3639,"resol":3640,"akes":3641,"morning":3642,"average":3643,"Afr":3644,"essential":3645,"earch":3646,"creating":3647,"minim":3648,"restaur":3649,"recently":3650,"bag":3651,"hour":3652,"condition":3653,"profession":3654,"excellent":3655,"Off":3656,"occur":3657,"dependent":3658,"haps":3659,"terr":3660,"student":3661,"favorite":3662,"huge":3663,"instead":3664,"court":3665,"payment":3666,"July":3667,"commercial":3668,"CC":3669,"emo":3670,"strate":3671,"expert":3672,"cross":3673,"dle":3674,"heat":3675,"ements":3676,"mention":3677,"safe":3678,"consist":3679,"political":3680,"document":3681,"Califor":3682,"fab":3683,"paid":3684,"igation":3685,"dog":3686,"serious":3687,"hands":3688,"healthy":3689,"considered":3690,"couple":3691,"tick":3692,"ension":3693,"anger":3694,"multiple":3695,"fish":3696,"ken":3697,"ny":3698,"inform":3699,"stone":3700,"began":3701,"Department":3702,"green":3703,"Flor":3704,"Ger":3705,"San":3706,"icles":3707,"served":3708,"Direct":3709,"basis":3710,"holiday":3711,"atter":3712,"altern":3713,"attack":3714,"surpr":3715,"rights":3716,"interested":3717,"California":3718,"nes":3719,"pet":3720,"imag":3721,"iction":3722,"capt":3723,"purpose":3724,"Design":3725,"involved":3726,"//":3727,"EL":3728,"Pat":3729,"hous":3730,"arter":3731,"exactly":3732,"cry":3733,"parents":3734,"trust":3735,"frame":3736,"except":3737,"letter":3738,"cases":3739,"picture":3740,"Austral":3741,"Why":3742,"finish":3743,"friendly":3744,"language":3745,"scal":3746,"tober":3747,"unte":3748,"itself":3749,"partners":3750,"placed":3751,"bot":3752,"reas":3753,"vey":3754,"prefer":3755,"preci":3756,"target":3757,"arant":3758,"client":3759,"groups":3760,"ivery":3761,"nature":3762,"club":3763,"goes":3764,"ibly":3765,"\".":3766,"Law":3767,"cards":3768,"ederal":3769,"distribut":3770,"interesting":3771,"block":3772,"itation":3773,"ests":3774,"internet":3775,"cand":3776,"nation":3777,"rich":3778,"prices":3779,"former":3780,"See":3781,"PS":3782,"eat":3783,"upd":3784,"complex":3785,"Techn":3786,"Black":3787,"Val":3788,"Wed":3789,"thus":3790,"org":3791,"bey":3792,"exerc":3793,"themselves":3794,"histor":3795,"devices":3796,"First":3797,"stress":3798,"promot":3799,"wait":3800,"budget":3801,"OS":3802,"iation":3803,"acqu":3804,"campaign":3805,"spo":3806,"innov":3807,"itely":3808,"spot":3809,"individuals":3810,"comfortable":3811,"Over":3812,"chann":3813,"positive":3814,"patients":3815,"October":3816,"Facebook":3817,"fair":3818,"ood":3819,"ester":3820,"consul":3821,"ivity":3822,"iew":3823,"regul":3824,"Read":3825,"influ":3826,"onto":3827,"Inc":3828,"duc":3829,"surround":3830,"developed":3831,"analysis":3832,"Cour":3833,"Hol":3834,"cat":3835,"htt":3836,"mm":3837,"ru":3838,"illed":3839,"region":3840,"requirements":3841,"existing":3842,"Gener":3843,"IM":3844,"chair":3845,"antic":3846,"sweet":3847,"progress":3848,"apt":3849,"apan":3850,"reng":3851,"thank":3852,"growing":3853,"dest":3854,"America":3855,"El":3856,"Many":3857,"ville":3858,"ites":3859,"rock":3860,"became":3861,"thinking":3862,"eye":3863,"responsible":3864,"Bus":3865,"views":3866,"empor":3867,"www":3868,"pages":3869,"sort":3870,"sometimes":3871,"agree":3872,"ieved":3873,"Trump":3874,"wine":3875,"lost":3876,"Friday":3877,"Book":3878,"wonderful":3879,"Sam":3880,"jud":3881,"pp":3882,"authentic":3883,"instit":3884,"reduce":3885,"IL":3886,"fa":3887,"largest":3888,"posted":3889,"Dav":3890,"categ":3891,"ease":3892,"pul":3893,"published":3894,"satis":3895,"://":3896,"Str":3897,"mis":3898,"urs":3899,"mother":3900,"carry":3901,"reported":3902,"Internet":3903,"Gl":3904,"Whe":3905,"iced":3906,"29":3907,"Free":3908,"inj":3909,"plans":3910,"strateg":3911,"photograph":3912,"Ben":3913,"Japan":3914,"images":3915,"ellow":3916,"businesses":3917,"experienced":3918,"situation":3919,"stage":3920,"death":3921,"ength":3922,"operation":3923,"Good":3924,"Florida":3925,"farm":3926,"lying":3927,"elling":3928,"describ":3929,"Septem":3930,"appropriate":3931,"saw":3932,"plus":3933,"directly":3934,"analy":3935,"felt":3936,"rules":3937,"execut":3938,"countries":3939,"Commun":3940,"blood":3941,"damage":3942,"viol":3943,"August":3944,"anc":3945,"atory":3946,"star":3947,"streng":3948,"estate":3949,"annual":3950,"investment":3951,"regarding":3952,"Building":3953,"September":3954,"Educ":3955,"pm":3956,"za":3957,"chem":3958,"playing":3959,"Each":3960,"Je":3961,"Make":3962,"gree":3963,"rough":3964,"ube":3965,"advis":3966,"cture":3967,"umb":3968,"pressure":3969,"basic":3970,"write":3971,"definitely":3972,"Mem":3973,"bow":3974,"mir":3975,"ari":3976,"lov":3977,"shot":3978,"2011":3979,"syn":3980,"offered":3981,"Pal":3982,"stuff":3983,"consum":3984,"career":3985,"feeling":3986,"War":3987,"iers":3988,"sn":3989,"stick":3990,"empt":3991,"express":3992,"starting":3993,"turned":3994,"oo":3995,"slow":3996,"Program":3997,"Prof":3998,"cription":3999,"Gover":4000,"fine":4001,"construction":4002,"wasn":4003,"cream":4004,"stra":4005,"ronic":4006,"crow":4007,"chance":4008,"loved":4009,"cru":4010,"blue":4011,"wrong":4012,"lack":4013,"thes":4014,"bert":4015,"obtain":4016,"guarant":4017,"09":4018,"ION":4019,"Pre":4020,"rain":4021,"challenge":4022,"camera":4023,"furniture":4024,"EC":4025,"hop":4026,"aces":4027,"iring":4028,"owners":4029,"schools":4030,"understanding":4031,"Green":4032,"wear":4033,"scient":4034,"33":4035,"PC":4036,"item":4037,"stream":4038,"ads":4039,"iff":4040,"indic":4041,"highest":4042,"meaning":4043,"gift":4044,"medic":4045,"woman":4046,"Mod":4047,"que":4048,"Int":4049,"produce":4050,"adjust":4051,"ague":4052,"tried":4053,"venue":4054,"allowed":4055,"beginning":4056,"completely":4057,"La":4058,"Russ":4059,"aspect":4060,"accur":4061,"heard":4062,"idents":4063,"incred":4064,"birth":4065,"Ber":4066,"abs":4067,"ideal":4068,"evidence":4069,"effort":4070,"established":4071,"Out":4072,"tw":4073,"church":4074,"ashion":4075,"processing":4076,"dream":4077,"lam":4078,"apart":4079,"goals":4080,"ously":4081,"players":4082,"Group":4083,"Hot":4084,"SS":4085,"Since":4086,"scr":4087,"instruct":4088,"oral":4089,"ington":4090,"ung":4091,"optim":4092,"industr":4093,"identify":4094,"capital":4095,"iately":4096,"tle":4097,"theme":4098,"iles":4099,"ades":4100,"thanks":4101,"increasing":4102,"volunte":4103,"Har":4104,"gam":4105,"2010":4106,"Char":4107,"ological":4108,"easier":4109,"spirit":4110,"physical":4111,"vember":4112,"exas":4113,"feet":4114,"parties":4115,"guid":4116,"guide":4117,"difference":4118,"Look":4119,"changed":4120,"ING":4121,"eyes":4122,"homes":4123,"hi":4124,"sold":4125,"vant":4126,"proced":4127,"award":4128,"edule":4129,"advice":4130,"benefit":4131,"repair":4132,"January":4133,"Association":4134,"avoid":4135,"Best":4136,"garden":4137,"sam":4138,"thern":4139,"lier":4140,"offering":4141,"pictures":4142,"wedding":4143,"TM":4144,"knew":4145,"Ital":4146,"ologies":4147,"November":4148,"normal":4149,"Services":4150,"Post":4151,"beyond":4152,"Business":4153,"wid":4154,"income":4155,"neigh":4156,"counts":4157,"supply":4158,"smart":4159,"88":4160,"lation":4161,"movie":4162,"helping":4163,"truly":4164,"determin":4165,"bum":4166,"fan":4167,"impress":4168,"igr":4169,"cember":4170,"concept":4171,"coach":4172,"Super":4173,"iar":4174,"thous":4175,"erson":4176,"affic":4177,"delivery":4178,"audience":4179,"opportunities":4180,"vehicle":4181,"CE":4182,"PR":4183,"Sci":4184,"rup":4185,"enh":4186,"orge":4187,"alone":4188,"sych":4189,"organiz":4190,"Work":4191,"session":4192,"Devel":4193,"Bel":4194,"fant":4195,"gave":4196,"tag":4197,"imin":4198,"overall":4199,"fund":4200,"transfer":4201,"employee":4202,"reflect":4203,"dish":4204,"frequ":4205,"December":4206,"Mag":4207,"push":4208,"reli":4209,"spent":4210,"hosp":4211,"Sw":4212,"bank":4213,"ost":4214,"conven":4215,"China":4216,"profit":4217,"Brit":4218,"activity":4219,"Del":4220,"Ear":4221,"flex":4222,"sav":4223,"abilities":4224,"moving":4225,"effects":4226,"initial":4227,"Sen":4228,"Wal":4229,"plate":4230,"notice":4231,"join":4232,"Febr":4233,"75":4234,"PN":4235,"Spe":4236,"nd":4237,"pite":4238,"yal":4239,"zz":4240,"emot":4241,"neg":4242,"attle":4243,"patient":4244,"certainly":4245,"response":4246,"February":4247,"TA":4248,"Vir":4249,"rench":4250,"extrem":4251,"shopping":4252,"switch":4253,"associated":4254,"Micro":4255,"cel":4256,"sports":4257,"uate":4258,"controll":4259,"Council":4260,"culture":4261,"families":4262,"Satur":4263,"King":4264,"Red":4265,"bound":4266,"roof":4267,"convers":4268,"Inter":4269,"maxim":4270,"century":4271,"tenance":4272,"copy":4273,"Big":4274,"sand":4275,"distr":4276,"happen":4277,"pattern":4278,"demand":4279,"Scott":4280,"Mac":4281,"length":4282,"inde":4283,"istics":4284,"carr":4285,"THE":4286,"server":4287,"manage":4288,"helped":4289,"finally":4290,"player":4291,"technical":4292,"System":4293,"journey":4294,"36":4295,"bol":4296,"vote":4297,"chan":4298,"beach":4299,"appreci":4300,"bly":4301,"iance":4302,"liter":4303,"master":4304,"beha":4305,"consu":4306,"afford":4307,"emporary":4308,"Life":4309,"rew":4310,"ament":4311,"ifts":4312,"Ang":4313,"Although":4314,"Plan":4315,"protection":4316,"employees":4317,"statement":4318,"44":4319,"Down":4320,"Lu":4321,"Ob":4322,"Yes":4323,"weather":4324,"decl":4325,"eval":4326,"background":4327,"Shop":4328,"undred":4329,"double":4330,"Education":4331,"Saturday":4332,"Ama":4333,"TO":4334,"waste":4335,"button":4336,"useful":4337,"encies":4338,"transport":4339,"weekend":4340,"steps":4341,"India":4342,"European":4343,"Cur":4344,"Sto":4345,"cum":4346,"fem":4347,"partner":4348,"99":4349,"Cam":4350,"IR":4351,"Rel":4352,"Ty":4353,"cab":4354,"iment":4355,"forms":4356,"compon":4357,"played":4358,"Christmas":4359,"Tod":4360,"uel":4361,"reh":4362,"degree":4363,"atever":4364,"grand":4365,"earn":4366,"nearly":4367,"professionals":4368,"Port":4369,"cin":4370,"useum":4371,"owner":4372,"although":4373,"temper":4374,"aughter":4375,"message":4376,"straight":4377,"Mal":4378,"pump":4379,"rid":4380,"vit":4381,"loan":4382,"saying":4383,"cape":4384,"methods":4385,"Sunday":4386,"PA":4387,"Rem":4388,"Sch":4389,"dark":4390,"icious":4391,"doors":4392,"compreh":4393,"White":4394,"driving":4395,"schedule":4396,"pieces":4397,"reasons":4398,"station":4399,"peace":4400,"perhaps":4401,"coverage":4402,"entertain":4403,"Windows":4404,"strategy":4405,"Sol":4406,"Texas":4407,"rom":4408,"info":4409,"absol":4410,"sustain":4411,"2009":4412,"vention":4413,"particularly":4414,"measure":4415,"Develop":4416,"48":4417,"Bay":4418,"Hel":4419,"fashion":4420,"pup":4421,"tren":4422,"insp":4423,"Click":4424,"remind":4425,"Canada":4426,"Apple":4427,"Office":4428,"32":4429,"Met":4430,"Ret":4431,"Use":4432,"Year":4433,"util":4434,"ains":4435,"requires":4436,"experiences":4437,"numbers":4438,"teaching":4439,"voice":4440,"estern":4441,"seven":4442,"plent":4443,"Inst":4444,"ibr":4445,"iber":4446,"strict":4447,"colors":4448,"Auto":4449,"completed":4450,"Check":4451,"immediately":4452,"EM":4453,"Rev":4454,"vill":4455,"ston":4456,"selection":4457,"dead":4458,"auto":4459,"looked":4460,"seeing":4461,"files":4462,"powerful":4463,"experts":4464,"contains":4465,"Amaz":4466,"ek":4467,"hundred":4468,"itary":4469,"plants":4470,"kept":4471,"compared":4472,"president":4473,"opening":4474,"College":4475,"reviews":4476,"girl":4477,"Company":4478,"hus":4479,"ored":4480,"forts":4481,"unit":4482,"ivil":4483,"relax":4484,"craft":4485,"Light":4486,"mitted":4487,"olf":4488,"bright":4489,"passion":4490,"Love":4491,"reports":4492,"structure":4493,"sleep":4494,"advantage":4495,"Dan":4496,"fat":4497,"gold":4498,"slight":4499,"threat":4500,"aling":4501,"comment":4502,"studies":4503,"iques":4504,"named":4505,"candid":4506,"extremely":4507,"95":4508,"East":4509,"Ma":4510,"Spr":4511,"Wr":4512,"traffic":4513,"rael":4514,"keeping":4515,"David":4516,"west":4517,"aries":4518,"veget":4519,"ady":4520,"workers":4521,"lighting":4522,"Because":4523,"videos":4524,"demon":4525,"waiting":4526,"released":4527,"relationships":4528,"efficient":4529,"OL":4530,"Ver":4531,"Vis":4532,"tend":4533,"rol":4534,"shared":4535,"Club":4536,"storage":4537,"consult":4538,"Bro":4539,"During":4540,"winter":4541,"arily":4542,"constant":4543,"clud":4544,"brought":4545,"welcome":4546,"Other":4547,"mountain":4548,"iny":4549,"apy":4550,"fruit":4551,"Board":4552,"changing":4553,"minute":4554,"menu":4555,"Africa":4556,"atically":4557,"album":4558,"cheap":4559,"occas":4560,"relevant":4561,"communication":4562,"Find":4563,"Wood":4564,"rates":4565,"ults":4566,"drug":4567,"collabor":4568,"talking":4569,"AND":4570,"connected":4571,"determine":4572,"):":4573,"CA":4574,"CH":4575,"Wash":4576,"ahead":4577,"stories":4578,"usion":4579,"ager":4580,"conference":4581,"lose":4582,"produced":4583,"cells":4584,"steel":4585,"title":4586,"spring":4587,"31":4588,"iant":4589,"ado":4590,"clin":4591,"whose":4592,"interview":4593,"Conference":4594,"visitors":4595,"sembly":4596,"Data":4597,"Em":4598,"Elect":4599,"IF":4600,"Pho":4601,"Sk":4602,"cit":4603,"gent":4604,"icing":4605,"Another":4606,"maybe":4607,"finished":4608,"lights":4609,"retail":4610,"orders":4611,"http":4612,"38":4613,"Pay":4614,"map":4615,"zer":4616,"amin":4617,"apers":4618,"prepar":4619,"fortun":4620,"selling":4621,"stitute":4622,"bottom":4623,"UAF":4624,"Wall":4625,"nur":4626,"reve":4627,"trail":4628,"ultim":4629,"resist":4630,"standards":4631,"funds":4632,"presented":4633,"virt":4634,"Israel":4635,"economic":4636,"restaurant":4637,"exercise":4638,"Demo":4639,"Tur":4640,"sou":4641,"moved":4642,"attend":4643,"ampion":4644,"decisions":4645,"expensive":4646,"elements":4647,"challenges":4648,"plenty":4649,"tail":4650,"inspir":4651,"anch":4652,"istry":4653,"accom":4654,"esty":4655,"poses":4656,"college":4657,"serving":4658,"efforts":4659,"Arch":4660,"Play":4661,"connection":4662,"buying":4663,"Monday":4664,"science":4665,"establish":4666,"Australia":4667,"Jes":4668,"PD":4669,"Top":4670,"tor":4671,"wild":4672,"remove":4673,"states":4674,"exclus":4675,"cles":4676,"earlier":4677,"counter":4678,"increased":4679,"ordin":4680,"managed":4681,"Research":4682,"models":4683,"Open":4684,"gather":4685,"nic":4686,"ils":4687,"cancer":4688,"enses":4689,"Chin":4690,"adding":4691,"flav":4692,"Court":4693,"Whether":4694,"GA":4695,"da":4696,"boy":4697,"respond":4698,"diet":4699,"registered":4700,"advertising":4701,"Jer":4702,"MA":4703,"atively":4704,"Information":4705,"Real":4706,"maintenance":4707,"bedroom":4708,"winning":4709,"Phil":4710,"According":4711,"smooth":4712,"IV":4713,"Lord":4714,"Sur":4715,"dat":4716,"dict":4717,"tips":4718,"isation":4719,"creative":4720,"Street":4721,"subs":4722,"movement":4723,"corporate":4724,"Profess":4725,"catch":4726,"dining":4727,"marr":4728,"micro":4729,"pray":4730,"Church":4731,"larger":4732,"shower":4733,"classic":4734,"billion":4735,"People":4736,"55":4737,"Os":4738,"fight":4739,"tree":4740,"unk":4741,"discover":4742,"cords":4743,"ission":4744,"followed":4745,"config":4746,"habit":4747,"Today":4748,"46":4749,"Have":4750,"Like":4751,"vest":4752,"reality":4753,"Start":4754,"196":4755,"scen":4756,"!!!":4757,"learned":4758,"Indian":4759,"manufactur":4760,"lovely":4761,"Cap":4762,"luck":4763,"sea":4764,"secure":4765,"Where":4766,"surface":4767,"properties":4768,"balance":4769,"names":4770,"independent":4771,"esome":4772,"chat":4773,"heavy":4774,"sert":4775,"valu":4776,"generally":4777,"Class":4778,"limit":4779,"links":4780,"suffer":4781,"district":4782,"Democr":4783,"IB":4784,"spl":4785,"grant":4786,"agreement":4787,"76":4788,"Mid":4789,"comments":4790,"odes":4791,"wants":4792,"dedicated":4793,"dollar":4794,"CD":4795,"bott":4796,"anti":4797,"therefore":4798,"Take":4799,"UN":4800,"father":4801,"street":4802,"advent":4803,"opin":4804,"shown":4805,"mental":4806,"focused":4807,"Blue":4808,"multi":4809,"Party":4810,"husband":4811,"300":4812,"Jack":4813,"Mor":4814,"snow":4815,"ensu":4816,"irection":4817,"otherwise":4818,"cold":4819,"guests":4820,"calls":4821,"developing":4822,"values":4823,"practices":4824,"cleaning":4825,"\",":4826,"Ter":4827,"Wel":4828,"federal":4829,"assign":4830,"critical":4831,"testing":4832,"gal":4833,"edge":4834,"umn":4835,"cretary":4836,"mentioned":4837,"Director":4838,"FID":4839,"Paul":4840,"eth":4841,"seat":4842,"plug":4843,"teen":4844,"pleas":4845,"cars":4846,"surv":4847,"Commission":4848,"finding":4849,"situ":4850,"expand":4851,"advance":4852,"initi":4853,"nutr":4854,"Sub":4855,"ox":4856,"pow":4857,"task":4858,"vac":4859,"ancing":4860,"ena":4861,"elig":4862,"iger":4863,"cket":4864,"famous":4865,"lamp":4866,"mes":4867,"exhib":4868,"passed":4869,"biggest":4870,"Chinese":4871,"Call":4872,"Last":4873,"PL":4874,"bought":4875,"fing":4876,"posit":4877,"teams":4878,"graphic":4879,"combination":4880,"hotel":4881,"distance":4882,"39":4883,"Set":4884,"gone":4885,"score":4886,"aser":4887,"older":4888,"mechan":4889,"listed":4890,"window":4891,"agram":4892,"49":4893,"dump":4894,"assu":4895,"ican":4896,"wash":4897,"evening":4898,"General":4899,"described":4900,"hur":4901,"ju":4902,"lor":4903,"lux":4904,"island":4905,"acity":4906,"roid":4907,"utter":4908,"trade":4909,"attempt":4910,"greater":4911,"USA":4912,"status":4913,"Christian":4914,"miles":4915,"separate":4916,"scale":4917,"Oh":4918,"eight":4919,"lets":4920,"rote":4921,"becomes":4922,"utely":4923,"sharing":4924,"Who":4925,"Ann":4926,"marks":4927,"handle":4928,"AB":4929,"actual":4930,"Cho":4931,"anging":4932,"obvious":4933,"relig":4934,"News":4935,"allowing":4936,"metal":4937,"EX":4938,"Fol":4939,"Mer":4940,"wife":4941,"erous":4942,"orial":4943,"itors":4944,"trou":4945,"majority":4946,"William":4947,"announced":4948,"Government":4949,"Lin":4950,"ba":4951,"lap":4952,"mist":4953,"yes":4954,"ying":4955,"throw":4956,"ancy":4957,"academ":4958,"ctors":4959,"disease":4960,"Under":4961,"couldn":4962,"2007":4963,"opened":4964,"society":4965,"placement":4966,"motion":4967,"middle":4968,"continued":4969,"ros":4970,"sole":4971,"Child":4972,"presents":4973,"police":4974,"north":4975,"installed":4976,"shoot":4977,"filled":4978,"suitable":4979,"palm":4980,"alternative":4981,"fantastic":4982,"Ener":4983,"PM":4984,"eating":4985,"election":4986,"lunch":4987,"race":4988,"forget":4989,"spread":4990,"Chic":4991,"central":4992,"decide":4993,"locations":4994,"prepared":4995,"industrial":4996,"thousands":4997,"comprehensive":4998,"Mart":4999,"ios":5000,"nel":5001,"rum":5002,"willing":5003,"dete":5004,"himself":5005,"Phone":5006,"____":5007,"journal":5008,"Washington":5009,"Bre":5010,"Bal":5011,"Bas":5012,"Found":5013,"HD":5014,"Mic":5015,"Nat":5016,"Rich":5017,"SC":5018,"ga":5019,"nom":5020,"psych":5021,"leaves":5022,"iling":5023,"sugar":5024,"techniques":5025,"parent":5026,"remains":5027,"egg":5028,"ride":5029,"wrote":5030,"lean":5031,"cep":5032,"modif":5033,"quir":5034,"perspect":5035,"Commit":5036,"elections":5037,"scene":5038,"Republic":5039,"houses":5040,"batter":5041,"wire":5042,"shape":5043,"earning":5044,"designs":5045,"communities":5046,"sched":5047,"economy":5048,"primary":5049,"River":5050,"direction":5051,"yard":5052,"stal":5053,"apter":5054,"debt":5055,"polit":5056,"seconds":5057,"square":5058,"figure":5059,"faith":5060,"organizations":5061,"DA":5062,"Its":5063,"gun":5064,"iency":5065,"sco":5066,"south":5067,"eds":5068,"ota":5069,"presence":5070,"archite":5071,"shops":5072,"detailed":5073,"strength":5074,"IG":5075,"OF":5076,"ibe":5077,"mort":5078,"beat":5079,"haven":5080,"cloud":5081,"solid":5082,"processes":5083,"cultural":5084,"Fort":5085,"daughter":5086,"whatever":5087,"berg":5088,"driver":5089,"34":5090,"TS":5091,"toward":5092,"talent":5093,"2008":5094,"advanced":5095,"package":5096,"flowers":5097,"FIDO":5098,"Camp":5099,"Press":5100,"dur":5101,"ror":5102,"ries":5103,"thers":5104,"agon":5105,"tech":5106,"doctor":5107,"format":5108,"prec":5109,"symp":5110,"buildings":5111,"technologies":5112,"iverse":5113,"origin":5114,"Market":5115,"committee":5116,"Care":5117,"Tal":5118,"mand":5119,"illustr":5120,"emb":5121,"trial":5122,"brands":5123,"bridge":5124,"valid":5125,"operations":5126,"casino":5127,"Organ":5128,"ceedings":5129,"Microsoft":5130,"consumer":5131,"Amazon":5132,"FL":5133,"Water":5134,"bes":5135,"repe":5136,"tot":5137,"uled":5138,"spending":5139,"corner":5140,"ption":5141,"calcul":5142,"Product":5143,"Online":5144,"Plus":5145,"electric":5146,"population":5147,"Mill":5148,"Old":5149,"Rom":5150,"Show":5151,"bid":5152,"dut":5153,"gall":5154,"kick":5155,"agency":5156,"investig":5157,"--------":5158,"bathroom":5159,"explore":5160,"aspects":5161,"Jesus":5162,"800":5163,"Back":5164,"MP":5165,"gage":5166,"ingred":5167,"ico":5168,"abase":5169,"hase":5170,"brain":5171,"interior":5172,"websites":5173,"polic":5174,"leader":5175,"director":5176,"usual":5177,"prepare":5178,"Fire":5179,"Hy":5180,"Special":5181,"Two":5182,"Tues":5183,"Vol":5184,"ye":5185,"eless":5186,"quarter":5187,"2000":5188,"Stand":5189,"phones":5190,"factors":5191,"stores":5192,"schem":5193,"rule":5194,"slightly":5195,"78":5196,"Hum":5197,"Lake":5198,"Ve":5199,"dinner":5200,"rare":5201,"sau":5202,"poor":5203,"update":5204,"libr":5205,"compar":5206,"profile":5207,"beauty":5208,"installation":5209,"measures":5210,"appointed":5211,"taste":5212,"Distr":5213,"Next":5214,"Sil":5215,"rail":5216,"ture":5217,"itude":5218,"improv":5219,"helpful":5220,"foreign":5221,"attach":5222,"arrang":5223,"ields":5224,"element":5225,"Energy":5226,"MS":5227,"RS":5228,"die":5229,"tun":5230,"infr":5231,"erve":5232,"asp":5233,"igence":5234,"Thurs":5235,"funding":5236,"leads":5237,"Before":5238,"monthly":5239,"characters":5240,"RO":5241,"Time":5242,"patch":5243,"zy":5244,"asking":5245,"icians":5246,"youth":5247,"adults":5248,"deb":5249,"meant":5250,"evol":5251,"markets":5252,"manager":5253,"paint":5254,"teacher":5255,"confidence":5256,"climate":5257,"absolutely":5258,"Power":5259,"fly":5260,"ka":5261,"rical":5262,"ern":5263,"becoming":5264,"ams":5265,"confl":5266,"earth":5267,"Star":5268,"choices":5269,"attor":5270,"operating":5271,"promote":5272,"responsibility":5273,"Simulation":5274,"Network":5275,"minimum":5276,"District":5277,"Emp":5278,"French":5279,"Mary":5280,"kill":5281,"estic":5282,"artist":5283,"anywhere":5284,"noon":5285,"guess":5286,"properly":5287,"military":5288,"applied":5289,"England":5290,"fabric":5291,"Development":5292,"Fam":5293,"List":5294,"Public":5295,"Sum":5296,"cular":5297,"reput":5298,"agno":5299,"illa":5300,"outdoor":5301,"proud":5302,"worry":5303,"crit":5304,"awesome":5305,"legis":5306,"clearly":5307,"excited":5308,"girls":5309,"Centre":5310,"Angel":5311,"Av":5312,"Fun":5313,"Pet":5314,"View":5315,"kers":5316,"brief":5317,"drivers":5318,"Wednes":5319,"chemical":5320,"Photo":5321,"Chicago":5322,"Gen":5323,"Pan":5324,"civil":5325,"fans":5326,"pair":5327,"vior":5328,"residents":5329,"achel":5330,"bles":5331,"epis":5332,"demo":5333,"Dep":5334,"Gold":5335,"burn":5336,"gins":5337,"argu":5338,"unless":5339,"deals":5340,"Through":5341,"liqu":5342,"Trav":5343,"belie":5344,"Project":5345,"closed":5346,"azine":5347,"walking":5348,"delivered":5349,"resolution":5350,"scientific":5351,"Tuesday":5352,"BC":5353,"Key":5354,"dro":5355,"rap":5356,"sources":5357,"apos":5358,"invent":5359,"facilities":5360,"favour":5361,"truth":5362,"Keep":5363,"satisf":5364,"negative":5365,"Note":5366,"Table":5367,"aj":5368,"hall":5369,"ov":5370,"inet":5371,"rec":5372,"emer":5373,"counting":5374,"importance":5375,"audio":5376,"watching":5377,"discussion":5378,"Div":5379,"Gal":5380,"Main":5381,"Master":5382,"sis":5383,"ugh":5384,"edom":5385,"chain":5386,"proto":5387,"istan":5388,"cks":5389,"prene":5390,"visiting":5391,"capacity":5392,"runs":5393,"holds":5394,"App":5395,"enjoyed":5396,"Medical":5397,"competition":5398,"leadership":5399,"Thursday":5400,"CO":5401,"Hor":5402,"James":5403,"ipe":5404,"aining":5405,"desk":5406,"occup":5407,"cycle":5408,"exciting":5409,"familiar":5410,"Download":5411,"Committee":5412,"Ham":5413,"Mob":5414,"pin":5415,"rac":5416,"sector":5417,"emerg":5418,"artists":5419,"anta":5420,"prise":5421,"thoughts":5422,"purposes":5423,"smaller":5424,"Islam":5425,"sounds":5426,"encourage":5427,"updated":5428,"guarantee":5429,"rupt":5430,"maximum":5431,"Cong":5432,"Lab":5433,"kid":5434,"rise":5435,"rub":5436,"reme":5437,"irt":5438,"conv":5439,"constit":5440,"bling":5441,"committed":5442,"survey":5443,"anned":5444,"ships":5445,"educational":5446,"Glo":5447,"km":5448,"rat":5449,"thick":5450,"accompl":5451,"elimin":5452,"sey":5453,"proposed":5454,"oph":5455,"acts":5456,"Institute":5457,"ounds":5458,"busy":5459,"Team":5460,"jobs":5461,"Engine":5462,"strategies":5463,"neighbor":5464,"hospital":5465,"British":5466,"Scottish":5467,"policies":5468,"Mel":5469,"Mach":5470,"mel":5471,"mouth":5472,"ode":5473,"sport":5474,"icon":5475,"iled":5476,"contr":5477,"trig":5478,"ourselves":5479,"plastic":5480,"boat":5481,"crete":5482,"sphere":5483,"owned":5484,"showing":5485,"Frank":5486,"paying":5487,"happens":5488,"approxim":5489,"ifying":5490,"settings":5491,"premium":5492,"partnership":5493,"Wednesday":5494,"77":5495,"Bur":5496,"Brow":5497,"ais":5498,"fest":5499,"jack":5500,"ya":5501,"ini":5502,"yout":5503,"Their":5504,"output":5505,"notes":5506,"delicious":5507,"joined":5508,"numerous":5509,"Management":5510,"dynam":5511,"trees":5512,"error":5513,"inspired":5514,"fortunately":5515,".)":5516,"1st":5517,"Def":5518,"nav":5519,"arrow":5520,"leaving":5521,"cohol":5522,"formed":5523,"creation":5524,"cris":5525,"manner":5526,"apped":5527,"calling":5528,"provider":5529,"classes":5530,"species":5531,"hydr":5532,"typically":5533,"radio":5534,"automatically":5535,"Cert":5536,"Jour":5537,"Wil":5538,"eco":5539,"ij":5540,"pon":5541,"adopt":5542,"registration":5543,"publish":5544,"Music":5545,"AA":5546,"Blo":5547,"Creat":5548,"DO":5549,"Det":5550,"ta":5551,"yer":5552,"aled":5553,"cean":5554,"boost":5555,"concerns":5556,"selected":5557,"vehicles":5558,"German":5559,"Hall":5560,"Miss":5561,"Tom":5562,"dim":5563,"gate":5564,"inct":5565,"prin":5566,"colour":5567,"courses":5568,"listen":5569,"Royal":5570,"remote":5571,"claims":5572,"motor":5573,"sessions":5574,"certific":5575,"Community":5576,"guidance":5577,"Bed":5578,"Fil":5579,"Flo":5580,"Qual":5581,"Ru":5582,"faster":5583,"hes":5584,"td":5585,"approved":5586,"hael":5587,"crim":5588,"brings":5589,"flat":5590,"starts":5591,"azz":5592,"generation":5593,"volume":5594,"reached":5595,"speaking":5596,"Virgin":5597,"42":5598,"Bud":5599,"Fre":5600,"Kind":5601,"LL":5602,"Mil":5603,"Mountain":5604,"Using":5605,"unning":5606,"meal":5607,"knows":5608,"goods":5609,"Section":5610,"depending":5611,"protein":5612,"recommended":5613,"channel":5614,"institutions":5615,"Congress":5616,"Cus":5617,"Gar":5618,"Happ":5619,"Pres":5620,"pa":5621,"aters":5622,"eline":5623,"rot":5624,"ador":5625,"proof":5626,"conserv":5627,"Those":5628,"brush":5629,"intage":5630,"rental":5631,"visual":5632,"clos":5633,"Only":5634,"interests":5635,"operate":5636,"Both":5637,"Road":5638,"practical":5639,"assessment":5640,"tickets":5641,"incredible":5642,"37":5643,"iest":5644,"instru":5645,"enable":5646,"entre":5647,"ulate":5648,"colate":5649,"sym":5650,"putting":5651,"posts":5652,"payments":5653,"happened":5654,"broken":5655,"diagno":5656,"schol":5657,"Media":5658,"appointment":5659,"expertise":5660,"sauce":5661,"Hist":5662,"NOT":5663,"Peter":5664,"reci":5665,"reference":5666,"itate":5667,"iron":5668,"termin":5669,"propos":5670,"desire":5671,"caused":5672,"memory":5673,"consci":5674,"sky":5675,"continues":5676,"Series":5677,"influence":5678,"accurate":5679,"temperature":5680,"47":5681,"CB":5682,"Cy":5683,"Sing":5684,"dial":5685,"rics":5686,"sha":5687,"construct":5688,"decre":5689,"odies":5690,"princ":5691,"portion":5692,"intell":5693,"Food":5694,"assistance":5695,"tasks":5696,"perspective":5697,"DS":5698,"Lou":5699,"NO":5700,"itar":5701,"itage":5702,"truck":5703,"ulty":5704,"weak":5705,"shap":5706,"coast":5707,"performed":5708,"norm":5709,"documents":5710,"awareness":5711,"eligible":5712,"Ev":5713,"UC":5714,"Word":5715,"kit":5716,"py":5717,"rd":5718,"tough":5719,"loans":5720,"fear":5721,"phil":5722,"mostly":5723,"ciples":5724,"Lead":5725,"claimed":5726,"feedback":5727,"television":5728,"instructions":5729,"56":5730,"BA":5731,"Den":5732,"Ir":5733,"Los":5734,"Pass":5735,"Person":5736,"fold":5737,"u09":5738,"acter":5739,"shar":5740,"arts":5741,"covers":5742,"intended":5743,"despite":5744,"Ass":5745,"ulture":5746,"Security":5747,"ficient":5748,"bigger":5749,"Academ":5750,"Scot":5751,"honest":5752,"channels":5753,"Science":5754,"database":5755,"entreprene":5756,"85":5757,"UI":5758,"jun":5759,"rating":5760,"sor":5761,"vies":5762,"department":5763,"ups":5764,"ibilities":5765,"curren":5766,"Secretary":5767,"2005":5768,"possibly":5769,"tests":5770,"electronic":5771,"defined":5772,"environmental":5773,"Contact":5774,"Technology":5775,"Sou":5776,"Town":5777,"ae":5778,"cities":5779,"hub":5780,"rank":5781,"verse":5782,"concent":5783,"2004":5784,"sitting":5785,"facing":5786,"supplies":5787,"Bet":5788,"Cas":5789,"Eas":5790,"Jon":5791,"ech":5792,"none":5793,"papers":5794,"insul":5795,"soil":5796,"bled":5797,"firms":5798,"readers":5799,"guard":5800,"instant":5801,"Soci":5802,"signed":5803,"Coast":5804,"trained":5805,"stead":5806,"teachers":5807,"shoes":5808,"licens":5809,"animals":5810,"distribution":5811,"Sar":5812,"hire":5813,"tight":5814,"agent":5815,"upload":5816,"indo":5817,"acks":5818,"izon":5819,"Proceedings":5820,"supported":5821,"shipping":5822,"Execut":5823,"successfully":5824,"perfectly":5825,"reduced":5826,"browser":5827,"surrounding":5828,"category":5829,"reliable":5830,"citiz":5831,"totally":5832,"Mobile":5833,"EE":5834,"Swed":5835,"bour":5836,"eries":5837,"atures":5838,"coal":5839,"hook":5840,"strugg":5841,"laws":5842,"combined":5843,"Follow":5844,"Ag":5845,"Mich":5846,"NE":5847,"RA":5848,"gment":5849,"revenue":5850,"records":5851,"assets":5852,"depart":5853,"aint":5854,"ipes":5855,"spin":5856,"commission":5857,"simulation":5858,"2006":5859,"Place":5860,"Grand":5861,"milk":5862,"burg":5863,"doubt":5864,"behavior":5865,"ingredients":5866,"Bank":5867,"Hope":5868,"Sand":5869,"Ze":5870,"ko":5871,"lit":5872,"wing":5873,"ald":5874,"trick":5875,"expo":5876,"internal":5877,"encing":5878,"flight":5879,"engagement":5880,"providers":5881,"salt":5882,"ception":5883,"facility":5884,"Medic":5885,"circum":5886,"seemed":5887,"occasion":5888,"recipe":5889,"150":5890,"NC":5891,"OP":5892,"Sha":5893,"Sign":5894,"Van":5895,"ault":5896,"hun":5897,"afternoon":5898,"depth":5899,"cycl":5900,"styles":5901,"eventually":5902,"ALL":5903,"historical":5904,"affordable":5905,"DI":5906,"Lat":5907,"dance":5908,"danger":5909,"atmo":5910,"units":5911,"complain":5912,"neys":5913,"discovered":5914,"medium":5915,"topic":5916,"guys":5917,"glad":5918,"Rock":5919,"meetings":5920,"graphy":5921,"specifically":5922,"confident":5923,"domain":5924,"license":5925,"conducted":5926,"determined":5927,"conversation":5928,"components":5929,"hundreds":5930,"Michael":5931,"Cre":5932,"Di":5933,"Ha":5934,"Ko":5935,"Lim":5936,"Long":5937,"died":5938,"gifts":5939,"kins":5940,"aly":5941,"susp":5942,"mode":5943,"fees":5944,"phen":5945,"wouldn":5946,"seeking":5947,"stands":5948,"supporting":5949,"Color":5950,"employment":5951,"tructure":5952,"reasonable":5953,"qualified":5954,"**":5955,"Alex":5956,"Bill":5957,"Tor":5958,"YOU":5959,"bust":5960,"iPhone":5961,"alcohol":5962,"stated":5963,"roy":5964,"seats":5965,"chick":5966,"articles":5967,"seek":5968,"ski":5969,"supports":5970,"Island":5971,"foods":5972,"wheel":5973,"domin":5974,"Russian":5975,"enhance":5976,"accommod":5977,"symptom":5978,"41":5979,"Ltd":5980,"SP":5981,"pil":5982,"ered":5983,"abled":5984,"urban":5985,"complic":5986,"ulous":5987,"plates":5988,"exchange":5989,"Thom":5990,"liament":5991,"discount":5992,"regional":5993,"flag":5994,"submit":5995,"appeared":5996,"purchased":5997,"moments":5998,"recovery":5999,"aught":6000,"Family":6001,"approximately":6002,"bio":6003,"divid":6004,"hid":6005,"ien":6006,"iage":6007,"mut":6008,"’.":6009,"stre":6010,"stances":6011,"accounts":6012,"amb":6013,"expl":6014,"umin":6015,"ipping":6016,"asting":6017,"positions":6018,"centre":6019,"emphas":6020,"arrant":6021,"Environment":6022,"appears":6023,"machines":6024,"Paris":6025,"agreed":6026,"songs":6027,"introduced":6028,"witter":6029,"carried":6030,"Having":6031,"Ly":6032,"NY":6033,"fle":6034,"tut":6035,"tons":6036,"tables":6037,"ws":6038,"ician":6039,"omen":6040,"beam":6041,"Chris":6042,"oga":6043,"Assembly":6044,"plays":6045,"joint":6046,"instance":6047,"showed":6048,"charges":6049,"missed":6050,"cutting":6051,"Does":6052,"panel":6053,"walls":6054,"Central":6055,"removed":6056,"route":6057,"announce":6058,"birthday":6059,"procedure":6060,"Hill":6061,"UR":6062,"gs":6063,"vary":6064,"inch":6065,"ano":6066,"elines":6067,"outs":6068,"Head":6069,"factor":6070,"effectively":6071,"graphics":6072,"membership":6073,"cooking":6074,"participants":6075,"accepted":6076,"George":6077,"demonstr":6078,"opinion":6079,"Foundation":6080,"Cat":6081,"Cup":6082,"FA":6083,"LE":6084,"Museum":6085,"Que":6086,"dent":6087,"phase":6088,"sides":6089,"yo":6090,"replace":6091,"ita":6092,"excess":6093,"quiet":6094,"therapy":6095,"coin":6096,"ipal":6097,"ensions":6098,"posite":6099,"raised":6100,"promise":6101,"painting":6102,"returned":6103,"ticket":6104,"appreciate":6105,"Op":6106,"Vill":6107,"obl":6108,"wis":6109,"inations":6110,"astructure":6111,"agents":6112,"consequ":6113,"extract":6114,"pep":6115,"tea":6116,"aks":6117,"apps":6118,"Server":6119,"consumers":6120,"entertainment":6121,"valuable":6122,"Card":6123,"Mad":6124,"Western":6125,"lived":6126,"pitch":6127,"editor":6128,"lymp":6129,"uries":6130,"movies":6131,"chocolate":6132,"presentation":6133,"Beaut":6134,"Room":6135,"holders":6136,"senior":6137,"previously":6138,"Support":6139,"cepts":6140,"Journal":6141,"65":6142,"Ill":6143,"MO":6144,"Tour":6145,"Test":6146,"fields":6147,"input":6148,"aker":6149,"pregn":6150,"cient":6151,"belong":6152,"raise":6153,"pursu":6154,"commitment":6155,"innovation":6156,"Japanese":6157,"powder":6158,"academic":6159,"AI":6160,"Lar":6161,"Ros":6162,"Tit":6163,"jump":6164,"kin":6165,"vas":6166,"contemporary":6167,"Android":6168,"Social":6169,"2003":6170,"keeps":6171,"faces":6172,"holding":6173,"Maybe":6174,"equipped":6175,"Johnson":6176,"participate":6177,"football":6178,"fixed":6179,"division":6180,"spiritual":6181,"estyle":6182,"Human":6183,"Know":6184,"Vide":6185,"eper":6186,"fuel":6187,"kn":6188,"river":6189,"saving":6190,"wick":6191,"secut":6192,"poly":6193,"ipped":6194,"predict":6195,"justice":6196,"functions":6197,"breath":6198,"accessible":6199,"facil":6200,"kinds":6201,"windows":6202,"graduate":6203,"landscape":6204,"Italian":6205,"exclusive":6206,"dollars":6207,"Welcome":6208,"Executive":6209,"??":6210,"BE":6211,"Bra":6212,"Did":6213,"Further":6214,"Kar":6215,"LO":6216,"Such":6217,"atre":6218,"arms":6219,"oles":6220,"outstanding":6221,"quot":6222,"bless":6223,"reek":6224,"serves":6225,"clothes":6226,"Enter":6227,"feels":6228,"Code":6229,"networks":6230,"arent":6231,"brother":6232,"researchers":6233,"esterday":6234,"index":6235,"Scotland":6236,"66":6237,"fishing":6238,"sac":6239,"til":6240,"alle":6241,"alog":6242,"sex":6243,"adapt":6244,"berry":6245,"knowing":6246,"choos":6247,"Union":6248,"Comput":6249,"Second":6250,"France":6251,"missing":6252,"swim":6253,"protected":6254,"appearance":6255,"About":6256,"twice":6257,"luxury":6258,"Global":6259,"EP":6260,"Er":6261,"Sometimes":6262,"Watch":6263,"fro":6264,"sight":6265,"eras":6266,"recording":6267,"forced":6268,"hearing":6269,"ula":6270,"ulations":6271,"ternal":6272,"substant":6273,"extensive":6274,"charged":6275,"ordinary":6276,"matters":6277,"Phys":6278,"bringing":6279,"motiv":6280,"concerned":6281,"referred":6282,"failure":6283,"informed":6284,"exposure":6285,"2nd":6286,"52":6287,"Bir":6288,"Fall":6289,"Land":6290,"Mont":6291,"adium":6292,"noticed":6293,"compare":6294,"hero":6295,"enger":6296,"stored":6297,"risks":6298,"treated":6299,"AG":6300,"Bi":6301,"Full":6302,"Ken":6303,"Source":6304,"Tim":6305,"cot":6306,"pull":6307,"sized":6308,"sizes":6309,"tics":6310,"uated":6311,"vend":6312,"improved":6313,"encoun":6314,"minor":6315,"personally":6316,"identity":6317,"carefully":6318,"reporting":6319,"considering":6320,"competitive":6321,"certified":6322,"regularly":6323,"accident":6324,"emotional":6325,"liquid":6326,"64":6327,"Access":6328,"Ide":6329,"LED":6330,"Mat":6331,"bell":6332,"cm":6333,"ito":6334,"vintage":6335,"infl":6336,"restrict":6337,"itoring":6338,"omb":6339,"university":6340,"ema":6341,"planned":6342,"aft":6343,"relatively":6344,"realize":6345,"missions":6346,"Robert":6347,"platforms":6348,"routine":6349,"estimated":6350,"estimates":6351,"sufficient":6352,"satisfact":6353,"emergency":6354,"criminal":6355,"Beach":6356,"Jim":6357,"Ow":6358,"Olymp":6359,"Tube":6360,"fell":6361,"vital":6362,"edition":6363,"itis":6364,"forces":6365,"concrete":6366,"ounts":6367,"boys":6368,"awa":6369,"Champion":6370,"guy":6371,"writ":6372,"Franc":6373,"lasting":6374,"Prince":6375,"investors":6376,"featuring":6377,"audi":6378,"iteria":6379,"integrated":6380,"brown":6381,"Hotel":6382,"igration":6383,"female":6384,"conflict":6385,"rapid":6386,"philos":6387,"Econom":6388,"GB":6389,"Hi":6390,"Mos":6391,"Vo":6392,"Was":6393,"pod":6394,"tes":6395,"ander":6396,"heav":6397,"ols":6398,"agric":6399,"Though":6400,"Stat":6401,"forest":6402,"ictor":6403,"greatest":6404,"worldwide":6405,"salad":6406,"happening":6407,"musical":6408,"Perform":6409,"recognized":6410,"parking":6411,"Smart":6412,"administr":6413,"administration":6414,"imagine":6415,"Members":6416,"flexible":6417,"Review":6418,"village":6419,"Happy":6420,"DV":6421,"Soft":6422,"TR":6423,"].":6424,"bread":6425,"battle":6426,"gender":6427,"ero":6428,"usher":6429,"resource":6430,"context":6431,"chosen":6432,"writer":6433,"muscle":6434,"prompt":6435,"Canad":6436,"Control":6437,"freedom":6438,"dogs":6439,"Germany":6440,"sample":6441,"virtual":6442,"situations":6443,"battery":6444,"library":6445,"ught":6446,"BM":6447,"Live":6448,"Us":6449,"VER":6450,"athe":6451,"fal":6452,"fas":6453,"gard":6454,"anx":6455,"tox":6456,"opy":6457,"acknow":6458,"blind":6459,"manual":6460,"letters":6461,"Cond":6462,"belief":6463,"Atl":6464,"equal":6465,"gery":6466,"picked":6467,"challenging":6468,"procedures":6469,"IA":6470,"SU":6471,"sister":6472,"uc":6473,"incorpor":6474,"anes":6475,"icial":6476,"leather":6477,"root":6478,"amed":6479,"confirm":6480,"embr":6481,"quant":6482,"achieved":6483,"ultural":6484,"Prov":6485,"Arab":6486,"Tele":6487,"Minister":6488,"messages":6489,"recorded":6490,"innovative":6491,"convenient":6492,"inspiration":6493,"scheduled":6494,"infrastructure":6495,"Society":6496,"Ep":6497,"Saf":6498,"ius":6499,"mous":6500,"script":6501,"wet":6502,"ication":6503,"adata":6504,"wealth":6505,"spaces":6506,"aka":6507,"caught":6508,"sett":6509,"basically":6510,"signs":6511,"generate":6512,"organic":6513,"resulting":6514,"receiving":6515,"lifestyle":6516,"atoes":6517,"Instagram":6518,"Clean":6519,"Hand":6520,"Oper":6521,"Rad":6522,"SM":6523,"WH":6524,"mad":6525,"nu":6526,"pto":6527,"stim":6528,"forum":6529,"bear":6530,"suc":6531,"agencies":6532,"weap":6533,"asts":6534,"county":6535,"mont":6536,"bask":6537,"identified":6538,"cheese":6539,"legant":6540,"cute":6541,"unders":6542,"Manager":6543,"telling":6544,"manufacturing":6545,"bingo":6546,"efficiency":6547,"consistent":6548,"regulations":6549,"frequently":6550,"manufacturer":6551,"reputation":6552,"principles":6553,"Louis":6554,"symptoms":6555,"59":6556,"Du":6557,"Dig":6558,"Fest":6559,"Rest":6560,"Search":6561,"bike":6562,"gor":6563,"lie":6564,"instruction":6565,"stars":6566,"aming":6567,"univers":6568,"convention":6569,"negot":6570,"upper":6571,"meat":6572,"workshop":6573,"compens":6574,"cipl":6575,"attemp":6576,"topics":6577,"marked":6578,"Commer":6579,"Training":6580,"arrived":6581,"capable":6582,"Cloud":6583,"Admin":6584,"organized":6585,"fourth":6586,"breakfast":6587,"officials":6588,"Valley":6589,"volunteers":6590,"CEO":6591,"transportation":6592,"Spring":6593,"Virginia":6594,"atmosphere":6595,"Jun":6596,"Twitter":6597,"UT":6598,"iety":6599,"taught":6600,"thin":6601,"replacement":6602,"ende":6603,"ilst":6604,"begins":6605,"sud":6606,"tered":6607,"prospect":6608,"quar":6609,"endant":6610,"grat":6611,"portfol":6612,"everyday":6613,"ifications":6614,"linked":6615,"Airport":6616,"discussed":6617,"Article":6618,"launched":6619,"witness":6620,"capture":6621,"incredibly":6622,"Italy":6623,"hidden":6624,"400":6625,"Chair":6626,"Dut":6627,"Four":6628,"Game":6629,"Iran":6630,"Mot":6631,"Ul":6632,"VA":6633,"raw":6634,"stations":6635,"height":6636,"ulated":6637,"shots":6638,"covery":6639,"brid":6640,"auth":6641,"counsel":6642,"hole":6643,"simpl":6644,"Prote":6645,"closer":6646,"solve":6647,"legs":6648,"possess":6649,"healthcare":6650,"elected":6651,"Author":6652,"domestic":6653,"speaker":6654,"historic":6655,"medicine":6656,"Modern":6657,"conscious":6658,"CR":6659,"HA":6660,"Mars":6661,"Tem":6662,"Win":6663,"gro":6664,"lon":6665,"mic":6666,"rig":6667,"san":6668,"tat":6669,"zone":6670,"inquir":6671,"acle":6672,"ache":6673,"seas":6674,"lyn":6675,"proceed":6676,"resto":6677,"shift":6678,"Instead":6679,"butter":6680,"highlight":6681,"Conne":6682,"sheet":6683,"Steel":6684,"privacy":6685,"Disney":6686,"drawn":6687,"certification":6688,"Sales":6689,"split":6690,"%.":6691,"Dou":6692,"dates":6693,"east":6694,"tap":6695,"vast":6696,"zen":6697,"entr":6698,"imate":6699,"ially":6700,"meals":6701,"strain":6702,"Which":6703,"ensity":6704,"coll":6705,"Asia":6706,"engage":6707,"2001":6708,"covering":6709,"scope":6710,"thorough":6711,"communications":6712,"collected":6713,"attractive":6714,"Russia":6715,"orgeous":6716,"candidate":6717,"dumpster":6718,"normally":6719,"Cha":6720,"Gall":6721,"Garden":6722,"LS":6723,"Libr":6724,"Sky":6725,"laser":6726,"tub":6727,"stret":6728,"shut":6729,"clar":6730,"driven":6731,"studio":6732,"Therefore":6733,"Box":6734,"advoc":6735,"hardware":6736,"layout":6737,"turns":6738,"porters":6739,"Applic":6740,"residential":6741,"birds":6742,"massive":6743,"affected":6744,"convenience":6745,"episode":6746,"protocol":6747,"closely":6748,"04":6749,"CP":6750,"Mass":6751,"Prem":6752,"Rob":6753,"Sho":6754,"VPN":6755,"dia":6756,"vic":6757,"vation":6758,"voc":6759,"wers":6760,"oured":6761,"veter":6762,"neck":6763,"geo":6764,"causes":6765,"visited":6766,"Lee":6767,"officers":6768,"recognition":6769,"layer":6770,"restaurants":6771,"bowl":6772,"patterns":6773,"trend":6774,"Daniel":6775,"53":6776,"CL":6777,"Federal":6778,"iro":6779,"rug":6780,"rear":6781,"orter":6782,"aland":6783,"andom":6784,"eder":6785,"ara":6786,"stuck":6787,"stunning":6788,"unable":6789,"urally":6790,"creates":6791,"cribe":6792,"Anton":6793,"interpret":6794,"proven":6795,"apparent":6796,"dones":6797,"suring":6798,"azy":6799,"signal":6800,"winner":6801,"cuit":6802,"breaking":6803,"distinct":6804,"engineering":6805,"removal":6806,"explained":6807,"Muslim":6808,"anticip":6809,"injury":6810,"controlled":6811,"circumstances":6812,"Kitchen":6813,"Kore":6814,"Max":6815,"Sa":6816,"Squ":6817,"Span":6818,"bird":6819,"fif":6820,"gon":6821,"mi":6822,"pure":6823,"ongoing":6824,"renew":6825,"ette":6826,"usage":6827,"external":6828,"worse":6829,"inding":6830,"Invest":6831,"Indones":6832,"newsp":6833,"manent":6834,"itionally":6835,"spection":6836,"airport":6837,"skill":6838,"listening":6839,"Friend":6840,"diam":6841,"nearby":6842,"rolling":6843,"garage":6844,"concern":6845,"votes":6846,"animal":6847,"bags":6848,"updates":6849,"sustainable":6850,"flavor":6851,"favourite":6852,"57":6853,"Fair":6854,"Fund":6855,"cable":6856,"ti":6857,"enthus":6858,"orrow":6859,"seam":6860,"whom":6861,"ember":6862,"plum":6863,"noted":6864,"grap":6865,"grav":6866,"ella":6867,"liber":6868,"makeup":6869,"merch":6870,"filed":6871,"grown":6872,"containing":6873,"recognize":6874,"ENT":6875,"bulbs":6876,"surprise":6877,"destination":6878,"Earth":6879,"cluded":6880,"Quality":6881,"streets":6882,"sudden":6883,"Bon":6884,"FOR":6885,"Sports":6886,"een":6887,"mur":6888,"sending":6889,"thy":6890,"reject":6891,"attribut":6892,"adult":6893,"amounts":6894,"uration":6895,"prop":6896,"earned":6897,"boot":6898,"noise":6899,"YouTube":6900,"197":6901,"monitor":6902,"belt":6903,"extension":6904,"productive":6905,"retro":6906,"2002":6907,"array":6908,"Dec":6909,"param":6910,"founded":6911,"expectations":6912,"hosted":6913,"objects":6914,"mortgage":6915,"accomplish":6916,"dynamic":6917,"indoor":6918,"Link":6919,"Learn":6920,"Victor":6921,"border":6922,"golf":6923,"rated":6924,"wan":6925,"warrant":6926,"secret":6927,"conver":6928,"weet":6929,"deposit":6930,"Ther":6931,"elled":6932,"whenever":6933,"mond":6934,"monitoring":6935,"empty":6936,"Sea":6937,"speakers":6938,"boxes":6939,"falls":6940,"matches":6941,"stocks":6942,"mixed":6943,"failed":6944,"turning":6945,"impressive":6946,"certificate":6947,"Francis":6948,"Canadian":6949,"enthusi":6950,"3rd":6951,"SA":6952,"Try":6953,"bodies":6954,"cow":6955,"iat":6956,"sin":6957,"tone":6958,"intr":6959,"ancient":6960,"heating":6961,"ola":6962,"approv":6963,"prison":6964,"upcoming":6965,"rence":6966,"description":6967,"delight":6968,"designer":6969,"organis":6970,"Should":6971,"performing":6972,"enterprise":6973,"Point":6974,"suggested":6975,"Looking":6976,"constantly":6977,"religious":6978,"Children":6979,"Academy":6980,"58":6981,"Bow":6982,"IO":6983,"Ms":6984,"Mult":6985,"Very":6986,"diction":6987,"sop":6988,"ications":6989,"conut":6990,"keys":6991,"makers":6992,"boards":6993,"attended":6994,"End":6995,"decades":6996,"gotten":6997,"borrow":6998,"shares":6999,"remaining":7000,"defense":7001,"dryer":7002,"titles":7003,"significantly":7004,"forcement":7005,"uka":7006,"silver":7007,"housing":7008,"categories":7009,"collaboration":7010,"preparation":7011,"resistance":7012,"married":7013,"bottle":7014,"Employ":7015,"neighborhood":7016,"Assist":7017,"Video":7018,"BB":7019,"Cons":7020,"Fit":7021,"Hard":7022,"Liter":7023,"OD":7024,"caf":7025,"ders":7026,"native":7027,"va":7028,"waters":7029,"acing":7030,"acid":7031,"cts":7032,"fru":7033,"quote":7034,"coordin":7035,"answers":7036,"spark":7037,"contest":7038,"nock":7039,"dram":7040,"adequ":7041,"apping":7042,"cerem":7043,"guest":7044,"submitted":7045,"lists":7046,"capabilities":7047,"ordered":7048,"foundation":7049,"increases":7050,"League":7051,"buyers":7052,"roller":7053,"returns":7054,"authorities":7055,"Finally":7056,"Students":7057,"crowd":7058,"apartment":7059,"width":7060,"lucky":7061,"adventure":7062,"improving":7063,"portfolio":7064,"Cover":7065,"LA":7066,"Log":7067,"Pict":7068,"barr":7069,"lish":7070,"museum":7071,"yers":7072,"’,":7073,"emails":7074,"aked":7075,"angle":7076,"heads":7077,"issued":7078,"managers":7079,"electrical":7080,"involve":7081,"Spir":7082,"Smith":7083,"volunteer":7084,"Remember":7085,"trouble":7086,"Performance":7087,"250":7088,"Loc":7089,"VE":7090,"iated":7091,"vs":7092,"oma":7093,"semin":7094,"ops":7095,"exceed":7096,"permission":7097,"acting":7098,"clip":7099,"affil":7100,"Station":7101,"adds":7102,"settle":7103,"Unfortunately":7104,"Enjoy":7105,"Cook":7106,"managing":7107,"entered":7108,"examples":7109,"equival":7110,"trading":7111,"refresh":7112,"panels":7113,"printing":7114,"improvement":7115,"featured":7116,"drinking":7117,"African":7118,"Visit":7119,"ultimate":7120,"Archite":7121,"Martin":7122,"critic":7123,"symbol":7124,"choosing":7125,"BS":7126,"Cast":7127,"Non":7128,"Opt":7129,"Yet":7130,"cake":7131,"pun":7132,"ram":7133,"tack":7134,"tast":7135,"oration":7136,"stake":7137,"amber":7138,"moist":7139,"wearing":7140,"Inde":7141,"crew":7142,"akistan":7143,"crash":7144,"criteria":7145,"firmed":7146,"fundam":7147,"Arts":7148,"transl":7149,"headed":7150,"weekly":7151,"expenses":7152,"gging":7153,"classroom":7154,"ballot":7155,"label":7156,"incident":7157,"duty":7158,"'.":7159,"Cir":7160,"DUI":7161,"Jose":7162,"Night":7163,"SH":7164,"Teach":7165,"scan":7166,"tu":7167,"igan":7168,"igen":7169,"ares":7170,"logo":7171,"loves":7172,"shel":7173,"washer":7174,"doctors":7175,"colog":7176,"desired":7177,"Trad":7178,"posting":7179,"searching":7180,"Leg":7181,"iveness":7182,"nights":7183,"male":7184,"Despite":7185,"supervis":7186,"taxes":7187,"crucial":7188,"clinical":7189,"Thomas":7190,"Ash":7191,"Lum":7192,"MM":7193,"Ok":7194,"Wis":7195,"dust":7196,"diverse":7197,"gorgeous":7198,"han":7199,"pit":7200,"yesterday":7201,"revol":7202,"enables":7203,"align":7204,"acious":7205,"cher":7206,"whel":7207,"ura":7208,"spons":7209,"novel":7210,"blank":7211,"supposed":7212,"transition":7213,"translation":7214,"Select":7215,"iversary":7216,"passing":7217,"Airy":7218,"authority":7219,"walked":7220,"hosting":7221,"entirely":7222,"communicate":7223,"sensitive":7224,"voter":7225,"celebrate":7226,"crypto":7227,"pulled":7228,"strategic":7229,"widely":7230,"Senate":7231,"vacation":7232,"legislation":7233,"Brown":7234,"Line":7235,"Mu":7236,"Niger":7237,"Pad":7238,"Pot":7239,"Santa":7240,"Ven":7241,"bacter":7242,"fers":7243,"honey":7244,"ml":7245,"mile":7246,"oven":7247,"alty":7248,"verage":7249,"sung":7250,"convent":7251,"ifies":7252,"essay":7253,"frustr":7254,"grain":7255,"anna":7256,"transform":7257,"Lock":7258,"UST":7259,"reducing":7260,"campus":7261,"officer":7262,"respective":7263,"agraph":7264,"farmers":7265,"absor":7266,"savings":7267,"component":7268,"Writing":7269,"debate":7270,"currency":7271,"Library":7272,");":7273,"51":7274,"HP":7275,"Wild":7276,"fits":7277,"iors":7278,"killed":7279,"lad":7280,"western":7281,"enem":7282,"assum":7283,"icts":7284,"stro":7285,"olic":7286,"igate":7287,"mole":7288,"ounder":7289,"permit":7290,"eller":7291,"string":7292,"preser":7293,"facts":7294,"directed":7295,"template":7296,"bonus":7297,"Steve":7298,"Authentic":7299,"Financial":7300,"candidates":7301,"trigger":7302,"54":7303,"Aud":7304,"FC":7305,"HS":7306,"Hon":7307,"Jud":7308,"Never":7309,"Pack":7310,"TION":7311,"Way":7312,"dating":7313,"gers":7314,"laugh":7315,"random":7316,"enroll":7317,"stance":7318,"impossible":7319,"ophy":7320,"moves":7321,"resort":7322,"discipl":7323,"posing":7324,"Chall":7325,"regions":7326,"guitar":7327,"delay":7328,"Trust":7329,"athlet":7330,"consent":7331,"extended":7332,"feelings":7333,"investigation":7334,"alongside":7335,"contained":7336,"suggests":7337,"integration":7338,"horse":7339,"Small":7340,"expression":7341,"flexibility":7342,"satisfaction":7343,"!\"":7344,"01":7345,"Cape":7346,"DC":7347,"Ef":7348,"Eli":7349,"Little":7350,"Mir":7351,"fellow":7352,"pill":7353,"thir":7354,"isk":7355,"icate":7356,"lemon":7357,"chart":7358,"losing":7359,"ership":7360,"ighter":7361,"cock":7362,"grass":7363,"Week":7364,"technique":7365,"expans":7366,"Brand":7367,"appeal":7368,"ATION":7369,"Carol":7370,"stopped":7371,"functional":7372,"compliance":7373,"Zealand":7374,"Ball":7375,"crop":7376,"hers":7377,"hang":7378,"harm":7379,"mph":7380,"wave":7381,"inent":7382,"oul":7383,"eler":7384,"chief":7385,"beer":7386,"trips":7387,"opens":7388,"shire":7389,"pert":7390,"crime":7391,"pleased":7392,"surgery":7393,"joining":7394,"gling":7395,"availability":7396,"filter":7397,"nament":7398,"cameras":7399,"respectively":7400,"maintaining":7401,"contribute":7402,"scheme":7403,"writers":7404,"Cred":7405,"Gir":7406,"Jay":7407,"Nav":7408,"OW":7409,"PT":7410,"VC":7411,"rick":7412,"tip":7413,"thread":7414,"inspection":7415,"onom":7416,"theory":7417,"orient":7418,"irts":7419,"comed":7420,"fection":7421,"compat":7422,"blend":7423,"fulfill":7424,"phr":7425,"reader":7426,"supplement":7427,"Comple":7428,"Proper":7429,"Experi":7430,"Express":7431,"realized":7432,"bench":7433,"consideration":7434,"purchasing":7435,"responses":7436,"Step":7437,"dealing":7438,"Syr":7439,"Donald":7440,"printed":7441,"photography":7442,"soul":7443,"Professional":7444,"democr":7445,"Colorado":7446,"stretch":7447,"Estate":7448,"Mex":7449,"Num":7450,"Right":7451,"SQ":7452,"bin":7453,"banks":7454,"fis":7455,"lined":7456,"rice":7457,"sad":7458,"lete":7459,"suspect":7460,"weigh":7461,"outcome":7462,"relief":7463,"invited":7464,"Form":7465,"engaged":7466,"venues":7467,"retire":7468,"publishing":7469,"possibility":7470,"deploy":7471,"specified":7472,"placing":7473,"Tech":7474,"severe":7475,"flower":7476,"connections":7477,"concerning":7478,"contractor":7479,"regardless":7480,"decorative":7481,"guidelines":7482,"dishes":7483,"pleasant":7484,"chicken":7485,"Festival":7486,"gorith":7487,"Spanish":7488,"Jul":7489,"Lind":7490,"Put":7491,"cue":7492,"lift":7493,"moun":7494,"rome":7495,"sof":7496,"twent":7497,"yellow":7498,"independ":7499,"represents":7500,"loving":7501,"printer":7502,"somewhat":7503,"somewhere":7504,"finishing":7505,"shouldn":7506,"viewers":7507,"mainly":7508,"extreme":7509,"closing":7510,"Exam":7511,"generated":7512,"password":7513,"Local":7514,"millions":7515,"beds":7516,"statements":7517,"govern":7518,"REE":7519,"1990":7520,"liked":7521,"Partners":7522,"Perhaps":7523,"Quest":7524,"automatic":7525,"Website":7526,"immediate":7527,"surprising":7528,"indeed":7529,"hurt":7530,"licensed":7531,"4th":7532,"600":7533,"96":7534,"Fac":7535,"Hom":7536,"Him":7537,"Pac":7538,"Ram":7539,"Rol":7540,"Would":7541,"Youn":7542,"mate":7543,"nine":7544,"slot":7545,"ingly":7546,"arrest":7547,"roles":7548,"champion":7549,"sume":7550,"apple":7551,"ivate":7552,"pricing":7553,"endar":7554,"upgrade":7555,"overwhel":7556,"flash":7557,"reland":7558,"Trade":7559,"extent":7560,"clothing":7561,"decade":7562,"paragraph":7563,"Being":7564,"muscles":7565,"ucky":7566,"grew":7567,"ISO":7568,"Offic":7569,"Corpor":7570,"SEO":7571,"increasingly":7572,"false":7573,"Bob":7574,"EA":7575,"Mumb":7576,"Sound":7577,"Tok":7578,"Tax":7579,"pink":7580,"ray":7581,"ani":7582,"entit":7583,"otic":7584,"artwork":7585,"permanent":7586,"inder":7587,"gry":7588,"spots":7589,"disput":7590,"themes":7591,"jection":7592,"Need":7593,"puts":7594,"heading":7595,"enjoying":7596,"figures":7597,"drinks":7598,"awarded":7599,"coaching":7600,"evaluation":7601,"Angeles":7602,"Islamic":7603,"Budd":7604,"Digital":7605,"equivalent":7606,"08":7607,"Kent":7608,"Made":7609,"SO":7610,"Seas":7611,"Tay":7612,"cs":7613,"gut":7614,"narrow":7615,"vine":7616,"retain":7617,"ensuring":7618,"ilder":7619,"elly":7620,"chapter":7621,"usal":7622,"concepts":7623,"deeper":7624,"enders":7625,"interface":7626,"versions":7627,"visible":7628,"viewing":7629,"athy":7630,"careful":7631,"tooth":7632,"happiness":7633,"specialist":7634,"holder":7635,"shock":7636,"typical":7637,"drawing":7638,"continuing":7639,"PSA":7640,"Holly":7641,"executive":7642,"Jewish":7643,"Current":7644,"consultation":7645,"laptop":7646,"attorney":7647,"Summer":7648,"proposal":7649,"Village":7650,"basket":7651,"Indonesia":7652,"Mumbai":7653,"(“":7654,"Ah":7655,"Bul":7656,"Hen":7657,"Living":7658,"Py":7659,"Pen":7660,"Publ":7661,"Pakistan":7662,"bare":7663,"dedu":7664,"mac":7665,"pas":7666,"sq":7667,"sink":7668,"tiny":7669,"uzz":7670,"reward":7671,"tood":7672,"aby":7673,"ifi":7674,"pled":7675,"prize":7676,"boo":7677,"compass":7678,"ferences":7679,"stract":7680,"producing":7681,"attress":7682,"Heart":7683,"consists":7684,"Proc":7685,"handling":7686,"programming":7687,"venture":7688,"tested":7689,"faced":7690,"grees":7691,"seller":7692,"repairs":7693,"Forest":7694,"Mean":7695,"III":7696,"applies":7697,"primarily":7698,"preferred":7699,"vegetables":7700,"marriage":7701,"manufacturers":7702,"Richard":7703,"wireless":7704,"gallery":7705,"adopted":7706,"Custom":7707,"cotton":7708,"Bit":7709,"EU":7710,"Ireland":7711,"Ka":7712,"LD":7713,"Men":7714,"OK":7715,"Ox":7716,"Wi":7717,"bury":7718,"dil":7719,"pes":7720,"sick":7721,"intim":7722,"anda":7723,"leman":7724,"sters":7725,"healing":7726,"etime":7727,"igent":7728,"illness":7729,"Thus":7730,"endo":7731,"crack":7732,"speech":7733,"iano":7734,"Common":7735,"ixel":7736,"poll":7737,"applicable":7738,"structures":7739,"1998":7740,"fitness":7741,"matching":7742,"cookies":7743,"Repair":7744,"Policy":7745,"languages":7746,"spoke":7747,"fairly":7748,"scientists":7749,"hospit":7750,"Shopify":7751,"preparing":7752,"eggs":7753,"crisis":7754,"sharp":7755,"understood":7756,"authors":7757,"seamless":7758,"03":7759,"06":7760,"Far":7761,"Fig":7762,"Haw":7763,"NA":7764,"Pur":7765,"WE":7766,"Wa":7767,"pace":7768,"rust":7769,"wich":7770,"orn":7771,"stir":7772,"sections":7773,"sus":7774,"urning":7775,"conclus":7776,"ulum":7777,"yours":7778,"formal":7779,"cush":7780,"mini":7781,"tomorrow":7782,"studied":7783,"Ford":7784,"booking":7785,"empower":7786,"programme":7787,"breast":7788,"entering":7789,"Without":7790,"controls":7791,"tells":7792,"strongly":7793,"advertis":7794,"implementation":7795,"thesis":7796,"granted":7797,"assigned":7798,"finger":7799,"Travel":7800,"ratio":7801,"accommodation":7802,"approval":7803,"herself":7804,"Base":7805,"Bible":7806,"Bath":7807,"Buck":7808,"Dark":7809,"GM":7810,"Lev":7811,"Want":7812,"eed":7813,"hide":7814,"lies":7815,"pad":7816,"ora":7817,"algorith":7818,"isol":7819,"stack":7820,"abuse":7821,"confirmed":7822,"outcomes":7823,"shine":7824,"pra":7825,"colle":7826,"finance":7827,"aircraft":7828,"setup":7829,"lessons":7830,"checking":7831,"beneficial":7832,"default":7833,"spectrum":7834,"magn":7835,"worthy":7836,"Police":7837,"reserve":7838,"reserves":7839,"surprised":7840,"Wedding":7841,"catalog":7842,"photographs":7843,"Magazine":7844,"Middle":7845,"Natural":7846,"repeated":7847,"Roman":7848,"citizens":7849,"paramet":7850,"05":7851,"Dom":7852,"Sher":7853,"WA":7854,"bone":7855,"elegant":7856,"gap":7857,"hat":7858,"vy":7859,"ов":7860,"infect":7861,"theless":7862,"iler":7863,"youn":7864,"utes":7865,"una":7866,"unexpected":7867,"mood":7868,"deck":7869,"2020":7870,"aven":7871,"mann":7872,"Still":7873,"colours":7874,"perior":7875,"larg":7876,"clock":7877,"Prior":7878,"Order":7879,"packed":7880,"completion":7881,"Parliament":7882,"harmon":7883,"errors":7884,"Georg":7885,"framework":7886,"Professor":7887,"suffering":7888,"juice":7889,"obviously":7890,"Creative":7891,"conservation":7892,"fascin":7893,"entrance":7894,"Spirit":7895,"43":7896,"?\"":7897,"Based":7898,"Cli":7899,"Cross":7900,"Flow":7901,"LY":7902,"Remo":7903,"Tenn":7904,"cers":7905,"cott":7906,"codes":7907,"dess":7908,"greg":7909,"tall":7910,"till":7911,"yan":7912,"replaced":7913,"thetic":7914,"assem":7915,"degrees":7916,"anymore":7917,"grab":7918,"likes":7919,"newly":7920,"drag":7921,"intent":7922,"render":7923,"forever":7924,"believed":7925,"eases":7926,"actively":7927,"aims":7928,"statistics":7929,"wheels":7930,"experim":7931,"definition":7932,"Guide":7933,"contracts":7934,"acceler":7935,"estimate":7936,"exception":7937,"authenticator":7938,"Charles":7939,"saved":7940,"trends":7941,"revealed":7942,"ultimately":7943,"establishment":7944,"detect":7945,"scored":7946,"attached":7947,"satisfied":7948,"eliminate":7949,"contrast":7950,"Swedish":7951,"succeed":7952,"diabet":7953,"ceremony":7954,"SQL":7955,"120":7956,"67":7957,"87":7958,"BR":7959,"Give":7960,"Pop":7961,"cured":7962,"rush":7963,"vess":7964,"inches":7965,"rely":7966,"esh":7967,"isa":7968,"accord":7969,"whilst":7970,"url":7971,"Three":7972,"poker":7973,"Insurance":7974,"max":7975,"cruit":7976,"brill":7977,"drone":7978,"Chapter":7979,"causing":7980,"iances":7981,"viewed":7982,"factory":7983,"folk":7984,"raising":7985,"Boston":7986,"accessories":7987,"lawyer":7988,"Americans":7989,"grounds":7990,"requirement":7991,"depends":7992,"margin":7993,"staying":7994,"traveling":7995,"tourism":7996,"computers":7997,"Justice":7998,"percentage":7999,"losses":8000,"stainless":8001,"exceptional":8002,"mirror":8003,"Systems":8004,"behavi":8005,"PDF":8006,"pleasure":8007,"Kindle":8008,"anxiety":8009,"fiscal":8010,"younger":8011,"02":8012,"Bol":8013,"Broad":8014,"Come":8015,"DE":8016,"HT":8017,"Sus":8018,"Ye":8019,"afr":8020,"atics":8021,"assembly":8022,"accounting":8023,"etic":8024,"ums":8025,"cogn":8026,"ava":8027,"command":8028,"commonly":8029,"Chief":8030,"ogue":8031,"personality":8032,"legit":8033,"Nov":8034,"planet":8035,"household":8036,"Resp":8037,"experiment":8038,"fitting":8039,"Fore":8040,"habits":8041,"correctly":8042,"advantages":8043,"https":8044,"obtained":8045,"Introdu":8046,"cabin":8047,"IBPSA":8048,"inventory":8049,"Bedroom":8050,"LLC":8051,"Dutch":8052,"?”":8053,"Cut":8054,"Ele":8055,"GE":8056,"aer":8057,"bass":8058,"cart":8059,"dash":8060,"zing":8061,"zil":8062,"alter":8063,"iti":8064,"chronic":8065,"loose":8066,"illing":8067,"opposite":8068,"residence":8069,"shell":8070,"worst":8071,"pocket":8072,"upgrad":8073,"coconut":8074,"Stone":8075,"eff":8076,"downtown":8077,"Conserv":8078,"transactions":8079,"arrive":8080,"Clin":8081,"reduction":8082,"reaching":8083,"1999":8084,"suggestions":8085,"mixture":8086,"acceptable":8087,"recommendations":8088,"chester":8089,"Among":8090,"crystal":8091,"promotion":8092,"strengthen":8093,"hoping":8094,"vitamin":8095,"Install":8096,"nursing":8097,"initiatives":8098,"Latin":8099,"Beautiful":8100,"inquiry":8101,"!)":8102,"',":8103,"Award":8104,"Bachel":8105,"Fi":8106,"Ky":8107,"Lic":8108,"Low":8109,"Ref":8110,"ZPN":8111,"cod":8112,"lake":8113,"pipe":8114,"sought":8115,"stic":8116,"stitch":8117,"stery":8118,"aced":8119,"ellect":8120,"agues":8121,"uling":8122,"intention":8123,"provision":8124,"awards":8125,"coloring":8126,"chose":8127,"Asian":8128,"ificial":8129,"Prom":8130,"meets":8131,"testim":8132,"Join":8133,"modeling":8134,"addresses":8135,"Registration":8136,"teeth":8137,"cooling":8138,"bulb":8139,"voters":8140,"minimal":8141,"Australian":8142,"controller":8143,"Type":8144,"drugs":8145,"Democrats":8146,"sorry":8147,"struggle":8148,"grapher":8149,"fruits":8150,"Pacific":8151,"69":8152,"Cab":8153,"COM":8154,"Creek":8155,"Copy":8156,"GD":8157,"Mother":8158,"Material":8159,"Pier":8160,"Rail":8161,"Vi":8162,"df":8163,"dental":8164,"flying":8165,"ст":8166,"ativity":8167,"sees":8168,"etch":8169,"moon":8170,"pride":8171,"indu":8172,"preced":8173,"heritage":8174,"mining":8175,"Report":8176,"delivers":8177,"differences":8178,"developer":8179,"Arsen":8180,"Ontar":8181,"follows":8182,"limits":8183,"devot":8184,"flood":8185,"clicking":8186,"authorized":8187,"tourist":8188,"existence":8189,"participation":8190,"circuit":8191,"references":8192,"association":8193,"celebration":8194,"fabulous":8195,"holidays":8196,"hopes":8197,"indicate":8198,"zero":8199,"ensus":8200,"architect":8201,"architecture":8202,"originally":8203,"comparison":8204,"attorneys":8205,"Engineering":8206,"pepper":8207,"Ideas":8208,"sophist":8209,"Lumia":8210,"Challenge":8211,"expansion":8212,"Ontario":8213,"900":8214,"Agr":8215,"Age":8216,"Awards":8217,"Bang":8218,"Hu":8219,"Penn":8220,"aes":8221,"bage":8222,"pine":8223,"rings":8224,"incent":8225,"renov":8226,"asy":8227,"illy":8228,"iders":8229,"thermal":8230,"anyway":8231,"aches":8232,"workplace":8233,"stri":8234,"interaction":8235,"provisions":8236,"offices":8237,"describe":8238,"Process":8239,"Albert":8240,"skilled":8241,"profits":8242,"returning":8243,"arrival":8244,"examine":8245,"publication":8246,"stronger":8247,"involving":8248,"Space":8249,"genu":8250,"approaches":8251,"honor":8252,"representative":8253,"Contin":8254,"Mrs":8255,"objective":8256,"supplier":8257,"seriously":8258,"Samsung":8259,"888":8260,"Store":8261,"passionate":8262,"Brazil":8263,"swimming":8264,"largely":8265,"350":8266,"72":8267,"BO":8268,"FR":8269,"Hun":8270,"Mike":8271,"Ron":8272,"Tha":8273,"bond":8274,"fired":8275,"nm":8276,"pic":8277,"rack":8278,"slo":8279,"еr":8280,"resume":8281,"ario":8282,"aside":8283,"seal":8284,"cha":8285,"beans":8286,"agar":8287,"pros":8288,"plot":8289,"exposed":8290,"quis":8291,"izza":8292,"diseases":8293,"Youth":8294,"persons":8295,"Andrew":8296,"iox":8297,"listing":8298,"signature":8299,"riculum":8300,"Collection":8301,"walks":8302,"damaged":8303,"breaks":8304,"potentially":8305,"gained":8306,"climbing":8307,"broadcast":8308,"trusted":8309,"prayer":8310,"nutrition":8311,"shooting":8312,"_____":8313,"believes":8314,"Personal":8315,"dangerous":8316,"DVD":8317,"igenous":8318,"Again":8319,"Ba":8320,"Cin":8321,"Daily":8322,"Fix":8323,"Kat":8324,"Mah":8325,"Oak":8326,"SD":8327,"Sn":8328,"Son":8329,"Spain":8330,"dated":8331,"hill":8332,"wins":8333,"yoga":8334,"inf":8335,"enforcement":8336,"alk":8337,"stable":8338,"forth":8339,"emon":8340,"ivals":8341,"prime":8342,"crazy":8343,"dra":8344,"inton":8345,"tains":8346,"funded":8347,"consin":8348,"smile":8349,"developers":8350,"folks":8351,"insight":8352,"Print":8353,"films":8354,"Shar":8355,"laid":8356,"packages":8357,"naturally":8358,"newsletter":8359,"representation":8360,"Getting":8361,"nationally":8362,"slowly":8363,"Senior":8364,"intelligence":8365,"Wisconsin":8366,"62":8367,"Due":8368,"Fresh":8369,"Games":8370,"HER":8371,"MUST":8372,"UL":8373,"bars":8374,"cater":8375,"hate":8376,"kil":8377,"oh":8378,"pour":8379,"temporary":8380,"wines":8381,"enabled":8382,"alleg":8383,"illegal":8384,"seed":8385,"chances":8386,"olid":8387,"eties":8388,"igs":8389,"cler":8390,"gran":8391,"drain":8392,"deser":8393,"forecast":8394,"engaging":8395,"smell":8396,"insights":8397,"operational":8398,"Plant":8399,"lime":8400,"Columb":8401,"tradition":8402,"humans":8403,"Industr":8404,"watched":8405,"contractors":8406,"representing":8407,"magazine":8408,"integrity":8409,"spray":8410,"applying":8411,"introduce":8412,"introduction":8413,"injuries":8414,"dreams":8415,"literally":8416,"ensures":8417,"initiative":8418,"desktop":8419,"History":8420,"entrepreneur":8421,"complicated":8422,"1000":8423,"Bes":8424,"Ell":8425,"Farm":8426,"FREE":8427,"Has":8428,"NAD":8429,"Page":8430,"RR":8431,"Turn":8432,"dad":8433,"founder":8434,"oz":8435,"yards":8436,"zip":8437,"thon":8438,"reaction":8439,"asset":8440,"stones":8441,"oms":8442,"chron":8443,"admission":8444,"ira":8445,"prob":8446,"tray":8447,"defic":8448,"clude":8449,"discovery":8450,"blow":8451,"interactive":8452,"angel":8453,"finest":8454,"everywhere":8455,"relations":8456,"memories":8457,"brew":8458,"Bridge":8459,"directory":8460,"Resume":8461,"towel":8462,"employer":8463,"visitor":8464,"swing":8465,"sensors":8466,"priority":8467,"Additionally":8468,"immune":8469,"essentially":8470,"chairman":8471,"gaming":8472,"Obama":8473,"Jackson":8474,"politics":8475,"Details":8476,"Create":8477,"Limited":8478,"tutorial":8479,"tattoo":8480,"Square":8481,"murder":8482,"bacteria":8483,"68":8484,"98":8485,"Der":8486,"Ever":8487,"Golf":8488,"Ji":8489,"Jones":8490,"Li":8491,"Ocean":8492,"Vent":8493,"bat":8494,"coup":8495,"hanging":8496,"len":8497,"mud":8498,"ocean":8499,"tum":8500,"tired":8501,"ala":8502,"asks":8503,"amm":8504,"haw":8505,"explan":8506,"shade":8507,"Think":8508,"prises":8509,"grate":8510,"hash":8511,"izer":8512,"somehow":8513,"intense":8514,"regulation":8515,"observed":8516,"attitude":8517,"finds":8518,"designers":8519,"Cost":8520,"Within":8521,"stylish":8522,"employed":8523,"flooring":8524,"requested":8525,"continuous":8526,"characteristics":8527,"encouraged":8528,"suppliers":8529,"attacks":8530,"judge":8531,"guaranteed":8532,"conversations":8533,"GAAP":8534,"scenes":8535,"Democratic":8536,"Golden":8537,"recipes":8538,"principle":8539,"victim":8540,"Literary":8541,"Columbia":8542,"Clear":8543,"Die":8544,"MD":8545,"Oct":8546,"Run":8547,"Rust":8548,"Sl":8549,"Women":8550,"Zone":8551,"cav":8552,"ii":8553,"iates":8554,"ja":8555,"narr":8556,"tie":8557,"vict":8558,"vibr":8559,"zo":8560,"ths":8561,"inated":8562,"anth":8563,"rev":8564,"orange":8565,"chips":8566,"adoption":8567,"otal":8568,"irr":8569,"sover":8570,"umes":8571,"achie":8572,"spon":8573,"intellect":8574,"Stan":8575,"pressing":8576,"council":8577,"financing":8578,"visits":8579,"Recent":8580,"basement":8581,"Consul":8582,"subsequ":8583,"extend":8584,"productivity":8585,"activated":8586,"investments":8587,"completing":8588,"porter":8589,"Northern":8590,"hotels":8591,"burgh":8592,"semi":8593,"cooked":8594,"participating":8595,"subjects":8596,"delivering":8597,"requests":8598,"maintained":8599,"Associate":8600,"Hosp":8601,"Transport":8602,"clubs":8603,"destroy":8604,"carrying":8605,"violence":8606,"gentle":8607,"Philip":8608,"Machine":8609,"scholar":8610,"Michel":8611,"Queen":8612,"Furthermore":8613,"gardens":8614,"Experience":8615,"Tokyo":8616,"Taylor":8617,"%,":8618,"07":8619,"Learning":8620,"OC":8621,"Ut":8622,"Winter":8623,"bicy":8624,"cro":8625,"dies":8626,"hr":8627,"nike":8628,"pendant":8629,"tro":8630,"rein":8631,"assert":8632,"beth":8633,"ceiling":8634,"modu":8635,"decent":8636,"liver":8637,"bra":8638,"produces":8639,"funny":8640,"stood":8641,"Exp":8642,"paralle":8643,"possibilities":8644,"breed":8645,"movements":8646,"balanced":8647,"checks":8648,"focusing":8649,"installing":8650,"wooden":8651,"1997":8652,"shore":8653,"slip":8654,"Guard":8655,"tracks":8656,"warning":8657,"hosts":8658,"improvements":8659,"satell":8660,"objectives":8661,"responding":8662,"deeply":8663,"explains":8664,"implemented":8665,"consumption":8666,"meaningful":8667,"industries":8668,"gambling":8669,"Below":8670,"initially":8671,"Retr":8672,"utilize":8673,"WordPress":8674,"pilot":8675,"adequate":8676,"entitled":8677,"Meanwhile":8678,"brilliant":8679,"module":8680,"Aff":8681,"HE":8682,"Ice":8683,"Ra":8684,"Save":8685,"],":8686,"fu":8687,"god":8688,"hug":8689,"iPad":8690,"nis":8691,"rin":8692,"rif":8693,"tab":8694,"tape":8695,"vul":8696,"inery":8697,"oned":8698,"ingu":8699,"itory":8700,"icip":8701,"bean":8702,"behalf":8703,"olive":8704,"ctive":8705,"suite":8706,"superior":8707,"utility":8708,"deem":8709,"shelf":8710,"hasn":8711,"liability":8712,"boss":8713,"calm":8714,"calories":8715,"surely":8716,"greatly":8717,"Compan":8718,"Pract":8719,"childhood":8720,"Coach":8721,"importantly":8722,"trains":8723,"faculty":8724,"Drive":8725,"Foot":8726,"Cru":8727,"represented":8728,"Peace":8729,"dressing":8730,"occurs":8731,"occurred":8732,"Planning":8733,"evaluate":8734,"assume":8735,"emerging":8736,"shaped":8737,"Eastern":8738,"philosophy":8739,"Safety":8740,"fundamental":8741,"diabetes":8742,"73":8743,"CON":8744,"Diet":8745,"Gent":8746,"Hal":8747,"Nok":8748,"Pos":8749,"Sor":8750,"Sty":8751,"mouse":8752,"mattress":8753,"ried":8754,"sail":8755,"tiff":8756,"refund":8757,"stamp":8758,"eling":8759,"chairs":8760,"neut":8761,"resent":8762,"quil":8763,"antique":8764,"gear":8765,"Answ":8766,"attending":8767,"talks":8768,"Exchange":8769,"axy":8770,"gym":8771,"plane":8772,"cyber":8773,"dipl":8774,"purchases":8775,"floors":8776,"combine":8777,"necessarily":8778,"involves":8779,"sensor":8780,"voting":8781,"Studies":8782,"lifetime":8783,"campaigns":8784,"samples":8785,"evolution":8786,"scholars":8787,"CBD":8788,"decrease":8789,"cycling":8790,"emphasis":8791,"consequences":8792,"Computer":8793,"compatible":8794,"Fish":8795,"Greg":8796,"Luka":8797,"Mand":8798,"Money":8799,"NP":8800,"Nations":8801,"Nature":8802,"bands":8803,"ebook":8804,"tact":8805,"inspect":8806,"aler":8807,"amend":8808,"plied":8809,"deleg":8810,"coat":8811,"compress":8812,"servers":8813,"interact":8814,"Ask":8815,"shoulder":8816,"Conf":8817,"Armen":8818,"generic":8819,"gypt":8820,"patent":8821,"specially":8822,"USB":8823,"Resort":8824,"buyer":8825,"focuses":8826,"balls":8827,"holes":8828,"hydro":8829,"marine":8830,"Method":8831,"tracking":8832,"appliances":8833,"contribution":8834,"acquired":8835,"Britain":8836,"mountains":8837,"expanded":8838,"earnings":8839,"duties":8840,"Standard":8841,"arrangements":8842,"ecosystem":8843,"Histor":8844,"exploring":8845,"Condition":8846,"Radio":8847,"compensation":8848,"revolution":8849,"CZ":8850,"Dream":8851,"Fab":8852,"Hou":8853,"Mur":8854,"Mess":8855,"Mix":8856,"Vers":8857,"WI":8858,"bold":8859,"ht":8860,"ki":8861,"tures":8862,"eno":8863,"alumin":8864,"ilton":8865,"pling":8866,"fraud":8867,"peak":8868,"grants":8869,"Analy":8870,"Stor":8871,"Tru":8872,"memor":8873,"engers":8874,"personnel":8875,"Altern":8876,"receip":8877,"equity":8878,"Doctor":8879,"beautifully":8880,"flows":8881,"fastest":8882,"remained":8883,"assistant":8884,"landscap":8885,"extraordinary":8886,"Everyone":8887,"storm":8888,"cabinet":8889,"gathered":8890,"subsid":8891,"habitat":8892,"Marketing":8893,"----------------":8894,"entrepreneurs":8895,"acknowled":8896,"gonna":8897,"twenty":8898,"Bag":8899,"Equ":8900,"Egypt":8901,"Fact":8902,"Harr":8903,"Sug":8904,"Tar":8905,"ec":8906,"gi":8907,"pounds":8908,"ranging":8909,"ument":8910,"remark":8911,"entity":8912,"seeds":8913,"olution":8914,"sures":8915,"tras":8916,"opposed":8917,"friger":8918,"exists":8919,"odd":8920,"enda":8921,"creativity":8922,"crush":8923,"berries":8924,"plements":8925,"flaw":8926,"Track":8927,"grams":8928,"Toy":8929,"pointed":8930,"rising":8931,"!!!!":8932,"demands":8933,"competitors":8934,"stayed":8935,"Meet":8936,"magic":8937,"Content":8938,"blogs":8939,"locked":8940,"paths":8941,"compliment":8942,"supplied":8943,"romantic":8944,"demonstrate":8945,"mistake":8946,"Avail":8947,"rapidly":8948,"Economic":8949,"podcast":8950,"newspaper":8951,"organisations":8952,"Nigeria":8953,"conventional":8954,"retirement":8955,"Arsenal":8956,"($":8957,"97":8958,"AK":8959,"Ess":8960,"GH":8961,"NT":8962,"Psych":8963,"Rose":8964,"SB":8965,"Send":8966,"Sav":8967,"Sense":8968,"Tree":8969,"cia":8970,"ias":8971,"lers":8972,"nie":8973,"pdf":8974,"ration":8975,"riding":8976,"scor":8977,"tune":8978,"yn":8979,"restr":8980,"refin":8981,"itable":8982,"adel":8983,"ceived":8984,"agen":8985,"composition":8986,"neither":8987,"opposition":8988,"endless":8989,"achi":8990,"akers":8991,"aksh":8992,"lowest":8993,"backs":8994,"10th":8995,"lesson":8996,"issions":8997,"anniversary":8998,"cheaper":8999,"legend":9000,"Prim":9001,"operator":9002,"locate":9003,"loaded":9004,"harder":9005,"hardly":9006,"powered":9007,"promised":9008,"bedrooms":9009,"Buy":9010,"1996":9011,"inois":9012,"falling":9013,"elev":9014,"climb":9015,"iami":9016,"Previous":9017,"accuracy":9018,"Berlin":9019,"thousand":9020,"inspiring":9021,"Capital":9022,"Bloom":9023,"constructed":9024,"pregnancy":9025,"olesale":9026,"agriculture":9027,"apparently":9028,"warranty":9029,"Carolina":9030,"Young":9031,"colleagues":9032,"grateful":9033,"Baby":9034,"Cro":9035,"Easter":9036,"Fast":9037,"Ga":9038,"Kim":9039,"Mun":9040,"Tun":9041,"Times":9042,"WW":9043,"bay":9044,"iper":9045,"ole":9046,"uer":9047,"thro":9048,"onial":9049,"reception":9050,"arian":9051,"etry":9052,"utional":9053,"urb":9054,"urious":9055,"convey":9056,"los":9057,"modate":9058,"franch":9059,"haz":9060,"shad":9061,"shorter":9062,"antib":9063,"workout":9064,"creen":9065,"ibl":9066,"spa":9067,"strange":9068,"dispos":9069,"icket":9070,"diff":9071,"consolid":9072,"closure":9073,"specialists":9074,"equally":9075,"pression":9076,"investing":9077,"Josh":9078,"container":9079,"Simply":9080,"Everything":9081,"encouraging":9082,"contributions":9083,"Heritage":9084,"Area":9085,"promoting":9086,"Overall":9087,"medications":9088,"Hello":9089,"golden":9090,"efficiently":9091,"reveal":9092,"accommodate":9093,"convin":9094,"navigate":9095,"Following":9096,"Illinois":9097,"facilitate":9098,"quotes":9099,"Restaur":9100,"Gallery":9101,"Hollywood":9102,"afraid":9103,"?!":9104,"Dol":9105,"G_":9106,"MY":9107,"Pers":9108,"Tam":9109,"fiber":9110,"gutter":9111,"ji":9112,"loud":9113,"relying":9114,"atom":9115,"orous":9116,"isms":9117,"omer":9118,"bees":9119,"abund":9120,"abstract":9121,"uni":9122,"uris":9123,"conversion":9124,"ustin":9125,"spacious":9126,"1976":9127,"jewel":9128,"relative":9129,"athon":9130,"transaction":9131,"signing":9132,"Coordin":9133,"cuts":9134,"Brad":9135,"Works":9136,"Auth":9137,"Guys":9138,"physician":9139,"texture":9140,"talked":9141,"Holy":9142,"consistently":9143,"captured":9144,"authentication":9145,"Member":9146,"optimal":9147,"Turkey":9148,"exhibition":9149,"Silver":9150,"legisl":9151,"rubber":9152,"junction":9153,"ranked":9154,"wisdom":9155,"substantial":9156,"vendors":9157,"Connect":9158,"Korea":9159,"Copyright":9160,"sophisticated":9161,"Retrieved":9162,"Body":9163,"Case":9164,"Dog":9165,"Must":9166,"Matt":9167,"PI":9168,"ggling":9169,"lip":9170,"mits":9171,"pip":9172,"sour":9173,"tender":9174,"vard":9175,"inher":9176,"recruit":9177,"esis":9178,"aband":9179,"lob":9180,"apol":9181,"sored":9182,"ureau":9183,"Weight":9184,"strip":9185,"intu":9186,"colleg":9187,"observ":9188,"whereas":9189,"letting":9190,"Force":9191,"Alli":9192,"handy":9193,"Seattle":9194,"arrange":9195,"aze":9196,"Nothing":9197,"Advis":9198,"fewer":9199,"specialized":9200,"babies":9201,"Appro":9202,"templates":9203,"grey":9204,"treatments":9205,"connecting":9206,"Fox":9207,"fluid":9208,"latter":9209,"safely":9210,"Ministry":9211,"crafts":9212,"distributed":9213,"hiking":9214,"Solutions":9215,"inyl":9216,"Annual":9217,"duration":9218,"Talk":9219,"Southern":9220,"Casino":9221,"mutual":9222,"Atlantic":9223,"interpretation":9224,"vulner":9225,"Avenue":9226,"Ban":9227,"Bat":9228,"Band":9229,"Block":9230,"Cer":9231,"Cath":9232,"Father":9233,"HV":9234,"Jeff":9235,"Kans":9236,"Miami":9237,"Pick":9238,"QU":9239,"TX":9240,"gel":9241,"pets":9242,"onic":9243,"theast":9244,"toile":9245,"edges":9246,"leaf":9247,"accus":9248,"implic":9249,"unusual":9250,"urt":9251,"prohib":9252,"convert":9253,"embed":9254,"exha":9255,"prints":9256,"worn":9257,"ista":9258,"asted":9259,"discharge":9260,"angers":9261,"19th":9262,"pton":9263,"cartr":9264,"flour":9265,"supporters":9266,"designing":9267,"Always":9268,"developments":9269,"transformation":9270,"aza":9271,"Attor":9272,"directions":9273,"employers":9274,"checked":9275,"Maria":9276,"Account":9277,"roads":9278,"castle":9279,"hari":9280,"Buildings":9281,"qualify":9282,"Upon":9283,"routes":9284,"feeding":9285,"acquis":9286,"institution":9287,"scratch":9288,"fancy":9289,"Early":9290,"Stock":9291,"Return":9292,"Brook":9293,"bottles":9294,"opinions":9295,"situated":9296,"Products":9297,"Vegas":9298,"Labor":9299,"festival":9300,"paintings":9301,"Software":9302,"weapons":9303,"Administration":9304,"Francisco":9305,"intellectual":9306,"216":9307,"Ca":9308,"Kir":9309,"XL":9310,"bunch":9311,"eer":9312,"lady":9313,"mates":9314,"pens":9315,"penc":9316,"tile":9317,"uco":9318,"vous":9319,"çi":9320,"recall":9321,"enor":9322,"alive":9323,"itter":9324,"sts":9325,"rog":9326,"suits":9327,"universe":9328,"terior":9329,"Theatre":9330,"export":9331,"shif":9332,"Things":9333,"20th":9334,"Stay":9335,"column":9336,"anges":9337,"buck":9338,"centers":9339,"flights":9340,"guides":9341,"profiles":9342,"closet":9343,"Prime":9344,"Ext":9345,"generous":9346,"locally":9347,"aska":9348,"Loom":9349,"Rober":9350,"secondary":9351,"electron":9352,"lawyers":9353,"Coll":9354,"privile":9355,"combat":9356,"radiation":9357,"Regard":9358,"officially":9359,"targeted":9360,"blocks":9361,"Elçi":9362,"Communications":9363,"Memorial":9364,"beaches":9365,"cludes":9366,"rarely":9367,"Panel":9368,"argument":9369,"Film":9370,"quarters":9371,"suddenly":9372,"stakeholders":9373,"Effect":9374,"Property":9375,"sofa":9376,"Nokia":9377,"3D":9378,"71":9379,"Bear":9380,"CF":9381,"Clar":9382,"Dar":9383,"Gor":9384,"Gard":9385,"HR":9386,"RC":9387,"Rent":9388,"SW":9389,"User":9390,"aired":9391,"bills":9392,"baking":9393,"tank":9394,"wider":9395,"iner":9396,"renow":9397,"edia":9398,"stadium":9399,"acles":9400,"rose":9401,"robust":9402,"chap":9403,"debut":9404,"frames":9405,"shirt":9406,"cancel":9407,"ummy":9408,"maker":9409,"boots":9410,"ansen":9411,"crusher":9412,"strive":9413,"disability":9414,"brick":9415,"awn":9416,"Story":9417,"pharm":9418,"producer":9419,"highlights":9420,"guards":9421,"Univers":9422,"engines":9423,"cared":9424,"transparent":9425,"legally":9426,"Advan":9427,"organisation":9428,"graphical":9429,"Manufact":9430,"containers":9431,"garlic":9432,"Syn":9433,"cultiv":9434,"weren":9435,"picking":9436,"EST":9437,"gradu":9438,"ART":9439,"criptions":9440,"representatives":9441,"Finance":9442,"parks":9443,"glasses":9444,"ranking":9445,"Studio":9446,"reserved":9447,"implementing":9448,"surrounded":9449,"Glass":9450,"Palest":9451,"absence":9452,"twist":9453,"tags":9454,"frequent":9455,"emotion":9456,"religion":9457,"Basic":9458,"talented":9459,"chemicals":9460,"instruments":9461,"intelligent":9462,"instantly":9463,"universities":9464,"restore":9465,"Consider":9466,"sponsor":9467,"Mexico":9468,"Kentucky":9469,"Georgia":9470,"Yeah":9471,"5th":9472,"Cze":9473,"Gy":9474,"ME":9475,"Ryan":9476,"Tell":9477,"ecolog":9478,"hence":9479,"lens":9480,"mold":9481,"nt":9482,"psum":9483,"rors":9484,"inar":9485,"onder":9486,"theatre":9487,"atile":9488,"alo":9489,"alysis":9490,"isure":9491,"toy":9492,"itting":9493,"stability":9494,"ilation":9495,"ilty":9496,"elder":9497,"roots":9498,"royal":9499,"adap":9500,"idal":9501,"withdraw":9502,"unlimited":9503,"aggress":9504,"trash":9505,"neuro":9506,"ifier":9507,"resid":9508,"ounce":9509,"artificial":9510,"forming":9511,"ishop":9512,"Anim":9513,"overview":9514,"interviews":9515,"intend":9516,"auction":9517,"ultane":9518,"landing":9519,"Construction":9520,"Trail":9521,"folder":9522,"courage":9523,"valuation":9524,"singing":9525,"loading":9526,"prominent":9527,"casual":9528,"Affil":9529,"Working":9530,"tribution":9531,"Orig":9532,"steady":9533,"targets":9534,"printable":9535,"API":9536,"define":9537,"divisions":9538,"Supreme":9539,"resolve":9540,"Reading":9541,"Kingdom":9542,"inspire":9543,"southern":9544,"Jersey":9545,"assured":9546,"Agency":9547,"Environmental":9548,"caffe":9549,"Picture":9550,"Eliza":9551,"Currently":9552,"accordance":9553,"sponsored":9554,"Houston":9555,"Loomans":9556,"Blog":9557,"Dump":9558,"Ira":9559,"Kr":9560,"Nice":9561,"Navy":9562,"Ray":9563,"Rachel":9564,"Self":9565,"Ten":9566,"Tai":9567,"Ur":9568,"VI":9569,"Viet":9570,"[[":9571,"iary":9572,"lu":9573,"mb":9574,"pel":9575,"tage":9576,"tours":9577,"wake":9578,"rey":9579,"recept":9580,"reply":9581,"edit":9582,"leep":9583,"adop":9584,"admit":9585,"verify":9586,"sured":9587,"union":9588,"prosecut":9589,"ulpt":9590,"shr":9591,"uma":9592,"Integr":9593,"nose":9594,"bron":9595,"manif":9596,"intervention":9597,"wanting":9598,"calendar":9599,"Contract":9600,"ologist":9601,"charging":9602,"salary":9603,"operated":9604,"180":9605,"elson":9606,"professor":9607,"Reserve":9608,"Orange":9609,"shoe":9610,"filling":9611,"periods":9612,"wishes":9613,"elsewhere":9614,"recommendation":9615,"Register":9616,"21st":9617,"accum":9618,"Image":9619,"massage":9620,"nuts":9621,"acquire":9622,"surroundings":9623,"advise":9624,"streaming":9625,"impression":9626,"carrier":9627,"literature":9628,"configuration":9629,"scenario":9630,"plugin":9631,"lamps":9632,"Choose":9633,"instrument":9634,"Irish":9635,"bourne":9636,"oblig":9637,"administrative":9638,"attempts":9639,"Application":9640,"Located":9641,"satellite":9642,"Restaurant":9643,"exhaust":9644,"Czech":9645,"Cry":9646,"Es":9647,"Gifts":9648,"Hold":9649,"Hair":9650,"Kn":9651,"Pret":9652,"SI":9653,"Sir":9654,"Stop":9655,"Sever":9656,"SER":9657,"Uk":9658,"athan":9659,"batch":9660,"culation":9661,"couch":9662,"giant":9663,"hike":9664,"lan":9665,"pha":9666,"rival":9667,"од":9668,"ales":9669,"aco":9670,"rob":9671,"chip":9672,"abroad":9673,"depos":9674,"Innov":9675,"curriculum":9676,"1970":9677,"donations":9678,"relating":9679,"tomato":9680,"Unlike":9681,"simultane":9682,"struggling":9683,"annel":9684,"transmission":9685,"optional":9686,"Move":9687,"metadata":9688,"individually":9689,"reviewed":9690,"packing":9691,"travelling":9692,"responsibilities":9693,"void":9694,"screening":9695,"ACK":9696,"wondering":9697,"collecting":9698,"browse":9699,"prevention":9700,"warming":9701,"telephone":9702,"ELCZ":9703,"spoken":9704,"consulting":9705,"expressed":9706,"Interest":9707,"Object":9708,"virtually":9709,"survive":9710,"EXAM":9711,"solely":9712,"modified":9713,"Republican":9714,"precise":9715,"repeat":9716,"electricity":9717,"Easy":9718,"Lyn":9719,"Large":9720,"endeav":9721,"mounted":9722,"Bitcoin":9723,"parameters":9724,"fascinating":9725,"Introduction":9726,"Vietnam":9727,"Civil":9728,"Mt":9729,"Match":9730,"Pow":9731,"Tro":9732,"Tower":9733,"bits":9734,"cence":9735,"mart":9736,"mary":9737,"mount":9738,"pig":9739,"pound":9740,"soup":9741,"tent":9742,"thma":9743,"incur":9744,"anony":9745,"anches":9746,"toys":9747,"arthr":9748,"ched":9749,"vet":9750,"amboo":9751,"irty":9752,"Info":9753,"corn":9754,"bub":9755,"buff":9756,"aux":9757,"producers":9758,"experiencing":9759,"builds":9760,"Private":9761,"resulted":9762,"ordan":9763,"patio":9764,"northern":9765,"Country":9766,"pasta":9767,"minds":9768,"studying":9769,"superb":9770,"stitution":9771,"difficulty":9772,"Moreover":9773,"separately":9774,"Holiday":9775,"describes":9776,"Jews":9777,"Speed":9778,"emotions":9779,"gathering":9780,"mechanical":9781,"illustration":9782,"railway":9783,"ruption":9784,"Certified":9785,"departments":9786,"encounter":9787,"toxic":9788,"athletes":9789,"hospitals":9790,"Besides":9791,"victory":9792,"Iraq":9793,"!”":9794,"8th":9795,"91":9796,"Ax":9797,"CT":9798,"Dy":9799,"GT":9800,"Grow":9801,"Kay":9802,"Mount":9803,"Pa":9804,"Ps":9805,"Sem":9806,"Sure":9807,"Shel":9808,"bors":9809,"diversity":9810,"nail":9811,"pizza":9812,"temp":9813,"waves":9814,"ен":9815,"еѕ":9816,"orate":9817,"escape":9818,"editing":9819,"stairs":9820,"acular":9821,"bee":9822,"aded":9823,"uncertain":9824,"unknown":9825,"istical":9826,"cosm":9827,"cooperation":9828,"workshops":9829,"compelling":9830,"izz":9831,"overcome":9832,"desc":9833,"curious":9834,"guilty":9835,"Requ":9836,"Produ":9837,"solar":9838,"thinks":9839,"listings":9840,"polar":9841,"poster":9842,"generations":9843,"optical":9844,"followers":9845,"passes":9846,"performances":9847,"Allen":9848,"costly":9849,"potatoes":9850,"painted":9851,"trait":9852,"ONE":9853,"beginners":9854,"Cheap":9855,"sentence":9856,"amongst":9857,"Simple":9858,"gains":9859,"Corps":9860,"immigr":9861,"Technical":9862,"ILL":9863,"retailers":9864,"mistakes":9865,"durable":9866,"investigate":9867,"Galaxy":9868,"iconic":9869,"Michigan":9870,"Voice":9871,"negoti":9872,"Commerce":9873,"iropract":9874,"Joseph":9875,"Credit":9876,"deduct":9877,"Catholic":9878,"HVAC":9879,"Bad":9880,"Bird":9881,"Could":9882,"Iron":9883,"Kan":9884,"Nur":9885,"Pump":9886,"Rs":9887,"SL":9888,"Wow":9889,"gig":9890,"hack":9891,"kne":9892,"essee":9893,"alert":9894,"icipal":9895,"secured":9896,"chop":9897,"versus":9898,"Analysis":9899,"deserve":9900,"merely":9901,"inval":9902,"Cool":9903,"realistic":9904,"networking":9905,"photographer":9906,"woods":9907,"damages":9908,"ACT":9909,"Feb":9910,"digest":9911,"penalty":9912,"Spider":9913,"copies":9914,"knowledgeable":9915,"displayed":9916,"layers":9917,"freel":9918,"premier":9919,"documentation":9920,"alternatives":9921,"Valent":9922,"tagged":9923,"frequency":9924,"Luke":9925,"absolute":9926,"Metadata":9927,"threats":9928,"Electoral":9929,"exclusively":9930,"subscription":9931,"fighting":9932,"Break":9933,"divided":9934,"obligation":9935,"settled":9936,"Commercial":9937,"dramatic":9938,"Available":9939,"Advanced":9940,"caffeine":9941,"\"\"":9942,"63":9943,"79":9944,"AY":9945,"EV":9946,"Email":9947,"FM":9948,"Had":9949,"Kings":9950,"Lib":9951,"Lady":9952,"Nelson":9953,"Sale":9954,"Sony":9955,"Saint":9956,"TE":9957,"Tw":9958,"gross":9959,"hou":9960,"jet":9961,"migration":9962,"nest":9963,"sne":9964,"tube":9965,"іng":9966,"inse":9967,"inos":9968,"recon":9969,"remed":9970,"theater":9971,"outer":9972,"icting":9973,"eland":9974,"amen":9975,"usive":9976,"undry":9977,"agenda":9978,"quilt":9979,"therap":9980,"worker":9981,"contents":9982,"Whatever":9983,"fulness":9984,"Chess":9985,"invo":9986,"invite":9987,"ologists":9988,"joys":9989,"struck":9990,"handed":9991,"Excell":9992,"runners":9993,"125":9994,"gged":9995,"customized":9996,"Collect":9997,"Marine":9998,"Stephen":9999,"Particip":10000,"selecting":10001,"graduated":10002,"radical":10003,"sensit":10004,"Thanksgiving":10005,"consistency":10006,"nesota":10007,"snap":10008,"powers":10009,"mechanism":10010,"Standards":10011,"citizen":10012,"NEW":10013,"pregnant":10014,"Olympic":10015,"incorporated":10016,"fifth":10017,"Season":10018,"explanation":10019,"Affairs":10020,"Elizabeth":10021,"arthritis":10022,"Ae":10023,"Action":10024,"CN":10025,"CV":10026,"Cle":10027,"Coffee":10028,"FO":10029,"Five":10030,"Feder":10031,"Gift":10032,"Job":10033,"Kong":10034,"Name":10035,"Rome":10036,"Rick":10037,"Rather":10038,"Rental":10039,"RSS":10040,"VL":10041,"Wine":10042,"bou":10043,"dney":10044,"jail":10045,"lord":10046,"lane":10047,"phe":10048,"sion":10049,"trem":10050,"vin":10051,"wand":10052,"еt":10053,"edited":10054,"arc":10055,"itative":10056,"rod":10057,"seating":10058,"loop":10059,"login":10060,"exit":10061,"exts":10062,"outlet":10063,"shed":10064,"query":10065,"mentary":10066,"acted":10067,"formats":10068,"spel":10069,"spare":10070,"distract":10071,"draft":10072,"lla":10073,"Stadium":10074,"phy":10075,"destru":10076,"rows":10077,"everybody":10078,"caring":10079,"dont":10080,"tops":10081,"Really":10082,"findings":10083,"courts":10084,"Frame":10085,"singer":10086,"Price":10087,"Excel":10088,"---":10089,"promising":10090,"pressed":10091,"structured":10092,"PhD":10093,"Indigenous":10094,"hyper":10095,"reduces":10096,"Autom":10097,"addressed":10098,"varieties":10099,"claiming":10100,"tablet":10101,"hearts":10102,"discussions":10103,"distingu":10104,"physically":10105,"globe":10106,"Minnesota":10107,"horizon":10108,"linear":10109,"logical":10110,"smoke":10111,"displays":10112,"divor":10113,"immigration":10114,"Course":10115,"apartments":10116,"transferred":10117,"Spec":10118,"reminder":10119,"wildlife":10120,"oxy":10121,"detection":10122,"scores":10123,"Sweden":10124,"promptly":10125,"stroke":10126,"genuine":10127,"74":10128,"700":10129,"Az":10130,"Austin":10131,"BL":10132,"FI":10133,"GR":10134,"Gary":10135,"Jama":10136,"Kids":10137,"Lot":10138,"Path":10139,"UV":10140,"ccol":10141,"fare":10142,"fitted":10143,"rural":10144,"tо":10145,"xx":10146,"аr":10147,"inate":10148,"insert":10149,"revis":10150,"environ":10151,"inger":10152,"stages":10153,"entries":10154,"concluded":10155,"allic":10156,"weird":10157,"delete":10158,"shirts":10159,"ounge":10160,"cancell":10161,"okay":10162,"portable":10163,"ishes":10164,"disorders":10165,"manip":10166,"drome":10167,"drama":10168,"corresponding":10169,"regards":10170,"floral":10171,"tomatoes":10172,"icted":10173,"sheets":10174,"membr":10175,"ashes":10176,"processor":10177,"charity":10178,"tonight":10179,"organizing":10180,"blogging":10181,"ordination":10182,"lawn":10183,"sculpt":10184,"Counsel":10185,"matic":10186,"moms":10187,"plaintiff":10188,"1995":10189,"repet":10190,"stops":10191,"measuring":10192,"measured":10193,"computing":10194,"Quick":10195,"collections":10196,"automated":10197,"speeds":10198,"curement":10199,"regulatory":10200,"fault":10201,"indicates":10202,"identifying":10203,"Harry":10204,"TML":10205,"Posted":10206,"Metro":10207,"occasions":10208,"Turk":10209,"Ohio":10210,"Linux":10211,"Travis":10212,"recip":10213,"Division":10214,"jacket":10215,"hubanes":10216,"BMW":10217,"embrace":10218,"attempting":10219,"thoroughly":10220,"anticipated":10221,"plumbing":10222,"Indeed":10223,"Jayal":10224,"overwhelming":10225,"legitimate":10226,"Answer":10227,"receipt":10228,"renowned":10229,"93":10230,"Aw":10231,"Apart":10232,"Cub":10233,"DR":10234,"Dub":10235,"Gil":10236,"HTML":10237,"Ja":10238,"Less":10239,"Lux":10240,"Nut":10241,"Site":10242,"TC":10243,"cats":10244,"fed":10245,"fiction":10246,"hiring":10247,"mers":10248,"mature":10249,"nations":10250,"tissue":10251,"uous":10252,"itz":10253,"league":10254,"ila":10255,"accompan":10256,"chest":10257,"lod":10258,"empl":10259,"trim":10260,"sod":10261,"antly":10262,"uphol":10263,"uster":10264,"dos":10265,"math":10266,"ears":10267,"ignore":10268,"strike":10269,"Anne":10270,"interpre":10271,"intensity":10272,"Channel":10273,"woof":10274,"hadn":10275,"iana":10276,"guided":10277,"surg":10278,"subtle":10279,"handled":10280,"annually":10281,"Deaf":10282,"payroll":10283,"Clay":10284,"specialty":10285,"Lov":10286,"laundry":10287,"electro":10288,"Dragon":10289,"clearance":10290,"credited":10291,"cripts":10292,"cultures":10293,"concert":10294,"methodology":10295,"protecting":10296,"Represent":10297,"treas":10298,"answering":10299,"celebrated":10300,"modules":10301,"attractions":10302,"imagination":10303,"precious":10304,"injured":10305,"analytics":10306,"medication":10307,"optimization":10308,"Delivery":10309,"peaceful":10310,"Springs":10311,"Electric":10312,"IFRS":10313,"Classic":10314,"Customer":10315,"facilit":10316,"rejected":10317,"Victoria":10318,"Venus":10319,"Client":10320,"achieving":10321,"Companies":10322,"Gentleman":10323,"diplom":10324,"environments":10325,"61":10326,"94":10327,"Ali":10328,"Dam":10329,"Gree":10330,"Jane":10331,"Knock":10332,"Mind":10333,"Marr":10334,"Nick":10335,"Oft":10336,"PE":10337,"Rud":10338,"Rights":10339,"Si":10340,"Spect":10341,"batt":10342,"cous":10343,"fib":10344,"hen":10345,"piano":10346,"tied":10347,"vice":10348,"”)":10349,"inity":10350,"onion":10351,"onies":10352,"recover":10353,"estr":10354,"secretary":10355,"bearing":10356,"aya":10357,"agan":10358,"oppon":10359,"dear":10360,"defe":10361,"priced":10362,"worried":10363,"actor":10364,"anytime":10365,"indicated":10366,"lix":10367,"dual":10368,"myth":10369,"span":10370,"crate":10371,"Anth":10372,"drives":10373,"phia":10374,"colored":10375,"cussing":10376,"backed":10377,"backyard":10378,"1950":10379,"supplements":10380,"Alan":10381,"legacy":10382,"Prin":10383,"Bris":10384,"Bring":10385,"Grade":10386,"winners":10387,"steam":10388,"confusion":10389,"sellers":10390,"responsive":10391,"vocal":10392,"Sydney":10393,"fallen":10394,"Discover":10395,"magical":10396,"magnet":10397,"hopefully":10398,"crafted":10399,"pools":10400,"turno":10401,"terror":10402,"petition":10403,"exercises":10404,"Bench":10405,"consuming":10406,"adjustments":10407,"pushed":10408,"roofing":10409,"presidential":10410,"Jerusal":10411,"limitations":10412,"calculated":10413,"arranged":10414,"tunnel":10415,"Maryland":10416,"principal":10417,"Events":10418,"DIY":10419,"heavily":10420,"agricultural":10421,"Authority":10422,"Antonion":10423,"phrase":10424,"Syria":10425,"conclusion":10426,"adelphia":10427,"akshmi":10428,"Roberts":10429,"Aegir":10430,"Jerusalem":10431,"Aut":10432,"CI":10433,"Fu":10434,"GP":10435,"Gas":10436,"Han":10437,"Nob":10438,"SK":10439,"Say":10440,"Sree":10441,"Spot":10442,"WD":10443,"cc":10444,"fax":10445,"hits":10446,"iac":10447,"iOS":10448,"maps":10449,"vable":10450,"zed":10451,"incorporate":10452,"ona":10453,"oning":10454,"revenues":10455,"isters":10456,"aria":10457,"asthma":10458,"stur":10459,"acres":10460,"segment":10461,"heim":10462,"ading":10463,"owed":10464,"amic":10465,"delet":10466,"ghan":10467,"buttons":10468,"bother":10469,"formula":10470,"spell":10471,"somebody":10472,"prev":10473,"Chi":10474,"Stick":10475,"backpack":10476,"lette":10477,"101":10478,"Unit":10479,"wrap":10480,"cloth":10481,"retreat":10482,"charming":10483,"Decor":10484,"glue":10485,"Prague":10486,"filing":10487,"operates":10488,"Boy":10489,"Movie":10490,"Share":10491,"Short":10492,"brothers":10493,"Draw":10494,"aimed":10495,"11th":10496,"INR":10497,"Apply":10498,"greet":10499,"ATE":10500,"stays":10501,"Feel":10502,"Crim":10503,"burning":10504,"Success":10505,"spectacular":10506,"excav":10507,"respected":10508,"mixing":10509,"appointments":10510,"SEC":10511,"answered":10512,"spokes":10513,"influenced":10514,"ancers":10515,"instructor":10516,"pushing":10517,"evalu":10518,"Autospin":10519,"fortunate":10520,"tailored":10521,"Terms":10522,"luxurious":10523,"Miller":10524,"AAID":10525,"insulin":10526,"sexual":10527,"Birth":10528,"restricted":10529,"weapon":10530,"Temple":10531,"Castle":10532,"Oxford":10533,"vessels":10534,"devoted":10535,"Attorney":10536,"Jayalakshmi":10537,"9th":10538,"Along":10539,"BU":10540,"Dun":10541,"Doc":10542,"Est":10543,"Final":10544,"Gul":10545,"Later":10546,"ML":10547,"Mas":10548,"Much":10549,"Nemb":10550,"Ol":10551,"Prep":10552,"Sab":10553,"Screen":10554,"Treat":10555,"dirt":10556,"hu":10557,"puzz":10558,"stom":10559,"vinyl":10560,"ол":10561,"retr":10562,"recru":10563,"refriger":10564,"toler":10565,"aro":10566,"sectors":10567,"beats":10568,"begun":10569,"veys":10570,"heated":10571,"etics":10572,"ige":10573,"unlikely":10574,"trails":10575,"ulu":10576,"defect":10577,"artistic":10578,"tees":10579,"grace":10580,"mathem":10581,"spat":10582,"aken":10583,"iah":10584,"crust":10585,"discounts":10586,"discussing":10587,"manually":10588,"preserve":10589,"bucket":10590,"syl":10591,"obst":10592,"carri":10593,"cery":10594,"surge":10595,"Records":10596,"athers":10597,"Andy":10598,"writes":10599,"solving":10600,"tale":10601,"processed":10602,"Adam":10603,"metro":10604,"practition":10605,"Joy":10606,"towels":10607,"ERS":10608,"expecting":10609,"towns":10610,"1991":10611,"1994":10612,"compete":10613,"tablets":10614,"Perfect":10615,"planted":10616,"physicians":10617,"popularity":10618,"recognised":10619,"acceptance":10620,"integrate":10621,"functionality":10622,"agreements":10623,"Century":10624,"Update":10625,"terrible":10626,"advised":10627,"Palace":10628,"Governor":10629,"scribe":10630,"enhanced":10631,"boundaries":10632,"appreciated":10633,"temperatures":10634,"sustainability":10635,"reminded":10636,"relaxed":10637,"vegetation":10638,"clinic":10639,"resistant":10640,"ethnic":10641,"constitu":10642,"coastal":10643,"Championship":10644,"audiences":10645,"veterans":10646,"merchand":10647,"governments":10648,"Henry":10649,"ioxid":10650,"Jiang":10651,"aluminum":10652,"Alliance":10653,"simultaneously":10654,"Often":10655,"Antonioni":10656,"Nembhard":10657,"Agre":10658,"BBC":10659,"Cell":10660,"Cos":10661,"HL":10662,"Hop":10663,"Imag":10664,"Langu":10665,"MB":10666,"None":10667,"Pod":10668,"Swit":10669,"Veter":10670,"bout":10671,"dar":10672,"dot":10673,"jug":10674,"juris":10675,"ores":10676,"rhy":10677,"xy":10678,"ра":10679,"reset":10680,"resem":10681,"thew":10682,"iser":10683,"tos":10684,"arise":10685,"fork":10686,"chef":10687,"tery":10688,"agers":10689,"eman":10690,"dose":10691,"derived":10692,"bohydr":10693,"spouse":10694,"crimin":10695,"pred":10696,"branches":10697,"interactions":10698,"correspond":10699,"angles":10700,"backup":10701,"1960":10702,"Assess":10703,"designated":10704,"submission":10705,"showcase":10706,"solved":10707,"inson":10708,"parliament":10709,"generating":10710,"Climate":10711,"varied":10712,"operators":10713,"passengers":10714,"autumn":10715,"Roy":10716,"meters":10717,"broke":10718,"lington":10719,"refuge":10720,"Marc":10721,"hybrid":10722,"sells":10723,"musicians":10724,"camping":10725,"Flash":10726,"screens":10727,"Description":10728,"ESS":10729,"burst":10730,"excellence":10731,"commerce":10732,"Wells":10733,"1988":10734,"Translation":10735,"Books":10736,"copyright":10737,"pups":10738,"cluding":10739,"trailer":10740,"Israeli":10741,"nicely":10742,"IVE":10743,"Survey":10744,"subscrib":10745,"umni":10746,"Fortun":10747,"episodes":10748,"constitution":10749,"navigation":10750,"crisp":10751,"Better":10752,"announcement":10753,"restrictions":10754,"beliefs":10755,"Bowl":10756,"refreshing":10757,"Officer":10758,"gutters":10759,"License":10760,"testimony":10761,"striking":10762,"Hospital":10763,"assertion":10764,"Ukrain":10765,"sensitivity":10766,"ccoli":10767,"Switzer":10768,"!).":10769,"%)":10770,"92":10771,"CAN":10772,"Cele":10773,"Dress":10774,"EF":10775,"Eric":10776,"Furn":10777,"Purch":10778,"Rhe":10779,"Raj":10780,"Smo":10781,"Size":10782,"bite":10783,"bund":10784,"cents":10785,"dor":10786,"eign":10787,"fur":10788,"fake":10789,"fails":10790,"hatt":10791,"lb":10792,"lining":10793,"mild":10794,"pads":10795,"wiring":10796,"об":10797,"anno":10798,"erry":10799,"erals":10800,"reverse":10801,"eni":10802,"alph":10803,"alarm":10804,"toss":10805,"imper":10806,"unfortunately":10807,"urer":10808,"conjunction":10809,"keen":10810,"explic":10811,"odge":10812,"udes":10813,"Ant":10814,"Chrome":10815,"coln":10816,"inkansen":10817,"1980":10818,"flies":10819,"invitation":10820,"worlds":10821,"Deep":10822,"Princ":10823,"Clinton":10824,"organize":10825,"Shinkansen":10826,"loads":10827,"virus":10828,"Grad":10829,"Graph":10830,"untary":10831,"broker":10832,"publicly":10833,"painful":10834,"Manchester":10835,"cuis":10836,"stein":10837,"rolled":10838,"treating":10839,"competing":10840,"bara":10841,"defend":10842,"circle":10843,"manufactured":10844,"removing":10845,"dropped":10846,"Study":10847,"1982":10848,"achievement":10849,"pulse":10850,"analyze":10851,"Model":10852,"adjusted":10853,"coaches":10854,"declared":10855,"entertaining":10856,"relaxing":10857,"Philadelphia":10858,"adventures":10859,"mesh":10860,"Williams":10861,"patches":10862,"proposals":10863,"Leadership":10864,"occasionally":10865,"Toronto":10866,"fleet":10867,"pursue":10868,"Karl":10869,"LOVE":10870,"Physical":10871,"vendor":10872,"Users":10873,"acknowledge":10874,"quantity":10875,"ladies":10876,"enemy":10877,"surprisingly":10878,"Corporation":10879,"subsequent":10880,"deemed":10881,"Football":10882,"convinced":10883,"Valentine":10884,".-":10885,".).":10886,"Aren":10887,"BI":10888,"Dur":10889,"Event":10890,"Jess":10891,"NZ":10892,"Oil":10893,"Rivers":10894,"SIM":10895,"TER":10896,"Zo":10897,"cope":10898,"egh":10899,"fires":10900,"flix":10901,"hills":10902,"pub":10903,"ued":10904,"уо":10905,"іѕ":10906,"inn":10907,"eness":10908,"beef":10909,"aret":10910,"arest":10911,"allas":10912,"emark":10913,"plies":10914,"sham":10915,"cann":10916,"poo":10917,"cozy":10918,"grid":10919,"Intell":10920,"ishment":10921,"otherapy":10922,"disorder":10923,"Anna":10924,"province":10925,"Stain":10926,"regon":10927,"seeks":10928,"attain":10929,"Hey":10930,"wherever":10931,"Andre":10932,"Nether":10933,"skip":10934,"solo":10935,"capability":10936,"tones":10937,"presentations":10938,"12th":10939,"ividual":10940,"Resources":10941,"personalized":10942,"Manual":10943,"enjoyable":10944,"contacted":10945,"tennis":10946,"trademark":10947,"Individual":10948,"ASE":10949,"ika":10950,"matched":10951,"selections":10952,"apeut":10953,"vanity":10954,"engineers":10955,"appliance":10956,"laboratory":10957,"sequence":10958,"Netflix":10959,"conditioning":10960,"territory":10961,"violation":10962,"Wales":10963,"cinema":10964,"attendance":10965,"schemes":10966,"comparable":10967,"drove":10968,"Melbourne":10969,"phenomen":10970,"Title":10971,"stimul":10972,"Junior":10973,"Motor":10974,"Protection":10975,"Muslims":10976,"Assistant":10977,"settlement":10978,"Python":10979,"Level":10980,"Flowers":10981,"Diego":10982,"Storage":10983,"lobby":10984,"colleges":10985,"Dumpster":10986,"turnover":10987,"Cit":10988,"Dry":10989,"Gill":10990,"Given":10991,"Hay":10992,"MI":10993,"Nic":10994,"Oregon":10995,"PH":10996,"Sess":10997,"SAP":10998,"UP":10999,"Vit":11000,"bible":11001,"density":11002,"euro":11003,"gow":11004,"lum":11005,"mn":11006,"nr":11007,"pending":11008,"punch":11009,"uing":11010,"wart":11011,"yield":11012,"enjoys":11013,"stall":11014,"omed":11015,"hect":11016,"adays":11017,"composed":11018,"conferences":11019,"apore":11020,"rescue":11021,"estone":11022,"teens":11023,"ached":11024,"pread":11025,"disaster":11026,"disappointed":11027,"dral":11028,"Change":11029,"buzz":11030,"versatile":11031,"minister":11032,"persist":11033,"deliber":11034,"Trip":11035,"startup":11036,"identification":11037,"singles":11038,"ordering":11039,"applicants":11040,"invested":11041,"kindle":11042,"steep":11043,"ballots":11044,"addressing":11045,"cussion":11046,"slices":11047,"tourists":11048,"Similar":11049,"fireplace":11050,"Barbara":11051,"biology":11052,"titled":11053,"harvest":11054,"Import":11055,"Letter":11056,"Geo":11057,"Host":11058,"Anyone":11059,"churches":11060,"Scient":11061,"TAG_":11062,"Cambridge":11063,"Portland":11064,"straightforward":11065,"Help":11066,"assignment":11067,"oxide":11068,"Lincoln":11069,"cepting":11070,"Volunte":11071,"licensing":11072,"seasons":11073,"Premier":11074,"Number":11075,"Pierre":11076,"Industrial":11077,"cavity":11078,"Consult":11079,"Transportation":11080,"parallel":11081,"acquisition":11082,"Palestin":11083,"Several":11084,"deposits":11085,"stomach":11086,"Netherlands":11087,"Aqu":11088,"Bou":11089,"Bry":11090,"Bishop":11091,"Cow":11092,"Crow":11093,"Dance":11094,"Days":11095,"Fa":11096,"Hills":11097,"Jordan":11098,"Kate":11099,"Karen":11100,"Liz":11101,"MW":11102,"Mom":11103,"Ralph":11104,"Song":11105,"Text":11106,"Total":11107,"bally":11108,"ccer":11109,"dwell":11110,"hob":11111,"jer":11112,"lenses":11113,"nish":11114,"nick":11115,"psy":11116,"sits":11117,"vance":11118,"anne":11119,"ali":11120,"isely":11121,"toll":11122,"armed":11123,"lee":11124,"leverage":11125,"acre":11126,"accent":11127,"ela":11128,"adher":11129,"constrain":11130,"neat":11131,"oples":11132,"deaf":11133,"fragr":11134,"outdoors":11135,"queries":11136,"arten":11137,"worship":11138,"timely":11139,"compact":11140,"foam":11141,"evident":11142,"owns":11143,".....":11144,"overnight":11145,"Staff":11146,"bug":11147,"regime":11148,"appet":11149,"mediate":11150,"relate":11151,"Record":11152,"amps":11153,"retired":11154,"expense":11155,"facial":11156,"remot":11157,"Cancer":11158,"140":11159,"contacts":11160,"tenant":11161,"cleaner":11162,"minded":11163,"flowing":11164,"speaks":11165,"screw":11166,"gradually":11167,"moderate":11168,"circles":11169,"voted":11170,"horr":11171,"reservation":11172,"premises":11173,"resolved":11174,"preferences":11175,"authenticators":11176,"Strong":11177,"roughly":11178,"Laure":11179,"determining":11180,"reflects":11181,"Delhi":11182,"decline":11183,"Malays":11184,"pupils":11185,"Lighting":11186,"throwing":11187,"modify":11188,"sisters":11189,"racing":11190,"Certific":11191,"Florence":11192,"Rule":11193,"hesitate":11194,"diagnosis":11195,"ratings":11196,"confidential":11197,"Ultim":11198,"oriented":11199,"arrested":11200,"Remove":11201,"Recently":11202,"Style":11203,"Conditioning":11204,"Sugar":11205,"scoring":11206,"pipeline":11207,"Birthday":11208,"7th":11209,"Bell":11210,"Bio":11211,"Cand":11212,"Clo":11213,"Dash":11214,"Ident":11215,"Kelly":11216,"Lor":11217,"Las":11218,"Liber":11219,"Map":11220,"ND":11221,"Rav":11222,"TL":11223,"Wonder":11224,"bn":11225,"binding":11226,"dale":11227,"gently":11228,"mu":11229,"pion":11230,"pixel":11231,"tang":11232,"trop":11233,"incial":11234,"replic":11235,"atr":11236,"ento":11237,"asm":11238,"asgow":11239,"leak":11240,"bek":11241,"abling":11242,"uniqu":11243,"proportion":11244,"allerg":11245,"exterior":11246,"poem":11247,"Into":11248,"ipur":11249,"portions":11250,"comply":11251,"presum":11252,"blame":11253,"blasting":11254,"airline":11255,"underlying":11256,"carbohydr":11257,"energ":11258,"belly":11259,"lightweight":11260,"substance":11261,"polish":11262,"Together":11263,"filters":11264,"patience":11265,"effectiveness":11266,"promises":11267,"15th":11268,"activation":11269,"investor":11270,"Resolution":11271,"temple":11272,"affairs":11273,"boarding":11274,"rounded":11275,"ometric":11276,"combines":11277,"THER":11278,"wallpaper":11279,"ICO":11280,"vania":11281,"gaining":11282,"collective":11283,"continuously":11284,"bulk":11285,"difficulties":11286,"figured":11287,"freely":11288,"judgment":11289,"crown":11290,"accurately":11291,"impressed":11292,"carries":11293,"Relations":11294,"measurement":11295,"Amazing":11296,"flavors":11297,"suffered":11298,"nutrients":11299,"oxid":11300,"eligibility":11301,"fingers":11302,"Republicans":11303,"arrangement":11304,"dialogue":11305,"shapes":11306,"YOUR":11307,"peppers":11308,"editorial":11309,"frozen":11310,"VERY":11311,"diameter":11312,"retrograde":11313,"involvement":11314,"Architect":11315,"Index":11316,"Bathroom":11317,"Pennsyl":11318,"Alberta":11319,"bicycle":11320,"Practice":11321,"Sorry":11322,"neutral":11323,"Armenian":11324,"html":11325,"Toyota":11326,"jewelry":11327,"embedded":11328,"elderly":11329,"mbH":11330,"accompanied":11331,"sodium":11332,"merchandise":11333,"Furniture":11334,"apeutic":11335,"86":11336,"Bright":11337,"Barr":11338,"CS":11339,"Eye":11340,"Greek":11341,"GmbH":11342,"Honey":11343,"Kev":11344,"Lan":11345,"Mail":11346,"Making":11347,"PO":11348,"Paren":11349,"Rap":11350,"TI":11351,"Vac":11352,"Vista":11353,"WOR":11354,"athing":11355,"bted":11356,"bomb":11357,"dive":11358,"fy":11359,"font":11360,"jac":11361,"knock":11362,"lender":11363,"oret":11364,"scar":11365,"sights":11366,"vacc":11367,"ны":11368,"anut":11369,"reck":11370,"replacing":11371,"tol":11372,"lever":11373,"chant":11374,"amins":11375,"abil":11376,"lore":11377,"logy":11378,"ighters":11379,"permitted":11380,"odds":11381,"endor":11382,"grip":11383,"acket":11384,"ibu":11385,"evil":11386,"ignored":11387,"blown":11388,"manus":11389,"dried":11390,"drones":11391,"needing":11392,"intro":11393,"rens":11394,"inkle":11395,"nings":11396,"curing":11397,"oldest":11398,"requiring":11399,"yside":11400,"sheep":11401,"identical":11402,"ampa":11403,"valley":11404,"Front":11405,"Death":11406,"parad":11407,"Advert":11408,"organised":11409,"Brian":11410,"performs":11411,"Att":11412,"metres":11413,"countless":11414,"bene":11415,"considerable":11416,"labels":11417,"Marvel":11418,"teaches":11419,"Industry":11420,"camps":11421,"dependence":11422,"dealer":11423,"slice":11424,"digit":11425,"tournament":11426,"establishing":11427,"cookie":11428,"colorful":11429,"integral":11430,"harsh":11431,"maintains":11432,"preventing":11433,"drops":11434,"hitting":11435,"Designs":11436,"judg":11437,"Glasgow":11438,"executives":11439,"ownership":11440,"Intel":11441,"femin":11442,"dimensions":11443,"diagnosed":11444,"Singapore":11445,"complaint":11446,"complaints":11447,"Beauty":11448,"vascular":11449,"knife":11450,"Matthew":11451,"Conditions":11452,"Television":11453,"nuclear":11454,"advocate":11455,"diamond":11456,"moisture":11457,"Okay":11458,"Authenticator":11459,"Complete":11460,"basketball":11461,"compassion":11462,"cushion":11463,"Cinema":11464,"remarkable":11465,"vulnerable":11466,"enormous":11467,"bronze":11468,"tremend":11469,"oxygen":11470,"hubaneswar":11471,"Fortunately":11472,"Pennsylvania":11473,"':":11474,".),":11475,"AE":11476,"Ado":11477,"Bureau":11478,"Cou":11479,"Cav":11480,"Dallas":11481,"Emer":11482,"Greet":11483,"Jenn":11484,"Pep":11485,"Spo":11486,"]]":11487,"fi":11488,"gau":11489,"iCloud":11490,"jazz":11491,"ku":11492,"nod":11493,"pc":11494,"paving":11495,"rane":11496,"si":11497,"го":11498,"rection":11499,"orious":11500,"alike":11501,"stakes":11502,"chill":11503,"adas":11504,"immun":11505,"unlike":11506,"compromise":11507,"lovers":11508,"ifer":11509,"haul":11510,"outline":11511,"soy":11512,"shi":11513,"canvas":11514,"notification":11515,"cos":11516,"coins":11517,"elli":11518,"aviation":11519,"boasts":11520,"Chap":11521,"desper":11522,"corners":11523,"enclo":11524,"inclusion":11525,"rowave":11526,"observe":11527,"visibility":11528,"leton":11529,"lessly":11530,"grammar":11531,"wrist":11532,"differently":11533,"examination":11534,"onda":11535,"static":11536,"traditions":11537,"packaging":11538,"bonds":11539,"credential":11540,"analog":11541,"1993":11542,"voices":11543,"supervision":11544,"Crusher":11545,"ITY":11546,"aura":11547,"excit":11548,"Mini":11549,"ICES":11550,"Regional":11551,"fixtures":11552,"referral":11553,"Schools":11554,"touches":11555,"qualities":11556,"Greater":11557,"Technologies":11558,"sorts":11559,"arios":11560,"neighbors":11561,"Belg":11562,"deadline":11563,"catching":11564,"Morons":11565,"Veh":11566,"accomplished":11567,"Certification":11568,"Wilson":11569,"Sarah":11570,"Medicaid":11571,"sacrif":11572,"Moscow":11573,"confirmation":11574,"grocery":11575,"Double":11576,"veteran":11577,"propag":11578,"independently":11579,"barely":11580,"experiments":11581,"Promot":11582,"victims":11583,"Coordinator":11584,"Urban":11585,"Turkish":11586,"rhyth":11587,"Switzerland":11588,"Celebr":11589,"Adobe":11590,"130":11591,"Bart":11592,"Caf":11593,"Cra":11594,"DJ":11595,"Dat":11596,"Eth":11597,"FE":11598,"Fellow":11599,"Gun":11600,"Gate":11601,"Nu":11602,"Others":11603,"PG":11604,"Pink":11605,"Rd":11606,"Rules":11607,"Scr":11608,"Six":11609,"TU":11610,"Tus":11611,"Yoga":11612,"bids":11613,"binary":11614,"hell":11615,"hint":11616,"mone":11617,"oved":11618,"tical":11619,"tier":11620,"infection":11621,"onen":11622,"rewards":11623,"ouds":11624,"isons":11625,"secre":11626,"chic":11627,"hem":11628,"admitted":11629,"apples":11630,"peer":11631,"soo":11632,"clips":11633,"partial":11634,"prest":11635,"disabled":11636,"icks":11637,"commands":11638,"themed":11639,"pher":11640,"ogen":11641,"olds":11642,"lecture":11643,"attest":11644,"attende":11645,"airy":11646,"monet":11647,"taining":11648,"eastern":11649,"talents":11650,"azines":11651,"trainer":11652,"meter":11653,"Canon":11654,"diagram":11655,"statistical":11656,"wheat":11657,"cleaned":11658,"specifications":11659,"confused":11660,"seasonal":11661,"Carter":11662,"stopping":11663,"slide":11664,"welcomed":11665,"ICE":11666,"homeless":11667,"billing":11668,"footage":11669,"badly":11670,"impacts":11671,"bathrooms":11672,"1989":11673,"affecting":11674,"broader":11675,"decorated":11676,"decorating":11677,"fabrics":11678,"destinations":11679,"rocks":11680,"categor":11681,"Benef":11682,"execute":11683,"execution":11684,"syndrome":11685,"utilized":11686,"vegetable":11687,"habitats":11688,"vacu":11689,"washing":11690,"precision":11691,"precisely":11692,"mandatory":11693,"improves":11694,"satisfy":11695,"adorable":11696,"honestly":11697,"Jonas":11698,"hunting":11699,"blessed":11700,"Statistics":11701,"universal":11702,"Premium":11703,"enemies":11704,"magnific":11705,"Clinical":11706,"Agric":11707,"vibrant":11708,"destroyed":11709,"Essential":11710,"pencil":11711,"Agreement":11712,"Assessment":11713,"beneath":11714,"excitement":11715,"Bot":11716,"Date":11717,"Dining":11718,"Eco":11719,"GO":11720,"Jen":11721,"Lisa":11722,"Mol":11723,"NAS":11724,"Pas":11725,"Past":11726,"Rot":11727,"Saudi":11728,"V1":11729,"VR":11730,"ez":11731,"fence":11732,"mg":11733,"mum":11734,"mask":11735,"pi":11736,"rof":11737,"rib":11738,"scent":11739,"tort":11740,"tails":11741,"thе":11742,"thumb":11743,"inth":11744,"inser":11745,"insured":11746,"ede":11747,"accompany":11748,"accepting":11749,"eli":11750,"elab":11751,"lymph":11752,"otive":11753,"abul":11754,"uten":11755,"compr":11756,"emissions":11757,"frag":11758,"extr":11759,"perception":11760,"perceived":11761,"pover":11762,"coon":11763,"ellers":11764,"boats":11765,"foss":11766,"disabilities":11767,"ensely":11768,"curities":11769,"aug":11770,"ministry":11771,"Forum":11772,"Coming":11773,"wrapped":11774,"nervous":11775,"Sec":11776,"Soon":11777,"Begin":11778,"friendship":11779,"Gran":11780,"USD":11781,"accessed":11782,"appearing":11783,"Phill":11784,"reaches":11785,"Poly":11786,"burden":11787,"welcoming":11788,"regarded":11789,"copper":11790,"ennial":11791,"cribed":11792,"Highway":11793,"contributed":11794,"Edition":11795,"Salt":11796,"OULD":11797,"administer":11798,"ergarten":11799,"imagery":11800,"finishes":11801,"mirrors":11802,"creamy":11803,"Outlook":11804,"smartphone":11805,"determination":11806,"reliability":11807,"sandwich":11808,"Emily":11809,"valued":11810,"survival":11811,"PLAC":11812,"DAY":11813,"terminal":11814,"demonstrated":11815,"Falls":11816,"Atlanta":11817,"Cleaning":11818,"liberal":11819,"iatric":11820,"Teacher":11821,"enrollment":11822,"democracy":11823,"Partnership":11824,"algorithms":11825,"praise":11826,"Respons":11827,"Bachelor":11828,"kilomet":11829,"coupon":11830,"WITH":11831,"Federation":11832,"Lovely":11833,"82":11834,"83":11835,"Field":11836,"Jac":11837,"Krist":11838,"Niss":11839,"Pages":11840,"Rain":11841,"Sac":11842,"Side":11843,"Sweet":11844,"Tow":11845,"Terr":11846,"Wo":11847,"Wy":11848,"Wenger":11849,"awe":11850,"gem":11851,"jam":11852,"lbs":11853,"mere":11854,"rays":11855,"texts":11856,"ua":11857,"uce":11858,"оr":11859,"revers":11860,"toe":11861,"edly":11862,"omite":11863,"adi":11864,"adhes":11865,"usable":11866,"ceive":11867,"composite":11868,"depression":11869,"outfit":11870,"quart":11871,"artif":11872,"Third":11873,"tears":11874,"omega":11875,"maj":11876,"maid":11877,"hassle":11878,"portal":11879,"liable":11880,"myster":11881,"assort":11882,"craw":11883,"dismiss":11884,"blade":11885,"internationally":11886,"encod":11887,"1920":11888,"carpet":11889,"surfaces":11890,"1010":11891,"cleans":11892,"Comb":11893,"Train":11894,"booked":11895,"lightly":11896,"Army":11897,"postal":11898,"offerings":11899,"ocy":11900,"varies":11901,"Address":11902,"Lewis":11903,"voltage":11904,"portray":11905,"borough":11906,"travels":11907,"refers":11908,"refused":11909,"naments":11910,"hypo":11911,"governing":11912,"iki":11913,"concerts":11914,"graduation":11915,"welve":11916,"couples":11917,"coupled":11918,"Parks":11919,"banking":11920,"seemingly":11921,"squee":11922,"cups":11923,"celebrating":11924,"Active":11925,"smoking":11926,"Additional":11927,"minimize":11928,"documented":11929,"complexity":11930,"synchron":11931,"Bern":11932,"ridic":11933,"sleeping":11934,"Major":11935,"UAFV1":11936,"scenarios":11937,"survived":11938,"killing":11939,"Divi":11940,"Freedom":11941,"Cyber":11942,"suspension":11943,"discounted":11944,"motivated":11945,"prospects":11946,"Multi":11947,"dispute":11948,"paste":11949,"WiFi":11950,"cushions":11951,"quisite":11952,"narrative":11953,"sovereign":11954,"cartridge":11955,"cuisine":11956,"Malaysia":11957,"360":11958,"84":11959,"Dif":11960,"Fut":11961,"Ku":11962,"Kit":11963,"Ped":11964,"Pit":11965,"Pap":11966,"RT":11967,"Sin":11968,"Tre":11969,"Tick":11970,"XP":11971,"bac":11972,"bump":11973,"cub":11974,"dings":11975,"fon":11976,"glow":11977,"junk":11978,"kg":11979,"kel":11980,"nell":11981,"pile":11982,"rons":11983,"scared":11984,"wy":11985,"wound":11986,"на":11987,"ре":11988,"ati":11989,"enix":11990,"isan":11991,"leisure":11992,"oman":11993,"ili":11994,"forcing":11995,"forgotten":11996,"olar":11997,"igious":11998,"trib":11999,"nearest":12000,"mock":12001,"pla":12002,"outlets":12003,"mentor":12004,"cano":12005,"cany":12006,"pron":12007,"fears":12008,"indirect":12009,"dock":12010,"Inspir":12011,"workforce":12012,"akh":12013,"straw":12014,"newest":12015,"drum":12016,"ensional":12017,"Stir":12018,"addle":12019,"caution":12020,"centuries":12021,"readily":12022,"minerals":12023,"underground":12024,"basics":12025,"fundra":12026,"clever":12027,"Secret":12028,"programmes":12029,"supportive":12030,"glory":12031,"ugs":12032,"Tools":12033,"technicians":12034,"Core":12035,"happily":12036,"blogg":12037,"operative":12038,"Moore":12039,"summar":12040,"customize":12041,"Leban":12042,"casinos":12043,"Reser":12044,"tribute":12045,"Manhatt":12046,"reflection":12047,"floating":12048,"Buff":12049,"shortly":12050,"RES":12051,"ASM":12052,"vertical":12053,"Month":12054,"machinery":12055,"penal":12056,"draws":12057,"messaging":12058,"functioning":12059,"sweep":12060,"locks":12061,"engineer":12062,"TVVL":12063,"accidents":12064,"dressed":12065,"sixth":12066,"Sept":12067,"logic":12068,"Edin":12069,"separated":12070,"1986":12071,"freight":12072,"Ability":12073,"immers":12074,"obtaining":12075,"neighbour":12076,"profitable":12077,"appreciation":12078,"consultant":12079,"responded":12080,"IBM":12081,"nominated":12082,"batteries":12083,"Throughout":12084,"Defense":12085,"Denver":12086,"junior":12087,"concentrate":12088,"Jonathan":12089,"hungry":12090,"excessive":12091,"Titan":12092,"Epis":12093,"Skype":12094,"Girls":12095,"independence":12096,"Question":12097,"Questions":12098,"ifiable":12099,"behaviors":12100,"cognitive":12101,"cabinets":12102,"hawk":12103,"refined":12104,"disposal":12105,"membrane":12106,"Language":12107,"Nissan":12108,"Ave":12109,"Aid":12110,"Bor":12111,"Brun":12112,"Cann":12113,"DM":12114,"Hur":12115,"Imp":12116,"Jr":12117,"Lad":12118,"NFL":12119,"Oliver":12120,"Pinterest":12121,"Round":12122,"SN":12123,"Ster":12124,"Seven":12125,"Ted":12126,"Usu":12127,"Yu":12128,"Yellow":12129,"bod":12130,"cd":12131,"cill":12132,"dell":12133,"daugh":12134,"eing":12135,"fel":12136,"iot":12137,"ras":12138,"ruled":12139,"ske":12140,"sons":12141,"twin":12142,"wages":12143,"zens":12144,"оn":12145,"intrig":12146,"atie":12147,"esy":12148,"alt":12149,"stip":12150,"seys":12151,"bec":12152,"ampl":12153,"aggreg":12154,"protest":12155,"comic":12156,"emade":12157,"tryside":12158,"ultra":12159,"weed":12160,"shout":12161,"pointer":12162,"gov":12163,"avan":12164,"avel":12165,"astro":12166,"boiler":12167,"mystery":12168,"foster":12169,"intern":12170,"renting":12171,"Chand":12172,"likewise":12173,"undertake":12174,"flush":12175,"donate":12176,"Request":12177,"cale":12178,"Command":12179,"homeowners":12180,"beloved":12181,"Ark":12182,"transfers":12183,"profound":12184,"stove":12185,"signals":12186,"Extra":12187,"presenting":12188,"healthier":12189,"brewer":12190,"breathing":12191,"loyal":12192,"Grant":12193,"Loonen":12194,"metab":12195,"USE":12196,"restoration":12197,"Leon":12198,"Leather":12199,"Legal":12200,"Islands":12201,"lawsuit":12202,"considerably":12203,"Coloring":12204,"INC":12205,"INE":12206,"Orch":12207,"traders":12208,"companion":12209,"ANY":12210,"governor":12211,"variations":12212,"aneous":12213,"THIS":12214,"releases":12215,"assisted":12216,"vanilla":12217,"favorites":12218,"enna":12219,"sunset":12220,"sunny":12221,"municipal":12222,"lifting":12223,"1985":12224,"introducing":12225,"professionally":12226,"documentary":12227,"promotions":12228,"soldiers":12229,"Shopping":12230,"females":12231,"romance":12232,"cheapest":12233,"Indiana":12234,"splash":12235,"Setting":12236,"politicians":12237,"OFF":12238,"bidding":12239,"partnerships":12240,"Knowledge":12241,"encountered":12242,"consciousness":12243,"microwave":12244,"proceeds":12245,"newspapers":12246,"Friends":12247,"delighted":12248,"Architecture":12249,"tackle":12250,"cherry":12251,"democratic":12252,"Wait":12253,"architectural":12254,"Utah":12255,"hazard":12256,"intuitive":12257,"Kevin":12258,"attendees":12259,"fundraising":12260,"daughters":12261,"110":12262,"310":12263,"480":12264,"?)":12265,"Agent":12266,"Bun":12267,"CAR":12268,"Dal":12269,"Dak":12270,"Kid":12271,"Mp":12272,"Mall":12273,"Mann":12274,"Nap":12275,"OG":12276,"Qur":12277,"Rog":12278,"TK":12279,"Taking":12280,"Tampa":12281,"Var":12282,"cant":12283,"divers":12284,"fought":12285,"gad":12286,"iology":12287,"lace":12288,"rus":12289,"tweet":12290,"wides":12291,"yr":12292,"”),":12293,"insur":12294,"inhib":12295,"angry":12296,"onions":12297,"rever":12298,"envelop":12299,"alumni":12300,"editors":12301,"oming":12302,"ented":12303,"sement":12304,"verified":12305,"oting":12306,"abis":12307,"conspir":12308,"tran":12309,"essence":12310,"essays":12311,"hai":12312,"peat":12313,"quo":12314,"antioxid":12315,"notch":12316,"notified":12317,"dozens":12318,"coating":12319,"coordination":12320,"grinding":12321,"compound":12322,"ckets":12323,"spher":12324,"ako":12325,"node":12326,"branch":12327,"epic":12328,"draf":12329,"ensively":12330,"corp":12331,"wore":12332,"cium":12333,"relates":12334,"Constitution":12335,"sheer":12336,"Anderson":12337,"Almost":12338,"Arizon":12339,"solic":12340,"Howard":12341,"Dead":12342,"pays":12343,"header":12344,"receives":12345,"classification":12346,"exams":12347,"metrics":12348,"cyl":12349,"Afghan":12350,"understands":12351,"voluntary":12352,"proteins":12353,"appealing":12354,"labs":12355,"panic":12356,"analys":12357,"marathon":12358,"voir":12359,"barrel":12360,"erald":12361,"participant":12362,"associate":12363,"accordingly":12364,"horn":12365,"Images":12366,"failing":12367,"Anyway":12368,"Student":12369,"turb":12370,"conducting":12371,"Patrick":12372,"Ready":12373,"advisor":12374,"snacks":12375,"scrap":12376,"Swiss":12377,"switched":12378,"demanding":12379,"Malibu":12380,"vitamins":12381,"Player":12382,"niche":12383,"journalist":12384,"Organization":12385,"Summit":12386,"CO2":12387,"Hamilton":12388,"closest":12389,"Medicine":12390,"Koh":12391,"prospective":12392,"highlighted":12393,"tapes":12394,"Korean":12395,"merchant":12396,"affiliates":12397,"tasty":12398,"Girl":12399,"championship":12400,"Buddhist":12401,"experimental":12402,"GDPR":12403,"Cruz":12404,"Version":12405,"GHz":12406,"Dubai":12407,"deleted":12408,"Arena":12409,"Jessica":12410,"TAG_UAFV1":12411,"elihood":12412,"Manhattan":12413,"Usually":12414,"TAG_UAFV1_":12415,"89":12416,":)":12417,"Amy":12418,"Cash":12419,"Dag":12420,"Dist":12421,"Dental":12422,"Jason":12423,"Kill":12424,"Les":12425,"Lay":12426,"Morgan":12427,"Na":12428,"OH":12429,"Pin":12430,"Por":12431,"Pie":12432,"Pure":12433,"Rub":12434,"Snow":12435,"Xbox":12436,"cig":12437,"echo":12438,"hired":12439,"jury":12440,"las":12441,"lav":12442,"mant":12443,"pir":12444,"pies":12445,"rally":12446,"rides":12447,"sword":12448,"tempor":12449,"yog":12450,"ни":12451,"ancer":12452,"remodel":12453,"theories":12454,"enabling":12455,"edy":12456,"aron":12457,"iland":12458,"chamber":12459,"idy":12460,"amel":12461,"imum":12462,"iments":12463,"sumer":12464,"suited":12465,"uted":12466,"unlock":12467,"Theme":12468,"trap":12469,"apolog":12470,"reshold":12471,"thernet":12472,"actress":12473,"inevit":12474,"aching":12475,"cka":12476,"partially":12477,"crunch":12478,"disk":12479,"disappoint":12480,"brass":12481,"intensive":12482,"Chamber":12483,"wool":12484,"donated":12485,"enery":12486,"archae":12487,"cleared":12488,"ublin":12489,"ixels":12490,"Arc":12491,"handful":12492,"transmit":12493,"eseat":12494,"Too":12495,"technological":12496,"Expl":12497,"Exper":12498,"loyalty":12499,"mush":12500,"advances":12501,"grows":12502,"controvers":12503,"locality":12504,"contacting":12505,"Mayor":12506,"farmer":12507,"treats":12508,"credits":12509,"garbage":12510,"1992":12511,"reps":12512,"reasonably":12513,"milit":12514,"Feed":12515,"clicks":12516,"sciences":12517,"genetic":12518,"casting":12519,"taxi":12520,"magazines":12521,"moral":12522,"Region":12523,"bias":12524,"referring":12525,"mobility":12526,"encourages":12527,"encouragement":12528,"Activ":12529,"affects":12530,"regulated":12531,"Generally":12532,"pulling":12533,"Looks":12534,"neglect":12535,"switching":12536,"Obvious":12537,"grandchildren":12538,"Phoenix":12539,"nurses":12540,"configured":12541,"assumed":12542,"guns":12543,"Fireplace":12544,"elementary":12545,"aspir":12546,"Franklin":12547,"dimensional":12548,"Single":12549,"concentration":12550,"Investment":12551,"shelter":12552,"Ashley":12553,"Corporate":12554,"intimate":12555,"algorithm":12556,"Tennessee":12557,"dessert":12558,"rendered":12559,"abandoned":12560,"Powder":12561,"iropractic":12562,"Luxury":12563,"Anthony":12564,"sturdy":12565,"spatial":12566,"Ukraine":12567,"Stainless":12568,"Vitamin":12569,"Arizona":12570,")(":12571,"Bh":12572,"Cop":12573,"Cany":12574,"Carr":12575,"Fred":12576,"Hous":12577,"Jazz":12578,"LG":12579,"Lane":12580,"MC":12581,"Math":12582,"Mission":12583,"Mendo":12584,"Ot":12585,"Sit":12586,"Sad":12587,"Sust":12588,"Ton":12589,"Tab":12590,"Tag":12591,"UE":12592,"Wear":12593,"Wire":12594,"dough":12595,"dancing":12596,"eager":12597,"ffer":12598,"fighters":12599,"hors":12600,"iere":12601,"lately":12602,"lene":12603,"migr":12604,"nas":12605,"nour":12606,"phas":12607,"ranks":12608,"skept":12609,"von":12610,"wax":12611,"oria":12612,"toos":12613,"arising":12614,"leasing":12615,"elle":12616,"robot":12617,"chun":12618,"heel":12619,"verification":12620,"emen":12621,"plas":12622,"exempt":12623,"ante":12624,"cans":12625,"prais":12626,"tec":12627,"teous":12628,"dozen":12629,"Includes":12630,"bored":12631,"fertil":12632,"manages":12633,"intake":12634,"Chan":12635,"thereby":12636,"offline":12637,"inks":12638,"finals":12639,"donation":12640,"calcium":12641,"archive":12642,"delicate":12643,"Consumer":12644,"Complain":12645,"True":12646,"issance":12647,"blem":12648,"anny":12649,"transit":12650,"transformed":12651,"bloss":12652,"passenger":12653,"receiver":12654,"classified":12655,"continually":12656,"18th":12657,"metric":12658,"additionally":12659,"shoppers":12660,"structural":12661,"eryl":12662,"14th":12663,"refuse":12664,"educate":12665,"stepping":12666,"IDE":12667,"rolls":12668,"Mediter":12669,"Partner":12670,"grades":12671,"Chem":12672,"Query":12673,"biological":12674,"titude":12675,"cooler":12676,"bullet":12677,"ADHD":12678,"mailing":12679,"momentum":12680,"cretion":12681,"clusive":12682,"1983":12683,"Healthy":12684,"Keen":12685,"informal":12686,"promotional":12687,"Straw":12688,"Palm":12689,"optimize":12690,"smartphones":12691,"organizational":12692,"reflected":12693,"Swan":12694,"Switch":12695,"declined":12696,"wastewater":12697,"Typ":12698,"Maj":12699,"Electronic":12700,"discovering":12701,"modifications":12702,"besides":12703,"Peters":12704,"sporting":12705,"ecosystems":12706,"publisher":12707,"URL":12708,"secutive":12709,"sacred":12710,"gratulations":12711,"Applications":12712,"absorb":12713,"pillar":12714,"repeatedly":12715,"Kyoto":12716,"memorable":12717,"legendary":12718,"toilet":12719,"graduates":12720,"manifest":12721,"incurred":12722,"amenities":12723,"explicit":12724,"Intelligence":12725,"remotely":12726,"uniquely":12727,"Parents":12728,"Edinburgh":12729,"Obviously":12730,"81":12731,"Bos":12732,"BIO":12733,"CAS":12734,"Dear":12735,"Dublin":12736,"FP":12737,"Fat":12738,"GS":12739,"Gates":12740,"Mort":12741,"Nad":12742,"Nach":12743,"Oz":12744,"Paper":12745,"Rh":12746,"Rand":12747,"Rod":12748,"TP":12749,"Ta":12750,"Tel":12751,"VM":12752,"Vin":12753,"Vod":12754,"Wol":12755,"Yuk":12756,"cv":12757,"cies":12758,"diving":12759,"fusion":12760,"jar":12761,"lively":12762,"nan":12763,"pics":12764,"twelve":12765,"ule":12766,"ür":12767,"′′":12768,"inely":12769,"inexpensive":12770,"theoret":12771,"enrich":12772,"orer":12773,"isco":12774,"islands":12775,"stap":12776,"ello":12777,"chains":12778,"charts":12779,"ami":12780,"amer":12781,"amid":12782,"ample":12783,"oty":12784,"absent":12785,"cement":12786,"uncomfortable":12787,"agger":12788,"combo":12789,"composing":12790,"traged":12791,"apo":12792,"resign":12793,"fract":12794,"shy":12795,"permits":12796,"therapeutic":12797,"poetry":12798,"coinc":12799,"ieval":12800,"izations":12801,"blast":12802,"Anti":12803,"Chat":12804,"angular":12805,"wellness":12806,"countryside":12807,"undertaking":12808,"Heat":12809,"bases":12810,"Convention":12811,"Trcka":12812,"ashed":12813,"extensions":12814,"Arm":12815,"profic":12816,"charm":12817,"posters":12818,"ugal":12819,"insist":12820,"Exhib":12821,"alloween":12822,"Plat":12823,"Bron":12824,"examined":12825,"counted":12826,"electoral":12827,"pork":12828,"nonprofit":12829,"160":12830,"farms":12831,"ANT":12832,"waist":12833,"Christians":12834,"dealt":12835,"defines":12836,"competent":12837,"Focus":12838,"Guy":12839,"viation":12840,"nedy":12841,"elfare":12842,"comfortably":12843,"ACC":12844,"buried":12845,"approaching":12846,"semester":12847,"dedication":12848,"drying":12849,"protective":12850,"sooner":12851,"dying":12852,"referr":12853,"SEEA":12854,"automation":12855,"ciliation":12856,"baseball":12857,"Compet":12858,"avoided":12859,"1987":12860,"silk":12861,"dolomite":12862,"imagin":12863,"Designed":12864,"pulses":12865,"executed":12866,"violent":12867,"snack":12868,"adjustment":12869,"adjustable":12870,"Outdoor":12871,"Sciences":12872,"Magic":12873,"Interior":12874,"maximize":12875,"bolt":12876,"fatal":12877,"expanding":12878,"Whole":12879,"journalism":12880,"embark":12881,"meantime":12882,"briefly":12883,"Maintenance":12884,"conservative":12885,"trucks":12886,"insulation":12887,"uploaded":12888,"departure":12889,"Hopefully":12890,"exploration":12891,"flew":12892,"Kennedy":12893,"inflamm":12894,"philosoph":12895,"Chairman":12896,"renewed":12897,"Fitz":12898,"barriers":12899,"Publish":12900,"cottage":12901,"Respond":12902,"upgraded":12903,"Thailand":12904,"Historic":12905,"Harris":12906,"franchise":12907,"shadow":12908,"uniform":12909,"implications":12910,"Regardless":12911,"Gordon":12912,"Required":12913,"Specific":12914,"Crimson":12915,"obstacles":12916,"jacent":12917,"Greeting":12918,"ranean":12919,"vacuum":12920,"poverty":12921,"Mendoza":12922,"Mediterranean":12923,",'":12924,"Auck":12925,"Aaron":12926,"BY":12927,"Bapt":12928,"Cars":12929,"Crew":12930,"Cathe":12931,"Fail":12932,"Gra":12933,"Hong":12934,"Lam":12935,"Ment":12936,"Mental":12937,"Pain":12938,"Pok":12939,"PER":12940,"Rus":12941,"SF":12942,"Sid":12943,"Spl":12944,"Sport":12945,"Tah":12946,"Touch":12947,"Vice":12948,"Winner":12949,"biz":12950,"cules":12951,"dense":12952,"epo":12953,"fs":12954,"gle":12955,"gue":12956,"gates":12957,"gaps":12958,"iator":12959,"kar":12960,"kits":12961,"lol":12962,"lun":12963,"lag":12964,"lug":12965,"lighter":12966,"pale":12967,"pension":12968,"rim":12969,"tv":12970,"tan":12971,"tends":12972,"uments":12973,"vations":12974,"wanna":12975,"yar":12976,"thal":12977,"recess":12978,"esa":12979,"alpha":12980,"ingo":12981,"edar":12982,"iten":12983,"elite":12984,"sewing":12985,"chen":12986,"beings":12987,"vegg":12988,"adm":12989,"whis":12990,"unve":12991,"united":12992,"unnecessary":12993,"proxim":12994,"illion":12995,"modes":12996,"mosqu":12997,"fridge":12998,"haha":12999,"peers":13000,"pered":13001,"permal":13002,"perpet":13003,"oda":13004,"indul":13005,"grave":13006,"Indoor":13007,"ghost":13008,"aston":13009,"preview":13010,"prelim":13011,"preference":13012,"newer":13013,"desir":13014,"desires":13015,"bugs":13016,"reads":13017,"beta":13018,"highway":13019,"fled":13020,"flesh":13021,"relatives":13022,"landlord":13023,"downs":13024,"delays":13025,"ementia":13026,"subscribe":13027,"Dean":13028,"Degree":13029,"plicity":13030,"glam":13031,"marketplace":13032,"azawa":13033,"expend":13034,"Plate":13035,"particles":13036,"summit":13037,"summary":13038,"pots":13039,"greens":13040,"humid":13041,"positioned":13042,"rounds":13043,"Steuer":13044,"dealership":13045,"denied":13046,"Carbon":13047,"cardio":13048,"Desk":13049,"picks":13050,"discusses":13051,"gene":13052,"incidents":13053,"homemade":13054,"habil":13055,"explores":13056,"OUR":13057,"Firm":13058,"Healthcare":13059,"assessed":13060,"consisting":13061,"alternate":13062,"imagined":13063,"Lawrence":13064,"updating":13065,"Bookmark":13066,"judges":13067,"reportedly":13068,"Wheel":13069,"analysts":13070,"chemistry":13071,"Virt":13072,"44AD":13073,"fashioned":13074,"Lightroom":13075,"PayPal":13076,"nurse":13077,"juven":13078,"psychological":13079,"tuned":13080,"Depending":13081,"Tableegh":13082,"occupation":13083,"occupied":13084,"Cycle":13085,"weakness":13086,"Loss":13087,"Between":13088,"dentist":13089,"Testament":13090,"Olympics":13091,"instructional":13092,"counseling":13093,"clarity":13094,"distinctive":13095,"attributed":13096,"Circle":13097,"supervisor":13098,"Potter":13099,"thirty":13100,"1990s":13101,"Foreign":13102,"Conservation":13103,"Thai":13104,"brewery":13105,"Truth":13106,"Tunes":13107,"legislative":13108,"recruitment":13109,"Universal":13110,"Innovation":13111,"anonymous":13112,"divorce":13113,"surgical":13114,"Princess":13115,"Purchase":13116,"Volunteer":13117,"Palestinian":13118,"Vacation":13119,"penalties":13120,"Dakota":13121,"Sustain":13122,"Auckland":13123,"permalink":13124,"Steuermann":13125,"Ale":13126,"BN":13127,"Brew":13128,"Dest":13129,"DNA":13130,"Fer":13131,"Fine":13132,"Fashion":13133,"Gould":13134,"GPS":13135,"GPLAC":13136,"Io":13137,"Lion":13138,"Liver":13139,"Lands":13140,"Laura":13141,"MET":13142,"TLS":13143,"UM":13144,"bamboo":13145,"eu":13146,"eve":13147,"hann":13148,"hunt":13149,"lakes":13150,"lounge":13151,"nity":13152,"nels":13153,"oak":13154,"rit":13155,"som":13156,"slots":13157,"tire":13158,"tension":13159,"vig":13160,"аnd":13161,"recycl":13162,"issa":13163,"tock":13164,"tody":13165,"edo":13166,"arin":13167,"stere":13168,"acies":13169,"accredited":13170,"heal":13171,"imbur":13172,"whiting":13173,"proceedings":13174,"consecutive":13175,"uls":13176,"kee":13177,"fried":13178,"exchanges":13179,"peanut":13180,"soap":13181,"shades":13182,"quit":13183,"actors":13184,"feas":13185,"upal":13186,"Inn":13187,"asty":13188,"booth":13189,"dub":13190,"eva":13191,"crates":13192,"discretion":13193,"Wholesale":13194,"offs":13195,"anga":13196,"syrup":13197,"obsess":13198,"flip":13199,"shoulders":13200,"afterwards":13201,"Until":13202,"hoe":13203,"simmer":13204,"joints":13205,"cares":13206,"polls":13207,"Deal":13208,"lastic":13209,"payday":13210,"ventions":13211,"Bey":13212,"Adams":13213,"weekends":13214,"passive":13215,"passport":13216,"ballo":13217,"Joe":13218,"devast":13219,"Door":13220,"warehouse":13221,"Tea":13222,"steering":13223,"traits":13224,"educated":13225,"namely":13226,"confusing":13227,"musician":13228,"winds":13229,"ACH":13230,"distant":13231,"penet":13232,"honour":13233,"planting":13234,"Offer":13235,"couver":13236,"favorable":13237,"seniors":13238,"amazed":13239,"firmly":13240,"Corp":13241,"touching":13242,"28th":13243,"squad":13244,"Improve":13245,"celebrations":13246,"avoiding":13247,"furnish":13248,"silent":13249,"silly":13250,"Patrol":13251,"targeting":13252,"candle":13253,"innovations":13254,"rocket":13255,"Glen":13256,"cruise":13257,"Swift":13258,"consume":13259,"pupil":13260,"utilizing":13261,"strictly":13262,"relaxation":13263,"configure":13264,"mechanisms":13265,"washed":13266,"rosion":13267,"journalists":13268,"schedules":13269,"beside":13270,"libraries":13271,"festivals":13272,"dynamics":13273,"Floor":13274,"itarian":13275,"Medicare":13276,"Optim":13277,"substantially":13278,"AGES":13279,"inflation":13280,"Administr":13281,"simpler":13282,"Safe":13283,"converted":13284,"enthusiasm":13285,"seminar":13286,"cryptocurrency":13287,"molecular":13288,"delayed":13289,"vinegar":13290,"rustic":13291,"Tennis":13292,"Installation":13293,"Snap":13294,"Analytics":13295,"acknowledged":13296,"crushing":13297,"complimentary":13298,"consolidation":13299,"abundance":13300,"Kirk":13301,"electronics":13302,"Collins":13303,"Clarke":13304,"cultivation":13305,"obligations":13306,"Production":13307,"immigrants":13308,"Kanazawa":13309,"constraints":13310,"tropical":13311,"btedly":13312,"magnificent":13313,"breweries":13314,"Canyon":13315,"Cathedral":13316,"IoT":13317,")?":13318,"225":13319,"430":13320,"AX":13321,"Ald":13322,"Abu":13323,"Bush":13324,"Cass":13325,"DN":13326,"Especially":13327,"Fal":13328,"Gi":13329,"Gro":13330,"Hab":13331,"Hans":13332,"Halloween":13333,"Il":13334,"JINR":13335,"Lag":13336,"Luck":13337,"Mine":13338,"Meas":13339,"Nep":13340,"Pixel":13341,"Ren":13342,"Tan":13343,"_EXAM":13344,"bun":13345,"bull":13346,"ckey":13347,"dimin":13348,"gur":13349,"iTunes":13350,"kiss":13351,"ni":13352,"nit":13353,"tel":13354,"ée":13355,"аt":13356,"tha":13357,"inction":13358,"inaug":13359,"reform":13360,"reimbur":13361,"enquir":13362,"outr":13363,"arre":13364,"arom":13365,"astr":13366,"assure":13367,"stum":13368,"stiff":13369,"olph":13370,"prostate":13371,"proactive":13372,"procurement":13373,"ulating":13374,"reson":13375,"residing":13376,"shifts":13377,"artic":13378,"poser":13379,"upid":13380,"ipment":13381,"mega":13382,"avoc":13383,"timing":13384,"izable":13385,"assists":13386,"partly":13387,"crimes":13388,"overs":13389,"rend":13390,"awk":13391,"Stage":13392,"offset":13393,"colonial":13394,"builder":13395,"curved":13396,"centres":13397,"regret":13398,"1940":13399,"visions":13400,"monster":13401,"undergraduate":13402,"Heavy":13403,"flame":13404,"Comments":13405,"consensus":13406,"joke":13407,"iolet":13408,"extends":13409,"cheer":13410,"lotte":13411,"shipped":13412,"Beat":13413,"Clare":13414,"Adachi":13415,"opera":13416,"Shipping":13417,"itchens":13418,"enterprises":13419,"specializes":13420,"Roof":13421,"directors":13422,"activists":13423,"broider":13424,"practicing":13425,"scary":13426,"Collabor":13427,"Results":13428,"undou":13429,"clearing":13430,"margins":13431,"ometer":13432,"filler":13433,"genre":13434,"approached":13435,"downloading":13436,"downloaded":13437,"branding":13438,"significance":13439,"firmware":13440,"circulation":13441,"manufacture":13442,"hammad":13443,"Upper":13444,"Edward":13445,"Editor":13446,"animated":13447,"dropping":13448,"doll":13449,"warmth":13450,"attered":13451,"promoted":13452,"influences":13453,"Jean":13454,"advisory":13455,"reflecting":13456,"Speaking":13457,"Virgo":13458,"literacy":13459,"declar":13460,"Solar":13461,"sustained":13462,"Visual":13463,"consultants":13464,"Otherwise":13465,"Jerry":13466,"prayers":13467,"1967":13468,"Captain":13469,"attempted":13470,"Choice":13471,"rosse":13472,"perspectives":13473,"trials":13474,"MP3":13475,"prototype":13476,"Horse":13477,"publishers":13478,"diagnostic":13479,"struggled":13480,"tricky":13481,"pilgr":13482,"flags":13483,"Queens":13484,"extraction":13485,"pursuant":13486,"Landing":13487,"heroes":13488,"restored":13489,"rugs":13490,"dictionary":13491,"barrier":13492,"discipline":13493,"Syrian":13494,"Susan":13495,"renovation":13496,"Processing":13497,"Dietary":13498,"Primary":13499,"iblical":13500,"Authnr":13501,"Kansas":13502,"aggressive":13503,"Objective":13504,"buffet":13505,"Excellent":13506,"recipient":13507,"Jaipur":13508,"Greece":13509,"estrian":13510,"defeated":13511,"Certificate":13512,"manuscript":13513,"gauge":13514,"credentials":13515,"TK_EXAM":13516,"widespread":13517,"(\"":13518,"6th":13519,"BT":13520,"Cot":13521,"Cedar":13522,"Dual":13523,"Dave":13524,"DIS":13525,"Dana":13526,"Gem":13527,"IE":13528,"Jet":13529,"KG":13530,"Lif":13531,"Mum":13532,"Nash":13533,"OB":13534,"RAM":13535,"Sleep":13536,"WS":13537,"bind":13538,"baked":13539,"cakes":13540,"jaw":13541,"march":13542,"pinterest":13543,"rhe":13544,"sends":13545,"tts":13546,"wage":13547,"wires":13548,"yen":13549,"по":13550,"infin":13551,"encry":13552,"andin":13553,"itations":13554,"entities":13555,"acer":13556,"youts":13557,"chin":13558,"chrome":13559,"lyrics":13560,"imposed":13561,"wholesale":13562,"comfy":13563,"loos":13564,"ultras":13565,"resil":13566,"soccer":13567,"ighth":13568,"persu":13569,"poke":13570,"Instruct":13571,"oking":13572,"liest":13573,"getic":13574,"fool":13575,"blink":13576,"manship":13577,"dragon":13578,"Champ":13579,"phan":13580,"corruption":13581,"curve":13582,"backing":13583,"finances":13584,"mineral":13585,"betting":13586,"cara":13587,"meditation":13588,"flats":13589,"lando":13590,"Unless":13591,"belts":13592,"Progress":13593,"nerve":13594,"arring":13595,"arrass":13596,"Deb":13597,"Expert":13598,"Beij":13599,"realised":13600,"gypsum":13601,"Brid":13602,"128":13603,"costume":13604,"classical":13605,"equation":13606,"locals":13607,"graphs":13608,"Respon":13609,"Orlando":13610,"ERE":13611,"statut":13612,"tenants":13613,"marble":13614,"401":13615,"Carib":13616,"environmentally":13617,"lateral":13618,"mington":13619,"warned":13620,"honored":13621,"Suz":13622,"branded":13623,"assisting":13624,"protects":13625,"integrating":13626,"textures":13627,"Polit":13628,"corporations":13629,"celebrity":13630,"priorities":13631,"........":13632,"1984":13633,"silence":13634,"Transformation":13635,"informative":13636,"distribute":13637,"stressed":13638,"thankful":13639,"crowded":13640,"hoped":13641,"volunteering":13642,"Charlotte":13643,"villa":13644,"villages":13645,"Woodstock":13646,"Oslo":13647,"Oscar":13648,"Democrat":13649,"ethics":13650,"PLE":13651,"troubles":13652,"lapse":13653,"Bali":13654,"nomine":13655,"illustrated":13656,"ingredient":13657,"Volume":13658,"Deput":13659,"Browse":13660,"NOW":13661,"tricks":13662,"Vancouver":13663,"dominant":13664,"varying":13665,"polyester":13666,"motivation":13667,"Reviews":13668,"BBQ":13669,"dramatically":13670,"Options":13671,"fulfilling":13672,"Hawai":13673,"behaviour":13674,"HERE":13675,"quilts":13676,"receptor":13677,"Jamaat":13678,"shampoo":13679,"Café":13680,"Future":13681,"Buffalo":13682,"conspiracy":13683,"Beyond":13684,"undoubtedly":13685,"Beijing":13686,",’":13687,"2D":13688,"576":13689,"ARE":13690,"Born":13691,"Dem":13692,"Eind":13693,"Evan":13694,"IK":13695,"Jump":13696,"Jules":13697,"Java":13698,"MG":13699,"NU":13700,"Nation":13701,"NBA":13702,"OEM":13703,"Rout":13704,"Tony":13705,"Treas":13706,"UD":13707,"Wars":13708,"Woman":13709,"bil":13710,"fid":13711,"fountain":13712,"hung":13713,"iating":13714,"lis":13715,"lending":13716,"mans":13717,"oke":13718,"pond":13719,"rab":13720,"tam":13721,"wings":13722,"wives":13723,"zones":13724,"threshold":13725,"revel":13726,"escal":13727,"andal":13728,"icide":13729,"leap":13730,"chor":13731,"chim":13732,"chrom":13733,"beverage":13734,"adjacent":13735,"imaging":13736,"igue":13737,"abdom":13738,"uting":13739,"urers":13740,"propr":13741,"commod":13742,"cone":13743,"ifted":13744,"ouri":13745,"este":13746,"framing":13747,"quer":13748,"quet":13749,"odiversity":13750,"notify":13751,"clouds":13752,"doc":13753,"oked":13754,"timeless":13755,"achuse":13756,"boil":13757,"comparing":13758,"compiled":13759,"creator":13760,"serial":13761,"fox":13762,"braska":13763,"overlooking":13764,"presso":13765,"firing":13766,"thrilled":13767,"minis":13768,"iously":13769,"marking":13770,"funeral":13771,"homepage":13772,"memorial":13773,"herein":13774,"Proto":13775,"Nebraska":13776,"Alice":13777,"handmade":13778,"Fran":13779,"salmon":13780,"deciding":13781,"Beck":13782,"planes":13783,"Whenever":13784,"passage":13785,"Plans":13786,"Brom":13787,"patri":13788,"giveaway":13789,"MySQL":13790,"metic":13791,"applicant":13792,"cycles":13793,"caster":13794,"activate":13795,"complement":13796,"practically":13797,"Resident":13798,"keyword":13799,"Count":13800,"Apparent":13801,"pedal":13802,"holistic":13803,"packs":13804,"installations":13805,"hyp":13806,"AST":13807,"iku":13808,"necessity":13809,"pengu":13810,"traveled":13811,"Spa":13812,"welding":13813,"globally":13814,"participated":13815,"excuse":13816,"satur":13817,"Regular":13818,"sweat":13819,"banner":13820,"Associates":13821,"qualification":13822,"qualifications":13823,"contributing":13824,"animation":13825,"announces":13826,"OME":13827,"responds":13828,"divide":13829,"divine":13830,"decoration":13831,"achievements":13832,"assessments":13833,"resolutions":13834,"crossing":13835,"Patio":13836,"eaten":13837,"influential":13838,"describing":13839,"indication":13840,"Harvard":13841,"Workshop":13842,"Rede":13843,"literary":13844,"declare":13845,"backgrounds":13846,"darkness":13847,"Vermont":13848,"Emma":13849,"Payment":13850,"UAFAuthnr":13851,"reveals":13852,"exhibit":13853,"________":13854,"durability":13855,"railroad":13856,"attachment":13857,"Listen":13858,"Horizon":13859,"aiser":13860,"gateway":13861,"Evans":13862,"ALLY":13863,"complications":13864,"wicket":13865,"Massachuse":13866,"Therapy":13867,"criticism":13868,"Traditional":13869,"frustrating":13870,"Wayne":13871,"cocktail":13872,"comedy":13873,"deployment":13874,"Homes":13875,"stirring":13876,"advertisements":13877,"Elementary":13878,"Cabinet":13879,"aesthetic":13880,"deserves":13881,"alerts":13882,"Meeting":13883,"Crystal":13884,"deductible":13885,"destruction":13886,"evaluating":13887,"practitioners":13888,"annoying":13889,"cannabis":13890,"phenomenon":13891,"Bryan":13892,"Lauren":13893,"tremendous":13894,"Vehicle":13895,"sacrifice":13896,"prestigious":13897,"fossil":13898,"Lebanon":13899,"controversial":13900,"inflammation":13901,"proximity":13902,"preliminary":13903,"Massachusetts":13904,".;":13905,".’":13906,"380":13907,"AZ":13908,"Athen":13909,"Bend":13910,"Battle":13911,"Cad":13912,"Cold":13913,"Cultural":13914,"Cisco":13915,"Drop":13916,"EPD":13917,"Fill":13918,"Fif":13919,"File":13920,"Fury":13921,"Hart":13922,"Hear":13923,"Ideal":13924,"Nar":13925,"Nich":13926,"Pis":13927,"Pil":13928,"Pare":13929,"Pun":13930,"RI":13931,"RV":13932,"Row":13933,"Sic":13934,"Sex":13935,"Steam":13936,"TB":13937,"Tip":13938,"Wheat":13939,"bis":13940,"bie":13941,"bane":13942,"dip":13943,"iencies":13944,"kh":13945,"lid":13946,"lig":13947,"lung":13948,"melt":13949,"pines":13950,"ridge":13951,"ruling":13952,"ranges":13953,"tion":13954,"tong":13955,"tanks":13956,"tires":13957,"tasting":13958,"upl":13959,"vivid":13960,"wn":13961,"zhou":13962,"за":13963,"нов":13964,"inence":13965,"inno":13966,"incoming":13967,"react":13968,"rebound":13969,"espresso":13970,"alay":13971,"iche":13972,"icons":13973,"sten":13974,"rogen":13975,"chlor":13976,"vegan":13977,"cted":13978,"unting":13979,"unwanted":13980,"conce":13981,"logged":13982,"negl":13983,"mothers":13984,"defeat":13985,"fron":13986,"soever":13987,"ivor":13988,"pockets":13989,"cla":13990,"umen":13991,"Incre":13992,"Inside":13993,"google":13994,"inef":13995,"lia":13996,"afood":13997,"izers":13998,"spam":13999,"spite":14000,"spicy":14001,"spends":14002,"Items":14003,"preh":14004,"disc":14005,"brace":14006,"blues":14007,"Whilst":14008,"needle":14009,"prescription":14010,"offense":14011,"collar":14012,"desert":14013,"additions":14014,"inclusive":14015,"1930":14016,"moncler":14017,"carto":14018,"carved":14019,"inviting":14020,"invites":14021,"Traffic":14022,"homeowner":14023,"holy":14024,"simplicity":14025,"considers":14026,"cedes":14027,"retention":14028,"Sean":14029,"arriving":14030,"shipment":14031,"runner":14032,"Adult":14033,"Gov":14034,"promo":14035,"balcon":14036,"Words":14037,"porch":14038,"keyboard":14039,"malaria":14040,"installment":14041,"24th":14042,"stepped":14043,"13th":14044,"marvel":14045,"breakdown":14046,"ometime":14047,"combining":14048,"inoa":14049,"Mechan":14050,"THAT":14051,"accountable":14052,"distress":14053,"parency":14054,"Parts":14055,"ARD":14056,"mingham":14057,"defence":14058,"safer":14059,"Parker":14060,"circular":14061,"fixing":14062,"committees":14063,"liner":14064,"storms":14065,"attracted":14066,"Saturn":14067,"culinary":14068,"decorations":14069,"surprises":14070,"stressful":14071,"aptor":14072,"Sample":14073,"institute":14074,"Davis":14075,"loveseat":14076,"sticky":14077,"sticking":14078,"ECT":14079,"iaries":14080,"controlling":14081,"Metal":14082,"threatened":14083,"Skin":14084,"Morris":14085,"Campus":14086,"Specialist":14087,"Budget":14088,"Academic":14089,"rankings":14090,"blessing":14091,"Enterprise":14092,"Birmingham":14093,"gardening":14094,"Safari":14095,"gratitude":14096,"tattoos":14097,"inquiries":14098,"symbols":14099,"tastes":14100,"labeled":14101,"Trading":14102,"assuming":14103,"molecules":14104,"preserved":14105,"crops":14106,"harmful":14107,"mounting":14108,"Commons":14109,"Domin":14110,"infections":14111,"assembled":14112,"vessel":14113,"incentive":14114,"Derby":14115,"scholarship":14116,"amendment":14117,"atomy":14118,"accused":14119,"Brooklyn":14120,"chapters":14121,"Nobody":14122,"prevents":14123,"refrigerator":14124,"defects":14125,"Imagine":14126,"Veterans":14127,"jurisdiction":14128,"rhythm":14129,"Pitts":14130,"Tickets":14131,"Afghanistan":14132,"Yukon":14133,"desirable":14134,"Virtual":14135,"Deputy":14136,"Pareto":14137,".'":14138,"720":14139,"AV":14140,"Avoid":14141,"Blasting":14142,"Bhubaneswar":14143,"CK":14144,"CM":14145,"Cog":14146,"Close":14147,"Fel":14148,"Gam":14149,"Hence":14150,"Jam":14151,"Kes":14152,"Kos":14153,"Late":14154,"Lower":14155,"Lots":14156,"Lakes":14157,"Laser":14158,"Ran":14159,"Rah":14160,"Sens":14161,"Tol":14162,"VIP":14163,"WV":14164,"WAN":14165,"Wik":14166,"Yang":14167,"Yoz":14168,"aqu":14169,"bake":14170,"din":14171,"dun":14172,"dign":14173,"ditch":14174,"dirty":14175,"gang":14176,"iy":14177,"kan":14178,"mare":14179,"nier":14180,"rag":14181,"races":14182,"sided":14183,"uto":14184,"inqu":14185,"onia":14186,"theat":14187,"theft":14188,"encompass":14189,"ornament":14190,"esity":14191,"army":14192,"itiner":14193,"leaks":14194,"starter":14195,"chol":14196,"champ":14197,"beams":14198,"het":14199,"idi":14200,"olas":14201,"imen":14202,"abnormal":14203,"aga":14204,"cones":14205,"confront":14206,"trace":14207,"peg":14208,"soda":14209,"shame":14210,"shield":14211,"poena":14212,"clust":14213,"india":14214,"grilled":14215,"grains":14216,"ipedia":14217,"gospel":14218,"spine":14219,"eves":14220,"contamin":14221,"nobody":14222,"disadvant":14223,"dispens":14224,"bler":14225,"overseas":14226,"Stamp":14227,"preschool":14228,"prescribed":14229,"descriptions":14230,"thrive":14231,"appy":14232,"tainment":14233,"surveys":14234,"Reports":14235,"buses":14236,"ictions":14237,"viewer":14238,"invas":14239,"107":14240,"Conver":14241,"Trib":14242,"conditional":14243,"wraps":14244,"substitute":14245,"careers":14246,"Alab":14247,"instances":14248,"sketch":14249,"charities":14250,"Dee":14251,"Deanna":14252,"searches":14253,"salon":14254,"ankle":14255,"headquarters":14256,"pointing":14257,"Exclusive":14258,"happier":14259,"Plum":14260,"Moon":14261,"Mode":14262,"asket":14263,"viruses":14264,"specialize":14265,"limitation":14266,"accessing":14267,"publications":14268,"considerations":14269,"Driving":14270,"scam":14271,"astery":14272,"trauma":14273,"reviewing":14274,"packaged":14275,"240":14276,"Marg":14277,"Mario":14278,"connects":14279,"domains":14280,"iker":14281,"Foster":14282,"pickled":14283,"Craf":14284,"Perry":14285,"defendant":14286,"walkway":14287,"taxation":14288,"wondered":14289,"Justin":14290,"Contemporary":14291,"radar":14292,"suggesting":14293,"suggestion":14294,"Simon":14295,"harass":14296,"Finland":14297,"sunlight":14298,"associations":14299,"mascara":14300,"browsing":14301,"hammer":14302,"automotive":14303,"Amanda":14304,"priorit":14305,"modest":14306,"OUT":14307,"reservations":14308,"explaining":14309,"Directors":14310,"capturing":14311,"blocked":14312,"Weddell":14313,"progressive":14314,"farming":14315,"analytical":14316,"Communication":14317,"Programs":14318,"crowds":14319,"lacking":14320,"guarantees":14321,"indicators":14322,"Hotels":14323,"Walk":14324,"switches":14325,"districts":14326,"Luc":14327,"measurements":14328,"Years":14329,"girlfriend":14330,"Starting":14331,"1961":14332,"Morning":14333,"Anniversary":14334,"embarrass":14335,"gallon":14336,"galleries":14337,"Veget":14338,"evolved":14339,"Photoshop":14340,"ineteen":14341,"arrows":14342,"Missouri":14343,"Ruth":14344,"Military":14345,"Mountains":14346,"Leader":14347,"litigation":14348,"OPO":14349,"Alexander":14350,"announcements":14351,"ticketing":14352,"belongs":14353,"belonging":14354,"Computing":14355,"minority":14356,"Waste":14357,"Arabic":14358,"Arabia":14359,"Duke":14360,"Ultra":14361,"Pictures":14362,"scanning":14363,"Honor":14364,"enrolled":14365,"threads":14366,"onomic":14367,"Published":14368,"Bachelard":14369,"coding":14370,"Katie":14371,"Equipment":14372,"Factory":14373,"Kansai":14374,"Lynn":14375,"Dynam":14376,"invoice":14377,"Gulf":14378,"Riverside":14379,"hobby":14380,"introduct":14381,"elaborate":14382,"abulary":14383,"staple":14384,"Respondent":14385,"habilitation":14386,"andinav":14387,"Response":14388,"statutory":14389,"Hawaii":14390,"Bromme":14391,"EPDM":14392,"Yozak":14393,"disadvantaged":14394,"345":14395,"450":14396,"5000":14397,"618":14398,"750":14399,"Aide":14400,"Bam":14401,"Bike":14402,"Cart":14403,"Cream":14404,"Categ":14405,"Dor":14406,"Ful":14407,"GIR":14408,"Hend":14409,"Hamp":14410,"Hub":14411,"HIV":14412,"Kol":14413,"Led":14414,"Lunch":14415,"NL":14416,"Nico":14417,"Pill":14418,"Pul":14419,"PHP":14420,"Plastic":14421,"Rab":14422,"Risk":14423,"Sel":14424,"TN":14425,"Tu":14426,"Um":14427,"WAS":14428,"[/":14429,"aide":14430,"cort":14431,"dys":14432,"dementia":14433,"hilar":14434,"jan":14435,"jab":14436,"lest":14437,"lips":14438,"oon":14439,"pg":14440,"pins":14441,"sid":14442,"tai":14443,"tiles":14444,"wi":14445,"welfare":14446,"аn":14447,"ес":14448,"но":14449,"injection":14450,"onds":14451,"reactions":14452,"remodeling":14453,"thetics":14454,"engrav":14455,"orative":14456,"altitude":14457,"tosecond":14458,"stabil":14459,"elong":14460,"elier":14461,"roit":14462,"forgiven":14463,"chalk":14464,"hex":14465,"oli":14466,"etal":14467,"immer":14468,"utical":14469,"utilities":14470,"ceil":14471,"unions":14472,"urgent":14473,"lover":14474,"emy":14475,"trunk":14476,"neath":14477,"keeper":14478,"exempl":14479,"pear":14480,"peaks":14481,"socks":14482,"wasting":14483,"notable":14484,"pole":14485,"tear":14486,"umatic":14487,"okes":14488,"duplic":14489,"nos":14490,"brave":14491,"ilee":14492,"corrosion":14493,"cave":14494,"Heaven":14495,"Release":14496,"References":14497,"103":14498,"Former":14499,"athlete":14500,"Provide":14501,"smith":14502,"Neuro":14503,"identifiable":14504,"Alaska":14505,"develops":14506,"transplant":14507,"raises":14508,"valve":14509,"Enh":14510,"Butter":14511,"stolen":14512,"Fruit":14513,"glance":14514,"Tool":14515,"rentals":14516,"filtr":14517,"breathe":14518,"Branch":14519,"Gray":14520,"Ground":14521,"Going":14522,"mighty":14523,"lawful":14524,"scop":14525,"atories":14526,"bedding":14527,"volumes":14528,"researcher":14529,"potato":14530,"borne":14531,"facebook":14532,"traded":14533,"packet":14534,"16th":14535,"Built":14536,"Acres":14537,"Stewart":14538,"alegal":14539,"variation":14540,"variable":14541,"voy":14542,"slides":14543,"Notice":14544,"Discussion":14545,"journeys":14546,"ICT":14547,"recordings":14548,"recommends":14549,"fixture":14550,"oils":14551,"Polish":14552,"corporation":14553,"remembered":14554,"telecom":14555,"occurring":14556,"crossed":14557,"captures":14558,"formerly":14559,"regulate":14560,"miracle":14561,"synthesis":14562,"iffs":14563,"adesh":14564,"supplying":14565,"Supervis":14566,"Earlier":14567,"noticeable":14568,"BigQuery":14569,"consumed":14570,"riders":14571,"vegetarian":14572,"collaborative":14573,"Termin":14574,"exhibits":14575,"ABA":14576,"bait":14577,"scheduling":14578,"faithful":14579,"strengths":14580,"Campaign":14581,"calculate":14582,"reputable":14583,"convince":14584,"contrary":14585,"certificates":14586,"brushing":14587,"shake":14588,"decreased":14589,"Denmark":14590,"sharpen":14591,"Southeast":14592,"Coastal":14593,"consequence":14594,"belongings":14595,"pursuing":14596,"Jimmy":14597,"wealthy":14598,"CRM":14599,"Antonio":14600,"Victorian":14601,"Employer":14602,"Employees":14603,"Logic":14604,"frustrated":14605,"triggered":14606,"phrases":14607,"Julia":14608,"overwhelmed":14609,"diligence":14610,"Broadway":14611,"prosper":14612,"deficit":14613,"delegates":14614,"restriction":14615,"iblings":14616,"Persian":14617,"Certain":14618,"shifting":14619,"uncertainty":14620,"Framework":14621,"Establ":14622,"Prepare":14623,"Joyce":14624,"bundle":14625,"secrets":14626,"mysterious":14627,"neighbourhood":14628,"horses":14629,"Chemical":14630,"Caribbean":14631,"propriet":14632,"()":14633,"/.":14634,"260":14635,"Bever":14636,"BAS":14637,"CET":14638,"Cakes":14639,"C2010":14640,"Culture":14641,"Da":14642,"Diam":14643,"Elegant":14644,"Gains":14645,"Hat":14646,"Jacqu":14647,"KK":14648,"KS":14649,"Ker":14650,"Kil":14651,"Knight":14652,"Lie":14653,"Mul":14654,"Maz":14655,"MLS":14656,"Near":14657,"Nike":14658,"Preferences":14659,"Swe":14660,"Sco":14661,"Schem":14662,"Ti":14663,"Used":14664,"VP":14665,"VAT":14666,"Vari":14667,"XR":14668,"cros":14669,"dread":14670,"dles":14671,"damp":14672,"drew":14673,"ffin":14674,"fats":14675,"gency":14676,"hay":14677,"hort":14678,"hats":14679,"iations":14680,"mall":14681,"mally":14682,"nineteen":14683,"pestic":14684,"pixels":14685,"rage":14686,"ramp":14687,"swell":14688,"slower":14689,"saves":14690,"tg":14691,"tissues":14692,"vens":14693,"wavel":14694,"ми":14695,"ор":14696,"іn":14697,"ال":14698,"”).":14699,"incorrect":14700,"inhabit":14701,"anor":14702,"anmar":14703,"reap":14704,"recovered":14705,"reporters":14706,"recycling":14707,"orches":14708,"escap":14709,"alien":14710,"isl":14711,"editions":14712,"aris":14713,"argue":14714,"stals":14715,"stub":14716,"stupid":14717,"enton":14718,"seg":14719,"beating":14720,"adverse":14721,"aditen":14722,"amended":14723,"ambit":14724,"olin":14725,"verages":14726,"suck":14727,"irl":14728,"urge":14729,"composer":14730,"console":14731,"congreg":14732,"trance":14733,"ifting":14734,"opo":14735,"dece":14736,"outlined":14737,"peel":14738,"peoples":14739,"aine":14740,"poet":14741,"teas":14742,"anybody":14743,"Inv":14744,"ipher":14745,"timore":14746,"workflow":14747,"creep":14748,"sery":14749,"Weather":14750,"berger":14751,"yearly":14752,"disrupt":14753,"interventions":14754,"provincial":14755,"Cheryl":14756,"php":14757,"correlation":14758,"custody":14759,"1900":14760,"monuments":14761,"flor":14762,"topped":14763,"surfing":14764,"osis":14765,"stems":14766,"landed":14767,"105":14768,"hoven":14769,"longest":14770,"easiest":14771,"Argent":14772,"capsu":14773,"purple":14774,"anked":14775,"30pm":14776,"technically":14777,"generates":14778,"Coal":14779,"founding":14780,"breach":14781,"Bruce":14782,"AllAcres":14783,"depot":14784,"Gram":14785,"Grace":14786,"metallic":14787,"Issu":14788,"1500":14789,"INT":14790,"keywords":14791,"devil":14792,"learners":14793,"bitcoin":14794,"cule":14795,"lingu":14796,"quicker":14797,"Steven":14798,"definite":14799,"Carthy":14800,"Flick":14801,"Sym":14802,"sliced":14803,"Guarant":14804,"thoughtful":14805,"digging":14806,"physics":14807,"initiate":14808,"humanity":14809,"doubles":14810,"sensation":14811,"bikes":14812,"agrees":14813,"McCarthy":14814,"dresses":14815,"hormone":14816,"Implement":14817,"characterized":14818,"remover":14819,"Actually":14820,"Edge":14821,"centered":14822,"Grey":14823,"promotes":14824,"Strateg":14825,"motherboard":14826,"deaths":14827,"synthetic":14828,"indicating":14829,"indicator":14830,"Berry":14831,"Related":14832,"grandfather":14833,"cinem":14834,"Scholar":14835,"Write":14836,"OLL":14837,"Brothers":14838,"Finding":14839,"Jerseys":14840,"Terry":14841,"willingness":14842,"nomination":14843,"psychology":14844,"politan":14845,"IGHT":14846,"ROI":14847,"Empire":14848,"satisfying":14849,"halls":14850,"Labour":14851,"eliminating":14852,"melan":14853,"NOTE":14854,
[...]
