{
  "version": "1.0",
  "truncation": null,
  "padding": null,
  "added_tokens": [
    {
      "id": 0,
      "content": "<UNK>",
      "single_word": false,
      "lstrip": false,
      "rstrip": false,
      "normalized": false,
      "special": true
    },
    {
      "id": 1,
      "content": "<PAD>",
      "single_word": false,
      "lstrip": false,
      "rstrip": false,
      "normalized": false,
      "special": true
    },
    {
      "id": 2,
      "content": "<s>",
      "single_word": false,
      "lstrip": false,
      "rstrip": false,
      "normalized": false,
      "special": true
    },
    {
      "id": 3,
      "content": "<s/>",
      "single_word": false,
      "lstrip": false,
      "rstrip": false,
      "normalized": false,
      "special": true
    }
  ],
  "normalizer": null,
  "pre_tokenizer": {
    "type": "Whitespace"
  },
  "post_processor": null,
  "decoder": null,
  "model": {
    "type": "BPE",
    "dropout": null,
    "unk_token": "<UNK>",
    "continuing_subword_prefix": null,
    "end_of_word_suffix": null,
    "fuse_unk": false,
    "byte_fallback": false,
    "ignore_merges": false,
    "vocab": {
      "<UNK>": 0,
      "<PAD>": 1,
      "<s>": 2,
      "<s/>": 3,
      "\u0003": 4,
      "\b": 5,
      "\u0019": 6,
      "!": 7,
      "\"": 8,
      "#": 9,
      "$": 10,
      "%": 11,
      "&": 12,
      "'": 13,
      "(": 14,
      ")": 15,
      "*": 16,
      "+": 17,
      ",": 18,
      "-": 19,
      ".": 20,
      "/": 21,
      "0": 22,
      "1": 23,
      "2": 24,
      "3": 25,
      "4": 26,
      "5": 27,
      "6": 28,
      "7": 29,
      "8": 30,
      "9": 31,
      ":": 32,
      ";": 33,
      "<": 34,
      "=": 35,
      ">": 36,
      "?": 37,
      "@": 38,
      "A": 39,
      "B": 40,
      "C": 41,
      "D": 42,
      "E": 43,
      "F": 44,
      "G": 45,
      "H": 46,
      "I": 47,
      "J": 48,
      "K": 49,
      "L": 50,
      "M": 51,
      "N": 52,
      "O": 53,
      "P": 54,
      "Q": 55,
      "R": 56,
      "S": 57,
      "T": 58,
      "U": 59,
      "V": 60,
      "W": 61,
      "X": 62,
      "Y": 63,
      "Z": 64,
      "[": 65,
      "\\": 66,
      "]": 67,
      "^": 68,
      "_": 69,
      "`": 70,
      "a": 71,
      "b": 72,
      "c": 73,
      "d": 74,
      "e": 75,
      "f": 76,
      "g": 77,
      "h": 78,
      "i": 79,
      "j": 80,
      "k": 81,
      "l": 82,
      "m": 83,
      "n": 84,
      "o": 85,
      "p": 86,
      "q": 87,
      "r": 88,
      "s": 89,
      "t": 90,
      "u": 91,
      "v": 92,
      "w": 93,
      "x": 94,
      "y": 95,
      "z": 96,
      "|": 97,
      "}": 98,
      "~": 99,
      "": 100,
      "": 101,
      "": 102,
      "": 103,
      "": 104,
      "": 105,
      "": 106,
      "": 107,
      "": 108,
      "": 109,
      "": 110,
      "": 111,
      "¡": 112,
      "¢": 113,
      "£": 114,
      "¥": 115,
      "§": 116,
      "©": 117,
      "«": 118,
      "¬": 119,
      "­": 120,
      "®": 121,
      "°": 122,
      "±": 123,
      "·": 124,
      "»": 125,
      "¿": 126,
      "À": 127,
      "Á": 128,
      "Â": 129,
      "Ã": 130,
      "Ä": 131,
      "Å": 132,
      "Ç": 133,
      "È": 134,
      "É": 135,
      "Í": 136,
      "Î": 137,
      "Ñ": 138,
      "Ó": 139,
      "Ö": 140,
      "×": 141,
      "Ø": 142,
      "Ú": 143,
      "Ü": 144,
      "ß": 145,
      "à": 146,
      "á": 147,
      "â": 148,
      "ã": 149,
      "ä": 150,
      "å": 151,
      "æ": 152,
      "ç": 153,
      "è": 154,
      "é": 155,
      "ê": 156,
      "ë": 157,
      "í": 158,
      "î": 159,
      "ï": 160,
      "ñ": 161,
      "ò": 162,
      "ó": 163,
      "ô": 164,
      "õ": 165,
      "ö": 166,
      "ø": 167,
      "ù": 168,
      "ú": 169,
      "û": 170,
      "ü": 171,
      "ý": 172,
      "Ā": 173,
      "ā": 174,
      "ă": 175,
      "ą": 176,
      "ć": 177,
      "ċ": 178,
      "Č": 179,
      "č": 180,
      "ď": 181,
      "Đ": 182,
      "đ": 183,
      "ē": 184,
      "ĕ": 185,
      "ė": 186,
      "ę": 187,
      "ě": 188,
      "ğ": 189,
      "ĩ": 190,
      "Ī": 191,
      "ī": 192,
      "İ": 193,
      "ı": 194,
      "ł": 195,
      "ō": 196,
      "ő": 197,
      "œ": 198,
      "ř": 199,
      "ś": 200,
      "Ş": 201,
      "ş": 202,
      "Š": 203,
      "š": 204,
      "ū": 205,
      "ů": 206,
      "ų": 207,
      "ź": 208,
      "ż": 209,
      "Ž": 210,
      "ž": 211,
      "ƒ": 212,
      "ư": 213,
      "ȏ": 214,
      "ə": 215,
      "ʁ": 216,
      "ʏ": 217,
      "ʹ": 218,
      "ʺ": 219,
      "ʼ": 220,
      "ʿ": 221,
      "ˈ": 222,
      "ː": 223,
      "́": 224,
      "̃": 225,
      "̈": 226,
      "̋": 227,
      "̶": 228,
      "͞": 229,
      "Έ": 230,
      "Α": 231,
      "Δ": 232,
      "Ε": 233,
      "Η": 234,
      "Ι": 235,
      "Κ": 236,
      "Λ": 237,
      "Μ": 238,
      "Ν": 239,
      "Ο": 240,
      "Ρ": 241,
      "Σ": 242,
      "Φ": 243,
      "Ω": 244,
      "ά": 245,
      "έ": 246,
      "ή": 247,
      "ί": 248,
      "α": 249,
      "β": 250,
      "γ": 251,
      "δ": 252,
      "ε": 253,
      "ζ": 254,
      "η": 255,
      "θ": 256,
      "ι": 257,
      "κ": 258,
      "λ": 259,
      "μ": 260,
      "ν": 261,
      "ο": 262,
      "π": 263,
      "ρ": 264,
      "ς": 265,
      "σ": 266,
      "τ": 267,
      "υ": 268,
      "φ": 269,
      "χ": 270,
      "ω": 271,
      "ό": 272,
      "ύ": 273,
      "ώ": 274,
      "Ђ": 275,
      "А": 276,
      "Б": 277,
      "В": 278,
      "Г": 279,
      "Д": 280,
      "Е": 281,
      "Ж": 282,
      "З": 283,
      "И": 284,
      "К": 285,
      "Л": 286,
      "М": 287,
      "Н": 288,
      "О": 289,
      "П": 290,
      "Р": 291,
      "С": 292,
      "Т": 293,
      "У": 294,
      "Ф": 295,
      "Х": 296,
      "Ч": 297,
      "Э": 298,
      "Ю": 299,
      "Я": 300,
      "а": 301,
      "б": 302,
      "в": 303,
      "г": 304,
      "д": 305,
      "е": 306,
      "ж": 307,
      "з": 308,
      "и": 309,
      "й": 310,
      "к": 311,
      "л": 312,
      "м": 313,
      "н": 314,
      "о": 315,
      "п": 316,
      "р": 317,
      "с": 318,
      "т": 319,
      "у": 320,
      "ф": 321,
      "х": 322,
      "ц": 323,
      "ч": 324,
      "ш": 325,
      "щ": 326,
      "ъ": 327,
      "ы": 328,
      "ь": 329,
      "э": 330,
      "ю": 331,
      "я": 332,
      "ё": 333,
      "ѕ": 334,
      "і": 335,
      "ԛ": 336,
      "ַ": 337,
      "ָ": 338,
      "ג": 339,
      "ע": 340,
      "ר": 341,
      "،": 342,
      "ء": 343,
      "أ": 344,
      "إ": 345,
      "ا": 346,
      "ب": 347,
      "ة": 348,
      "ت": 349,
      "ج": 350,
      "ح": 351,
      "خ": 352,
      "د": 353,
      "ذ": 354,
      "ر": 355,
      "ز": 356,
      "س": 357,
      "ش": 358,
      "ص": 359,
      "ض": 360,
      "ظ": 361,
      "ع": 362,
      "غ": 363,
      "ف": 364,
      "ق": 365,
      "ك": 366,
      "ل": 367,
      "م": 368,
      "ن": 369,
      "ه": 370,
      "و": 371,
      "ى": 372,
      "ي": 373,
      "ً": 374,
      "ک": 375,
      "گ": 376,
      "ی": 377,
      "۪": 378,
      "ܐ": 379,
      "ܘ": 380,
      "ܛ": 381,
      "ܝ": 382,
      "ܢ": 383,
      "ܣ": 384,
      "ं": 385,
      "अ": 386,
      "आ": 387,
      "इ": 388,
      "उ": 389,
      "ए": 390,
      "औ": 391,
      "क": 392,
      "ग": 393,
      "च": 394,
      "छ": 395,
      "ज": 396,
      "ट": 397,
      "ढ": 398,
      "ण": 399,
      "त": 400,
      "थ": 401,
      "द": 402,
      "ध": 403,
      "न": 404,
      "प": 405,
      "ब": 406,
      "भ": 407,
      "म": 408,
      "य": 409,
      "र": 410,
      "ल": 411,
      "व": 412,
      "श": 413,
      "ष": 414,
      "स": 415,
      "ह": 416,
      "़": 417,
      "ा": 418,
      "ि": 419,
      "ी": 420,
      "ु": 421,
      "ू": 422,
      "े": 423,
      "ै": 424,
      "ो": 425,
      "ौ": 426,
      "्": 427,
      "।": 428,
      "ത": 429,
      "ര": 430,
      "ശ": 431,
      "ൂ": 432,
      "ൃ": 433,
      "്": 434,
      "ก": 435,
      "ข": 436,
      "ค": 437,
      "ง": 438,
      "ด": 439,
      "ต": 440,
      "น": 441,
      "บ": 442,
      "ป": 443,
      "พ": 444,
      "ม": 445,
      "ย": 446,
      "ร": 447,
      "ล": 448,
      "ว": 449,
      "ส": 450,
      "อ": 451,
      "ั": 452,
      "า": 453,
      "ิ": 454,
      "ี": 455,
      "ู": 456,
      "฿": 457,
      "เ": 458,
      "ใ": 459,
      "ไ": 460,
      "่": 461,
      "้": 462,
      "Ḥ": 463,
      "ḥ": 464,
      "ṣ": 465,
      "Ṭ": 466,
      "ṭ": 467,
      "ạ": 468,
      "ế": 469,
      "ệ": 470,
      "ọ": 471,
      "ố": 472,
      "ộ": 473,
      "ờ": 474,
      "​": 475,
      "‌": 476,
      "‍": 477,
      "‎": 478,
      "‐": 479,
      "–": 480,
      "—": 481,
      "―": 482,
      "‘": 483,
      "’": 484,
      "“": 485,
      "”": 486,
      "„": 487,
      "†": 488,
      "•": 489,
      "‰": 490,
      "′": 491,
      "›": 492,
      "※": 493,
      "⁄": 494,
      "⁕": 495,
      "₤": 496,
      "€": 497,
      "₹": 498,
      "℗": 499,
      "←": 500,
      "↑": 501,
      "→": 502,
      "⇨": 503,
      "∂": 504,
      "∑": 505,
      "−": 506,
      "∼": 507,
      "≈": 508,
      "≠": 509,
      "≡": 510,
      "≥": 511,
      "≫": 512,
      "⋯": 513,
      "⌖": 514,
      "□": 515,
      "►": 516,
      "◆": 517,
      "○": 518,
      "●": 519,
      "◼": 520,
      "♥": 521,
      "♫": 522,
      "✅": 523,
      "✈": 524,
      "✓": 525,
      "✔": 526,
      "❤": 527,
      "➡": 528,
      "、": 529,
      "。": 530,
      "「": 531,
      "」": 532,
      "【": 533,
      "】": 534,
      "い": 535,
      "う": 536,
      "か": 537,
      "が": 538,
      "き": 539,
      "く": 540,
      "し": 541,
      "た": 542,
      "だ": 543,
      "っ": 544,
      "て": 545,
      "で": 546,
      "と": 547,
      "ど": 548,
      "に": 549,
      "の": 550,
      "は": 551,
      "ふ": 552,
      "ぶ": 553,
      "ま": 554,
      "み": 555,
      "や": 556,
      "よ": 557,
      "ら": 558,
      "り": 559,
      "る": 560,
      "れ": 561,
      "を": 562,
      "ん": 563,
      "ア": 564,
      "ィ": 565,
      "イ": 566,
      "ウ": 567,
      "オ": 568,
      "カ": 569,
      "ク": 570,
      "コ": 571,
      "シ": 572,
      "ジ": 573,
      "ス": 574,
      "ズ": 575,
      "セ": 576,
      "ナ": 577,
      "ニ": 578,
      "フ": 579,
      "ブ": 580,
      "ペ": 581,
      "ホ": 582,
      "ボ": 583,
      "ミ": 584,
      "ム": 585,
      "ュ": 586,
      "ラ": 587,
      "リ": 588,
      "ル": 589,
      "ロ": 590,
      "ン": 591,
      "・": 592,
      "ー": 593,
      "一": 594,
      "与": 595,
      "专": 596,
      "世": 597,
      "业": 598,
      "个": 599,
      "中": 600,
      "丷": 601,
      "为": 602,
      "主": 603,
      "乐": 604,
      "乾": 605,
      "予": 606,
      "事": 607,
      "二": 608,
      "于": 609,
      "云": 610,
      "井": 611,
      "交": 612,
      "产": 613,
      "享": 614,
      "京": 615,
      "人": 616,
      "今": 617,
      "他": 618,
      "以": 619,
      "传": 620,
      "位": 621,
      "体": 622,
      "依": 623,
      "修": 624,
      "借": 625,
      "假": 626,
      "儿": 627,
      "元": 628,
      "充": 629,
      "全": 630,
      "八": 631,
      "六": 632,
      "关": 633,
      "兼": 634,
      "内": 635,
      "农": 636,
      "出": 637,
      "分": 638,
      "到": 639,
      "前": 640,
      "功": 641,
      "勇": 642,
      "化": 643,
      "北": 644,
      "华": 645,
      "及": 646,
      "友": 647,
      "双": 648,
      "发": 649,
      "变": 650,
      "古": 651,
      "史": 652,
      "号": 653,
      "司": 654,
      "合": 655,
      "吒": 656,
      "含": 657,
      "和": 658,
      "品": 659,
      "員": 660,
      "哪": 661,
      "商": 662,
      "囉": 663,
      "园": 664,
      "国": 665,
      "图": 666,
      "國": 667,
      "園": 668,
      "在": 669,
      "场": 670,
      "埼": 671,
      "堂": 672,
      "場": 673,
      "夏": 674,
      "外": 675,
      "大": 676,
      "夷": 677,
      "奕": 678,
      "奖": 679,
      "女": 680,
      "好": 681,
      "如": 682,
      "威": 683,
      "婚": 684,
      "嫩": 685,
      "学": 686,
      "宋": 687,
      "家": 688,
      "容": 689,
      "寺": 690,
      "寿": 691,
      "展": 692,
      "工": 693,
      "己": 694,
      "市": 695,
      "希": 696,
      "幅": 697,
      "干": 698,
      "年": 699,
      "幹": 700,
      "度": 701,
      "康": 702,
      "建": 703,
      "开": 704,
      "弁": 705,
      "式": 706,
      "当": 707,
      "役": 708,
      "彼": 709,
      "心": 710,
      "志": 711,
      "思": 712,
      "急": 713,
      "恋": 714,
      "恩": 715,
      "想": 716,
      "我": 717,
      "户": 718,
      "房": 719,
      "所": 720,
      "打": 721,
      "托": 722,
      "据": 723,
      "推": 724,
      "掲": 725,
      "描": 726,
      "故": 727,
      "教": 728,
      "敢": 729,
      "数": 730,
      "文": 731,
      "新": 732,
      "方": 733,
      "旅": 734,
      "日": 735,
      "时": 736,
      "明": 737,
      "易": 738,
      "映": 739,
      "昨": 740,
      "昭": 741,
      "是": 742,
      "時": 743,
      "景": 744,
      "暗": 745,
      "書": 746,
      "曾": 747,
      "最": 748,
      "月": 749,
      "有": 750,
      "望": 751,
      "期": 752,
      "本": 753,
      "机": 754,
      "杨": 755,
      "板": 756,
      "林": 757,
      "查": 758,
      "柯": 759,
      "梅": 760,
      "楷": 761,
      "楽": 762,
      "機": 763,
      "欅": 764,
      "款": 765,
      "步": 766,
      "武": 767,
      "水": 768,
      "沢": 769,
      "法": 770,
      "注": 771,
      "泽": 772,
      "活": 773,
      "涉": 774,
      "清": 775,
      "渡": 776,
      "港": 777,
      "漉": 778,
      "澤": 779,
      "点": 780,
      "爱": 781,
      "物": 782,
      "特": 783,
      "玉": 784,
      "玩": 785,
      "现": 786,
      "球": 787,
      "理": 788,
      "生": 789,
      "用": 790,
      "画": 791,
      "界": 792,
      "留": 793,
      "発": 794,
      "的": 795,
      "盛": 796,
      "着": 797,
      "知": 798,
      "码": 799,
      "示": 800,
      "社": 801,
      "神": 802,
      "离": 803,
      "私": 804,
      "秘": 805,
      "空": 806,
      "立": 807,
      "站": 808,
      "童": 809,
      "第": 810,
      "简": 811,
      "算": 812,
      "籠": 813,
      "米": 814,
      "約": 815,
      "純": 816,
      "紧": 817,
      "絹": 818,
      "綫": 819,
      "線": 820,
      "约": 821,
      "纽": 822,
      "线": 823,
      "细": 824,
      "经": 825,
      "给": 826,
      "编": 827,
      "网": 828,
      "置": 829,
      "群": 830,
      "習": 831,
      "耍": 832,
      "育": 833,
      "能": 834,
      "腐": 835,
      "自": 836,
      "色": 837,
      "节": 838,
      "英": 839,
      "草": 840,
      "荐": 841,
      "薩": 842,
      "行": 843,
      "补": 844,
      "表": 845,
      "補": 846,
      "西": 847,
      "言": 848,
      "計": 849,
      "話": 850,
      "語": 851,
      "讓": 852,
      "议": 853,
      "讯": 854,
      "设": 855,
      "询": 856,
      "语": 857,
      "说": 858,
      "谈": 859,
      "豆": 860,
      "贈": 861,
      "走": 862,
      "跟": 863,
      "路": 864,
      "車": 865,
      "车": 866,
      "辑": 867,
      "进": 868,
      "述": 869,
      "造": 870,
      "進": 871,
      "部": 872,
      "都": 873,
      "配": 874,
      "酒": 875,
      "释": 876,
      "野": 877,
      "金": 878,
      "银": 879,
      "長": 880,
      "长": 881,
      "開": 882,
      "関": 883,
      "關": 884,
      "问": 885,
      "间": 886,
      "阐": 887,
      "际": 888,
      "陆": 889,
      "陸": 890,
      "際": 891,
      "電": 892,
      "非": 893,
      "音": 894,
      "题": 895,
      "駅": 896,
      "體": 897,
      "麗": 898,
      "黃": 899,
      "가": 900,
      "간": 901,
      "개": 902,
      "거": 903,
      "건": 904,
      "것": 905,
      "게": 906,
      "격": 907,
      "결": 908,
      "경": 909,
      "계": 910,
      "고": 911,
      "공": 912,
      "과": 913,
      "교": 914,
      "국": 915,
      "규": 916,
      "그": 917,
      "글": 918,
      "급": 919,
      "기": 920,
      "꾸": 921,
      "나": 922,
      "난": 923,
      "남": 924,
      "낮": 925,
      "내": 926,
      "널": 927,
      "년": 928,
      "노": 929,
      "녹": 930,
      "는": 931,
      "니": 932,
      "다": 933,
      "단": 934,
      "대": 935,
      "데": 936,
      "도": 937,
      "되": 938,
      "두": 939,
      "드": 940,
      "든": 941,
      "들": 942,
      "등": 943,
      "디": 944,
      "라": 945,
      "락": 946,
      "래": 947,
      "랜": 948,
      "럼": 949,
      "레": 950,
      "력": 951,
      "렴": 952,
      "로": 953,
      "론": 954,
      "롤": 955,
      "률": 956,
      "를": 957,
      "리": 958,
      "립": 959,
      "마": 960,
      "막": 961,
      "매": 962,
      "명": 963,
      "모": 964,
      "무": 965,
      "문": 966,
      "물": 967,
      "므": 968,
      "미": 969,
      "믿": 970,
      "및": 971,
      "바": 972,
      "반": 973,
      "발": 974,
      "배": 975,
      "벌": 976,
      "보": 977,
      "본": 978,
      "부": 979,
      "분": 980,
      "브": 981,
      "비": 982,
      "빈": 983,
      "사": 984,
      "상": 985,
      "색": 986,
      "샷": 987,
      "서": 988,
      "설": 989,
      "성": 990,
      "세": 991,
      "센": 992,
      "셔": 993,
      "션": 994,
      "소": 995,
      "속": 996,
      "송": 997,
      "수": 998,
      "순": 999,
      "술": 1000,
      "쉐": 1001,
      "쉽": 1002,
      "스": 1003,
      "습": 1004,
      "시": 1005,
      "신": 1006,
      "심": 1007,
      "아": 1008,
      "앙": 1009,
      "야": 1010,
      "양": 1011,
      "어": 1012,
      "업": 1013,
      "없": 1014,
      "엇": 1015,
      "었": 1016,
      "에": 1017,
      "여": 1018,
      "역": 1019,
      "연": 1020,
      "영": 1021,
      "오": 1022,
      "왔": 1023,
      "외": 1024,
      "요": 1025,
      "용": 1026,
      "우": 1027,
      "운": 1028,
      "워": 1029,
      "원": 1030,
      "월": 1031,
      "위": 1032,
      "유": 1033,
      "육": 1034,
      "으": 1035,
      "은": 1036,
      "을": 1037,
      "의": 1038,
      "이": 1039,
      "인": 1040,
      "일": 1041,
      "임": 1042,
      "입": 1043,
      "있": 1044,
      "자": 1045,
      "작": 1046,
      "장": 1047,
      "재": 1048,
      "저": 1049,
      "적": 1050,
      "전": 1051,
      "점": 1052,
      "정": 1053,
      "제": 1054,
      "조": 1055,
      "좌": 1056,
      "주": 1057,
      "준": 1058,
      "중": 1059,
      "지": 1060,
      "질": 1061,
      "집": 1062,
      "처": 1063,
      "척": 1064,
      "천": 1065,
      "체": 1066,
      "총": 1067,
      "축": 1068,
      "출": 1069,
      "츠": 1070,
      "치": 1071,
      "크": 1072,
      "타": 1073,
      "탁": 1074,
      "터": 1075,
      "테": 1076,
      "톤": 1077,
      "통": 1078,
      "트": 1079,
      "티": 1080,
      "파": 1081,
      "판": 1082,
      "패": 1083,
      "페": 1084,
      "평": 1085,
      "포": 1086,
      "품": 1087,
      "프": 1088,
      "필": 1089,
      "하": 1090,
      "학": 1091,
      "한": 1092,
      "할": 1093,
      "합": 1094,
      "항": 1095,
      "해": 1096,
      "핸": 1097,
      "현": 1098,
      "호": 1099,
      "화": 1100,
      "환": 1101,
      "히": 1102,
      "": 1103,
      "": 1104,
      "": 1105,
      "": 1106,
      "": 1107,
      "": 1108,
      "️": 1109,
      "﻿": 1110,
      "�": 1111,
      "🌱": 1112,
      "🌴": 1113,
      "🍹": 1114,
      "🎂": 1115,
      "🏉": 1116,
      "🏴": 1117,
      "🏷": 1118,
      "🐛": 1119,
      "🐜": 1120,
      "💕": 1121,
      "💥": 1122,
      "😀": 1123,
      "😉": 1124,
      "😍": 1125,
      "🙁": 1126,
      "🙂": 1127,
      "🤤": 1128,
      "󠁢": 1129,
      "󠁣": 1130,
      "󠁧": 1131,
      "󠁬": 1132,
      "󠁳": 1133,
      "󠁴": 1134,
      "󠁷": 1135,
      "󠁿": 1136,
      "th": 1137,
      "in": 1138,
      "an": 1139,
      "er": 1140,
      "on": 1141,
      "re": 1142,
      "the": 1143,
      "at": 1144,
      "en": 1145,
      "ou": 1146,
      "or": 1147,
      "es": 1148,
      "al": 1149,
      "is": 1150,
      "to": 1151,
      "ing": 1152,
      "and": 1153,
      "ed": 1154,
      "ar": 1155,
      "it": 1156,
      "of": 1157,
      "as": 1158,
      "ic": 1159,
      "le": 1160,
      "ion": 1161,
      "st": 1162,
      "om": 1163,
      "il": 1164,
      "ent": 1165,
      "ac": 1166,
      "el": 1167,
      "you": 1168,
      "ro": 1169,
      "for": 1170,
      "se": 1171,
      "ch": 1172,
      "be": 1173,
      "ve": 1174,
      "he": 1175,
      "ad": 1176,
      "ow": 1177,
      "id": 1178,
      "ly": 1179,
      "ay": 1180,
      "am": 1181,
      "ol": 1182,
      "et": 1183,
      "im": 1184,
      "ith": 1185,
      "ig": 1186,
      "ver": 1187,
      "ation": 1188,
      "are": 1189,
      "ct": 1190,
      "wh": 1191,
      "ot": 1192,
      "that": 1193,
      "with": 1194,
      "ab": 1195,
      "su": 1196,
      "ut": 1197,
      "ir": 1198,
      "us": 1199,
      "ce": 1200,
      "un": 1201,
      "ter": 1202,
      "ur": 1203,
      "ag": 1204,
      "pro": 1205,
      "com": 1206,
      "con": 1207,
      "lo": 1208,
      "ers": 1209,
      "all": 1210,
      "ill": 1211,
      "em": 1212,
      "The": 1213,
      "tr": 1214,
      "ne": 1215,
      "ap": 1216,
      "if": 1217,
      "ul": 1218,
      "op": 1219,
      "mo": 1220,
      "our": 1221,
      "we": 1222,
      "res": 1223,
      "ess": 1224,
      "pl": 1225,
      "est": 1226,
      "de": 1227,
      "ke": 1228,
      "fr": 1229,
      "ha": 1230,
      "ere": 1231,
      "ex": 1232,
      "out": 1233,
      "your": 1234,
      "pe": 1235,
      "so": 1236,
      "igh": 1237,
      "ate": 1238,
      "sh": 1239,
      "ain": 1240,
      "qu": 1241,
      "ment": 1242,
      "oun": 1243,
      "art": 1244,
      "ant": 1245,
      "one": 1246,
      "per": 1247,
      "can": 1248,
      "ity": 1249,
      "have": 1250,
      "ld": 1251,
      "iv": 1252,
      "Th": 1253,
      "od": 1254,
      "ive": 1255,
      "was": 1256,
      "ies": 1257,
      "by": 1258,
      "ther": 1259,
      "pr": 1260,
      "from": 1261,
      "wor": 1262,
      "act": 1263,
      "this": 1264,
      "not": 1265,
      "po": 1266,
      "ist": 1267,
      "will": 1268,
      "te": 1269,
      "end": 1270,
      "cl": 1271,
      "um": 1272,
      "ight": 1273,
      "any": 1274,
      "ort": 1275,
      "fe": 1276,
      "ard": 1277,
      "ome": 1278,
      "up": 1279,
      "ind": 1280,
      "ust": 1281,
      "do": 1282,
      "ial": 1283,
      "co": 1284,
      "gr": 1285,
      "In": 1286,
      "ould": 1287,
      "ge": 1288,
      "ell": 1289,
      "ip": 1290,
      "me": 1291,
      "ide": 1292,
      "gh": 1293,
      "able": 1294,
      "ok": 1295,
      "20": 1296,
      "go": 1297,
      "ie": 1298,
      "but": 1299,
      "ud": 1300,
      "ma": 1301,
      "ear": 1302,
      "ack": 1303,
      "has": 1304,
      "ine": 1305,
      "ice": 1306,
      "age": 1307,
      "av": 1308,
      "tim": 1309,
      "ach": 1310,
      "ough": 1311,
      "port": 1312,
      "</": 1313,
      "ally": 1314,
      "ions": 1315,
      "ast": 1316,
      "ure": 1317,
      "der": 1318,
      "work": 1319,
      "li": 1320,
      "bo": 1321,
      "form": 1322,
      "comp": 1323,
      "cre": 1324,
      "ich": 1325,
      "more": 1326,
      "now": 1327,
      "ire": 1328,
      "very": 1329,
      "du": 1330,
      "use": 1331,
      "my": 1332,
      "ound": 1333,
      "ated": 1334,
      "ser": 1335,
      "way": 1336,
      "day": 1337,
      "their": 1338,
      "af": 1339,
      "get": 1340,
      "fer": 1341,
      "ite": 1342,
      "ans": 1343,
      "fo": 1344,
      "iz": 1345,
      "they": 1346,
      "ts": 1347,
      "ail": 1348,
      "ish": 1349,
      "ib": 1350,
      "ck": 1351,
      "ous": 1352,
      "ass": 1353,
      "sp": 1354,
      "ak": 1355,
      "ence": 1356,
      "ong": 1357,
      "some": 1358,
      "ev": 1359,
      "its": 1360,
      "It": 1361,
      "ance": 1362,
      "other": 1363,
      "time": 1364,
      "ign": 1365,
      "about": 1366,
      "part": 1367,
      "We": 1368,
      "own": 1369,
      "which": 1370,
      "cont": 1371,
      "ia": 1372,
      "ace": 1373,
      "00": 1374,
      "no": 1375,
      "cr": 1376,
      "ase": 1377,
      "str": 1378,
      "thing": 1379,
      "pre": 1380,
      "ber": 1381,
      "year": 1382,
      "dis": 1383,
      "br": 1384,
      "cess": 1385,
      "ame": 1386,
      "new": 1387,
      "bl": 1388,
      "ep": 1389,
      "ely": 1390,
      "who": 1391,
      "This": 1392,
      "ick": 1393,
      "also": 1394,
      "ction": 1395,
      "..": 1396,
      "Wh": 1397,
      "ful": 1398,
      "An": 1399,
      "over": 1400,
      "ents": 1401,
      "ary": 1402,
      "ations": 1403,
      "ical": 1404,
      "man": 1405,
      "ark": 1406,
      "201": 1407,
      "ty": 1408,
      "ree": 1409,
      "inter": 1410,
      "dr": 1411,
      "ile": 1412,
      "need": 1413,
      "ens": 1414,
      "int": 1415,
      "ition": 1416,
      "comm": 1417,
      "prov": 1418,
      "ren": 1419,
      "ll": 1420,
      "them": 1421,
      "ple": 1422,
      "pos": 1423,
      "aw": 1424,
      "spe": 1425,
      "Ch": 1426,
      "like": 1427,
      "hel": 1428,
      "ild": 1429,
      "his": 1430,
      "ors": 1431,
      "when": 1432,
      "just": 1433,
      "St": 1434,
      "there": 1435,
      "reat": 1436,
      "cial": 1437,
      "than": 1438,
      "what": 1439,
      "been": 1440,
      "ph": 1441,
      "pres": 1442,
      "off": 1443,
      "low": 1444,
      "ting": 1445,
      "col": 1446,
      "des": 1447,
      "serv": 1448,
      "how": 1449,
      "ink": 1450,
      "cor": 1451,
      "her": 1452,
      "know": 1453,
      "would": 1454,
      "fir": 1455,
      "cho": 1456,
      "ang": 1457,
      "bu": 1458,
      "wo": 1459,
      "cus": 1460,
      "ue": 1461,
      "most": 1462,
      "ake": 1463,
      "vel": 1464,
      "You": 1465,
      "og": 1466,
      "enc": 1467,
      "ef": 1468,
      "had": 1469,
      "were": 1470,
      "into": 1471,
      "ater": 1472,
      "thr": 1473,
      "ci": 1474,
      "add": 1475,
      "ca": 1476,
      "ade": 1477,
      "ning": 1478,
      "cur": 1479,
      "help": 1480,
      "make": 1481,
      "sy": 1482,
      "mer": 1483,
      "If": 1484,
      "well": 1485,
      "au": 1486,
      "cent": 1487,
      "ople": 1488,
      "may": 1489,
      "read": 1490,
      "look": 1491,
      "old": 1492,
      "vers": 1493,
      "incl": 1494,
      "back": 1495,
      "coun": 1496,
      "fin": 1497,
      "min": 1498,
      "row": 1499,
      "ry": 1500,
      "ating": 1501,
      "through": 1502,
      "only": 1503,
      "produ": 1504,
      "lect": 1505,
      "reg": 1506,
      "ices": 1507,
      "app": 1508,
      "19": 1509,
      "ates": 1510,
      "ob": 1511,
      "see": 1512,
      "people": 1513,
      "sa": 1514,
      "fore": 1515,
      "ory": 1516,
      "je": 1517,
      "ose": 1518,
      "bet": 1519,
      "first": 1520,
      "high": 1521,
      "att": 1522,
      "air": 1523,
      ").": 1524,
      "every": 1525,
      "pt": 1526,
      "ied": 1527,
      "ian": 1528,
      "ual": 1529,
      "vis": 1530,
      "mon": 1531,
      "come": 1532,
      "under": 1533,
      "As": 1534,
      "peri": 1535,
      "dif": 1536,
      "car": 1537,
      "med": 1538,
      "vie": 1539,
      "these": 1540,
      "He": 1541,
      "ings": 1542,
      "then": 1543,
      "want": 1544,
      "ments": 1545,
      "fect": 1546,
      "fl": 1547,
      "sup": 1548,
      "ious": 1549,
      "where": 1550,
      "ific": 1551,
      "set": 1552,
      "don": 1553,
      "tain": 1554,
      "cer": 1555,
      "ject": 1556,
      "red": 1557,
      "many": 1558,
      "ible": 1559,
      "ress": 1560,
      "ult": 1561,
      "pers": 1562,
      "top": 1563,
      "ener": 1564,
      "ities": 1565,
      "iness": 1566,
      "play": 1567,
      "gu": 1568,
      "sur": 1569,
      "rel": 1570,
      "let": 1571,
      "ise": 1572,
      "Re": 1573,
      "cal": 1574,
      "cause": 1575,
      "stand": 1576,
      "itt": 1577,
      "arch": 1578,
      "bus": 1579,
      "tom": 1580,
      "king": 1581,
      "os": 1582,
      "urn": 1583,
      "sure": 1584,
      "ict": 1585,
      "line": 1586,
      "good": 1587,
      "stud": 1588,
      "two": 1589,
      "should": 1590,
      "requ": 1591,
      "right": 1592,
      "view": 1593,
      "sel": 1594,
      "uch": 1595,
      "formation": 1596,
      "ons": 1597,
      "ever": 1598,
      "even": 1599,
      "after": 1600,
      "bas": 1601,
      "ational": 1602,
      "stem": 1603,
      "ily": 1604,
      "ks": 1605,
      "mark": 1606,
      "ife": 1607,
      "years": 1608,
      "inv": 1609,
      "land": 1610,
      "down": 1611,
      "great": 1612,
      "ys": 1613,
      "ility": 1614,
      "10": 1615,
      "ange": 1616,
      "Un": 1617,
      "fun": 1618,
      "cle": 1619,
      "del": 1620,
      "Con": 1621,
      "For": 1622,
      "such": 1623,
      "Com": 1624,
      "site": 1625,
      "could": 1626,
      "best": 1627,
      "Tr": 1628,
      "used": 1629,
      "try": 1630,
      "includ": 1631,
      "ures": 1632,
      "ath": 1633,
      "les": 1634,
      "less": 1635,
      "book": 1636,
      "find": 1637,
      "iss": 1638,
      "room": 1639,
      "ular": 1640,
      "home": 1641,
      "ho": 1642,
      "she": 1643,
      "alth": 1644,
      "cond": 1645,
      "much": 1646,
      "design": 1647,
      "ces": 1648,
      "ss": 1649,
      "ubl": 1650,
      "als": 1651,
      "ata": 1652,
      "start": 1653,
      "sim": 1654,
      "ble": 1655,
      "ement": 1656,
      "long": 1657,
      "atch": 1658,
      "gram": 1659,
      "mem": 1660,
      "take": 1661,
      "here": 1662,
      "tern": 1663,
      "olog": 1664,
      "And": 1665,
      "business": 1666,
      "ative": 1667,
      "differ": 1668,
      "eng": 1669,
      "ways": 1670,
      "information": 1671,
      "bel": 1672,
      "cons": 1673,
      "person": 1674,
      "Pro": 1675,
      "sm": 1676,
      "side": 1677,
      "Ne": 1678,
      "eas": 1679,
      "light": 1680,
      "system": 1681,
      "gan": 1682,
      "jo": 1683,
      "ics": 1684,
      "experi": 1685,
      "wr": 1686,
      "sub": 1687,
      "each": 1688,
      "io": 1689,
      "call": 1690,
      "ident": 1691,
      "ner": 1692,
      "ash": 1693,
      "pect": 1694,
      "),": 1695,
      "oft": 1696,
      "put": 1697,
      "ix": 1698,
      "uring": 1699,
      "sul": 1700,
      "main": 1701,
      "emp": 1702,
      "web": 1703,
      "being": 1704,
      "ced": 1705,
      "velop": 1706,
      "made": 1707,
      "amp": 1708,
      "said": 1709,
      "stru": 1710,
      "care": 1711,
      "ds": 1712,
      "Al": 1713,
      "There": 1714,
      "ext": 1715,
      "say": 1716,
      "inst": 1717,
      "develop": 1718,
      "sk": 1719,
      "lar": 1720,
      "because": 1721,
      "show": 1722,
      "chn": 1723,
      "led": 1724,
      "ms": 1725,
      "product": 1726,
      "provid": 1727,
      "ven": 1728,
      "Ar": 1729,
      "fact": 1730,
      "place": 1731,
      "fam": 1732,
      "hand": 1733,
      "chool": 1734,
      "ann": 1735,
      "before": 1736,
      "ouse": 1737,
      "trans": 1738,
      "life": 1739,
      "does": 1740,
      "fol": 1741,
      "those": 1742,
      "ra": 1743,
      "cour": 1744,
      "prof": 1745,
      "ved": 1746,
      "clo": 1747,
      "sol": 1748,
      "ward": 1749,
      "ret": 1750,
      "ited": 1751,
      "wee": 1752,
      "On": 1753,
      "val": 1754,
      "did": 1755,
      "Se": 1756,
      "ub": 1757,
      "ding": 1758,
      "tal": 1759,
      "ages": 1760,
      "ives": 1761,
      "So": 1762,
      "world": 1763,
      "think": 1764,
      "while": 1765,
      "200": 1766,
      "process": 1767,
      "det": 1768,
      "num": 1769,
      "arr": 1770,
      "ality": 1771,
      "ize": 1772,
      "En": 1773,
      "iving": 1774,
      "free": 1775,
      "list": 1776,
      "pol": 1777,
      "But": 1778,
      "che": 1779,
      "char": 1780,
      "ving": 1781,
      "though": 1782,
      "cap": 1783,
      "leg": 1784,
      "pur": 1785,
      "post": 1786,
      "sto": 1787,
      "lot": 1788,
      "Fr": 1789,
      "self": 1790,
      "How": 1791,
      "ional": 1792,
      "De": 1793,
      "data": 1794,
      "around": 1795,
      "tak": 1796,
      "ivers": 1797,
      "different": 1798,
      "too": 1799,
      "program": 1800,
      "last": 1801,
      "plic": 1802,
      "publ": 1803,
      "build": 1804,
      "lead": 1805,
      "search": 1806,
      "support": 1807,
      "feel": 1808,
      "using": 1809,
      "ese": 1810,
      "gl": 1811,
      "ince": 1812,
      "ship": 1813,
      "market": 1814,
      "ton": 1815,
      "offer": 1816,
      "ug": 1817,
      "...": 1818,
      "sal": 1819,
      "dec": 1820,
      "cover": 1821,
      "ank": 1822,
      "commun": 1823,
      "az": 1824,
      "oup": 1825,
      "sign": 1826,
      "again": 1827,
      "pay": 1828,
      "sing": 1829,
      "30": 1830,
      "head": 1831,
      "They": 1832,
      "going": 1833,
      "To": 1834,
      "really": 1835,
      "point": 1836,
      "ins": 1837,
      "Pr": 1838,
      "iting": 1839,
      "irect": 1840,
      "avail": 1841,
      "techn": 1842,
      "iend": 1843,
      "same": 1844,
      "fic": 1845,
      "New": 1846,
      "oc": 1847,
      "ness": 1848,
      "ower": 1849,
      "Ex": 1850,
      "service": 1851,
      "ired": 1852,
      "him": 1853,
      "present": 1854,
      "ween": 1855,
      "lear": 1856,
      "love": 1857,
      "ient": 1858,
      "import": 1859,
      "par": 1860,
      "allow": 1861,
      "No": 1862,
      "vent": 1863,
      "child": 1864,
      "keep": 1865,
      "gener": 1866,
      "Be": 1867,
      "ters": 1868,
      "rent": 1869,
      "ax": 1870,
      "still": 1871,
      "cept": 1872,
      "ier": 1873,
      "month": 1874,
      "ason": 1875,
      "order": 1876,
      "Co": 1877,
      "real": 1878,
      "--": 1879,
      "iver": 1880,
      "ider": 1881,
      "sit": 1882,
      "miss": 1883,
      "poss": 1884,
      "run": 1885,
      "water": 1886,
      "health": 1887,
      "between": 1888,
      "Cl": 1889,
      "opt": 1890,
      "found": 1891,
      "ave": 1892,
      "gy": 1893,
      "incre": 1894,
      "both": 1895,
      "interest": 1896,
      "follow": 1897,
      "experience": 1898,
      "friend": 1899,
      "var": 1900,
      "What": 1901,
      "fil": 1902,
      "plan": 1903,
      "open": 1904,
      "available": 1905,
      "Ad": 1906,
      "ety": 1907,
      "ized": 1908,
      "When": 1909,
      "bre": 1910,
      "ature": 1911,
      "company": 1912,
      "organ": 1913,
      "issu": 1914,
      "ior": 1915,
      "happ": 1916,
      "team": 1917,
      "tract": 1918,
      "resp": 1919,
      "ittle": 1920,
      "resul": 1921,
      "blo": 1922,
      "ves": 1923,
      "week": 1924,
      "always": 1925,
      "exp": 1926,
      "few": 1927,
      "including": 1928,
      "50": 1929,
      "cut": 1930,
      "oper": 1931,
      "school": 1932,
      "level": 1933,
      "Bo": 1934,
      "net": 1935,
      "ines": 1936,
      "bers": 1937,
      "ually": 1938,
      "arm": 1939,
      "000": 1940,
      "loy": 1941,
      "small": 1942,
      "pass": 1943,
      "services": 1944,
      "ability": 1945,
      "provide": 1946,
      "iel": 1947,
      "Pl": 1948,
      "Mo": 1949,
      "aut": 1950,
      "loc": 1951,
      "aph": 1952,
      "number": 1953,
      "Sh": 1954,
      "ross": 1955,
      "ants": 1956,
      "ology": 1957,
      "proper": 1958,
      "partic": 1959,
      "project": 1960,
      "ord": 1961,
      "Br": 1962,
      "perform": 1963,
      "load": 1964,
      "fort": 1965,
      "iqu": 1966,
      "ural": 1967,
      "Our": 1968,
      "12": 1969,
      "manag": 1970,
      "area": 1971,
      "All": 1972,
      "cost": 1973,
      "edu": 1974,
      "ask": 1975,
      "ude": 1976,
      "rece": 1977,
      "itch": 1978,
      "based": 1979,
      "gg": 1980,
      "pat": 1981,
      "sum": 1982,
      "class": 1983,
      "little": 1984,
      ".,": 1985,
      "must": 1986,
      "without": 1987,
      "vir": 1988,
      "things": 1989,
      "contin": 1990,
      "during": 1991,
      "At": 1992,
      "mus": 1993,
      "dep": 1994,
      "enter": 1995,
      "adv": 1996,
      "ital": 1997,
      "better": 1998,
      "hard": 1999,
      "ically": 2000,
      "18": 2001,
      "proble": 2002,
      "ump": 2003,
      "With": 2004,
      "grow": 2005,
      "Ser": 2006,
      "got": 2007,
      "ists": 2008,
      "ody": 2009,
      "Gr": 2010,
      "quest": 2011,
      "won": 2012,
      "quality": 2013,
      "family": 2014,
      "unt": 2015,
      "oney": 2016,
      "special": 2017,
      "big": 2018,
      "give": 2019,
      "change": 2020,
      "important": 2021,
      "three": 2022,
      "something": 2023,
      "effect": 2024,
      "ready": 2025,
      "Lo": 2026,
      "spec": 2027,
      "contro": 2028,
      "appro": 2029,
      "report": 2030,
      "house": 2031,
      "ccess": 2032,
      "full": 2033,
      "Ro": 2034,
      "My": 2035,
      "custom": 2036,
      "els": 2037,
      "train": 2038,
      "exam": 2039,
      "soci": 2040,
      "online": 2041,
      "met": 2042,
      "ards": 2043,
      "oto": 2044,
      "second": 2045,
      "ished": 2046,
      "US": 2047,
      "rest": 2048,
      "ients": 2049,
      "equ": 2050,
      "lim": 2051,
      "ather": 2052,
      "ivid": 2053,
      "kes": 2054,
      "ense": 2055,
      "access": 2056,
      "ars": 2057,
      "meet": 2058,
      "direct": 2059,
      "Le": 2060,
      "joy": 2061,
      "ff": 2062,
      "count": 2063,
      "within": 2064,
      "comes": 2065,
      "la": 2066,
      "applic": 2067,
      "group": 2068,
      "test": 2069,
      "ately": 2070,
      "local": 2071,
      "Go": 2072,
      "ution": 2073,
      "tri": 2074,
      "power": 2075,
      "ential": 2076,
      "aren": 2077,
      "prom": 2078,
      "nex": 2079,
      "Is": 2080,
      "working": 2081,
      "days": 2082,
      "course": 2083,
      "cy": 2084,
      "chang": 2085,
      "another": 2086,
      "current": 2087,
      "cas": 2088,
      "ply": 2089,
      "gin": 2090,
      "15": 2091,
      "might": 2092,
      "ger": 2093,
      "ared": 2094,
      "lease": 2095,
      "ont": 2096,
      "fac": 2097,
      "ric": 2098,
      "next": 2099,
      "profess": 2100,
      "press": 2101,
      "photo": 2102,
      "cell": 2103,
      "activ": 2104,
      "ustr": 2105,
      "plac": 2106,
      "oth": 2107,
      "today": 2108,
      "ben": 2109,
      "move": 2110,
      "That": 2111,
      "food": 2112,
      "rem": 2113,
      "invest": 2114,
      "bro": 2115,
      "making": 2116,
      "case": 2117,
      "elect": 2118,
      "comple": 2119,
      "addition": 2120,
      "since": 2121,
      "public": 2122,
      "ah": 2123,
      "law": 2124,
      "website": 2125,
      "vide": 2126,
      "looking": 2127,
      "ote": 2128,
      "consider": 2129,
      "bal": 2130,
      "meric": 2131,
      "graph": 2132,
      "state": 2133,
      "away": 2134,
      "pract": 2135,
      "ours": 2136,
      "Jo": 2137,
      "Dr": 2138,
      "hist": 2139,
      "sc": 2140,
      "ator": 2141,
      "ets": 2142,
      "shop": 2143,
      "nor": 2144,
      "ats": 2145,
      "Col": 2146,
      "needs": 2147,
      "mill": 2148,
      "Res": 2149,
      "ris": 2150,
      "aim": 2151,
      "ft": 2152,
      "ium": 2153,
      "ify": 2154,
      "bed": 2155,
      "11": 2156,
      "Americ": 2157,
      "ames": 2158,
      "turn": 2159,
      "lection": 2160,
      "Af": 2161,
      "Wor": 2162,
      "pop": 2163,
      "sty": 2164,
      "never": 2165,
      "understand": 2166,
      "body": 2167,
      "ences": 2168,
      "uck": 2169,
      "ified": 2170,
      "easy": 2171,
      "She": 2172,
      "IN": 2173,
      "tribut": 2174,
      "Or": 2175,
      "students": 2176,
      "ey": 2177,
      "soft": 2178,
      "vol": 2179,
      "success": 2180,
      "por": 2181,
      "prote": 2182,
      "!!": 2183,
      "possible": 2184,
      "ope": 2185,
      "research": 2186,
      "struct": 2187,
      "ems": 2188,
      "iven": 2189,
      "beaut": 2190,
      "tow": 2191,
      "25": 2192,
      "key": 2193,
      "employ": 2194,
      "bab": 2195,
      "pot": 2196,
      "Can": 2197,
      "ived": 2198,
      "ieve": 2199,
      "conne": 2200,
      "buy": 2201,
      "wal": 2202,
      "ond": 2203,
      "ping": 2204,
      "und": 2205,
      "money": 2206,
      "wom": 2207,
      "ending": 2208,
      "ails": 2209,
      "ery": 2210,
      "ency": 2211,
      "win": 2212,
      "ues": 2213,
      "gether": 2214,
      "page": 2215,
      "itions": 2216,
      ",”": 2217,
      "check": 2218,
      "ased": 2219,
      "dev": 2220,
      "iversity": 2221,
      "Coun": 2222,
      "ended": 2223,
      "fully": 2224,
      "pain": 2225,
      "hold": 2226,
      "minut": 2227,
      "learn": 2228,
      "One": 2229,
      "ones": 2230,
      "personal": 2231,
      "These": 2232,
      "di": 2233,
      "appe": 2234,
      "bit": 2235,
      "ER": 2236,
      "products": 2237,
      "son": 2238,
      "ted": 2239,
      "perfect": 2240,
      "large": 2241,
      "Do": 2242,
      "Man": 2243,
      "Ap": 2244,
      "along": 2245,
      "unch": 2246,
      "event": 2247,
      "ware": 2248,
      "until": 2249,
      "create": 2250,
      "stat": 2251,
      "enjoy": 2252,
      "visit": 2253,
      "cu": 2254,
      "outh": 2255,
      "coming": 2256,
      "ique": 2257,
      "Te": 2258,
      "aterial": 2259,
      "together": 2260,
      ".\"": 2261,
      "came": 2262,
      "expect": 2263,
      "ush": 2264,
      "dem": 2265,
      "bor": 2266,
      "kind": 2267,
      "game": 2268,
      "ste": 2269,
      "individ": 2270,
      "14": 2271,
      "ister": 2272,
      "men": 2273,
      "thor": 2274,
      "mat": 2275,
      "sch": 2276,
      "whe": 2277,
      "iful": 2278,
      "face": 2279,
      "istr": 2280,
      "focus": 2281,
      "children": 2282,
      "night": 2283,
      "ground": 2284,
      "ball": 2285,
      "aster": 2286,
      "feat": 2287,
      "ization": 2288,
      "Ph": 2289,
      "name": 2290,
      "ling": 2291,
      "tra": 2292,
      "ped": 2293,
      "ield": 2294,
      "having": 2295,
      "include": 2296,
      "members": 2297,
      "viron": 2298,
      "control": 2299,
      "benef": 2300,
      "sw": 2301,
      "ird": 2302,
      "works": 2303,
      "Bl": 2304,
      "tem": 2305,
      "contact": 2306,
      "aper": 2307,
      "ten": 2308,
      "ime": 2309,
      "une": 2310,
      "ury": 2311,
      "icle": 2312,
      "May": 2313,
      "rist": 2314,
      "gre": 2315,
      "non": 2316,
      "ised": 2317,
      "ision": 2318,
      "hol": 2319,
      "share": 2320,
      "purch": 2321,
      "job": 2322,
      "community": 2323,
      "trad": 2324,
      "aud": 2325,
      "hip": 2326,
      "often": 2327,
      "review": 2328,
      "social": 2329,
      "aff": 2330,
      "building": 2331,
      "pack": 2332,
      "16": 2333,
      "mal": 2334,
      "ising": 2335,
      "install": 2336,
      "After": 2337,
      "trav": 2338,
      "content": 2339,
      "certain": 2340,
      "individual": 2341,
      "date": 2342,
      "become": 2343,
      "times": 2344,
      "ills": 2345,
      "ulation": 2346,
      "ref": 2347,
      "ism": 2348,
      "national": 2349,
      "near": 2350,
      "why": 2351,
      "far": 2352,
      "space": 2353,
      "clean": 2354,
      "sever": 2355,
      "member": 2356,
      "educ": 2357,
      "four": 2358,
      "ids": 2359,
      "price": 2360,
      "clear": 2361,
      "lab": 2362,
      "iter": 2363,
      "Intern": 2364,
      "compan": 2365,
      "recent": 2366,
      "ike": 2367,
      "material": 2368,
      "cording": 2369,
      "inal": 2370,
      "wood": 2371,
      "AN": 2372,
      "past": 2373,
      "ively": 2374,
      "known": 2375,
      "24": 2376,
      "ories": 2377,
      "bon": 2378,
      "tool": 2379,
      "step": 2380,
      "vironment": 2381,
      "Mar": 2382,
      "flo": 2383,
      "quick": 2384,
      "teach": 2385,
      "Bu": 2386,
      "hum": 2387,
      "nam": 2388,
      "ney": 2389,
      "board": 2390,
      "pan": 2391,
      "itive": 2392,
      "uro": 2393,
      "ON": 2394,
      "gn": 2395,
      "means": 2396,
      "makes": 2397,
      "specific": 2398,
      "development": 2399,
      "video": 2400,
      "ID": 2401,
      "curity": 2402,
      "AT": 2403,
      "Ind": 2404,
      "getting": 2405,
      "hy": 2406,
      "link": 2407,
      "exper": 2408,
      "enough": 2409,
      "position": 2410,
      "across": 2411,
      "mom": 2412,
      "wa": 2413,
      "However": 2414,
      "17": 2415,
      "aid": 2416,
      "contain": 2417,
      "mind": 2418,
      "conf": 2419,
      "beautiful": 2420,
      "Ac": 2421,
      "flow": 2422,
      "sell": 2423,
      "redu": 2424,
      "portun": 2425,
      "fav": 2426,
      "mit": 2427,
      "roll": 2428,
      "jor": 2429,
      "round": 2430,
      "ners": 2431,
      "done": 2432,
      "called": 2433,
      "against": 2434,
      "100": 2435,
      "model": 2436,
      "music": 2437,
      "treat": 2438,
      "ands": 2439,
      "ount": 2440,
      "Christ": 2441,
      "short": 2442,
      "13": 2443,
      "vious": 2444,
      "gover": 2445,
      "others": 2446,
      "pecial": 2447,
      "nment": 2448,
      "require": 2449,
      "mission": 2450,
      "cred": 2451,
      "tell": 2452,
      "already": 2453,
      "2018": 2454,
      "phone": 2455,
      "opportun": 2456,
      "RE": 2457,
      "camp": 2458,
      "ference": 2459,
      "respons": 2460,
      "anal": 2461,
      "iday": 2462,
      "thod": 2463,
      "least": 2464,
      "connect": 2465,
      "gar": 2466,
      "plain": 2467,
      "ustry": 2468,
      "ream": 2469,
      "action": 2470,
      "mult": 2471,
      "range": 2472,
      "depend": 2473,
      "aring": 2474,
      "offers": 2475,
      "Nor": 2476,
      "left": 2477,
      "cord": 2478,
      "Ste": 2479,
      "mar": 2480,
      "deal": 2481,
      "ster": 2482,
      "ago": 2483,
      "Your": 2484,
      "tru": 2485,
      "front": 2486,
      "urther": 2487,
      "defin": 2488,
      "fut": 2489,
      "ng": 2490,
      "pie": 2491,
      "below": 2492,
      "ift": 2493,
      "doing": 2494,
      "dam": 2495,
      "doesn": 2496,
      "town": 2497,
      "Med": 2498,
      "abo": 2499,
      "utions": 2500,
      "ination": 2501,
      "reach": 2502,
      "ley": 2503,
      "199": 2504,
      "nat": 2505,
      "rop": 2506,
      "ott": 2507,
      "Au": 2508,
      "AS": 2509,
      "dom": 2510,
      "sho": 2511,
      "bring": 2512,
      "please": 2513,
      "wind": 2514,
      "ale": 2515,
      "ilt": 2516,
      "prove": 2517,
      "major": 2518,
      "crip": 2519,
      "road": 2520,
      "ource": 2521,
      "once": 2522,
      "media": 2523,
      "University": 2524,
      "customers": 2525,
      "address": 2526,
      "break": 2527,
      "chall": 2528,
      "typ": 2529,
      "country": 2530,
      "Serv": 2531,
      "fee": 2532,
      "den": 2533,
      "aps": 2534,
      "ief": 2535,
      "actually": 2536,
      "ought": 2537,
      "40": 2538,
      "ik": 2539,
      "minutes": 2540,
      "IS": 2541,
      "vari": 2542,
      "ee": 2543,
      "reco": 2544,
      "live": 2545,
      "ateg": 2546,
      "ensive": 2547,
      "speak": 2548,
      "sound": 2549,
      "season": 2550,
      "cuss": 2551,
      "companies": 2552,
      "field": 2553,
      "particular": 2554,
      "features": 2555,
      "million": 2556,
      "went": 2557,
      "conom": 2558,
      "ane": 2559,
      "resh": 2560,
      "industry": 2561,
      "offic": 2562,
      "recomm": 2563,
      "ips": 2564,
      "iate": 2565,
      "usu": 2566,
      "omet": 2567,
      "imp": 2568,
      "priv": 2569,
      "lik": 2570,
      "city": 2571,
      "ron": 2572,
      "begin": 2573,
      "didn": 2574,
      "rep": 2575,
      "due": 2576,
      "wide": 2577,
      "mp": 2578,
      "mean": 2579,
      "God": 2580,
      "fit": 2581,
      "given": 2582,
      "hours": 2583,
      "compet": 2584,
      "Po": 2585,
      "Car": 2586,
      "Fl": 2587,
      "stop": 2588,
      "study": 2589,
      "return": 2590,
      "value": 2591,
      "problem": 2592,
      "reason": 2593,
      "comb": 2594,
      "claim": 2595,
      "mil": 2596,
      "started": 2597,
      "property": 2598,
      "several": 2599,
      "fast": 2600,
      "stay": 2601,
      "ots": 2602,
      "duct": 2603,
      "wards": 2604,
      "future": 2605,
      "spir": 2606,
      "email": 2607,
      "complet": 2608,
      "issues": 2609,
      "example": 2610,
      "ouch": 2611,
      "orig": 2612,
      "acy": 2613,
      "vo": 2614,
      "required": 2615,
      "fill": 2616,
      "hal": 2617,
      "ww": 2618,
      "ilities": 2619,
      "ina": 2620,
      "early": 2621,
      "Fo": 2622,
      "environment": 2623,
      "tic": 2624,
      "Sy": 2625,
      "pict": 2626,
      "sl": 2627,
      "vert": 2628,
      "professional": 2629,
      "ances": 2630,
      "ino": 2631,
      "type": 2632,
      "women": 2633,
      "ined": 2634,
      "ources": 2635,
      "strong": 2636,
      "simple": 2637,
      "Me": 2638,
      "TH": 2639,
      "Gu": 2640,
      "management": 2641,
      "watch": 2642,
      "tomer": 2643,
      "says": 2644,
      "cult": 2645,
      "mot": 2646,
      "vi": 2647,
      "ides": 2648,
      "box": 2649,
      "everything": 2650,
      "ned": 2651,
      "ured": 2652,
      "wer": 2653,
      "fall": 2654,
      "scre": 2655,
      "technology": 2656,
      "oud": 2657,
      "thought": 2658,
      "style": 2659,
      "card": 2660,
      "hot": 2661,
      "cing": 2662,
      "relation": 2663,
      "Now": 2664,
      "gest": 2665,
      "Des": 2666,
      "elf": 2667,
      "period": 2668,
      "concer": 2669,
      "augh": 2670,
      "bar": 2671,
      "pick": 2672,
      "party": 2673,
      "2017": 2674,
      "above": 2675,
      "idence": 2676,
      "ele": 2677,
      "oring": 2678,
      "comfort": 2679,
      "necess": 2680,
      "story": 2681,
      "account": 2682,
      "pret": 2683,
      "flu": 2684,
      "table": 2685,
      "heart": 2686,
      "ither": 2687,
      "method": 2688,
      "ES": 2689,
      "systems": 2690,
      "contract": 2691,
      "invol": 2692,
      "AC": 2693,
      "needed": 2694,
      "ledge": 2695,
      "Air": 2696,
      "Please": 2697,
      "size": 2698,
      "icy": 2699,
      "taking": 2700,
      "security": 2701,
      "imes": 2702,
      "ibility": 2703,
      "equip": 2704,
      "Mon": 2705,
      "later": 2706,
      "While": 2707,
      "mach": 2708,
      "abl": 2709,
      "months": 2710,
      "anks": 2711,
      "itical": 2712,
      "super": 2713,
      "ishing": 2714,
      "discuss": 2715,
      "living": 2716,
      "dist": 2717,
      "tar": 2718,
      "80": 2719,
      "ai": 2720,
      "ining": 2721,
      "Fe": 2722,
      "__": 2723,
      "hn": 2724,
      "ints": 2725,
      "staff": 2726,
      "paren": 2727,
      "amount": 2728,
      "performance": 2729,
      "complete": 2730,
      "Not": 2731,
      "match": 2732,
      "Part": 2733,
      "dig": 2734,
      "Cr": 2735,
      "Sc": 2736,
      "close": 2737,
      "charac": 2738,
      "pen": 2739,
      "single": 2740,
      "click": 2741,
      "whole": 2742,
      "Don": 2743,
      "door": 2744,
      "provides": 2745,
      "friends": 2746,
      "questions": 2747,
      "select": 2748,
      "results": 2749,
      "Dis": 2750,
      "print": 2751,
      "author": 2752,
      "22": 2753,
      "remain": 2754,
      "grad": 2755,
      "AR": 2756,
      "bur": 2757,
      "result": 2758,
      "took": 2759,
      "American": 2760,
      "travel": 2761,
      "Per": 2762,
      "sci": 2763,
      "issue": 2764,
      "60": 2765,
      "cript": 2766,
      "ming": 2767,
      "uation": 2768,
      "uary": 2769,
      "aving": 2770,
      "Sp": 2771,
      "gen": 2772,
      "atic": 2773,
      "track": 2774,
      "posed": 2775,
      "whether": 2776,
      "AP": 2777,
      "Euro": 2778,
      "OR": 2779,
      "cast": 2780,
      "wall": 2781,
      "inc": 2782,
      "customer": 2783,
      "following": 2784,
      "approach": 2785,
      "ctor": 2786,
      "ford": 2787,
      "user": 2788,
      "war": 2789,
      "urch": 2790,
      "idea": 2791,
      "provided": 2792,
      "tour": 2793,
      "training": 2794,
      "application": 2795,
      "IT": 2796,
      "further": 2797,
      "By": 2798,
      "rele": 2799,
      "news": 2800,
      "meas": 2801,
      "stock": 2802,
      "sites": 2803,
      "ators": 2804,
      "various": 2805,
      "Che": 2806,
      "ged": 2807,
      "hon": 2808,
      "mber": 2809,
      "ensure": 2810,
      "deter": 2811,
      "uses": 2812,
      "changes": 2813,
      ",\"": 2814,
      "tegr": 2815,
      "download": 2816,
      "ians": 2817,
      "sem": 2818,
      "plant": 2819,
      "def": 2820,
      "energy": 2821,
      "John": 2822,
      "walk": 2823,
      "tax": 2824,
      "seen": 2825,
      "wonder": 2826,
      "establ": 2827,
      "quite": 2828,
      "comput": 2829,
      "yet": 2830,
      "ancial": 2831,
      "ening": 2832,
      "users": 2833,
      "simply": 2834,
      "natural": 2835,
      "Su": 2836,
      "hair": 2837,
      "ows": 2838,
      "word": 2839,
      "2019": 2840,
      "phys": 2841,
      "host": 2842,
      "potential": 2843,
      "asing": 2844,
      "ape": 2845,
      "exist": 2846,
      "aged": 2847,
      "clients": 2848,
      "ification": 2849,
      "init": 2850,
      "ention": 2851,
      "unique": 2852,
      "surance": 2853,
      "AL": 2854,
      "weight": 2855,
      "resident": 2856,
      "shall": 2857,
      "ls": 2858,
      "wel": 2859,
      "represent": 2860,
      "anything": 2861,
      "pecially": 2862,
      "sent": 2863,
      "ided": 2864,
      "areas": 2865,
      "spect": 2866,
      "eral": 2867,
      "pose": 2868,
      "store": 2869,
      "sales": 2870,
      "Cal": 2871,
      "ded": 2872,
      "econom": 2873,
      "moder": 2874,
      "lat": 2875,
      "especially": 2876,
      "five": 2877,
      "among": 2878,
      "choose": 2879,
      "almost": 2880,
      "history": 2881,
      "improve": 2882,
      "problems": 2883,
      "glo": 2884,
      "saf": 2885,
      "etc": 2886,
      "ules": 2887,
      "someone": 2888,
      "draw": 2889,
      "version": 2890,
      "mag": 2891,
      "nal": 2892,
      "sess": 2893,
      "stit": 2894,
      "June": 2895,
      "Of": 2896,
      "aur": 2897,
      "wed": 2898,
      "jour": 2899,
      "words": 2900,
      "ports": 2901,
      "half": 2902,
      "entire": 2903,
      "State": 2904,
      "third": 2905,
      "cook": 2906,
      "particip": 2907,
      "hope": 2908,
      "designed": 2909,
      "mid": 2910,
      "United": 2911,
      "forward": 2912,
      "exc": 2913,
      "sat": 2914,
      "yourself": 2915,
      "ideas": 2916,
      "taken": 2917,
      "cou": 2918,
      "ilar": 2919,
      "iple": 2920,
      "subject": 2921,
      "cam": 2922,
      "paper": 2923,
      "Just": 2924,
      "respect": 2925,
      "deliver": 2926,
      "options": 2927,
      "relationship": 2928,
      "Park": 2929,
      "plat": 2930,
      "ival": 2931,
      "brand": 2932,
      "Cont": 2933,
      "government": 2934,
      "23": 2935,
      "rad": 2936,
      "located": 2937,
      "Min": 2938,
      "assist": 2939,
      "ceed": 2940,
      "related": 2941,
      "popular": 2942,
      "ED": 2943,
      "IC": 2944,
      "regard": 2945,
      "vision": 2946,
      "Some": 2947,
      "van": 2948,
      "sugg": 2949,
      "worth": 2950,
      "events": 2951,
      "suggest": 2952,
      "dry": 2953,
      "includes": 2954,
      "communic": 2955,
      "human": 2956,
      "Sim": 2957,
      "2016": 2958,
      "credit": 2959,
      "ires": 2960,
      "mess": 2961,
      "gain": 2962,
      "partment": 2963,
      "itted": 2964,
      "question": 2965,
      "dou": 2966,
      "ufact": 2967,
      "color": 2968,
      "angu": 2969,
      "hom": 2970,
      "Europe": 2971,
      "gir": 2972,
      "wish": 2973,
      "held": 2974,
      "recogn": 2975,
      "fire": 2976,
      "likely": 2977,
      "South": 2978,
      "everyone": 2979,
      "believe": 2980,
      "favor": 2981,
      "itional": 2982,
      "selves": 2983,
      "struction": 2984,
      "signific": 2985,
      "ience": 2986,
      "mor": 2987,
      "mix": 2988,
      "ral": 2989,
      "plement": 2990,
      "aver": 2991,
      "rate": 2992,
      "legal": 2993,
      "UK": 2994,
      "ony": 2995,
      "else": 2996,
      "ables": 2997,
      "docu": 2998,
      "common": 2999,
      "sen": 3000,
      "record": 3001,
      "lic": 3002,
      "amaz": 3003,
      "ples": 3004,
      "percent": 3005,
      "protect": 3006,
      "accept": 3007,
      "young": 3008,
      "firm": 3009,
      "built": 3010,
      "takes": 3011,
      "recommend": 3012,
      "cop": 3013,
      "soon": 3014,
      "Qu": 3015,
      "band": 3016,
      "hind": 3017,
      "ute": 3018,
      "however": 3019,
      "bill": 3020,
      "knowledge": 3021,
      "books": 3022,
      "skin": 3023,
      "integr": 3024,
      "foot": 3025,
      "itchen": 3026,
      "ging": 3027,
      "icro": 3028,
      "text": 3029,
      "collect": 3030,
      "receive": 3031,
      "nov": 3032,
      "request": 3033,
      "dy": 3034,
      "era": 3035,
      "ering": 3036,
      "term": 3037,
      "necessary": 3038,
      "Bar": 3039,
      "National": 3040,
      "enn": 3041,
      "education": 3042,
      "aging": 3043,
      "throughout": 3044,
      "function": 3045,
      "general": 3046,
      "via": 3047,
      "xim": 3048,
      "series": 3049,
      "Reg": 3050,
      "swe": 3051,
      "lex": 3052,
      "ull": 3053,
      "aily": 3054,
      "ban": 3055,
      "reet": 3056,
      "details": 3057,
      "either": 3058,
      "setting": 3059,
      "platform": 3060,
      "bad": 3061,
      "cir": 3062,
      "purchase": 3063,
      "ges": 3064,
      "sens": 3065,
      "ently": 3066,
      "white": 3067,
      "black": 3068,
      "learning": 3069,
      "Par": 3070,
      "ica": 3071,
      "suit": 3072,
      "office": 3073,
      "currently": 3074,
      "risk": 3075,
      "created": 3076,
      "increase": 3077,
      "usually": 3078,
      "Jan": 3079,
      "seem": 3080,
      "added": 3081,
      "lands": 3082,
      "bably": 3083,
      "lege": 3084,
      "happy": 3085,
      "ork": 3086,
      "crib": 3087,
      "blog": 3088,
      "bi": 3089,
      "tit": 3090,
      "astic": 3091,
      "tee": 3092,
      "diffic": 3093,
      "writing": 3094,
      "ene": 3095,
      "option": 3096,
      "World": 3097,
      "significant": 3098,
      "fix": 3099,
      "activities": 3100,
      "26": 3101,
      "har": 3102,
      "rect": 3103,
      "refer": 3104,
      "drive": 3105,
      "maintain": 3106,
      "impact": 3107,
      "AM": 3108,
      "Mr": 3109,
      "continu": 3110,
      "Pe": 3111,
      "continue": 3112,
      "”,": 3113,
      "mob": 3114,
      "21": 3115,
      "Will": 3116,
      "appoint": 3117,
      "Cor": 3118,
      "told": 3119,
      "rather": 3120,
      "trip": 3121,
      "Here": 3122,
      "Mark": 3123,
      "ore": 3124,
      "role": 3125,
      "talk": 3126,
      "Fin": 3127,
      "fresh": 3128,
      "trying": 3129,
      "City": 3130,
      "carbon": 3131,
      "bud": 3132,
      "spr": 3133,
      "exact": 3134,
      "School": 3135,
      "ert": 3136,
      "items": 3137,
      "EN": 3138,
      "park": 3139,
      "cert": 3140,
      "skills": 3141,
      "rodu": 3142,
      "probably": 3143,
      "loss": 3144,
      "true": 3145,
      "cool": 3146,
      "ensen": 3147,
      "commit": 3148,
      "istration": 3149,
      "touch": 3150,
      "ays": 3151,
      "image": 3152,
      "upon": 3153,
      "reading": 3154,
      "additional": 3155,
      "software": 3156,
      "matter": 3157,
      "sun": 3158,
      "object": 3159,
      "Rep": 3160,
      "total": 3161,
      "enced": 3162,
      "ecut": 3163,
      "tt": 3164,
      "tre": 3165,
      "isn": 3166,
      "agre": 3167,
      "financial": 3168,
      "izing": 3169,
      "House": 3170,
      "behind": 3171,
      "International": 3172,
      "kids": 3173,
      "eter": 3174,
      "opportunity": 3175,
      "gress": 3176,
      "lock": 3177,
      "received": 3178,
      "path": 3179,
      "2015": 3180,
      "easily": 3181,
      "core": 3182,
      "manufact": 3183,
      "associ": 3184,
      "From": 3185,
      "ometimes": 3186,
      "veh": 3187,
      "His": 3188,
      "err": 3189,
      "outside": 3190,
      "ountain": 3191,
      "active": 3192,
      "mas": 3193,
      "uge": 3194,
      "feature": 3195,
      "regular": 3196,
      "rooms": 3197,
      "famil": 3198,
      "medical": 3199,
      "engine": 3200,
      "pretty": 3201,
      "28": 3202,
      "Cent": 3203,
      "Hensen": 3204,
      "brow": 3205,
      "marketing": 3206,
      "equipment": 3207,
      "modern": 3208,
      "High": 3209,
      "II": 3210,
      "giving": 3211,
      "ux": 3212,
      "ental": 3213,
      "conditions": 3214,
      ".”": 3215,
      "bul": 3216,
      "mun": 3217,
      "programs": 3218,
      "official": 3219,
      "squ": 3220,
      "prevent": 3221,
      "similar": 3222,
      "Sun": 3223,
      "according": 3224,
      "wanted": 3225,
      "weeks": 3226,
      "vot": 3227,
      "offee": 3228,
      "itten": 3229,
      "bir": 3230,
      "oil": 3231,
      "inside": 3232,
      "extra": 3233,
      "original": 3234,
      "Apr": 3235,
      "ses": 3236,
      "itor": 3237,
      "TV": 3238,
      "cup": 3239,
      "ises": 3240,
      "AD": 3241,
      "Pol": 3242,
      "langu": 3243,
      "uff": 3244,
      "ends": 3245,
      "corpor": 3246,
      "70": 3247,
      "Lon": 3248,
      "idge": 3249,
      "choice": 3250,
      "covered": 3251,
      "Build": 3252,
      "private": 3253,
      "file": 3254,
      "ened": 3255,
      "appl": 3256,
      "allows": 3257,
      "SE": 3258,
      "stain": 3259,
      "mail": 3260,
      "worked": 3261,
      "Associ": 3262,
      "moment": 3263,
      "points": 3264,
      "answer": 3265,
      "practice": 3266,
      "County": 3267,
      "ham": 3268,
      "acc": 3269,
      "sets": 3270,
      "ably": 3271,
      "clim": 3272,
      "gets": 3273,
      "prep": 3274,
      "autom": 3275,
      "summer": 3276,
      "quickly": 3277,
      "lower": 3278,
      "final": 3279,
      "Art": 3280,
      "amazing": 3281,
      "ches": 3282,
      "film": 3283,
      "growth": 3284,
      "Mc": 3285,
      "cele": 3286,
      "sale": 3287,
      "benefits": 3288,
      "labor": 3289,
      "Every": 3290,
      "cil": 3291,
      "insurance": 3292,
      "elt": 3293,
      "dress": 3294,
      "bing": 3295,
      "hor": 3296,
      "ker": 3297,
      "previous": 3298,
      "projects": 3299,
      "variety": 3300,
      "Im": 3301,
      "wise": 3302,
      "arden": 3303,
      "----": 3304,
      "celebr": 3305,
      "York": 3306,
      "running": 3307,
      "gas": 3308,
      "launch": 3309,
      "Am": 3310,
      "ze": 3311,
      "excell": 3312,
      "qual": 3313,
      "thentic": 3314,
      "types": 3315,
      "London": 3316,
      "Up": 3317,
      "solution": 3318,
      "charge": 3319,
      "aves": 3320,
      "cret": 3321,
      "providing": 3322,
      "meeting": 3323,
      "Let": 3324,
      "late": 3325,
      "nothing": 3326,
      "production": 3327,
      "character": 3328,
      "lines": 3329,
      "Ge": 3330,
      "base": 3331,
      "fail": 3332,
      "looks": 3333,
      "airs": 3334,
      "included": 3335,
      "difficult": 3336,
      "90": 3337,
      "force": 3338,
      "prior": 3339,
      "ogle": 3340,
      "Comp": 3341,
      "tools": 3342,
      "section": 3343,
      "cannot": 3344,
      "asked": 3345,
      "Day": 3346,
      "hab": 3347,
      "source": 3348,
      "ama": 3349,
      "avo": 3350,
      "encour": 3351,
      "Service": 3352,
      "Ju": 3353,
      "mine": 3354,
      "six": 3355,
      "uss": 3356,
      "standard": 3357,
      "safety": 3358,
      "AF": 3359,
      "Sep": 3360,
      "fig": 3361,
      "mass": 3362,
      "isions": 3363,
      "Eng": 3364,
      "daily": 3365,
      "sle": 3366,
      "remo": 3367,
      "sequ": 3368,
      "....": 3369,
      "glass": 3370,
      "effective": 3371,
      "lin": 3372,
      "stant": 3373,
      "terms": 3374,
      "compl": 3375,
      "resources": 3376,
      "commer": 3377,
      "apply": 3378,
      "games": 3379,
      "agr": 3380,
      "log": 3381,
      "longer": 3382,
      "decision": 3383,
      "ties": 3384,
      "contribut": 3385,
      "effic": 3386,
      "latest": 3387,
      "Act": 3388,
      "Get": 3389,
      "Well": 3390,
      "na": 3391,
      "nice": 3392,
      "rout": 3393,
      "smo": 3394,
      "ison": 3395,
      "feed": 3396,
      "display": 3397,
      "35": 3398,
      "clus": 3399,
      "Ed": 3400,
      "Ho": 3401,
      "bs": 3402,
      "bath": 3403,
      "gives": 3404,
      "leave": 3405,
      "leaders": 3406,
      "network": 3407,
      "costs": 3408,
      "anim": 3409,
      "collection": 3410,
      "More": 3411,
      "expected": 3412,
      "ST": 3413,
      "suppl": 3414,
      "appear": 3415,
      "floor": 3416,
      "challeng": 3417,
      "cash": 3418,
      "drop": 3419,
      "craf": 3420,
      "Any": 3421,
      "announ": 3422,
      "pal": 3423,
      "istic": 3424,
      "register": 3425,
      "Also": 3426,
      "North": 3427,
      "Sm": 3428,
      "mod": 3429,
      "higher": 3430,
      "lay": 3431,
      "ada": 3432,
      "Thanks": 3433,
      "ysis": 3434,
      "detail": 3435,
      "Her": 3436,
      "uk": 3437,
      "icated": 3438,
      "advert": 3439,
      "Engl": 3440,
      "planning": 3441,
      "OM": 3442,
      "ran": 3443,
      "article": 3444,
      "solutions": 3445,
      "anyone": 3446,
      "Web": 3447,
      "States": 3448,
      "explo": 3449,
      "Are": 3450,
      "serve": 3451,
      "Stud": 3452,
      "location": 3453,
      "places": 3454,
      "English": 3455,
      "IP": 3456,
      "iet": 3457,
      "ler": 3458,
      "lives": 3459,
      "enge": 3460,
      "ases": 3461,
      "tries": 3462,
      "estim": 3463,
      "speed": 3464,
      "correct": 3465,
      "machine": 3466,
      "bt": 3467,
      "uit": 3468,
      "drink": 3469,
      "leading": 3470,
      "respon": 3471,
      "furn": 3472,
      "hib": 3473,
      "highly": 3474,
      "April": 3475,
      "Sal": 3476,
      "lif": 3477,
      "ights": 3478,
      "written": 3479,
      "screen": 3480,
      "OU": 3481,
      "proved": 3482,
      "treatment": 3483,
      "March": 3484,
      "separ": 3485,
      "Great": 3486,
      "div": 3487,
      "sed": 3488,
      "song": 3489,
      "”.": 3490,
      "hear": 3491,
      "note": 3492,
      "pool": 3493,
      "2014": 3494,
      "center": 3495,
      "organization": 3496,
      "send": 3497,
      "ida": 3498,
      "attention": 3499,
      "Even": 3500,
      "nut": 3501,
      "tur": 3502,
      "kitchen": 3503,
      "ring": 3504,
      "deep": 3505,
      "2013": 3506,
      "Net": 3507,
      "Oc": 3508,
      "sense": 3509,
      "seems": 3510,
      "international": 3511,
      "198": 3512,
      "policy": 3513,
      "photos": 3514,
      "Dev": 3515,
      "anced": 3516,
      "ublic": 3517,
      "materials": 3518,
      "West": 3519,
      "coffee": 3520,
      "sil": 3521,
      "iding": 3522,
      "agement": 3523,
      "2012": 3524,
      "levels": 3525,
      "appropr": 3526,
      "Fir": 3527,
      "limited": 3528,
      "Google": 3529,
      "Austr": 3530,
      "ead": 3531,
      "stor": 3532,
      "parts": 3533,
      "erc": 3534,
      "iture": 3535,
      "Once": 3536,
      "attract": 3537,
      "ille": 3538,
      "Center": 3539,
      "ns": 3540,
      "ps": 3541,
      "Thank": 3542,
      "introdu": 3543,
      "Health": 3544,
      "inner": 3545,
      "reser": 3546,
      "code": 3547,
      "myself": 3548,
      "spend": 3549,
      "helps": 3550,
      "save": 3551,
      "Sat": 3552,
      "ees": 3553,
      "fre": 3554,
      "admin": 3555,
      "actions": 3556,
      "mobile": 3557,
      "45": 3558,
      "atives": 3559,
      "adem": 3560,
      "explain": 3561,
      "izes": 3562,
      "aware": 3563,
      "cul": 3564,
      "dol": 3565,
      "inary": 3566,
      "suf": 3567,
      "goal": 3568,
      "prem": 3569,
      "Sup": 3570,
      "nia": 3571,
      "erg": 3572,
      "Trans": 3573,
      "successful": 3574,
      "conduct": 3575,
      "lots": 3576,
      "Most": 3577,
      "Ab": 3578,
      "Face": 3579,
      "Ke": 3580,
      "Wind": 3581,
      "advant": 3582,
      "hit": 3583,
      "wit": 3584,
      "affect": 3585,
      "hood": 3586,
      "Add": 3587,
      "piece": 3588,
      "computer": 3589,
      "27": 3590,
      "ana": 3591,
      "remember": 3592,
      "broad": 3593,
      "born": 3594,
      "aul": 3595,
      "imm": 3596,
      "ender": 3597,
      "device": 3598,
      "Aug": 3599,
      "Gre": 3600,
      "OT": 3601,
      "warm": 3602,
      "immed": 3603,
      "implement": 3604,
      "Then": 3605,
      "avy": 3606,
      "aking": 3607,
      "shows": 3608,
      "digital": 3609,
      "Mus": 3610,
      "aign": 3611,
      "tas": 3612,
      "ato": 3613,
      "President": 3614,
      "decor": 3615,
      "prim": 3616,
      "grade": 3617,
      "standing": 3618,
      "baby": 3619,
      "Home": 3620,
      "towards": 3621,
      "tele": 3622,
      "ume": 3623,
      "applications": 3624,
      "ET": 3625,
      "ky": 3626,
      "ri": 3627,
      "decided": 3628,
      "Cali": 3629,
      "release": 3630,
      "achieve": 3631,
      "500": 3632,
      "cure": 3633,
      "iam": 3634,
      "entry": 3635,
      "ctions": 3636,
      "assess": 3637,
      "traditional": 3638,
      "global": 3639,
      "resol": 3640,
      "akes": 3641,
      "morning": 3642,
      "average": 3643,
      "Afr": 3644,
      "essential": 3645,
      "earch": 3646,
      "creating": 3647,
      "minim": 3648,
      "restaur": 3649,
      "recently": 3650,
      "bag": 3651,
      "hour": 3652,
      "condition": 3653,
      "profession": 3654,
      "excellent": 3655,
      "Off": 3656,
      "occur": 3657,
      "dependent": 3658,
      "haps": 3659,
      "terr": 3660,
      "student": 3661,
      "favorite": 3662,
      "huge": 3663,
      "instead": 3664,
      "court": 3665,
      "payment": 3666,
      "July": 3667,
      "commercial": 3668,
      "CC": 3669,
      "emo": 3670,
      "strate": 3671,
      "expert": 3672,
      "cross": 3673,
      "dle": 3674,
      "heat": 3675,
      "ements": 3676,
      "mention": 3677,
      "safe": 3678,
      "consist": 3679,
      "political": 3680,
      "document": 3681,
      "Califor": 3682,
      "fab": 3683,
      "paid": 3684,
      "igation": 3685,
      "dog": 3686,
      "serious": 3687,
      "hands": 3688,
      "healthy": 3689,
      "considered": 3690,
      "couple": 3691,
      "tick": 3692,
      "ension": 3693,
      "anger": 3694,
      "multiple": 3695,
      "fish": 3696,
      "ken": 3697,
      "ny": 3698,
      "inform": 3699,
      "stone": 3700,
      "began": 3701,
      "Department": 3702,
      "green": 3703,
      "Flor": 3704,
      "Ger": 3705,
      "San": 3706,
      "icles": 3707,
      "served": 3708,
      "Direct": 3709,
      "basis": 3710,
      "holiday": 3711,
      "atter": 3712,
      "altern": 3713,
      "attack": 3714,
      "surpr": 3715,
      "rights": 3716,
      "interested": 3717,
      "California": 3718,
      "nes": 3719,
      "pet": 3720,
      "imag": 3721,
      "iction": 3722,
      "capt": 3723,
      "purpose": 3724,
      "Design": 3725,
      "involved": 3726,
      "//": 3727,
      "EL": 3728,
      "Pat": 3729,
      "hous": 3730,
      "arter": 3731,
      "exactly": 3732,
      "cry": 3733,
      "parents": 3734,
      "trust": 3735,
      "frame": 3736,
      "except": 3737,
      "letter": 3738,
      "cases": 3739,
      "picture": 3740,
      "Austral": 3741,
      "Why": 3742,
      "finish": 3743,
      "friendly": 3744,
      "language": 3745,
      "scal": 3746,
      "tober": 3747,
      "unte": 3748,
      "itself": 3749,
      "partners": 3750,
      "placed": 3751,
      "bot": 3752,
      "reas": 3753,
      "vey": 3754,
      "prefer": 3755,
      "preci": 3756,
      "target": 3757,
      "arant": 3758,
      "client": 3759,
      "groups": 3760,
      "ivery": 3761,
      "nature": 3762,
      "club": 3763,
      "goes": 3764,
      "ibly": 3765,
      "\".": 3766,
      "Law": 3767,
      "cards": 3768,
      "ederal": 3769,
      "distribut": 3770,
      "interesting": 3771,
      "block": 3772,
      "itation": 3773,
      "ests": 3774,
      "internet": 3775,
      "cand": 3776,
      "nation": 3777,
      "rich": 3778,
      "prices": 3779,
      "former": 3780,
      "See": 3781,
      "PS": 3782,
      "eat": 3783,
      "upd": 3784,
      "complex": 3785,
      "Techn": 3786,
      "Black": 3787,
      "Val": 3788,
      "Wed": 3789,
      "thus": 3790,
      "org": 3791,
      "bey": 3792,
      "exerc": 3793,
      "themselves": 3794,
      "histor": 3795,
      "devices": 3796,
      "First": 3797,
      "stress": 3798,
      "promot": 3799,
      "wait": 3800,
      "budget": 3801,
      "OS": 3802,
      "iation": 3803,
      "acqu": 3804,
      "campaign": 3805,
      "spo": 3806,
      "innov": 3807,
      "itely": 3808,
      "spot": 3809,
      "individuals": 3810,
      "comfortable": 3811,
      "Over": 3812,
      "chann": 3813,
      "positive": 3814,
      "patients": 3815,
      "October": 3816,
      "Facebook": 3817,
      "fair": 3818,
      "ood": 3819,
      "ester": 3820,
      "consul": 3821,
      "ivity": 3822,
      "iew": 3823,
      "regul": 3824,
      "Read": 3825,
      "influ": 3826,
      "onto": 3827,
      "Inc": 3828,
      "duc": 3829,
      "surround": 3830,
      "developed": 3831,
      "analysis": 3832,
      "Cour": 3833,
      "Hol": 3834,
      "cat": 3835,
      "htt": 3836,
      "mm": 3837,
      "ru": 3838,
      "illed": 3839,
      "region": 3840,
      "requirements": 3841,
      "existing": 3842,
      "Gener": 3843,
      "IM": 3844,
      "chair": 3845,
      "antic": 3846,
      "sweet": 3847,
      "progress": 3848,
      "apt": 3849,
      "apan": 3850,
      "reng": 3851,
      "thank": 3852,
      "growing": 3853,
      "dest": 3854,
      "America": 3855,
      "El": 3856,
      "Many": 3857,
      "ville": 3858,
      "ites": 3859,
      "rock": 3860,
      "became": 3861,
      "thinking": 3862,
      "eye": 3863,
      "responsible": 3864,
      "Bus": 3865,
      "views": 3866,
      "empor": 3867,
      "www": 3868,
      "pages": 3869,
      "sort": 3870,
      "sometimes": 3871,
      "agree": 3872,
      "ieved": 3873,
      "Trump": 3874,
      "wine": 3875,
      "lost": 3876,
      "Friday": 3877,
      "Book": 3878,
      "wonderful": 3879,
      "Sam": 3880,
      "jud": 3881,
      "pp": 3882,
      "authentic": 3883,
      "instit": 3884,
      "reduce": 3885,
      "IL": 3886,
      "fa": 3887,
      "largest": 3888,
      "posted": 3889,
      "Dav": 3890,
      "categ": 3891,
      "ease": 3892,
      "pul": 3893,
      "published": 3894,
      "satis": 3895,
      "://": 3896,
      "Str": 3897,
      "mis": 3898,
      "urs": 3899,
      "mother": 3900,
      "carry": 3901,
      "reported": 3902,
      "Internet": 3903,
      "Gl": 3904,
      "Whe": 3905,
      "iced": 3906,
      "29": 3907,
      "Free": 3908,
      "inj": 3909,
      "plans": 3910,
      "strateg": 3911,
      "photograph": 3912,
      "Ben": 3913,
      "Japan": 3914,
      "images": 3915,
      "ellow": 3916,
      "businesses": 3917,
      "experienced": 3918,
      "situation": 3919,
      "stage": 3920,
      "death": 3921,
      "ength": 3922,
      "operation": 3923,
      "Good": 3924,
      "Florida": 3925,
      "farm": 3926,
      "lying": 3927,
      "elling": 3928,
      "describ": 3929,
      "Septem": 3930,
      "appropriate": 3931,
      "saw": 3932,
      "plus": 3933,
      "directly": 3934,
      "analy": 3935,
      "felt": 3936,
      "rules": 3937,
      "execut": 3938,
      "countries": 3939,
      "Commun": 3940,
      "blood": 3941,
      "damage": 3942,
      "viol": 3943,
      "August": 3944,
      "anc": 3945,
      "atory": 3946,
      "star": 3947,
      "streng": 3948,
      "estate": 3949,
      "annual": 3950,
      "investment": 3951,
      "regarding": 3952,
      "Building": 3953,
      "September": 3954,
      "Educ": 3955,
      "pm": 3956,
      "za": 3957,
      "chem": 3958,
      "playing": 3959,
      "Each": 3960,
      "Je": 3961,
      "Make": 3962,
      "gree": 3963,
      "rough": 3964,
      "ube": 3965,
      "advis": 3966,
      "cture": 3967,
      "umb": 3968,
      "pressure": 3969,
      "basic": 3970,
      "write": 3971,
      "definitely": 3972,
      "Mem": 3973,
      "bow": 3974,
      "mir": 3975,
      "ari": 3976,
      "lov": 3977,
      "shot": 3978,
      "2011": 3979,
      "syn": 3980,
      "offered": 3981,
      "Pal": 3982,
      "stuff": 3983,
      "consum": 3984,
      "career": 3985,
      "feeling": 3986,
      "War": 3987,
      "iers": 3988,
      "sn": 3989,
      "stick": 3990,
      "empt": 3991,
      "express": 3992,
      "starting": 3993,
      "turned": 3994,
      "oo": 3995,
      "slow": 3996,
      "Program": 3997,
      "Prof": 3998,
      "cription": 3999,
      "Gover": 4000,
      "fine": 4001,
      "construction": 4002,
      "wasn": 4003,
      "cream": 4004,
      "stra": 4005,
      "ronic": 4006,
      "crow": 4007,
      "chance": 4008,
      "loved": 4009,
      "cru": 4010,
      "blue": 4011,
      "wrong": 4012,
      "lack": 4013,
      "thes": 4014,
      "bert": 4015,
      "obtain": 4016,
      "guarant": 4017,
      "09": 4018,
      "ION": 4019,
      "Pre": 4020,
      "rain": 4021,
      "challenge": 4022,
      "camera": 4023,
      "furniture": 4024,
      "EC": 4025,
      "hop": 4026,
      "aces": 4027,
      "iring": 4028,
      "owners": 4029,
      "schools": 4030,
      "understanding": 4031,
      "Green": 4032,
      "wear": 4033,
      "scient": 4034,
      "33": 4035,
      "PC": 4036,
      "item": 4037,
      "stream": 4038,
      "ads": 4039,
      "iff": 4040,
      "indic": 4041,
      "highest": 4042,
      "meaning": 4043,
      "gift": 4044,
      "medic": 4045,
      "woman": 4046,
      "Mod": 4047,
      "que": 4048,
      "Int": 4049,
      "produce": 4050,
      "adjust": 4051,
      "ague": 4052,
      "tried": 4053,
      "venue": 4054,
      "allowed": 4055,
      "beginning": 4056,
      "completely": 4057,
      "La": 4058,
      "Russ": 4059,
      "aspect": 4060,
      "accur": 4061,
      "heard": 4062,
      "idents": 4063,
      "incred": 4064,
      "birth": 4065,
      "Ber": 4066,
      "abs": 4067,
      "ideal": 4068,
      "evidence": 4069,
      "effort": 4070,
      "established": 4071,
      "Out": 4072,
      "tw": 4073,
      "church": 4074,
      "ashion": 4075,
      "processing": 4076,
      "dream": 4077,
      "lam": 4078,
      "apart": 4079,
      "goals": 4080,
      "ously": 4081,
      "players": 4082,
      "Group": 4083,
      "Hot": 4084,
      "SS": 4085,
      "Since": 4086,
      "scr": 4087,
      "instruct": 4088,
      "oral": 4089,
      "ington": 4090,
      "ung": 4091,
      "optim": 4092,
      "industr": 4093,
      "identify": 4094,
      "capital": 4095,
      "iately": 4096,
      "tle": 4097,
      "theme": 4098,
      "iles": 4099,
      "ades": 4100,
      "thanks": 4101,
      "increasing": 4102,
      "volunte": 4103,
      "Har": 4104,
      "gam": 4105,
      "2010": 4106,
      "Char": 4107,
      "ological": 4108,
      "easier": 4109,
      "spirit": 4110,
      "physical": 4111,
      "vember": 4112,
      "exas": 4113,
      "feet": 4114,
      "parties": 4115,
      "guid": 4116,
      "guide": 4117,
      "difference": 4118,
      "Look": 4119,
      "changed": 4120,
      "ING": 4121,
      "eyes": 4122,
      "homes": 4123,
      "hi": 4124,
      "sold": 4125,
      "vant": 4126,
      "proced": 4127,
      "award": 4128,
      "edule": 4129,
      "advice": 4130,
      "benefit": 4131,
      "repair": 4132,
      "January": 4133,
      "Association": 4134,
      "avoid": 4135,
      "Best": 4136,
      "garden": 4137,
      "sam": 4138,
      "thern": 4139,
      "lier": 4140,
      "offering": 4141,
      "pictures": 4142,
      "wedding": 4143,
      "TM": 4144,
      "knew": 4145,
      "Ital": 4146,
      "ologies": 4147,
      "November": 4148,
      "normal": 4149,
      "Services": 4150,
      "Post": 4151,
      "beyond": 4152,
      "Business": 4153,
      "wid": 4154,
      "income": 4155,
      "neigh": 4156,
      "counts": 4157,
      "supply": 4158,
      "smart": 4159,
      "88": 4160,
      "lation": 4161,
      "movie": 4162,
      "helping": 4163,
      "truly": 4164,
      "determin": 4165,
      "bum": 4166,
      "fan": 4167,
      "impress": 4168,
      "igr": 4169,
      "cember": 4170,
      "concept": 4171,
      "coach": 4172,
      "Super": 4173,
      "iar": 4174,
      "thous": 4175,
      "erson": 4176,
      "affic": 4177,
      "delivery": 4178,
      "audience": 4179,
      "opportunities": 4180,
      "vehicle": 4181,
      "CE": 4182,
      "PR": 4183,
      "Sci": 4184,
      "rup": 4185,
      "enh": 4186,
      "orge": 4187,
      "alone": 4188,
      "sych": 4189,
      "organiz": 4190,
      "Work": 4191,
      "session": 4192,
      "Devel": 4193,
      "Bel": 4194,
      "fant": 4195,
      "gave": 4196,
      "tag": 4197,
      "imin": 4198,
      "overall": 4199,
      "fund": 4200,
      "transfer": 4201,
      "employee": 4202,
      "reflect": 4203,
      "dish": 4204,
      "frequ": 4205,
      "December": 4206,
      "Mag": 4207,
      "push": 4208,
      "reli": 4209,
      "spent": 4210,
      "hosp": 4211,
      "Sw": 4212,
      "bank": 4213,
      "ost": 4214,
      "conven": 4215,
      "China": 4216,
      "profit": 4217,
      "Brit": 4218,
      "activity": 4219,
      "Del": 4220,
      "Ear": 4221,
      "flex": 4222,
      "sav": 4223,
      "abilities": 4224,
      "moving": 4225,
      "effects": 4226,
      "initial": 4227,
      "Sen": 4228,
      "Wal": 4229,
      "plate": 4230,
      "notice": 4231,
      "join": 4232,
      "Febr": 4233,
      "75": 4234,
      "PN": 4235,
      "Spe": 4236,
      "nd": 4237,
      "pite": 4238,
      "yal": 4239,
      "zz": 4240,
      "emot": 4241,
      "neg": 4242,
      "attle": 4243,
      "patient": 4244,
      "certainly": 4245,
      "response": 4246,
      "February": 4247,
      "TA": 4248,
      "Vir": 4249,
      "rench": 4250,
      "extrem": 4251,
      "shopping": 4252,
      "switch": 4253,
      "associated": 4254,
      "Micro": 4255,
      "cel": 4256,
      "sports": 4257,
      "uate": 4258,
      "controll": 4259,
      "Council": 4260,
      "culture": 4261,
      "families": 4262,
      "Satur": 4263,
      "King": 4264,
      "Red": 4265,
      "bound": 4266,
      "roof": 4267,
      "convers": 4268,
      "Inter": 4269,
      "maxim": 4270,
      "century": 4271,
      "tenance": 4272,
      "copy": 4273,
      "Big": 4274,
      "sand": 4275,
      "distr": 4276,
      "happen": 4277,
      "pattern": 4278,
      "demand": 4279,
      "Scott": 4280,
      "Mac": 4281,
      "length": 4282,
      "inde": 4283,
      "istics": 4284,
      "carr": 4285,
      "THE": 4286,
      "server": 4287,
      "manage": 4288,
      "helped": 4289,
      "finally": 4290,
      "player": 4291,
      "technical": 4292,
      "System": 4293,
      "journey": 4294,
      "36": 4295,
      "bol": 4296,
      "vote": 4297,
      "chan": 4298,
      "beach": 4299,
      "appreci": 4300,
      "bly": 4301,
      "iance": 4302,
      "liter": 4303,
      "master": 4304,
      "beha": 4305,
      "consu": 4306,
      "afford": 4307,
      "emporary": 4308,
      "Life": 4309,
      "rew": 4310,
      "ament": 4311,
      "ifts": 4312,
      "Ang": 4313,
      "Although": 4314,
      "Plan": 4315,
      "protection": 4316,
      "employees": 4317,
      "statement": 4318,
      "44": 4319,
      "Down": 4320,
      "Lu": 4321,
      "Ob": 4322,
      "Yes": 4323,
      "weather": 4324,
      "decl": 4325,
      "eval": 4326,
      "background": 4327,
      "Shop": 4328,
      "undred": 4329,
      "double": 4330,
      "Education": 4331,
      "Saturday": 4332,
      "Ama": 4333,
      "TO": 4334,
      "waste": 4335,
      "button": 4336,
      "useful": 4337,
      "encies": 4338,
      "transport": 4339,
      "weekend": 4340,
      "steps": 4341,
      "India": 4342,
      "European": 4343,
      "Cur": 4344,
      "Sto": 4345,
      "cum": 4346,
      "fem": 4347,
      "partner": 4348,
      "99": 4349,
      "Cam": 4350,
      "IR": 4351,
      "Rel": 4352,
      "Ty": 4353,
      "cab": 4354,
      "iment": 4355,
      "forms": 4356,
      "compon": 4357,
      "played": 4358,
      "Christmas": 4359,
      "Tod": 4360,
      "uel": 4361,
      "reh": 4362,
      "degree": 4363,
      "atever": 4364,
      "grand": 4365,
      "earn": 4366,
      "nearly": 4367,
      "professionals": 4368,
      "Port": 4369,
      "cin": 4370,
      "useum": 4371,
      "owner": 4372,
      "although": 4373,
      "temper": 4374,
      "aughter": 4375,
      "message": 4376,
      "straight": 4377,
      "Mal": 4378,
      "pump": 4379,
      "rid": 4380,
      "vit": 4381,
      "loan": 4382,
      "saying": 4383,
      "cape": 4384,
      "methods": 4385,
      "Sunday": 4386,
      "PA": 4387,
      "Rem": 4388,
      "Sch": 4389,
      "dark": 4390,
      "icious": 4391,
      "doors": 4392,
      "compreh": 4393,
      "White": 4394,
      "driving": 4395,
      "schedule": 4396,
      "pieces": 4397,
      "reasons": 4398,
      "station": 4399,
      "peace": 4400,
      "perhaps": 4401,
      "coverage": 4402,
      "entertain": 4403,
      "Windows": 4404,
      "strategy": 4405,
      "Sol": 4406,
      "Texas": 4407,
      "rom": 4408,
      "info": 4409,
      "absol": 4410,
      "sustain": 4411,
      "2009": 4412,
      "vention": 4413,
      "particularly": 4414,
      "measure": 4415,
      "Develop": 4416,
      "48": 4417,
      "Bay": 4418,
      "Hel": 4419,
      "fashion": 4420,
      "pup": 4421,
      "tren": 4422,
      "insp": 4423,
      "Click": 4424,
      "remind": 4425,
      "Canada": 4426,
      "Apple": 4427,
      "Office": 4428,
      "32": 4429,
      "Met": 4430,
      "Ret": 4431,
      "Use": 4432,
      "Year": 4433,
      "util": 4434,
      "ains": 4435,
      "requires": 4436,
      "experiences": 4437,
      "numbers": 4438,
      "teaching": 4439,
      "voice": 4440,
      "estern": 4441,
      "seven": 4442,
      "plent": 4443,
      "Inst": 4444,
      "ibr": 4445,
      "iber": 4446,
      "strict": 4447,
      "colors": 4448,
      "Auto": 4449,
      "completed": 4450,
      "Check": 4451,
      "immediately": 4452,
      "EM": 4453,
      "Rev": 4454,
      "vill": 4455,
      "ston": 4456,
      "selection": 4457,
      "dead": 4458,
      "auto": 4459,
      "looked": 4460,
      "seeing": 4461,
      "files": 4462,
      "powerful": 4463,
      "experts": 4464,
      "contains": 4465,
      "Amaz": 4466,
      "ek": 4467,
      "hundred": 4468,
      "itary": 4469,
      "plants": 4470,
      "kept": 4471,
      "compared": 4472,
      "president": 4473,
      "opening": 4474,
      "College": 4475,
      "reviews": 4476,
      "girl": 4477,
      "Company": 4478,
      "hus": 4479,
      "ored": 4480,
      "forts": 4481,
      "unit": 4482,
      "ivil": 4483,
      "relax": 4484,
      "craft": 4485,
      "Light": 4486,
      "mitted": 4487,
      "olf": 4488,
      "bright": 4489,
      "passion": 4490,
      "Love": 4491,
      "reports": 4492,
      "structure": 4493,
      "sleep": 4494,
      "advantage": 4495,
      "Dan": 4496,
      "fat": 4497,
      "gold": 4498,
      "slight": 4499,
      "threat": 4500,
      "aling": 4501,
      "comment": 4502,
      "studies": 4503,
      "iques": 4504,
      "named": 4505,
      "candid": 4506,
      "extremely": 4507,
      "95": 4508,
      "East": 4509,
      "Ma": 4510,
      "Spr": 4511,
      "Wr": 4512,
      "traffic": 4513,
      "rael": 4514,
      "keeping": 4515,
      "David": 4516,
      "west": 4517,
      "aries": 4518,
      "veget": 4519,
      "ady": 4520,
      "workers": 4521,
      "lighting": 4522,
      "Because": 4523,
      "videos": 4524,
      "demon": 4525,
      "waiting": 4526,
      "released": 4527,
      "relationships": 4528,
      "efficient": 4529,
      "OL": 4530,
      "Ver": 4531,
      "Vis": 4532,
      "tend": 4533,
      "rol": 4534,
      "shared": 4535,
      "Club": 4536,
      "storage": 4537,
      "consult": 4538,
      "Bro": 4539,
      "During": 4540,
      "winter": 4541,
      "arily": 4542,
      "constant": 4543,
      "clud": 4544,
      "brought": 4545,
      "welcome": 4546,
      "Other": 4547,
      "mountain": 4548,
      "iny": 4549,
      "apy": 4550,
      "fruit": 4551,
      "Board": 4552,
      "changing": 4553,
      "minute": 4554,
      "menu": 4555,
      "Africa": 4556,
      "atically": 4557,
      "album": 4558,
      "cheap": 4559,
      "occas": 4560,
      "relevant": 4561,
      "communication": 4562,
      "Find": 4563,
      "Wood": 4564,
      "rates": 4565,
      "ults": 4566,
      "drug": 4567,
      "collabor": 4568,
      "talking": 4569,
      "AND": 4570,
      "connected": 4571,
      "determine": 4572,
      "):": 4573,
      "CA": 4574,
      "CH": 4575,
      "Wash": 4576,
      "ahead": 4577,
      "stories": 4578,
      "usion": 4579,
      "ager": 4580,
      "conference": 4581,
      "lose": 4582,
      "produced": 4583,
      "cells": 4584,
      "steel": 4585,
      "title": 4586,
      "spring": 4587,
      "31": 4588,
      "iant": 4589,
      "ado": 4590,
      "clin": 4591,
      "whose": 4592,
      "interview": 4593,
      "Conference": 4594,
      "visitors": 4595,
      "sembly": 4596,
      "Data": 4597,
      "Em": 4598,
      "Elect": 4599,
      "IF": 4600,
      "Pho": 4601,
      "Sk": 4602,
      "cit": 4603,
      "gent": 4604,
      "icing": 4605,
      "Another": 4606,
      "maybe": 4607,
      "finished": 4608,
      "lights": 4609,
      "retail": 4610,
      "orders": 4611,
      "http": 4612,
      "38": 4613,
      "Pay": 4614,
      "map": 4615,
      "zer": 4616,
      "amin": 4617,
      "apers": 4618,
      "prepar": 4619,
      "fortun": 4620,
      "selling": 4621,
      "stitute": 4622,
      "bottom": 4623,
      "UAF": 4624,
      "Wall": 4625,
      "nur": 4626,
      "reve": 4627,
      "trail": 4628,
      "ultim": 4629,
      "resist": 4630,
      "standards": 4631,
      "funds": 4632,
      "presented": 4633,
      "virt": 4634,
      "Israel": 4635,
      "economic": 4636,
      "restaurant": 4637,
      "exercise": 4638,
      "Demo": 4639,
      "Tur": 4640,
      "sou": 4641,
      "moved": 4642,
      "attend": 4643,
      "ampion": 4644,
      "decisions": 4645,
      "expensive": 4646,
      "elements": 4647,
      "challenges": 4648,
      "plenty": 4649,
      "tail": 4650,
      "inspir": 4651,
      "anch": 4652,
      "istry": 4653,
      "accom": 4654,
      "esty": 4655,
      "poses": 4656,
      "college": 4657,
      "serving": 4658,
      "efforts": 4659,
      "Arch": 4660,
      "Play": 4661,
      "connection": 4662,
      "buying": 4663,
      "Monday": 4664,
      "science": 4665,
      "establish": 4666,
      "Australia": 4667,
      "Jes": 4668,
      "PD": 4669,
      "Top": 4670,
      "tor": 4671,
      "wild": 4672,
      "remove": 4673,
      "states": 4674,
      "exclus": 4675,
      "cles": 4676,
      "earlier": 4677,
      "counter": 4678,
      "increased": 4679,
      "ordin": 4680,
      "managed": 4681,
      "Research": 4682,
      "models": 4683,
      "Open": 4684,
      "gather": 4685,
      "nic": 4686,
      "ils": 4687,
      "cancer": 4688,
      "enses": 4689,
      "Chin": 4690,
      "adding": 4691,
      "flav": 4692,
      "Court": 4693,
      "Whether": 4694,
      "GA": 4695,
      "da": 4696,
      "boy": 4697,
      "respond": 4698,
      "diet": 4699,
      "registered": 4700,
      "advertising": 4701,
      "Jer": 4702,
      "MA": 4703,
      "atively": 4704,
      "Information": 4705,
      "Real": 4706,
      "maintenance": 4707,
      "bedroom": 4708,
      "winning": 4709,
      "Phil": 4710,
      "According": 4711,
      "smooth": 4712,
      "IV": 4713,
      "Lord": 4714,
      "Sur": 4715,
      "dat": 4716,
      "dict": 4717,
      "tips": 4718,
      "isation": 4719,
      "creative": 4720,
      "Street": 4721,
      "subs": 4722,
      "movement": 4723,
      "corporate": 4724,
      "Profess": 4725,
      "catch": 4726,
      "dining": 4727,
      "marr": 4728,
      "micro": 4729,
      "pray": 4730,
      "Church": 4731,
      "larger": 4732,
      "shower": 4733,
      "classic": 4734,
      "billion": 4735,
      "People": 4736,
      "55": 4737,
      "Os": 4738,
      "fight": 4739,
      "tree": 4740,
      "unk": 4741,
      "discover": 4742,
      "cords": 4743,
      "ission": 4744,
      "followed": 4745,
      "config": 4746,
      "habit": 4747,
      "Today": 4748,
      "46": 4749,
      "Have": 4750,
      "Like": 4751,
      "vest": 4752,
      "reality": 4753,
      "Start": 4754,
      "196": 4755,
      "scen": 4756,
      "!!!": 4757,
      "learned": 4758,
      "Indian": 4759,
      "manufactur": 4760,
      "lovely": 4761,
      "Cap": 4762,
      "luck": 4763,
      "sea": 4764,
      "secure": 4765,
      "Where": 4766,
      "surface": 4767,
      "properties": 4768,
      "balance": 4769,
      "names": 4770,
      "independent": 4771,
      "esome": 4772,
      "chat": 4773,
      "heavy": 4774,
      "sert": 4775,
      "valu": 4776,
      "generally": 4777,
      "Class": 4778,
      "limit": 4779,
      "links": 4780,
      "suffer": 4781,
      "district": 4782,
      "Democr": 4783,
      "IB": 4784,
      "spl": 4785,
      "grant": 4786,
      "agreement": 4787,
      "76": 4788,
      "Mid": 4789,
      "comments": 4790,
      "odes": 4791,
      "wants": 4792,
      "dedicated": 4793,
      "dollar": 4794,
      "CD": 4795,
      "bott": 4796,
      "anti": 4797,
      "therefore": 4798,
      "Take": 4799,
      "UN": 4800,
      "father": 4801,
      "street": 4802,
      "advent": 4803,
      "opin": 4804,
      "shown": 4805,
      "mental": 4806,
      "focused": 4807,
      "Blue": 4808,
      "multi": 4809,
      "Party": 4810,
      "husband": 4811,
      "300": 4812,
      "Jack": 4813,
      "Mor": 4814,
      "snow": 4815,
      "ensu": 4816,
      "irection": 4817,
      "otherwise": 4818,
      "cold": 4819,
      "guests": 4820,
      "calls": 4821,
      "developing": 4822,
      "values": 4823,
      "practices": 4824,
      "cleaning": 4825,
      "\",": 4826,
      "Ter": 4827,
      "Wel": 4828,
      "federal": 4829,
      "assign": 4830,
      "critical": 4831,
      "testing": 4832,
      "gal": 4833,
      "edge": 4834,
      "umn": 4835,
      "cretary": 4836,
      "mentioned": 4837,
      "Director": 4838,
      "FID": 4839,
      "Paul": 4840,
      "eth": 4841,
      "seat": 4842,
      "plug": 4843,
      "teen": 4844,
      "pleas": 4845,
      "cars": 4846,
      "surv": 4847,
      "Commission": 4848,
      "finding": 4849,
      "situ": 4850,
      "expand": 4851,
      "advance": 4852,
      "initi": 4853,
      "nutr": 4854,
      "Sub": 4855,
      "ox": 4856,
      "pow": 4857,
      "task": 4858,
      "vac": 4859,
      "ancing": 4860,
      "ena": 4861,
      "elig": 4862,
      "iger": 4863,
      "cket": 4864,
      "famous": 4865,
      "lamp": 4866,
      "mes": 4867,
      "exhib": 4868,
      "passed": 4869,
      "biggest": 4870,
      "Chinese": 4871,
      "Call": 4872,
      "Last": 4873,
      "PL": 4874,
      "bought": 4875,
      "fing": 4876,
      "posit": 4877,
      "teams": 4878,
      "graphic": 4879,
      "combination": 4880,
      "hotel": 4881,
      "distance": 4882,
      "39": 4883,
      "Set": 4884,
      "gone": 4885,
      "score": 4886,
      "aser": 4887,
      "older": 4888,
      "mechan": 4889,
      "listed": 4890,
      "window": 4891,
      "agram": 4892,
      "49": 4893,
      "dump": 4894,
      "assu": 4895,
      "ican": 4896,
      "wash": 4897,
      "evening": 4898,
      "General": 4899,
      "described": 4900,
      "hur": 4901,
      "ju": 4902,
      "lor": 4903,
      "lux": 4904,
      "island": 4905,
      "acity": 4906,
      "roid": 4907,
      "utter": 4908,
      "trade": 4909,
      "attempt": 4910,
      "greater": 4911,
      "USA": 4912,
      "status": 4913,
      "Christian": 4914,
      "miles": 4915,
      "separate": 4916,
      "scale": 4917,
      "Oh": 4918,
      "eight": 4919,
      "lets": 4920,
      "rote": 4921,
      "becomes": 4922,
      "utely": 4923,
      "sharing": 4924,
      "Who": 4925,
      "Ann": 4926,
      "marks": 4927,
      "handle": 4928,
      "AB": 4929,
      "actual": 4930,
      "Cho": 4931,
      "anging": 4932,
      "obvious": 4933,
      "relig": 4934,
      "News": 4935,
      "allowing": 4936,
      "metal": 4937,
      "EX": 4938,
      "Fol": 4939,
      "Mer": 4940,
      "wife": 4941,
      "erous": 4942,
      "orial": 4943,
      "itors": 4944,
      "trou": 4945,
      "majority": 4946,
      "William": 4947,
      "announced": 4948,
      "Government": 4949,
      "Lin": 4950,
      "ba": 4951,
      "lap": 4952,
      "mist": 4953,
      "yes": 4954,
      "ying": 4955,
      "throw": 4956,
      "ancy": 4957,
      "academ": 4958,
      "ctors": 4959,
      "disease": 4960,
      "Under": 4961,
      "couldn": 4962,
      "2007": 4963,
      "opened": 4964,
      "society": 4965,
      "placement": 4966,
      "motion": 4967,
      "middle": 4968,
      "continued": 4969,
      "ros": 4970,
      "sole": 4971,
      "Child": 4972,
      "presents": 4973,
      "police": 4974,
      "north": 4975,
      "installed": 4976,
      "shoot": 4977,
      "filled": 4978,
      "suitable": 4979,
      "palm": 4980,
      "alternative": 4981,
      "fantastic": 4982,
      "Ener": 4983,
      "PM": 4984,
      "eating": 4985,
      "election": 4986,
      "lunch": 4987,
      "race": 4988,
      "forget": 4989,
      "spread": 4990,
      "Chic": 4991,
      "central": 4992,
      "decide": 4993,
      "locations": 4994,
      "prepared": 4995,
      "industrial": 4996,
      "thousands": 4997,
      "comprehensive": 4998,
      "Mart": 4999,
      "ios": 5000,
      "nel": 5001,
      "rum": 5002,
      "willing": 5003,
      "dete": 5004,
      "himself": 5005,
      "Phone": 5006,
      "____": 5007,
      "journal": 5008,
      "Washington": 5009,
      "Bre": 5010,
      "Bal": 5011,
      "Bas": 5012,
      "Found": 5013,
      "HD": 5014,
      "Mic": 5015,
      "Nat": 5016,
      "Rich": 5017,
      "SC": 5018,
      "ga": 5019,
      "nom": 5020,
      "psych": 5021,
      "leaves": 5022,
      "iling": 5023,
      "sugar": 5024,
      "techniques": 5025,
      "parent": 5026,
      "remains": 5027,
      "egg": 5028,
      "ride": 5029,
      "wrote": 5030,
      "lean": 5031,
      "cep": 5032,
      "modif": 5033,
      "quir": 5034,
      "perspect": 5035,
      "Commit": 5036,
      "elections": 5037,
      "scene": 5038,
      "Republic": 5039,
      "houses": 5040,
      "batter": 5041,
      "wire": 5042,
      "shape": 5043,
      "earning": 5044,
      "designs": 5045,
      "communities": 5046,
      "sched": 5047,
      "economy": 5048,
      "primary": 5049,
      "River": 5050,
      "direction": 5051,
      "yard": 5052,
      "stal": 5053,
      "apter": 5054,
      "debt": 5055,
      "polit": 5056,
      "seconds": 5057,
      "square": 5058,
      "figure": 5059,
      "faith": 5060,
      "organizations": 5061,
      "DA": 5062,
      "Its": 5063,
      "gun": 5064,
      "iency": 5065,
      "sco": 5066,
      "south": 5067,
      "eds": 5068,
      "ota": 5069,
      "presence": 5070,
      "archite": 5071,
      "shops": 5072,
      "detailed": 5073,
      "strength": 5074,
      "IG": 5075,
      "OF": 5076,
      "ibe": 5077,
      "mort": 5078,
      "beat": 5079,
      "haven": 5080,
      "cloud": 5081,
      "solid": 5082,
      "processes": 5083,
      "cultural": 5084,
      "Fort": 5085,
      "daughter": 5086,
      "whatever": 5087,
      "berg": 5088,
      "driver": 5089,
      "34": 5090,
      "TS": 5091,
      "toward": 5092,
      "talent": 5093,
      "2008": 5094,
      "advanced": 5095,
      "package": 5096,
      "flowers": 5097,
      "FIDO": 5098,
      "Camp": 5099,
      "Press": 5100,
      "dur": 5101,
      "ror": 5102,
      "ries": 5103,
      "thers": 5104,
      "agon": 5105,
      "tech": 5106,
      "doctor": 5107,
      "format": 5108,
      "prec": 5109,
      "symp": 5110,
      "buildings": 5111,
      "technologies": 5112,
      "iverse": 5113,
      "origin": 5114,
      "Market": 5115,
      "committee": 5116,
      "Care": 5117,
      "Tal": 5118,
      "mand": 5119,
      "illustr": 5120,
      "emb": 5121,
      "trial": 5122,
      "brands": 5123,
      "bridge": 5124,
      "valid": 5125,
      "operations": 5126,
      "casino": 5127,
      "Organ": 5128,
      "ceedings": 5129,
      "Microsoft": 5130,
      "consumer": 5131,
      "Amazon": 5132,
      "FL": 5133,
      "Water": 5134,
      "bes": 5135,
      "repe": 5136,
      "tot": 5137,
      "uled": 5138,
      "spending": 5139,
      "corner": 5140,
      "ption": 5141,
      "calcul": 5142,
      "Product": 5143,
      "Online": 5144,
      "Plus": 5145,
      "electric": 5146,
      "population": 5147,
      "Mill": 5148,
      "Old": 5149,
      "Rom": 5150,
      "Show": 5151,
      "bid": 5152,
      "dut": 5153,
      "gall": 5154,
      "kick": 5155,
      "agency": 5156,
      "investig": 5157,
      "--------": 5158,
      "bathroom": 5159,
      "explore": 5160,
      "aspects": 5161,
      "Jesus": 5162,
      "800": 5163,
      "Back": 5164,
      "MP": 5165,
      "gage": 5166,
      "ingred": 5167,
      "ico": 5168,
      "abase": 5169,
      "hase": 5170,
      "brain": 5171,
      "interior": 5172,
      "websites": 5173,
      "polic": 5174,
      "leader": 5175,
      "director": 5176,
      "usual": 5177,
      "prepare": 5178,
      "Fire": 5179,
      "Hy": 5180,
      "Special": 5181,
      "Two": 5182,
      "Tues": 5183,
      "Vol": 5184,
      "ye": 5185,
      "eless": 5186,
      "quarter": 5187,
      "2000": 5188,
      "Stand": 5189,
      "phones": 5190,
      "factors": 5191,
      "stores": 5192,
      "schem": 5193,
      "rule": 5194,
      "slightly": 5195,
      "78": 5196,
      "Hum": 5197,
      "Lake": 5198,
      "Ve": 5199,
      "dinner": 5200,
      "rare": 5201,
      "sau": 5202,
      "poor": 5203,
      "update": 5204,
      "libr": 5205,
      "compar": 5206,
      "profile": 5207,
      "beauty": 5208,
      "installation": 5209,
      "measures": 5210,
      "appointed": 5211,
      "taste": 5212,
      "Distr": 5213,
      "Next": 5214,
      "Sil": 5215,
      "rail": 5216,
      "ture": 5217,
      "itude": 5218,
      "improv": 5219,
      "helpful": 5220,
      "foreign": 5221,
      "attach": 5222,
      "arrang": 5223,
      "ields": 5224,
      "element": 5225,
      "Energy": 5226,
      "MS": 5227,
      "RS": 5228,
      "die": 5229,
      "tun": 5230,
      "infr": 5231,
      "erve": 5232,
      "asp": 5233,
      "igence": 5234,
      "Thurs": 5235,
      "funding": 5236,
      "leads": 5237,
      "Before": 5238,
      "monthly": 5239,
      "characters": 5240,
      "RO": 5241,
      "Time": 5242,
      "patch": 5243,
      "zy": 5244,
      "asking": 5245,
      "icians": 5246,
      "youth": 5247,
      "adults": 5248,
      "deb": 5249,
      "meant": 5250,
      "evol": 5251,
      "markets": 5252,
      "manager": 5253,
      "paint": 5254,
      "teacher": 5255,
      "confidence": 5256,
      "climate": 5257,
      "absolutely": 5258,
      "Power": 5259,
      "fly": 5260,
      "ka": 5261,
      "rical": 5262,
      "ern": 5263,
      "becoming": 5264,
      "ams": 5265,
      "confl": 5266,
      "earth": 5267,
      "Star": 5268,
      "choices": 5269,
      "attor": 5270,
      "operating": 5271,
      "promote": 5272,
      "responsibility": 5273,
      "Simulation": 5274,
      "Network": 5275,
      "minimum": 5276,
      "District": 5277,
      "Emp": 5278,
      "French": 5279,
      "Mary": 5280,
      "kill": 5281,
      "estic": 5282,
      "artist": 5283,
      "anywhere": 5284,
      "noon": 5285,
      "guess": 5286,
      "properly": 5287,
      "military": 5288,
      "applied": 5289,
      "England": 5290,
      "fabric": 5291,
      "Development": 5292,
      "Fam": 5293,
      "List": 5294,
      "Public": 5295,
      "Sum": 5296,
      "cular": 5297,
      "reput": 5298,
      "agno": 5299,
      "illa": 5300,
      "outdoor": 5301,
      "proud": 5302,
      "worry": 5303,
      "crit": 5304,
      "awesome": 5305,
      "legis": 5306,
      "clearly": 5307,
      "excited": 5308,
      "girls": 5309,
      "Centre": 5310,
      "Angel": 5311,
      "Av": 5312,
      "Fun": 5313,
      "Pet": 5314,
      "View": 5315,
      "kers": 5316,
      "brief": 5317,
      "drivers": 5318,
      "Wednes": 5319,
      "chemical": 5320,
      "Photo": 5321,
      "Chicago": 5322,
      "Gen": 5323,
      "Pan": 5324,
      "civil": 5325,
      "fans": 5326,
      "pair": 5327,
      "vior": 5328,
      "residents": 5329,
      "achel": 5330,
      "bles": 5331,
      "epis": 5332,
      "demo": 5333,
      "Dep": 5334,
      "Gold": 5335,
      "burn": 5336,
      "gins": 5337,
      "argu": 5338,
      "unless": 5339,
      "deals": 5340,
      "Through": 5341,
      "liqu": 5342,
      "Trav": 5343,
      "belie": 5344,
      "Project": 5345,
      "closed": 5346,
      "azine": 5347,
      "walking": 5348,
      "delivered": 5349,
      "resolution": 5350,
      "scientific": 5351,
      "Tuesday": 5352,
      "BC": 5353,
      "Key": 5354,
      "dro": 5355,
      "rap": 5356,
      "sources": 5357,
      "apos": 5358,
      "invent": 5359,
      "facilities": 5360,
      "favour": 5361,
      "truth": 5362,
      "Keep": 5363,
      "satisf": 5364,
      "negative": 5365,
      "Note": 5366,
      "Table": 5367,
      "aj": 5368,
      "hall": 5369,
      "ov": 5370,
      "inet": 5371,
      "rec": 5372,
      "emer": 5373,
      "counting": 5374,
      "importance": 5375,
      "audio": 5376,
      "watching": 5377,
      "discussion": 5378,
      "Div": 5379,
      "Gal": 5380,
      "Main": 5381,
      "Master": 5382,
      "sis": 5383,
      "ugh": 5384,
      "edom": 5385,
      "chain": 5386,
      "proto": 5387,
      "istan": 5388,
      "cks": 5389,
      "prene": 5390,
      "visiting": 5391,
      "capacity": 5392,
      "runs": 5393,
      "holds": 5394,
      "App": 5395,
      "enjoyed": 5396,
      "Medical": 5397,
      "competition": 5398,
      "leadership": 5399,
      "Thursday": 5400,
      "CO": 5401,
      "Hor": 5402,
      "James": 5403,
      "ipe": 5404,
      "aining": 5405,
      "desk": 5406,
      "occup": 5407,
      "cycle": 5408,
      "exciting": 5409,
      "familiar": 5410,
      "Download": 5411,
      "Committee": 5412,
      "Ham": 5413,
      "Mob": 5414,
      "pin": 5415,
      "rac": 5416,
      "sector": 5417,
      "emerg": 5418,
      "artists": 5419,
      "anta": 5420,
      "prise": 5421,
      "thoughts": 5422,
      "purposes": 5423,
      "smaller": 5424,
      "Islam": 5425,
      "sounds": 5426,
      "encourage": 5427,
      "updated": 5428,
      "guarantee": 5429,
      "rupt": 5430,
      "maximum": 5431,
      "Cong": 5432,
      "Lab": 5433,
      "kid": 5434,
      "rise": 5435,
      "rub": 5436,
      "reme": 5437,
      "irt": 5438,
      "conv": 5439,
      "constit": 5440,
      "bling": 5441,
      "committed": 5442,
      "survey": 5443,
      "anned": 5444,
      "ships": 5445,
      "educational": 5446,
      "Glo": 5447,
      "km": 5448,
      "rat": 5449,
      "thick": 5450,
      "accompl": 5451,
      "elimin": 5452,
      "sey": 5453,
      "proposed": 5454,
      "oph": 5455,
      "acts": 5456,
      "Institute": 5457,
      "ounds": 5458,
      "busy": 5459,
      "Team": 5460,
      "jobs": 5461,
      "Engine": 5462,
      "strategies": 5463,
      "neighbor": 5464,
      "hospital": 5465,
      "British": 5466,
      "Scottish": 5467,
      "policies": 5468,
      "Mel": 5469,
      "Mach": 5470,
      "mel": 5471,
      "mouth": 5472,
      "ode": 5473,
      "sport": 5474,
      "icon": 5475,
      "iled": 5476,
      "contr": 5477,
      "trig": 5478,
      "ourselves": 5479,
      "plastic": 5480,
      "boat": 5481,
      "crete": 5482,
      "sphere": 5483,
      "owned": 5484,
      "showing": 5485,
      "Frank": 5486,
      "paying": 5487,
      "happens": 5488,
      "approxim": 5489,
      "ifying": 5490,
      "settings": 5491,
      "premium": 5492,
      "partnership": 5493,
      "Wednesday": 5494,
      "77": 5495,
      "Bur": 5496,
      "Brow": 5497,
      "ais": 5498,
      "fest": 5499,
      "jack": 5500,
      "ya": 5501,
      "ini": 5502,
      "yout": 5503,
      "Their": 5504,
      "output": 5505,
      "notes": 5506,
      "delicious": 5507,
      "joined": 5508,
      "numerous": 5509,
      "Management": 5510,
      "dynam": 5511,
      "trees": 5512,
      "error": 5513,
      "inspired": 5514,
      "fortunately": 5515,
      ".)": 5516,
      "1st": 5517,
      "Def": 5518,
      "nav": 5519,
      "arrow": 5520,
      "leaving": 5521,
      "cohol": 5522,
      "formed": 5523,
      "creation": 5524,
      "cris": 5525,
      "manner": 5526,
      "apped": 5527,
      "calling": 5528,
      "provider": 5529,
      "classes": 5530,
      "species": 5531,
      "hydr": 5532,
      "typically": 5533,
      "radio": 5534,
      "automatically": 5535,
      "Cert": 5536,
      "Jour": 5537,
      "Wil": 5538,
      "eco": 5539,
      "ij": 5540,
      "pon": 5541,
      "adopt": 5542,
      "registration": 5543,
      "publish": 5544,
      "Music": 5545,
      "AA": 5546,
      "Blo": 5547,
      "Creat": 5548,
      "DO": 5549,
      "Det": 5550,
      "ta": 5551,
      "yer": 5552,
      "aled": 5553,
      "cean": 5554,
      "boost": 5555,
      "concerns": 5556,
      "selected": 5557,
      "vehicles": 5558,
      "German": 5559,
      "Hall": 5560,
      "Miss": 5561,
      "Tom": 5562,
      "dim": 5563,
      "gate": 5564,
      "inct": 5565,
      "prin": 5566,
      "colour": 5567,
      "courses": 5568,
      "listen": 5569,
      "Royal": 5570,
      "remote": 5571,
      "claims": 5572,
      "motor": 5573,
      "sessions": 5574,
      "certific": 5575,
      "Community": 5576,
      "guidance": 5577,
      "Bed": 5578,
      "Fil": 5579,
      "Flo": 5580,
      "Qual": 5581,
      "Ru": 5582,
      "faster": 5583,
      "hes": 5584,
      "td": 5585,
      "approved": 5586,
      "hael": 5587,
      "crim": 5588,
      "brings": 5589,
      "flat": 5590,
      "starts": 5591,
      "azz": 5592,
      "generation": 5593,
      "volume": 5594,
      "reached": 5595,
      "speaking": 5596,
      "Virgin": 5597,
      "42": 5598,
      "Bud": 5599,
      "Fre": 5600,
      "Kind": 5601,
      "LL": 5602,
      "Mil": 5603,
      "Mountain": 5604,
      "Using": 5605,
      "unning": 5606,
      "meal": 5607,
      "knows": 5608,
      "goods": 5609,
      "Section": 5610,
      "depending": 5611,
      "protein": 5612,
      "recommended": 5613,
      "channel": 5614,
      "institutions": 5615,
      "Congress": 5616,
      "Cus": 5617,
      "Gar": 5618,
      "Happ": 5619,
      "Pres": 5620,
      "pa": 5621,
      "aters": 5622,
      "eline": 5623,
      "rot": 5624,
      "ador": 5625,
      "proof": 5626,
      "conserv": 5627,
      "Those": 5628,
      "brush": 5629,
      "intage": 5630,
      "rental": 5631,
      "visual": 5632,
      "clos": 5633,
      "Only": 5634,
      "interests": 5635,
      "operate": 5636,
      "Both": 5637,
      "Road": 5638,
      "practical": 5639,
      "assessment": 5640,
      "tickets": 5641,
      "incredible": 5642,
      "37": 5643,
      "iest": 5644,
      "instru": 5645,
      "enable": 5646,
      "entre": 5647,
      "ulate": 5648,
      "colate": 5649,
      "sym": 5650,
      "putting": 5651,
      "posts": 5652,
      "payments": 5653,
      "happened": 5654,
      "broken": 5655,
      "diagno": 5656,
      "schol": 5657,
      "Media": 5658,
      "appointment": 5659,
      "expertise": 5660,
      "sauce": 5661,
      "Hist": 5662,
      "NOT": 5663,
      "Peter": 5664,
      "reci": 5665,
      "reference": 5666,
      "itate": 5667,
      "iron": 5668,
      "termin": 5669,
      "propos": 5670,
      "desire": 5671,
      "caused": 5672,
      "memory": 5673,
      "consci": 5674,
      "sky": 5675,
      "continues": 5676,
      "Series": 5677,
      "influence": 5678,
      "accurate": 5679,
      "temperature": 5680,
      "47": 5681,
      "CB": 5682,
      "Cy": 5683,
      "Sing": 5684,
      "dial": 5685,
      "rics": 5686,
      "sha": 5687,
      "construct": 5688,
      "decre": 5689,
      "odies": 5690,
      "princ": 5691,
      "portion": 5692,
      "intell": 5693,
      "Food": 5694,
      "assistance": 5695,
      "tasks": 5696,
      "perspective": 5697,
      "DS": 5698,
      "Lou": 5699,
      "NO": 5700,
      "itar": 5701,
      "itage": 5702,
      "truck": 5703,
      "ulty": 5704,
      "weak": 5705,
      "shap": 5706,
      "coast": 5707,
      "performed": 5708,
      "norm": 5709,
      "documents": 5710,
      "awareness": 5711,
      "eligible": 5712,
      "Ev": 5713,
      "UC": 5714,
      "Word": 5715,
      "kit": 5716,
      "py": 5717,
      "rd": 5718,
      "tough": 5719,
      "loans": 5720,
      "fear": 5721,
      "phil": 5722,
      "mostly": 5723,
      "ciples": 5724,
      "Lead": 5725,
      "claimed": 5726,
      "feedback": 5727,
      "television": 5728,
      "instructions": 5729,
      "56": 5730,
      "BA": 5731,
      "Den": 5732,
      "Ir": 5733,
      "Los": 5734,
      "Pass": 5735,
      "Person": 5736,
      "fold": 5737,
      "u09": 5738,
      "acter": 5739,
      "shar": 5740,
      "arts": 5741,
      "covers": 5742,
      "intended": 5743,
      "despite": 5744,
      "Ass": 5745,
      "ulture": 5746,
      "Security": 5747,
      "ficient": 5748,
      "bigger": 5749,
      "Academ": 5750,
      "Scot": 5751,
      "honest": 5752,
      "channels": 5753,
      "Science": 5754,
      "database": 5755,
      "entreprene": 5756,
      "85": 5757,
      "UI": 5758,
      "jun": 5759,
      "rating": 5760,
      "sor": 5761,
      "vies": 5762,
      "department": 5763,
      "ups": 5764,
      "ibilities": 5765,
      "curren": 5766,
      "Secretary": 5767,
      "2005": 5768,
      "possibly": 5769,
      "tests": 5770,
      "electronic": 5771,
      "defined": 5772,
      "environmental": 5773,
      "Contact": 5774,
      "Technology": 5775,
      "Sou": 5776,
      "Town": 5777,
      "ae": 5778,
      "cities": 5779,
      "hub": 5780,
      "rank": 5781,
      "verse": 5782,
      "concent": 5783,
      "2004": 5784,
      "sitting": 5785,
      "facing": 5786,
      "supplies": 5787,
      "Bet": 5788,
      "Cas": 5789,
      "Eas": 5790,
      "Jon": 5791,
      "ech": 5792,
      "none": 5793,
      "papers": 5794,
      "insul": 5795,
      "soil": 5796,
      "bled": 5797,
      "firms": 5798,
      "readers": 5799,
      "guard": 5800,
      "instant": 5801,
      "Soci": 5802,
      "signed": 5803,
      "Coast": 5804,
      "trained": 5805,
      "stead": 5806,
      "teachers": 5807,
      "shoes": 5808,
      "licens": 5809,
      "animals": 5810,
      "distribution": 5811,
      "Sar": 5812,
      "hire": 5813,
      "tight": 5814,
      "agent": 5815,
      "upload": 5816,
      "indo": 5817,
      "acks": 5818,
      "izon": 5819,
      "Proceedings": 5820,
      "supported": 5821,
      "shipping": 5822,
      "Execut": 5823,
      "successfully": 5824,
      "perfectly": 5825,
      "reduced": 5826,
      "browser": 5827,
      "surrounding": 5828,
      "category": 5829,
      "reliable": 5830,
      "citiz": 5831,
      "totally": 5832,
      "Mobile": 5833,
      "EE": 5834,
      "Swed": 5835,
      "bour": 5836,
      "eries": 5837,
      "atures": 5838,
      "coal": 5839,
      "hook": 5840,
      "strugg": 5841,
      "laws": 5842,
      "combined": 5843,
      "Follow": 5844,
      "Ag": 5845,
      "Mich": 5846,
      "NE": 5847,
      "RA": 5848,
      "gment": 5849,
      "revenue": 5850,
      "records": 5851,
      "assets": 5852,
      "depart": 5853,
      "aint": 5854,
      "ipes": 5855,
      "spin": 5856,
      "commission": 5857,
      "simulation": 5858,
      "2006": 5859,
      "Place": 5860,
      "Grand": 5861,
      "milk": 5862,
      "burg": 5863,
      "doubt": 5864,
      "behavior": 5865,
      "ingredients": 5866,
      "Bank": 5867,
      "Hope": 5868,
      "Sand": 5869,
      "Ze": 5870,
      "ko": 5871,
      "lit": 5872,
      "wing": 5873,
      "ald": 5874,
      "trick": 5875,
      "expo": 5876,
      "internal": 5877,
      "encing": 5878,
      "flight": 5879,
      "engagement": 5880,
      "providers": 5881,
      "salt": 5882,
      "ception": 5883,
      "facility": 5884,
      "Medic": 5885,
      "circum": 5886,
      "seemed": 5887,
      "occasion": 5888,
      "recipe": 5889,
      "150": 5890,
      "NC": 5891,
      "OP": 5892,
      "Sha": 5893,
      "Sign": 5894,
      "Van": 5895,
      "ault": 5896,
      "hun": 5897,
      "afternoon": 5898,
      "depth": 5899,
      "cycl": 5900,
      "styles": 5901,
      "eventually": 5902,
      "ALL": 5903,
      "historical": 5904,
      "affordable": 5905,
      "DI": 5906,
      "Lat": 5907,
      "dance": 5908,
      "danger": 5909,
      "atmo": 5910,
      "units": 5911,
      "complain": 5912,
      "neys": 5913,
      "discovered": 5914,
      "medium": 5915,
      "topic": 5916,
      "guys": 5917,
      "glad": 5918,
      "Rock": 5919,
      "meetings": 5920,
      "graphy": 5921,
      "specifically": 5922,
      "confident": 5923,
      "domain": 5924,
      "license": 5925,
      "conducted": 5926,
      "determined": 5927,
      "conversation": 5928,
      "components": 5929,
      "hundreds": 5930,
      "Michael": 5931,
      "Cre": 5932,
      "Di": 5933,
      "Ha": 5934,
      "Ko": 5935,
      "Lim": 5936,
      "Long": 5937,
      "died": 5938,
      "gifts": 5939,
      "kins": 5940,
      "aly": 5941,
      "susp": 5942,
      "mode": 5943,
      "fees": 5944,
      "phen": 5945,
      "wouldn": 5946,
      "seeking": 5947,
      "stands": 5948,
      "supporting": 5949,
      "Color": 5950,
      "employment": 5951,
      "tructure": 5952,
      "reasonable": 5953,
      "qualified": 5954,
      "**": 5955,
      "Alex": 5956,
      "Bill": 5957,
      "Tor": 5958,
      "YOU": 5959,
      "bust": 5960,
      "iPhone": 5961,
      "alcohol": 5962,
      "stated": 5963,
      "roy": 5964,
      "seats": 5965,
      "chick": 5966,
      "articles": 5967,
      "seek": 5968,
      "ski": 5969,
      "supports": 5970,
      "Island": 5971,
      "foods": 5972,
      "wheel": 5973,
      "domin": 5974,
      "Russian": 5975,
      "enhance": 5976,
      "accommod": 5977,
      "symptom": 5978,
      "41": 5979,
      "Ltd": 5980,
      "SP": 5981,
      "pil": 5982,
      "ered": 5983,
      "abled": 5984,
      "urban": 5985,
      "complic": 5986,
      "ulous": 5987,
      "plates": 5988,
      "exchange": 5989,
      "Thom": 5990,
      "liament": 5991,
      "discount": 5992,
      "regional": 5993,
      "flag": 5994,
      "submit": 5995,
      "appeared": 5996,
      "purchased": 5997,
      "moments": 5998,
      "recovery": 5999,
      "aught": 6000,
      "Family": 6001,
      "approximately": 6002,
      "bio": 6003,
      "divid": 6004,
      "hid": 6005,
      "ien": 6006,
      "iage": 6007,
      "mut": 6008,
      "’.": 6009,
      "stre": 6010,
      "stances": 6011,
      "accounts": 6012,
      "amb": 6013,
      "expl": 6014,
      "umin": 6015,
      "ipping": 6016,
      "asting": 6017,
      "positions": 6018,
      "centre": 6019,
      "emphas": 6020,
      "arrant": 6021,
      "Environment": 6022,
      "appears": 6023,
      "machines": 6024,
      "Paris": 6025,
      "agreed": 6026,
      "songs": 6027,
      "introduced": 6028,
      "witter": 6029,
      "carried": 6030,
      "Having": 6031,
      "Ly": 6032,
      "NY": 6033,
      "fle": 6034,
      "tut": 6035,
      "tons": 6036,
      "tables": 6037,
      "ws": 6038,
      "ician": 6039,
      "omen": 6040,
      "beam": 6041,
      "Chris": 6042,
      "oga": 6043,
      "Assembly": 6044,
      "plays": 6045,
      "joint": 6046,
      "instance": 6047,
      "showed": 6048,
      "charges": 6049,
      "missed": 6050,
      "cutting": 6051,
      "Does": 6052,
      "panel": 6053,
      "walls": 6054,
      "Central": 6055,
      "removed": 6056,
      "route": 6057,
      "announce": 6058,
      "birthday": 6059,
      "procedure": 6060,
      "Hill": 6061,
      "UR": 6062,
      "gs": 6063,
      "vary": 6064,
      "inch": 6065,
      "ano": 6066,
      "elines": 6067,
      "outs": 6068,
      "Head": 6069,
      "factor": 6070,
      "effectively": 6071,
      "graphics": 6072,
      "membership": 6073,
      "cooking": 6074,
      "participants": 6075,
      "accepted": 6076,
      "George": 6077,
      "demonstr": 6078,
      "opinion": 6079,
      "Foundation": 6080,
      "Cat": 6081,
      "Cup": 6082,
      "FA": 6083,
      "LE": 6084,
      "Museum": 6085,
      "Que": 6086,
      "dent": 6087,
      "phase": 6088,
      "sides": 6089,
      "yo": 6090,
      "replace": 6091,
      "ita": 6092,
      "excess": 6093,
      "quiet": 6094,
      "therapy": 6095,
      "coin": 6096,
      "ipal": 6097,
      "ensions": 6098,
      "posite": 6099,
      "raised": 6100,
      "promise": 6101,
      "painting": 6102,
      "returned": 6103,
      "ticket": 6104,
      "appreciate": 6105,
      "Op": 6106,
      "Vill": 6107,
      "obl": 6108,
      "wis": 6109,
      "inations": 6110,
      "astructure": 6111,
      "agents": 6112,
      "consequ": 6113,
      "extract": 6114,
      "pep": 6115,
      "tea": 6116,
      "aks": 6117,
      "apps": 6118,
      "Server": 6119,
      "consumers": 6120,
      "entertainment": 6121,
      "valuable": 6122,
      "Card": 6123,
      "Mad": 6124,
      "Western": 6125,
      "lived": 6126,
      "pitch": 6127,
      "editor": 6128,
      "lymp": 6129,
      "uries": 6130,
      "movies": 6131,
      "chocolate": 6132,
      "presentation": 6133,
      "Beaut": 6134,
      "Room": 6135,
      "holders": 6136,
      "senior": 6137,
      "previously": 6138,
      "Support": 6139,
      "cepts": 6140,
      "Journal": 6141,
      "65": 6142,
      "Ill": 6143,
      "MO": 6144,
      "Tour": 6145,
      "Test": 6146,
      "fields": 6147,
      "input": 6148,
      "aker": 6149,
      "pregn": 6150,
      "cient": 6151,
      "belong": 6152,
      "raise": 6153,
      "pursu": 6154,
      "commitment": 6155,
      "innovation": 6156,
      "Japanese": 6157,
      "powder": 6158,
      "academic": 6159,
      "AI": 6160,
      "Lar": 6161,
      "Ros": 6162,
      "Tit": 6163,
      "jump": 6164,
      "kin": 6165,
      "vas": 6166,
      "contemporary": 6167,
      "Android": 6168,
      "Social": 6169,
      "2003": 6170,
      "keeps": 6171,
      "faces": 6172,
      "holding": 6173,
      "Maybe": 6174,
      "equipped": 6175,
      "Johnson": 6176,
      "participate": 6177,
      "football": 6178,
      "fixed": 6179,
      "division": 6180,
      "spiritual": 6181,
      "estyle": 6182,
      "Human": 6183,
      "Know": 6184,
      "Vide": 6185,
      "eper": 6186,
      "fuel": 6187,
      "kn": 6188,
      "river": 6189,
      "saving": 6190,
      "wick": 6191,
      "secut": 6192,
      "poly": 6193,
      "ipped": 6194,
      "predict": 6195,
      "justice": 6196,
      "functions": 6197,
      "breath": 6198,
      "accessible": 6199,
      "facil": 6200,
      "kinds": 6201,
      "windows": 6202,
      "graduate": 6203,
      "landscape": 6204,
      "Italian": 6205,
      "exclusive": 6206,
      "dollars": 6207,
      "Welcome": 6208,
      "Executive": 6209,
      "??": 6210,
      "BE": 6211,
      "Bra": 6212,
      "Did": 6213,
      "Further": 6214,
      "Kar": 6215,
      "LO": 6216,
      "Such": 6217,
      "atre": 6218,
      "arms": 6219,
      "oles": 6220,
      "outstanding": 6221,
      "quot": 6222,
      "bless": 6223,
      "reek": 6224,
      "serves": 6225,
      "clothes": 6226,
      "Enter": 6227,
      "feels": 6228,
      "Code": 6229,
      "networks": 6230,
      "arent": 6231,
      "brother": 6232,
      "researchers": 6233,
      "esterday": 6234,
      "index": 6235,
      "Scotland": 6236,
      "66": 6237,
      "fishing": 6238,
      "sac": 6239,
      "til": 6240,
      "alle": 6241,
      "alog": 6242,
      "sex": 6243,
      "adapt": 6244,
      "berry": 6245,
      "knowing": 6246,
      "choos": 6247,
      "Union": 6248,
      "Comput": 6249,
      "Second": 6250,
      "France": 6251,
      "missing": 6252,
      "swim": 6253,
      "protected": 6254,
      "appearance": 6255,
      "About": 6256,
      "twice": 6257,
      "luxury": 6258,
      "Global": 6259,
      "EP": 6260,
      "Er": 6261,
      "Sometimes": 6262,
      "Watch": 6263,
      "fro": 6264,
      "sight": 6265,
      "eras": 6266,
      "recording": 6267,
      "forced": 6268,
      "hearing": 6269,
      "ula": 6270,
      "ulations": 6271,
      "ternal": 6272,
      "substant": 6273,
      "extensive": 6274,
      "charged": 6275,
      "ordinary": 6276,
      "matters": 6277,
      "Phys": 6278,
      "bringing": 6279,
      "motiv": 6280,
      "concerned": 6281,
      "referred": 6282,
      "failure": 6283,
      "informed": 6284,
      "exposure": 6285,
      "2nd": 6286,
      "52": 6287,
      "Bir": 6288,
      "Fall": 6289,
      "Land": 6290,
      "Mont": 6291,
      "adium": 6292,
      "noticed": 6293,
      "compare": 6294,
      "hero": 6295,
      "enger": 6296,
      "stored": 6297,
      "risks": 6298,
      "treated": 6299,
      "AG": 6300,
      "Bi": 6301,
      "Full": 6302,
      "Ken": 6303,
      "Source": 6304,
      "Tim": 6305,
      "cot": 6306,
      "pull": 6307,
      "sized": 6308,
      "sizes": 6309,
      "tics": 6310,
      "uated": 6311,
      "vend": 6312,
      "improved": 6313,
      "encoun": 6314,
      "minor": 6315,
      "personally": 6316,
      "identity": 6317,
      "carefully": 6318,
      "reporting": 6319,
      "considering": 6320,
      "competitive": 6321,
      "certified": 6322,
      "regularly": 6323,
      "accident": 6324,
      "emotional": 6325,
      "liquid": 6326,
      "64": 6327,
      "Access": 6328,
      "Ide": 6329,
      "LED": 6330,
      "Mat": 6331,
      "bell": 6332,
      "cm": 6333,
      "ito": 6334,
      "vintage": 6335,
      "infl": 6336,
      "restrict": 6337,
      "itoring": 6338,
      "omb": 6339,
      "university": 6340,
      "ema": 6341,
      "planned": 6342,
      "aft": 6343,
      "relatively": 6344,
      "realize": 6345,
      "missions": 6346,
      "Robert": 6347,
      "platforms": 6348,
      "routine": 6349,
      "estimated": 6350,
      "estimates": 6351,
      "sufficient": 6352,
      "satisfact": 6353,
      "emergency": 6354,
      "criminal": 6355,
      "Beach": 6356,
      "Jim": 6357,
      "Ow": 6358,
      "Olymp": 6359,
      "Tube": 6360,
      "fell": 6361,
      "vital": 6362,
      "edition": 6363,
      "itis": 6364,
      "forces": 6365,
      "concrete": 6366,
      "ounts": 6367,
      "boys": 6368,
      "awa": 6369,
      "Champion": 6370,
      "guy": 6371,
      "writ": 6372,
      "Franc": 6373,
      "lasting": 6374,
      "Prince": 6375,
      "investors": 6376,
      "featuring": 6377,
      "audi": 6378,
      "iteria": 6379,
      "integrated": 6380,
      "brown": 6381,
      "Hotel": 6382,
      "igration": 6383,
      "female": 6384,
      "conflict": 6385,
      "rapid": 6386,
      "philos": 6387,
      "Econom": 6388,
      "GB": 6389,
      "Hi": 6390,
      "Mos": 6391,
      "Vo": 6392,
      "Was": 6393,
      "pod": 6394,
      "tes": 6395,
      "ander": 6396,
      "heav": 6397,
      "ols": 6398,
      "agric": 6399,
      "Though": 6400,
      "Stat": 6401,
      "forest": 6402,
      "ictor": 6403,
      "greatest": 6404,
      "worldwide": 6405,
      "salad": 6406,
      "happening": 6407,
      "musical": 6408,
      "Perform": 6409,
      "recognized": 6410,
      "parking": 6411,
      "Smart": 6412,
      "administr": 6413,
      "administration": 6414,
      "imagine": 6415,
      "Members": 6416,
      "flexible": 6417,
      "Review": 6418,
      "village": 6419,
      "Happy": 6420,
      "DV": 6421,
      "Soft": 6422,
      "TR": 6423,
      "].": 6424,
      "bread": 6425,
      "battle": 6426,
      "gender": 6427,
      "ero": 6428,
      "usher": 6429,
      "resource": 6430,
      "context": 6431,
      "chosen": 6432,
      "writer": 6433,
      "muscle": 6434,
      "prompt": 6435,
      "Canad": 6436,
      "Control": 6437,
      "freedom": 6438,
      "dogs": 6439,
      "Germany": 6440,
      "sample": 6441,
      "virtual": 6442,
      "situations": 6443,
      "battery": 6444,
      "library": 6445,
      "ught": 6446,
      "BM": 6447,
      "Live": 6448,
      "Us": 6449,
      "VER": 6450,
      "athe": 6451,
      "fal": 6452,
      "fas": 6453,
      "gard": 6454,
      "anx": 6455,
      "tox": 6456,
      "opy": 6457,
      "acknow": 6458,
      "blind": 6459,
      "manual": 6460,
      "letters": 6461,
      "Cond": 6462,
      "belief": 6463,
      "Atl": 6464,
      "equal": 6465,
      "gery": 6466,
      "picked": 6467,
      "challenging": 6468,
      "procedures": 6469,
      "IA": 6470,
      "SU": 6471,
      "sister": 6472,
      "uc": 6473,
      "incorpor": 6474,
      "anes": 6475,
      "icial": 6476,
      "leather": 6477,
      "root": 6478,
      "amed": 6479,
      "confirm": 6480,
      "embr": 6481,
      "quant": 6482,
      "achieved": 6483,
      "ultural": 6484,
      "Prov": 6485,
      "Arab": 6486,
      "Tele": 6487,
      "Minister": 6488,
      "messages": 6489,
      "recorded": 6490,
      "innovative": 6491,
      "convenient": 6492,
      "inspiration": 6493,
      "scheduled": 6494,
      "infrastructure": 6495,
      "Society": 6496,
      "Ep": 6497,
      "Saf": 6498,
      "ius": 6499,
      "mous": 6500,
      "script": 6501,
      "wet": 6502,
      "ication": 6503,
      "adata": 6504,
      "wealth": 6505,
      "spaces": 6506,
      "aka": 6507,
      "caught": 6508,
      "sett": 6509,
      "basically": 6510,
      "signs": 6511,
      "generate": 6512,
      "organic": 6513,
      "resulting": 6514,
      "receiving": 6515,
      "lifestyle": 6516,
      "atoes": 6517,
      "Instagram": 6518,
      "Clean": 6519,
      "Hand": 6520,
      "Oper": 6521,
      "Rad": 6522,
      "SM": 6523,
      "WH": 6524,
      "mad": 6525,
      "nu": 6526,
      "pto": 6527,
      "stim": 6528,
      "forum": 6529,
      "bear": 6530,
      "suc": 6531,
      "agencies": 6532,
      "weap": 6533,
      "asts": 6534,
      "county": 6535,
      "mont": 6536,
      "bask": 6537,
      "identified": 6538,
      "cheese": 6539,
      "legant": 6540,
      "cute": 6541,
      "unders": 6542,
      "Manager": 6543,
      "telling": 6544,
      "manufacturing": 6545,
      "bingo": 6546,
      "efficiency": 6547,
      "consistent": 6548,
      "regulations": 6549,
      "frequently": 6550,
      "manufacturer": 6551,
      "reputation": 6552,
      "principles": 6553,
      "Louis": 6554,
      "symptoms": 6555,
      "59": 6556,
      "Du": 6557,
      "Dig": 6558,
      "Fest": 6559,
      "Rest": 6560,
      "Search": 6561,
      "bike": 6562,
      "gor": 6563,
      "lie": 6564,
      "instruction": 6565,
      "stars": 6566,
      "aming": 6567,
      "univers": 6568,
      "convention": 6569,
      "negot": 6570,
      "upper": 6571,
      "meat": 6572,
      "workshop": 6573,
      "compens": 6574,
      "cipl": 6575,
      "attemp": 6576,
      "topics": 6577,
      "marked": 6578,
      "Commer": 6579,
      "Training": 6580,
      "arrived": 6581,
      "capable": 6582,
      "Cloud": 6583,
      "Admin": 6584,
      "organized": 6585,
      "fourth": 6586,
      "breakfast": 6587,
      "officials": 6588,
      "Valley": 6589,
      "volunteers": 6590,
      "CEO": 6591,
      "transportation": 6592,
      "Spring": 6593,
      "Virginia": 6594,
      "atmosphere": 6595,
      "Jun": 6596,
      "Twitter": 6597,
      "UT": 6598,
      "iety": 6599,
      "taught": 6600,
      "thin": 6601,
      "replacement": 6602,
      "ende": 6603,
      "ilst": 6604,
      "begins": 6605,
      "sud": 6606,
      "tered": 6607,
      "prospect": 6608,
      "quar": 6609,
      "endant": 6610,
      "grat": 6611,
      "portfol": 6612,
      "everyday": 6613,
      "ifications": 6614,
      "linked": 6615,
      "Airport": 6616,
      "discussed": 6617,
      "Article": 6618,
      "launched": 6619,
      "witness": 6620,
      "capture": 6621,
      "incredibly": 6622,
      "Italy": 6623,
      "hidden": 6624,
      "400": 6625,
      "Chair": 6626,
      "Dut": 6627,
      "Four": 6628,
      "Game": 6629,
      "Iran": 6630,
      "Mot": 6631,
      "Ul": 6632,
      "VA": 6633,
      "raw": 6634,
      "stations": 6635,
      "height": 6636,
      "ulated": 6637,
      "shots": 6638,
      "covery": 6639,
      "brid": 6640,
      "auth": 6641,
      "counsel": 6642,
      "hole": 6643,
      "simpl": 6644,
      "Prote": 6645,
      "closer": 6646,
      "solve": 6647,
      "legs": 6648,
      "possess": 6649,
      "healthcare": 6650,
      "elected": 6651,
      "Author": 6652,
      "domestic": 6653,
      "speaker": 6654,
      "historic": 6655,
      "medicine": 6656,
      "Modern": 6657,
      "conscious": 6658,
      "CR": 6659,
      "HA": 6660,
      "Mars": 6661,
      "Tem": 6662,
      "Win": 6663,
      "gro": 6664,
      "lon": 6665,
      "mic": 6666,
      "rig": 6667,
      "san": 6668,
      "tat": 6669,
      "zone": 6670,
      "inquir": 6671,
      "acle": 6672,
      "ache": 6673,
      "seas": 6674,
      "lyn": 6675,
      "proceed": 6676,
      "resto": 6677,
      "shift": 6678,
      "Instead": 6679,
      "butter": 6680,
      "highlight": 6681,
      "Conne": 6682,
      "sheet": 6683,
      "Steel": 6684,
      "privacy": 6685,
      "Disney": 6686,
      "drawn": 6687,
      "certification": 6688,
      "Sales": 6689,
      "split": 6690,
      "%.": 6691,
      "Dou": 6692,
      "dates": 6693,
      "east": 6694,
      "tap": 6695,
      "vast": 6696,
      "zen": 6697,
      "entr": 6698,
      "imate": 6699,
      "ially": 6700,
      "meals": 6701,
      "strain": 6702,
      "Which": 6703,
      "ensity": 6704,
      "coll": 6705,
      "Asia": 6706,
      "engage": 6707,
      "2001": 6708,
      "covering": 6709,
      "scope": 6710,
      "thorough": 6711,
      "communications": 6712,
      "collected": 6713,
      "attractive": 6714,
      "Russia": 6715,
      "orgeous": 6716,
      "candidate": 6717,
      "dumpster": 6718,
      "normally": 6719,
      "Cha": 6720,
      "Gall": 6721,
      "Garden": 6722,
      "LS": 6723,
      "Libr": 6724,
      "Sky": 6725,
      "laser": 6726,
      "tub": 6727,
      "stret": 6728,
      "shut": 6729,
      "clar": 6730,
      "driven": 6731,
      "studio": 6732,
      "Therefore": 6733,
      "Box": 6734,
      "advoc": 6735,
      "hardware": 6736,
      "layout": 6737,
      "turns": 6738,
      "porters": 6739,
      "Applic": 6740,
      "residential": 6741,
      "birds": 6742,
      "massive": 6743,
      "affected": 6744,
      "convenience": 6745,
      "episode": 6746,
      "protocol": 6747,
      "closely": 6748,
      "04": 6749,
      "CP": 6750,
      "Mass": 6751,
      "Prem": 6752,
      "Rob": 6753,
      "Sho": 6754,
      "VPN": 6755,
      "dia": 6756,
      "vic": 6757,
      "vation": 6758,
      "voc": 6759,
      "wers": 6760,
      "oured": 6761,
      "veter": 6762,
      "neck": 6763,
      "geo": 6764,
      "causes": 6765,
      "visited": 6766,
      "Lee": 6767,
      "officers": 6768,
      "recognition": 6769,
      "layer": 6770,
      "restaurants": 6771,
      "bowl": 6772,
      "patterns": 6773,
      "trend": 6774,
      "Daniel": 6775,
      "53": 6776,
      "CL": 6777,
      "Federal": 6778,
      "iro": 6779,
      "rug": 6780,
      "rear": 6781,
      "orter": 6782,
      "aland": 6783,
      "andom": 6784,
      "eder": 6785,
      "ara": 6786,
      "stuck": 6787,
      "stunning": 6788,
      "unable": 6789,
      "urally": 6790,
      "creates": 6791,
      "cribe": 6792,
      "Anton": 6793,
      "interpret": 6794,
      "proven": 6795,
      "apparent": 6796,
      "dones": 6797,
      "suring": 6798,
      "azy": 6799,
      "signal": 6800,
      "winner": 6801,
      "cuit": 6802,
      "breaking": 6803,
      "distinct": 6804,
      "engineering": 6805,
      "removal": 6806,
      "explained": 6807,
      "Muslim": 6808,
      "anticip": 6809,
      "injury": 6810,
      "controlled": 6811,
      "circumstances": 6812,
      "Kitchen": 6813,
      "Kore": 6814,
      "Max": 6815,
      "Sa": 6816,
      "Squ": 6817,
      "Span": 6818,
      "bird": 6819,
      "fif": 6820,
      "gon": 6821,
      "mi": 6822,
      "pure": 6823,
      "ongoing": 6824,
      "renew": 6825,
      "ette": 6826,
      "usage": 6827,
      "external": 6828,
      "worse": 6829,
      "inding": 6830,
      "Invest": 6831,
      "Indones": 6832,
      "newsp": 6833,
      "manent": 6834,
      "itionally": 6835,
      "spection": 6836,
      "airport": 6837,
      "skill": 6838,
      "listening": 6839,
      "Friend": 6840,
      "diam": 6841,
      "nearby": 6842,
      "rolling": 6843,
      "garage": 6844,
      "concern": 6845,
      "votes": 6846,
      "animal": 6847,
      "bags": 6848,
      "updates": 6849,
      "sustainable": 6850,
      "flavor": 6851,
      "favourite": 6852,
      "57": 6853,
      "Fair": 6854,
      "Fund": 6855,
      "cable": 6856,
      "ti": 6857,
      "enthus": 6858,
      "orrow": 6859,
      "seam": 6860,
      "whom": 6861,
      "ember": 6862,
      "plum": 6863,
      "noted": 6864,
      "grap": 6865,
      "grav": 6866,
      "ella": 6867,
      "liber": 6868,
      "makeup": 6869,
      "merch": 6870,
      "filed": 6871,
      "grown": 6872,
      "containing": 6873,
      "recognize": 6874,
      "ENT": 6875,
      "bulbs": 6876,
      "surprise": 6877,
      "destination": 6878,
      "Earth": 6879,
      "cluded": 6880,
      "Quality": 6881,
      "streets": 6882,
      "sudden": 6883,
      "Bon": 6884,
      "FOR": 6885,
      "Sports": 6886,
      "een": 6887,
      "mur": 6888,
      "sending": 6889,
      "thy": 6890,
      "reject": 6891,
      "attribut": 6892,
      "adult": 6893,
      "amounts": 6894,
      "uration": 6895,
      "prop": 6896,
      "earned": 6897,
      "boot": 6898,
      "noise": 6899,
      "YouTube": 6900,
      "197": 6901,
      "monitor": 6902,
      "belt": 6903,
      "extension": 6904,
      "productive": 6905,
      "retro": 6906,
      "2002": 6907,
      "array": 6908,
      "Dec": 6909,
      "param": 6910,
      "founded": 6911,
      "expectations": 6912,
      "hosted": 6913,
      "objects": 6914,
      "mortgage": 6915,
      "accomplish": 6916,
      "dynamic": 6917,
      "indoor": 6918,
      "Link": 6919,
      "Learn": 6920,
      "Victor": 6921,
      "border": 6922,
      "golf": 6923,
      "rated": 6924,
      "wan": 6925,
      "warrant": 6926,
      "secret": 6927,
      "conver": 6928,
      "weet": 6929,
      "deposit": 6930,
      "Ther": 6931,
      "elled": 6932,
      "whenever": 6933,
      "mond": 6934,
      "monitoring": 6935,
      "empty": 6936,
      "Sea": 6937,
      "speakers": 6938,
      "boxes": 6939,
      "falls": 6940,
      "matches": 6941,
      "stocks": 6942,
      "mixed": 6943,
      "failed": 6944,
      "turning": 6945,
      "impressive": 6946,
      "certificate": 6947,
      "Francis": 6948,
      "Canadian": 6949,
      "enthusi": 6950,
      "3rd": 6951,
      "SA": 6952,
      "Try": 6953,
      "bodies": 6954,
      "cow": 6955,
      "iat": 6956,
      "sin": 6957,
      "tone": 6958,
      "intr": 6959,
      "ancient": 6960,
      "heating": 6961,
      "ola": 6962,
      "approv": 6963,
      "prison": 6964,
      "upcoming": 6965,
      "rence": 6966,
      "description": 6967,
      "delight": 6968,
      "designer": 6969,
      "organis": 6970,
      "Should": 6971,
      "performing": 6972,
      "enterprise": 6973,
      "Point": 6974,
      "suggested": 6975,
      "Looking": 6976,
      "constantly": 6977,
      "religious": 6978,
      "Children": 6979,
      "Academy": 6980,
      "58": 6981,
      "Bow": 6982,
      "IO": 6983,
      "Ms": 6984,
      "Mult": 6985,
      "Very": 6986,
      "diction": 6987,
      "sop": 6988,
      "ications": 6989,
      "conut": 6990,
      "keys": 6991,
      "makers": 6992,
      "boards": 6993,
      "attended": 6994,
      "End": 6995,
      "decades": 6996,
      "gotten": 6997,
      "borrow": 6998,
      "shares": 6999,
      "remaining": 7000,
      "defense": 7001,
      "dryer": 7002,
      "titles": 7003,
      "significantly": 7004,
      "forcement": 7005,
      "uka": 7006,
      "silver": 7007,
      "housing": 7008,
      "categories": 7009,
      "collaboration": 7010,
      "preparation": 7011,
      "resistance": 7012,
      "married": 7013,
      "bottle": 7014,
      "Employ": 7015,
      "neighborhood": 7016,
      "Assist": 7017,
      "Video": 7018,
      "BB": 7019,
      "Cons": 7020,
      "Fit": 7021,
      "Hard": 7022,
      "Liter": 7023,
      "OD": 7024,
      "caf": 7025,
      "ders": 7026,
      "native": 7027,
      "va": 7028,
      "waters": 7029,
      "acing": 7030,
      "acid": 7031,
      "cts": 7032,
      "fru": 7033,
      "quote": 7034,
      "coordin": 7035,
      "answers": 7036,
      "spark": 7037,
      "contest": 7038,
      "nock": 7039,
      "dram": 7040,
      "adequ": 7041,
      "apping": 7042,
      "cerem": 7043,
      "guest": 7044,
      "submitted": 7045,
      "lists": 7046,
      "capabilities": 7047,
      "ordered": 7048,
      "foundation": 7049,
      "increases": 7050,
      "League": 7051,
      "buyers": 7052,
      "roller": 7053,
      "returns": 7054,
      "authorities": 7055,
      "Finally": 7056,
      "Students": 7057,
      "crowd": 7058,
      "apartment": 7059,
      "width": 7060,
      "lucky": 7061,
      "adventure": 7062,
      "improving": 7063,
      "portfolio": 7064,
      "Cover": 7065,
      "LA": 7066,
      "Log": 7067,
      "Pict": 7068,
      "barr": 7069,
      "lish": 7070,
      "museum": 7071,
      "yers": 7072,
      "’,": 7073,
      "emails": 7074,
      "aked": 7075,
      "angle": 7076,
      "heads": 7077,
      "issued": 7078,
      "managers": 7079,
      "electrical": 7080,
      "involve": 7081,
      "Spir": 7082,
      "Smith": 7083,
      "volunteer": 7084,
      "Remember": 7085,
      "trouble": 7086,
      "Performance": 7087,
      "250": 7088,
      "Loc": 7089,
      "VE": 7090,
      "iated": 7091,
      "vs": 7092,
      "oma": 7093,
      "semin": 7094,
      "ops": 7095,
      "exceed": 7096,
      "permission": 7097,
      "acting": 7098,
      "clip": 7099,
      "affil": 7100,
      "Station": 7101,
      "adds": 7102,
      "settle": 7103,
      "Unfortunately": 7104,
      "Enjoy": 7105,
      "Cook": 7106,
      "managing": 7107,
      "entered": 7108,
      "examples": 7109,
      "equival": 7110,
      "trading": 7111,
      "refresh": 7112,
      "panels": 7113,
      "printing": 7114,
      "improvement": 7115,
      "featured": 7116,
      "drinking": 7117,
      "African": 7118,
      "Visit": 7119,
      "ultimate": 7120,
      "Archite": 7121,
      "Martin": 7122,
      "critic": 7123,
      "symbol": 7124,
      "choosing": 7125,
      "BS": 7126,
      "Cast": 7127,
      "Non": 7128,
      "Opt": 7129,
      "Yet": 7130,
      "cake": 7131,
      "pun": 7132,
      "ram": 7133,
      "tack": 7134,
      "tast": 7135,
      "oration": 7136,
      "stake": 7137,
      "amber": 7138,
      "moist": 7139,
      "wearing": 7140,
      "Inde": 7141,
      "crew": 7142,
      "akistan": 7143,
      "crash": 7144,
      "criteria": 7145,
      "firmed": 7146,
      "fundam": 7147,
      "Arts": 7148,
      "transl": 7149,
      "headed": 7150,
      "weekly": 7151,
      "expenses": 7152,
      "gging": 7153,
      "classroom": 7154,
      "ballot": 7155,
      "label": 7156,
      "incident": 7157,
      "duty": 7158,
      "'.": 7159,
      "Cir": 7160,
      "DUI": 7161,
      "Jose": 7162,
      "Night": 7163,
      "SH": 7164,
      "Teach": 7165,
      "scan": 7166,
      "tu": 7167,
      "igan": 7168,
      "igen": 7169,
      "ares": 7170,
      "logo": 7171,
      "loves": 7172,
      "shel": 7173,
      "washer": 7174,
      "doctors": 7175,
      "colog": 7176,
      "desired": 7177,
      "Trad": 7178,
      "posting": 7179,
      "searching": 7180,
      "Leg": 7181,
      "iveness": 7182,
      "nights": 7183,
      "male": 7184,
      "Despite": 7185,
      "supervis": 7186,
      "taxes": 7187,
      "crucial": 7188,
      "clinical": 7189,
      "Thomas": 7190,
      "Ash": 7191,
      "Lum": 7192,
      "MM": 7193,
      "Ok": 7194,
      "Wis": 7195,
      "dust": 7196,
      "diverse": 7197,
      "gorgeous": 7198,
      "han": 7199,
      "pit": 7200,
      "yesterday": 7201,
      "revol": 7202,
      "enables": 7203,
      "align": 7204,
      "acious": 7205,
      "cher": 7206,
      "whel": 7207,
      "ura": 7208,
      "spons": 7209,
      "novel": 7210,
      "blank": 7211,
      "supposed": 7212,
      "transition": 7213,
      "translation": 7214,
      "Select": 7215,
      "iversary": 7216,
      "passing": 7217,
      "Airy": 7218,
      "authority": 7219,
      "walked": 7220,
      "hosting": 7221,
      "entirely": 7222,
      "communicate": 7223,
      "sensitive": 7224,
      "voter": 7225,
      "celebrate": 7226,
      "crypto": 7227,
      "pulled": 7228,
      "strategic": 7229,
      "widely": 7230,
      "Senate": 7231,
      "vacation": 7232,
      "legislation": 7233,
      "Brown": 7234,
      "Line": 7235,
      "Mu": 7236,
      "Niger": 7237,
      "Pad": 7238,
      "Pot": 7239,
      "Santa": 7240,
      "Ven": 7241,
      "bacter": 7242,
      "fers": 7243,
      "honey": 7244,
      "ml": 7245,
      "mile": 7246,
      "oven": 7247,
      "alty": 7248,
      "verage": 7249,
      "sung": 7250,
      "convent": 7251,
      "ifies": 7252,
      "essay": 7253,
      "frustr": 7254,
      "grain": 7255,
      "anna": 7256,
      "transform": 7257,
      "Lock": 7258,
      "UST": 7259,
      "reducing": 7260,
      "campus": 7261,
      "officer": 7262,
      "respective": 7263,
      "agraph": 7264,
      "farmers": 7265,
      "absor": 7266,
      "savings": 7267,
      "component": 7268,
      "Writing": 7269,
      "debate": 7270,
      "currency": 7271,
      "Library": 7272,
      ");": 7273,
      "51": 7274,
      "HP": 7275,
      "Wild": 7276,
      "fits": 7277,
      "iors": 7278,
      "killed": 7279,
      "lad": 7280,
      "western": 7281,
      "enem": 7282,
      "assum": 7283,
      "icts": 7284,
      "stro": 7285,
      "olic": 7286,
      "igate": 7287,
      "mole": 7288,
      "ounder": 7289,
      "permit": 7290,
      "eller": 7291,
      "string": 7292,
      "preser": 7293,
      "facts": 7294,
      "directed": 7295,
      "template": 7296,
      "bonus": 7297,
      "Steve": 7298,
      "Authentic": 7299,
      "Financial": 7300,
      "candidates": 7301,
      "trigger": 7302,
      "54": 7303,
      "Aud": 7304,
      "FC": 7305,
      "HS": 7306,
      "Hon": 7307,
      "Jud": 7308,
      "Never": 7309,
      "Pack": 7310,
      "TION": 7311,
      "Way": 7312,
      "dating": 7313,
      "gers": 7314,
      "laugh": 7315,
      "random": 7316,
      "enroll": 7317,
      "stance": 7318,
      "impossible": 7319,
      "ophy": 7320,
      "moves": 7321,
      "resort": 7322,
      "discipl": 7323,
      "posing": 7324,
      "Chall": 7325,
      "regions": 7326,
      "guitar": 7327,
      "delay": 7328,
      "Trust": 7329,
      "athlet": 7330,
      "consent": 7331,
      "extended": 7332,
      "feelings": 7333,
      "investigation": 7334,
      "alongside": 7335,
      "contained": 7336,
      "suggests": 7337,
      "integration": 7338,
      "horse": 7339,
      "Small": 7340,
      "expression": 7341,
      "flexibility": 7342,
      "satisfaction": 7343,
      "!\"": 7344,
      "01": 7345,
      "Cape": 7346,
      "DC": 7347,
      "Ef": 7348,
      "Eli": 7349,
      "Little": 7350,
      "Mir": 7351,
      "fellow": 7352,
      "pill": 7353,
      "thir": 7354,
      "isk": 7355,
      "icate": 7356,
      "lemon": 7357,
      "chart": 7358,
      "losing": 7359,
      "ership": 7360,
      "ighter": 7361,
      "cock": 7362,
      "grass": 7363,
      "Week": 7364,
      "technique": 7365,
      "expans": 7366,
      "Brand": 7367,
      "appeal": 7368,
      "ATION": 7369,
      "Carol": 7370,
      "stopped": 7371,
      "functional": 7372,
      "compliance": 7373,
      "Zealand": 7374,
      "Ball": 7375,
      "crop": 7376,
      "hers": 7377,
      "hang": 7378,
      "harm": 7379,
      "mph": 7380,
      "wave": 7381,
      "inent": 7382,
      "oul": 7383,
      "eler": 7384,
      "chief": 7385,
      "beer": 7386,
      "trips": 7387,
      "opens": 7388,
      "shire": 7389,
      "pert": 7390,
      "crime": 7391,
      "pleased": 7392,
      "surgery": 7393,
      "joining": 7394,
      "gling": 7395,
      "availability": 7396,
      "filter": 7397,
      "nament": 7398,
      "cameras": 7399,
      "respectively": 7400,
      "maintaining": 7401,
      "contribute": 7402,
      "scheme": 7403,
      "writers": 7404,
      "Cred": 7405,
      "Gir": 7406,
      "Jay": 7407,
      "Nav": 7408,
      "OW": 7409,
      "PT": 7410,
      "VC": 7411,
      "rick": 7412,
      "tip": 7413,
      "thread": 7414,
      "inspection": 7415,
      "onom": 7416,
      "theory": 7417,
      "orient": 7418,
      "irts": 7419,
      "comed": 7420,
      "fection": 7421,
      "compat": 7422,
      "blend": 7423,
      "fulfill": 7424,
      "phr": 7425,
      "reader": 7426,
      "supplement": 7427,
      "Comple": 7428,
      "Proper": 7429,
      "Experi": 7430,
      "Express": 7431,
      "realized": 7432,
      "bench": 7433,
      "consideration": 7434,
      "purchasing": 7435,
      "responses": 7436,
      "Step": 7437,
      "dealing": 7438,
      "Syr": 7439,
      "Donald": 7440,
      "printed": 7441,
      "photography": 7442,
      "soul": 7443,
      "Professional": 7444,
      "democr": 7445,
      "Colorado": 7446,
      "stretch": 7447,
      "Estate": 7448,
      "Mex": 7449,
      "Num": 7450,
      "Right": 7451,
      "SQ": 7452,
      "bin": 7453,
      "banks": 7454,
      "fis": 7455,
      "lined": 7456,
      "rice": 7457,
      "sad": 7458,
      "lete": 7459,
      "suspect": 7460,
      "weigh": 7461,
      "outcome": 7462,
      "relief": 7463,
      "invited": 7464,
      "Form": 7465,
      "engaged": 7466,
      "venues": 7467,
      "retire": 7468,
      "publishing": 7469,
      "possibility": 7470,
      "deploy": 7471,
      "specified": 7472,
      "placing": 7473,
      "Tech": 7474,
      "severe": 7475,
      "flower": 7476,
      "connections": 7477,
      "concerning": 7478,
      "contractor": 7479,
      "regardless": 7480,
      "decorative": 7481,
      "guidelines": 7482,
      "dishes": 7483,
      "pleasant": 7484,
      "chicken": 7485,
      "Festival": 7486,
      "gorith": 7487,
      "Spanish": 7488,
      "Jul": 7489,
      "Lind": 7490,
      "Put": 7491,
      "cue": 7492,
      "lift": 7493,
      "moun": 7494,
      "rome": 7495,
      "sof": 7496,
      "twent": 7497,
      "yellow": 7498,
      "independ": 7499,
      "represents": 7500,
      "loving": 7501,
      "printer": 7502,
      "somewhat": 7503,
      "somewhere": 7504,
      "finishing": 7505,
      "shouldn": 7506,
      "viewers": 7507,
      "mainly": 7508,
      "extreme": 7509,
      "closing": 7510,
      "Exam": 7511,
      "generated": 7512,
      "password": 7513,
      "Local": 7514,
      "millions": 7515,
      "beds": 7516,
      "statements": 7517,
      "govern": 7518,
      "REE": 7519,
      "1990": 7520,
      "liked": 7521,
      "Partners": 7522,
      "Perhaps": 7523,
      "Quest": 7524,
      "automatic": 7525,
      "Website": 7526,
      "immediate": 7527,
      "surprising": 7528,
      "indeed": 7529,
      "hurt": 7530,
      "licensed": 7531,
      "4th": 7532,
      "600": 7533,
      "96": 7534,
      "Fac": 7535,
      "Hom": 7536,
      "Him": 7537,
      "Pac": 7538,
      "Ram": 7539,
      "Rol": 7540,
      "Would": 7541,
      "Youn": 7542,
      "mate": 7543,
      "nine": 7544,
      "slot": 7545,
      "ingly": 7546,
      "arrest": 7547,
      "roles": 7548,
      "champion": 7549,
      "sume": 7550,
      "apple": 7551,
      "ivate": 7552,
      "pricing": 7553,
      "endar": 7554,
      "upgrade": 7555,
      "overwhel": 7556,
      "flash": 7557,
      "reland": 7558,
      "Trade": 7559,
      "extent": 7560,
      "clothing": 7561,
      "decade": 7562,
      "paragraph": 7563,
      "Being": 7564,
      "muscles": 7565,
      "ucky": 7566,
      "grew": 7567,
      "ISO": 7568,
      "Offic": 7569,
      "Corpor": 7570,
      "SEO": 7571,
      "increasingly": 7572,
      "false": 7573,
      "Bob": 7574,
      "EA": 7575,
      "Mumb": 7576,
      "Sound": 7577,
      "Tok": 7578,
      "Tax": 7579,
      "pink": 7580,
      "ray": 7581,
      "ani": 7582,
      "entit": 7583,
      "otic": 7584,
      "artwork": 7585,
      "permanent": 7586,
      "inder": 7587,
      "gry": 7588,
      "spots": 7589,
      "disput": 7590,
      "themes": 7591,
      "jection": 7592,
      "Need": 7593,
      "puts": 7594,
      "heading": 7595,
      "enjoying": 7596,
      "figures": 7597,
      "drinks": 7598,
      "awarded": 7599,
      "coaching": 7600,
      "evaluation": 7601,
      "Angeles": 7602,
      "Islamic": 7603,
      "Budd": 7604,
      "Digital": 7605,
      "equivalent": 7606,
      "08": 7607,
      "Kent": 7608,
      "Made": 7609,
      "SO": 7610,
      "Seas": 7611,
      "Tay": 7612,
      "cs": 7613,
      "gut": 7614,
      "narrow": 7615,
      "vine": 7616,
      "retain": 7617,
      "ensuring": 7618,
      "ilder": 7619,
      "elly": 7620,
      "chapter": 7621,
      "usal": 7622,
      "concepts": 7623,
      "deeper": 7624,
      "enders": 7625,
      "interface": 7626,
      "versions": 7627,
      "visible": 7628,
      "viewing": 7629,
      "athy": 7630,
      "careful": 7631,
      "tooth": 7632,
      "happiness": 7633,
      "specialist": 7634,
      "holder": 7635,
      "shock": 7636,
      "typical": 7637,
      "drawing": 7638,
      "continuing": 7639,
      "PSA": 7640,
      "Holly": 7641,
      "executive": 7642,
      "Jewish": 7643,
      "Current": 7644,
      "consultation": 7645,
      "laptop": 7646,
      "attorney": 7647,
      "Summer": 7648,
      "proposal": 7649,
      "Village": 7650,
      "basket": 7651,
      "Indonesia": 7652,
      "Mumbai": 7653,
      "(“": 7654,
      "Ah": 7655,
      "Bul": 7656,
      "Hen": 7657,
      "Living": 7658,
      "Py": 7659,
      "Pen": 7660,
      "Publ": 7661,
      "Pakistan": 7662,
      "bare": 7663,
      "dedu": 7664,
      "mac": 7665,
      "pas": 7666,
      "sq": 7667,
      "sink": 7668,
      "tiny": 7669,
      "uzz": 7670,
      "reward": 7671,
      "tood": 7672,
      "aby": 7673,
      "ifi": 7674,
      "pled": 7675,
      "prize": 7676,
      "boo": 7677,
      "compass": 7678,
      "ferences": 7679,
      "stract": 7680,
      "producing": 7681,
      "attress": 7682,
      "Heart": 7683,
      "consists": 7684,
      "Proc": 7685,
      "handling": 7686,
      "programming": 7687,
      "venture": 7688,
      "tested": 7689,
      "faced": 7690,
      "grees": 7691,
      "seller": 7692,
      "repairs": 7693,
      "Forest": 7694,
      "Mean": 7695,
      "III": 7696,
      "applies": 7697,
      "primarily": 7698,
      "preferred": 7699,
      "vegetables": 7700,
      "marriage": 7701,
      "manufacturers": 7702,
      "Richard": 7703,
      "wireless": 7704,
      "gallery": 7705,
      "adopted": 7706,
      "Custom": 7707,
      "cotton": 7708,
      "Bit": 7709,
      "EU": 7710,
      "Ireland": 7711,
      "Ka": 7712,
      "LD": 7713,
      "Men": 7714,
      "OK": 7715,
      "Ox": 7716,
      "Wi": 7717,
      "bury": 7718,
      "dil": 7719,
      "pes": 7720,
      "sick": 7721,
      "intim": 7722,
      "anda": 7723,
      "leman": 7724,
      "sters": 7725,
      "healing": 7726,
      "etime": 7727,
      "igent": 7728,
      "illness": 7729,
      "Thus": 7730,
      "endo": 7731,
      "crack": 7732,
      "speech": 7733,
      "iano": 7734,
      "Common": 7735,
      "ixel": 7736,
      "poll": 7737,
      "applicable": 7738,
      "structures": 7739,
      "1998": 7740,
      "fitness": 7741,
      "matching": 7742,
      "cookies": 7743,
      "Repair": 7744,
      "Policy": 7745,
      "languages": 7746,
      "spoke": 7747,
      "fairly": 7748,
      "scientists": 7749,
      "hospit": 7750,
      "Shopify": 7751,
      "preparing": 7752,
      "eggs": 7753,
      "crisis": 7754,
      "sharp": 7755,
      "understood": 7756,
      "authors": 7757,
      "seamless": 7758,
      "03": 7759,
      "06": 7760,
      "Far": 7761,
      "Fig": 7762,
      "Haw": 7763,
      "NA": 7764,
      "Pur": 7765,
      "WE": 7766,
      "Wa": 7767,
      "pace": 7768,
      "rust": 7769,
      "wich": 7770,
      "orn": 7771,
      "stir": 7772,
      "sections": 7773,
      "sus": 7774,
      "urning": 7775,
      "conclus": 7776,
      "ulum": 7777,
      "yours": 7778,
      "formal": 7779,
      "cush": 7780,
      "mini": 7781,
      "tomorrow": 7782,
      "studied": 7783,
      "Ford": 7784,
      "booking": 7785,
      "empower": 7786,
      "programme": 7787,
      "breast": 7788,
      "entering": 7789,
      "Without": 7790,
      "controls": 7791,
      "tells": 7792,
      "strongly": 7793,
      "advertis": 7794,
      "implementation": 7795,
      "thesis": 7796,
      "granted": 7797,
      "assigned": 7798,
      "finger": 7799,
      "Travel": 7800,
      "ratio": 7801,
      "accommodation": 7802,
      "approval": 7803,
      "herself": 7804,
      "Base": 7805,
      "Bible": 7806,
      "Bath": 7807,
      "Buck": 7808,
      "Dark": 7809,
      "GM": 7810,
      "Lev": 7811,
      "Want": 7812,
      "eed": 7813,
      "hide": 7814,
      "lies": 7815,
      "pad": 7816,
      "ora": 7817,
      "algorith": 7818,
      "isol": 7819,
      "stack": 7820,
      "abuse": 7821,
      "confirmed": 7822,
      "outcomes": 7823,
      "shine": 7824,
      "pra": 7825,
      "colle": 7826,
      "finance": 7827,
      "aircraft": 7828,
      "setup": 7829,
      "lessons": 7830,
      "checking": 7831,
      "beneficial": 7832,
      "default": 7833,
      "spectrum": 7834,
      "magn": 7835,
      "worthy": 7836,
      "Police": 7837,
      "reserve": 7838,
      "reserves": 7839,
      "surprised": 7840,
      "Wedding": 7841,
      "catalog": 7842,
      "photographs": 7843,
      "Magazine": 7844,
      "Middle": 7845,
      "Natural": 7846,
      "repeated": 7847,
      "Roman": 7848,
      "citizens": 7849,
      "paramet": 7850,
      "05": 7851,
      "Dom": 7852,
      "Sher": 7853,
      "WA": 7854,
      "bone": 7855,
      "elegant": 7856,
      "gap": 7857,
      "hat": 7858,
      "vy": 7859,
      "ов": 7860,
      "infect": 7861,
      "theless": 7862,
      "iler": 7863,
      "youn": 7864,
      "utes": 7865,
      "una": 7866,
      "unexpected": 7867,
      "mood": 7868,
      "deck": 7869,
      "2020": 7870,
      "aven": 7871,
      "mann": 7872,
      "Still": 7873,
      "colours": 7874,
      "perior": 7875,
      "larg": 7876,
      "clock": 7877,
      "Prior": 7878,
      "Order": 7879,
      "packed": 7880,
      "completion": 7881,
      "Parliament": 7882,
      "harmon": 7883,
      "errors": 7884,
      "Georg": 7885,
      "framework": 7886,
      "Professor": 7887,
      "suffering": 7888,
      "juice": 7889,
      "obviously": 7890,
      "Creative": 7891,
      "conservation": 7892,
      "fascin": 7893,
      "entrance": 7894,
      "Spirit": 7895,
      "43": 7896,
      "?\"": 7897,
      "Based": 7898,
      "Cli": 7899,
      "Cross": 7900,
      "Flow": 7901,
      "LY": 7902,
      "Remo": 7903,
      "Tenn": 7904,
      "cers": 7905,
      "cott": 7906,
      "codes": 7907,
      "dess": 7908,
      "greg": 7909,
      "tall": 7910,
      "till": 7911,
      "yan": 7912,
      "replaced": 7913,
      "thetic": 7914,
      "assem": 7915,
      "degrees": 7916,
      "anymore": 7917,
      "grab": 7918,
      "likes": 7919,
      "newly": 7920,
      "drag": 7921,
      "intent": 7922,
      "render": 7923,
      "forever": 7924,
      "believed": 7925,
      "eases": 7926,
      "actively": 7927,
      "aims": 7928,
      "statistics": 7929,
      "wheels": 7930,
      "experim": 7931,
      "definition": 7932,
      "Guide": 7933,
      "contracts": 7934,
      "acceler": 7935,
      "estimate": 7936,
      "exception": 7937,
      "authenticator": 7938,
      "Charles": 7939,
      "saved": 7940,
      "trends": 7941,
      "revealed": 7942,
      "ultimately": 7943,
      "establishment": 7944,
      "detect": 7945,
      "scored": 7946,
      "attached": 7947,
      "satisfied": 7948,
      "eliminate": 7949,
      "contrast": 7950,
      "Swedish": 7951,
      "succeed": 7952,
      "diabet": 7953,
      "ceremony": 7954,
      "SQL": 7955,
      "120": 7956,
      "67": 7957,
      "87": 7958,
      "BR": 7959,
      "Give": 7960,
      "Pop": 7961,
      "cured": 7962,
      "rush": 7963,
      "vess": 7964,
      "inches": 7965,
      "rely": 7966,
      "esh": 7967,
      "isa": 7968,
      "accord": 7969,
      "whilst": 7970,
      "url": 7971,
      "Three": 7972,
      "poker": 7973,
      "Insurance": 7974,
      "max": 7975,
      "cruit": 7976,
      "brill": 7977,
      "drone": 7978,
      "Chapter": 7979,
      "causing": 7980,
      "iances": 7981,
      "viewed": 7982,
      "factory": 7983,
      "folk": 7984,
      "raising": 7985,
      "Boston": 7986,
      "accessories": 7987,
      "lawyer": 7988,
      "Americans": 7989,
      "grounds": 7990,
      "requirement": 7991,
      "depends": 7992,
      "margin": 7993,
      "staying": 7994,
      "traveling": 7995,
      "tourism": 7996,
      "computers": 7997,
      "Justice": 7998,
      "percentage": 7999,
      "losses": 8000,
      "stainless": 8001,
      "exceptional": 8002,
      "mirror": 8003,
      "Systems": 8004,
      "behavi": 8005,
      "PDF": 8006,
      "pleasure": 8007,
      "Kindle": 8008,
      "anxiety": 8009,
      "fiscal": 8010,
      "younger": 8011,
      "02": 8012,
      "Bol": 8013,
      "Broad": 8014,
      "Come": 8015,
      "DE": 8016,
      "HT": 8017,
      "Sus": 8018,
      "Ye": 8019,
      "afr": 8020,
      "atics": 8021,
      "assembly": 8022,
      "accounting": 8023,
      "etic": 8024,
      "ums": 8025,
      "cogn": 8026,
      "ava": 8027,
      "command": 8028,
      "commonly": 8029,
      "Chief": 8030,
      "ogue": 8031,
      "personality": 8032,
      "legit": 8033,
      "Nov": 8034,
      "planet": 8035,
      "household": 8036,
      "Resp": 8037,
      "experiment": 8038,
      "fitting": 8039,
      "Fore": 8040,
      "habits": 8041,
      "correctly": 8042,
      "advantages": 8043,
      "https": 8044,
      "obtained": 8045,
      "Introdu": 8046,
      "cabin": 8047,
      "IBPSA": 8048,
      "inventory": 8049,
      "Bedroom": 8050,
      "LLC": 8051,
      "Dutch": 8052,
      "?”": 8053,
      "Cut": 8054,
      "Ele": 8055,
      "GE": 8056,
      "aer": 8057,
      "bass": 8058,
      "cart": 8059,
      "dash": 8060,
      "zing": 8061,
      "zil": 8062,
      "alter": 8063,
      "iti": 8064,
      "chronic": 8065,
      "loose": 8066,
      "illing": 8067,
      "opposite": 8068,
      "residence": 8069,
      "shell": 8070,
      "worst": 8071,
      "pocket": 8072,
      "upgrad": 8073,
      "coconut": 8074,
      "Stone": 8075,
      "eff": 8076,
      "downtown": 8077,
      "Conserv": 8078,
      "transactions": 8079,
      "arrive": 8080,
      "Clin": 8081,
      "reduction": 8082,
      "reaching": 8083,
      "1999": 8084,
      "suggestions": 8085,
      "mixture": 8086,
      "acceptable": 8087,
      "recommendations": 8088,
      "chester": 8089,
      "Among": 8090,
      "crystal": 8091,
      "promotion": 8092,
      "strengthen": 8093,
      "hoping": 8094,
      "vitamin": 8095,
      "Install": 8096,
      "nursing": 8097,
      "initiatives": 8098,
      "Latin": 8099,
      "Beautiful": 8100,
      "inquiry": 8101,
      "!)": 8102,
      "',": 8103,
      "Award": 8104,
      "Bachel": 8105,
      "Fi": 8106,
      "Ky": 8107,
      "Lic": 8108,
      "Low": 8109,
      "Ref": 8110,
      "ZPN": 8111,
      "cod": 8112,
      "lake": 8113,
      "pipe": 8114,
      "sought": 8115,
      "stic": 8116,
      "stitch": 8117,
      "stery": 8118,
      "aced": 8119,
      "ellect": 8120,
      "agues": 8121,
      "uling": 8122,
      "intention": 8123,
      "provision": 8124,
      "awards": 8125,
      "coloring": 8126,
      "chose": 8127,
      "Asian": 8128,
      "ificial": 8129,
      "Prom": 8130,
      "meets": 8131,
      "testim": 8132,
      "Join": 8133,
      "modeling": 8134,
      "addresses": 8135,
      "Registration": 8136,
      "teeth": 8137,
      "cooling": 8138,
      "bulb": 8139,
      "voters": 8140,
      "minimal": 8141,
      "Australian": 8142,
      "controller": 8143,
      "Type": 8144,
      "drugs": 8145,
      "Democrats": 8146,
      "sorry": 8147,
      "struggle": 8148,
      "grapher": 8149,
      "fruits": 8150,
      "Pacific": 8151,
      "69": 8152,
      "Cab": 8153,
      "COM": 8154,
      "Creek": 8155,
      "Copy": 8156,
      "GD": 8157,
      "Mother": 8158,
      "Material": 8159,
      "Pier": 8160,
      "Rail": 8161,
      "Vi": 8162,
      "df": 8163,
      "dental": 8164,
      "flying": 8165,
      "ст": 8166,
      "ativity": 8167,
      "sees": 8168,
      "etch": 8169,
      "moon": 8170,
      "pride": 8171,
      "indu": 8172,
      "preced": 8173,
      "heritage": 8174,
      "mining": 8175,
      "Report": 8176,
      "delivers": 8177,
      "differences": 8178,
      "developer": 8179,
      "Arsen": 8180,
      "Ontar": 8181,
      "follows": 8182,
      "limits": 8183,
      "devot": 8184,
      "flood": 8185,
      "clicking": 8186,
      "authorized": 8187,
      "tourist": 8188,
      "existence": 8189,
      "participation": 8190,
      "circuit": 8191,
      "references": 8192,
      "association": 8193,
      "celebration": 8194,
      "fabulous": 8195,
      "holidays": 8196,
      "hopes": 8197,
      "indicate": 8198,
      "zero": 8199,
      "ensus": 8200,
      "architect": 8201,
      "architecture": 8202,
      "originally": 8203,
      "comparison": 8204,
      "attorneys": 8205,
      "Engineering": 8206,
      "pepper": 8207,
      "Ideas": 8208,
      "sophist": 8209,
      "Lumia": 8210,
      "Challenge": 8211,
      "expansion": 8212,
      "Ontario": 8213,
      "900": 8214,
      "Agr": 8215,
      "Age": 8216,
      "Awards": 8217,
      "Bang": 8218,
      "Hu": 8219,
      "Penn": 8220,
      "aes": 8221,
      "bage": 8222,
      "pine": 8223,
      "rings": 8224,
      "incent": 8225,
      "renov": 8226,
      "asy": 8227,
      "illy": 8228,
      "iders": 8229,
      "thermal": 8230,
      "anyway": 8231,
      "aches": 8232,
      "workplace": 8233,
      "stri": 8234,
      "interaction": 8235,
      "provisions": 8236,
      "offices": 8237,
      "describe": 8238,
      "Process": 8239,
      "Albert": 8240,
      "skilled": 8241,
      "profits": 8242,
      "returning": 8243,
      "arrival": 8244,
      "examine": 8245,
      "publication": 8246,
      "stronger": 8247,
      "involving": 8248,
      "Space": 8249,
      "genu": 8250,
      "approaches": 8251,
      "honor": 8252,
      "representative": 8253,
      "Contin": 8254,
      "Mrs": 8255,
      "objective": 8256,
      "supplier": 8257,
      "seriously": 8258,
      "Samsung": 8259,
      "888": 8260,
      "Store": 8261,
      "passionate": 8262,
      "Brazil": 8263,
      "swimming": 8264,
      "largely": 8265,
      "350": 8266,
      "72": 8267,
      "BO": 8268,
      "FR": 8269,
      "Hun": 8270,
      "Mike": 8271,
      "Ron": 8272,
      "Tha": 8273,
      "bond": 8274,
      "fired": 8275,
      "nm": 8276,
      "pic": 8277,
      "rack": 8278,
      "slo": 8279,
      "еr": 8280,
      "resume": 8281,
      "ario": 8282,
      "aside": 8283,
      "seal": 8284,
      "cha": 8285,
      "beans": 8286,
      "agar": 8287,
      "pros": 8288,
      "plot": 8289,
      "exposed": 8290,
      "quis": 8291,
      "izza": 8292,
      "diseases": 8293,
      "Youth": 8294,
      "persons": 8295,
      "Andrew": 8296,
      "iox": 8297,
      "listing": 8298,
      "signature": 8299,
      "riculum": 8300,
      "Collection": 8301,
      "walks": 8302,
      "damaged": 8303,
      "breaks": 8304,
      "potentially": 8305,
      "gained": 8306,
      "climbing": 8307,
      "broadcast": 8308,
      "trusted": 8309,
      "prayer": 8310,
      "nutrition": 8311,
      "shooting": 8312,
      "_____": 8313,
      "believes": 8314,
      "Personal": 8315,
      "dangerous": 8316,
      "DVD": 8317,
      "igenous": 8318,
      "Again": 8319,
      "Ba": 8320,
      "Cin": 8321,
      "Daily": 8322,
      "Fix": 8323,
      "Kat": 8324,
      "Mah": 8325,
      "Oak": 8326,
      "SD": 8327,
      "Sn": 8328,
      "Son": 8329,
      "Spain": 8330,
      "dated": 8331,
      "hill": 8332,
      "wins": 8333,
      "yoga": 8334,
      "inf": 8335,
      "enforcement": 8336,
      "alk": 8337,
      "stable": 8338,
      "forth": 8339,
      "emon": 8340,
      "ivals": 8341,
      "prime": 8342,
      "crazy": 8343,
      "dra": 8344,
      "inton": 8345,
      "tains": 8346,
      "funded": 8347,
      "consin": 8348,
      "smile": 8349,
      "developers": 8350,
      "folks": 8351,
      "insight": 8352,
      "Print": 8353,
      "films": 8354,
      "Shar": 8355,
      "laid": 8356,
      "packages": 8357,
      "naturally": 8358,
      "newsletter": 8359,
      "representation": 8360,
      "Getting": 8361,
      "nationally": 8362,
      "slowly": 8363,
      "Senior": 8364,
      "intelligence": 8365,
      "Wisconsin": 8366,
      "62": 8367,
      "Due": 8368,
      "Fresh": 8369,
      "Games": 8370,
      "HER": 8371,
      "MUST": 8372,
      "UL": 8373,
      "bars": 8374,
      "cater": 8375,
      "hate": 8376,
      "kil": 8377,
      "oh": 8378,
      "pour": 8379,
      "temporary": 8380,
      "wines": 8381,
      "enabled": 8382,
      "alleg": 8383,
      "illegal": 8384,
      "seed": 8385,
      "chances": 8386,
      "olid": 8387,
      "eties": 8388,
      "igs": 8389,
      "cler": 8390,
      "gran": 8391,
      "drain": 8392,
      "deser": 8393,
      "forecast": 8394,
      "engaging": 8395,
      "smell": 8396,
      "insights": 8397,
      "operational": 8398,
      "Plant": 8399,
      "lime": 8400,
      "Columb": 8401,
      "tradition": 8402,
      "humans": 8403,
      "Industr": 8404,
      "watched": 8405,
      "contractors": 8406,
      "representing": 8407,
      "magazine": 8408,
      "integrity": 8409,
      "spray": 8410,
      "applying": 8411,
      "introduce": 8412,
      "introduction": 8413,
      "injuries": 8414,
      "dreams": 8415,
      "literally": 8416,
      "ensures": 8417,
      "initiative": 8418,
      "desktop": 8419,
      "History": 8420,
      "entrepreneur": 8421,
      "complicated": 8422,
      "1000": 8423,
      "Bes": 8424,
      "Ell": 8425,
      "Farm": 8426,
      "FREE": 8427,
      "Has": 8428,
      "NAD": 8429,
      "Page": 8430,
      "RR": 8431,
      "Turn": 8432,
      "dad": 8433,
      "founder": 8434,
      "oz": 8435,
      "yards": 8436,
      "zip": 8437,
      "thon": 8438,
      "reaction": 8439,
      "asset": 8440,
      "stones": 8441,
      "oms": 8442,
      "chron": 8443,
      "admission": 8444,
      "ira": 8445,
      "prob": 8446,
      "tray": 8447,
      "defic": 8448,
      "clude": 8449,
      "discovery": 8450,
      "blow": 8451,
      "interactive": 8452,
      "angel": 8453,
      "finest": 8454,
      "everywhere": 8455,
      "relations": 8456,
      "memories": 8457,
      "brew": 8458,
      "Bridge": 8459,
      "directory": 8460,
      "Resume": 8461,
      "towel": 8462,
      "employer": 8463,
      "visitor": 8464,
      "swing": 8465,
      "sensors": 8466,
      "priority": 8467,
      "Additionally": 8468,
      "immune": 8469,
      "essentially": 8470,
      "chairman": 8471,
      "gaming": 8472,
      "Obama": 8473,
      "Jackson": 8474,
      "politics": 8475,
      "Details": 8476,
      "Create": 8477,
      "Limited": 8478,
      "tutorial": 8479,
      "tattoo": 8480,
      "Square": 8481,
      "murder": 8482,
      "bacteria": 8483,
      "68": 8484,
      "98": 8485,
      "Der": 8486,
      "Ever": 8487,
      "Golf": 8488,
      "Ji": 8489,
      "Jones": 8490,
      "Li": 8491,
      "Ocean": 8492,
      "Vent": 8493,
      "bat": 8494,
      "coup": 8495,
      "hanging": 8496,
      "len": 8497,
      "mud": 8498,
      "ocean": 8499,
      "tum": 8500,
      "tired": 8501,
      "ala": 8502,
      "asks": 8503,
      "amm": 8504,
      "haw": 8505,
      "explan": 8506,
      "shade": 8507,
      "Think": 8508,
      "prises": 8509,
      "grate": 8510,
      "hash": 8511,
      "izer": 8512,
      "somehow": 8513,
      "intense": 8514,
      "regulation": 8515,
      "observed": 8516,
      "attitude": 8517,
      "finds": 8518,
      "designers": 8519,
      "Cost": 8520,
      "Within": 8521,
      "stylish": 8522,
      "employed": 8523,
      "flooring": 8524,
      "requested": 8525,
      "continuous": 8526,
      "characteristics": 8527,
      "encouraged": 8528,
      "suppliers": 8529,
      "attacks": 8530,
      "judge": 8531,
      "guaranteed": 8532,
      "conversations": 8533,
      "GAAP": 8534,
      "scenes": 8535,
      "Democratic": 8536,
      "Golden": 8537,
      "recipes": 8538,
      "principle": 8539,
      "victim": 8540,
      "Literary": 8541,
      "Columbia": 8542,
      "Clear": 8543,
      "Die": 8544,
      "MD": 8545,
      "Oct": 8546,
      "Run": 8547,
      "Rust": 8548,
      "Sl": 8549,
      "Women": 8550,
      "Zone": 8551,
      "cav": 8552,
      "ii": 8553,
      "iates": 8554,
      "ja": 8555,
      "narr": 8556,
      "tie": 8557,
      "vict": 8558,
      "vibr": 8559,
      "zo": 8560,
      "ths": 8561,
      "inated": 8562,
      "anth": 8563,
      "rev": 8564,
      "orange": 8565,
      "chips": 8566,
      "adoption": 8567,
      "otal": 8568,
      "irr": 8569,
      "sover": 8570,
      "umes": 8571,
      "achie": 8572,
      "spon": 8573,
      "intellect": 8574,
      "Stan": 8575,
      "pressing": 8576,
      "council": 8577,
      "financing": 8578,
      "visits": 8579,
      "Recent": 8580,
      "basement": 8581,
      "Consul": 8582,
      "subsequ": 8583,
      "extend": 8584,
      "productivity": 8585,
      "activated": 8586,
      "investments": 8587,
      "completing": 8588,
      "porter": 8589,
      "Northern": 8590,
      "hotels": 8591,
      "burgh": 8592,
      "semi": 8593,
      "cooked": 8594,
      "participating": 8595,
      "subjects": 8596,
      "delivering": 8597,
      "requests": 8598,
      "maintained": 8599,
      "Associate": 8600,
      "Hosp": 8601,
      "Transport": 8602,
      "clubs": 8603,
      "destroy": 8604,
      "carrying": 8605,
      "violence": 8606,
      "gentle": 8607,
      "Philip": 8608,
      "Machine": 8609,
      "scholar": 8610,
      "Michel": 8611,
      "Queen": 8612,
      "Furthermore": 8613,
      "gardens": 8614,
      "Experience": 8615,
      "Tokyo": 8616,
      "Taylor": 8617,
      "%,": 8618,
      "07": 8619,
      "Learning": 8620,
      "OC": 8621,
      "Ut": 8622,
      "Winter": 8623,
      "bicy": 8624,
      "cro": 8625,
      "dies": 8626,
      "hr": 8627,
      "nike": 8628,
      "pendant": 8629,
      "tro": 8630,
      "rein": 8631,
      "assert": 8632,
      "beth": 8633,
      "ceiling": 8634,
      "modu": 8635,
      "decent": 8636,
      "liver": 8637,
      "bra": 8638,
      "produces": 8639,
      "funny": 8640,
      "stood": 8641,
      "Exp": 8642,
      "paralle": 8643,
      "possibilities": 8644,
      "breed": 8645,
      "movements": 8646,
      "balanced": 8647,
      "checks": 8648,
      "focusing": 8649,
      "installing": 8650,
      "wooden": 8651,
      "1997": 8652,
      "shore": 8653,
      "slip": 8654,
      "Guard": 8655,
      "tracks": 8656,
      "warning": 8657,
      "hosts": 8658,
      "improvements": 8659,
      "satell": 8660,
      "objectives": 8661,
      "responding": 8662,
      "deeply": 8663,
      "explains": 8664,
      "implemented": 8665,
      "consumption": 8666,
      "meaningful": 8667,
      "industries": 8668,
      "gambling": 8669,
      "Below": 8670,
      "initially": 8671,
      "Retr": 8672,
      "utilize": 8673,
      "WordPress": 8674,
      "pilot": 8675,
      "adequate": 8676,
      "entitled": 8677,
      "Meanwhile": 8678,
      "brilliant": 8679,
      "module": 8680,
      "Aff": 8681,
      "HE": 8682,
      "Ice": 8683,
      "Ra": 8684,
      "Save": 8685,
      "],": 8686,
      "fu": 8687,
      "god": 8688,
      "hug": 8689,
      "iPad": 8690,
      "nis": 8691,
      "rin": 8692,
      "rif": 8693,
      "tab": 8694,
      "tape": 8695,
      "vul": 8696,
      "inery": 8697,
      "oned": 8698,
      "ingu": 8699,
      "itory": 8700,
      "icip": 8701,
      "bean": 8702,
      "behalf": 8703,
      "olive": 8704,
      "ctive": 8705,
      "suite": 8706,
      "superior": 8707,
      "utility": 8708,
      "deem": 8709,
      "shelf": 8710,
      "hasn": 8711,
      "liability": 8712,
      "boss": 8713,
      "calm": 8714,
      "calories": 8715,
      "surely": 8716,
      "greatly": 8717,
      "Compan": 8718,
      "Pract": 8719,
      "childhood": 8720,
      "Coach": 8721,
      "importantly": 8722,
      "trains": 8723,
      "faculty": 8724,
      "Drive": 8725,
      "Foot": 8726,
      "Cru": 8727,
      "represented": 8728,
      "Peace": 8729,
      "dressing": 8730,
      "occurs": 8731,
      "occurred": 8732,
      "Planning": 8733,
      "evaluate": 8734,
      "assume": 8735,
      "emerging": 8736,
      "shaped": 8737,
      "Eastern": 8738,
      "philosophy": 8739,
      "Safety": 8740,
      "fundamental": 8741,
      "diabetes": 8742,
      "73": 8743,
      "CON": 8744,
      "Diet": 8745,
      "Gent": 8746,
      "Hal": 8747,
      "Nok": 8748,
      "Pos": 8749,
      "Sor": 8750,
      "Sty": 8751,
      "mouse": 8752,
      "mattress": 8753,
      "ried": 8754,
      "sail": 8755,
      "tiff": 8756,
      "refund": 8757,
      "stamp": 8758,
      "eling": 8759,
      "chairs": 8760,
      "neut": 8761,
      "resent": 8762,
      "quil": 8763,
      "antique": 8764,
      "gear": 8765,
      "Answ": 8766,
      "attending": 8767,
      "talks": 8768,
      "Exchange": 8769,
      "axy": 8770,
      "gym": 8771,
      "plane": 8772,
      "cyber": 8773,
      "dipl": 8774,
      "purchases": 8775,
      "floors": 8776,
      "combine": 8777,
      "necessarily": 8778,
      "involves": 8779,
      "sensor": 8780,
      "voting": 8781,
      "Studies": 8782,
      "lifetime": 8783,
      "campaigns": 8784,
      "samples": 8785,
      "evolution": 8786,
      "scholars": 8787,
      "CBD": 8788,
      "decrease": 8789,
      "cycling": 8790,
      "emphasis": 8791,
      "consequences": 8792,
      "Computer": 8793,
      "compatible": 8794,
      "Fish": 8795,
      "Greg": 8796,
      "Luka": 8797,
      "Mand": 8798,
      "Money": 8799,
      "NP": 8800,
      "Nations": 8801,
      "Nature": 8802,
      "bands": 8803,
      "ebook": 8804,
      "tact": 8805,
      "inspect": 8806,
      "aler": 8807,
      "amend": 8808,
      "plied": 8809,
      "deleg": 8810,
      "coat": 8811,
      "compress": 8812,
      "servers": 8813,
      "interact": 8814,
      "Ask": 8815,
      "shoulder": 8816,
      "Conf": 8817,
      "Armen": 8818,
      "generic": 8819,
      "gypt": 8820,
      "patent": 8821,
      "specially": 8822,
      "USB": 8823,
      "Resort": 8824,
      "buyer": 8825,
      "focuses": 8826,
      "balls": 8827,
      "holes": 8828,
      "hydro": 8829,
      "marine": 8830,
      "Method": 8831,
      "tracking": 8832,
      "appliances": 8833,
      "contribution": 8834,
      "acquired": 8835,
      "Britain": 8836,
      "mountains": 8837,
      "expanded": 8838,
      "earnings": 8839,
      "duties": 8840,
      "Standard": 8841,
      "arrangements": 8842,
      "ecosystem": 8843,
      "Histor": 8844,
      "exploring": 8845,
      "Condition": 8846,
      "Radio": 8847,
      "compensation": 8848,
      "revolution": 8849,
      "CZ": 8850,
      "Dream": 8851,
      "Fab": 8852,
      "Hou": 8853,
      "Mur": 8854,
      "Mess": 8855,
      "Mix": 8856,
      "Vers": 8857,
      "WI": 8858,
      "bold": 8859,
      "ht": 8860,
      "ki": 8861,
      "tures": 8862,
      "eno": 8863,
      "alumin": 8864,
      "ilton": 8865,
      "pling": 8866,
      "fraud": 8867,
      "peak": 8868,
      "grants": 8869,
      "Analy": 8870,
      "Stor": 8871,
      "Tru": 8872,
      "memor": 8873,
      "engers": 8874,
      "personnel": 8875,
      "Altern": 8876,
      "receip": 8877,
      "equity": 8878,
      "Doctor": 8879,
      "beautifully": 8880,
      "flows": 8881,
      "fastest": 8882,
      "remained": 8883,
      "assistant": 8884,
      "landscap": 8885,
      "extraordinary": 8886,
      "Everyone": 8887,
      "storm": 8888,
      "cabinet": 8889,
      "gathered": 8890,
      "subsid": 8891,
      "habitat": 8892,
      "Marketing": 8893,
      "----------------": 8894,
      "entrepreneurs": 8895,
      "acknowled": 8896,
      "gonna": 8897,
      "twenty": 8898,
      "Bag": 8899,
      "Equ": 8900,
      "Egypt": 8901,
      "Fact": 8902,
      "Harr": 8903,
      "Sug": 8904,
      "Tar": 8905,
      "ec": 8906,
      "gi": 8907,
      "pounds": 8908,
      "ranging": 8909,
      "ument": 8910,
      "remark": 8911,
      "entity": 8912,
      "seeds": 8913,
      "olution": 8914,
      "sures": 8915,
      "tras": 8916,
      "opposed": 8917,
      "friger": 8918,
      "exists": 8919,
      "odd": 8920,
      "enda": 8921,
      "creativity": 8922,
      "crush": 8923,
      "berries": 8924,
      "plements": 8925,
      "flaw": 8926,
      "Track": 8927,
      "grams": 8928,
      "Toy": 8929,
      "pointed": 8930,
      "rising": 8931,
      "!!!!": 8932,
      "demands": 8933,
      "competitors": 8934,
      "stayed": 8935,
      "Meet": 8936,
      "magic": 8937,
      "Content": 8938,
      "blogs": 8939,
      "locked": 8940,
      "paths": 8941,
      "compliment": 8942,
      "supplied": 8943,
      "romantic": 8944,
      "demonstrate": 8945,
      "mistake": 8946,
      "Avail": 8947,
      "rapidly": 8948,
      "Economic": 8949,
      "podcast": 8950,
      "newspaper": 8951,
      "organisations": 8952,
      "Nigeria": 8953,
      "conventional": 8954,
      "retirement": 8955,
      "Arsenal": 8956,
      "($": 8957,
      "97": 8958,
      "AK": 8959,
      "Ess": 8960,
      "GH": 8961,
      "NT": 8962,
      "Psych": 8963,
      "Rose": 8964,
      "SB": 8965,
      "Send": 8966,
      "Sav": 8967,
      "Sense": 8968,
      "Tree": 8969,
      "cia": 8970,
      "ias": 8971,
      "lers": 8972,
      "nie": 8973,
      "pdf": 8974,
      "ration": 8975,
      "riding": 8976,
      "scor": 8977,
      "tune": 8978,
      "yn": 8979,
      "restr": 8980,
      "refin": 8981,
      "itable": 8982,
      "adel": 8983,
      "ceived": 8984,
      "agen": 8985,
      "composition": 8986,
      "neither": 8987,
      "opposition": 8988,
      "endless": 8989,
      "achi": 8990,
      "akers": 8991,
      "aksh": 8992,
      "lowest": 8993,
      "backs": 8994,
      "10th": 8995,
      "lesson": 8996,
      "issions": 8997,
      "anniversary": 8998,
      "cheaper": 8999,
      "legend": 9000,
      "Prim": 9001,
      "operator": 9002,
      "locate": 9003,
      "loaded": 9004,
      "harder": 9005,
      "hardly": 9006,
      "powered": 9007,
      "promised": 9008,
      "bedrooms": 9009,
      "Buy": 9010,
      "1996": 9011,
      "inois": 9012,
      "falling": 9013,
      "elev": 9014,
      "climb": 9015,
      "iami": 9016,
      "Previous": 9017,
      "accuracy": 9018,
      "Berlin": 9019,
      "thousand": 9020,
      "inspiring": 9021,
      "Capital": 9022,
      "Bloom": 9023,
      "constructed": 9024,
      "pregnancy": 9025,
      "olesale": 9026,
      "agriculture": 9027,
      "apparently": 9028,
      "warranty": 9029,
      "Carolina": 9030,
      "Young": 9031,
      "colleagues": 9032,
      "grateful": 9033,
      "Baby": 9034,
      "Cro": 9035,
      "Easter": 9036,
      "Fast": 9037,
      "Ga": 9038,
      "Kim": 9039,
      "Mun": 9040,
      "Tun": 9041,
      "Times": 9042,
      "WW": 9043,
      "bay": 9044,
      "iper": 9045,
      "ole": 9046,
      "uer": 9047,
      "thro": 9048,
      "onial": 9049,
      "reception": 9050,
      "arian": 9051,
      "etry": 9052,
      "utional": 9053,
      "urb": 9054,
      "urious": 9055,
      "convey": 9056,
      "los": 9057,
      "modate": 9058,
      "franch": 9059,
      "haz": 9060,
      "shad": 9061,
      "shorter": 9062,
      "antib": 9063,
      "workout": 9064,
      "creen": 9065,
      "ibl": 9066,
      "spa": 9067,
      "strange": 9068,
      "dispos": 9069,
      "icket": 9070,
      "diff": 9071,
      "consolid": 9072,
      "closure": 9073,
      "specialists": 9074,
      "equally": 9075,
      "pression": 9076,
      "investing": 9077,
      "Josh": 9078,
      "container": 9079,
      "Simply": 9080,
      "Everything": 9081,
      "encouraging": 9082,
      "contributions": 9083,
      "Heritage": 9084,
      "Area": 9085,
      "promoting": 9086,
      "Overall": 9087,
      "medications": 9088,
      "Hello": 9089,
      "golden": 9090,
      "efficiently": 9091,
      "reveal": 9092,
      "accommodate": 9093,
      "convin": 9094,
      "navigate": 9095,
      "Following": 9096,
      "Illinois": 9097,
      "facilitate": 9098,
      "quotes": 9099,
      "Restaur": 9100,
      "Gallery": 9101,
      "Hollywood": 9102,
      "afraid": 9103,
      "?!": 9104,
      "Dol": 9105,
      "G_": 9106,
      "MY": 9107,
      "Pers": 9108,
      "Tam": 9109,
      "fiber": 9110,
      "gutter": 9111,
      "ji": 9112,
      "loud": 9113,
      "relying": 9114,
      "atom": 9115,
      "orous": 9116,
      "isms": 9117,
      "omer": 9118,
      "bees": 9119,
      "abund": 9120,
      "abstract": 9121,
      "uni": 9122,
      "uris": 9123,
      "conversion": 9124,
      "ustin": 9125,
      "spacious": 9126,
      "1976": 9127,
      "jewel": 9128,
      "relative": 9129,
      "athon": 9130,
      "transaction": 9131,
      "signing": 9132,
      "Coordin": 9133,
      "cuts": 9134,
      "Brad": 9135,
      "Works": 9136,
      "Auth": 9137,
      "Guys": 9138,
      "physician": 9139,
      "texture": 9140,
      "talked": 9141,
      "Holy": 9142,
      "consistently": 9143,
      "captured": 9144,
      "authentication": 9145,
      "Member": 9146,
      "optimal": 9147,
      "Turkey": 9148,
      "exhibition": 9149,
      "Silver": 9150,
      "legisl": 9151,
      "rubber": 9152,
      "junction": 9153,
      "ranked": 9154,
      "wisdom": 9155,
      "substantial": 9156,
      "vendors": 9157,
      "Connect": 9158,
      "Korea": 9159,
      "Copyright": 9160,
      "sophisticated": 9161,
      "Retrieved": 9162,
      "Body": 9163,
      "Case": 9164,
      "Dog": 9165,
      "Must": 9166,
      "Matt": 9167,
      "PI": 9168,
      "ggling": 9169,
      "lip": 9170,
      "mits": 9171,
      "pip": 9172,
      "sour": 9173,
      "tender": 9174,
      "vard": 9175,
      "inher": 9176,
      "recruit": 9177,
      "esis": 9178,
      "aband": 9179,
      "lob": 9180,
      "apol": 9181,
      "sored": 9182,
      "ureau": 9183,
      "Weight": 9184,
      "strip": 9185,
      "intu": 9186,
      "colleg": 9187,
      "observ": 9188,
      "whereas": 9189,
      "letting": 9190,
      "Force": 9191,
      "Alli": 9192,
      "handy": 9193,
      "Seattle": 9194,
      "arrange": 9195,
      "aze": 9196,
      "Nothing": 9197,
      "Advis": 9198,
      "fewer": 9199,
      "specialized": 9200,
      "babies": 9201,
      "Appro": 9202,
      "templates": 9203,
      "grey": 9204,
      "treatments": 9205,
      "connecting": 9206,
      "Fox": 9207,
      "fluid": 9208,
      "latter": 9209,
      "safely": 9210,
      "Ministry": 9211,
      "crafts": 9212,
      "distributed": 9213,
      "hiking": 9214,
      "Solutions": 9215,
      "inyl": 9216,
      "Annual": 9217,
      "duration": 9218,
      "Talk": 9219,
      "Southern": 9220,
      "Casino": 9221,
      "mutual": 9222,
      "Atlantic": 9223,
      "interpretation": 9224,
      "vulner": 9225,
      "Avenue": 9226,
      "Ban": 9227,
      "Bat": 9228,
      "Band": 9229,
      "Block": 9230,
      "Cer": 9231,
      "Cath": 9232,
      "Father": 9233,
      "HV": 9234,
      "Jeff": 9235,
      "Kans": 9236,
      "Miami": 9237,
      "Pick": 9238,
      "QU": 9239,
      "TX": 9240,
      "gel": 9241,
      "pets": 9242,
      "onic": 9243,
      "theast": 9244,
      "toile": 9245,
      "edges": 9246,
      "leaf": 9247,
      "accus": 9248,
      "implic": 9249,
      "unusual": 9250,
      "urt": 9251,
      "prohib": 9252,
      "convert": 9253,
      "embed": 9254,
      "exha": 9255,
      "prints": 9256,
      "worn": 9257,
      "ista": 9258,
      "asted": 9259,
      "discharge": 9260,
      "angers": 9261,
      "19th": 9262,
      "pton": 9263,
      "cartr": 9264,
      "flour": 9265,
      "supporters": 9266,
      "designing": 9267,
      "Always": 9268,
      "developments": 9269,
      "transformation": 9270,
      "aza": 9271,
      "Attor": 9272,
      "directions": 9273,
      "employers": 9274,
      "checked": 9275,
      "Maria": 9276,
      "Account": 9277,
      "roads": 9278,
      "castle": 9279,
      "hari": 9280,
      "Buildings": 9281,
      "qualify": 9282,
      "Upon": 9283,
      "routes": 9284,
      "feeding": 9285,
      "acquis": 9286,
      "institution": 9287,
      "scratch": 9288,
      "fancy": 9289,
      "Early": 9290,
      "Stock": 9291,
      "Return": 9292,
      "Brook": 9293,
      "bottles": 9294,
      "opinions": 9295,
      "situated": 9296,
      "Products": 9297,
      "Vegas": 9298,
      "Labor": 9299,
      "festival": 9300,
      "paintings": 9301,
      "Software": 9302,
      "weapons": 9303,
      "Administration": 9304,
      "Francisco": 9305,
      "intellectual": 9306,
      "216": 9307,
      "Ca": 9308,
      "Kir": 9309,
      "XL": 9310,
      "bunch": 9311,
      "eer": 9312,
      "lady": 9313,
      "mates": 9314,
      "pens": 9315,
      "penc": 9316,
      "tile": 9317,
      "uco": 9318,
      "vous": 9319,
      "çi": 9320,
      "recall": 9321,
      "enor": 9322,
      "alive": 9323,
      "itter": 9324,
      "sts": 9325,
      "rog": 9326,
      "suits": 9327,
      "universe": 9328,
      "terior": 9329,
      "Theatre": 9330,
      "export": 9331,
      "shif": 9332,
      "Things": 9333,
      "20th": 9334,
      "Stay": 9335,
      "column": 9336,
      "anges": 9337,
      "buck": 9338,
      "centers": 9339,
      "flights": 9340,
      "guides": 9341,
      "profiles": 9342,
      "closet": 9343,
      "Prime": 9344,
      "Ext": 9345,
      "generous": 9346,
      "locally": 9347,
      "aska": 9348,
      "Loom": 9349,
      "Rober": 9350,
      "secondary": 9351,
      "electron": 9352,
      "lawyers": 9353,
      "Coll": 9354,
      "privile": 9355,
      "combat": 9356,
      "radiation": 9357,
      "Regard": 9358,
      "officially": 9359,
      "targeted": 9360,
      "blocks": 9361,
      "Elçi": 9362,
      "Communications": 9363,
      "Memorial": 9364,
      "beaches": 9365,
      "cludes": 9366,
      "rarely": 9367,
      "Panel": 9368,
      "argument": 9369,
      "Film": 9370,
      "quarters": 9371,
      "suddenly": 9372,
      "stakeholders": 9373,
      "Effect": 9374,
      "Property": 9375,
      "sofa": 9376,
      "Nokia": 9377,
      "3D": 9378,
      "71": 9379,
      "Bear": 9380,
      "CF": 9381,
      "Clar": 9382,
      "Dar": 9383,
      "Gor": 9384,
      "Gard": 9385,
      "HR": 9386,
      "RC": 9387,
      "Rent": 9388,
      "SW": 9389,
      "User": 9390,
      "aired": 9391,
      "bills": 9392,
      "baking": 9393,
      "tank": 9394,
      "wider": 9395,
      "iner": 9396,
      "renow": 9397,
      "edia": 9398,
      "stadium": 9399,
      "acles": 9400,
      "rose": 9401,
      "robust": 9402,
      "chap": 9403,
      "debut": 9404,
      "frames": 9405,
      "shirt": 9406,
      "cancel": 9407,
      "ummy": 9408,
      "maker": 9409,
      "boots": 9410,
      "ansen": 9411,
      "crusher": 9412,
      "strive": 9413,
      "disability": 9414,
      "brick": 9415,
      "awn": 9416,
      "Story": 9417,
      "pharm": 9418,
      "producer": 9419,
      "highlights": 9420,
      "guards": 9421,
      "Univers": 9422,
      "engines": 9423,
      "cared": 9424,
      "transparent": 9425,
      "legally": 9426,
      "Advan": 9427,
      "organisation": 9428,
      "graphical": 9429,
      "Manufact": 9430,
      "containers": 9431,
      "garlic": 9432,
      "Syn": 9433,
      "cultiv": 9434,
      "weren": 9435,
      "picking": 9436,
      "EST": 9437,
      "gradu": 9438,
      "ART": 9439,
      "criptions": 9440,
      "representatives": 9441,
      "Finance": 9442,
      "parks": 9443,
      "glasses": 9444,
      "ranking": 9445,
      "Studio": 9446,
      "reserved": 9447,
      "implementing": 9448,
      "surrounded": 9449,
      "Glass": 9450,
      "Palest": 9451,
      "absence": 9452,
      "twist": 9453,
      "tags": 9454,
      "frequent": 9455,
      "emotion": 9456,
      "religion": 9457,
      "Basic": 9458,
      "talented": 9459,
      "chemicals": 9460,
      "instruments": 9461,
      "intelligent": 9462,
      "instantly": 9463,
      "universities": 9464,
      "restore": 9465,
      "Consider": 9466,
      "sponsor": 9467,
      "Mexico": 9468,
      "Kentucky": 9469,
      "Georgia": 9470,
      "Yeah": 9471,
      "5th": 9472,
      "Cze": 9473,
      "Gy": 9474,
      "ME": 9475,
      "Ryan": 9476,
      "Tell": 9477,
      "ecolog": 9478,
      "hence": 9479,
      "lens": 9480,
      "mold": 9481,
      "nt": 9482,
      "psum": 9483,
      "rors": 9484,
      "inar": 9485,
      "onder": 9486,
      "theatre": 9487,
      "atile": 9488,
      "alo": 9489,
      "alysis": 9490,
      "isure": 9491,
      "toy": 9492,
      "itting": 9493,
      "stability": 9494,
      "ilation": 9495,
      "ilty": 9496,
      "elder": 9497,
      "roots": 9498,
      "royal": 9499,
      "adap": 9500,
      "idal": 9501,
      "withdraw": 9502,
      "unlimited": 9503,
      "aggress": 9504,
      "trash": 9505,
      "neuro": 9506,
      "ifier": 9507,
      "resid": 9508,
      "ounce": 9509,
      "artificial": 9510,
      "forming": 9511,
      "ishop": 9512,
      "Anim": 9513,
      "overview": 9514,
      "interviews": 9515,
      "intend": 9516,
      "auction": 9517,
      "ultane": 9518,
      "landing": 9519,
      "Construction": 9520,
      "Trail": 9521,
      "folder": 9522,
      "courage": 9523,
      "valuation": 9524,
      "singing": 9525,
      "loading": 9526,
      "prominent": 9527,
      "casual": 9528,
      "Affil": 9529,
      "Working": 9530,
      "tribution": 9531,
      "Orig": 9532,
      "steady": 9533,
      "targets": 9534,
      "printable": 9535,
      "API": 9536,
      "define": 9537,
      "divisions": 9538,
      "Supreme": 9539,
      "resolve": 9540,
      "Reading": 9541,
      "Kingdom": 9542,
      "inspire": 9543,
      "southern": 9544,
      "Jersey": 9545,
      "assured": 9546,
      "Agency": 9547,
      "Environmental": 9548,
      "caffe": 9549,
      "Picture": 9550,
      "Eliza": 9551,
      "Currently": 9552,
      "accordance": 9553,
      "sponsored": 9554,
      "Houston": 9555,
      "Loomans": 9556,
      "Blog": 9557,
      "Dump": 9558,
      "Ira": 9559,
      "Kr": 9560,
      "Nice": 9561,
      "Navy": 9562,
      "Ray": 9563,
      "Rachel": 9564,
      "Self": 9565,
      "Ten": 9566,
      "Tai": 9567,
      "Ur": 9568,
      "VI": 9569,
      "Viet": 9570,
      "[[": 9571,
      "iary": 9572,
      "lu": 9573,
      "mb": 9574,
      "pel": 9575,
      "tage": 9576,
      "tours": 9577,
      "wake": 9578,
      "rey": 9579,
      "recept": 9580,
      "reply": 9581,
      "edit": 9582,
      "leep": 9583,
      "adop": 9584,
      "admit": 9585,
      "verify": 9586,
      "sured": 9587,
      "union": 9588,
      "prosecut": 9589,
      "ulpt": 9590,
      "shr": 9591,
      "uma": 9592,
      "Integr": 9593,
      "nose": 9594,
      "bron": 9595,
      "manif": 9596,
      "intervention": 9597,
      "wanting": 9598,
      "calendar": 9599,
      "Contract": 9600,
      "ologist": 9601,
      "charging": 9602,
      "salary": 9603,
      "operated": 9604,
      "180": 9605,
      "elson": 9606,
      "professor": 9607,
      "Reserve": 9608,
      "Orange": 9609,
      "shoe": 9610,
      "filling": 9611,
      "periods": 9612,
      "wishes": 9613,
      "elsewhere": 9614,
      "recommendation": 9615,
      "Register": 9616,
      "21st": 9617,
      "accum": 9618,
      "Image": 9619,
      "massage": 9620,
      "nuts": 9621,
      "acquire": 9622,
      "surroundings": 9623,
      "advise": 9624,
      "streaming": 9625,
      "impression": 9626,
      "carrier": 9627,
      "literature": 9628,
      "configuration": 9629,
      "scenario": 9630,
      "plugin": 9631,
      "lamps": 9632,
      "Choose": 9633,
      "instrument": 9634,
      "Irish": 9635,
      "bourne": 9636,
[...]
