{
  "version": "1.0",
  "truncation": null,
  "padding": null,
  "added_tokens": [
    {
      "id": 0,
      "content": "<UNK>",
      "single_word": false,
      "lstrip": false,
      "rstrip": false,
      "normalized": false,
      "special": true
    },
    {
      "id": 1,
      "content": "<PAD>",
      "single_word": false,
      "lstrip": false,
      "rstrip": false,
      "normalized": false,
      "special": true
    },
    {
      "id": 2,
      "content": "<s>",
      "single_word": false,
      "lstrip": false,
      "rstrip": false,
      "normalized": false,
      "special": true
    },
    {
      "id": 3,
      "content": "<s/>",
      "single_word": false,
      "lstrip": false,
      "rstrip": false,
      "normalized": false,
      "special": true
    }
  ],
  "normalizer": null,
  "pre_tokenizer": {
    "type": "Whitespace"
  },
  "post_processor": null,
  "decoder": null,
  "model": {
    "type": "WordPiece",
    "unk_token": "<UNK>",
    "continuing_subword_prefix": "##",
    "max_input_chars_per_word": 100,
    "vocab": {
      "<UNK>": 0,
      "<PAD>": 1,
      "<s>": 2,
      "<s/>": 3,
      "\u0003": 4,
      "\b": 5,
      "\u0019": 6,
      "!": 7,
      "\"": 8,
      "#": 9,
      "$": 10,
      "%": 11,
      "&": 12,
      "'": 13,
      "(": 14,
      ")": 15,
      "*": 16,
      "+": 17,
      ",": 18,
      "-": 19,
      ".": 20,
      "/": 21,
      "0": 22,
      "1": 23,
      "2": 24,
      "3": 25,
      "4": 26,
      "5": 27,
      "6": 28,
      "7": 29,
      "8": 30,
      "9": 31,
      ":": 32,
      ";": 33,
      "<": 34,
      "=": 35,
      ">": 36,
      "?": 37,
      "@": 38,
      "A": 39,
      "B": 40,
      "C": 41,
      "D": 42,
      "E": 43,
      "F": 44,
      "G": 45,
      "H": 46,
      "I": 47,
      "J": 48,
      "K": 49,
      "L": 50,
      "M": 51,
      "N": 52,
      "O": 53,
      "P": 54,
      "Q": 55,
      "R": 56,
      "S": 57,
      "T": 58,
      "U": 59,
      "V": 60,
      "W": 61,
      "X": 62,
      "Y": 63,
      "Z": 64,
      "[": 65,
      "\\": 66,
      "]": 67,
      "^": 68,
      "_": 69,
      "`": 70,
      "a": 71,
      "b": 72,
      "c": 73,
      "d": 74,
      "e": 75,
      "f": 76,
      "g": 77,
      "h": 78,
      "i": 79,
      "j": 80,
      "k": 81,
      "l": 82,
      "m": 83,
      "n": 84,
      "o": 85,
      "p": 86,
      "q": 87,
      "r": 88,
      "s": 89,
      "t": 90,
      "u": 91,
      "v": 92,
      "w": 93,
      "x": 94,
      "y": 95,
      "z": 96,
      "|": 97,
      "}": 98,
      "~": 99,
      "": 100,
      "": 101,
      "": 102,
      "": 103,
      "": 104,
      "": 105,
      "": 106,
      "": 107,
      "": 108,
      "": 109,
      "": 110,
      "": 111,
      "¡": 112,
      "¢": 113,
      "£": 114,
      "¥": 115,
      "§": 116,
      "©": 117,
      "«": 118,
      "¬": 119,
      "­": 120,
      "®": 121,
      "°": 122,
      "±": 123,
      "·": 124,
      "»": 125,
      "¿": 126,
      "À": 127,
      "Á": 128,
      "Â": 129,
      "Ã": 130,
      "Ä": 131,
      "Å": 132,
      "Ç": 133,
      "È": 134,
      "É": 135,
      "Í": 136,
      "Î": 137,
      "Ñ": 138,
      "Ó": 139,
      "Ö": 140,
      "×": 141,
      "Ø": 142,
      "Ú": 143,
      "Ü": 144,
      "ß": 145,
      "à": 146,
      "á": 147,
      "â": 148,
      "ã": 149,
      "ä": 150,
      "å": 151,
      "æ": 152,
      "ç": 153,
      "è": 154,
      "é": 155,
      "ê": 156,
      "ë": 157,
      "í": 158,
      "î": 159,
      "ï": 160,
      "ñ": 161,
      "ò": 162,
      "ó": 163,
      "ô": 164,
      "õ": 165,
      "ö": 166,
      "ø": 167,
      "ù": 168,
      "ú": 169,
      "û": 170,
      "ü": 171,
      "ý": 172,
      "Ā": 173,
      "ā": 174,
      "ă": 175,
      "ą": 176,
      "ć": 177,
      "ċ": 178,
      "Č": 179,
      "č": 180,
      "ď": 181,
      "Đ": 182,
      "đ": 183,
      "ē": 184,
      "ĕ": 185,
      "ė": 186,
      "ę": 187,
      "ě": 188,
      "ğ": 189,
      "ĩ": 190,
      "Ī": 191,
      "ī": 192,
      "İ": 193,
      "ı": 194,
      "ł": 195,
      "ō": 196,
      "ő": 197,
      "œ": 198,
      "ř": 199,
      "ś": 200,
      "Ş": 201,
      "ş": 202,
      "Š": 203,
      "š": 204,
      "ū": 205,
      "ů": 206,
      "ų": 207,
      "ź": 208,
      "ż": 209,
      "Ž": 210,
      "ž": 211,
      "ƒ": 212,
      "ư": 213,
      "ȏ": 214,
      "ə": 215,
      "ʁ": 216,
      "ʏ": 217,
      "ʹ": 218,
      "ʺ": 219,
      "ʼ": 220,
      "ʿ": 221,
      "ˈ": 222,
      "ː": 223,
      "́": 224,
      "̃": 225,
      "̈": 226,
      "̋": 227,
      "̶": 228,
      "͞": 229,
      "Έ": 230,
      "Α": 231,
      "Δ": 232,
      "Ε": 233,
      "Η": 234,
      "Ι": 235,
      "Κ": 236,
      "Λ": 237,
      "Μ": 238,
      "Ν": 239,
      "Ο": 240,
      "Ρ": 241,
      "Σ": 242,
      "Φ": 243,
      "Ω": 244,
      "ά": 245,
      "έ": 246,
      "ή": 247,
      "ί": 248,
      "α": 249,
      "β": 250,
      "γ": 251,
      "δ": 252,
      "ε": 253,
      "ζ": 254,
      "η": 255,
      "θ": 256,
      "ι": 257,
      "κ": 258,
      "λ": 259,
      "μ": 260,
      "ν": 261,
      "ο": 262,
      "π": 263,
      "ρ": 264,
      "ς": 265,
      "σ": 266,
      "τ": 267,
      "υ": 268,
      "φ": 269,
      "χ": 270,
      "ω": 271,
      "ό": 272,
      "ύ": 273,
      "ώ": 274,
      "Ђ": 275,
      "А": 276,
      "Б": 277,
      "В": 278,
      "Г": 279,
      "Д": 280,
      "Е": 281,
      "Ж": 282,
      "З": 283,
      "И": 284,
      "К": 285,
      "Л": 286,
      "М": 287,
      "Н": 288,
      "О": 289,
      "П": 290,
      "Р": 291,
      "С": 292,
      "Т": 293,
      "У": 294,
      "Ф": 295,
      "Х": 296,
      "Ч": 297,
      "Э": 298,
      "Ю": 299,
      "Я": 300,
      "а": 301,
      "б": 302,
      "в": 303,
      "г": 304,
      "д": 305,
      "е": 306,
      "ж": 307,
      "з": 308,
      "и": 309,
      "й": 310,
      "к": 311,
      "л": 312,
      "м": 313,
      "н": 314,
      "о": 315,
      "п": 316,
      "р": 317,
      "с": 318,
      "т": 319,
      "у": 320,
      "ф": 321,
      "х": 322,
      "ц": 323,
      "ч": 324,
      "ш": 325,
      "щ": 326,
      "ъ": 327,
      "ы": 328,
      "ь": 329,
      "э": 330,
      "ю": 331,
      "я": 332,
      "ё": 333,
      "ѕ": 334,
      "і": 335,
      "ԛ": 336,
      "ַ": 337,
      "ָ": 338,
      "ג": 339,
      "ע": 340,
      "ר": 341,
      "،": 342,
      "ء": 343,
      "أ": 344,
      "إ": 345,
      "ا": 346,
      "ب": 347,
      "ة": 348,
      "ت": 349,
      "ج": 350,
      "ح": 351,
      "خ": 352,
      "د": 353,
      "ذ": 354,
      "ر": 355,
      "ز": 356,
      "س": 357,
      "ش": 358,
      "ص": 359,
      "ض": 360,
      "ظ": 361,
      "ع": 362,
      "غ": 363,
      "ف": 364,
      "ق": 365,
      "ك": 366,
      "ل": 367,
      "م": 368,
      "ن": 369,
      "ه": 370,
      "و": 371,
      "ى": 372,
      "ي": 373,
      "ً": 374,
      "ک": 375,
      "گ": 376,
      "ی": 377,
      "۪": 378,
      "ܐ": 379,
      "ܘ": 380,
      "ܛ": 381,
      "ܝ": 382,
      "ܢ": 383,
      "ܣ": 384,
      "ं": 385,
      "अ": 386,
      "आ": 387,
      "इ": 388,
      "उ": 389,
      "ए": 390,
      "औ": 391,
      "क": 392,
      "ग": 393,
      "च": 394,
      "छ": 395,
      "ज": 396,
      "ट": 397,
      "ढ": 398,
      "ण": 399,
      "त": 400,
      "थ": 401,
      "द": 402,
      "ध": 403,
      "न": 404,
      "प": 405,
      "ब": 406,
      "भ": 407,
      "म": 408,
      "य": 409,
      "र": 410,
      "ल": 411,
      "व": 412,
      "श": 413,
      "ष": 414,
      "स": 415,
      "ह": 416,
      "़": 417,
      "ा": 418,
      "ि": 419,
      "ी": 420,
      "ु": 421,
      "ू": 422,
      "े": 423,
      "ै": 424,
      "ो": 425,
      "ौ": 426,
      "्": 427,
      "।": 428,
      "ത": 429,
      "ര": 430,
      "ശ": 431,
      "ൂ": 432,
      "ൃ": 433,
      "്": 434,
      "ก": 435,
      "ข": 436,
      "ค": 437,
      "ง": 438,
      "ด": 439,
      "ต": 440,
      "น": 441,
      "บ": 442,
      "ป": 443,
      "พ": 444,
      "ม": 445,
      "ย": 446,
      "ร": 447,
      "ล": 448,
      "ว": 449,
      "ส": 450,
      "อ": 451,
      "ั": 452,
      "า": 453,
      "ิ": 454,
      "ี": 455,
      "ู": 456,
      "฿": 457,
      "เ": 458,
      "ใ": 459,
      "ไ": 460,
      "่": 461,
      "้": 462,
      "Ḥ": 463,
      "ḥ": 464,
      "ṣ": 465,
      "Ṭ": 466,
      "ṭ": 467,
      "ạ": 468,
      "ế": 469,
      "ệ": 470,
      "ọ": 471,
      "ố": 472,
      "ộ": 473,
      "ờ": 474,
      "​": 475,
      "‌": 476,
      "‍": 477,
      "‎": 478,
      "‐": 479,
      "–": 480,
      "—": 481,
      "―": 482,
      "‘": 483,
      "’": 484,
      "“": 485,
      "”": 486,
      "„": 487,
      "†": 488,
      "•": 489,
      "‰": 490,
      "′": 491,
      "›": 492,
      "※": 493,
      "⁄": 494,
      "⁕": 495,
      "₤": 496,
      "€": 497,
      "₹": 498,
      "℗": 499,
      "←": 500,
      "↑": 501,
      "→": 502,
      "⇨": 503,
      "∂": 504,
      "∑": 505,
      "−": 506,
      "∼": 507,
      "≈": 508,
      "≠": 509,
      "≡": 510,
      "≥": 511,
      "≫": 512,
      "⋯": 513,
      "⌖": 514,
      "□": 515,
      "►": 516,
      "◆": 517,
      "○": 518,
      "●": 519,
      "◼": 520,
      "♥": 521,
      "♫": 522,
      "✅": 523,
      "✈": 524,
      "✓": 525,
      "✔": 526,
      "❤": 527,
      "➡": 528,
      "、": 529,
      "。": 530,
      "「": 531,
      "」": 532,
      "【": 533,
      "】": 534,
      "い": 535,
      "う": 536,
      "か": 537,
      "が": 538,
      "き": 539,
      "く": 540,
      "し": 541,
      "た": 542,
      "だ": 543,
      "っ": 544,
      "て": 545,
      "で": 546,
      "と": 547,
      "ど": 548,
      "に": 549,
      "の": 550,
      "は": 551,
      "ふ": 552,
      "ぶ": 553,
      "ま": 554,
      "み": 555,
      "や": 556,
      "よ": 557,
      "ら": 558,
      "り": 559,
      "る": 560,
      "れ": 561,
      "を": 562,
      "ん": 563,
      "ア": 564,
      "ィ": 565,
      "イ": 566,
      "ウ": 567,
      "オ": 568,
      "カ": 569,
      "ク": 570,
      "コ": 571,
      "シ": 572,
      "ジ": 573,
      "ス": 574,
      "ズ": 575,
      "セ": 576,
      "ナ": 577,
      "ニ": 578,
      "フ": 579,
      "ブ": 580,
      "ペ": 581,
      "ホ": 582,
      "ボ": 583,
      "ミ": 584,
      "ム": 585,
      "ュ": 586,
      "ラ": 587,
      "リ": 588,
      "ル": 589,
      "ロ": 590,
      "ン": 591,
      "・": 592,
      "ー": 593,
      "一": 594,
      "与": 595,
      "专": 596,
      "世": 597,
      "业": 598,
      "个": 599,
      "中": 600,
      "丷": 601,
      "为": 602,
      "主": 603,
      "乐": 604,
      "乾": 605,
      "予": 606,
      "事": 607,
      "二": 608,
      "于": 609,
      "云": 610,
      "井": 611,
      "交": 612,
      "产": 613,
      "享": 614,
      "京": 615,
      "人": 616,
      "今": 617,
      "他": 618,
      "以": 619,
      "传": 620,
      "位": 621,
      "体": 622,
      "依": 623,
      "修": 624,
      "借": 625,
      "假": 626,
      "儿": 627,
      "元": 628,
      "充": 629,
      "全": 630,
      "八": 631,
      "六": 632,
      "关": 633,
      "兼": 634,
      "内": 635,
      "农": 636,
      "出": 637,
      "分": 638,
      "到": 639,
      "前": 640,
      "功": 641,
      "勇": 642,
      "化": 643,
      "北": 644,
      "华": 645,
      "及": 646,
      "友": 647,
      "双": 648,
      "发": 649,
      "变": 650,
      "古": 651,
      "史": 652,
      "号": 653,
      "司": 654,
      "合": 655,
      "吒": 656,
      "含": 657,
      "和": 658,
      "品": 659,
      "員": 660,
      "哪": 661,
      "商": 662,
      "囉": 663,
      "园": 664,
      "国": 665,
      "图": 666,
      "國": 667,
      "園": 668,
      "在": 669,
      "场": 670,
      "埼": 671,
      "堂": 672,
      "場": 673,
      "夏": 674,
      "外": 675,
      "大": 676,
      "夷": 677,
      "奕": 678,
      "奖": 679,
      "女": 680,
      "好": 681,
      "如": 682,
      "威": 683,
      "婚": 684,
      "嫩": 685,
      "学": 686,
      "宋": 687,
      "家": 688,
      "容": 689,
      "寺": 690,
      "寿": 691,
      "展": 692,
      "工": 693,
      "己": 694,
      "市": 695,
      "希": 696,
      "幅": 697,
      "干": 698,
      "年": 699,
      "幹": 700,
      "度": 701,
      "康": 702,
      "建": 703,
      "开": 704,
      "弁": 705,
      "式": 706,
      "当": 707,
      "役": 708,
      "彼": 709,
      "心": 710,
      "志": 711,
      "思": 712,
      "急": 713,
      "恋": 714,
      "恩": 715,
      "想": 716,
      "我": 717,
      "户": 718,
      "房": 719,
      "所": 720,
      "打": 721,
      "托": 722,
      "据": 723,
      "推": 724,
      "掲": 725,
      "描": 726,
      "故": 727,
      "教": 728,
      "敢": 729,
      "数": 730,
      "文": 731,
      "新": 732,
      "方": 733,
      "旅": 734,
      "日": 735,
      "时": 736,
      "明": 737,
      "易": 738,
      "映": 739,
      "昨": 740,
      "昭": 741,
      "是": 742,
      "時": 743,
      "景": 744,
      "暗": 745,
      "書": 746,
      "曾": 747,
      "最": 748,
      "月": 749,
      "有": 750,
      "望": 751,
      "期": 752,
      "本": 753,
      "机": 754,
      "杨": 755,
      "板": 756,
      "林": 757,
      "查": 758,
      "柯": 759,
      "梅": 760,
      "楷": 761,
      "楽": 762,
      "機": 763,
      "欅": 764,
      "款": 765,
      "步": 766,
      "武": 767,
      "水": 768,
      "沢": 769,
      "法": 770,
      "注": 771,
      "泽": 772,
      "活": 773,
      "涉": 774,
      "清": 775,
      "渡": 776,
      "港": 777,
      "漉": 778,
      "澤": 779,
      "点": 780,
      "爱": 781,
      "物": 782,
      "特": 783,
      "玉": 784,
      "玩": 785,
      "现": 786,
      "球": 787,
      "理": 788,
      "生": 789,
      "用": 790,
      "画": 791,
      "界": 792,
      "留": 793,
      "発": 794,
      "的": 795,
      "盛": 796,
      "着": 797,
      "知": 798,
      "码": 799,
      "示": 800,
      "社": 801,
      "神": 802,
      "离": 803,
      "私": 804,
      "秘": 805,
      "空": 806,
      "立": 807,
      "站": 808,
      "童": 809,
      "第": 810,
      "简": 811,
      "算": 812,
      "籠": 813,
      "米": 814,
      "約": 815,
      "純": 816,
      "紧": 817,
      "絹": 818,
      "綫": 819,
      "線": 820,
      "约": 821,
      "纽": 822,
      "线": 823,
      "细": 824,
      "经": 825,
      "给": 826,
      "编": 827,
      "网": 828,
      "置": 829,
      "群": 830,
      "習": 831,
      "耍": 832,
      "育": 833,
      "能": 834,
      "腐": 835,
      "自": 836,
      "色": 837,
      "节": 838,
      "英": 839,
      "草": 840,
      "荐": 841,
      "薩": 842,
      "行": 843,
      "补": 844,
      "表": 845,
      "補": 846,
      "西": 847,
      "言": 848,
      "計": 849,
      "話": 850,
      "語": 851,
      "讓": 852,
      "议": 853,
      "讯": 854,
      "设": 855,
      "询": 856,
      "语": 857,
      "说": 858,
      "谈": 859,
      "豆": 860,
      "贈": 861,
      "走": 862,
      "跟": 863,
      "路": 864,
      "車": 865,
      "车": 866,
      "辑": 867,
      "进": 868,
      "述": 869,
      "造": 870,
      "進": 871,
      "部": 872,
      "都": 873,
      "配": 874,
      "酒": 875,
      "释": 876,
      "野": 877,
      "金": 878,
      "银": 879,
      "長": 880,
      "长": 881,
      "開": 882,
      "関": 883,
      "關": 884,
      "问": 885,
      "间": 886,
      "阐": 887,
      "际": 888,
      "陆": 889,
      "陸": 890,
      "際": 891,
      "電": 892,
      "非": 893,
      "音": 894,
      "题": 895,
      "駅": 896,
      "體": 897,
      "麗": 898,
      "黃": 899,
      "가": 900,
      "간": 901,
      "개": 902,
      "거": 903,
      "건": 904,
      "것": 905,
      "게": 906,
      "격": 907,
      "결": 908,
      "경": 909,
      "계": 910,
      "고": 911,
      "공": 912,
      "과": 913,
      "교": 914,
      "국": 915,
      "규": 916,
      "그": 917,
      "글": 918,
      "급": 919,
      "기": 920,
      "꾸": 921,
      "나": 922,
      "난": 923,
      "남": 924,
      "낮": 925,
      "내": 926,
      "널": 927,
      "년": 928,
      "노": 929,
      "녹": 930,
      "는": 931,
      "니": 932,
      "다": 933,
      "단": 934,
      "대": 935,
      "데": 936,
      "도": 937,
      "되": 938,
      "두": 939,
      "드": 940,
      "든": 941,
      "들": 942,
      "등": 943,
      "디": 944,
      "라": 945,
      "락": 946,
      "래": 947,
      "랜": 948,
      "럼": 949,
      "레": 950,
      "력": 951,
      "렴": 952,
      "로": 953,
      "론": 954,
      "롤": 955,
      "률": 956,
      "를": 957,
      "리": 958,
      "립": 959,
      "마": 960,
      "막": 961,
      "매": 962,
      "명": 963,
      "모": 964,
      "무": 965,
      "문": 966,
      "물": 967,
      "므": 968,
      "미": 969,
      "믿": 970,
      "및": 971,
      "바": 972,
      "반": 973,
      "발": 974,
      "배": 975,
      "벌": 976,
      "보": 977,
      "본": 978,
      "부": 979,
      "분": 980,
      "브": 981,
      "비": 982,
      "빈": 983,
      "사": 984,
      "상": 985,
      "색": 986,
      "샷": 987,
      "서": 988,
      "설": 989,
      "성": 990,
      "세": 991,
      "센": 992,
      "셔": 993,
      "션": 994,
      "소": 995,
      "속": 996,
      "송": 997,
      "수": 998,
      "순": 999,
      "술": 1000,
      "쉐": 1001,
      "쉽": 1002,
      "스": 1003,
      "습": 1004,
      "시": 1005,
      "신": 1006,
      "심": 1007,
      "아": 1008,
      "앙": 1009,
      "야": 1010,
      "양": 1011,
      "어": 1012,
      "업": 1013,
      "없": 1014,
      "엇": 1015,
      "었": 1016,
      "에": 1017,
      "여": 1018,
      "역": 1019,
      "연": 1020,
      "영": 1021,
      "오": 1022,
      "왔": 1023,
      "외": 1024,
      "요": 1025,
      "용": 1026,
      "우": 1027,
      "운": 1028,
      "워": 1029,
      "원": 1030,
      "월": 1031,
      "위": 1032,
      "유": 1033,
      "육": 1034,
      "으": 1035,
      "은": 1036,
      "을": 1037,
      "의": 1038,
      "이": 1039,
      "인": 1040,
      "일": 1041,
      "임": 1042,
      "입": 1043,
      "있": 1044,
      "자": 1045,
      "작": 1046,
      "장": 1047,
      "재": 1048,
      "저": 1049,
      "적": 1050,
      "전": 1051,
      "점": 1052,
      "정": 1053,
      "제": 1054,
      "조": 1055,
      "좌": 1056,
      "주": 1057,
      "준": 1058,
      "중": 1059,
      "지": 1060,
      "질": 1061,
      "집": 1062,
      "처": 1063,
      "척": 1064,
      "천": 1065,
      "체": 1066,
      "총": 1067,
      "축": 1068,
      "출": 1069,
      "츠": 1070,
      "치": 1071,
      "크": 1072,
      "타": 1073,
      "탁": 1074,
      "터": 1075,
      "테": 1076,
      "톤": 1077,
      "통": 1078,
      "트": 1079,
      "티": 1080,
      "파": 1081,
      "판": 1082,
      "패": 1083,
      "페": 1084,
      "평": 1085,
      "포": 1086,
      "품": 1087,
      "프": 1088,
      "필": 1089,
      "하": 1090,
      "학": 1091,
      "한": 1092,
      "할": 1093,
      "합": 1094,
      "항": 1095,
      "해": 1096,
      "핸": 1097,
      "현": 1098,
      "호": 1099,
      "화": 1100,
      "환": 1101,
      "히": 1102,
      "": 1103,
      "": 1104,
      "": 1105,
      "": 1106,
      "": 1107,
      "": 1108,
      "️": 1109,
      "﻿": 1110,
      "�": 1111,
      "🌱": 1112,
      "🌴": 1113,
      "🍹": 1114,
      "🎂": 1115,
      "🏉": 1116,
      "🏴": 1117,
      "🏷": 1118,
      "🐛": 1119,
      "🐜": 1120,
      "💕": 1121,
      "💥": 1122,
      "😀": 1123,
      "😉": 1124,
      "😍": 1125,
      "🙁": 1126,
      "🙂": 1127,
      "🤤": 1128,
      "󠁢": 1129,
      "󠁣": 1130,
      "󠁧": 1131,
      "󠁬": 1132,
      "󠁳": 1133,
      "󠁴": 1134,
      "󠁷": 1135,
      "󠁿": 1136,
      "##e": 1137,
      "##i": 1138,
      "##s": 1139,
      "##n": 1140,
      "##b": 1141,
      "##r": 1142,
      "##g": 1143,
      "##k": 1144,
      "##h": 1145,
      "##a": 1146,
      "##d": 1147,
      "##l": 1148,
      "##y": 1149,
      "##c": 1150,
      "##u": 1151,
      "##t": 1152,
      "##m": 1153,
      "##o": 1154,
      "##x": 1155,
      "##w": 1156,
      "##D": 1157,
      "##P": 1158,
      "##U": 1159,
      "##I": 1160,
      "##p": 1161,
      "##z": 1162,
      "##f": 1163,
      "##M": 1164,
      "##9": 1165,
      "##0": 1166,
      "##고": 1167,
      "##v": 1168,
      "##2": 1169,
      "##Y": 1170,
      "##O": 1171,
      "##V": 1172,
      "##1": 1173,
      "##6": 1174,
      "##5": 1175,
      "##7": 1176,
      "##C": 1177,
      "##\"": 1178,
      "##)": 1179,
      "##.": 1180,
      "##Z": 1181,
      "##j": 1182,
      "##A": 1183,
      "##N": 1184,
      "##E": 1185,
      "##S": 1186,
      "##3": 1187,
      "##8": 1188,
      "##G": 1189,
      "##T": 1190,
      "##4": 1191,
      "##W": 1192,
      "##L": 1193,
      "##K": 1194,
      "##B": 1195,
      "##H": 1196,
      "##X": 1197,
      "##-": 1198,
      "##F": 1199,
      "##R": 1200,
      "##_": 1201,
      "##é": 1202,
      "##q": 1203,
      "##и": 1204,
      "##н": 1205,
      "##г": 1206,
      "##в": 1207,
      "##о": 1208,
      "##æ": 1209,
      "##”": 1210,
      "##탁": 1211,
      "##드": 1212,
      "##립": 1213,
      "##니": 1214,
      "##다": 1215,
      "##*": 1216,
      "##@": 1217,
      "##%": 1218,
      "##?": 1219,
      "##!": 1220,
      "##ʹ": 1221,
      "##ʺ": 1222,
      "##е": 1223,
      "##а": 1224,
      "##ѕ": 1225,
      "##리": 1226,
      "##,": 1227,
      "##심": 1228,
      "##і": 1229,
      "##Q": 1230,
      "##척": 1231,
      "##해": 1232,
      "##왔": 1233,
      "##ل": 1234,
      "##ح": 1235,
      "##ي": 1236,
      "##ا": 1237,
      "##ة": 1238,
      "##ы": 1239,
      "##ш": 1240,
      "##J": 1241,
      "##у": 1242,
      "##д": 1243,
      "##т": 1244,
      "##ی": 1245,
      "##ن": 1246,
      "##ت": 1247,
      "##ر": 1248,
      "##с": 1249,
      "##泽": 1250,
      "##车": 1251,
      "##站": 1252,
      "##í": 1253,
      "##ʼ": 1254,
      "##ā": 1255,
      "##р": 1256,
      "##я": 1257,
      "##의": 1258,
      "##사": 1259,
      "##항": 1260,
      "##이": 1261,
      "##á": 1262,
      "##ı": 1263,
      "##л": 1264,
      "##п": 1265,
      "##+": 1266,
      "##;": 1267,
      "##м": 1268,
      "##خ": 1269,
      "##크": 1270,
      "##래": 1271,
      "##치": 1272,
      "##마": 1273,
      "##워": 1274,
      "##&": 1275,
      "##경": 1276,
      "##세": 1277,
      "##계": 1278,
      "##자": 1279,
      "##인": 1280,
      "##>": 1281,
      "##'": 1282,
      "##ł": 1283,
      "##د": 1284,
      "##ь": 1285,
      "##س": 1286,
      "##ك": 1287,
      "##ش": 1288,
      "##ف": 1289,
      "##ю": 1290,
      "##Ђ": 1291,
      "##ö": 1292,
      "##μ": 1293,
      "##ι": 1294,
      "##λ": 1295,
      "##ο": 1296,
      "##ύ": 1297,
      "##ν": 1298,
      "##ü": 1299,
      "##Ø": 1300,
      "##б": 1301,
      "##β": 1302,
      "##ε": 1303,
      "##τ": 1304,
      "##κ": 1305,
      "##ή": 1306,
      "##ς": 1307,
      "##﻿": 1308,
      "##(": 1309,
      "##ï": 1310,
      "##/": 1311,
      "##ρ": 1312,
      "##ώ": 1313,
      "##η": 1314,
      "##ж": 1315,
      "##к": 1316,
      "##`": 1317,
      "##\\": 1318,
      "##易": 1319,
      "##云": 1320,
      "##音": 1321,
      "##乐": 1322,
      "##是": 1323,
      "##一": 1324,
      "##款": 1325,
      "##专": 1326,
      "##注": 1327,
      "##于": 1328,
      "##发": 1329,
      "##现": 1330,
      "##与": 1331,
      "##分": 1332,
      "##享": 1333,
      "##的": 1334,
      "##产": 1335,
      "##品": 1336,
      "##ố": 1337,
      "##ج": 1338,
      "##و": 1339,
      "##ى": 1340,
      "##й": 1341,
      "##ê": 1342,
      "##에": 1343,
      "##ż": 1344,
      "##’": 1345,
      "##è": 1346,
      "##â": 1347,
      "##ω": 1348,
      "##ä": 1349,
      "##스": 1350,
      "##합": 1351,
      "##ō": 1352,
      "##속": 1353,
      "##적": 1354,
      "##言": 1355,
      "##内": 1356,
      "##容": 1357,
      "##步": 1358,
      "##说": 1359,
      "##明": 1360,
      "##—": 1361,
      "##ñ": 1362,
      "##ó": 1363,
      "##Δ": 1364,
      "##ç": 1365,
      "##ど": 1366,
      "##う": 1367,
      "##酒": 1368,
      "##は": 1369,
      "##ふ": 1370,
      "##ん": 1371,
      "##だ": 1372,
      "##に": 1373,
      "##配": 1374,
      "##ら": 1375,
      "##れ": 1376,
      "##た": 1377,
      "##х": 1378,
      "##δ": 1379,
      "##타": 1380,
      "##바": 1381,
      "##友": 1382,
      "##人": 1383,
      "##全": 1384,
      "##員": 1385,
      "##か": 1386,
      "##金": 1387,
      "##を": 1388,
      "##借": 1389,
      "##り": 1390,
      "##ま": 1391,
      "##く": 1392,
      "##っ": 1393,
      "##ё": 1394,
      "##:": 1395,
      "##ḥ": 1396,
      "##陸": 1397,
      "##新": 1398,
      "##幹": 1399,
      "##綫": 1400,
      "##役": 1401,
      "##と": 1402,
      "##し": 1403,
      "##て": 1404,
      "##知": 1405,
      "##る": 1406,
      "##С": 1407,
      "##ã": 1408,
      "##것": 1409,
      "##처": 1410,
      "##럼": 1411,
      "##å": 1412,
      "##상": 1413,
      "##문": 1414,
      "##출": 1415,
      "##판": 1416,
      "##입": 1417,
      "##ί": 1418,
      "##国": 1419,
      "##式": 1420,
      "##离": 1421,
      "##婚": 1422,
      "##أ": 1423,
      "##ص": 1424,
      "##ب": 1425,
      "##[": 1426,
      "##“": 1427,
      "##à": 1428,
      "##豆": 1429,
      "##腐": 1430,
      "##급": 1431,
      "##을": 1432,
      "##α": 1433,
      "##θ": 1434,
      "##σ": 1435,
      "##ě": 1436,
      "##ë": 1437,
      "##¢": 1438,
      "##ч": 1439,
      "##톤": 1440,
      "##ú": 1441,
      "##국": 1442,
      "##좌": 1443,
      "##가": 1444,
      "##‌": 1445,
      "##ş": 1446,
      "##작": 1447,
      "##업": 1448,
      "##체": 1449,
      "##र": 1450,
      "##्": 1451,
      "##त": 1452,
      "##ी": 1453,
      "##£": 1454,
      "##з": 1455,
      "##ř": 1456,
      "##έ": 1457,
      "##ܣ": 1458,
      "##ܛ": 1459,
      "##ܘ": 1460,
      "##ܢ": 1461,
      "##ܝ": 1462,
      "##ܐ": 1463,
      "##γ": 1464,
      "##ά": 1465,
      "##외": 1466,
      "##ै": 1467,
      "##Ã": 1468,
      "##О": 1469,
      "##Ж": 1470,
      "##Д": 1471,
      "##Е": 1472,
      "##Т": 1473,
      "##В": 1474,
      "##А": 1475,
      "##­": 1476,
      "##Â": 1477,
      "##م": 1478,
      "##ع": 1479,
      "##ő": 1480,
      "##议": 1481,
      "##二": 1482,
      "###": 1483,
      "##ę": 1484,
      "##ø": 1485,
      "##과": 1486,
      "##表": 1487,
      "##细": 1488,
      "##节": 1489,
      "##工": 1490,
      "##商": 1491,
      "##银": 1492,
      "##行": 1493,
      "##​": 1494,
      "##े": 1495,
      "##": 1496,
      "##": 1497,
      "##画": 1498,
      "##": 1499,
      "##–": 1500,
      "##ه": 1501,
      "##ý": 1502,
      "##梅": 1503,
      "##Á": 1504,
      "##थ": 1505,
      "##य": 1506,
      "##ा": 1507,
      "##म": 1508,
      "##क": 1509,
      "##Ö": 1510,
      "##न": 1511,
      "##श": 1512,
      "##ि": 1513,
      "##롤": 1514,
      "##$": 1515,
      "##력": 1516,
      "##으": 1517,
      "##로": 1518,
      "##ц": 1519,
      "##": 1520,
      "##ś": 1521,
      "##습": 1522,
      "##ū": 1523,
      "##ž": 1524,
      "##ô": 1525,
      "##シ": 1526,
      "##リ": 1527,
      "##ー": 1528,
      "##ズ": 1529,
      "##西": 1530,
      "##國": 1531,
      "##際": 1532,
      "##機": 1533,
      "##場": 1534,
      "##ğ": 1535,
      "##우": 1536,
      "##ờ": 1537,
      "##空": 1538,
      "##港": 1539,
      "##양": 1540,
      "##한": 1541,
      "##č": 1542,
      "##용": 1543,
      "##장": 1544,
      "##품": 1545,
      "##ं": 1546,
      "##ज": 1547,
      "##]": 1548,
      "##า": 1549,
      "##ร": 1550,
      "##พ": 1551,
      "##น": 1552,
      "##ั": 1553,
      "##บ": 1554,
      "##อ": 1555,
      "##ล": 1556,
      "##语": 1557,
      "##간": 1558,
      "##물": 1559,
      "##э": 1560,
      "##غ": 1561,
      "##ض": 1562,
      "##ز": 1563,
      "##색": 1564,
      "##전": 1565,
      "##द": 1566,
      "##ह": 1567,
      "##ण": 1568,
      "##막": 1569,
      "##서": 1570,
      "##ī": 1571,
      "##조": 1572,
      "##ē": 1573,
      "##하": 1574,
      "##매": 1575,
      "##以": 1576,
      "##讓": 1577,
      "##他": 1578,
      "##到": 1579,
      "##夏": 1580,
      "##威": 1581,
      "##夷": 1582,
      "##渡": 1583,
      "##假": 1584,
      "##囉": 1585,
      "##司": 1586,
      "##籠": 1587,
      "##弁": 1588,
      "##当": 1589,
      "##コ": 1590,
      "##ス": 1591,
      "##ế": 1592,
      "##~": 1593,
      "##六": 1594,
      "##園": 1595,
      "##ė": 1596,
      "##奕": 1597,
      "##含": 1598,
      "##ラ": 1599,
      "##ブ": 1600,
      "##ß": 1601,
      "##ظ": 1602,
      "##락": 1603,
      "##ć": 1604,
      "##ф": 1605,
      "##χ": 1606,
      "##υ": 1607,
      "##랜": 1608,
      "##描": 1609,
      "##述": 1610,
      "##õ": 1611,
      "##프": 1612,
      "##므": 1613,
      "##질": 1614,
      "##İ": 1615,
      "##林": 1616,
      "##外": 1617,
      "##传": 1618,
      "##辑": 1619,
      "##部": 1620,
      "##故": 1621,
      "##事": 1622,
      "##′": 1623,
      "##나": 1624,
      "##最": 1625,
      "##大": 1626,
      "##特": 1627,
      "##点": 1628,
      "##च": 1629,
      "##छ": 1630,
      "##ु": 1631,
      "##ジ": 1632,
      "##ナ": 1633,
      "##ル": 1634,
      "##の": 1635,
      "##年": 1636,
      "##月": 1637,
      "##日": 1638,
      "##時": 1639,
      "##よ": 1640,
      "##ア": 1641,
      "##カ": 1642,
      "##イ": 1643,
      "##개": 1644,
      "##는": 1645,
      "##京": 1646,
      "##在": 1647,
      "##纽": 1648,
      "##约": 1649,
      "##내": 1650,
      "##건": 1651,
      "##설": 1652,
      "##지": 1653,
      "##щ": 1654,
      "##।": 1655,
      "##시": 1656,
      "##거": 1657,
      "##되": 1658,
      "##었": 1659,
      "##書": 1660,
      "##電": 1661,
      "##化": 1662,
      "##房": 1663,
      "##体": 1664,
      "##が": 1665,
      "##昭": 1666,
      "##和": 1667,
      "##단": 1668,
      "##Ñ": 1669,
      "##=": 1670,
      "##ム": 1671,
      "##ペ": 1672,
      "##希": 1673,
      "##望": 1674,
      "##能": 1675,
      "##開": 1676,
      "##心": 1677,
      "##玩": 1678,
      "##耍": 1679,
      "##Л": 1680,
      "##Г": 1681,
      "##ق": 1682,
      "##ζ": 1683,
      "##野": 1684,
      "##線": 1685,
      "##<": 1686,
      "##Ω": 1687,
      "##出": 1688,
      "##ọ": 1689,
      "##화": 1690,
      "##통": 1691,
      "##推": 1692,
      "##荐": 1693,
      "##及": 1694,
      "##社": 1695,
      "##交": 1696,
      "##功": 1697,
      "##澤": 1698,
      "##市": 1699,
      "##대": 1700,
      "##用": 1701,
      "##户": 1702,
      "##打": 1703,
      "##造": 1704,
      "##生": 1705,
      "##活": 1706,
      "##�": 1707,
      "##재": 1708,
      "##ƒ": 1709,
      "##ĩ": 1710,
      "##π": 1711,
      "##ό": 1712,
      "##€": 1713,
      "##建": 1714,
      "##设": 1715,
      "##农": 1716,
      "##业": 1717,
      "##œ": 1718,
      "##|": 1719,
      "##想": 1720,
      "##好": 1721,
      "##谈": 1722,
      "##恋": 1723,
      "##爱": 1724,
      "##일": 1725,
      "##수": 1726,
      "##ṭ": 1727,
      "##운": 1728,
      "##데": 1729,
      "##션": 1730,
      "##ː": 1731,
      "##ə": 1732,
      "##ˈ": 1733,
      "##ʁ": 1734,
      "##ʏ": 1735,
      "##中": 1736,
      "##第": 1737,
      "##个": 1738,
      "##变": 1739,
      "##정": 1740,
      "##ค": 1741,
      "##É": 1742,
      "##Ä": 1743,
      "##야": 1744,
      "##를": 1745,
      "##習": 1746,
      "##進": 1747,
      "##修": 1748,
      "##教": 1749,
      "##育": 1750,
      "##法": 1751,
      "##阐": 1752,
      "##®": 1753,
      "##©": 1754,
      "##−": 1755,
      "##Ο": 1756,
      "##û": 1757,
      "##界": 1758,
      "##经": 1759,
      "##理": 1760,
      "##学": 1761,
      "##堂": 1762,
      "##호": 1763,
      "##포": 1764,
      "##어": 1765,
      "##ź": 1766,
      "##水": 1767,
      "##寺": 1768,
      "##론": 1769,
      "##트": 1770,
      "##ィ": 1771,
      "##ン": 1772,
      "##ク": 1773,
      "##旅": 1774,
      "##楽": 1775,
      "##み": 1776,
      "##方": 1777,
      "##予": 1778,
      "##約": 1779,
      "##で": 1780,
      "##ă": 1781,
      "##š": 1782,
      "##기": 1783,
      "##부": 1784,
      "##터": 1785,
      "##ò": 1786,
      "##ढ": 1787,
      "##़": 1788,
      "##요": 1789,
      "##§": 1790,
      "##셔": 1791,
      "##츠": 1792,
      "##명": 1793,
      "##前": 1794,
      "##景": 1795,
      "##‐": 1796,
      "##算": 1797,
      "##ṣ": 1798,
      "##": 1799,
      "##沢": 1800,
      "##駅": 1801,
      "##여": 1802,
      "##ध": 1803,
      "##स": 1804,
      "##ू": 1805,
      "##ộ": 1806,
      "##배": 1807,
      "##송": 1808,
      "##度": 1809,
      "##有": 1810,
      "##儿": 1811,
      "##女": 1812,
      "##ċ": 1813,
      "##涉": 1814,
      "##群": 1815,
      "##‎": 1816,
      "##̶": 1817,
      "##้": 1818,
      "##ม": 1819,
      "##ไ": 1820,
      "##ป": 1821,
      "##ย": 1822,
      "##ง": 1823,
      "##반": 1824,
      "##󠁧": 1825,
      "##󠁢": 1826,
      "##󠁷": 1827,
      "##󠁬": 1828,
      "##󠁳": 1829,
      "##󠁿": 1830,
      "##ָ": 1831,
      "##ג": 1832,
      "##ַ": 1833,
      "##ע": 1834,
      "##本": 1835,
      "##語": 1836,
      "##文": 1837,
      "##«": 1838,
      "##や": 1839,
      "##き": 1840,
      "##車": 1841,
      "##🐜": 1842,
      "##준": 1843,
      "##φ": 1844,
      "##‘": 1845,
      "##主": 1846,
      "##题": 1847,
      "##ą": 1848,
      "##干": 1849,
      "##线": 1850,
      "##Ş": 1851,
      "##฿": 1852,
      "##ạ": 1853,
      "##₤": 1854,
      "##축": 1855,
      "##ミ": 1856,
      "##充": 1857,
      "##›": 1858,
      "##托": 1859,
      "##ء": 1860,
      "##": 1861,
      "##앙": 1862,
      "##교": 1863,
      "##육": 1864,
      "##센": 1865,
      "##쉐": 1866,
      "##勇": 1867,
      "##敢": 1868,
      "##走": 1869,
      "##自": 1870,
      "##己": 1871,
      "##路": 1872,
      "##Ā": 1873,
      "##ک": 1874,
      "##엇": 1875,
      "##보": 1876,
      "##î": 1877,
      "##ذ": 1878,
      "##ď": 1879,
      "##유": 1880,
      "##都": 1881,
      "##物": 1882,
      "##ù": 1883,
      "##麗": 1884,
      "##레": 1885,
      "##임": 1886,
      "##년": 1887,
      "##乾": 1888,
      "##盛": 1889,
      "##世": 1890,
      "##秘": 1891,
      "##史": 1892,
      "##두": 1893,
      "##व": 1894,
      "##ो": 1895,
      "##은": 1896,
      "##ư": 1897,
      "##ट": 1898,
      "##Ι": 1899,
      "##벌": 1900,
      "##할": 1901,
      "##라": 1902,
      "##격": 1903,
      "##͞": 1904,
      "##志": 1905,
      "##恩": 1906,
      "##园": 1907,
      "##ี": 1908,
      "##ौ": 1909,
      "##ग": 1910,
      "##ल": 1911,
      "##间": 1912,
      "##ĕ": 1913,
      "##急": 1914,
      "##원": 1915,
      "##그": 1916,
      "##،": 1917,
      "##释": 1918,
      "##际": 1919,
      "##机": 1920,
      "##场": 1921,
      "##ュ": 1922,
      "##Α": 1923,
      "##률": 1924,
      "##게": 1925,
      "##규": 1926,
      "##玉": 1927,
      "##発": 1928,
      "##티": 1929,
      "##ų": 1930,
      "##든": 1931,
      "##공": 1932,
      "##술": 1933,
      "##色": 1934,
      "##球": 1935,
      "##开": 1936,
      "##奖": 1937,
      "##号": 1938,
      "##码": 1939,
      "##查": 1940,
      "##询": 1941,
      "##元": 1942,
      "##示": 1943,
      "##板": 1944,
      "##セ": 1945,
      "##體": 1946,
      "##Ī": 1947,
      "##据": 1948,
      "##位": 1949,
      "##置": 1950,
      "##所": 1951,
      "##گ": 1952,
      "##ȏ": 1953,
      "##없": 1954,
      "##ู": 1955,
      "##ต": 1956,
      "##่": 1957,
      "##^": 1958,
      "##테": 1959,
      "##計": 1960,
      "##😍": 1961,
      "##🍹": 1962,
      "##陆": 1963,
      "##󠁣": 1964,
      "##󠁴": 1965,
      "##ů": 1966,
      "##}": 1967,
      "##집": 1968,
      "##ด": 1969,
      "##ใ": 1970,
      "##เ": 1971,
      "##ว": 1972,
      "##ब": 1973,
      "##히": 1974,
      "##跟": 1975,
      "##着": 1976,
      "##•": 1977,
      "##ボ": 1978,
      "##フ": 1979,
      "##ए": 1980,
      "##": 1981,
      "##ệ": 1982,
      "##렴": 1983,
      "##평": 1984,
      "##ष": 1985,
      "##漉": 1986,
      "##И": 1987,
      "##Р": 1988,
      "##ิ": 1989,
      "##ൃ": 1990,
      "##ശ": 1991,
      "##്": 1992,
      "##ൂ": 1993,
      "##ര": 1994,
      "##‍": 1995,
      "##ً": 1996,
      "##思": 1997,
      "##い": 1998,
      "##話": 1999,
      "##들": 2000,
      "##期": 2001,
      "##英": 2002,
      "##У": 2003,
      "##吒": 2004,
      "##神": 2005,
      "##童": 2006,
      "##he": 2007,
      "##in": 2008,
      "##er": 2009,
      "the": 2010,
      "##on": 2011,
      "##at": 2012,
      "##es": 2013,
      "##nd": 2014,
      "##or": 2015,
      "##ou": 2016,
      "##en": 2017,
      "##ing": 2018,
      "##ed": 2019,
      "##it": 2020,
      "to": 2021,
      "##an": 2022,
      "##al": 2023,
      "##ar": 2024,
      "and": 2025,
      "of": 2026,
      "##re": 2027,
      "in": 2028,
      "##is": 2029,
      "##ic": 2030,
      "##ion": 2031,
      "##om": 2032,
      "##as": 2033,
      "th": 2034,
      "##le": 2035,
      "##ent": 2036,
      "##il": 2037,
      "##el": 2038,
      "you": 2039,
      "##et": 2040,
      "##ro": 2041,
      "##st": 2042,
      "##ct": 2043,
      "is": 2044,
      "##ur": 2045,
      "for": 2046,
      "##ve": 2047,
      "on": 2048,
      "##ut": 2049,
      "re": 2050,
      "be": 2051,
      "##ot": 2052,
      "##ly": 2053,
      "##ay": 2054,
      "##ow": 2055,
      "##id": 2056,
      "##ce": 2057,
      "##ol": 2058,
      "##ch": 2059,
      "##ig": 2060,
      "##ation": 2061,
      "##ith": 2062,
      "##ad": 2063,
      "st": 2064,
      "##am": 2065,
      "that": 2066,
      "with": 2067,
      "##ir": 2068,
      "##se": 2069,
      "##ver": 2070,
      "The": 2071,
      "it": 2072,
      "##im": 2073,
      "##ter": 2074,
      "al": 2075,
      "pro": 2076,
      "##ess": 2077,
      "an": 2078,
      "as": 2079,
      "##ul": 2080,
      "##ers": 2081,
      "##ill": 2082,
      "are": 2083,
      "wh": 2084,
      "##ra": 2085,
      "con": 2086,
      "ha": 2087,
      "or": 2088,
      "##ge": 2089,
      "com": 2090,
      "##est": 2091,
      "##oo": 2092,
      "##pp": 2093,
      "your": 2094,
      "##her": 2095,
      "##ak": 2096,
      "fr": 2097,
      "##ment": 2098,
      "##ate": 2099,
      "##ab": 2100,
      "at": 2101,
      "##if": 2102,
      "##ck": 2103,
      "ne": 2104,
      "we": 2105,
      "su": 2106,
      "ex": 2107,
      "##igh": 2108,
      "se": 2109,
      "##ld": 2110,
      "de": 2111,
      "##us": 2112,
      "##pe": 2113,
      "##ort": 2114,
      "##ist": 2115,
      "##ant": 2116,
      "##ity": 2117,
      "have": 2118,
      "##ri": 2119,
      "can": 2120,
      "##em": 2121,
      "##ore": 2122,
      "##art": 2123,
      "##un": 2124,
      "was": 2125,
      "##ust": 2126,
      "##ain": 2127,
      "from": 2128,
      "sh": 2129,
      "##op": 2130,
      "##um": 2131,
      "this": 2132,
      "##th": 2133,
      "##os": 2134,
      "ch": 2135,
      "##ear": 2136,
      "##ive": 2137,
      "by": 2138,
      "not": 2139,
      "##ies": 2140,
      "will": 2141,
      "##all": 2142,
      "##iv": 2143,
      "##ight": 2144,
      "##ome": 2145,
      "en": 2146,
      "##and": 2147,
      "##ard": 2148,
      "##ud": 2149,
      "ab": 2150,
      "##our": 2151,
      "##out": 2152,
      "wor": 2153,
      "##ie": 2154,
      "all": 2155,
      "##ould": 2156,
      "##ell": 2157,
      "pl": 2158,
      "##ial": 2159,
      "##ost": 2160,
      "##per": 2161,
      "##od": 2162,
      "##ect": 2163,
      "##gh": 2164,
      "do": 2165,
      "Th": 2166,
      "##rou": 2167,
      "so": 2168,
      "us": 2169,
      "he": 2170,
      "##age": 2171,
      "##ast": 2172,
      "ad": 2173,
      "In": 2174,
      "##qu": 2175,
      "##ine": 2176,
      "##ure": 2177,
      "comp": 2178,
      "20": 2179,
      "##ag": 2180,
      "##pt": 2181,
      "##ions": 2182,
      "##ice": 2183,
      "</": 2184,
      "##ally": 2185,
      "has": 2186,
      "##hen": 2187,
      "le": 2188,
      "##ide": 2189,
      "pr": 2190,
      "up": 2191,
      "##able": 2192,
      "##ake": 2193,
      "##ther": 2194,
      "##ook": 2195,
      "##ac": 2196,
      "our": 2197,
      "##ind": 2198,
      "##ff": 2199,
      "but": 2200,
      "out": 2201,
      "me": 2202,
      "##oc": 2203,
      "##ack": 2204,
      "cl": 2205,
      "##ich": 2206,
      "res": 2207,
      "##ip": 2208,
      "##nt": 2209,
      "##ime": 2210,
      "##cc": 2211,
      "cont": 2212,
      "##ke": 2213,
      "##one": 2214,
      "##ry": 2215,
      "##ated": 2216,
      "more": 2217,
      "their": 2218,
      "##ere": 2219,
      "##ood": 2220,
      "##orm": 2221,
      "##mp": 2222,
      "##og": 2223,
      "my": 2224,
      "##ail": 2225,
      "they": 2226,
      "one": 2227,
      "##ence": 2228,
      "##act": 2229,
      "##iz": 2230,
      "##ite": 2231,
      "##ong": 2232,
      "It": 2233,
      "##ous": 2234,
      "work": 2235,
      "##du": 2236,
      "##fer": 2237,
      "inc": 2238,
      "##ans": 2239,
      "##so": 2240,
      "##ance": 2241,
      "##ib": 2242,
      "int": 2243,
      "man": 2244,
      "app": 2245,
      "##ach": 2246,
      "te": 2247,
      "We": 2248,
      "about": 2249,
      "##ase": 2250,
      "St": 2251,
      "which": 2252,
      "time": 2253,
      "per": 2254,
      "##ign": 2255,
      "fe": 2256,
      "##ace": 2257,
      "qu": 2258,
      "##erv": 2259,
      "##ely": 2260,
      "##ia": 2261,
      "##ations": 2262,
      "##reat": 2263,
      "li": 2264,
      "##are": 2265,
      "year": 2266,
      "any": 2267,
      "##ire": 2268,
      "##form": 2269,
      "##ame": 2270,
      "##ap": 2271,
      "##ber": 2272,
      "sp": 2273,
      "who": 2274,
      "This": 2275,
      "##ru": 2276,
      "##ree": 2277,
      "other": 2278,
      "go": 2279,
      "##ult": 2280,
      "##ick": 2281,
      "also": 2282,
      "##ep": 2283,
      "##lo": 2284,
      "##ass": 2285,
      "get": 2286,
      "##ents": 2287,
      "part": 2288,
      "##vel": 2289,
      "##ary": 2290,
      "##ount": 2291,
      "ev": 2292,
      "##ays": 2293,
      "un": 2294,
      "##ical": 2295,
      "new": 2296,
      "some": 2297,
      "dis": 2298,
      "##av": 2299,
      "##ark": 2300,
      "##ings": 2301,
      "##ile": 2302,
      "201": 2303,
      "need": 2304,
      "them": 2305,
      "##ub": 2306,
      "##ction": 2307,
      "##ens": 2308,
      "ar": 2309,
      "##ue": 2310,
      "##now": 2311,
      "##ition": 2312,
      "##ild": 2313,
      "spe": 2314,
      "##ors": 2315,
      "##au": 2316,
      "if": 2317,
      "sc": 2318,
      "##ond": 2319,
      "Ch": 2320,
      "##ish": 2321,
      "over": 2322,
      "##te": 2323,
      "when": 2324,
      "##ord": 2325,
      "rec": 2326,
      "his": 2327,
      "pe": 2328,
      "like": 2329,
      "hel": 2330,
      "imp": 2331,
      "there": 2332,
      "been": 2333,
      "##00": 2334,
      "tr": 2335,
      "##pl": 2336,
      "##gr": 2337,
      "##very": 2338,
      "inter": 2339,
      "what": 2340,
      "##ove": 2341,
      "than": 2342,
      "##ose": 2343,
      "pre": 2344,
      "##cial": 2345,
      "acc": 2346,
      "##ery": 2347,
      "would": 2348,
      "##ink": 2349,
      "ag": 2350,
      "just": 2351,
      "know": 2352,
      "off": 2353,
      "##nder": 2354,
      "des": 2355,
      "##ough": 2356,
      "##wn": 2357,
      "prov": 2358,
      "its": 2359,
      "You": 2360,
      "##int": 2361,
      "co": 2362,
      "how": 2363,
      "##ound": 2364,
      "##rough": 2365,
      "fir": 2366,
      "am": 2367,
      "sa": 2368,
      "were": 2369,
      "comm": 2370,
      "##ov": 2371,
      "##ater": 2372,
      "had": 2373,
      "into": 2374,
      "serv": 2375,
      "bu": 2376,
      "##lud": 2377,
      "help": 2378,
      "bec": 2379,
      "##own": 2380,
      "##ade": 2381,
      "make": 2382,
      "##lic": 2383,
      "##ang": 2384,
      "tra": 2385,
      "If": 2386,
      "add": 2387,
      "Al": 2388,
      "no": 2389,
      "col": 2390,
      "##fter": 2391,
      "use": 2392,
      "##ople": 2393,
      "##ning": 2394,
      "may": 2395,
      "ind": 2396,
      "##here": 2397,
      "##enc": 2398,
      "Wh": 2399,
      "##ful": 2400,
      "##ress": 2401,
      "her": 2402,
      "##ual": 2403,
      "includ": 2404,
      "through": 2405,
      "look": 2406,
      "##ments": 2407,
      "##itt": 2408,
      "well": 2409,
      "##ne": 2410,
      "only": 2411,
      "produ": 2412,
      "tw": 2413,
      "##low": 2414,
      "people": 2415,
      "##ices": 2416,
      "##ory": 2417,
      "cons": 2418,
      "##lect": 2419,
      "##ons": 2420,
      "most": 2421,
      "first": 2422,
      "##ious": 2423,
      "##ates": 2424,
      "As": 2425,
      "see": 2426,
      "rep": 2427,
      "19": 2428,
      "every": 2429,
      "ph": 2430,
      "##round": 2431,
      "ro": 2432,
      "##ft": 2433,
      "##hed": 2434,
      "under": 2435,
      "act": 2436,
      "bet": 2437,
      "##les": 2438,
      "He": 2439,
      "back": 2440,
      "##iew": 2441,
      "##amp": 2442,
      "##ject": 2443,
      "##ific": 2444,
      "these": 2445,
      "exper": 2446,
      "##mer": 2447,
      "reg": 2448,
      "##ks": 2449,
      "##cess": 2450,
      "##ating": 2451,
      "##ise": 2452,
      "##ian": 2453,
      "want": 2454,
      "##iver": 2455,
      "supp": 2456,
      "Re": 2457,
      "##bs": 2458,
      ").": 2459,
      "sy": 2460,
      "dif": 2461,
      "po": 2462,
      "##ause": 2463,
      "ve": 2464,
      "##iness": 2465,
      "##ities": 2466,
      "very": 2467,
      "rel": 2468,
      "bl": 2469,
      "##ible": 2470,
      "##..": 2471,
      "many": 2472,
      "##ert": 2473,
      "##ict": 2474,
      "##urn": 2475,
      "way": 2476,
      "dec": 2477,
      "good": 2478,
      "##hing": 2479,
      "##ange": 2480,
      "##row": 2481,
      "should": 2482,
      "ke": 2483,
      "car": 2484,
      "stud": 2485,
      "two": 2486,
      "##we": 2487,
      "##ract": 2488,
      "bus": 2489,
      "##ational": 2490,
      "##uch": 2491,
      "##ures": 2492,
      "##ily": 2493,
      "##xt": 2494,
      "##old": 2495,
      "day": 2496,
      "rem": 2497,
      "##iss": 2498,
      "##ife": 2499,
      "##ys": 2500,
      "inform": 2501,
      "years": 2502,
      "after": 2503,
      "inst": 2504,
      "##ience": 2505,
      "##fore": 2506,
      "##day": 2507,
      "ass": 2508,
      "great": 2509,
      "she": 2510,
      "pers": 2511,
      "An": 2512,
      "even": 2513,
      "inv": 2514,
      "##ility": 2515,
      "##get": 2516,
      "##ting": 2517,
      "##pect": 2518,
      "pos": 2519,
      "##anc": 2520,
      "set": 2521,
      "sm": 2522,
      "##erm": 2523,
      "bas": 2524,
      "cr": 2525,
      "##ool": 2526,
      "##stem": 2527,
      "such": 2528,
      "own": 2529,
      "Ne": 2530,
      "##aking": 2531,
      "Pro": 2532,
      "could": 2533,
      "best": 2534,
      "##als": 2535,
      "loc": 2536,
      "id": 2537,
      "where": 2538,
      "high": 2539,
      "##aw": 2540,
      "##any": 2541,
      "##ont": 2542,
      "##air": 2543,
      "sec": 2544,
      "Se": 2545,
      "right": 2546,
      "##elf": 2547,
      "ac": 2548,
      "##ular": 2549,
      "##ied": 2550,
      "##hes": 2551,
      "##olog": 2552,
      "##nds": 2553,
      "ins": 2554,
      "then": 2555,
      "find": 2556,
      "##velop": 2557,
      "fin": 2558,
      "Com": 2559,
      "home": 2560,
      "much": 2561,
      "now": 2562,
      "##ph": 2563,
      "gu": 2564,
      "requ": 2565,
      "##ob": 2566,
      "##uring": 2567,
      "##oth": 2568,
      "att": 2569,
      "##ata": 2570,
      "design": 2571,
      "##ble": 2572,
      "##oy": 2573,
      "##ower": 2574,
      "##ward": 2575,
      "down": 2576,
      "For": 2577,
      "##tern": 2578,
      "mon": 2579,
      "##ath": 2580,
      "eff": 2581,
      "start": 2582,
      "sim": 2583,
      "##its": 2584,
      "Un": 2585,
      "And": 2586,
      "##res": 2587,
      "##ss": 2588,
      "business": 2589,
      "differ": 2590,
      "information": 2591,
      "##ty": 2592,
      "av": 2593,
      "take": 2594,
      "long": 2595,
      "##gan": 2596,
      "##ics": 2597,
      "too": 2598,
      "##led": 2599,
      "##ient": 2600,
      "person": 2601,
      "don": 2602,
      "im": 2603,
      "##ts": 2604,
      "cre": 2605,
      "mark": 2606,
      "##hip": 2607,
      "bel": 2608,
      "read": 2609,
      "fl": 2610,
      "##ork": 2611,
      "progr": 2612,
      "##alth": 2613,
      "10": 2614,
      "##omet": 2615,
      "said": 2616,
      "str": 2617,
      "##ener": 2618,
      "being": 2619,
      "min": 2620,
      "br": 2621,
      "There": 2622,
      "play": 2623,
      "##chn": 2624,
      "used": 2625,
      "because": 2626,
      "##ene": 2627,
      "pres": 2628,
      "##ustom": 2629,
      "system": 2630,
      "che": 2631,
      "call": 2632,
      "De": 2633,
      "develop": 2634,
      "made": 2635,
      "provid": 2636,
      "##other": 2637,
      "disc": 2638,
      "##chool": 2639,
      "here": 2640,
      "mod": 2641,
      "product": 2642,
      "##rol": 2643,
      "##ner": 2644,
      "##ative": 2645,
      "##ven": 2646,
      "before": 2647,
      "vis": 2648,
      "##ually": 2649,
      "does": 2650,
      "those": 2651,
      "fam": 2652,
      "trans": 2653,
      "##ouse": 2654,
      "med": 2655,
      "),": 2656,
      "##line": 2657,
      "...": 2658,
      "##ited": 2659,
      "##io": 2660,
      "eas": 2661,
      "##der": 2662,
      "##ality": 2663,
      "##ull": 2664,
      "did": 2665,
      "##ix": 2666,
      "art": 2667,
      "##ock": 2668,
      "wee": 2669,
      "##urr": 2670,
      "##rib": 2671,
      "aut": 2672,
      "each": 2673,
      "wr": 2674,
      "end": 2675,
      "##end": 2676,
      "det": 2677,
      "world": 2678,
      "process": 2679,
      "sur": 2680,
      "op": 2681,
      "sub": 2682,
      "prof": 2683,
      "think": 2684,
      "##az": 2685,
      "##ax": 2686,
      "em": 2687,
      "num": 2688,
      "custom": 2689,
      "gr": 2690,
      "But": 2691,
      "life": 2692,
      "free": 2693,
      "##alk": 2694,
      "bo": 2695,
      "sk": 2696,
      "200": 2697,
      "##way": 2698,
      "##ving": 2699,
      "cle": 2700,
      "Fr": 2701,
      "mem": 2702,
      "On": 2703,
      "Sh": 2704,
      "##ank": 2705,
      "##lease": 2706,
      "comple": 2707,
      "show": 2708,
      "##ets": 2709,
      "##cept": 2710,
      "How": 2711,
      "data": 2712,
      "cour": 2713,
      "adv": 2714,
      "##ues": 2715,
      "##ional": 2716,
      "form": 2717,
      "##ives": 2718,
      "##land": 2719,
      "##und": 2720,
      "pur": 2721,
      "different": 2722,
      "pub": 2723,
      "##atch": 2724,
      "##ather": 2725,
      "while": 2726,
      "Ar": 2727,
      "##akes": 2728,
      "program": 2729,
      "##ng": 2730,
      "##olut": 2731,
      "post": 2732,
      "##up": 2733,
      "##iet": 2734,
      "##ale": 2735,
      "##ize": 2736,
      "around": 2737,
      "##ash": 2738,
      "support": 2739,
      "##ever": 2740,
      "##ages": 2741,
      "##ines": 2742,
      "met": 2743,
      "ret": 2744,
      "exp": 2745,
      "feel": 2746,
      "fol": 2747,
      "lead": 2748,
      "build": 2749,
      "offer": 2750,
      "pol": 2751,
      "##ince": 2752,
      "##pr": 2753,
      "##ways": 2754,
      "##ently": 2755,
      "##ced": 2756,
      "care": 2757,
      "##ier": 2758,
      "##oun": 2759,
      "list": 2760,
      "Be": 2761,
      "book": 2762,
      "again": 2763,
      "They": 2764,
      "ll": 2765,
      "really": 2766,
      "##ces": 2767,
      "##arm": 2768,
      "place": 2769,
      "Cl": 2770,
      "##iting": 2771,
      "del": 2772,
      "##irect": 2773,
      "sign": 2774,
      "ser": 2775,
      "lar": 2776,
      "techn": 2777,
      "commun": 2778,
      "same": 2779,
      "somet": 2780,
      "last": 2781,
      "##ason": 2782,
      "avail": 2783,
      "Ad": 2784,
      "ent": 2785,
      "##over": 2786,
      "def": 2787,
      "service": 2788,
      "So": 2789,
      "New": 2790,
      "count": 2791,
      "top": 2792,
      "##ins": 2793,
      "import": 2794,
      "ext": 2795,
      "##ivers": 2796,
      "##ween": 2797,
      "pay": 2798,
      "##ple": 2799,
      "him": 2800,
      "##view": 2801,
      "month": 2802,
      "opt": 2803,
      "love": 2804,
      "still": 2805,
      "lot": 2806,
      "using": 2807,
      "gener": 2808,
      "ide": 2809,
      "though": 2810,
      "val": 2811,
      "##ave": 2812,
      "##imes": 2813,
      "hand": 2814,
      "##gg": 2815,
      "between": 2816,
      "##els": 2817,
      "##ining": 2818,
      "keep": 2819,
      "##ider": 2820,
      "health": 2821,
      "appro": 2822,
      "char": 2823,
      "experience": 2824,
      "follow": 2825,
      "##roup": 2826,
      "What": 2827,
      "lear": 2828,
      "both": 2829,
      "child": 2830,
      "found": 2831,
      "##ott": 2832,
      "##ved": 2833,
      "##ized": 2834,
      "plan": 2835,
      "going": 2836,
      "ear": 2837,
      "When": 2838,
      "market": 2839,
      "##eng": 2840,
      "main": 2841,
      "point": 2842,
      "available": 2843,
      "##iving": 2844,
      "ty": 2845,
      "##ential": 2846,
      "dri": 2847,
      "fun": 2848,
      "##ittle": 2849,
      "real": 2850,
      "var": 2851,
      "result": 2852,
      "##read": 2853,
      "To": 2854,
      "##ee": 2855,
      "allow": 2856,
      "always": 2857,
      "including": 2858,
      "open": 2859,
      "##ters": 2860,
      "light": 2861,
      "##ness": 2862,
      "##ology": 2863,
      "Ex": 2864,
      "exc": 2865,
      "school": 2866,
      "team": 2867,
      "company": 2868,
      "frie": 2869,
      "##ired": 2870,
      "few": 2871,
      "##bers": 2872,
      "run": 2873,
      "happ": 2874,
      "interest": 2875,
      "small": 2876,
      "##ah": 2877,
      "services": 2878,
      "poss": 2879,
      "ob": 2880,
      "level": 2881,
      "cor": 2882,
      "##less": 2883,
      "organ": 2884,
      "##ric": 2885,
      "provide": 2886,
      "##ling": 2887,
      "Mar": 2888,
      "cent": 2889,
      "project": 2890,
      "est": 2891,
      "iss": 2892,
      "Te": 2893,
      "##aut": 2894,
      "##thing": 2895,
      "red": 2896,
      "able": 2897,
      "##ross": 2898,
      "stand": 2899,
      "##red": 2900,
      "sure": 2901,
      "All": 2902,
      "number": 2903,
      "Tr": 2904,
      "partic": 2905,
      "##ants": 2906,
      "At": 2907,
      "##eld": 2908,
      "feat": 2909,
      "##iqu": 2910,
      "##blem": 2911,
      "emp": 2912,
      "water": 2913,
      "##ural": 2914,
      "Our": 2915,
      "Sc": 2916,
      "proper": 2917,
      "Pl": 2918,
      "##ern": 2919,
      "area": 2920,
      "perform": 2921,
      "say": 2922,
      "webs": 2923,
      "cost": 2924,
      "based": 2925,
      "##stand": 2926,
      "old": 2927,
      ".,": 2928,
      "little": 2929,
      "must": 2930,
      "dist": 2931,
      "rece": 2932,
      "without": 2933,
      "order": 2934,
      "##uss": 2935,
      "##ists": 2936,
      "conf": 2937,
      "curr": 2938,
      "things": 2939,
      "pass": 2940,
      "##ump": 2941,
      "during": 2942,
      "pat": 2943,
      "state": 2944,
      "class": 2945,
      "fact": 2946,
      "inf": 2947,
      "pri": 2948,
      "better": 2949,
      "##ined": 2950,
      "rest": 2951,
      "problem": 2952,
      "come": 2953,
      "##loy": 2954,
      "With": 2955,
      "##ital": 2956,
      "put": 2957,
      "##ically": 2958,
      "##gy": 2959,
      "##ody": 2960,
      "resp": 2961,
      "##duc": 2962,
      "##ention": 2963,
      "##tain": 2964,
      "mus": 2965,
      "family": 2966,
      "##oney": 2967,
      "tri": 2968,
      "three": 2969,
      "important": 2970,
      "conc": 2971,
      "something": 2972,
      "##ten": 2973,
      "fil": 2974,
      "contin": 2975,
      "try": 2976,
      "effect": 2977,
      "##par": 2978,
      "##omm": 2979,
      "cert": 2980,
      "give": 2981,
      "##ccess": 2982,
      "spec": 2983,
      "30": 2984,
      "Con": 2985,
      "##reen": 2986,
      "quality": 2987,
      "report": 2988,
      "full": 2989,
      "room": 2990,
      "##pos": 2991,
      "special": 2992,
      "hard": 2993,
      "##ug": 2994,
      "big": 2995,
      "##orth": 2996,
      "##ruct": 2997,
      "view": 2998,
      "online": 2999,
      "##ished": 3000,
      "let": 3001,
      "Ind": 3002,
      "##man": 3003,
      "##ision": 3004,
      "My": 3005,
      "##raph": 3006,
      "oper": 3007,
      "12": 3008,
      "quest": 3009,
      "equ": 3010,
      "incre": 3011,
      "bra": 3012,
      "par": 3013,
      "##ren": 3014,
      "site": 3015,
      "##ves": 3016,
      "within": 3017,
      "##ton": 3018,
      "##ients": 3019,
      "applic": 3020,
      "access": 3021,
      "second": 3022,
      "Le": 3023,
      "##ately": 3024,
      "##ute": 3025,
      "direct": 3026,
      "##orn": 3027,
      "sal": 3028,
      "##self": 3029,
      "000": 3030,
      "##ense": 3031,
      "cover": 3032,
      "group": 3033,
      "##earch": 3034,
      "##ars": 3035,
      "another": 3036,
      "Is": 3037,
      "##work": 3038,
      "control": 3039,
      "grow": 3040,
      "phot": 3041,
      "##ote": 3042,
      "bro": 3043,
      "next": 3044,
      "##ivid": 3045,
      "might": 3046,
      "head": 3047,
      "ref": 3048,
      "opp": 3049,
      "##oh": 3050,
      "##ency": 3051,
      "profess": 3052,
      "##ify": 3053,
      "##port": 3054,
      "##ards": 3055,
      "##nect": 3056,
      "That": 3057,
      "sit": 3058,
      "course": 3059,
      "today": 3060,
      "##ield": 3061,
      "prot": 3062,
      "el": 3063,
      "##room": 3064,
      "food": 3065,
      "##ats": 3066,
      "She": 3067,
      "week": 3068,
      "eng": 3069,
      "addition": 3070,
      "##con": 3071,
      "15": 3072,
      "since": 3073,
      "##ified": 3074,
      "website": 3075,
      "invest": 3076,
      "power": 3077,
      "meet": 3078,
      "##meric": 3079,
      "##aj": 3080,
      "public": 3081,
      "elect": 3082,
      "leg": 3083,
      "local": 3084,
      "win": 3085,
      "No": 3086,
      "making": 3087,
      "consider": 3088,
      "mat": 3089,
      "##fect": 3090,
      "term": 3091,
      "days": 3092,
      "##ames": 3093,
      "##ird": 3094,
      "##ium": 3095,
      "##gin": 3096,
      "chang": 3097,
      "working": 3098,
      "activ": 3099,
      "##ll": 3100,
      "vide": 3101,
      "needs": 3102,
      "prom": 3103,
      "bre": 3104,
      "##ident": 3105,
      "##ortun": 3106,
      "18": 3107,
      "looking": 3108,
      "sl": 3109,
      "turn": 3110,
      "##ron": 3111,
      "hour": 3112,
      "##joy": 3113,
      "Col": 3114,
      "gl": 3115,
      "##pend": 3116,
      "##ences": 3117,
      "##oot": 3118,
      "mov": 3119,
      "##lection": 3120,
      "never": 3121,
      "Americ": 3122,
      "unt": 3123,
      "##ann": 3124,
      "Res": 3125,
      "##lish": 3126,
      "house": 3127,
      "##ration": 3128,
      "##ems": 3129,
      "ca": 3130,
      "##ains": 3131,
      "mill": 3132,
      "students": 3133,
      "##ware": 3134,
      "##ator": 3135,
      "##load": 3136,
      "easy": 3137,
      "##oss": 3138,
      "understand": 3139,
      "Br": 3140,
      "##be": 3141,
      "ask": 3142,
      "nat": 3143,
      "fac": 3144,
      "##agement": 3145,
      "Bl": 3146,
      "jo": 3147,
      "less": 3148,
      "##ior": 3149,
      "##pping": 3150,
      "success": 3151,
      "test": 3152,
      "beaut": 3153,
      "case": 3154,
      "##ral": 3155,
      "##ised": 3156,
      "dev": 3157,
      "indust": 3158,
      "##ope": 3159,
      "##ission": 3160,
      "buy": 3161,
      "##ism": 3162,
      "##ased": 3163,
      "expl": 3164,
      "law": 3165,
      "pract": 3166,
      "money": 3167,
      "intern": 3168,
      "const": 3169,
      "Ph": 3170,
      "prev": 3171,
      "change": 3172,
      "Chr": 3173,
      "present": 3174,
      "##itions": 3175,
      "##ising": 3176,
      "pop": 3177,
      "##ieve": 3178,
      "##iversity": 3179,
      "air": 3180,
      "##ret": 3181,
      ",”": 3182,
      "perfect": 3183,
      "employ": 3184,
      "wom": 3185,
      "These": 3186,
      "tru": 3187,
      "##--": 3188,
      "ann": 3189,
      "Or": 3190,
      "sty": 3191,
      "11": 3192,
      "ed": 3193,
      "One": 3194,
      "away": 3195,
      "got": 3196,
      "check": 3197,
      "##ik": 3198,
      "cond": 3199,
      "dr": 3200,
      "##tic": 3201,
      "##ocus": 3202,
      "##ured": 3203,
      "##vers": 3204,
      "##ability": 3205,
      "products": 3206,
      "until": 3207,
      "Sp": 3208,
      "bene": 3209,
      "large": 3210,
      "along": 3211,
      "##ably": 3212,
      "##oci": 3213,
      "cap": 3214,
      "enjoy": 3215,
      "personal": 3216,
      "##ails": 3217,
      "learn": 3218,
      "##ique": 3219,
      "##aterial": 3220,
      "side": 3221,
      "##aster": 3222,
      "create": 3223,
      "##outh": 3224,
      "##att": 3225,
      "event": 3226,
      "connect": 3227,
      "##ger": 3228,
      "US": 3229,
      "##ike": 3230,
      "individ": 3231,
      ".\"": 3232,
      "##ister": 3233,
      "##vir": 3234,
      "hist": 3235,
      "visit": 3236,
      "game": 3237,
      "Co": 3238,
      "aff": 3239,
      "##utes": 3240,
      "creat": 3241,
      "##itc": 3242,
      "impro": 3243,
      "Can": 3244,
      "##ury": 3245,
      "##iful": 3246,
      "##ode": 3247,
      "Comm": 3248,
      "##ps": 3249,
      "toget": 3250,
      "##iety": 3251,
      "together": 3252,
      "kind": 3253,
      "##por": 3254,
      "page": 3255,
      "past": 3256,
      "sing": 3257,
      "whe": 3258,
      "possible": 3259,
      "##ization": 3260,
      "##ulation": 3261,
      "##ER": 3262,
      "##ember": 3263,
      "##inal": 3264,
      "##ted": 3265,
      "Bu": 3266,
      "sw": 3267,
      "##olution": 3268,
      "include": 3269,
      "focus": 3270,
      "##ases": 3271,
      "near": 3272,
      "##viron": 3273,
      "benef": 3274,
      "dem": 3275,
      "pot": 3276,
      "account": 3277,
      "contact": 3278,
      "Do": 3279,
      "land": 3280,
      "having": 3281,
      "##ample": 3282,
      "##tend": 3283,
      "Su": 3284,
      "members": 3285,
      "beh": 3286,
      "move": 3287,
      "##ills": 3288,
      "saf": 3289,
      "purch": 3290,
      "community": 3291,
      "##iven": 3292,
      "enter": 3293,
      "often": 3294,
      "After": 3295,
      "##ids": 3296,
      "May": 3297,
      "Pr": 3298,
      "App": 3299,
      "individual": 3300,
      "stor": 3301,
      "become": 3302,
      "review": 3303,
      "social": 3304,
      "##une": 3305,
      "children": 3306,
      "##ived": 3307,
      "25": 3308,
      "vol": 3309,
      "pain": 3310,
      "times": 3311,
      "why": 3312,
      "works": 3313,
      "##ively": 3314,
      "Man": 3315,
      "##oice": 3316,
      "dep": 3317,
      "Cent": 3318,
      "four": 3319,
      "es": 3320,
      "##lement": 3321,
      "price": 3322,
      "pa": 3323,
      "expect": 3324,
      "##ording": 3325,
      "educ": 3326,
      "name": 3327,
      "##urity": 3328,
      "lo": 3329,
      "##aff": 3330,
      "word": 3331,
      "content": 3332,
      "trad": 3333,
      "net": 3334,
      "##bo": 3335,
      "Intern": 3336,
      "building": 3337,
      "material": 3338,
      "sever": 3339,
      "Eng": 3340,
      "line": 3341,
      "##ination": 3342,
      "dra": 3343,
      "##med": 3344,
      "##vironment": 3345,
      "non": 3346,
      "ens": 3347,
      "quick": 3348,
      "clean": 3349,
      "comes": 3350,
      "hear": 3351,
      "la": 3352,
      "research": 3353,
      "##ney": 3354,
      "##itive": 3355,
      "tool": 3356,
      "soft": 3357,
      "makes": 3358,
      "##pped": 3359,
      "means": 3360,
      "##pecial": 3361,
      "clear": 3362,
      "Am": 3363,
      "##oll": 3364,
      "specific": 3365,
      "##iter": 3366,
      "##ries": 3367,
      "100": 3368,
      "ever": 3369,
      "gra": 3370,
      "install": 3371,
      "protect": 3372,
      "thing": 3373,
      "Christ": 3374,
      "enough": 3375,
      "Fl": 3376,
      "hum": 3377,
      "##oint": 3378,
      "enc": 3379,
      "across": 3380,
      "body": 3381,
      "occ": 3382,
      "development": 3383,
      "##ental": 3384,
      "##hor": 3385,
      "However": 3386,
      "getting": 3387,
      "lov": 3388,
      "beautiful": 3389,
      "##isc": 3390,
      "##ready": 3391,
      "##side": 3392,
      "##ane": 3393,
      "##ream": 3394,
      "redu": 3395,
      "##uck": 3396,
      "video": 3397,
      "maj": 3398,
      "against": 3399,
      "##ering": 3400,
      "space": 3401,
      "mom": 3402,
      "mult": 3403,
      "##rem": 3404,
      "mind": 3405,
      "##wards": 3406,
      "music": 3407,
      "short": 3408,
      "fav": 3409,
      "##anies": 3410,
      "others": 3411,
      "certain": 3412,
      "left": 3413,
      "14": 3414,
      "done": 3415,
      "require": 3416,
      "##ots": 3417,
      "already": 3418,
      "called": 3419,
      "opportun": 3420,
      "camp": 3421,
      "##nment": 3422,
      "##br": 3423,
      "##ners": 3424,
      "##uro": 3425,
      "##ference": 3426,
      "gover": 3427,
      "2018": 3428,
      "treat": 3429,
      "link": 3430,
      "##oose": 3431,
      "##ec": 3432,
      "web": 3433,
      "##ribut": 3434,
      "et": 3435,
      "far": 3436,
      "##hod": 3437,
      "least": 3438,
      "lim": 3439,
      "##ged": 3440,
      "##augh": 3441,
      "##aim": 3442,
      "known": 3443,
      "country": 3444,
      "Ass": 3445,
      "vers": 3446,
      "ste": 3447,
      "Serv": 3448,
      "##cu": 3449,
      "##ilt": 3450,
      "##unch": 3451,
      "offers": 3452,
      "ident": 3453,
      "Your": 3454,
      "##icle": 3455,
      "##elling": 3456,
      "low": 3457,
      "share": 3458,
      "respons": 3459,
      "wa": 3460,
      "typ": 3461,
      "night": 3462,
      "##inc": 3463,
      "bed": 3464,
      "##urther": 3465,
      "pack": 3466,
      "##arch": 3467,
      "##ift": 3468,
      "fut": 3469,
      "##ok": 3470,
      "below": 3471,
      "##orts": 3472,
      "##sel": 3473,
      "##urs": 3474,
      "amount": 3475,
      "key": 3476,
      "tem": 3477,
      "##let": 3478,
      "##olid": 3479,
      "##oring": 3480,
      "range": 3481,
      "##ley": 3482,
      "shar": 3483,
      "lik": 3484,
      "bit": 3485,
      "50": 3486,
      "Me": 3487,
      "doesn": 3488,
      "please": 3489,
      "##iod": 3490,
      "199": 3491,
      "En": 3492,
      "talk": 3493,
      "walk": 3494,
      "doing": 3495,
      "Med": 3496,
      "##ource": 3497,
      "Cont": 3498,
      "major": 3499,
      "##ape": 3500,
      "University": 3501,
      "customers": 3502,
      "once": 3503,
      "chall": 3504,
      "##aces": 3505,
      "##icult": 3506,
      "anal": 3507,
      "super": 3508,
      "actually": 3509,
      "##ones": 3510,
      "address": 3511,
      "bring": 3512,
      "##osp": 3513,
      "friend": 3514,
      "##fact": 3515,
      "clos": 3516,
      "hig": 3517,
      "minutes": 3518,
      "media": 3519,
      "##omes": 3520,
      "news": 3521,
      "##ows": 3522,
      "##ateg": 3523,
      "sum": 3524,
      "cou": 3525,
      "##book": 3526,
      "##fort": 3527,
      "##rop": 3528,
      "particular": 3529,
      "##atic": 3530,
      "step": 3531,
      "##ript": 3532,
      "features": 3533,
      "##IN": 3534,
      "##lev": 3535,
      "mar": 3536,
      "sound": 3537,
      "industry": 3538,
      "recomm": 3539,
      "##conom": 3540,
      "million": 3541,
      "13": 3542,
      "##rap": 3543,
      "companies": 3544,
      "##min": 3545,
      "begin": 3546,
      "deal": 3547,
      "field": 3548,
      "##cle": 3549,
      "Car": 3550,
      "Not": 3551,
      "##duct": 3552,
      "mean": 3553,
      "ris": 3554,
      "record": 3555,
      "##cent": 3556,
      "hours": 3557,
      "discuss": 3558,
      "job": 3559,
      "##sw": 3560,
      "return": 3561,
      "offic": 3562,
      "God": 3563,
      "live": 3564,
      "##esh": 3565,
      "season": 3566,
      "study": 3567,
      "tre": 3568,
      "property": 3569,
      "several": 3570,
      "wind": 3571,
      "Inst": 3572,
      "##ai": 3573,
      "##af": 3574,
      "value": 3575,
      "future": 3576,
      "##resent": 3577,
      "priv": 3578,
      "friends": 3579,
      "compet": 3580,
      "started": 3581,
      "##ilities": 3582,
      "##idd": 3583,
      "appear": 3584,
      "required": 3585,
      "didn": 3586,
      "##ster": 3587,
      "comb": 3588,
      "cred": 3589,
      "##enn": 3590,
      "reason": 3591,
      "tour": 3592,
      "##mb": 3593,
      "ener": 3594,
      "email": 3595,
      "##ush": 3596,
      "city": 3597,
      "flo": 3598,
      "pict": 3599,
      "##ply": 3600,
      "environment": 3601,
      "orig": 3602,
      "women": 3603,
      "cal": 3604,
      "##artment": 3605,
      "##ources": 3606,
      "Che": 3607,
      "Tra": 3608,
      "##aps": 3609,
      "Sy": 3610,
      "due": 3611,
      "##lished": 3612,
      "professional": 3613,
      "recommend": 3614,
      "##li": 3615,
      "tot": 3616,
      "simple": 3617,
      "##ogn": 3618,
      "ey": 3619,
      "says": 3620,
      "24": 3621,
      "##app": 3622,
      "example": 3623,
      "everything": 3624,
      "Comp": 3625,
      "hold": 3626,
      "men": 3627,
      "##rict": 3628,
      "##most": 3629,
      "##ances": 3630,
      "##aken": 3631,
      "management": 3632,
      "given": 3633,
      "##ler": 3634,
      "##ograph": 3635,
      "technology": 3636,
      "17": 3637,
      "Gu": 3638,
      "##ina": 3639,
      "16": 3640,
      "aud": 3641,
      "travel": 3642,
      "##ides": 3643,
      "Air": 3644,
      "period": 3645,
      "strong": 3646,
      "##ON": 3647,
      "manag": 3648,
      "##ither": 3649,
      "cult": 3650,
      "thought": 3651,
      "##idence": 3652,
      "above": 3653,
      "##ledge": 3654,
      "mil": 3655,
      "press": 3656,
      "party": 3657,
      "early": 3658,
      "issues": 3659,
      "fund": 3660,
      "2017": 3661,
      "Rep": 3662,
      "di": 3663,
      "invol": 3664,
      "method": 3665,
      "Please": 3666,
      "ce": 3667,
      "story": 3668,
      "needed": 3669,
      "Des": 3670,
      "fre": 3671,
      "##ES": 3672,
      "##ibility": 3673,
      "flow": 3674,
      "##icy": 3675,
      "While": 3676,
      "style": 3677,
      "Fe": 3678,
      "Part": 3679,
      "bar": 3680,
      "##itical": 3681,
      "##anks": 3682,
      "Sec": 3683,
      "months": 3684,
      "living": 3685,
      "##ms": 3686,
      "heart": 3687,
      "experi": 3688,
      "##ips": 3689,
      "pick": 3690,
      "##ino": 3691,
      "relations": 3692,
      "Now": 3693,
      "pie": 3694,
      "Aut": 3695,
      "Wor": 3696,
      "type": 3697,
      "##alf": 3698,
      "##imate": 3699,
      "##AT": 3700,
      "Joh": 3701,
      "performance": 3702,
      "Ro": 3703,
      "current": 3704,
      "wond": 3705,
      "size": 3706,
      "staff": 3707,
      "search": 3708,
      "mach": 3709,
      "##bal": 3710,
      "click": 3711,
      "whole": 3712,
      "single": 3713,
      "##crib": 3714,
      "##eral": 3715,
      "questions": 3716,
      "provides": 3717,
      "##ging": 3718,
      "##ests": 3719,
      "charact": 3720,
      "results": 3721,
      "##by": 3722,
      "stay": 3723,
      "select": 3724,
      "port": 3725,
      "##edd": 3726,
      "##aur": 3727,
      "young": 3728,
      "security": 3729,
      "##ges": 3730,
      "##asing": 3731,
      "##ams": 3732,
      "American": 3733,
      "##pecially": 3734,
      "##vert": 3735,
      "complete": 3736,
      "##ians": 3737,
      "##bon": 3738,
      "##uation": 3739,
      "##fully": 3740,
      "self": 3741,
      "##hers": 3742,
      "later": 3743,
      "whether": 3744,
      "Bo": 3745,
      "won": 3746,
      "hot": 3747,
      "mot": 3748,
      "contract": 3749,
      "customer": 3750,
      "took": 3751,
      "following": 3752,
      "necess": 3753,
      "##ffic": 3754,
      "Euro": 3755,
      "dig": 3756,
      "##come": 3757,
      "##urance": 3758,
      "inde": 3759,
      "provided": 3760,
      "author": 3761,
      "##ored": 3762,
      "further": 3763,
      "application": 3764,
      "##ided": 3765,
      "##acy": 3766,
      "training": 3767,
      "blog": 3768,
      "idea": 3769,
      "came": 3770,
      "front": 3771,
      "cut": 3772,
      "##ume": 3773,
      "##ification": 3774,
      "##ites": 3775,
      "common": 3776,
      "diff": 3777,
      "various": 3778,
      "cra": 3779,
      "##aching": 3780,
      "##aving": 3781,
      "ach": 3782,
      "##use": 3783,
      "download": 3784,
      "card": 3785,
      "energy": 3786,
      "meas": 3787,
      "##lock": 3788,
      "ensure": 3789,
      ",\"": 3790,
      "##ories": 3791,
      "John": 3792,
      "!!": 3793,
      "Dr": 3794,
      "third": 3795,
      "By": 3796,
      "##mber": 3797,
      "##ancial": 3798,
      "prob": 3799,
      "estab": 3800,
      "comfort": 3801,
      "quite": 3802,
      "simply": 3803,
      "systems": 3804,
      "##ches": 3805,
      "##ony": 3806,
      "##ators": 3807,
      "potential": 3808,
      "##sc": 3809,
      "##gest": 3810,
      "users": 3811,
      "Ke": 3812,
      "##reet": 3813,
      "close": 3814,
      "Count": 3815,
      "Par": 3816,
      "##ules": 3817,
      "clients": 3818,
      "yet": 3819,
      "war": 3820,
      "unique": 3821,
      "##ID": 3822,
      "##ights": 3823,
      "2019": 3824,
      "happen": 3825,
      "age": 3826,
      "taking": 3827,
      "##oon": 3828,
      "repl": 3829,
      "##irl": 3830,
      "State": 3831,
      "anything": 3832,
      "phone": 3833,
      "phys": 3834,
      "accept": 3835,
      "##ruction": 3836,
      "table": 3837,
      "areas": 3838,
      "tax": 3839,
      "agree": 3840,
      "sales": 3841,
      "etc": 3842,
      "natural": 3843,
      "especially": 3844,
      "five": 3845,
      "tell": 3846,
      "choose": 3847,
      "went": 3848,
      "almost": 3849,
      "text": 3850,
      "fall": 3851,
      "##abor": 3852,
      "sho": 3853,
      "improve": 3854,
      "someone": 3855,
      "problems": 3856,
      "history": 3857,
      "##ained": 3858,
      "June": 3859,
      "##AN": 3860,
      "##__": 3861,
      "break": 3862,
      "dam": 3863,
      "exist": 3864,
      "shall": 3865,
      "among": 3866,
      "represent": 3867,
      "ant": 3868,
      "entire": 3869,
      "##com": 3870,
      "comput": 3871,
      "track": 3872,
      "particip": 3873,
      "##itchen": 3874,
      "Cal": 3875,
      "##ature": 3876,
      "answ": 3877,
      "spend": 3878,
      "econom": 3879,
      "##illed": 3880,
      "##son": 3881,
      "United": 3882,
      "Don": 3883,
      "##ead": 3884,
      "seen": 3885,
      "Sim": 3886,
      "yourself": 3887,
      "##uff": 3888,
      "##ilar": 3889,
      "ideas": 3890,
      "ball": 3891,
      "##ufact": 3892,
      "##icro": 3893,
      "designed": 3894,
      "subject": 3895,
      "changes": 3896,
      "21": 3897,
      "##me": 3898,
      "store": 3899,
      "user": 3900,
      "claim": 3901,
      "Just": 3902,
      "hope": 3903,
      "lat": 3904,
      "relationship": 3905,
      "ess": 3906,
      "glo": 3907,
      "host": 3908,
      "deliver": 3909,
      "issue": 3910,
      "Park": 3911,
      "##ze": 3912,
      "##AR": 3913,
      "assist": 3914,
      "##obile": 3915,
      "##ceed": 3916,
      "hon": 3917,
      "##gle": 3918,
      "sugg": 3919,
      "events": 3920,
      "options": 3921,
      "cook": 3922,
      "##ili": 3923,
      "##urch": 3924,
      "print": 3925,
      "includes": 3926,
      "mess": 3927,
      "wall": 3928,
      "stock": 3929,
      "government": 3930,
      "aw": 3931,
      "##itted": 3932,
      "##OR": 3933,
      "init": 3934,
      "upd": 3935,
      "inte": 3936,
      "2016": 3937,
      "##itional": 3938,
      "popular": 3939,
      "##ety": 3940,
      "plat": 3941,
      "##astic": 3942,
      "##lus": 3943,
      "##though": 3944,
      "regard": 3945,
      "##olutions": 3946,
      "Europe": 3947,
      "South": 3948,
      "Ste": 3949,
      "everyone": 3950,
      "human": 3951,
      "jour": 3952,
      "recogn": 3953,
      "consum": 3954,
      "brand": 3955,
      "Bar": 3956,
      "Min": 3957,
      "face": 3958,
      "##umb": 3959,
      "##angu": 3960,
      "position": 3961,
      "date": 3962,
      "##amer": 3963,
      "##ength": 3964,
      "fit": 3965,
      "related": 3966,
      "believe": 3967,
      "Sw": 3968,
      "abs": 3969,
      "##ipment": 3970,
      "##selves": 3971,
      "cell": 3972,
      "##ming": 3973,
      "speak": 3974,
      "signific": 3975,
      "question": 3976,
      "dou": 3977,
      "watch": 3978,
      "##ables": 3979,
      "percent": 3980,
      "respect": 3981,
      "miss": 3982,
      "sent": 3983,
      "Per": 3984,
      "##eter": 3985,
      "favor": 3986,
      "however": 3987,
      "Pres": 3988,
      "knowledge": 3989,
      "amaz": 3990,
      "wonder": 3991,
      "Pe": 3992,
      "taken": 3993,
      "stop": 3994,
      "color": 3995,
      "determ": 3996,
      "receive": 3997,
      "credit": 3998,
      "ful": 3999,
      "##head": 4000,
      "##lex": 4001,
      "UK": 4002,
      "##oura": 4003,
      "extra": 4004,
      "takes": 4005,
      "##ED": 4006,
      "##erc": 4007,
      "##itch": 4008,
      "##ands": 4009,
      "collect": 4010,
      "sat": 4011,
      "##AS": 4012,
      "docu": 4013,
      "Some": 4014,
      "plant": 4015,
      "##oor": 4016,
      "##istic": 4017,
      "##rie": 4018,
      "throughout": 4019,
      "general": 4020,
      "education": 4021,
      "Gr": 4022,
      "fast": 4023,
      "held": 4024,
      "lay": 4025,
      "##ched": 4026,
      "##ux": 4027,
      "##aily": 4028,
      "National": 4029,
      "tou": 4030,
      "##tt": 4031,
      "deb": 4032,
      "details": 4033,
      "either": 4034,
      "##ring": 4035,
      "soon": 4036,
      "Dep": 4037,
      "sens": 4038,
      "Reg": 4039,
      "hy": 4040,
      "built": 4041,
      "cann": 4042,
      "Inc": 4043,
      "platform": 4044,
      "coun": 4045,
      "arr": 4046,
      "series": 4047,
      "purchase": 4048,
      "integr": 4049,
      "##20": 4050,
      "##itut": 4051,
      "forward": 4052,
      "increase": 4053,
      "cir": 4054,
      "##oud": 4055,
      "##lege": 4056,
      "located": 4057,
      "##ask": 4058,
      "seem": 4059,
      "ways": 4060,
      "office": 4061,
      "black": 4062,
      "created": 4063,
      "Ser": 4064,
      "##rew": 4065,
      "white": 4066,
      "road": 4067,
      "currently": 4068,
      "Jan": 4069,
      "rad": 4070,
      "##ctor": 4071,
      "communic": 4072,
      "object": 4073,
      "Mr": 4074,
      "##sh": 4075,
      "risk": 4076,
      "difficult": 4077,
      "stat": 4078,
      "##iple": 4079,
      "learning": 4080,
      "swe": 4081,
      "compar": 4082,
      "else": 4083,
      "ground": 4084,
      "##go": 4085,
      "activities": 4086,
      "fire": 4087,
      "impact": 4088,
      "insp": 4089,
      "autom": 4090,
      "maintain": 4091,
      "significant": 4092,
      "foot": 4093,
      "coming": 4094,
      "mag": 4095,
      "via": 4096,
      "##leg": 4097,
      "send": 4098,
      "defin": 4099,
      "base": 4100,
      "rather": 4101,
      "##co": 4102,
      "pret": 4103,
      "bill": 4104,
      "##for": 4105,
      "Here": 4106,
      "bad": 4107,
      "sell": 4108,
      "usually": 4109,
      "wide": 4110,
      "##nam": 4111,
      "##hel": 4112,
      "##ensive": 4113,
      "Add": 4114,
      "trying": 4115,
      "World": 4116,
      "##cript": 4117,
      "##iously": 4118,
      "skills": 4119,
      "drive": 4120,
      "--": 4121,
      "Ab": 4122,
      "told": 4123,
      "town": 4124,
      "items": 4125,
      "##ief": 4126,
      "40": 4127,
      "School": 4128,
      "exam": 4129,
      "continue": 4130,
      "##lt": 4131,
      "##ued": 4132,
      "##oid": 4133,
      "function": 4134,
      "exact": 4135,
      "##istration": 4136,
      "##ensen": 4137,
      "probably": 4138,
      "Will": 4139,
      "wood": 4140,
      "##irt": 4141,
      "##aby": 4142,
      "cool": 4143,
      "skin": 4144,
      "additional": 4145,
      "City": 4146,
      "##ky": 4147,
      "##ires": 4148,
      "##verage": 4149,
      "matter": 4150,
      "network": 4151,
      "likely": 4152,
      "half": 4153,
      "##enced": 4154,
      "Fin": 4155,
      "Mark": 4156,
      "##where": 4157,
      "attend": 4158,
      "upon": 4159,
      "prepar": 4160,
      "added": 4161,
      "true": 4162,
      "software": 4163,
      "Bro": 4164,
      "Qu": 4165,
      "##arden": 4166,
      "financial": 4167,
      "behind": 4168,
      "version": 4169,
      "necessary": 4170,
      "##ese": 4171,
      "##izing": 4172,
      "recent": 4173,
      "box": 4174,
      "opportunity": 4175,
      "ra": 4176,
      "sol": 4177,
      "happy": 4178,
      "total": 4179,
      ".”": 4180,
      "log": 4181,
      "received": 4182,
      "words": 4183,
      "House": 4184,
      "ago": 4185,
      "easily": 4186,
      "22": 4187,
      "Acc": 4188,
      "ap": 4189,
      "##rodu": 4190,
      "##osed": 4191,
      "manufact": 4192,
      "##play": 4193,
      "From": 4194,
      "International": 4195,
      "tar": 4196,
      "##iate": 4197,
      "isn": 4198,
      "2015": 4199,
      "##uge": 4200,
      "outside": 4201,
      "veh": 4202,
      "Sm": 4203,
      "bud": 4204,
      "##isions": 4205,
      "##pper": 4206,
      "kids": 4207,
      "##ises": 4208,
      "pretty": 4209,
      "Hensen": 4210,
      "Aust": 4211,
      "##vent": 4212,
      "##itte": 4213,
      "##itting": 4214,
      "..": 4215,
      "medical": 4216,
      "board": 4217,
      "model": 4218,
      "equipment": 4219,
      "##to": 4220,
      "role": 4221,
      "modern": 4222,
      "member": 4223,
      "conditions": 4224,
      "Build": 4225,
      "associ": 4226,
      "##anced": 4227,
      "infl": 4228,
      "His": 4229,
      "TH": 4230,
      "Us": 4231,
      "bott": 4232,
      "mor": 4233,
      "##sy": 4234,
      "sche": 4235,
      "paper": 4236,
      "Ed": 4237,
      "”,": 4238,
      "##itor": 4239,
      "##ffee": 4240,
      "according": 4241,
      "marketing": 4242,
      "national": 4243,
      "similar": 4244,
      "programs": 4245,
      "ut": 4246,
      "##rect": 4247,
      "##elt": 4248,
      "##itten": 4249,
      "image": 4250,
      "weeks": 4251,
      "engine": 4252,
      "dry": 4253,
      "loss": 4254,
      "vot": 4255,
      "coll": 4256,
      "inside": 4257,
      "cur": 4258,
      "##50": 4259,
      "ready": 4260,
      "writing": 4261,
      "Apr": 4262,
      "moment": 4263,
      "original": 4264,
      "##idge": 4265,
      "trip": 4266,
      "dom": 4267,
      "worth": 4268,
      "private": 4269,
      "langu": 4270,
      "oil": 4271,
      "##ew": 4272,
      "regular": 4273,
      "Associ": 4274,
      "##ung": 4275,
      "##ishing": 4276,
      "##airs": 4277,
      "match": 4278,
      "park": 4279,
      "##mm": 4280,
      "##AC": 4281,
      "fresh": 4282,
      "weight": 4283,
      "quickly": 4284,
      "struct": 4285,
      "choice": 4286,
      "books": 4287,
      "County": 4288,
      "norm": 4289,
      "final": 4290,
      "amazing": 4291,
      "23": 4292,
      "sale": 4293,
      "stra": 4294,
      "##empt": 4295,
      "benefits": 4296,
      "summer": 4297,
      "official": 4298,
      "Every": 4299,
      "Mc": 4300,
      "cele": 4301,
      "##ees": 4302,
      "##ison": 4303,
      "growth": 4304,
      "##imum": 4305,
      "##ondon": 4306,
      "198": 4307,
      "reading": 4308,
      "variety": 4309,
      "allows": 4310,
      "projects": 4311,
      "Cr": 4312,
      "##put": 4313,
      "worked": 4314,
      "Ge": 4315,
      "##EN": 4316,
      "##aining": 4317,
      "approach": 4318,
      "running": 4319,
      "sess": 4320,
      "##ival": 4321,
      "suggest": 4322,
      "Let": 4323,
      "ill": 4324,
      "##lim": 4325,
      "##hentic": 4326,
      "Tw": 4327,
      "##ror": 4328,
      "##lin": 4329,
      "depend": 4330,
      "excell": 4331,
      "London": 4332,
      "fu": 4333,
      "request": 4334,
      "providing": 4335,
      "meeting": 4336,
      "practice": 4337,
      "nothing": 4338,
      "insurance": 4339,
      "concern": 4340,
      "Af": 4341,
      "Pre": 4342,
      "tit": 4343,
      "##ench": 4344,
      "hair": 4345,
      "##----": 4346,
      "file": 4347,
      "pan": 4348,
      "included": 4349,
      "legal": 4350,
      "##mit": 4351,
      "rate": 4352,
      "##used": 4353,
      "##aves": 4354,
      "round": 4355,
      "##back": 4356,
      "##IS": 4357,
      "##oogle": 4358,
      "##ibr": 4359,
      "tools": 4360,
      "High": 4361,
      "Oct": 4362,
      "bal": 4363,
      "fail": 4364,
      "path": 4365,
      "solution": 4366,
      "##gar": 4367,
      "prior": 4368,
      "character": 4369,
      "er": 4370,
      "##gn": 4371,
      "sun": 4372,
      "cannot": 4373,
      "kitchen": 4374,
      "ter": 4375,
      "##ned": 4376,
      "ability": 4377,
      "grad": 4378,
      "safety": 4379,
      "Of": 4380,
      "girl": 4381,
      "##hib": 4382,
      "neg": 4383,
      "looks": 4384,
      "encoura": 4385,
      "##ecut": 4386,
      "##val": 4387,
      "types": 4388,
      "##hest": 4389,
      "##aced": 4390,
      "wanted": 4391,
      "effective": 4392,
      "Day": 4393,
      "Ju": 4394,
      "York": 4395,
      "action": 4396,
      "daily": 4397,
      "##ole": 4398,
      "resources": 4399,
      "standard": 4400,
      "mass": 4401,
      "source": 4402,
      "##ada": 4403,
      "##amb": 4404,
      "longer": 4405,
      "terms": 4406,
      "Service": 4407,
      "mix": 4408,
      "inn": 4409,
      "decision": 4410,
      "latest": 4411,
      "Get": 4412,
      "div": 4413,
      "##ama": 4414,
      "##ublic": 4415,
      "complet": 4416,
      "film": 4417,
      "games": 4418,
      "nice": 4419,
      "rout": 4420,
      "refer": 4421,
      "screen": 4422,
      "target": 4423,
      "##pose": 4424,
      "##10": 4425,
      "shop": 4426,
      "##opy": 4427,
      "leave": 4428,
      "More": 4429,
      "gives": 4430,
      "production": 4431,
      "carbon": 4432,
      "leaders": 4433,
      "costs": 4434,
      "Act": 4435,
      "##ground": 4436,
      "##oph": 4437,
      "challeng": 4438,
      "lower": 4439,
      "apply": 4440,
      "collection": 4441,
      "Flor": 4442,
      "26": 4443,
      "North": 4444,
      "mount": 4445,
      "ge": 4446,
      "##apt": 4447,
      "##pri": 4448,
      "resid": 4449,
      "Also": 4450,
      "Any": 4451,
      "higher": 4452,
      "##enge": 4453,
      "Thanks": 4454,
      "detail": 4455,
      "photos": 4456,
      "announ": 4457,
      "Are": 4458,
      "Pol": 4459,
      "squ": 4460,
      "six": 4461,
      "##ysis": 4462,
      "planning": 4463,
      "points": 4464,
      "Net": 4465,
      "cause": 4466,
      "register": 4467,
      "States": 4468,
      "describ": 4469,
      "anyone": 4470,
      "effic": 4471,
      "English": 4472,
      "##erve": 4473,
      "article": 4474,
      "drink": 4475,
      "floor": 4476,
      "machine": 4477,
      "##arth": 4478,
      "highly": 4479,
      "asked": 4480,
      "##edding": 4481,
      "April": 4482,
      "Off": 4483,
      "cy": 4484,
      "camer": 4485,
      "speed": 4486,
      "furn": 4487,
      "solutions": 4488,
      "hands": 4489,
      "teac": 4490,
      "Stud": 4491,
      "commer": 4492,
      "##ried": 4493,
      "fig": 4494,
      "song": 4495,
      "##ule": 4496,
      "qual": 4497,
      "emb": 4498,
      "Great": 4499,
      "bath": 4500,
      "West": 4501,
      "##AL": 4502,
      "advert": 4503,
      "option": 4504,
      "touch": 4505,
      "Even": 4506,
      "Well": 4507,
      "##ari": 4508,
      "##ida": 4509,
      "2014": 4510,
      "attention": 4511,
      "center": 4512,
      "00": 4513,
      "Ag": 4514,
      "##gs": 4515,
      "separ": 4516,
      "seems": 4517,
      "policy": 4518,
      "March": 4519,
      "sense": 4520,
      "##ille": 4521,
      "stri": 4522,
      "##iring": 4523,
      "ple": 4524,
      "##ball": 4525,
      "##lier": 4526,
      "##cer": 4527,
      "coffee": 4528,
      "organization": 4529,
      "fix": 4530,
      "##hold": 4531,
      "2012": 4532,
      "levels": 4533,
      "international": 4534,
      "materials": 4535,
      "Google": 4536,
      "##elcome": 4537,
      "##irit": 4538,
      "deep": 4539,
      "written": 4540,
      "prevent": 4541,
      "Fir": 4542,
      "vi": 4543,
      "##iation": 4544,
      "##nal": 4545,
      "##iture": 4546,
      "Thank": 4547,
      "sett": 4548,
      "imm": 4549,
      "Once": 4550,
      "leading": 4551,
      "28": 4552,
      "dress": 4553,
      "El": 4554,
      "Sat": 4555,
      "adj": 4556,
      "capt": 4557,
      "Cor": 4558,
      "ded": 4559,
      "sil": 4560,
      "##ex": 4561,
      "##amed": 4562,
      "anim": 4563,
      "deg": 4564,
      "myself": 4565,
      "appl": 4566,
      "2013": 4567,
      "helps": 4568,
      "affect": 4569,
      "late": 4570,
      "##alm": 4571,
      "section": 4572,
      "”.": 4573,
      "propos": 4574,
      "##aging": 4575,
      "treatment": 4576,
      "##ittee": 4577,
      "##adem": 4578,
      "feed": 4579,
      "goal": 4580,
      "answer": 4581,
      "##cing": 4582,
      "##face": 4583,
      "Health": 4584,
      "Most": 4585,
      "save": 4586,
      "Face": 4587,
      "Up": 4588,
      "tal": 4589,
      "##atives": 4590,
      "arch": 4591,
      "arri": 4592,
      "extrem": 4593,
      "Wind": 4594,
      "##ought": 4595,
      "remember": 4596,
      "Center": 4597,
      "Aug": 4598,
      "dest": 4599,
      "giving": 4600,
      "lic": 4601,
      "lives": 4602,
      "prem": 4603,
      "glass": 4604,
      "device": 4605,
      "computer": 4606,
      "sle": 4607,
      "##aign": 4608,
      "##light": 4609,
      "Then": 4610,
      "Calif": 4611,
      "##OU": 4612,
      "shows": 4613,
      "Trans": 4614,
      "sites": 4615,
      "digital": 4616,
      "Her": 4617,
      "lif": 4618,
      "implement": 4619,
      "discover": 4620,
      "500": 4621,
      "##IC": 4622,
      "reach": 4623,
      "##oles": 4624,
      "remov": 4625,
      "applications": 4626,
      "Home": 4627,
      "##aper": 4628,
      "##OT": 4629,
      "towards": 4630,
      "appoint": 4631,
      "bi": 4632,
      "cas": 4633,
      "##eal": 4634,
      "Coun": 4635,
      "bul": 4636,
      "ur": 4637,
      "##oof": 4638,
      "Sept": 4639,
      "achieve": 4640,
      "Mon": 4641,
      "Mus": 4642,
      "baby": 4643,
      "##cil": 4644,
      "##ana": 4645,
      "release": 4646,
      "decor": 4647,
      "average": 4648,
      "##wood": 4649,
      "##AP": 4650,
      "admin": 4651,
      "##ached": 4652,
      "##avy": 4653,
      "global": 4654,
      "War": 4655,
      "##haps": 4656,
      "##wise": 4657,
      "star": 4658,
      "Int": 4659,
      "recently": 4660,
      "appropri": 4661,
      "broad": 4662,
      "successful": 4663,
      "##IT": 4664,
      "##irth": 4665,
      "concept": 4666,
      "decided": 4667,
      "location": 4668,
      "restaur": 4669,
      "profession": 4670,
      "traditional": 4671,
      "excellent": 4672,
      "suit": 4673,
      "prim": 4674,
      "budget": 4675,
      "warm": 4676,
      "##OM": 4677,
      "##uth": 4678,
      "conduct": 4679,
      "##aged": 4680,
      "favorite": 4681,
      "Pat": 4682,
      "ver": 4683,
      "##uit": 4684,
      "student": 4685,
      "instead": 4686,
      "creating": 4687,
      "July": 4688,
      "huge": 4689,
      "max": 4690,
      "##bor": 4691,
      "##itation": 4692,
      "##iff": 4693,
      "immed": 4694,
      "draw": 4695,
      "Afric": 4696,
      "##ties": 4697,
      "##atter": 4698,
      "indic": 4699,
      "political": 4700,
      "wish": 4701,
      "##na": 4702,
      "ones": 4703,
      "##igation": 4704,
      "expert": 4705,
      "fully": 4706,
      "Californ": 4707,
      "##lements": 4708,
      "correct": 4709,
      "considered": 4710,
      "commercial": 4711,
      "Cons": 4712,
      "farm": 4713,
      "##AF": 4714,
      "##RE": 4715,
      "##formation": 4716,
      "assess": 4717,
      "Har": 4718,
      "Whe": 4719,
      "##ipe": 4720,
      "parts": 4721,
      "condition": 4722,
      "Department": 4723,
      "60": 4724,
      "tick": 4725,
      "##itely": 4726,
      "##icles": 4727,
      "began": 4728,
      "couple": 4729,
      "essential": 4730,
      "Direct": 4731,
      "cash": 4732,
      "holid": 4733,
      "##ocol": 4734,
      "basis": 4735,
      "Sal": 4736,
      "ep": 4737,
      "tur": 4738,
      "##mission": 4739,
      "##30": 4740,
      "##vey": 4741,
      "places": 4742,
      "display": 4743,
      "##board": 4744,
      "President": 4745,
      "TV": 4746,
      "kne": 4747,
      "altern": 4748,
      "multiple": 4749,
      "involved": 4750,
      "California": 4751,
      "##enty": 4752,
      "purpose": 4753,
      "entry": 4754,
      "exactly": 4755,
      "##ober": 4756,
      "##ww": 4757,
      "##ude": 4758,
      "interact": 4759,
      "attract": 4760,
      "court": 4761,
      "feature": 4762,
      "##ka": 4763,
      "except": 4764,
      "##izes": 4765,
      "sn": 4766,
      "##unte": 4767,
      "surpr": 4768,
      "interested": 4769,
      "Austral": 4770,
      "language": 4771,
      "Bra": 4772,
      "cross": 4773,
      "##arant": 4774,
      "convers": 4775,
      "wear": 4776,
      "##ivity": 4777,
      "partners": 4778,
      "itself": 4779,
      "Why": 4780,
      "picture": 4781,
      "celebr": 4782,
      "Rem": 4783,
      "code": 4784,
      "##bit": 4785,
      "##ening": 4786,
      "##erson": 4787,
      "##aches": 4788,
      "prefer": 4789,
      "morning": 4790,
      "##king": 4791,
      "##atory": 4792,
      "client": 4793,
      "Progr": 4794,
      "healthy": 4795,
      "safe": 4796,
      "friendly": 4797,
      "Design": 4798,
      "fab": 4799,
      "##ivery": 4800,
      "rights": 4801,
      "attack": 4802,
      "document": 4803,
      "##ederal": 4804,
      "##ctions": 4805,
      "##ection": 4806,
      "gar": 4807,
      "##nes": 4808,
      "##hood": 4809,
      "attempt": 4810,
      "payment": 4811,
      "led": 4812,
      "##ube": 4813,
      "interesting": 4814,
      "Techn": 4815,
      "nature": 4816,
      "internet": 4817,
      "cand": 4818,
      "mobile": 4819,
      "##inary": 4820,
      "##asons": 4821,
      "prices": 4822,
      "consist": 4823,
      "Rec": 4824,
      "See": 4825,
      "complex": 4826,
      "Feb": 4827,
      "circ": 4828,
      "##amm": 4829,
      "exerc": 4830,
      "themselves": 4831,
      "devices": 4832,
      "##mark": 4833,
      "note": 4834,
      "promot": 4835,
      "##iddle": 4836,
      "San": 4837,
      "slow": 4838,
      "groups": 4839,
      "campaign": 4840,
      "sweet": 4841,
      "eat": 4842,
      "introdu": 4843,
      "goes": 4844,
      "train": 4845,
      "individuals": 4846,
      "Over": 4847,
      "innov": 4848,
      "Facebook": 4849,
      "tast": 4850,
      "stress": 4851,
      "##ament": 4852,
      "chann": 4853,
      "trust": 4854,
      "positive": 4855,
      "patients": 4856,
      "October": 4857,
      "First": 4858,
      "##uary": 4859,
      "##vis": 4860,
      "door": 4861,
      "consult": 4862,
      "surround": 4863,
      "nut": 4864,
      "##ET": 4865,
      "##ension": 4866,
      "region": 4867,
      "requirements": 4868,
      "green": 4869,
      "htt": 4870,
      "obs": 4871,
      "##semb": 4872,
      "club": 4873,
      "Read": 4874,
      "##ological": 4875,
      "imag": 4876,
      "Black": 4877,
      ":/": 4878,
      "mention": 4879,
      "progress": 4880,
      "\".": 4881,
      "Cour": 4882,
      "gen": 4883,
      "##eth": 4884,
      "##apan": 4885,
      "thank": 4886,
      "growing": 4887,
      "America": 4888,
      "independ": 4889,
      "existing": 4890,
      "Gl": 4891,
      "Many": 4892,
      "emer": 4893,
      "##sp": 4894,
      "##rial": 4895,
      "became": 4896,
      "express": 4897,
      "Gener": 4898,
      "##cl": 4899,
      "former": 4900,
      "##ibly": 4901,
      "pool": 4902,
      "Trump": 4903,
      "histor": 4904,
      "Law": 4905,
      "ult": 4906,
      "##inter": 4907,
      "##asc": 4908,
      "blood": 4909,
      "developed": 4910,
      "Frid": 4911,
      "serve": 4912,
      "sometimes": 4913,
      "paid": 4914,
      "Bus": 4915,
      "lost": 4916,
      "##lation": 4917,
      "##yond": 4918,
      "wonderful": 4919,
      "IN": 4920,
      "rele": 4921,
      "reduce": 4922,
      "wait": 4923,
      "Free": 4924,
      "##EC": 4925,
      "firm": 4926,
      "authentic": 4927,
      "largest": 4928,
      "Super": 4929,
      "piece": 4930,
      "80": 4931,
      "www": 4932,
      "regul": 4933,
      "carry": 4934,
      "##ronic": 4935,
      "responsible": 4936,
      "Russ": 4937,
      "##den": 4938,
      "frame": 4939,
      "influ": 4940,
      "://": 4941,
      "Dis": 4942,
      "fill": 4943,
      "thinking": 4944,
      "posted": 4945,
      "analysis": 4946,
      "lab": 4947,
      "##hens": 4948,
      "eye": 4949,
      "Dav": 4950,
      "Japan": 4951,
      "garden": 4952,
      "##ville": 4953,
      "##ribution": 4954,
      "Germ": 4955,
      "block": 4956,
      "cards": 4957,
      "death": 4958,
      "##ocr": 4959,
      "businesses": 4960,
      "strateg": 4961,
      "charge": 4962,
      "situation": 4963,
      "Internet": 4964,
      "Ir": 4965,
      "Work": 4966,
      "cat": 4967,
      "##onse": 4968,
      "##aly": 4969,
      "plans": 4970,
      "avoid": 4971,
      "images": 4972,
      "expected": 4973,
      "Florida": 4974,
      "Good": 4975,
      "hit": 4976,
      "##ara": 4977,
      "##ils": 4978,
      "Art": 4979,
      "directly": 4980,
      "August": 4981,
      "graph": 4982,
      "rules": 4983,
      "##gu": 4984,
      "##mas": 4985,
      "##ica": 4986,
      "countries": 4987,
      "reported": 4988,
      "parents": 4989,
      "damage": 4990,
      "Educ": 4991,
      "##ST": 4992,
      "guid": 4993,
      "annual": 4994,
      "Building": 4995,
      "September": 4996,
      "mail": 4997,
      "##ato": 4998,
      "##iction": 4999,
      "photo": 5000,
      "Commun": 5001,
      "regarding": 5002,
      "Ac": 5003,
      "Each": 5004,
      "Lu": 5005,
      "born": 5006,
      "mid": 5007,
      "##itect": 5008,
      "##rec": 5009,
      "gets": 5010,
      "2011": 5011,
      "Char": 5012,
      "interview": 5013,
      "repair": 5014,
      "##rows": 5015,
      "smo": 5016,
      "basic": 5017,
      "Dem": 5018,
      "Make": 5019,
      "cases": 5020,
      "fa": 5021,
      "hous": 5022,
      "pages": 5023,
      "##zz": 5024,
      "contain": 5025,
      "estate": 5026,
      "pressure": 5027,
      "Val": 5028,
      "##ox": 5029,
      "adop": 5030,
      "setting": 5031,
      "offered": 5032,
      "career": 5033,
      "##sych": 5034,
      "Friday": 5035,
      "mer": 5036,
      "wine": 5037,
      "##rown": 5038,
      "heat": 5039,
      "advant": 5040,
      "published": 5041,
      "feeling": 5042,
      "Met": 5043,
      "lots": 5044,
      "bedroom": 5045,
      "27": 5046,
      "Gra": 5047,
      "bank": 5048,
      "fine": 5049,
      "ten": 5050,
      "adult": 5051,
      "Prof": 5052,
      "Gover": 5053,
      "stage": 5054,
      "conv": 5055,
      "saw": 5056,
      "starting": 5057,
      "wrong": 5058,
      "investment": 5059,
      "experienced": 5060,
      "Soc": 5061,
      "aim": 5062,
      "##of": 5063,
      "##erous": 5064,
      "##uses": 5065,
      "chance": 5066,
      "accom": 5067,
      "197": 5068,
      "obtain": 5069,
      "##ION": 5070,
      "##AM": 5071,
      "guarant": 5072,
      "playing": 5073,
      "weeke": 5074,
      "challenge": 5075,
      "satis": 5076,
      "definitely": 5077,
      "viol": 5078,
      "Go": 5079,
      "Pa": 5080,
      "felt": 5081,
      "##ilies": 5082,
      "prec": 5083,
      "schools": 5084,
      "##ma": 5085,
      "##aries": 5086,
      "wasn": 5087,
      "loved": 5088,
      "furniture": 5089,
      "gas": 5090,
      "sold": 5091,
      "yes": 5092,
      "##ipped": 5093,
      "##ban": 5094,
      "##hop": 5095,
      "##ena": 5096,
      "##ples": 5097,
      "limited": 5098,
      "highest": 5099,
      "meaning": 5100,
      "35": 5101,
      "##iles": 5102,
      "##imately": 5103,
      "turned": 5104,
      "31": 5105,
      "Op": 5106,
      "Was": 5107,
      "stuff": 5108,
      "##bert": 5109,
      "scient": 5110,
      "Green": 5111,
      "##ipping": 5112,
      "##rast": 5113,
      "dise": 5114,
      "##ancy": 5115,
      "mother": 5116,
      "inj": 5117,
      "aspect": 5118,
      "uses": 5119,
      "##ags": 5120,
      "princ": 5121,
      "incred": 5122,
      "medic": 5123,
      "tried": 5124,
      "completely": 5125,
      "Yes": 5126,
      "categ": 5127,
      "##str": 5128,
      "##hern": 5129,
      "evidence": 5130,
      "##encies": 5131,
      "effort": 5132,
      "##cription": 5133,
      "adjust": 5134,
      "Jo": 5135,
      "Mod": 5136,
      "item": 5137,
      "##ashion": 5138,
      "ideal": 5139,
      "established": 5140,
      "comfortable": 5141,
      "Post": 5142,
      "gift": 5143,
      "##band": 5144,
      "##ades": 5145,
      "soc": 5146,
      "goals": 5147,
      "write": 5148,
      "processing": 5149,
      "analy": 5150,
      "appropriate": 5151,
      "Other": 5152,
      "##iam": 5153,
      "##AD": 5154,
      "understanding": 5155,
      "Since": 5156,
      "Web": 5157,
      "theme": 5158,
      "thanks": 5159,
      "instruct": 5160,
      "players": 5161,
      "estim": 5162,
      "increasing": 5163,
      "volunte": 5164,
      "identify": 5165,
      "beginning": 5166,
      "##bur": 5167,
      "##ha": 5168,
      "##reg": 5169,
      "##oms": 5170,
      "spirit": 5171,
      "easier": 5172,
      "previous": 5173,
      "IT": 5174,
      "##inner": 5175,
      "parties": 5176,
      "##ovember": 5177,
      "difference": 5178,
      "capital": 5179,
      "physical": 5180,
      "Group": 5181,
      "Red": 5182,
      "proced": 5183,
      "##dule": 5184,
      "feet": 5185,
      "heard": 5186,
      "replace": 5187,
      "January": 5188,
      "Association": 5189,
      "Look": 5190,
      "dream": 5191,
      "wedding": 5192,
      "beyond": 5193,
      "stru": 5194,
      "acqu": 5195,
      "advice": 5196,
      "offering": 5197,
      "benefit": 5198,
      "load": 5199,
      "pictures": 5200,
      "eyes": 5201,
      "camera": 5202,
      "Dist": 5203,
      "Id": 5204,
      "November": 5205,
      "award": 5206,
      "cry": 5207,
      "fair": 5208,
      "##ny": 5209,
      "##iding": 5210,
      "chair": 5211,
      "plus": 5212,
      "##ologies": 5213,
      "##ING": 5214,
      "knew": 5215,
      "homes": 5216,
      "pp": 5217,
      "##xas": 5218,
      "neigh": 5219,
      "supply": 5220,
      "Services": 5221,
      "Business": 5222,
      "Best": 5223,
      "Cle": 5224,
      "birth": 5225,
      "lack": 5226,
      "pred": 5227,
      "income": 5228,
      "helping": 5229,
      "blue": 5230,
      "guide": 5231,
      "truly": 5232,
      "##ham": 5233,
      "##cember": 5234,
      "##ategy": 5235,
      "dedic": 5236,
      "Mor": 5237,
      "hor": 5238,
      "stick": 5239,
      "##oos": 5240,
      "##antly": 5241,
      "smart": 5242,
      "opportunities": 5243,
      "audience": 5244,
      "vehicle": 5245,
      "##EO": 5246,
      "thous": 5247,
      "subs": 5248,
      "Inter": 5249,
      "impress": 5250,
      "finish": 5251,
      "organiz": 5252,
      "Book": 5253,
      "Out": 5254,
      "bur": 5255,
      "doll": 5256,
      "jud": 5257,
      "##PS": 5258,
      "##imin": 5259,
      "overall": 5260,
      "colour": 5261,
      "196": 5262,
      "cream": 5263,
      "Develop": 5264,
      "delivery": 5265,
      "reflect": 5266,
      "construction": 5267,
      "employee": 5268,
      "lines": 5269,
      "##wor": 5270,
      "##ores": 5271,
      "rev": 5272,
      "##iber": 5273,
      "December": 5274,
      "transfer": 5275,
      "Sund": 5276,
      "##rit": 5277,
      "##cast": 5278,
      "##oming": 5279,
      "produce": 5280,
      "gave": 5281,
      "##yl": 5282,
      "spot": 5283,
      "Brit": 5284,
      "IS": 5285,
      "nation": 5286,
      "##itute": 5287,
      "##ani": 5288,
      "China": 5289,
      "rock": 5290,
      "moving": 5291,
      "initial": 5292,
      ".)": 5293,
      "Del": 5294,
      "Mag": 5295,
      "Micro": 5296,
      "hosp": 5297,
      "sav": 5298,
      "outd": 5299,
      "join": 5300,
      "und": 5301,
      "##pite": 5302,
      "##orge": 5303,
      "notice": 5304,
      "##ruary": 5305,
      "response": 5306,
      "effects": 5307,
      "certainly": 5308,
      "cab": 5309,
      "rent": 5310,
      "sort": 5311,
      "van": 5312,
      "##iable": 5313,
      "spent": 5314,
      "institut": 5315,
      "shopping": 5316,
      "February": 5317,
      "##spect": 5318,
      "##uate": 5319,
      "##aint": 5320,
      "##rought": 5321,
      "optim": 5322,
      "##porate": 5323,
      "establish": 5324,
      "associated": 5325,
      "Satur": 5326,
      "Spe": 5327,
      "iP": 5328,
      "sports": 5329,
      "accur": 5330,
      "families": 5331,
      "##tenance": 5332,
      "Council": 5333,
      "flex": 5334,
      "##ald": 5335,
      "##oyal": 5336,
      "Scott": 5337,
      "pattern": 5338,
      "woman": 5339,
      "demand": 5340,
      "culture": 5341,
      "##zy": 5342,
      "##istics": 5343,
      "##place": 5344,
      "emot": 5345,
      "allowed": 5346,
      "movie": 5347,
      "ice": 5348,
      "length": 5349,
      "##OS": 5350,
      "##amin": 5351,
      "reserv": 5352,
      "manage": 5353,
      "helped": 5354,
      "Ang": 5355,
      "finally": 5356,
      "launch": 5357,
      "frequ": 5358,
      "journey": 5359,
      "Im": 5360,
      "Port": 5361,
      "vote": 5362,
      "##arter": 5363,
      "##iced": 5364,
      "##ellow": 5365,
      "serious": 5366,
      "technical": 5367,
      "century": 5368,
      "##attle": 5369,
      "THE": 5370,
      "AN": 5371,
      "liter": 5372,
      "##TM": 5373,
      "onto": 5374,
      "##ifts": 5375,
      "active": 5376,
      "##porary": 5377,
      "System": 5378,
      "King": 5379,
      "##iately": 5380,
      "##LC": 5381,
      "Although": 5382,
      "useful": 5383,
      "employees": 5384,
      "protection": 5385,
      "32": 5386,
      "##ker": 5387,
      "##urt": 5388,
      "apprec": 5389,
      "served": 5390,
      "background": 5391,
      "subst": 5392,
      "##undred": 5393,
      "continu": 5394,
      "activity": 5395,
      "double": 5396,
      "Program": 5397,
      "Education": 5398,
      "Saturday": 5399,
      "Ant": 5400,
      "##oices": 5401,
      "##LL": 5402,
      "##rehens": 5403,
      "##chan": 5404,
      "waste": 5405,
      "##ously": 5406,
      "transport": 5407,
      "photograph": 5408,
      "European": 5409,
      "weekend": 5410,
      "II": 5411,
      "##ford": 5412,
      "##change": 5413,
      "execut": 5414,
      "##ords": 5415,
      "statement": 5416,
      "India": 5417,
      "##aught": 5418,
      "session": 5419,
      "holiday": 5420,
      "45": 5421,
      "##ying": 5422,
      "##ened": 5423,
      "##sequ": 5424,
      "compon": 5425,
      "button": 5426,
      "partner": 5427,
      "!!!": 5428,
      "Rel": 5429,
      "fem": 5430,
      "son": 5431,
      "##ken": 5432,
      "##80": 5433,
      "##atever": 5434,
      "weather": 5435,
      "enh": 5436,
      "changed": 5437,
      "nearly": 5438,
      "professionals": 5439,
      "29": 5440,
      "although": 5441,
      "....": 5442,
      "##aughter": 5443,
      "##useum": 5444,
      "message": 5445,
      "straight": 5446,
      "degree": 5447,
      "hop": 5448,
      "tim": 5449,
      "##ered": 5450,
      "fore": 5451,
      "shot": 5452,
      "eval": 5453,
      "saying": 5454,
      "district": 5455,
      "methods": 5456,
      "Sunday": 5457,
      "Big": 5458,
      "Sen": 5459,
      "Tod": 5460,
      "Year": 5461,
      "dark": 5462,
      "roof": 5463,
      "sand": 5464,
      "reasons": 5465,
      "peace": 5466,
      "Supp": 5467,
      "temper": 5468,
      "calc": 5469,
      "schedule": 5470,
      "Life": 5471,
      "wild": 5472,
      "alone": 5473,
      "perhaps": 5474,
      "strategy": 5475,
      "driving": 5476,
      "coverage": 5477,
      "paint": 5478,
      "Christmas": 5479,
      "Windows": 5480,
      "bow": 5481,
      "pump": 5482,
      "vac": 5483,
      "##ett": 5484,
      "ord": 5485,
      "White": 5486,
      "Texas": 5487,
      "confir": 5488,
      "loan": 5489,
      "particularly": 5490,
      "measure": 5491,
      "sleep": 5492,
      "suff": 5493,
      "##istry": 5494,
      "2010": 5495,
      "remind": 5496,
      "played": 5497,
      "entertain": 5498,
      "Bel": 5499,
      "La": 5500,
      "Use": 5501,
      "fashion": 5502,
      "micro": 5503,
      "wid": 5504,
      "##ram": 5505,
      "##estern": 5506,
      "##olf": 5507,
      "scen": 5508,
      "requires": 5509,
      "player": 5510,
      "##roll": 5511,
      "2009": 5512,
      "rooms": 5513,
      "behav": 5514,
      "experiences": 5515,
      "##works": 5516,
      "pul": 5517,
      "##bum": 5518,
      "teaching": 5519,
      "numbers": 5520,
      "Click": 5521,
      "powerful": 5522,
      "Canada": 5523,
      "absolut": 5524,
      "immediately": 5525,
      "Em": 5526,
      "Mond": 5527,
      "Ret": 5528,
      "##ses": 5529,
      "##overy": 5530,
      "##illage": 5531,
      "##aker": 5532,
      "sust": 5533,
      "selection": 5534,
      "contains": 5535,
      "completed": 5536,
      "Apple": 5537,
      "hundred": 5538,
      "##mitted": 5539,
      "##oul": 5540,
      "##itter": 5541,
      "##itary": 5542,
      "relev": 5543,
      "##ption": 5544,
      "colors": 5545,
      "experts": 5546,
      "server": 5547,
      "Plan": 5548,
      "letter": 5549,
      "grand": 5550,
      "compared": 5551,
      "Av": 5552,
      "dru": 5553,
      "voice": 5554,
      "##atically": 5555,
      "##enal": 5556,
      "##ivil": 5557,
      "clot": 5558,
      "fee": 5559,
      "Bec": 5560,
      "College": 5561,
      "reviews": 5562,
      "Amaz": 5563,
      "Company": 5564,
      "normal": 5565,
      "Office": 5566,
      "##40": 5567,
      "island": 5568,
      "dead": 5569,
      "relax": 5570,
      "##iques": 5571,
      "reports": 5572,
      "Check": 5573,
      "util": 5574,
      "90": 5575,
      "Down": 5576,
      "East": 5577,
      "Spr": 5578,
      "hus": 5579,
      "##wh": 5580,
      "tom": 5581,
      "##reed": 5582,
      "threat": 5583,
      "##ady": 5584,
      "conven": 5585,
      "belie": 5586,
      "opening": 5587,
      "files": 5588,
      "craft": 5589,
      "extremely": 5590,
      "candid": 5591,
      "70": 5592,
      "Hot": 5593,
      "ble": 5594,
      "##rael": 5595,
      "##raft": 5596,
      "studies": 5597,
      "flav": 5598,
      "passion": 5599,
      "slight": 5600,
      "doub": 5601,
      "fat": 5602,
      "gold": 5603,
      "##eness": 5604,
      "##arily": 5605,
      "comment": 5606,
      "veget": 5607,
      "##venue": 5608,
      "views": 5609,
      "videos": 5610,
      "afford": 5611,
      "waiting": 5612,
      "steps": 5613,
      "Because": 5614,
      "roll": 5615,
      "##icious": 5616,
      "traffic": 5617,
      "bright": 5618,
      "storage": 5619,
      "relationships": 5620,
      "##force": 5621,
      "During": 5622,
      "brought": 5623,
      "diet": 5624,
      "released": 5625,
      "Mem": 5626,
      "Mount": 5627,
      "Ob": 5628,
      "Wood": 5629,
      "##men": 5630,
      "##umn": 5631,
      "##acing": 5632,
      "clim": 5633,
      "minute": 5634,
      "demon": 5635,
      "shared": 5636,
      "pieces": 5637,
      "Africa": 5638,
      "ST": 5639,
      "Ty": 5640,
      "##ago": 5641,
      "occas": 5642,
      "copy": 5643,
      "ec": 5644,
      "fra": 5645,
      "album": 5646,
      "aren": 5647,
      "suppl": 5648,
      "talking": 5649,
      "determine": 5650,
      "collabor": 5651,
      "##ibrary": 5652,
      "bathroom": 5653,
      "ahead": 5654,
      "fant": 5655,
      "unit": 5656,
      "cheap": 5657,
      "Club": 5658,
      "steel": 5659,
      "cells": 5660,
      "fish": 5661,
      "welcome": 5662,
      "##orrow": 5663,
      "whose": 5664,
      "chem": 5665,
      "##ommod": 5666,
      "Conference": 5667,
      "operation": 5668,
      "visitors": 5669,
      "stories": 5670,
      "##sembly": 5671,
      "):": 5672,
      "Elect": 5673,
      "named": 5674,
      "##more": 5675,
      "conference": 5676,
      "##unk": 5677,
      "workers": 5678,
      "maybe": 5679,
      "Another": 5680,
      "patient": 5681,
      "changing": 5682,
      "Board": 5683,
      "structure": 5684,
      "Find": 5685,
      "Light": 5686,
      "Mac": 5687,
      "gather": 5688,
      "wat": 5689,
      "##PN": 5690,
      "##que": 5691,
      "##ague": 5692,
      "retail": 5693,
      "##rapy": 5694,
      "efficient": 5695,
      "http": 5696,
      "Love": 5697,
      "Wall": 5698,
      "virt": 5699,
      "##ek": 5700,
      "standards": 5701,
      "Israel": 5702,
      "presented": 5703,
      "exercise": 5704,
      "Pri": 5705,
      "Vis": 5706,
      "elements": 5707,
      "mis": 5708,
      "station": 5709,
      "plenty": 5710,
      "decisions": 5711,
      "owners": 5712,
      "title": 5713,
      "challenges": 5714,
      "restaurant": 5715,
      "Sk": 5716,
      "##ager": 5717,
      "college": 5718,
      "efforts": 5719,
      "covered": 5720,
      "David": 5721,
      "cast": 5722,
      "pet": 5723,
      "rich": 5724,
      "remove": 5725,
      "earn": 5726,
      "earlier": 5727,
      "exclus": 5728,
      "increased": 5729,
      "moved": 5730,
      "buying": 5731,
      "Australia": 5732,
      "Monday": 5733,
      "ID": 5734,
      "task": 5735,
      "##CC": 5736,
      "comprehens": 5737,
      "##enses": 5738,
      "trail": 5739,
      "##rief": 5740,
      "Whether": 5741,
      "Court": 5742,
      "Mich": 5743,
      "##my": 5744,
      "##IM": 5745,
      "shower": 5746,
      "##ancing": 5747,
      "managed": 5748,
      "Lord": 5749,
      "lock": 5750,
      "##roid": 5751,
      "stream": 5752,
      "cancer": 5753,
      "church": 5754,
      "tend": 5755,
      "science": 5756,
      "produced": 5757,
      "##hips": 5758,
      "According": 5759,
      "advertising": 5760,
      "smooth": 5761,
      "AP": 5762,
      "Pay": 5763,
      "tips": 5764,
      "##yle": 5765,
      "##mes": 5766,
      "##ros": 5767,
      "shoot": 5768,
      "Information": 5769,
      "looked": 5770,
      "##inese": 5771,
      "winter": 5772,
      "communication": 5773,
      "Profess": 5774,
      "Wr": 5775,
      "fear": 5776,
      "##ixt": 5777,
      "##itude": 5778,
      "fruit": 5779,
      "pray": 5780,
      "incor": 5781,
      "unc": 5782,
      "cold": 5783,
      "seeing": 5784,
      "##ended": 5785,
      "profit": 5786,
      "creative": 5787,
      "movement": 5788,
      "People": 5789,
      "billion": 5790,
      "advantage": 5791,
      "36": 5792,
      "Jes": 5793,
      "dat": 5794,
      "dining": 5795,
      "kn": 5796,
      "##set": 5797,
      "##dom": 5798,
      "##09": 5799,
      "##anch": 5800,
      "##ustr": 5801,
      "larger": 5802,
      "followed": 5803,
      "maintenance": 5804,
      "classic": 5805,
      "info": 5806,
      "menu": 5807,
      "registered": 5808,
      "cru": 5809,
      "##iant": 5810,
      "##lam": 5811,
      "tow": 5812,
      "reve": 5813,
      "Street": 5814,
      "models": 5815,
      "Indian": 5816,
      "winning": 5817,
      "learned": 5818,
      "connection": 5819,
      "counter": 5820,
      "Cong": 5821,
      "Have": 5822,
      "Jer": 5823,
      "Vir": 5824,
      "Where": 5825,
      "rates": 5826,
      "##add": 5827,
      "spring": 5828,
      "lovely": 5829,
      "manufactur": 5830,
      "Today": 5831,
      "Hol": 5832,
      "Like": 5833,
      "PC": 5834,
      "dro": 5835,
      "rank": 5836,
      "##body": 5837,
      "##isation": 5838,
      "stone": 5839,
      "cloud": 5840,
      "commit": 5841,
      "generally": 5842,
      "properties": 5843,
      "bottom": 5844,
      "independent": 5845,
      "Ber": 5846,
      "Sur": 5847,
      "breat": 5848,
      "##aling": 5849,
      "reality": 5850,
      "##illa": 5851,
      "##cket": 5852,
      "##osing": 5853,
      "placed": 5854,
      "heavy": 5855,
      "##apers": 5856,
      "accommod": 5857,
      "grant": 5858,
      "Arch": 5859,
      "economic": 5860,
      "relevant": 5861,
      "Disc": 5862,
      "drop": 5863,
      "eight": 5864,
      "states": 5865,
      "##raw": 5866,
      "comments": 5867,
      "seven": 5868,
      "spread": 5869,
      "wants": 5870,
      "diag": 5871,
      "strugg": 5872,
      "dedicated": 5873,
      "Loc": 5874,
      "gain": 5875,
      "tree": 5876,
      "##oly": 5877,
      "##ads": 5878,
      "Str": 5879,
      "therefore": 5880,
      "Class": 5881,
      "Top": 5882,
      "Take": 5883,
      "cup": 5884,
      "fight": 5885,
      "ign": 5886,
      "##time": 5887,
      "##iger": 5888,
      "##aming": 5889,
      "shown": 5890,
      "owner": 5891,
      "husband": 5892,
      "Sub": 5893,
      "fly": 5894,
      "mir": 5895,
      "snow": 5896,
      "##inger": 5897,
      "plants": 5898,
      "resist": 5899,
      "##irection": 5900,
      "spr": 5901,
      "otherwise": 5902,
      "Church": 5903,
      "guests": 5904,
      "developing": 5905,
      "advent": 5906,
      "Party": 5907,
      "Imp": 5908,
      "Jack": 5909,
      "federal": 5910,
      "master": 5911,
      "##ij": 5912,
      "##oke": 5913,
      "##vest": 5914,
      "clin": 5915,
      "focused": 5916,
      "cleaning": 5917,
      "encourage": 5918,
      "Paul": 5919,
      "Ev": 5920,
      "Mal": 5921,
      "band": 5922,
      "brows": 5923,
      "rat": 5924,
      "##ulated": 5925,
      "##unt": 5926,
      "sets": 5927,
      "values": 5928,
      "keeping": 5929,
      "situ": 5930,
      "##retary": 5931,
      "limit": 5932,
      "agreement": 5933,
      "funds": 5934,
      "Tur": 5935,
      "##za": 5936,
      "##atively": 5937,
      "disapp": 5938,
      "spect": 5939,
      "assign": 5940,
      "critical": 5941,
      "vision": 5942,
      "surv": 5943,
      "surface": 5944,
      "opin": 5945,
      "advance": 5946,
      "expand": 5947,
      "Commission": 5948,
      "landsc": 5949,
      "##coming": 5950,
      "Director": 5951,
      "luck": 5952,
      "names": 5953,
      "psych": 5954,
      "##rote": 5955,
      "extend": 5956,
      "##ortunately": 5957,
      "Est": 5958,
      "##rom": 5959,
      "##cks": 5960,
      "exhib": 5961,
      "##soft": 5962,
      "Ann": 5963,
      "##standing": 5964,
      "biggest": 5965,
      "practices": 5966,
      "bought": 5967,
      "core": 5968,
      "pow": 5969,
      "##rant": 5970,
      "##esome": 5971,
      "##ales": 5972,
      "Chinese": 5973,
      "##anging": 5974,
      "secure": 5975,
      "finding": 5976,
      "lighting": 5977,
      "teams": 5978,
      "distance": 5979,
      "hotel": 5980,
      "Last": 5981,
      "##aser": 5982,
      "thus": 5983,
      "##ellig": 5984,
      "mechan": 5985,
      "##hington": 5986,
      "finished": 5987,
      "connected": 5988,
      "##iance": 5989,
      "##cy": 5990,
      "##miss": 5991,
      "##25": 5992,
      "##icing": 5993,
      "unf": 5994,
      "decl": 5995,
      "evening": 5996,
      "Shop": 5997,
      "balance": 5998,
      "described": 5999,
      "General": 6000,
      "95": 6001,
      "Pal": 6002,
      "den": 6003,
      "##cel": 6004,
      "##oral": 6005,
      "seat": 6006,
      "##acity": 6007,
      "greater": 6008,
      "Christian": 6009,
      "##levision": 6010,
      "window": 6011,
      "separate": 6012,
      "dy": 6013,
      "##wide": 6014,
      "##ishes": 6015,
      "street": 6016,
      "prote": 6017,
      "##ulate": 6018,
      "score": 6019,
      "trade": 6020,
      "remain": 6021,
      "##ribute": 6022,
      "forms": 6023,
      "handle": 6024,
      "initi": 6025,
      "\",": 6026,
      "Oh": 6027,
      "cit": 6028,
      "lamp": 6029,
      "map": 6030,
      "trou": 6031,
      "##itors": 6032,
      "##chol": 6033,
      "dog": 6034,
      "becomes": 6035,
      "adding": 6036,
      "actual": 6037,
      "discount": 6038,
      "princip": 6039,
      "33": 6040,
      "300": 6041,
      "AS": 6042,
      "Hall": 6043,
      "bird": 6044,
      "lux": 6045,
      "##bed": 6046,
      "##orial": 6047,
      "##roud": 6048,
      "relig": 6049,
      "2007": 6050,
      "testing": 6051,
      "sharing": 6052,
      "majority": 6053,
      "status": 6054,
      "Democr": 6055,
      "Bay": 6056,
      "Call": 6057,
      "middle": 6058,
      "palm": 6059,
      "##care": 6060,
      "##pro": 6061,
      "##arge": 6062,
      "##ado": 6063,
      "##sec": 6064,
      "Chic": 6065,
      "flu": 6066,
      "metal": 6067,
      "obv": 6068,
      "links": 6069,
      "Government": 6070,
      "disease": 6071,
      "society": 6072,
      "Lo": 6073,
      "Under": 6074,
      "dump": 6075,
      "north": 6076,
      "##eed": 6077,
      "##chers": 6078,
      "##iling": 6079,
      "##ervation": 6080,
      "Child": 6081,
      "##order": 6082,
      "##rowd": 6083,
      "police": 6084,
      "older": 6085,
      "respond": 6086,
      "combination": 6087,
      "miles": 6088,
      "achie": 6089,
      "alternative": 6090,
      "Open": 6091,
      "fantastic": 6092,
      "Ener": 6093,
      "Lear": 6094,
      "cart": 6095,
      "election": 6096,
      "race": 6097,
      "##ios": 6098,
      "##mal": 6099,
      "decide": 6100,
      "announced": 6101,
      "thousands": 6102,
      "PR": 6103,
      "Ins": 6104,
      "Start": 6105,
      "calls": 6106,
      "himself": 6107,
      "Play": 6108,
      "USA": 6109,
      "Washington": 6110,
      "comprehensive": 6111,
      "Found": 6112,
      "Rich": 6113,
      "Sl": 6114,
      "Wed": 6115,
      "catch": 6116,
      "pup": 6117,
      "ren": 6118,
      "##).": 6119,
      "org": 6120,
      "sugar": 6121,
      "sea": 6122,
      "leaves": 6123,
      "remains": 6124,
      "famous": 6125,
      "techniques": 6126,
      "allowing": 6127,
      "elig": 6128,
      "laws": 6129,
      "prepared": 6130,
      "Fol": 6131,
      "Form": 6132,
      "IP": 6133,
      "Kn": 6134,
      "##che": 6135,
      "##odes": 6136,
      "perspect": 6137,
      "academ": 6138,
      "Att": 6139,
      "elections": 6140,
      "Research": 6141,
      "industrial": 6142,
      "Republic": 6143,
      "FID": 6144,
      "eating": 6145,
      "sen": 6146,
      "##ared": 6147,
      "shape": 6148,
      "##osure": 6149,
      "##udd": 6150,
      "sched": 6151,
      "prep": 6152,
      "Real": 6153,
      "##lands": 6154,
      "communities": 6155,
      "economy": 6156,
      "journal": 6157,
      "primary": 6158,
      "Cert": 6159,
      "Mart": 6160,
      "River": 6161,
      "pair": 6162,
      "wrote": 6163,
      "##akers": 6164,
      "##istr": 6165,
      "##apter": 6166,
      "couldn": 6167,
      "seconds": 6168,
      "installed": 6169,
      "anti": 6170,
      "debt": 6171,
      "suitable": 6172,
      "organizations": 6173,
      "bound": 6174,
      "batter": 6175,
      "direction": 6176,
      "gall": 6177,
      "##asks": 6178,
      "##illing": 6179,
      "##abilities": 6180,
      "contribut": 6181,
      "Its": 6182,
      "serving": 6183,
      "presence": 6184,
      "listed": 6185,
      "detailed": 6186,
      "mort": 6187,
      "south": 6188,
      "ton": 6189,
      "##iency": 6190,
      "##uk": 6191,
      "##EL": 6192,
      "##inated": 6193,
      "forget": 6194,
      "react": 6195,
      "##antic": 6196,
      "##gred": 6197,
      "kept": 6198,
      "locations": 6199,
      "designs": 6200,
      "strength": 6201,
      "processes": 6202,
      "approx": 6203,
      "passed": 6204,
      "Data": 6205,
      "Je": 6206,
      "egg": 6207,
      "gone": 6208,
      "pull": 6209,
      "toward": 6210,
      "##eless": 6211,
      "whatever": 6212,
      "Step": 6213,
      "scale": 6214,
      "##phone": 6215,
      "central": 6216,
      "electric": 6217,
      "cultural": 6218,
      "TO": 6219,
      "boo": 6220,
      "##ga": 6221,
      "##top": 6222,
      "##orter": 6223,
      "##arr": 6224,
      "##ota": 6225,
      "grade": 6226,
      "2008": 6227,
      "opened": 6228,
      "config": 6229,
      "brother": 6230,
      "arrange": 6231,
      "talent": 6232,
      "architect": 6233,
      "bag": 6234,
      "##house": 6235,
      "##ls": 6236,
      "habit": 6237,
      "depos": 6238,
      "adapt": 6239,
      "##iverse": 6240,
      "advanced": 6241,
      "technologies": 6242,
      "##____": 6243,
      "Hy": 6244,
      "Old": 6245,
      "amp": 6246,
      "lose": 6247,
      "solid": 6248,
      "##fr": 6249,
      "##22": 6250,
      "##uled": 6251,
      "haven": 6252,
      "##key": 6253,
      "poor": 6254,
      "expensive": 6255,
      "brands": 6256,
      "package": 6257,
      "##ceedings": 6258,
      "figure": 6259,
      "Microsoft": 6260,
      "sustain": 6261,
      "##pond": 6262,
      "buildings": 6263,
      "corner": 6264,
      "operations": 6265,
      "Market": 6266,
      "faith": 6267,
      "Amazon": 6268,
      "UAF": 6269,
      "element": 6270,
      "ir": 6271,
      "mist": 6272,
      "wife": 6273,
      "##rum": 6274,
      "##11": 6275,
      "##itic": 6276,
      "beach": 6277,
      "chat": 6278,
      "willing": 6279,
      "resear": 6280,
      "Product": 6281,
      "Dec": 6282,
      "ended": 6283,
      "driver": 6284,
      "investig": 6285,
      "explore": 6286,
      "population": 6287,
      "motion": 6288,
      "Network": 6289,
      "aspects": 6290,
      "Jesus": 6291,
      "FIDO": 6292,
      "dut": 6293,
      "ingred": 6294,
      "##abase": 6295,
      "doors": 6296,
      "spl": 6297,
      "president": 6298,
      "purpos": 6299,
      "polic": 6300,
      "websites": 6301,
      "continued": 6302,
      "Organ": 6303,
      "edge": 6304,
      "switch": 6305,
      "##--------": 6306,
      "Special": 6307,
      "Tues": 6308,
      "father": 6309,
      "harm": 6310,
      "##pm": 6311,
      "##ston": 6312,
      "repe": 6313,
      "##iment": 6314,
      "Stand": 6315,
      "interior": 6316,
      "agency": 6317,
      "cars": 6318,
      "leader": 6319,
      "factors": 6320,
      "director": 6321,
      "##ifying": 6322,
      "workshop": 6323,
      "multi": 6324,
      "slightly": 6325,
      "demonstr": 6326,
      "Jew": 6327,
      "Rom": 6328,
      "ride": 6329,
      "##ael": 6330,
      "##yn": 6331,
      "##off": 6332,
      "upgr": 6333,
      "##berg": 6334,
      "scene": 6335,
      "##ounds": 6336,
      "format": 6337,
      "update": 6338,
      "Vol": 6339,
      "kick": 6340,
      "sau": 6341,
      "selling": 6342,
      "##eg": 6343,
      "##bing": 6344,
      "##right": 6345,
      "##EM": 6346,
      "##uration": 6347,
      "profile": 6348,
      "beauty": 6349,
      "spending": 6350,
      "consumer": 6351,
      "mentioned": 6352,
      "District": 6353,
      "foreign": 6354,
      "Energy": 6355,
      "Ap": 6356,
      "Back": 6357,
      "Lake": 6358,
      "Nat": 6359,
      "Sil": 6360,
      "Water": 6361,
      "dinner": 6362,
      "daughter": 6363,
      "eth": 6364,
      "lunch": 6365,
      "mission": 6366,
      "vent": 6367,
      "##ait": 6368,
      "##ugg": 6369,
      "##TA": 6370,
      "##inct": 6371,
      "beg": 6372,
      "##estic": 6373,
      "Thurs": 6374,
      "leads": 6375,
      "Before": 6376,
      "monthly": 6377,
      "valid": 6378,
      "stores": 6379,
      "characters": 6380,
      "pleas": 6381,
      "Bre": 6382,
      "boy": 6383,
      "##press": 6384,
      "youth": 6385,
      "doctor": 6386,
      "meant": 6387,
      "interp": 6388,
      "##ception": 6389,
      "manager": 6390,
      "measures": 6391,
      "absolutely": 6392,
      "Bas": 6393,
      "Camp": 6394,
      "nom": 6395,
      "rail": 6396,
      "##rical": 6397,
      "##uc": 6398,
      "##rete": 6399,
      "##ctors": 6400,
      "##osition": 6401,
      "choices": 6402,
      "helpful": 6403,
      "attor": 6404,
      "confidence": 6405,
      "promote": 6406,
      "Phot": 6407,
      "installation": 6408,
      "Simulation": 6409,
      "casino": 6410,
      "taste": 6411,
      "adults": 6412,
      "Development": 6413,
      "44": 6414,
      "Sum": 6415,
      "##ault": 6416,
      "##usion": 6417,
      "anywhere": 6418,
      "guess": 6419,
      "minimum": 6420,
      "##ports": 6421,
      "Blue": 6422,
      "Centre": 6423,
      "England": 6424,
      "military": 6425,
      "flowers": 6426,
      "Two": 6427,
      "teacher": 6428,
      "Mill": 6429,
      "Mary": 6430,
      "proud": 6431,
      "rain": 6432,
      "rule": 6433,
      "##ipp": 6434,
      "worry": 6435,
      "climate": 6436,
      "contem": 6437,
      "uns": 6438,
      "committee": 6439,
      "becoming": 6440,
      "##ifications": 6441,
      "shel": 6442,
      "artist": 6443,
      "French": 6444,
      "Online": 6445,
      "excited": 6446,
      "brain": 6447,
      "legis": 6448,
      "##box": 6449,
      "clearly": 6450,
      "funding": 6451,
      "applied": 6452,
      "Fire": 6453,
      "Hum": 6454,
      "Time": 6455,
      "Ver": 6456,
      "wire": 6457,
      "##AY": 6458,
      "##sey": 6459,
      "News": 6460,
      "operating": 6461,
      "responsibility": 6462,
      "honest": 6463,
      "fabric": 6464,
      "outdoor": 6465,
      "Chicago": 6466,
      "Wednes": 6467,
      "AM": 6468,
      "Ben": 6469,
      "Public": 6470,
      "Sam": 6471,
      "fans": 6472,
      "##aled": 6473,
      "##eline": 6474,
      "##ola": 6475,
      "##olic": 6476,
      "##achel": 6477,
      "Next": 6478,
      "drivers": 6479,
      "##appy": 6480,
      "##iliar": 6481,
      "awesome": 6482,
      "Cap": 6483,
      "Gold": 6484,
      "##OL": 6485,
      "##ini": 6486,
      "##inet": 6487,
      "##anta": 6488,
      "Through": 6489,
      "2000": 6490,
      "resolution": 6491,
      "unless": 6492,
      "arm": 6493,
      "reput": 6494,
      "##azine": 6495,
      "joint": 6496,
      "Phil": 6497,
      "Tuesday": 6498,
      "38": 6499,
      "Det": 6500,
      "brief": 6501,
      "civil": 6502,
      "sources": 6503,
      "##gon": 6504,
      "Project": 6505,
      "publish": 6506,
      "Exper": 6507,
      "conflic": 6508,
      "facilities": 6509,
      "walking": 6510,
      "Keep": 6511,
      "delivered": 6512,
      "epis": 6513,
      "Care": 6514,
      "Div": 6515,
      "Power": 6516,
      "crowd": 6517,
      "filled": 6518,
      "mo": 6519,
      "deals": 6520,
      "##gricult": 6521,
      "importance": 6522,
      "discussion": 6523,
      "girls": 6524,
      "negative": 6525,
      "scientific": 6526,
      "dang": 6527,
      "fan": 6528,
      "##gen": 6529,
      "##fast": 6530,
      "##eries": 6531,
      "##repr": 6532,
      "##ordin": 6533,
      "truth": 6534,
      "Prov": 6535,
      "runs": 6536,
      "properly": 6537,
      "jobs": 6538,
      "enjoyed": 6539,
      "competition": 6540,
      "Thursday": 6541,
      "48": 6542,
      "Kar": 6543,
      "ment": 6544,
      "vit": 6545,
      "##xic": 6546,
      "##BC": 6547,
      "##ero": 6548,
      "force": 6549,
      "##using": 6550,
      "##emon": 6551,
      "capacity": 6552,
      "Committee": 6553,
      "templ": 6554,
      "apart": 6555,
      "leadership": 6556,
      "##reprene": 6557,
      "Aff": 6558,
      "Main": 6559,
      "aware": 6560,
      "dim": 6561,
      "earth": 6562,
      "rub": 6563,
      "tun": 6564,
      "vict": 6565,
      "##IP": 6566,
      "##12": 6567,
      "sto": 6568,
      "sector": 6569,
      "liqu": 6570,
      "spons": 6571,
      "markets": 6572,
      "artists": 6573,
      "thoughts": 6574,
      "smaller": 6575,
      "Islam": 6576,
      "favour": 6577,
      "origin": 6578,
      "watching": 6579,
      "maximum": 6580,
      "emerg": 6581,
      "houses": 6582,
      "guarantee": 6583,
      "Download": 6584,
      "purposes": 6585,
      "Fam": 6586,
      "hom": 6587,
      "rid": 6588,
      "##ario": 6589,
      "##iled": 6590,
      "transact": 6591,
      "survey": 6592,
      "exciting": 6593,
      "educational": 6594,
      "Medical": 6595,
      "updated": 6596,
      "residents": 6597,
      "satisf": 6598,
      "Pet": 6599,
      "Table": 6600,
      "##oe": 6601,
      "##IR": 6602,
      "##areness": 6603,
      "thick": 6604,
      "##etic": 6605,
      "committed": 6606,
      "busy": 6607,
      "flat": 6608,
      "minim": 6609,
      "Plus": 6610,
      "restrict": 6611,
      "elimin": 6612,
      "proposed": 6613,
      "accompl": 6614,
      "British": 6615,
      "hospital": 6616,
      "Scottish": 6617,
      "policies": 6618,
      "800": 6619,
      "CD": 6620,
      "Saf": 6621,
      "der": 6622,
      "##aid": 6623,
      "##lines": 6624,
      "##mi": 6625,
      "##word": 6626,
      "##iny": 6627,
      "ourselves": 6628,
      "##apid": 6629,
      "rob": 6630,
      "actions": 6631,
      "Frank": 6632,
      "showing": 6633,
      "happens": 6634,
      "Engine": 6635,
      "Institute": 6636,
      "premium": 6637,
      "strategies": 6638,
      "Wednesday": 6639,
      "List": 6640,
      "##uable": 6641,
      "##ette": 6642,
      "Their": 6643,
      "##estival": 6644,
      "plug": 6645,
      "##inder": 6646,
      "output": 6647,
      "quarter": 6648,
      "owned": 6649,
      "visiting": 6650,
      "##azz": 6651,
      "numerous": 6652,
      "purs": 6653,
      "Adv": 6654,
      "square": 6655,
      "34": 6656,
      "Somet": 6657,
      "fold": 6658,
      "##nel": 6659,
      "##has": 6660,
      "##lor": 6661,
      "##ingo": 6662,
      "##rey": 6663,
      "##iration": 6664,
      "manner": 6665,
      "tele": 6666,
      "desk": 6667,
      "provider": 6668,
      "transform": 6669,
      "Team": 6670,
      "classes": 6671,
      "occup": 6672,
      "typically": 6673,
      "automatically": 6674,
      "75": 6675,
      "Cat": 6676,
      "Emp": 6677,
      "har": 6678,
      "##coh": 6679,
      "##ano": 6680,
      "##utter": 6681,
      "##ulations": 6682,
      "##rab": 6683,
      "##osy": 6684,
      "plastic": 6685,
      "compl": 6686,
      "leaving": 6687,
      "##ograp": 6688,
      "registration": 6689,
      "paying": 6690,
      "Management": 6691,
      "sounds": 6692,
      "hyd": 6693,
      "Creat": 6694,
      "Sun": 6695,
      "apos": 6696,
      "##ext": 6697,
      "##LE": 6698,
      "##nding": 6699,
      "##itz": 6700,
      "reb": 6701,
      "##cean": 6702,
      "##quir": 6703,
      "Def": 6704,
      "species": 6705,
      "trees": 6706,
      "audio": 6707,
      "inspired": 6708,
      "vehicles": 6709,
      "concerns": 6710,
      "Angel": 6711,
      "James": 6712,
      "Miss": 6713,
      "##cles": 6714,
      "##itness": 6715,
      "ang": 6716,
      "##ours": 6717,
      "##erved": 6718,
      "Champ": 6719,
      "Who": 6720,
      "remote": 6721,
      "invent": 6722,
      "listen": 6723,
      "delicious": 6724,
      "corporate": 6725,
      "selected": 6726,
      "Music": 6727,
      "German": 6728,
      "guidance": 6729,
      "99": 6730,
      "Jour": 6731,
      "Lou": 6732,
      "Royal": 6733,
      "faster": 6734,
      "##iences": 6735,
      "##rics": 6736,
      "##mpt": 6737,
      "##hem": 6738,
      "reached": 6739,
      "##ading": 6740,
      "##ushing": 6741,
      "speaking": 6742,
      "joined": 6743,
      "volume": 6744,
      "motor": 6745,
      "Key": 6746,
      "##going": 6747,
      "settings": 6748,
      "Community": 6749,
      "Virgin": 6750,
      "boost": 6751,
      "Bur": 6752,
      "Food": 6753,
      "Gal": 6754,
      "NOT": 6755,
      "Qual": 6756,
      "Town": 6757,
      "hall": 6758,
      "od": 6759,
      "##iers": 6760,
      "##td": 6761,
      "##paper": 6762,
      "##RS": 6763,
      "goods": 6764,
      "calling": 6765,
      "familiar": 6766,
      "recommended": 6767,
      "Using": 6768,
      "depending": 6769,
      "channel": 6770,
      "institutions": 6771,
      "Both": 6772,
      "Glo": 6773,
      "Hist": 6774,
      "Mach": 6775,
      "ring": 6776,
      "##ech": 6777,
      "##fol": 6778,
      "##ula": 6779,
      "##unning": 6780,
      "notes": 6781,
      "tech": 6782,
      "knows": 6783,
      "##intage": 6784,
      "amb": 6785,
      "brings": 6786,
      "Only": 6787,
      "interests": 6788,
      "Const": 6789,
      "Road": 6790,
      "sessions": 6791,
      "tickets": 6792,
      "incredible": 6793,
      "Sch": 6794,
      "Section": 6795,
      "rental": 6796,
      "Those": 6797,
      "##acter": 6798,
      "instru": 6799,
      "visual": 6800,
      "courses": 6801,
      "asking": 6802,
      "expertise": 6803,
      "##ocolate": 6804,
      "iPh": 6805,
      "sauce": 6806,
      "Bed": 6807,
      "Peter": 6808,
      "Rock": 6809,
      "nav": 6810,
      "schol": 6811,
      "tag": 6812,
      "##yer": 6813,
      "##AG": 6814,
      "Star": 6815,
      "desire": 6816,
      "seek": 6817,
      "cris": 6818,
      "memory": 6819,
      "approved": 6820,
      "continues": 6821,
      "caused": 6822,
      "practical": 6823,
      "radio": 6824,
      "mountain": 6825,
      "influence": 6826,
      "temperature": 6827,
      "diagn": 6828,
      "dynam": 6829,
      "protein": 6830,
      "prepare": 6831,
      "Mel": 6832,
      "##rd": 6833,
      "##IG": 6834,
      "##EE": 6835,
      "##TS": 6836,
      "##eds": 6837,
      "reference": 6838,
      "##rian": 6839,
      "sport": 6840,
      "disp": 6841,
      "putting": 6842,
      "closed": 6843,
      "##idden": 6844,
      "##liance": 6845,
      "##fficient": 6846,
      "happened": 6847,
      "assistance": 6848,
      "perspective": 6849,
      "49": 6850,
      "Dri": 6851,
      "Land": 6852,
      "tasks": 6853,
      "##itate": 6854,
      "##itage": 6855,
      "##entle": 6856,
      "beat": 6857,
      "##ooper": 6858,
      "##aks": 6859,
      "##osh": 6860,
      "##agram": 6861,
      "intellig": 6862,
      "script": 6863,
      "aftern": 6864,
      "standing": 6865,
      "Place": 6866,
      "Media": 6867,
      "Contact": 6868,
      "claims": 6869,
      "awareness": 6870,
      "documents": 6871,
      "Series": 6872,
      "AND": 6873,
      "Hel": 6874,
      "Mil": 6875,
      "Word": 6876,
      "##rors": 6877,
      "##well": 6878,
      "##VE": 6879,
      "##18": 6880,
      "##itar": 6881,
      "bear": 6882,
      "anc": 6883,
      "##odies": 6884,
      "mostly": 6885,
      "##ructure": 6886,
      "feedback": 6887,
      "assessment": 6888,
      "instructions": 6889,
      "chemical": 6890,
      "46": 6891,
      "AC": 6892,
      "Master": 6893,
      "ON": 6894,
      "Pan": 6895,
      "##ey": 6896,
      "##water": 6897,
      "##umin": 6898,
      "teach": 6899,
      "dish": 6900,
      "despite": 6901,
      "starts": 6902,
      "entreprene": 6903,
      "generation": 6904,
      "Scot": 6905,
      "bigger": 6906,
      "laun": 6907,
      "Security": 6908,
      "channels": 6909,
      "Academ": 6910,
      "database": 6911,
      "Congress": 6912,
      "Bal": 6913,
      "Gar": 6914,
      "IC": 6915,
      "Person": 6916,
      "Ter": 6917,
      "ox": 6918,
      "rely": 6919,
      "##uct": 6920,
      "##mar": 6921,
      "##BA": 6922,
      "##ested": 6923,
      "##istan": 6924,
      "ship": 6925,
      "Inf": 6926,
      "##ibilities": 6927,
      "##rupt": 6928,
      "2005": 6929,
      "possibly": 6930,
      "Science": 6931,
      "performed": 6932,
      "broken": 6933,
      "depart": 6934,
      "department": 6935,
      "loans": 6936,
      "environmental": 6937,
      "Secretary": 6938,
      "OF": 6939,
      "View": 6940,
      "sitting": 6941,
      "##field": 6942,
      "shap": 6943,
      "Ital": 6944,
      "television": 6945,
      "##reek": 6946,
      "decre": 6947,
      "posts": 6948,
      "magn": 6949,
      "Technology": 6950,
      "adopt": 6951,
      "supplies": 6952,
      "Ear": 6953,
      "labor": 6954,
      "##gage": 6955,
      "##ae": 6956,
      "##craft": 6957,
      "##oses": 6958,
      "enable": 6959,
      "appeal": 6960,
      "coast": 6961,
      "readers": 6962,
      "concent": 6963,
      "Coast": 6964,
      "Control": 6965,
      "teachers": 6966,
      "animals": 6967,
      "Follow": 6968,
      "Custom": 6969,
      "Fil": 6970,
      "Jon": 6971,
      "Opt": 6972,
      "Set": 6973,
      "##look": 6974,
      "##ocon": 6975,
      "phil": 6976,
      "Proceedings": 6977,
      "##ternal": 6978,
      "Show": 6979,
      "distribution": 6980,
      "perfectly": 6981,
      "enterpr": 6982,
      "reduced": 6983,
      "##osphere": 6984,
      "totally": 6985,
      "surrounding": 6986,
      "browser": 6987,
      "1st": 6988,
      "55": 6989,
      "IB": 6990,
      "Mobile": 6991,
      "SP": 6992,
      "nurs": 6993,
      "##idential": 6994,
      "stre": 6995,
      "##rier": 6996,
      "quiet": 6997,
      "trained": 6998,
      "simpl": 6999,
      "2004": 7000,
      "combined": 7001,
      "Swed": 7002,
      "error": 7003,
      "citiz": 7004,
      "Eas": 7005,
      "Tem": 7006,
      "##inem": 7007,
      "revenue": 7008,
      "upload": 7009,
      "assets": 7010,
      "simulation": 7011,
      "2006": 7012,
      "electronic": 7013,
      "successfully": 7014,
      "records": 7015,
      "doubt": 7016,
      "ingredients": 7017,
      "AD": 7018,
      "Cond": 7019,
      "Sing": 7020,
      "dial": 7021,
      "mal": 7022,
      "meal": 7023,
      "intended": 7024,
      "appar": 7025,
      "recipe": 7026,
      "##encing": 7027,
      "##ificate": 7028,
      "advis": 7029,
      "supported": 7030,
      "defined": 7031,
      "payments": 7032,
      "Execut": 7033,
      "facility": 7034,
      "internal": 7035,
      "shoes": 7036,
      "seemed": 7037,
      "category": 7038,
      "behavior": 7039,
      "occasion": 7040,
      "eligible": 7041,
      "Cam": 7042,
      "Hope": 7043,
      "Mo": 7044,
      "hook": 7045,
      "##UI": 7046,
      "##ita": 7047,
      "atm": 7048,
      "shipping": 7049,
      "##asting": 7050,
      "highlight": 7051,
      "providers": 7052,
      "salt": 7053,
      "brown": 7054,
      "eventually": 7055,
      "Auto": 7056,
      "licens": 7057,
      "historical": 7058,
      "affordable": 7059,
      "##cohol": 7060,
      "Bet": 7061,
      "Bank": 7062,
      "HD": 7063,
      "Long": 7064,
      "bon": 7065,
      "dance": 7066,
      "mental": 7067,
      "pal": 7068,
      "tail": 7069,
      "##gers": 7070,
      "##icul": 7071,
      "##riage": 7072,
      "soil": 7073,
      "##neys": 7074,
      "195": 7075,
      "medium": 7076,
      "Franc": 7077,
      "signed": 7078,
      "meetings": 7079,
      "glad": 7080,
      "specifically": 7081,
      "##ography": 7082,
      "license": 7083,
      "conducted": 7084,
      "conversation": 7085,
      "Grand": 7086,
      "components": 7087,
      "hundreds": 7088,
      "Michael": 7089,
      "afternoon": 7090,
      "Note": 7091,
      "cott": 7092,
      "iron": 7093,
      "##ef": 7094,
      "##iminal": 7095,
      "##osen": 7096,
      "##ella": 7097,
      "##elled": 7098,
      "recip": 7099,
      "trick": 7100,
      "agent": 7101,
      "commission": 7102,
      "guys": 7103,
      "supporting": 7104,
      "engagement": 7105,
      "Color": 7106,
      "govern": 7107,
      "domain": 7108,
      "circum": 7109,
      "neighbor": 7110,
      "accurate": 7111,
      "39": 7112,
      "Lin": 7113,
      "YOU": 7114,
      "ban": 7115,
      "cer": 7116,
      "cities": 7117,
      "died": 7118,
      "ju": 7119,
      "rise": 7120,
      "chick": 7121,
      "seeking": 7122,
      "flight": 7123,
      "articles": 7124,
      "supports": 7125,
      "topic": 7126,
      "Island": 7127,
      "foods": 7128,
      "depth": 7129,
      "esc": 7130,
      "milk": 7131,
      "enhance": 7132,
      "iPhone": 7133,
      "Cas": 7134,
      "Di": 7135,
      "Lim": 7136,
      "Ltd": 7137,
      "Mer": 7138,
      "die": 7139,
      "gifts": 7140,
      "tight": 7141,
      "##kins": 7142,
      "##OW": 7143,
      "##SS": 7144,
      "##rees": 7145,
      "##oma": 7146,
      "##roy": 7147,
      "##abled": 7148,
      "recovery": 7149,
      "regional": 7150,
      "sympt": 7151,
      "reliable": 7152,
      "mode": 7153,
      "trial": 7154,
      "moments": 7155,
      "##liament": 7156,
      "fulf": 7157,
      "songs": 7158,
      "Russian": 7159,
      "drug": 7160,
      "approximately": 7161,
      "Hor": 7162,
      "Lat": 7163,
      "PD": 7164,
      "##bour": 7165,
      "##cious": 7166,
      "##inations": 7167,
      "##isher": 7168,
      "##omas": 7169,
      "##elines": 7170,
      "sequ": 7171,
      "fees": 7172,
      "carried": 7173,
      "Artic": 7174,
      "centre": 7175,
      "operate": 7176,
      "prompt": 7177,
      "purchased": 7178,
      "Environment": 7179,
      "Paris": 7180,
      "42": 7181,
      "AT": 7182,
      "Gen": 7183,
      "push": 7184,
      "##gment": 7185,
      "##),": 7186,
      "##orry": 7187,
      "##icip": 7188,
      "exchange": 7189,
      "seats": 7190,
      "wouldn": 7191,
      "colle": 7192,
      "instance": 7193,
      "assum": 7194,
      "showed": 7195,
      "emphas": 7196,
      "construct": 7197,
      "accounts": 7198,
      "Does": 7199,
      "Central": 7200,
      "cutting": 7201,
      "announce": 7202,
      "removed": 7203,
      "procedure": 7204,
      "birthday": 7205,
      "37": 7206,
      "CO": 7207,
      "Cup": 7208,
      "Having": 7209,
      "Mont": 7210,
      "Matt": 7211,
      "NC": 7212,
      "cop": 7213,
      "kid": 7214,
      "mouth": 7215,
      "tut": 7216,
      "##orough": 7217,
      "##reens": 7218,
      "##orthern": 7219,
      "Assembly": 7220,
      "auto": 7221,
      "stands": 7222,
      "effectively": 7223,
      "participants": 7224,
      "cooking": 7225,
      "William": 7226,
      "panel": 7227,
      "route": 7228,
      "appointment": 7229,
      "introduced": 7230,
      "opinion": 7231,
      "Foundation": 7232,
      "Family": 7233,
      "88": 7234,
      "Den": 7235,
      "Museum": 7236,
      "NE": 7237,
      "SC": 7238,
      "vary": 7239,
      "##equ": 7240,
      "##iors": 7241,
      "##like": 7242,
      "##uction": 7243,
      "##flow": 7244,
      "##omb": 7245,
      "throw": 7246,
      "excess": 7247,
      "##ensions": 7248,
      "phase": 7249,
      "returned": 7250,
      "accepted": 7251,
      "raised": 7252,
      "qualified": 7253,
      "ticket": 7254,
      "appreciate": 7255,
      "academic": 7256,
      "Alex": 7257,
      "fell": 7258,
      "jump": 7259,
      "’.": 7260,
      "##pan": 7261,
      "input": 7262,
      "##urd": 7263,
      "##ander": 7264,
      "##ipl": 7265,
      "tea": 7266,
      "valuable": 7267,
      "##otten": 7268,
      "Lead": 7269,
      "covers": 7270,
      "consumers": 7271,
      "Perform": 7272,
      "Fund": 7273,
      "Hill": 7274,
      "MP": 7275,
      "Pass": 7276,
      "Test": 7277,
      "bond": 7278,
      "mut": 7279,
      "pil": 7280,
      "##war": 7281,
      "##eder": 7282,
      "##uries": 7283,
      "##oop": 7284,
      "chocolate": 7285,
      "sole": 7286,
      "apps": 7287,
      "agents": 7288,
      "agreed": 7289,
      "##respond": 7290,
      "movies": 7291,
      "previously": 7292,
      "presentation": 7293,
      "trend": 7294,
      "##rastructure": 7295,
      "senior": 7296,
      "End": 7297,
      "Western": 7298,
      "lived": 7299,
      "##bl": 7300,
      "##ym": 7301,
      "context": 7302,
      "syn": 7303,
      "belong": 7304,
      "##urred": 7305,
      "surg": 7306,
      "obl": 7307,
      "editor": 7308,
      "swim": 7309,
      "holds": 7310,
      "##lusion": 7311,
      "layout": 7312,
      "innovation": 7313,
      "Japanese": 7314,
      "predict": 7315,
      "Support": 7316,
      "entertainment": 7317,
      "commitment": 7318,
      "Bill": 7319,
      "Mad": 7320,
      "Tour": 7321,
      "##ya": 7322,
      "##14": 7323,
      "therapy": 7324,
      "##itics": 7325,
      "reject": 7326,
      "beam": 7327,
      "stated": 7328,
      "consequ": 7329,
      "##estyle": 7330,
      "ath": 7331,
      "chart": 7332,
      "Android": 7333,
      "keeps": 7334,
      "equipped": 7335,
      "explain": 7336,
      "wheel": 7337,
      "Maybe": 7338,
      "windows": 7339,
      "reasonable": 7340,
      "participate": 7341,
      "Server": 7342,
      "football": 7343,
      "Social": 7344,
      "spiritual": 7345,
      "contemporary": 7346,
      "Ill": 7347,
      "Know": 7348,
      "Welcome": 7349,
      "fle": 7350,
      "mine": 7351,
      "saving": 7352,
      "##yth": 7353,
      "##IF": 7354,
      "##edy": 7355,
      "##lymp": 7356,
      "enth": 7357,
      "##oga": 7358,
      "transl": 7359,
      "2003": 7360,
      "factor": 7361,
      "kinds": 7362,
      "occur": 7363,
      "Johnson": 7364,
      "physic": 7365,
      "fixed": 7366,
      "discovered": 7367,
      "dollars": 7368,
      "exclusive": 7369,
      "breath": 7370,
      "Journal": 7371,
      "Italian": 7372,
      "Executive": 7373,
      "Further": 7374,
      "NY": 7375,
      "Que": 7376,
      "Such": 7377,
      "Tit": 7378,
      "papers": 7379,
      "##eper": 7380,
      "##PA": 7381,
      "##60": 7382,
      "ther": 7383,
      "##atre": 7384,
      "##ora": 7385,
      "##alog": 7386,
      "##terday": 7387,
      "##osite": 7388,
      "##outhern": 7389,
      "plays": 7390,
      "outstanding": 7391,
      "pregn": 7392,
      "trav": 7393,
      "##enew": 7394,
      "feels": 7395,
      "facil": 7396,
      "tests": 7397,
      "networks": 7398,
      "index": 7399,
      "fuel": 7400,
      "clothes": 7401,
      "landscape": 7402,
      "##secut": 7403,
      "researchers": 7404,
      "Human": 7405,
      "Scotland": 7406,
      "CEO": 7407,
      "Rest": 7408,
      "Vide": 7409,
      "km": 7410,
      "rom": 7411,
      "tables": 7412,
      "west": 7413,
      "##iest": 7414,
      "##ras": 7415,
      "##uated": 7416,
      "##stal": 7417,
      "fort": 7418,
      "##verse": 7419,
      "##abet": 7420,
      "##ria": 7421,
      "choos": 7422,
      "complic": 7423,
      "##ruit": 7424,
      "argu": 7425,
      "knowing": 7426,
      "twice": 7427,
      "Head": 7428,
      "##erts": 7429,
      "Prot": 7430,
      "Union": 7431,
      "France": 7432,
      "Beaut": 7433,
      "facing": 7434,
      "Enter": 7435,
      "Second": 7436,
      "machines": 7437,
      "walls": 7438,
      "orders": 7439,
      "luxury": 7440,
      "interpret": 7441,
      "GA": 7442,
      "RE": 7443,
      "Sign": 7444,
      "Wil": 7445,
      "river": 7446,
      "sides": 7447,
      "##iated": 7448,
      "##rate": 7449,
      "##kin": 7450,
      "##down": 7451,
      "##90": 7452,
      "##SA": 7453,
      "##cknow": 7454,
      "##osis": 7455,
      "recording": 7456,
      "serves": 7457,
      "poly": 7458,
      "detect": 7459,
      "functions": 7460,
      "Conf": 7461,
      "matters": 7462,
      "Phys": 7463,
      "freed": 7464,
      "determined": 7465,
      "failure": 7466,
      "powder": 7467,
      "Sometimes": 7468,
      "Ham": 7469,
      "UN": 7470,
      "sam": 7471,
      "##ye": 7472,
      "##vention": 7473,
      "##LD": 7474,
      "##icial": 7475,
      "##adium": 7476,
      "##unction": 7477,
      "##osoph": 7478,
      "units": 7479,
      "exposure": 7480,
      "extensive": 7481,
      "stored": 7482,
      "hearing": 7483,
      "risks": 7484,
      "treated": 7485,
      "About": 7486,
      "##osystem": 7487,
      "Code": 7488,
      "Did": 7489,
      "Dra": 7490,
      "Fall": 7491,
      "Full": 7492,
      "PM": 7493,
      "Tim": 7494,
      "hire": 7495,
      "icon": 7496,
      "kit": 7497,
      "sizes": 7498,
      "##tics": 7499,
      "inch": 7500,
      "prop": 7501,
      "##ello": 7502,
      "##eller": 7503,
      "informed": 7504,
      "personally": 7505,
      "minor": 7506,
      "boat": 7507,
      "carefully": 7508,
      "distribut": 7509,
      "considering": 7510,
      "improved": 7511,
      "protected": 7512,
      "encoun": 7513,
      "identity": 7514,
      "appears": 7515,
      "motiv": 7516,
      "George": 7517,
      "concerned": 7518,
      "appointed": 7519,
      "emotional": 7520,
      "Global": 7521,
      "circumst": 7522,
      "Press": 7523,
      "Sand": 7524,
      "fishing": 7525,
      "vintage": 7526,
      "##LY": 7527,
      "##itoring": 7528,
      "##riend": 7529,
      "noticed": 7530,
      "leather": 7531,
      "university": 7532,
      "accident": 7533,
      "##resh": 7534,
      "creation": 7535,
      "##enger": 7536,
      "realize": 7537,
      "correspond": 7538,
      "certified": 7539,
      "membership": 7540,
      "##iveness": 7541,
      "competitive": 7542,
      "platforms": 7543,
      "routine": 7544,
      "Ide": 7545,
      "substant": 7546,
      "liquid": 7547,
      "emergency": 7548,
      "Curr": 7549,
      "Jim": 7550,
      "Olymp": 7551,
      "il": 7552,
      "rapid": 7553,
      "sac": 7554,
      "vir": 7555,
      "##ius": 7556,
      "##po": 7557,
      "##ownt": 7558,
      "##igration": 7559,
      "##ainless": 7560,
      "champ": 7561,
      "firms": 7562,
      "Review": 7563,
      "relatively": 7564,
      "featuring": 7565,
      "concrete": 7566,
      "investors": 7567,
      "##iteria": 7568,
      "missing": 7569,
      "regularly": 7570,
      "estimates": 7571,
      "female": 7572,
      "Hotel": 7573,
      "AI": 7574,
      "Bi": 7575,
      "CB": 7576,
      "Happy": 7577,
      "Tri": 7578,
      "agricult": 7579,
      "jack": 7580,
      "ped": 7581,
      "village": 7582,
      "##erg": 7583,
      "##eler": 7584,
      "alcohol": 7585,
      "Though": 7586,
      "##asts": 7587,
      "greatest": 7588,
      "criminal": 7589,
      "worldwide": 7590,
      "Beach": 7591,
      "charges": 7592,
      "Indust": 7593,
      "salad": 7594,
      "Prince": 7595,
      "bringing": 7596,
      "happening": 7597,
      "integrated": 7598,
      "parking": 7599,
      "Mountain": 7600,
      "situations": 7601,
      "2nd": 7602,
      "Card": 7603,
      "Nor": 7604,
      "aid": 7605,
      "mand": 7606,
      "tough": 7607,
      "wet": 7608,
      "##orters": 7609,
      "##anish": 7610,
      "chosen": 7611,
      "Inn": 7612,
      "resol": 7613,
      "resource": 7614,
      "Atl": 7615,
      "musical": 7616,
      "muscle": 7617,
      "reporting": 7618,
      "accessible": 7619,
      "styles": 7620,
      "Canad": 7621,
      "appearance": 7622,
      "holding": 7623,
      "Robert": 7624,
      "recognized": 7625,
      "administration": 7626,
      "administr": 7627,
      "flexible": 7628,
      "Members": 7629,
      "virtual": 7630,
      "battery": 7631,
      "400": 7632,
      "Ext": 7633,
      "acknow": 7634,
      "none": 7635,
      "sample": 7636,
      "voc": 7637,
      "##van": 7638,
      "##atures": 7639,
      "thr": 7640,
      "manual": 7641,
      "##berry": 7642,
      "vend": 7643,
      "bless": 7644,
      "lights": 7645,
      "brew": 7646,
      "challenging": 7647,
      "procedures": 7648,
      "conflict": 7649,
      "scholars": 7650,
      "Arab": 7651,
      "Kitchen": 7652,
      "Non": 7653,
      "Rob": 7654,
      "Tor": 7655,
      "Wild": 7656,
      "Watch": 7657,
      "library": 7658,
      "sister": 7659,
      "##tle": 7660,
      "##oes": 7661,
      "##OC": 7662,
      "##17": 7663,
      "##tered": 7664,
      "quot": 7665,
      "blind": 7666,
      "infrastructure": 7667,
      "engage": 7668,
      "##iking": 7669,
      "recorded": 7670,
      "messages": 7671,
      "Minister": 7672,
      "partnership": 7673,
      "innovative": 7674,
      "imagine": 7675,
      "Germany": 7676,
      "Society": 7677,
      "scheduled": 7678,
      "Econom": 7679,
      "Live": 7680,
      "Sar": 7681,
      "caught": 7682,
      "ly": 7683,
      "mel": 7684,
      "##oin": 7685,
      "##adata": 7686,
      "antic": 7687,
      "##ferences": 7688,
      "resulting": 7689,
      "receiving": 7690,
      "Leg": 7691,
      "Instagram": 7692,
      "inspiration": 7693,
      "##atoes": 7694,
      "confirm": 7695,
      "achieved": 7696,
      "DV": 7697,
      "Mot": 7698,
      "Squ": 7699,
      "Win": 7700,
      "nor": 7701,
      "##ien": 7702,
      "##la": 7703,
      "##cher": 7704,
      "##uing": 7705,
      "##fl": 7706,
      "##fit": 7707,
      "##OD": 7708,
      "weap": 7709,
      "chain": 7710,
      "quant": 7711,
      "##gress": 7712,
      "ages": 7713,
      "agencies": 7714,
      "bask": 7715,
      "basically": 7716,
      "cheese": 7717,
      "retro": 7718,
      "entr": 7719,
      "classroom": 7720,
      "150": 7721,
      "sharp": 7722,
      "manufacturing": 7723,
      "domestic": 7724,
      "efficiency": 7725,
      "lifestyle": 7726,
      "regulations": 7727,
      "blend": 7728,
      "manufacturer": 7729,
      "principles": 7730,
      "reputation": 7731,
      "Louis": 7732,
      "symptoms": 7733,
      "LED": 7734,
      "Oper": 7735,
      "battle": 7736,
      "fro": 7737,
      "rol": 7738,
      "wal": 7739,
      "wel": 7740,
      "##UR": 7741,
      "##isk": 7742,
      "##ilst": 7743,
      "forg": 7744,
      "anx": 7745,
      "abst": 7746,
      "##pty": 7747,
      "univers": 7748,
      "trig": 7749,
      "instruction": 7750,
      "##away": 7751,
      "signs": 7752,
      "topics": 7753,
      "planned": 7754,
      "constant": 7755,
      "fourth": 7756,
      "fields": 7757,
      "Training": 7758,
      "breakfast": 7759,
      "raise": 7760,
      "Smart": 7761,
      "arrived": 7762,
      "estimated": 7763,
      "volunteers": 7764,
      "transportation": 7765,
      "##ixture": 7766,
      "incorpor": 7767,
      "Virginia": 7768,
      "atmosphere": 7769,
      "Access": 7770,
      "CH": 7771,
      "Gall": 7772,
      "Jun": 7773,
      "bingo": 7774,
      "fasc": 7775,
      "hidden": 7776,
      "kill": 7777,
      "taught": 7778,
      "##bles": 7779,
      "##life": 7780,
      "##omen": 7781,
      "##road": 7782,
      "##stone": 7783,
      "##uts": 7784,
      "prospect": 7785,
      "##inding": 7786,
      "meat": 7787,
      "everyday": 7788,
      "undert": 7789,
      "guy": 7790,
      "defend": 7791,
      "Exc": 7792,
      "param": 7793,
      "employment": 7794,
      "discussed": 7795,
      "Airport": 7796,
      "Author": 7797,
      "portfol": 7798,
      "Valley": 7799,
      "convention": 7800,
      "incredibly": 7801,
      "Modern": 7802,
      "replacement": 7803,
      "begins": 7804,
      "launched": 7805,
      "04": 7806,
      "Dut": 7807,
      "Tom": 7808,
      "ease": 7809,
      "fal": 7810,
      "nic": 7811,
      "##ura": 7812,
      "sud": 7813,
      "height": 7814,
      "heav": 7815,
      "compens": 7816,
      "Italy": 7817,
      "spaces": 7818,
      "county": 7819,
      "##engt": 7820,
      "Manager": 7821,
      "closer": 7822,
      "Account": 7823,
      "officials": 7824,
      "shops": 7825,
      "Iran": 7826,
      "frequently": 7827,
      "##while": 7828,
      "%.": 7829,
      "CC": 7830,
      "Dani": 7831,
      "Mult": 7832,
      "Rad": 7833,
      "joy": 7834,
      "pin": 7835,
      "pod": 7836,
      "##u09": 7837,
      "inquir": 7838,
      "forum": 7839,
      "proceed": 7840,
      "##race": 7841,
      "##ppers": 7842,
      "##ops": 7843,
      "butter": 7844,
      "Admin": 7845,
      "generate": 7846,
      "healthcare": 7847,
      "Instead": 7848,
      "picked": 7849,
      "McC": 7850,
      "##ENT": 7851,
      "illustr": 7852,
      "Twitter": 7853,
      "capture": 7854,
      "Disney": 7855,
      "satisfact": 7856,
      "convenient": 7857,
      "Game": 7858,
      "Garden": 7859,
      "Hi": 7860,
      "Lee": 7861,
      "Search": 7862,
      "Vict": 7863,
      "du": 7864,
      "east": 7865,
      "rough": 7866,
      "renew": 7867,
      "vast": 7868,
      "##yers": 7869,
      "##comes": 7870,
      "sufficient": 7871,
      "##ushed": 7872,
      "##ensity": 7873,
      "justice": 7874,
      "Which": 7875,
      "Proc": 7876,
      "belief": 7877,
      "2001": 7878,
      "elected": 7879,
      "identified": 7880,
      "privacy": 7881,
      "appeared": 7882,
      "missed": 7883,
      "collected": 7884,
      "##itution": 7885,
      "Russia": 7886,
      "##orgeous": 7887,
      "candidate": 7888,
      "dumpster": 7889,
      "Article": 7890,
      "Dig": 7891,
      "Mic": 7892,
      "Prem": 7893,
      "cute": 7894,
      "ven": 7895,
      "##hab": 7896,
      "##aud": 7897,
      "##IA": 7898,
      "##iner": 7899,
      "##anes": 7900,
      "thorough": 7901,
      "rein": 7902,
      "rear": 7903,
      "##lying": 7904,
      "##ially": 7905,
      "dogs": 7906,
      "meals": 7907,
      "YouT": 7908,
      "##luded": 7909,
      "Therefore": 7910,
      "advoc": 7911,
      "driven": 7912,
      "organic": 7913,
      "hardware": 7914,
      "protocol": 7915,
      "##ossible": 7916,
      "Applic": 7917,
      "closely": 7918,
      "counsel": 7919,
      "normally": 7920,
      "massive": 7921,
      "residential": 7922,
      "medicine": 7923,
      "Clean": 7924,
      "episode": 7925,
      "bike": 7926,
      "laser": 7927,
      "ol": 7928,
      "witness": 7929,
      "##rick": 7930,
      "##UT": 7931,
      "##RA": 7932,
      "##oration": 7933,
      "##ares": 7934,
      "stret": 7935,
      "##umber": 7936,
      "usual": 7937,
      "diss": 7938,
      "Asia": 7939,
      "secret": 7940,
      "##athy": 7941,
      "writ": 7942,
      "boys": 7943,
      "Mars": 7944,
      "Connect": 7945,
      "equal": 7946,
      "legs": 7947,
      "officers": 7948,
      "recognition": 7949,
      "Brown": 7950,
      "restaurants": 7951,
      "Sales": 7952,
      "patterns": 7953,
      "disappoint": 7954,
      "Federal": 7955,
      "].": 7956,
      "eleg": 7957,
      "soul": 7958,
      "veter": 7959,
      "##St": 7960,
      "##urally": 7961,
      "forces": 7962,
      "stuck": 7963,
      "##usher": 7964,
      "##andom": 7965,
      "##acks": 7966,
      "contrast": 7967,
      "unable": 7968,
      "##itionally": 7969,
      "root": 7970,
      "possess": 7971,
      "organized": 7972,
      "distinct": 7973,
      "causes": 7974,
      "truck": 7975,
      "creates": 7976,
      "Steel": 7977,
      "speaker": 7978,
      "negot": 7979,
      "gender": 7980,
      "cycle": 7981,
      "Muslim": 7982,
      "graphics": 7983,
      "injury": 7984,
      "circumstances": 7985,
      "Dou": 7986,
      "Fort": 7987,
      "Mass": 7988,
      "SS": 7989,
      "fif": 7990,
      "##how": 7991,
      "ongoing": 7992,
      "##aded": 7993,
      "stations": 7994,
      "stars": 7995,
      "stunning": 7996,
      "##aked": 7997,
      "neck": 7998,
      "external": 7999,
      "##usi": 8000,
      "##pection": 8001,
      "worse": 8002,
      "Invest": 8003,
      "compare": 8004,
      "unex": 8005,
      "proven": 8006,
      "Unf": 8007,
      "certification": 8008,
      "Indones": 8009,
      "turns": 8010,
      "household": 8011,
      "airport": 8012,
      "nearby": 8013,
      "diam": 8014,
      "Room": 8015,
      "updates": 8016,
      "votes": 8017,
      "animal": 8018,
      "removal": 8019,
      "garage": 8020,
      "bowl": 8021,
      "favourite": 8022,
      "Cy": 8023,
      "Earth": 8024,
      "Four": 8025,
      "Hand": 8026,
      "Kore": 8027,
      "Ol": 8028,
      "Source": 8029,
      "Tre": 8030,
      "bes": 8031,
      "pm": 8032,
      "rare": 8033,
      "##rid": 8034,
      "##wr": 8035,
      "##US": 8036,
      "##pass": 8037,
      "##19": 8038,
      "##hetic": 8039,
      "##lete": 8040,
      "whom": 8041,
      "shut": 8042,
      "shift": 8043,
      "noted": 8044,
      "containing": 8045,
      "makeup": 8046,
      "studio": 8047,
      "crew": 8048,
      "signal": 8049,
      "winner": 8050,
      "edition": 8051,
      "recognize": 8052,
      "division": 8053,
      "referred": 8054,
      "affected": 8055,
      "destination": 8056,
      "attractive": 8057,
      "surprise": 8058,
      "flavor": 8059,
      "ecosystem": 8060,
      "streets": 8061,
      "sudden": 8062,
      "Fair": 8063,
      "Kind": 8064,
      "Sol": 8065,
      "Sky": 8066,
      "Tru": 8067,
      "nu": 8068,
      "pu": 8069,
      "pra": 8070,
      "san": 8071,
      "tatt": 8072,
      "##gor": 8073,
      "##list": 8074,
      "##zen": 8075,
      "##32": 8076,
      "thin": 8077,
      "##lets": 8078,
      "##idents": 8079,
      "seam": 8080,
      "##ache": 8081,
      "Webs": 8082,
      "perman": 8083,
      "coach": 8084,
      "noise": 8085,
      "indoor": 8086,
      "194": 8087,
      "positions": 8088,
      "submit": 8089,
      "extension": 8090,
      "earned": 8091,
      "filed": 8092,
      "expectations": 8093,
      "linked": 8094,
      "amounts": 8095,
      "hosted": 8096,
      "layer": 8097,
      "objects": 8098,
      "sending": 8099,
      "bulbs": 8100,
      "merch": 8101,
      "##burg": 8102,
      "mortgage": 8103,
      "Quality": 8104,
      "odd": 8105,
      "YouTube": 8106,
      "05": 8107,
      "DO": 8108,
      "Log": 8109,
      "Mat": 8110,
      "Try": 8111,
      "VPN": 8112,
      "WH": 8113,
      "nar": 8114,
      "tap": 8115,
      "vital": 8116,
      "##ki": 8117,
      "##de": 8118,
      "##uits": 8119,
      "##mond": 8120,
      "##point": 8121,
      "##15": 8122,
      "##eling": 8123,
      "##otic": 8124,
      "conver": 8125,
      "susp": 8126,
      "##ulty": 8127,
      "whenever": 8128,
      "monitor": 8129,
      "monitoring": 8130,
      "visited": 8131,
      "##overs": 8132,
      "certificate": 8133,
      "matches": 8134,
      "explained": 8135,
      "##isco": 8136,
      "stocks": 8137,
      "Geor": 8138,
      "failed": 8139,
      "turning": 8140,
      "consistent": 8141,
      "crypt": 8142,
      "Canadian": 8143,
      "anticip": 8144,
      "Victor": 8145,
      "Bow": 8146,
      "Cook": 8147,
      "SH": 8148,
      "Sports": 8149,
      "Term": 8150,
      "af": 8151,
      "downt": 8152,
      "golf": 8153,
      "male": 8154,
      "raw": 8155,
      "##ugh": 8156,
      "##EP": 8157,
      "##oli": 8158,
      "prove": 8159,
      "##outs": 8160,
      "upcoming": 8161,
      "description": 8162,
      "symb": 8163,
      "designer": 8164,
      "strict": 8165,
      "Should": 8166,
      "delight": 8167,
      "Soft": 8168,
      "photograp": 8169,
      "constantly": 8170,
      "shares": 8171,
      "Works": 8172,
      "warrant": 8173,
      "suggested": 8174,
      "mixed": 8175,
      "graphic": 8176,
      "Communic": 8177,
      "deposit": 8178,
      "accomplish": 8179,
      "ancient": 8180,
      "Academy": 8181,
      "enthusi": 8182,
      "Cre": 8183,
      "Du": 8184,
      "Ha": 8185,
      "bodies": 8186,
      "ends": 8187,
      "pen": 8188,
      "pun": 8189,
      "##hors": 8190,
      "##pet": 8191,
      "wealth": 8192,
      "coal": 8193,
      "##anger": 8194,
      "decades": 8195,
      "remaining": 8196,
      "##obby": 8197,
      "listening": 8198,
      "defense": 8199,
      "vari": 8200,
      "capable": 8201,
      "array": 8202,
      "significantly": 8203,
      "preparation": 8204,
      "engineering": 8205,
      "silver": 8206,
      "Looking": 8207,
      "impressive": 8208,
      "##forcement": 8209,
      "collaboration": 8210,
      "resistance": 8211,
      "Children": 8212,
      "enterprise": 8213,
      "citizens": 8214,
      "neighborhood": 8215,
      "Lab": 8216,
      "Liter": 8217,
      "Very": 8218,
      "lit": 8219,
      "native": 8220,
      "wra": 8221,
      "##13": 8222,
      "##LS": 8223,
      "##orable": 8224,
      "##iser": 8225,
      "##asp": 8226,
      "##ears": 8227,
      "##pected": 8228,
      "guard": 8229,
      "submitted": 8230,
      "skill": 8231,
      "2002": 8232,
      "Expl": 8233,
      "increases": 8234,
      "League": 8235,
      "controlled": 8236,
      "capabilities": 8237,
      "improving": 8238,
      "returns": 8239,
      "authorities": 8240,
      "answers": 8241,
      "speakers": 8242,
      "Finally": 8243,
      "apartment": 8244,
      "bottle": 8245,
      "Students": 8246,
      "historic": 8247,
      "Spring": 8248,
      "adventure": 8249,
      "obvious": 8250,
      "Learn": 8251,
      "Employ": 8252,
      "portfolio": 8253,
      "DUI": 8254,
      "Nov": 8255,
      "Os": 8256,
      "bread": 8257,
      "grown": 8258,
      "museum": 8259,
      "pure": 8260,
      "telling": 8261,
      "upper": 8262,
      "’,": 8263,
      "##iat": 8264,
      "##vin": 8265,
      "##64": 8266,
      "##onic": 8267,
      "##alle": 8268,
      "##olt": 8269,
      "##ulous": 8270,
      "##raction": 8271,
      "##ifies": 8272,
      "##ardens": 8273,
      "intr": 8274,
      "spok": 8275,
      "impl": 8276,
      "critic": 8277,
      "acid": 8278,
      "guest": 8279,
      "belt": 8280,
      "surf": 8281,
      "foundation": 8282,
      "performing": 8283,
      "electrical": 8284,
      "managers": 8285,
      "involve": 8286,
      "Box": 8287,
      "##holders": 8288,
      "Remember": 8289,
      "volunteer": 8290,
      "Performance": 8291,
      "57": 8292,
      "Kr": 8293,
      "Los": 8294,
      "Mov": 8295,
      "Max": 8296,
      "ast": 8297,
      "gate": 8298,
      "##kay": 8299,
      "##oir": 8300,
      "##RI": 8301,
      "##ingu": 8302,
      "exceed": 8303,
      "permission": 8304,
      "recover": 8305,
      "##ints": 8306,
      "adds": 8307,
      "charged": 8308,
      "issued": 8309,
      "featured": 8310,
      "equival": 8311,
      "Coll": 8312,
      "trading": 8313,
      "Enjoy": 8314,
      "##ennis": 8315,
      "improvement": 8316,
      "panels": 8317,
      "drinking": 8318,
      "African": 8319,
      "Visit": 8320,
      "Architect": 8321,
      "dynamic": 8322,
      "choosing": 8323,
      "Unfortunately": 8324,
      "BE": 8325,
      "Bost": 8326,
      "Cir": 8327,
      "MS": 8328,
      "Pub": 8329,
      "Yet": 8330,
      "borrow": 8331,
      "dates": 8332,
      "##een": 8333,
      "##hi": 8334,
      "##DA": 8335,
      "##va": 8336,
      "##24": 8337,
      "##!!": 8338,
      "##erning": 8339,
      "stake": 8340,
      "criteria": 8341,
      "strengt": 8342,
      "expenses": 8343,
      "founded": 8344,
      "ordered": 8345,
      "weekly": 8346,
      "dram": 8347,
      "entered": 8348,
      "Assist": 8349,
      "##cuit": 8350,
      "managing": 8351,
      "ballot": 8352,
      "Smith": 8353,
      "urban": 8354,
      "nutr": 8355,
      "judge": 8356,
      "lucky": 8357,
      "trouble": 8358,
      "religious": 8359,
      "Martin": 8360,
      "sustainable": 8361,
      "duty": 8362,
      "moist": 8363,
      "3rd": 8364,
      "bid": 8365,
      "cooper": 8366,
      "dur": 8367,
      "era": 8368,
      "##nic": 8369,
      "##yd": 8370,
      "##VER": 8371,
      "##isters": 8372,
      "##charge": 8373,
      "##igen": 8374,
      "##igan": 8375,
      "doctors": 8376,
      "quote": 8377,
      "recon": 8378,
      "##anges": 8379,
      "empty": 8380,
      "Arts": 8381,
      "defe": 8382,
      "letters": 8383,
      "##anna": 8384,
      "Despite": 8385,
      "taxes": 8386,
      "dryer": 8387,
      "categories": 8388,
      "crucial": 8389,
      "Bon": 8390,
      "FL": 8391,
      "Hard": 8392,
      "Jose": 8393,
      "diverse": 8394,
      "gorgeous": 8395,
      "sized": 8396,
      "wick": 8397,
      "##UST": 8398,
      "##see": 8399,
      "##aka": 8400,
      "enables": 8401,
      "Thomas": 8402,
      "novel": 8403,
      "##ression": 8404,
      "supposed": 8405,
      "blank": 8406,
      "transition": 8407,
      "translation": 8408,
      "formed": 8409,
      "##iversary": 8410,
      "Columb": 8411,
      "loves": 8412,
      "walked": 8413,
      "Comput": 8414,
      "searching": 8415,
      "authority": 8416,
      "entirely": 8417,
      "hosting": 8418,
      "communicate": 8419,
      "examples": 8420,
      "attended": 8421,
      "voter": 8422,
      "wearing": 8423,
      "celebrate": 8424,
      "ultimate": 8425,
      "strategic": 8426,
      "yesterday": 8427,
      "vacation": 8428,
      "widely": 8429,
      "pulled": 8430,
      "waters": 8431,
      "legislation": 8432,
      "philosoph": 8433,
      "freedom": 8434,
      "Daniel": 8435,
      "!\"": 8436,
      "Fun": 8437,
      "Kh": 8438,
      "Library": 8439,
      "MA": 8440,
      "Night": 8441,
      "Niger": 8442,
      "Pot": 8443,
      "Santa": 8444,
      "Ven": 8445,
      "Zeal": 8446,
      "cable": 8447,
      "gun": 8448,
      "gamb": 8449,
      "penal": 8450,
      "sad": 8451,
      "##kes": 8452,
      "##lers": 8453,
      "##35": 8454,
      "##inent": 8455,
      "plate": 8456,
      "##agraph": 8457,
      "##ogue": 8458,
      "teen": 8459,
      "spark": 8460,
      "desired": 8461,
      "emails": 8462,
      "posting": 8463,
      "Chris": 8464,
      "reducing": 8465,
      "##reme": 8466,
      "officer": 8467,
      "printing": 8468,
      "debate": 8469,
      "sensitive": 8470,
      "farmers": 8471,
      "savings": 8472,
      "Anton": 8473,
      "component": 8474,
      "Senate": 8475,
      "Video": 8476,
      "Ball": 8477,
      "CR": 8478,
      "Cast": 8479,
      "Pict": 8480,
      "killed": 8481,
      "##west": 8482,
      "##whel": 8483,
      "##BS": 8484,
      "##ounder": 8485,
      "forced": 8486,
      "##igate": 8487,
      "shock": 8488,
      "charm": 8489,
      "remark": 8490,
      "extract": 8491,
      "facts": 8492,
      "directed": 8493,
      "campus": 8494,
      "Authentic": 8495,
      "Steve": 8496,
      "absor": 8497,
      "candidates": 8498,
      "clinical": 8499,
      "##front": 8500,
      "bonus": 8501,
      "trigger": 8502,
      "47": 8503,
      "Aud": 8504,
      "Bh": 8505,
      "BM": 8506,
      "Cape": 8507,
      "EP": 8508,
      "NO": 8509,
      "Right": 8510,
      "SU": 8511,
      "burn": 8512,
      "fo": 8513,
      "mile": 8514,
      "random": 8515,
      "##night": 8516,
      "##bits": 8517,
      "##rome": 8518,
      "##pack": 8519,
      "##ingly": 8520,
      "thread": 8521,
      "##gend": 8522,
      "weak": 8523,
      "impossible": 8524,
      "##anged": 8525,
      "consent": 8526,
      "regions": 8527,
      "Select": 8528,
      "Comple": 8529,
      "guitar": 8530,
      "##resents": 8531,
      "moder": 8532,
      "showc": 8533,
      "feelings": 8534,
      "delay": 8535,
      "investigation": 8536,
      "moves": 8537,
      "alongside": 8538,
      "newslet": 8539,
      "portion": 8540,
      "suggests": 8541,
      "Small": 8542,
      "extended": 8543,
      "template": 8544,
      "illeg": 8545,
      "?”": 8546,
      "Cost": 8547,
      "Ma": 8548,
      "Point": 8549,
      "Ut": 8550,
      "bacter": 8551,
      "gro": 8552,
      "hun": 8553,
      "rot": 8554,
      "##II": 8555,
      "##MA": 8556,
      "##ona": 8557,
      "##ste": 8558,
      "##ighter": 8559,
      "##osc": 8560,
      "adm": 8561,
      "contained": 8562,
      "Station": 8563,
      "Chair": 8564,
      "Heart": 8565,
      "marked": 8566,
      "expans": 8567,
      "technique": 8568,
      "Trust": 8569,
      "parent": 8570,
      "breaking": 8571,
      "buyers": 8572,
      "drawn": 8573,
      "Medic": 8574,
      "##ATION": 8575,
      "##nament": 8576,
      "Financial": 8577,
      "solve": 8578,
      "dependent": 8579,
      "expression": 8580,
      "flexibility": 8581,
      "stopped": 8582,
      "Zealand": 8583,
      "52": 8584,
      "Base": 8585,
      "Budd": 8586,
      "CA": 8587,
      "Cur": 8588,
      "Jud": 8589,
      "Mir": 8590,
      "OR": 8591,
      "Ve": 8592,
      "hers": 8593,
      "mole": 8594,
      "sight": 8595,
      "zone": 8596,
      "##ship": 8597,
      "##laim": 8598,
      "##0s": 8599,
      "##CA": 8600,
      "##TION": 8601,
      "##inating": 8602,
      "##amber": 8603,
      "##irty": 8604,
      "##irts": 8605,
      "proof": 8606,
      "##ionship": 8607,
      "clar": 8608,
      "contribute": 8609,
      "incident": 8610,
      "dispos": 8611,
      "scope": 8612,
      "bridge": 8613,
      "presents": 8614,
      "ski": 8615,
      "trips": 8616,
      "##iscal": 8617,
      "respectively": 8618,
      "maintaining": 8619,
      "scheme": 8620,
      "cameras": 8621,
      "housing": 8622,
      "##what": 8623,
      "convenience": 8624,
      "Writing": 8625,
      "split": 8626,
      "Cab": 8627,
      "Hon": 8628,
      "Him": 8629,
      "Pak": 8630,
      "Ult": 8631,
      "dust": 8632,
      "dating": 8633,
      "jew": 8634,
      "rac": 8635,
      "##inos": 8636,
      "theory": 8637,
      "contest": 8638,
      "##loom": 8639,
      "recall": 8640,
      "##weight": 8641,
      "Sea": 8642,
      "inspection": 8643,
      "sky": 8644,
      "default": 8645,
      "viewers": 8646,
      "purchasing": 8647,
      "responses": 8648,
      "dealing": 8649,
      "Carol": 8650,
      "##liers": 8651,
      "Professional": 8652,
      "##inema": 8653,
      "Colorado": 8654,
      "satisfaction": 8655,
      "56": 8656,
      "65": 8657,
      "64": 8658,
      "78": 8659,
      "Cover": 8660,
      "Festival": 8661,
      "Line": 8662,
      "Middle": 8663,
      "Pra": 8664,
      "Pack": 8665,
      "honey": 8666,
      "soph": 8667,
      "tab": 8668,
      "##fa": 8669,
      "##jo": 8670,
      "##omy": 8671,
      "##elly": 8672,
      "beer": 8673,
      "enem": 8674,
      "##oster": 8675,
      "prison": 8676,
      "outcome": 8677,
      "dishes": 8678,
      "Ash": 8679,
      "##iano": 8680,
      "relief": 8681,
      "##rowse": 8682,
      "retire": 8683,
      "realized": 8684,
      "Marc": 8685,
      "concerning": 8686,
      "engaged": 8687,
      "Spanish": 8688,
      "affili": 8689,
      "Mexic": 8690,
      "married": 8691,
      "Airy": 8692,
      "regardless": 8693,
      "pleased": 8694,
      "decorative": 8695,
      "guidelines": 8696,
      "photography": 8697,
      "chicken": 8698,
      "surgery": 8699,
      "##gorith": 8700,
      "54": 8701,
      "85": 8702,
      "Cred": 8703,
      "Er": 8704,
      "cro": 8705,
      "hurt": 8706,
      "tub": 8707,
      "yellow": 8708,
      "##ument": 8709,
      "##wan": 8710,
      "##fe": 8711,
      "##hew": 8712,
      "##oty": 8713,
      "##pends": 8714,
      "##ustration": 8715,
      "usage": 8716,
      "heating": 8717,
      "compliance": 8718,
      "##agon": 8719,
      "somewhere": 8720,
      "somewhat": 8721,
      "represents": 8722,
      "supplement": 8723,
      "shouldn": 8724,
      "invited": 8725,
      "reader": 8726,
      "##endar": 8727,
      "opens": 8728,
      "generated": 8729,
      "mainly": 8730,
      "password": 8731,
      "statements": 8732,
      "filter": 8733,
      "headed": 8734,
      "consideration": 8735,
      "millions": 8736,
      "connections": 8737,
      "deploy": 8738,
      "##ucky": 8739,
      "Partners": 8740,
      "indeed": 8741,
      "essay": 8742,
      "Perhaps": 8743,
      "automatic": 8744,
      "extreme": 8745,
      "immediate": 8746,
      "label": 8747,
      "mechanism": 8748,
      "birds": 8749,
      "publishing": 8750,
      "Website": 8751,
      "'.": 8752,
      "Dub": 8753,
      "Ell": 8754,
      "Little": 8755,
      "Nav": 8756,
      "PA": 8757,
      "Way": 8758,
      "Would": 8759,
      "border": 8760,
      "nine": 8761,
      "rig": 8762,
      "roles": 8763,
      "yard": 8764,
      "##bration": 8765,
      "##can": 8766,
      "##under": 8767,
      "##vy": 8768,
      "##16": 8769,
      "##TC": 8770,
      "##inn": 8771,
      "##iler": 8772,
      "stim": 8773,
      "asp": 8774,
      "suspect": 8775,
      "##emony": 8776,
      "shots": 8777,
      "pricing": 8778,
      "unus": 8779,
      "scr": 8780,
      "overwhel": 8781,
      "##orders": 8782,
      "conscious": 8783,
      "decade": 8784,
      "Proper": 8785,
      "transpar": 8786,
      "Being": 8787,
      "extent": 8788,
      "250": 8789,
      "##onym": 8790,
      "functional": 8791,
      "Brand": 8792,
      "increasingly": 8793,
      "clothing": 8794,
      "Estate": 8795,
      "upgrade": 8796,
      "Bedroom": 8797,
      "##oconut": 8798,
      "false": 8799,
      "09": 8800,
      "Fre": 8801,
      "GP": 8802,
      "Jay": 8803,
      "Mumb": 8804,
      "Offic": 8805,
      "Put": 8806,
      "Sound": 8807,
      "SEO": 8808,
      "banks": 8809,
      "vs": 8810,
      "##uel": 8811,
      "##itable": 8812,
      "##arian": 8813,
      "##icate": 8814,
      "forec": 8815,
      "##othe": 8816,
      "convent": 8817,
      "wash": 8818,
      "Stat": 8819,
      "coaching": 8820,
      "Need": 8821,
      "##phones": 8822,
      "artwork": 8823,
      "entit": 8824,
      "muscles": 8825,
      "paragraph": 8826,
      "slot": 8827,
      "enjoying": 8828,
      "severe": 8829,
      "lapt": 8830,
      "drinks": 8831,
      "figures": 8832,
      "awarded": 8833,
      "horse": 8834,
      "ISO": 8835,
      "evaluation": 8836,
      "eggs": 8837,
      "Islamic": 8838,
      "Angeles": 8839,
      "permanent": 8840,
      "equivalent": 8841,
      "Ep": 8842,
      "Lum": 8843,
      "Lock": 8844,
      "Mid": 8845,
      "UC": 8846,
      "Van": 8847,
      "Village": 8848,
      "losing": 8849,
      "pink": 8850,
      "##MP": 8851,
      "##stood": 8852,
      "orient": 8853,
      "deeper": 8854,
      "##umes": 8855,
      "chapter": 8856,
      "themes": 8857,
      "interface": 8858,
      "##....": 8859,
      "setup": 8860,
      "crime": 8861,
      "authors": 8862,
      "careful": 8863,
      "Express": 8864,
      "possibility": 8865,
      "prize": 8866,
      "Conc": 8867,
      "specialist": 8868,
      "Blog": 8869,
      "ensuring": 8870,
      "typical": 8871,
      "liked": 8872,
      "Travel": 8873,
      "contractor": 8874,
      "boxes": 8875,
      "titles": 8876,
      "proposal": 8877,
      "concepts": 8878,
      "consultation": 8879,
      "executive": 8880,
      "Jewish": 8881,
      "attorney": 8882,
      "basket": 8883,
      "Indonesia": 8884,
      "Mumbai": 8885,
      "(“": 8886,
      ");": 8887,
      "02": 8888,
      "AR": 8889,
      "Es": 8890,
      "Ford": 8891,
      "Flow": 8892,
      "Farm": 8893,
      "IF": 8894,
      "Ire": 8895,
      "Lind": 8896,
      "Living": 8897,
      "Ont": 8898,
      "Tay": 8899,
      "lect": 8900,
      "mur": 8901,
      "sink": 8902,
      "tiny": 8903,
      "##ev": 8904,
      "##ipt": 8905,
      "##lights": 8906,
      "##ml": 8907,
      "##mon": 8908,
      "##IO": 8909,
      "##etime": 8910,
      "reward": 8911,
      "##emb": 8912,
      "chief": 8913,
      "##quis": 8914,
      "##acific": 8915,
      "spots": 8916,
      "evol": 8917,
      "Young": 8918,
      "consists": 8919,
      "repairs": 8920,
      "Requ": 8921,
      "##ancer": 8922,
      "Ars": 8923,
      "handling": 8924,
      "passing": 8925,
      "loving": 8926,
      "Mean": 8927,
      "trends": 8928,
      "integration": 8929,
      "Quest": 8930,
      "applies": 8931,
      "primarily": 8932,
      "##REE": 8933,
      "preferred": 8934,
      "adopted": 8935,
      "vegetables": 8936,
      "Richard": 8937,
      "gallery": 8938,
      "wireless": 8939,
      "cotton": 8940,
      "strengthen": 8941,
      "Ent": 8942,
      "Haw": 8943,
      "Jul": 8944,
      "Kent": 8945,
      "Tax": 8946,
      "cush": 8947,
      "hang": 8948,
      "mood": 8949,
      "rust": 8950,
      "sick": 8951,
      "##eah": 8952,
      "##bre": 8953,
      "##ris": 8954,
      "##gue": 8955,
      "##zing": 8956,
      "##MS": 8957,
      "##QL": 8958,
      "forest": 8959,
      "##ayer": 8960,
      "##usal": 8961,
      "##osm": 8962,
      "##anda": 8963,
      "Thus": 8964,
      "compr": 8965,
      "compat": 8966,
      "##acle": 8967,
      "clock": 8968,
      "spoke": 8969,
      "arms": 8970,
      "speech": 8971,
      "coordin": 8972,
      "sheet": 8973,
      "string": 8974,
      "##ixel": 8975,
      "programming": 8976,
      "availability": 8977,
      "puts": 8978,
      "applicable": 8979,
      "##itcoin": 8980,
      "1998": 8981,
      "marriage": 8982,
      "cookies": 8983,
      "printed": 8984,
      "fitness": 8985,
      "preparing": 8986,
      "matching": 8987,
      "Policy": 8988,
      "Upd": 8989,
      "drawing": 8990,
      "surprising": 8991,
      "manufacturers": 8992,
      "Local": 8993,
      "##missions": 8994,
      "Shopify": 8995,
      "crisis": 8996,
      "seamless": 8997,
      "Ireland": 8998,
      "?\"": 8999,
      "Fig": 9000,
      "FOR": 9001,
      "Mother": 9002,
      "Ur": 9003,
      "blow": 9004,
      "bench": 9005,
      "bags": 9006,
      "hole": 9007,
      "pour": 9008,
      "pitch": 9009,
      "row": 9010,
      "##awn": 9011,
      "##cue": 9012,
      "##77": 9013,
      "##onna": 9014,
      "##edia": 9015,
      "##rel": 9016,
      "##enth": 9017,
      "##urning": 9018,
      "stir": 9019,
      "yours": 9020,
      "suc": 9021,
      "healing": 9022,
      "complim": 9023,
      "##rup": 9024,
      "studied": 9025,
      "##ools": 9026,
      "marks": 9027,
      "programme": 9028,
      "organis": 9029,
      "Without": 9030,
      "specified": 9031,
      "viewing": 9032,
      "controls": 9033,
      "aircraft": 9034,
      "##itches": 9035,
      "entering": 9036,
      "versions": 9037,
      "closing": 9038,
      "strongly": 9039,
      "Repair": 9040,
      "tells": 9041,
      "structures": 9042,
      "illness": 9043,
      "scientists": 9044,
      "##PSA": 9045,
      "hospit": 9046,
      "tomorrow": 9047,
      "accommodation": 9048,
      "granted": 9049,
      "ratio": 9050,
      "Summer": 9051,
      "herself": 9052,
      "4th": 9053,
      "AA": 9054,
      "Bible": 9055,
      "Bath": 9056,
      "Dark": 9057,
      "GD": 9058,
      "Lib": 9059,
      "Link": 9060,
      "Ms": 9061,
      "Made": 9062,
      "Wi": 9063,
      "Want": 9064,
      "Wedding": 9065,
      "elev": 9066,
      "grew": 9067,
      "lib": 9068,
      "lets": 9069,
      "ma": 9070,
      "##yan": 9071,
      "##cers": 9072,
      "align": 9073,
      "algorith": 9074,
      "##una": 9075,
      "lease": 9076,
      "outcomes": 9077,
      "empower": 9078,
      "lessons": 9079,
      "beneficial": 9080,
      "draft": 9081,
      "respective": 9082,
      "languages": 9083,
      "Police": 9084,
      "implementation": 9085,
      "surprised": 9086,
      "catalog": 9087,
      "Magazine": 9088,
      "reserves": 9089,
      "continuing": 9090,
      "photographs": 9091,
      "Holly": 9092,
      "spectrum": 9093,
      "repeated": 9094,
      "Roman": 9095,
      "Natural": 9096,
      "paramet": 9097,
      "narrow": 9098,
      "58": 9099,
      "600": 9100,
      "Ah": 9101,
      "Cru": 9102,
      "DC": 9103,
      "Ox": 9104,
      "Ros": 9105,
      "dent": 9106,
      "gear": 9107,
      "lift": 9108,
      "rice": 9109,
      "##yard": 9110,
      "##CH": 9111,
      "##EA": 9112,
      "##34": 9113,
      "##ов": 9114,
      "##heless": 9115,
      "##atics": 9116,
      "##ashes": 9117,
      "##eto": 9118,
      "deck": 9119,
      "Still": 9120,
      "spin": 9121,
      "Chi": 9122,
      "producing": 9123,
      "conservation": 9124,
      "synt": 9125,
      "insert": 9126,
      "Forest": 9127,
      "Dev": 9128,
      "boot": 9129,
      "poll": 9130,
      "breast": 9131,
      "tested": 9132,
      "Order": 9133,
      "checking": 9134,
      "Spirit": 9135,
      "##ographic": 9136,
      "flower": 9137,
      "Parliament": 9138,
      "communications": 9139,
      "errors": 9140,
      "completion": 9141,
      "maxim": 9142,
      "framework": 9143,
      "suffering": 9144,
      "Prior": 9145,
      "Professor": 9146,
      "obviously": 9147,
      "dangerous": 9148,
      "Creative": 9149,
      "entrance": 9150,
      "unexpected": 9151,
      "Georg": 9152,
      "Based": 9153,
      "Fac": 9154,
      "Ji": 9155,
      "OP": 9156,
      "Sher": 9157,
      "Wal": 9158,
      "cher": 9159,
      "divid": 9160,
      "lemon": 9161,
      "pip": 9162,
      "tall": 9163,
      "##gent": 9164,
      "##cling": 9165,
      "##och": 9166,
      "##pes": 9167,
      "##pons": 9168,
      "##nda": 9169,
      "forever": 9170,
      "##ols": 9171,
      "abuse": 9172,
      "##ffect": 9173,
      "anymore": 9174,
      "newly": 9175,
      "acceler": 9176,
      "phones": 9177,
      "attached": 9178,
      "productive": 9179,
      "joining": 9180,
      "##amsung": 9181,
      "contracts": 9182,
      "replaced": 9183,
      "definition": 9184,
      "degrees": 9185,
      "exception": 9186,
      "ultimately": 9187,
      "authenticator": 9188,
      "confirmed": 9189,
      "believed": 9190,
      "revealed": 9191,
      "assigned": 9192,
      "eliminate": 9193,
      "Swedish": 9194,
      "licensed": 9195,
      "ceremony": 9196,
      "Digital": 9197,
      "succeed": 9198,
      "Ce": 9199,
      "Cross": 9200,
      "Give": 9201,
      "Low": 9202,
      "Penn": 9203,
      "crown": 9204,
      "finger": 9205,
      "fiscal": 9206,
      "oven": 9207,
      "por": 9208,
      "##pie": 9209,
      "##vision": 9210,
      "stack": 9211,
      "stainless": 9212,
      "alt": 9213,
      "whilst": 9214,
      "##rain": 9215,
      "depends": 9216,
      "##ums": 9217,
      "##ells": 9218,
      "Three": 9219,
      "2020": 9220,
      "##active": 9221,
      "Chapter": 9222,
      "accord": 9223,
      "##lude": 9224,
      "phr": 9225,
      "experim": 9226,
      "experiment": 9227,
      "##iances": 9228,
      "flag": 9229,
      "formal": 9230,
      "confident": 9231,
      "accessories": 9232,
      "Americans": 9233,
      "causing": 9234,
      "lawyer": 9235,
      "drone": 9236,
      "grab": 9237,
      "requirement": 9238,
      "margin": 9239,
      "tourism": 9240,
      "traveling": 9241,
      "younger": 9242,
      "crack": 9243,
      "Justice": 9244,
      "percentage": 9245,
      "statistics": 9246,
      "raising": 9247,
      "saved": 9248,
      "mirror": 9249,
      "Insurance": 9250,
      "instrument": 9251,
      "##abetes": 9252,
      "anxiety": 9253,
      "Kindle": 9254,
      "Boston": 9255,
      "??": 9256,
      "Come": 9257,
      "EX": 9258,
      "Far": 9259,
      "Fact": 9260,
      "LLC": 9261,
      "Psych": 9262,
      "gentle": 9263,
      "hide": 9264,
      "mac": 9265,
      "tiss": 9266,
      "vess": 9267,
      "wer": 9268,
      "##rim": 9269,
      "##greg": 9270,
      "##fall": 9271,
      "##21": 9272,
      "##GB": 9273,
      "##ester": 9274,
      "inner": 9275,
      "##amper": 9276,
      "sections": 9277,
      "##acious": 9278,
      "inches": 9279,
      "unw": 9280,
      "scored": 9281,
      "Chief": 9282,
      "pend": 9283,
      "command": 9284,
      "keys": 9285,
      "assert": 9286,
      "##awa": 9287,
      "Commer": 9288,
      "personality": 9289,
      "brill": 9290,
      "discip": 9291,
      "publ": 9292,
      "promise": 9293,
      "accounting": 9294,
      "##bridge": 9295,
      "staying": 9296,
      "exceptional": 9297,
      "https": 9298,
      "obtained": 9299,
      "fairly": 9300,
      "establishment": 9301,
      "inventory": 9302,
      "IBPSA": 9303,
      "juice": 9304,
      "PDF": 9305,
      "writers": 9306,
      "Bang": 9307,
      "Mu": 9308,
      "Mah": 9309,
      "aer": 9310,
      "dil": 9311,
      "ebook": 9312,
      "laugh": 9313,
      "patch": 9314,
      "sod": 9315,
      "slic": 9316,
      "tip": 9317,
      "##zil": 9318,
      "##ether": 9319,
      "reaching": 9320,
      "##cend": 9321,
      "##uling": 9322,
      "worst": 9323,
      "residence": 9324,
      "permit": 9325,
      "cock": 9326,
      "column": 9327,
      "remod": 9328,
      "instant": 9329,
      "finishing": 9330,
      "Clin": 9331,
      "viewed": 9332,
      "covering": 9333,
      "opposite": 9334,
      "Among": 9335,
      "grain": 9336,
      "reduction": 9337,
      "Install": 9338,
      "recommendations": 9339,
      "commonly": 9340,
      "Broad": 9341,
      "losses": 9342,
      "suggestions": 9343,
      "arrive": 9344,
      "promotion": 9345,
      "Charles": 9346,
      "cabin": 9347,
      "Systems": 9348,
      "hoping": 9349,
      "Priv": 9350,
      "initiatives": 9351,
      "transactions": 9352,
      "nursing": 9353,
      "inquiry": 9354,
      "downtown": 9355,
      "Award": 9356,
      "Bachel": 9357,
      "Equ": 9358,
      "Hen": 9359,
      "ZPN": 9360,
      "awards": 9361,
      "codes": 9362,
      "loose": 9363,
      "mixture": 9364,
      "pill": 9365,
      "pace": 9366,
      "ran": 9367,
      "sought": 9368,
      "##ns": 9369,
      "##ridge": 9370,
      "##ko": 9371,
      "##Com": 9372,
      "##TH": 9373,
      "##asters": 9374,
      "##illy": 9375,
      "##ellect": 9376,
      "##rog": 9377,
      "##sters": 9378,
      "##igs": 9379,
      "habits": 9380,
      "chose": 9381,
      "ads": 9382,
      "##agues": 9383,
      "meets": 9384,
      "teeth": 9385,
      "##erves": 9386,
      "##aping": 9387,
      "coloring": 9388,
      "##ificial": 9389,
      "Ref": 9390,
      "pocket": 9391,
      "booking": 9392,
      "approval": 9393,
      "faced": 9394,
      "testim": 9395,
      "wheels": 9396,
      "packed": 9397,
      "1999": 9398,
      "Guide": 9399,
      "##umbing": 9400,
      "hyp": 9401,
      "seller": 9402,
      "cooling": 9403,
      "voters": 9404,
      "advertise": 9405,
      "Australian": 9406,
      "##visor": 9407,
      "Charl": 9408,
      "Join": 9409,
      "drugs": 9410,
      "struggle": 9411,
      "Democrats": 9412,
      "vitamin": 9413,
      "satisfied": 9414,
      "minimal": 9415,
      "entrepreneurs": 9416,
      "Beautiful": 9417,
      "Dutch": 9418,
      "66": 9419,
      "CP": 9420,
      "Copy": 9421,
      "Creek": 9422,
      "Norm": 9423,
      "Pacific": 9424,
      "Tal": 9425,
      "cake": 9426,
      "dental": 9427,
      "eld": 9428,
      "gut": 9429,
      "lad": 9430,
      "sorry": 9431,
      "tack": 9432,
      "uk": 9433,
      "wis": 9434,
      "##bu": 9435,
      "##bury": 9436,
      "##gely": 9437,
      "##oors": 9438,
      "##IL": 9439,
      "##SM": 9440,
      "##urb": 9441,
      "##iders": 9442,
      "##char": 9443,
      "##amental": 9444,
      "##ira": 9445,
      "alter": 9446,
      "##ership": 9447,
      "fruits": 9448,
      "chips": 9449,
      "##allenge": 9450,
      "adequ": 9451,
      "pride": 9452,
      "intent": 9453,
      "unl": 9454,
      "##ensus": 9455,
      "recy": 9456,
      "provision": 9457,
      "heritage": 9458,
      "##ertain": 9459,
      "differences": 9460,
      "flood": 9461,
      "developer": 9462,
      "writer": 9463,
      "Shar": 9464,
      "delivers": 9465,
      "lasting": 9466,
      "defic": 9467,
      "follows": 9468,
      "##ugs": 9469,
      "heading": 9470,
      "refund": 9471,
      "devot": 9472,
      "limits": 9473,
      "clicking": 9474,
      "computers": 9475,
      "participation": 9476,
      "##lusive": 9477,
      "circuit": 9478,
      "celebration": 9479,
      "terr": 9480,
      "indicate": 9481,
      "holidays": 9482,
      "fabulous": 9483,
      "crystal": 9484,
      "neighb": 9485,
      "colours": 9486,
      "hopes": 9487,
      "flying": 9488,
      "Jeff": 9489,
      "architecture": 9490,
      "attorneys": 9491,
      "Ideas": 9492,
      "expansion": 9493,
      "Lumia": 9494,
      "Ontario": 9495,
      "Awards": 9496,
      "Bul": 9497,
      "Fa": 9498,
      "MD": 9499,
      "Maj": 9500,
      "Material": 9501,
      "Sn": 9502,
      "Samsung": 9503,
      "bab": 9504,
      "hub": 9505,
      "lin": 9506,
      "sin": 9507,
      "sou": 9508,
      "##ray": 9509,
      "##rad": 9510,
      "##gl": 9511,
      "##hire": 9512,
      "##df": 9513,
      "##AA": 9514,
      "##erry": 9515,
      "##stery": 9516,
      "##adow": 9517,
      "withd": 9518,
      "sex": 9519,
      "##mph": 9520,
      "workplace": 9521,
      "Stone": 9522,
      "anyway": 9523,
      "provisions": 9524,
      "Albert": 9525,
      "supplier": 9526,
      "Process": 9527,
      "##iox": 9528,
      "##ieties": 9529,
      "returning": 9530,
      "Clar": 9531,
      "Cloud": 9532,
      "seriously": 9533,
      "largely": 9534,
      "approaches": 9535,
      "factory": 9536,
      "publication": 9537,
      "matt": 9538,
      "##poration": 9539,
      "Prom": 9540,
      "beds": 9541,
      "likes": 9542,
      "Contin": 9543,
      "addresses": 9544,
      "tourist": 9545,
      "stronger": 9546,
      "involving": 9547,
      "representative": 9548,
      "hyper": 9549,
      "objective": 9550,
      "Mrs": 9551,
      "comparison": 9552,
      "examine": 9553,
      "##limited": 9554,
      "graduate": 9555,
      "describe": 9556,
      "arrival": 9557,
      "interaction": 9558,
      "genu": 9559,
      "passionate": 9560,
      "originally": 9561,
      "Engineering": 9562,
      "swimming": 9563,
      "thermal": 9564,
      "DVD": 9565,
      "elegant": 9566,
      "##ught": 9567,
      "sophistic": 9568,
      "41": 9569,
      "43": 9570,
      "59": 9571,
      "DI": 9572,
      "IL": 9573,
      "Lic": 9574,
      "Men": 9575,
      "Sup": 9576,
      "Talk": 9577,
      "lies": 9578,
      "loyal": 9579,
      "pipe": 9580,
      "rar": 9581,
      "zero": 9582,
      "##eem": 9583,
      "##cs": 9584,
      "##CE": 9585,
      "##HS": 9586,
      "##еr": 9587,
      "##ala": 9588,
      "##ented": 9589,
      "aside": 9590,
      "seal": 9591,
      "##rible": 9592,
      "##aints": 9593,
      "chronic": 9594,
      "resume": 9595,
      "##izza": 9596,
      "##ava": 9597,
      "offices": 9598,
      "Youth": 9599,
      "Asian": 9600,
      "poker": 9601,
      "decent": 9602,
      "signature": 9603,
      "planet": 9604,
      "Collection": 9605,
      "##itched": 9606,
      "potentially": 9607,
      "damaged": 9608,
      "logo": 9609,
      "##roduction": 9610,
      "broadcast": 9611,
      "Brazil": 9612,
      "diseases": 9613,
      "believes": 9614,
      "climbing": 9615,
      "shooting": 9616,
      "prayer": 9617,
      "renov": 9618,
      "pleasure": 9619,
      "##iculum": 9620,
      "##igenous": 9621,
      "Age": 9622,
      "OS": 9623,
      "Oak": 9624,
      "Sus": 9625,
      "Wisc": 9626,
      "gained": 9627,
      "hes": 9628,
      "mm": 9629,
      "yoga": 9630,
      "##EX": 9631,
      "##FL": 9632,
      "##inate": 9633,
      "stem": 9634,
      "##ims": 9635,
      "enforcement": 9636,
      "prime": 9637,
      "reserve": 9638,
[...]
