<UNK>
<PAD>
<s>
<s/>



!
"
#
$
%
&
'
(
)
*
+
,
-
.
/
0
1
2
3
4
5
6
7
8
9
:
;
<
=
>
?
@
A
B
C
D
E
F
G
H
I
J
K
L
M
N
O
P
Q
R
S
T
U
V
W
X
Y
Z
[
\
]
^
_
`
a
b
c
d
e
f
g
h
i
j
k
l
m
n
o
p
q
r
s
t
u
v
w
x
y
z
|
}
~












¡
¢
£
¥
§
©
«
¬
­
®
°
±
·
»
¿
À
Á
Â
Ã
Ä
Å
Ç
È
É
Í
Î
Ñ
Ó
Ö
×
Ø
Ú
Ü
ß
à
á
â
ã
ä
å
æ
ç
è
é
ê
ë
í
î
ï
ñ
ò
ó
ô
õ
ö
ø
ù
ú
û
ü
ý
Ā
ā
ă
ą
ć
ċ
Č
č
ď
Đ
đ
ē
ĕ
ė
ę
ě
ğ
ĩ
Ī
ī
İ
ı
ł
ō
ő
œ
ř
ś
Ş
ş
Š
š
ū
ů
ų
ź
ż
Ž
ž
ƒ
ư
ȏ
ə
ʁ
ʏ
ʹ
ʺ
ʼ
ʿ
ˈ
ː
́
̃
̈
̋
̶
͞
Έ
Α
Δ
Ε
Η
Ι
Κ
Λ
Μ
Ν
Ο
Ρ
Σ
Φ
Ω
ά
έ
ή
ί
α
β
γ
δ
ε
ζ
η
θ
ι
κ
λ
μ
ν
ο
π
ρ
ς
σ
τ
υ
φ
χ
ω
ό
ύ
ώ
Ђ
А
Б
В
Г
Д
Е
Ж
З
И
К
Л
М
Н
О
П
Р
С
Т
У
Ф
Х
Ч
Э
Ю
Я
а
б
в
г
д
е
ж
з
и
й
к
л
м
н
о
п
р
с
т
у
ф
х
ц
ч
ш
щ
ъ
ы
ь
э
ю
я
ё
ѕ
і
ԛ
ַ
ָ
ג
ע
ר
،
ء
أ
إ
ا
ب
ة
ت
ج
ح
خ
د
ذ
ر
ز
س
ش
ص
ض
ظ
ع
غ
ف
ق
ك
ل
م
ن
ه
و
ى
ي
ً
ک
گ
ی
۪
ܐ
ܘ
ܛ
ܝ
ܢ
ܣ
ं
अ
आ
इ
उ
ए
औ
क
ग
च
छ
ज
ट
ढ
ण
त
थ
द
ध
न
प
ब
भ
म
य
र
ल
व
श
ष
स
ह
़
ा
ि
ी
ु
ू
े
ै
ो
ौ
्
।
ത
ര
ശ
ൂ
ൃ
്
ก
ข
ค
ง
ด
ต
น
บ
ป
พ
ม
ย
ร
ล
ว
ส
อ
ั
า
ิ
ี
ู
฿
เ
ใ
ไ
่
้
Ḥ
ḥ
ṣ
Ṭ
ṭ
ạ
ế
ệ
ọ
ố
ộ
ờ
​
‌
‍
‎
‐
–
—
―
‘
’
“
”
„
†
•
‰
′
›
※
⁄
⁕
₤
€
₹
℗
←
↑
→
⇨
∂
∑
−
∼
≈
≠
≡
≥
≫
⋯
⌖
□
►
◆
○
●
◼
♥
♫
✅
✈
✓
✔
❤
➡
、
。
「
」
【
】
い
う
か
が
き
く
し
た
だ
っ
て
で
と
ど
に
の
は
ふ
ぶ
ま
み
や
よ
ら
り
る
れ
を
ん
ア
ィ
イ
ウ
オ
カ
ク
コ
シ
ジ
ス
ズ
セ
ナ
ニ
フ
ブ
ペ
ホ
ボ
ミ
ム
ュ
ラ
リ
ル
ロ
ン
・
ー
一
与
专
世
业
个
中
丷
为
主
乐
乾
予
事
二
于
云
井
交
产
享
京
人
今
他
以
传
位
体
依
修
借
假
儿
元
充
全
八
六
关
兼
内
农
出
分
到
前
功
勇
化
北
华
及
友
双
发
变
古
史
号
司
合
吒
含
和
品
員
哪
商
囉
园
国
图
國
園
在
场
埼
堂
場
夏
外
大
夷
奕
奖
女
好
如
威
婚
嫩
学
宋
家
容
寺
寿
展
工
己
市
希
幅
干
年
幹
度
康
建
开
弁
式
当
役
彼
心
志
思
急
恋
恩
想
我
户
房
所
打
托
据
推
掲
描
故
教
敢
数
文
新
方
旅
日
时
明
易
映
昨
昭
是
時
景
暗
書
曾
最
月
有
望
期
本
机
杨
板
林
查
柯
梅
楷
楽
機
欅
款
步
武
水
沢
法
注
泽
活
涉
清
渡
港
漉
澤
点
爱
物
特
玉
玩
现
球
理
生
用
画
界
留
発
的
盛
着
知
码
示
社
神
离
私
秘
空
立
站
童
第
简
算
籠
米
約
純
紧
絹
綫
線
约
纽
线
细
经
给
编
网
置
群
習
耍
育
能
腐
自
色
节
英
草
荐
薩
行
补
表
補
西
言
計
話
語
讓
议
讯
设
询
语
说
谈
豆
贈
走
跟
路
車
车
辑
进
述
造
進
部
都
配
酒
释
野
金
银
長
长
開
関
關
问
间
阐
际
陆
陸
際
電
非
音
题
駅
體
麗
黃
가
간
개
거
건
것
게
격
결
경
계
고
공
과
교
국
규
그
글
급
기
꾸
나
난
남
낮
내
널
년
노
녹
는
니
다
단
대
데
도
되
두
드
든
들
등
디
라
락
래
랜
럼
레
력
렴
로
론
롤
률
를
리
립
마
막
매
명
모
무
문
물
므
미
믿
및
바
반
발
배
벌
보
본
부
분
브
비
빈
사
상
색
샷
서
설
성
세
센
셔
션
소
속
송
수
순
술
쉐
쉽
스
습
시
신
심
아
앙
야
양
어
업
없
엇
었
에
여
역
연
영
오
왔
외
요
용
우
운
워
원
월
위
유
육
으
은
을
의
이
인
일
임
입
있
자
작
장
재
저
적
전
점
정
제
조
좌
주
준
중
지
질
집
처
척
천
체
총
축
출
츠
치
크
타
탁
터
테
톤
통
트
티
파
판
패
페
평
포
품
프
필
하
학
한
할
합
항
해
핸
현
호
화
환
히






️
﻿
�
🌱
🌴
🍹
🎂
🏉
🏴
🏷
🐛
🐜
💕
💥
😀
😉
😍
🙁
🙂
🤤
󠁢
󠁣
󠁧
󠁬
󠁳
󠁴
󠁷
󠁿
##e
##i
##s
##n
##b
##r
##g
##k
##h
##a
##d
##l
##y
##c
##u
##t
##m
##o
##x
##w
##D
##P
##U
##I
##p
##z
##f
##M
##9
##0
##고
##v
##2
##Y
##O
##V
##1
##6
##5
##7
##C
##"
##)
##.
##Z
##j
##A
##N
##E
##S
##3
##8
##G
##T
##4
##W
##L
##K
##B
##H
##X
##-
##F
##R
##_
##é
##q
##и
##н
##г
##в
##о
##æ
##”
##탁
##드
##립
##니
##다
##*
##@
##%
##?
##!
##ʹ
##ʺ
##е
##а
##ѕ
##리
##,
##심
##і
##Q
##척
##해
##왔
##ل
##ح
##ي
##ا
##ة
##ы
##ш
##J
##у
##д
##т
##ی
##ن
##ت
##ر
##с
##泽
##车
##站
##í
##ʼ
##ā
##р
##я
##의
##사
##항
##이
##á
##ı
##л
##п
##+
##;
##м
##خ
##크
##래
##치
##마
##워
##&
##경
##세
##계
##자
##인
##>
##'
##ł
##د
##ь
##س
##ك
##ش
##ف
##ю
##Ђ
##ö
##μ
##ι
##λ
##ο
##ύ
##ν
##ü
##Ø
##б
##β
##ε
##τ
##κ
##ή
##ς
##﻿
##(
##ï
##/
##ρ
##ώ
##η
##ж
##к
##`
##\
##易
##云
##音
##乐
##是
##一
##款
##专
##注
##于
##发
##现
##与
##分
##享
##的
##产
##品
##ố
##ج
##و
##ى
##й
##ê
##에
##ż
##’
##è
##â
##ω
##ä
##스
##합
##ō
##속
##적
##言
##内
##容
##步
##说
##明
##—
##ñ
##ó
##Δ
##ç
##ど
##う
##酒
##は
##ふ
##ん
##だ
##に
##配
##ら
##れ
##た
##х
##δ
##타
##바
##友
##人
##全
##員
##か
##金
##を
##借
##り
##ま
##く
##っ
##ё
##:
##ḥ
##陸
##新
##幹
##綫
##役
##と
##し
##て
##知
##る
##С
##ã
##것
##처
##럼
##å
##상
##문
##출
##판
##입
##ί
##国
##式
##离
##婚
##أ
##ص
##ب
##[
##“
##à
##豆
##腐
##급
##을
##α
##θ
##σ
##ě
##ë
##¢
##ч
##톤
##ú
##국
##좌
##가
##‌
##ş
##작
##업
##체
##र
##्
##त
##ी
##£
##з
##ř
##έ
##ܣ
##ܛ
##ܘ
##ܢ
##ܝ
##ܐ
##γ
##ά
##외
##ै
##Ã
##О
##Ж
##Д
##Е
##Т
##В
##А
##­
##Â
##م
##ع
##ő
##议
##二
###
##ę
##ø
##과
##表
##细
##节
##工
##商
##银
##行
##​
##े
##
##
##画
##
##–
##ه
##ý
##梅
##Á
##थ
##य
##ा
##म
##क
##Ö
##न
##श
##ि
##롤
##$
##력
##으
##로
##ц
##
##ś
##습
##ū
##ž
##ô
##シ
##リ
##ー
##ズ
##西
##國
##際
##機
##場
##ğ
##우
##ờ
##空
##港
##양
##한
##č
##용
##장
##품
##ं
##ज
##]
##า
##ร
##พ
##น
##ั
##บ
##อ
##ล
##语
##간
##물
##э
##غ
##ض
##ز
##색
##전
##द
##ह
##ण
##막
##서
##ī
##조
##ē
##하
##매
##以
##讓
##他
##到
##夏
##威
##夷
##渡
##假
##囉
##司
##籠
##弁
##当
##コ
##ス
##ế
##~
##六
##園
##ė
##奕
##含
##ラ
##ブ
##ß
##ظ
##락
##ć
##ф
##χ
##υ
##랜
##描
##述
##õ
##프
##므
##질
##İ
##林
##外
##传
##辑
##部
##故
##事
##′
##나
##最
##大
##特
##点
##च
##छ
##ु
##ジ
##ナ
##ル
##の
##年
##月
##日
##時
##よ
##ア
##カ
##イ
##개
##는
##京
##在
##纽
##约
##내
##건
##설
##지
##щ
##।
##시
##거
##되
##었
##書
##電
##化
##房
##体
##が
##昭
##和
##단
##Ñ
##=
##ム
##ペ
##希
##望
##能
##開
##心
##玩
##耍
##Л
##Г
##ق
##ζ
##野
##線
##<
##Ω
##出
##ọ
##화
##통
##推
##荐
##及
##社
##交
##功
##澤
##市
##대
##用
##户
##打
##造
##生
##活
##�
##재
##ƒ
##ĩ
##π
##ό
##€
##建
##设
##农
##业
##œ
##|
##想
##好
##谈
##恋
##爱
##일
##수
##ṭ
##운
##데
##션
##ː
##ə
##ˈ
##ʁ
##ʏ
##中
##第
##个
##变
##정
##ค
##É
##Ä
##야
##를
##習
##進
##修
##教
##育
##法
##阐
##®
##©
##−
##Ο
##û
##界
##经
##理
##学
##堂
##호
##포
##어
##ź
##水
##寺
##론
##트
##ィ
##ン
##ク
##旅
##楽
##み
##方
##予
##約
##で
##ă
##š
##기
##부
##터
##ò
##ढ
##़
##요
##§
##셔
##츠
##명
##前
##景
##‐
##算
##ṣ
##
##沢
##駅
##여
##ध
##स
##ू
##ộ
##배
##송
##度
##有
##儿
##女
##ċ
##涉
##群
##‎
##̶
##้
##ม
##ไ
##ป
##ย
##ง
##반
##󠁧
##󠁢
##󠁷
##󠁬
##󠁳
##󠁿
##ָ
##ג
##ַ
##ע
##本
##語
##文
##«
##や
##き
##車
##🐜
##준
##φ
##‘
##主
##题
##ą
##干
##线
##Ş
##฿
##ạ
##₤
##축
##ミ
##充
##›
##托
##ء
##
##앙
##교
##육
##센
##쉐
##勇
##敢
##走
##自
##己
##路
##Ā
##ک
##엇
##보
##î
##ذ
##ď
##유
##都
##物
##ù
##麗
##레
##임
##년
##乾
##盛
##世
##秘
##史
##두
##व
##ो
##은
##ư
##ट
##Ι
##벌
##할
##라
##격
##͞
##志
##恩
##园
##ี
##ौ
##ग
##ल
##间
##ĕ
##急
##원
##그
##،
##释
##际
##机
##场
##ュ
##Α
##률
##게
##규
##玉
##発
##티
##ų
##든
##공
##술
##色
##球
##开
##奖
##号
##码
##查
##询
##元
##示
##板
##セ
##體
##Ī
##据
##位
##置
##所
##گ
##ȏ
##없
##ู
##ต
##่
##^
##테
##計
##😍
##🍹
##陆
##󠁣
##󠁴
##ů
##}
##집
##ด
##ใ
##เ
##ว
##ब
##히
##跟
##着
##•
##ボ
##フ
##ए
##
##ệ
##렴
##평
##ष
##漉
##И
##Р
##ิ
##ൃ
##ശ
##്
##ൂ
##ര
##‍
##ً
##思
##い
##話
##들
##期
##英
##У
##吒
##神
##童
##he
##in
##er
the
##on
##at
##es
##nd
##or
##ou
##en
##ing
##ed
##it
to
##an
##al
##ar
and
of
##re
in
##is
##ic
##ion
##om
##as
th
##le
##ent
##il
##el
you
##et
##ro
##st
##ct
is
##ur
for
##ve
on
##ut
re
be
##ot
##ly
##ay
##ow
##id
##ce
##ol
##ch
##ig
##ation
##ith
##ad
st
##am
that
with
##ir
##se
##ver
The
it
##im
##ter
al
pro
##ess
an
as
##ul
##ers
##ill
are
wh
##ra
con
ha
or
##ge
com
##est
##oo
##pp
your
##her
##ak
fr
##ment
##ate
##ab
at
##if
##ck
ne
we
su
ex
##igh
se
##ld
de
##us
##pe
##ort
##ist
##ant
##ity
have
##ri
can
##em
##ore
##art
##un
was
##ust
##ain
from
sh
##op
##um
this
##th
##os
ch
##ear
##ive
by
not
##ies
will
##all
##iv
##ight
##ome
en
##and
##ard
##ud
ab
##our
##out
wor
##ie
all
##ould
##ell
pl
##ial
##ost
##per
##od
##ect
##gh
do
Th
##rou
so
us
he
##age
##ast
ad
In
##qu
##ine
##ure
comp
20
##ag
##pt
##ions
##ice
</
##ally
has
##hen
le
##ide
pr
up
##able
##ake
##ther
##ook
##ac
our
##ind
##ff
but
out
me
##oc
##ack
cl
##ich
res
##ip
##nt
##ime
##cc
cont
##ke
##one
##ry
##ated
more
their
##ere
##ood
##orm
##mp
##og
my
##ail
they
one
##ence
##act
##iz
##ite
##ong
It
##ous
work
##du
##fer
inc
##ans
##so
##ance
##ib
int
man
app
##ach
te
We
about
##ase
St
which
time
per
##ign
fe
##ace
qu
##erv
##ely
##ia
##ations
##reat
li
##are
year
any
##ire
##form
##ame
##ap
##ber
sp
who
This
##ru
##ree
other
go
##ult
##ick
also
##ep
##lo
##ass
get
##ents
part
##vel
##ary
##ount
ev
##ays
un
##ical
new
some
dis
##av
##ark
##ings
##ile
201
need
them
##ub
##ction
##ens
ar
##ue
##now
##ition
##ild
spe
##ors
##au
if
sc
##ond
Ch
##ish
over
##te
when
##ord
rec
his
pe
like
hel
imp
there
been
##00
tr
##pl
##gr
##very
inter
what
##ove
than
##ose
pre
##cial
acc
##ery
would
##ink
ag
just
know
off
##nder
des
##ough
##wn
prov
its
You
##int
co
how
##ound
##rough
fir
am
sa
were
comm
##ov
##ater
had
into
serv
bu
##lud
help
bec
##own
##ade
make
##lic
##ang
tra
If
add
Al
no
col
##fter
use
##ople
##ning
may
ind
##here
##enc
Wh
##ful
##ress
her
##ual
includ
through
look
##ments
##itt
well
##ne
only
produ
tw
##low
people
##ices
##ory
cons
##lect
##ons
most
first
##ious
##ates
As
see
rep
19
every
ph
##round
ro
##ft
##hed
under
act
bet
##les
He
back
##iew
##amp
##ject
##ific
these
exper
##mer
reg
##ks
##cess
##ating
##ise
##ian
want
##iver
supp
Re
##bs
).
sy
dif
po
##ause
ve
##iness
##ities
very
rel
bl
##ible
##..
many
##ert
##ict
##urn
way
dec
good
##hing
##ange
##row
should
ke
car
stud
two
##we
##ract
bus
##ational
##uch
##ures
##ily
##xt
##old
day
rem
##iss
##ife
##ys
inform
years
after
inst
##ience
##fore
##day
ass
great
she
pers
An
even
inv
##ility
##get
##ting
##pect
pos
##anc
set
sm
##erm
bas
cr
##ool
##stem
such
own
Ne
##aking
Pro
could
best
##als
loc
id
where
high
##aw
##any
##ont
##air
sec
Se
right
##elf
ac
##ular
##ied
##hes
##olog
##nds
ins
then
find
##velop
fin
Com
home
much
now
##ph
gu
requ
##ob
##uring
##oth
att
##ata
design
##ble
##oy
##ower
##ward
down
For
##tern
mon
##ath
eff
start
sim
##its
Un
And
##res
##ss
business
differ
information
##ty
av
take
long
##gan
##ics
too
##led
##ient
person
don
im
##ts
cre
mark
##hip
bel
read
fl
##ork
progr
##alth
10
##omet
said
str
##ener
being
min
br
There
play
##chn
used
because
##ene
pres
##ustom
system
che
call
De
develop
made
provid
##other
disc
##chool
here
mod
product
##rol
##ner
##ative
##ven
before
vis
##ually
does
those
fam
trans
##ouse
med
),
##line
...
##ited
##io
eas
##der
##ality
##ull
did
##ix
art
##ock
wee
##urr
##rib
aut
each
wr
end
##end
det
world
process
sur
op
sub
prof
think
##az
##ax
em
num
custom
gr
But
life
free
##alk
bo
sk
200
##way
##ving
cle
Fr
mem
On
Sh
##ank
##lease
comple
show
##ets
##cept
How
data
cour
adv
##ues
##ional
form
##ives
##land
##und
pur
different
pub
##atch
##ather
while
Ar
##akes
program
##ng
##olut
post
##up
##iet
##ale
##ize
around
##ash
support
##ever
##ages
##ines
met
ret
exp
feel
fol
lead
build
offer
pol
##ince
##pr
##ways
##ently
##ced
care
##ier
##oun
list
Be
book
again
They
ll
really
##ces
##arm
place
Cl
##iting
del
##irect
sign
ser
lar
techn
commun
same
somet
last
##ason
avail
Ad
ent
##over
def
service
So
New
count
top
##ins
import
ext
##ivers
##ween
pay
##ple
him
##view
month
opt
love
still
lot
using
gener
ide
though
val
##ave
##imes
hand
##gg
between
##els
##ining
keep
##ider
health
appro
char
experience
follow
##roup
What
lear
both
child
found
##ott
##ved
##ized
plan
going
ear
When
market
##eng
main
point
available
##iving
ty
##ential
dri
fun
##ittle
real
var
result
##read
To
##ee
allow
always
including
open
##ters
light
##ness
##ology
Ex
exc
school
team
company
frie
##ired
few
##bers
run
happ
interest
small
##ah
services
poss
ob
level
cor
##less
organ
##ric
provide
##ling
Mar
cent
project
est
iss
Te
##aut
##thing
red
able
##ross
stand
##red
sure
All
number
Tr
partic
##ants
At
##eld
feat
##iqu
##blem
emp
water
##ural
Our
Sc
proper
Pl
##ern
area
perform
say
webs
cost
based
##stand
old
.,
little
must
dist
rece
without
order
##uss
##ists
conf
curr
things
pass
##ump
during
pat
state
class
fact
inf
pri
better
##ined
rest
problem
come
##loy
With
##ital
put
##ically
##gy
##ody
resp
##duc
##ention
##tain
mus
family
##oney
tri
three
important
conc
something
##ten
fil
contin
try
effect
##par
##omm
cert
give
##ccess
spec
30
Con
##reen
quality
report
full
room
##pos
special
hard
##ug
big
##orth
##ruct
view
online
##ished
let
Ind
##man
##ision
My
##raph
oper
12
quest
equ
incre
bra
par
##ren
site
##ves
within
##ton
##ients
applic
access
second
Le
##ately
##ute
direct
##orn
sal
##self
000
##ense
cover
group
##earch
##ars
another
Is
##work
control
grow
phot
##ote
bro
next
##ivid
might
head
ref
opp
##oh
##ency
profess
##ify
##port
##ards
##nect
That
sit
course
today
##ield
prot
el
##room
food
##ats
She
week
eng
addition
##con
15
since
##ified
website
invest
power
meet
##meric
##aj
public
elect
leg
local
win
No
making
consider
mat
##fect
term
days
##ames
##ird
##ium
##gin
chang
working
activ
##ll
vide
needs
prom
bre
##ident
##ortun
18
looking
sl
turn
##ron
hour
##joy
Col
gl
##pend
##ences
##oot
mov
##lection
never
Americ
unt
##ann
Res
##lish
house
##ration
##ems
ca
##ains
mill
students
##ware
##ator
##load
easy
##oss
understand
Br
##be
ask
nat
fac
##agement
Bl
jo
less
##ior
##pping
success
test
beaut
case
##ral
##ised
dev
indust
##ope
##ission
buy
##ism
##ased
expl
law
pract
money
intern
const
Ph
prev
change
Chr
present
##itions
##ising
pop
##ieve
##iversity
air
##ret
,”
perfect
employ
wom
These
tru
##--
ann
Or
sty
11
ed
One
away
got
check
##ik
cond
dr
##tic
##ocus
##ured
##vers
##ability
products
until
Sp
bene
large
along
##ably
##oci
cap
enjoy
personal
##ails
learn
##ique
##aterial
side
##aster
create
##outh
##att
event
connect
##ger
US
##ike
individ
."
##ister
##vir
hist
visit
game
Co
aff
##utes
creat
##itc
impro
Can
##ury
##iful
##ode
Comm
##ps
toget
##iety
together
kind
##por
page
past
sing
whe
possible
##ization
##ulation
##ER
##ember
##inal
##ted
Bu
sw
##olution
include
focus
##ases
near
##viron
benef
dem
pot
account
contact
Do
land
having
##ample
##tend
Su
members
beh
move
##ills
saf
purch
community
##iven
enter
often
After
##ids
May
Pr
App
individual
stor
become
review
social
##une
children
##ived
25
vol
pain
times
why
works
##ively
Man
##oice
dep
Cent
four
es
##lement
price
pa
expect
##ording
educ
name
##urity
lo
##aff
word
content
trad
net
##bo
Intern
building
material
sever
Eng
line
##ination
dra
##med
##vironment
non
ens
quick
clean
comes
hear
la
research
##ney
##itive
tool
soft
makes
##pped
means
##pecial
clear
Am
##oll
specific
##iter
##ries
100
ever
gra
install
protect
thing
Christ
enough
Fl
hum
##oint
enc
across
body
occ
development
##ental
##hor
However
getting
lov
beautiful
##isc
##ready
##side
##ane
##ream
redu
##uck
video
maj
against
##ering
space
mom
mult
##rem
mind
##wards
music
short
fav
##anies
others
certain
left
14
done
require
##ots
already
called
opportun
camp
##nment
##br
##ners
##uro
##ference
gover
2018
treat
link
##oose
##ec
web
##ribut
et
far
##hod
least
lim
##ged
##augh
##aim
known
country
Ass
vers
ste
Serv
##cu
##ilt
##unch
offers
ident
Your
##icle
##elling
low
share
respons
wa
typ
night
##inc
bed
##urther
pack
##arch
##ift
fut
##ok
below
##orts
##sel
##urs
amount
key
tem
##let
##olid
##oring
range
##ley
shar
lik
bit
50
Me
doesn
please
##iod
199
En
talk
walk
doing
Med
##ource
Cont
major
##ape
University
customers
once
chall
##aces
##icult
anal
super
actually
##ones
address
bring
##osp
friend
##fact
clos
hig
minutes
media
##omes
news
##ows
##ateg
sum
cou
##book
##fort
##rop
particular
##atic
step
##ript
features
##IN
##lev
mar
sound
industry
recomm
##conom
million
13
##rap
companies
##min
begin
deal
field
##cle
Car
Not
##duct
mean
ris
record
##cent
hours
discuss
job
##sw
return
offic
God
live
##esh
season
study
tre
property
several
wind
Inst
##ai
##af
value
future
##resent
priv
friends
compet
started
##ilities
##idd
appear
required
didn
##ster
comb
cred
##enn
reason
tour
##mb
ener
email
##ush
city
flo
pict
##ply
environment
orig
women
cal
##artment
##ources
Che
Tra
##aps
Sy
due
##lished
professional
recommend
##li
tot
simple
##ogn
ey
says
24
##app
example
everything
Comp
hold
men
##rict
##most
##ances
##aken
management
given
##ler
##ograph
technology
17
Gu
##ina
16
aud
travel
##ides
Air
period
strong
##ON
manag
##ither
cult
thought
##idence
above
##ledge
mil
press
party
early
issues
fund
2017
Rep
di
invol
method
Please
ce
story
needed
Des
fre
##ES
##ibility
flow
##icy
While
style
Fe
Part
bar
##itical
##anks
Sec
months
living
##ms
heart
experi
##ips
pick
##ino
relations
Now
pie
Aut
Wor
type
##alf
##imate
##AT
Joh
performance
Ro
current
wond
size
staff
search
mach
##bal
click
whole
single
##crib
##eral
questions
provides
##ging
##ests
charact
results
##by
stay
select
port
##edd
##aur
young
security
##ges
##asing
##ams
American
##pecially
##vert
complete
##ians
##bon
##uation
##fully
self
##hers
later
whether
Bo
won
hot
mot
contract
customer
took
following
necess
##ffic
Euro
dig
##come
##urance
inde
provided
author
##ored
further
application
##ided
##acy
training
blog
idea
came
front
cut
##ume
##ification
##ites
common
diff
various
cra
##aching
##aving
ach
##use
download
card
energy
meas
##lock
ensure
,"
##ories
John
!!
Dr
third
By
##mber
##ancial
prob
estab
comfort
quite
simply
systems
##ches
##ony
##ators
potential
##sc
##gest
users
Ke
##reet
close
Count
Par
##ules
clients
yet
war
unique
##ID
##ights
2019
happen
age
taking
##oon
repl
##irl
State
anything
phone
phys
accept
##ruction
table
areas
tax
agree
sales
etc
natural
especially
five
tell
choose
went
almost
text
fall
##abor
sho
improve
someone
problems
history
##ained
June
##AN
##__
break
dam
exist
shall
among
represent
ant
entire
##com
comput
track
particip
##itchen
Cal
##ature
answ
spend
econom
##illed
##son
United
Don
##ead
seen
Sim
yourself
##uff
##ilar
ideas
ball
##ufact
##icro
designed
subject
changes
21
##me
store
user
claim
Just
hope
lat
relationship
ess
glo
host
deliver
issue
Park
##ze
##AR
assist
##obile
##ceed
hon
##gle
sugg
events
options
cook
##ili
##urch
print
includes
mess
wall
stock
government
aw
##itted
##OR
init
upd
inte
2016
##itional
popular
##ety
plat
##astic
##lus
##though
regard
##olutions
Europe
South
Ste
everyone
human
jour
recogn
consum
brand
Bar
Min
face
##umb
##angu
position
date
##amer
##ength
fit
related
believe
Sw
abs
##ipment
##selves
cell
##ming
speak
signific
question
dou
watch
##ables
percent
respect
miss
sent
Per
##eter
favor
however
Pres
knowledge
amaz
wonder
Pe
taken
stop
color
determ
receive
credit
ful
##head
##lex
UK
##oura
extra
takes
##ED
##erc
##itch
##ands
collect
sat
##AS
docu
Some
plant
##oor
##istic
##rie
throughout
general
education
Gr
fast
held
lay
##ched
##ux
##aily
National
tou
##tt
deb
details
either
##ring
soon
Dep
sens
Reg
hy
built
cann
Inc
platform
coun
arr
series
purchase
integr
##20
##itut
forward
increase
cir
##oud
##lege
located
##ask
seem
ways
office
black
created
Ser
##rew
white
road
currently
Jan
rad
##ctor
communic
object
Mr
##sh
risk
difficult
stat
##iple
learning
swe
compar
else
ground
##go
activities
fire
impact
insp
autom
maintain
significant
foot
coming
mag
via
##leg
send
defin
base
rather
##co
pret
bill
##for
Here
bad
sell
usually
wide
##nam
##hel
##ensive
Add
trying
World
##cript
##iously
skills
drive
--
Ab
told
town
items
##ief
40
School
exam
continue
##lt
##ued
##oid
function
exact
##istration
##ensen
probably
Will
wood
##irt
##aby
cool
skin
additional
City
##ky
##ires
##verage
matter
network
likely
half
##enced
Fin
Mark
##where
attend
upon
prepar
added
true
software
Bro
Qu
##arden
financial
behind
version
necessary
##ese
##izing
recent
box
opportunity
ra
sol
happy
total
.”
log
received
words
House
ago
easily
22
Acc
ap
##rodu
##osed
manufact
##play
From
International
tar
##iate
isn
2015
##uge
outside
veh
Sm
bud
##isions
##pper
kids
##ises
pretty
Hensen
Aust
##vent
##itte
##itting
..
medical
board
model
equipment
##to
role
modern
member
conditions
Build
associ
##anced
infl
His
TH
Us
bott
mor
##sy
sche
paper
Ed
”,
##itor
##ffee
according
marketing
national
similar
programs
ut
##rect
##elt
##itten
image
weeks
engine
dry
loss
vot
coll
inside
cur
##50
ready
writing
Apr
moment
original
##idge
trip
dom
worth
private
langu
oil
##ew
regular
Associ
##ung
##ishing
##airs
match
park
##mm
##AC
fresh
weight
quickly
struct
choice
books
County
norm
final
amazing
23
sale
stra
##empt
benefits
summer
official
Every
Mc
cele
##ees
##ison
growth
##imum
##ondon
198
reading
variety
allows
projects
Cr
##put
worked
Ge
##EN
##aining
approach
running
sess
##ival
suggest
Let
ill
##lim
##hentic
Tw
##ror
##lin
depend
excell
London
fu
request
providing
meeting
practice
nothing
insurance
concern
Af
Pre
tit
##ench
hair
##----
file
pan
included
legal
##mit
rate
##used
##aves
round
##back
##IS
##oogle
##ibr
tools
High
Oct
bal
fail
path
solution
##gar
prior
character
er
##gn
sun
cannot
kitchen
ter
##ned
ability
grad
safety
Of
girl
##hib
neg
looks
encoura
##ecut
##val
types
##hest
##aced
wanted
effective
Day
Ju
York
action
daily
##ole
resources
standard
mass
source
##ada
##amb
longer
terms
Service
mix
inn
decision
latest
Get
div
##ama
##ublic
complet
film
games
nice
rout
refer
screen
target
##pose
##10
shop
##opy
leave
More
gives
production
carbon
leaders
costs
Act
##ground
##oph
challeng
lower
apply
collection
Flor
26
North
mount
ge
##apt
##pri
resid
Also
Any
higher
##enge
Thanks
detail
photos
announ
Are
Pol
squ
six
##ysis
planning
points
Net
cause
register
States
describ
anyone
effic
English
##erve
article
drink
floor
machine
##arth
highly
asked
##edding
April
Off
cy
camer
speed
furn
solutions
hands
teac
Stud
commer
##ried
fig
song
##ule
qual
emb
Great
bath
West
##AL
advert
option
touch
Even
Well
##ari
##ida
2014
attention
center
00
Ag
##gs
separ
seems
policy
March
sense
##ille
stri
##iring
ple
##ball
##lier
##cer
coffee
organization
fix
##hold
2012
levels
international
materials
Google
##elcome
##irit
deep
written
prevent
Fir
vi
##iation
##nal
##iture
Thank
sett
imm
Once
leading
28
dress
El
Sat
adj
capt
Cor
ded
sil
##ex
##amed
anim
deg
myself
appl
2013
helps
affect
late
##alm
section
”.
propos
##aging
treatment
##ittee
##adem
feed
goal
answer
##cing
##face
Health
Most
save
Face
Up
tal
##atives
arch
arri
extrem
Wind
##ought
remember
Center
Aug
dest
giving
lic
lives
prem
glass
device
computer
sle
##aign
##light
Then
Calif
##OU
shows
Trans
sites
digital
Her
lif
implement
discover
500
##IC
reach
##oles
remov
applications
Home
##aper
##OT
towards
appoint
bi
cas
##eal
Coun
bul
ur
##oof
Sept
achieve
Mon
Mus
baby
##cil
##ana
release
decor
average
##wood
##AP
admin
##ached
##avy
global
War
##haps
##wise
star
Int
recently
appropri
broad
successful
##IT
##irth
concept
decided
location
restaur
profession
traditional
excellent
suit
prim
budget
warm
##OM
##uth
conduct
##aged
favorite
Pat
ver
##uit
student
instead
creating
July
huge
max
##bor
##itation
##iff
immed
draw
Afric
##ties
##atter
indic
political
wish
##na
ones
##igation
expert
fully
Californ
##lements
correct
considered
commercial
Cons
farm
##AF
##RE
##formation
assess
Har
Whe
##ipe
parts
condition
Department
60
tick
##itely
##icles
began
couple
essential
Direct
cash
holid
##ocol
basis
Sal
ep
tur
##mission
##30
##vey
places
display
##board
President
TV
kne
altern
multiple
involved
California
##enty
purpose
entry
exactly
##ober
##ww
##ude
interact
attract
court
feature
##ka
except
##izes
sn
##unte
surpr
interested
Austral
language
Bra
cross
##arant
convers
wear
##ivity
partners
itself
Why
picture
celebr
Rem
code
##bit
##ening
##erson
##aches
prefer
morning
##king
##atory
client
Progr
healthy
safe
friendly
Design
fab
##ivery
rights
attack
document
##ederal
##ctions
##ection
gar
##nes
##hood
attempt
payment
led
##ube
interesting
Techn
nature
internet
cand
mobile
##inary
##asons
prices
consist
Rec
See
complex
Feb
circ
##amm
exerc
themselves
devices
##mark
note
promot
##iddle
San
slow
groups
campaign
sweet
eat
introdu
goes
train
individuals
Over
innov
Facebook
tast
stress
##ament
chann
trust
positive
patients
October
First
##uary
##vis
door
consult
surround
nut
##ET
##ension
region
requirements
green
htt
obs
##semb
club
Read
##ological
imag
Black
:/
mention
progress
".
Cour
gen
##eth
##apan
thank
growing
America
independ
existing
Gl
Many
emer
##sp
##rial
became
express
Gener
##cl
former
##ibly
pool
Trump
histor
Law
ult
##inter
##asc
blood
developed
Frid
serve
sometimes
paid
Bus
lost
##lation
##yond
wonderful
IN
rele
reduce
wait
Free
##EC
firm
authentic
largest
Super
piece
80
www
regul
carry
##ronic
responsible
Russ
##den
frame
influ
://
Dis
fill
thinking
posted
analysis
lab
##hens
eye
Dav
Japan
garden
##ville
##ribution
Germ
block
cards
death
##ocr
businesses
strateg
charge
situation
Internet
Ir
Work
cat
##onse
##aly
plans
avoid
images
expected
Florida
Good
hit
##ara
##ils
Art
directly
August
graph
rules
##gu
##mas
##ica
countries
reported
parents
damage
Educ
##ST
guid
annual
Building
September
mail
##ato
##iction
photo
Commun
regarding
Ac
Each
Lu
born
mid
##itect
##rec
gets
2011
Char
interview
repair
##rows
smo
basic
Dem
Make
cases
fa
hous
pages
##zz
contain
estate
pressure
Val
##ox
adop
setting
offered
career
##sych
Friday
mer
wine
##rown
heat
advant
published
feeling
Met
lots
bedroom
27
Gra
bank
fine
ten
adult
Prof
Gover
stage
conv
saw
starting
wrong
investment
experienced
Soc
aim
##of
##erous
##uses
chance
accom
197
obtain
##ION
##AM
guarant
playing
weeke
challenge
satis
definitely
viol
Go
Pa
felt
##ilies
prec
schools
##ma
##aries
wasn
loved
furniture
gas
sold
yes
##ipped
##ban
##hop
##ena
##ples
limited
highest
meaning
35
##iles
##imately
turned
31
Op
Was
stuff
##bert
scient
Green
##ipping
##rast
dise
##ancy
mother
inj
aspect
uses
##ags
princ
incred
medic
tried
completely
Yes
categ
##str
##hern
evidence
##encies
effort
##cription
adjust
Jo
Mod
item
##ashion
ideal
established
comfortable
Post
gift
##band
##ades
soc
goals
write
processing
analy
appropriate
Other
##iam
##AD
understanding
Since
Web
theme
thanks
instruct
players
estim
increasing
volunte
identify
beginning
##bur
##ha
##reg
##oms
spirit
easier
previous
IT
##inner
parties
##ovember
difference
capital
physical
Group
Red
proced
##dule
feet
heard
replace
January
Association
Look
dream
wedding
beyond
stru
acqu
advice
offering
benefit
load
pictures
eyes
camera
Dist
Id
November
award
cry
fair
##ny
##iding
chair
plus
##ologies
##ING
knew
homes
pp
##xas
neigh
supply
Services
Business
Best
Cle
birth
lack
pred
income
helping
blue
guide
truly
##ham
##cember
##ategy
dedic
Mor
hor
stick
##oos
##antly
smart
opportunities
audience
vehicle
##EO
thous
subs
Inter
impress
finish
organiz
Book
Out
bur
doll
jud
##PS
##imin
overall
colour
196
cream
Develop
delivery
reflect
construction
employee
lines
##wor
##ores
rev
##iber
December
transfer
Sund
##rit
##cast
##oming
produce
gave
##yl
spot
Brit
IS
nation
##itute
##ani
China
rock
moving
initial
.)
Del
Mag
Micro
hosp
sav
outd
join
und
##pite
##orge
notice
##ruary
response
effects
certainly
cab
rent
sort
van
##iable
spent
institut
shopping
February
##spect
##uate
##aint
##rought
optim
##porate
establish
associated
Satur
Spe
iP
sports
accur
families
##tenance
Council
flex
##ald
##oyal
Scott
pattern
woman
demand
culture
##zy
##istics
##place
emot
allowed
movie
ice
length
##OS
##amin
reserv
manage
helped
Ang
finally
launch
frequ
journey
Im
Port
vote
##arter
##iced
##ellow
serious
technical
century
##attle
THE
AN
liter
##TM
onto
##ifts
active
##porary
System
King
##iately
##LC
Although
useful
employees
protection
32
##ker
##urt
apprec
served
background
subst
##undred
continu
activity
double
Program
Education
Saturday
Ant
##oices
##LL
##rehens
##chan
waste
##ously
transport
photograph
European
weekend
II
##ford
##change
execut
##ords
statement
India
##aught
session
holiday
45
##ying
##ened
##sequ
compon
button
partner
!!!
Rel
fem
son
##ken
##80
##atever
weather
enh
changed
nearly
professionals
29
although
....
##aughter
##useum
message
straight
degree
hop
tim
##ered
fore
shot
eval
saying
district
methods
Sunday
Big
Sen
Tod
Year
dark
roof
sand
reasons
peace
Supp
temper
calc
schedule
Life
wild
alone
perhaps
strategy
driving
coverage
paint
Christmas
Windows
bow
pump
vac
##ett
ord
White
Texas
confir
loan
particularly
measure
sleep
suff
##istry
2010
remind
played
entertain
Bel
La
Use
fashion
micro
wid
##ram
##estern
##olf
scen
requires
player
##roll
2009
rooms
behav
experiences
##works
pul
##bum
teaching
numbers
Click
powerful
Canada
absolut
immediately
Em
Mond
Ret
##ses
##overy
##illage
##aker
sust
selection
contains
completed
Apple
hundred
##mitted
##oul
##itter
##itary
relev
##ption
colors
experts
server
Plan
letter
grand
compared
Av
dru
voice
##atically
##enal
##ivil
clot
fee
Bec
College
reviews
Amaz
Company
normal
Office
##40
island
dead
relax
##iques
reports
Check
util
90
Down
East
Spr
hus
##wh
tom
##reed
threat
##ady
conven
belie
opening
files
craft
extremely
candid
70
Hot
ble
##rael
##raft
studies
flav
passion
slight
doub
fat
gold
##eness
##arily
comment
veget
##venue
views
videos
afford
waiting
steps
Because
roll
##icious
traffic
bright
storage
relationships
##force
During
brought
diet
released
Mem
Mount
Ob
Wood
##men
##umn
##acing
clim
minute
demon
shared
pieces
Africa
ST
Ty
##ago
occas
copy
ec
fra
album
aren
suppl
talking
determine
collabor
##ibrary
bathroom
ahead
fant
unit
cheap
Club
steel
cells
fish
welcome
##orrow
whose
chem
##ommod
Conference
operation
visitors
stories
##sembly
):
Elect
named
##more
conference
##unk
workers
maybe
Another
patient
changing
Board
structure
Find
Light
Mac
gather
wat
##PN
##que
##ague
retail
##rapy
efficient
http
Love
Wall
virt
##ek
standards
Israel
presented
exercise
Pri
Vis
elements
mis
station
plenty
decisions
owners
title
challenges
restaurant
Sk
##ager
college
efforts
covered
David
cast
pet
rich
remove
earn
earlier
exclus
increased
moved
buying
Australia
Monday
ID
task
##CC
comprehens
##enses
trail
##rief
Whether
Court
Mich
##my
##IM
shower
##ancing
managed
Lord
lock
##roid
stream
cancer
church
tend
science
produced
##hips
According
advertising
smooth
AP
Pay
tips
##yle
##mes
##ros
shoot
Information
looked
##inese
winter
communication
Profess
Wr
fear
##ixt
##itude
fruit
pray
incor
unc
cold
seeing
##ended
profit
creative
movement
People
billion
advantage
36
Jes
dat
dining
kn
##set
##dom
##09
##anch
##ustr
larger
followed
maintenance
classic
info
menu
registered
cru
##iant
##lam
tow
reve
Street
models
Indian
winning
learned
connection
counter
Cong
Have
Jer
Vir
Where
rates
##add
spring
lovely
manufactur
Today
Hol
Like
PC
dro
rank
##body
##isation
stone
cloud
commit
generally
properties
bottom
independent
Ber
Sur
breat
##aling
reality
##illa
##cket
##osing
placed
heavy
##apers
accommod
grant
Arch
economic
relevant
Disc
drop
eight
states
##raw
comments
seven
spread
wants
diag
strugg
dedicated
Loc
gain
tree
##oly
##ads
Str
therefore
Class
Top
Take
cup
fight
ign
##time
##iger
##aming
shown
owner
husband
Sub
fly
mir
snow
##inger
plants
resist
##irection
spr
otherwise
Church
guests
developing
advent
Party
Imp
Jack
federal
master
##ij
##oke
##vest
clin
focused
cleaning
encourage
Paul
Ev
Mal
band
brows
rat
##ulated
##unt
sets
values
keeping
situ
##retary
limit
agreement
funds
Tur
##za
##atively
disapp
spect
assign
critical
vision
surv
surface
opin
advance
expand
Commission
landsc
##coming
Director
luck
names
psych
##rote
extend
##ortunately
Est
##rom
##cks
exhib
##soft
Ann
##standing
biggest
practices
bought
core
pow
##rant
##esome
##ales
Chinese
##anging
secure
finding
lighting
teams
distance
hotel
Last
##aser
thus
##ellig
mechan
##hington
finished
connected
##iance
##cy
##miss
##25
##icing
unf
decl
evening
Shop
balance
described
General
95
Pal
den
##cel
##oral
seat
##acity
greater
Christian
##levision
window
separate
dy
##wide
##ishes
street
prote
##ulate
score
trade
remain
##ribute
forms
handle
initi
",
Oh
cit
lamp
map
trou
##itors
##chol
dog
becomes
adding
actual
discount
princip
33
300
AS
Hall
bird
lux
##bed
##orial
##roud
relig
2007
testing
sharing
majority
status
Democr
Bay
Call
middle
palm
##care
##pro
##arge
##ado
##sec
Chic
flu
metal
obv
links
Government
disease
society
Lo
Under
dump
north
##eed
##chers
##iling
##ervation
Child
##order
##rowd
police
older
respond
combination
miles
achie
alternative
Open
fantastic
Ener
Lear
cart
election
race
##ios
##mal
decide
announced
thousands
PR
Ins
Start
calls
himself
Play
USA
Washington
comprehensive
Found
Rich
Sl
Wed
catch
pup
ren
##).
org
sugar
sea
leaves
remains
famous
techniques
allowing
elig
laws
prepared
Fol
Form
IP
Kn
##che
##odes
perspect
academ
Att
elections
Research
industrial
Republic
FID
eating
sen
##ared
shape
##osure
##udd
sched
prep
Real
##lands
communities
economy
journal
primary
Cert
Mart
River
pair
wrote
##akers
##istr
##apter
couldn
seconds
installed
anti
debt
suitable
organizations
bound
batter
direction
gall
##asks
##illing
##abilities
contribut
Its
serving
presence
listed
detailed
mort
south
ton
##iency
##uk
##EL
##inated
forget
react
##antic
##gred
kept
locations
designs
strength
processes
approx
passed
Data
Je
egg
gone
pull
toward
##eless
whatever
Step
scale
##phone
central
electric
cultural
TO
boo
##ga
##top
##orter
##arr
##ota
grade
2008
opened
config
brother
arrange
talent
architect
bag
##house
##ls
habit
depos
adapt
##iverse
advanced
technologies
##____
Hy
Old
amp
lose
solid
##fr
##22
##uled
haven
##key
poor
expensive
brands
package
##ceedings
figure
Microsoft
sustain
##pond
buildings
corner
operations
Market
faith
Amazon
UAF
element
ir
mist
wife
##rum
##11
##itic
beach
chat
willing
resear
Product
Dec
ended
driver
investig
explore
population
motion
Network
aspects
Jesus
FIDO
dut
ingred
##abase
doors
spl
president
purpos
polic
websites
continued
Organ
edge
switch
##--------
Special
Tues
father
harm
##pm
##ston
repe
##iment
Stand
interior
agency
cars
leader
factors
director
##ifying
workshop
multi
slightly
demonstr
Jew
Rom
ride
##ael
##yn
##off
upgr
##berg
scene
##ounds
format
update
Vol
kick
sau
selling
##eg
##bing
##right
##EM
##uration
profile
beauty
spending
consumer
mentioned
District
foreign
Energy
Ap
Back
Lake
Nat
Sil
Water
dinner
daughter
eth
lunch
mission
vent
##ait
##ugg
##TA
##inct
beg
##estic
Thurs
leads
Before
monthly
valid
stores
characters
pleas
Bre
boy
##press
youth
doctor
meant
interp
##ception
manager
measures
absolutely
Bas
Camp
nom
rail
##rical
##uc
##rete
##ctors
##osition
choices
helpful
attor
confidence
promote
Phot
installation
Simulation
casino
taste
adults
Development
44
Sum
##ault
##usion
anywhere
guess
minimum
##ports
Blue
Centre
England
military
flowers
Two
teacher
Mill
Mary
proud
rain
rule
##ipp
worry
climate
contem
uns
committee
becoming
##ifications
shel
artist
French
Online
excited
brain
legis
##box
clearly
funding
applied
Fire
Hum
Time
Ver
wire
##AY
##sey
News
operating
responsibility
honest
fabric
outdoor
Chicago
Wednes
AM
Ben
Public
Sam
fans
##aled
##eline
##ola
##olic
##achel
Next
drivers
##appy
##iliar
awesome
Cap
Gold
##OL
##ini
##inet
##anta
Through
2000
resolution
unless
arm
reput
##azine
joint
Phil
Tuesday
38
Det
brief
civil
sources
##gon
Project
publish
Exper
conflic
facilities
walking
Keep
delivered
epis
Care
Div
Power
crowd
filled
mo
deals
##gricult
importance
discussion
girls
negative
scientific
dang
fan
##gen
##fast
##eries
##repr
##ordin
truth
Prov
runs
properly
jobs
enjoyed
competition
Thursday
48
Kar
ment
vit
##xic
##BC
##ero
force
##using
##emon
capacity
Committee
templ
apart
leadership
##reprene
Aff
Main
aware
dim
earth
rub
tun
vict
##IP
##12
sto
sector
liqu
spons
markets
artists
thoughts
smaller
Islam
favour
origin
watching
maximum
emerg
houses
guarantee
Download
purposes
Fam
hom
rid
##ario
##iled
transact
survey
exciting
educational
Medical
updated
residents
satisf
Pet
Table
##oe
##IR
##areness
thick
##etic
committed
busy
flat
minim
Plus
restrict
elimin
proposed
accompl
British
hospital
Scottish
policies
800
CD
Saf
der
##aid
##lines
##mi
##word
##iny
ourselves
##apid
rob
actions
Frank
showing
happens
Engine
Institute
premium
strategies
Wednesday
List
##uable
##ette
Their
##estival
plug
##inder
output
quarter
owned
visiting
##azz
numerous
purs
Adv
square
34
Somet
fold
##nel
##has
##lor
##ingo
##rey
##iration
manner
tele
desk
provider
transform
Team
classes
occup
typically
automatically
75
Cat
Emp
har
##coh
##ano
##utter
##ulations
##rab
##osy
plastic
compl
leaving
##ograp
registration
paying
Management
sounds
hyd
Creat
Sun
apos
##ext
##LE
##nding
##itz
reb
##cean
##quir
Def
species
trees
audio
inspired
vehicles
concerns
Angel
James
Miss
##cles
##itness
ang
##ours
##erved
Champ
Who
remote
invent
listen
delicious
corporate
selected
Music
German
guidance
99
Jour
Lou
Royal
faster
##iences
##rics
##mpt
##hem
reached
##ading
##ushing
speaking
joined
volume
motor
Key
##going
settings
Community
Virgin
boost
Bur
Food
Gal
NOT
Qual
Town
hall
od
##iers
##td
##paper
##RS
goods
calling
familiar
recommended
Using
depending
channel
institutions
Both
Glo
Hist
Mach
ring
##ech
##fol
##ula
##unning
notes
tech
knows
##intage
amb
brings
Only
interests
Const
Road
sessions
tickets
incredible
Sch
Section
rental
Those
##acter
instru
visual
courses
asking
expertise
##ocolate
iPh
sauce
Bed
Peter
Rock
nav
schol
tag
##yer
##AG
Star
desire
seek
cris
memory
approved
continues
caused
practical
radio
mountain
influence
temperature
diagn
dynam
protein
prepare
Mel
##rd
##IG
##EE
##TS
##eds
reference
##rian
sport
disp
putting
closed
##idden
##liance
##fficient
happened
assistance
perspective
49
Dri
Land
tasks
##itate
##itage
##entle
beat
##ooper
##aks
##osh
##agram
intellig
script
aftern
standing
Place
Media
Contact
claims
awareness
documents
Series
AND
Hel
Mil
Word
##rors
##well
##VE
##18
##itar
bear
anc
##odies
mostly
##ructure
feedback
assessment
instructions
chemical
46
AC
Master
ON
Pan
##ey
##water
##umin
teach
dish
despite
starts
entreprene
generation
Scot
bigger
laun
Security
channels
Academ
database
Congress
Bal
Gar
IC
Person
Ter
ox
rely
##uct
##mar
##BA
##ested
##istan
ship
Inf
##ibilities
##rupt
2005
possibly
Science
performed
broken
depart
department
loans
environmental
Secretary
OF
View
sitting
##field
shap
Ital
television
##reek
decre
posts
magn
Technology
adopt
supplies
Ear
labor
##gage
##ae
##craft
##oses
enable
appeal
coast
readers
concent
Coast
Control
teachers
animals
Follow
Custom
Fil
Jon
Opt
Set
##look
##ocon
phil
Proceedings
##ternal
Show
distribution
perfectly
enterpr
reduced
##osphere
totally
surrounding
browser
1st
55
IB
Mobile
SP
nurs
##idential
stre
##rier
quiet
trained
simpl
2004
combined
Swed
error
citiz
Eas
Tem
##inem
revenue
upload
assets
simulation
2006
electronic
successfully
records
doubt
ingredients
AD
Cond
Sing
dial
mal
meal
intended
appar
recipe
##encing
##ificate
advis
supported
defined
payments
Execut
facility
internal
shoes
seemed
category
behavior
occasion
eligible
Cam
Hope
Mo
hook
##UI
##ita
atm
shipping
##asting
highlight
providers
salt
brown
eventually
Auto
licens
historical
affordable
##cohol
Bet
Bank
HD
Long
bon
dance
mental
pal
tail
##gers
##icul
##riage
soil
##neys
195
medium
Franc
signed
meetings
glad
specifically
##ography
license
conducted
conversation
Grand
components
hundreds
Michael
afternoon
Note
cott
iron
##ef
##iminal
##osen
##ella
##elled
recip
trick
agent
commission
guys
supporting
engagement
Color
govern
domain
circum
neighbor
accurate
39
Lin
YOU
ban
cer
cities
died
ju
rise
chick
seeking
flight
articles
supports
topic
Island
foods
depth
esc
milk
enhance
iPhone
Cas
Di
Lim
Ltd
Mer
die
gifts
tight
##kins
##OW
##SS
##rees
##oma
##roy
##abled
recovery
regional
sympt
reliable
mode
trial
moments
##liament
fulf
songs
Russian
drug
approximately
Hor
Lat
PD
##bour
##cious
##inations
##isher
##omas
##elines
sequ
fees
carried
Artic
centre
operate
prompt
purchased
Environment
Paris
42
AT
Gen
push
##gment
##),
##orry
##icip
exchange
seats
wouldn
colle
instance
assum
showed
emphas
construct
accounts
Does
Central
cutting
announce
removed
procedure
birthday
37
CO
Cup
Having
Mont
Matt
NC
cop
kid
mouth
tut
##orough
##reens
##orthern
Assembly
auto
stands
effectively
participants
cooking
William
panel
route
appointment
introduced
opinion
Foundation
Family
88
Den
Museum
NE
SC
vary
##equ
##iors
##like
##uction
##flow
##omb
throw
excess
##ensions
phase
returned
accepted
raised
qualified
ticket
appreciate
academic
Alex
fell
jump
’.
##pan
input
##urd
##ander
##ipl
tea
valuable
##otten
Lead
covers
consumers
Perform
Fund
Hill
MP
Pass
Test
bond
mut
pil
##war
##eder
##uries
##oop
chocolate
sole
apps
agents
agreed
##respond
movies
previously
presentation
trend
##rastructure
senior
End
Western
lived
##bl
##ym
context
syn
belong
##urred
surg
obl
editor
swim
holds
##lusion
layout
innovation
Japanese
predict
Support
entertainment
commitment
Bill
Mad
Tour
##ya
##14
therapy
##itics
reject
beam
stated
consequ
##estyle
ath
chart
Android
keeps
equipped
explain
wheel
Maybe
windows
reasonable
participate
Server
football
Social
spiritual
contemporary
Ill
Know
Welcome
fle
mine
saving
##yth
##IF
##edy
##lymp
enth
##oga
transl
2003
factor
kinds
occur
Johnson
physic
fixed
discovered
dollars
exclusive
breath
Journal
Italian
Executive
Further
NY
Que
Such
Tit
papers
##eper
##PA
##60
ther
##atre
##ora
##alog
##terday
##osite
##outhern
plays
outstanding
pregn
trav
##enew
feels
facil
tests
networks
index
fuel
clothes
landscape
##secut
researchers
Human
Scotland
CEO
Rest
Vide
km
rom
tables
west
##iest
##ras
##uated
##stal
fort
##verse
##abet
##ria
choos
complic
##ruit
argu
knowing
twice
Head
##erts
Prot
Union
France
Beaut
facing
Enter
Second
machines
walls
orders
luxury
interpret
GA
RE
Sign
Wil
river
sides
##iated
##rate
##kin
##down
##90
##SA
##cknow
##osis
recording
serves
poly
detect
functions
Conf
matters
Phys
freed
determined
failure
powder
Sometimes
Ham
UN
sam
##ye
##vention
##LD
##icial
##adium
##unction
##osoph
units
exposure
extensive
stored
hearing
risks
treated
About
##osystem
Code
Did
Dra
Fall
Full
PM
Tim
hire
icon
kit
sizes
##tics
inch
prop
##ello
##eller
informed
personally
minor
boat
carefully
distribut
considering
improved
protected
encoun
identity
appears
motiv
George
concerned
appointed
emotional
Global
circumst
Press
Sand
fishing
vintage
##LY
##itoring
##riend
noticed
leather
university
accident
##resh
creation
##enger
realize
correspond
certified
membership
##iveness
competitive
platforms
routine
Ide
substant
liquid
emergency
Curr
Jim
Olymp
il
rapid
sac
vir
##ius
##po
##ownt
##igration
##ainless
champ
firms
Review
relatively
featuring
concrete
investors
##iteria
missing
regularly
estimates
female
Hotel
AI
Bi
CB
Happy
Tri
agricult
jack
ped
village
##erg
##eler
alcohol
Though
##asts
greatest
criminal
worldwide
Beach
charges
Indust
salad
Prince
bringing
happening
integrated
parking
Mountain
situations
2nd
Card
Nor
aid
mand
tough
wet
##orters
##anish
chosen
Inn
resol
resource
Atl
musical
muscle
reporting
accessible
styles
Canad
appearance
holding
Robert
recognized
administration
administr
flexible
Members
virtual
battery
400
Ext
acknow
none
sample
voc
##van
##atures
thr
manual
##berry
vend
bless
lights
brew
challenging
procedures
conflict
scholars
Arab
Kitchen
Non
Rob
Tor
Wild
Watch
library
sister
##tle
##oes
##OC
##17
##tered
quot
blind
infrastructure
engage
##iking
recorded
messages
Minister
partnership
innovative
imagine
Germany
Society
scheduled
Econom
Live
Sar
caught
ly
mel
##oin
##adata
antic
##ferences
resulting
receiving
Leg
Instagram
inspiration
##atoes
confirm
achieved
DV
Mot
Squ
Win
nor
##ien
##la
##cher
##uing
##fl
##fit
##OD
weap
chain
quant
##gress
ages
agencies
bask
basically
cheese
retro
entr
classroom
150
sharp
manufacturing
domestic
efficiency
lifestyle
regulations
blend
manufacturer
principles
reputation
Louis
symptoms
LED
Oper
battle
fro
rol
wal
wel
##UR
##isk
##ilst
forg
anx
abst
##pty
univers
trig
instruction
##away
signs
topics
planned
constant
fourth
fields
Training
breakfast
raise
Smart
arrived
estimated
volunteers
transportation
##ixture
incorpor
Virginia
atmosphere
Access
CH
Gall
Jun
bingo
fasc
hidden
kill
taught
##bles
##life
##omen
##road
##stone
##uts
prospect
##inding
meat
everyday
undert
guy
defend
Exc
param
employment
discussed
Airport
Author
portfol
Valley
convention
incredibly
Modern
replacement
begins
launched
04
Dut
Tom
ease
fal
nic
##ura
sud
height
heav
compens
Italy
spaces
county
##engt
Manager
closer
Account
officials
shops
Iran
frequently
##while
%.
CC
Dani
Mult
Rad
joy
pin
pod
##u09
inquir
forum
proceed
##race
##ppers
##ops
butter
Admin
generate
healthcare
Instead
picked
McC
##ENT
illustr
Twitter
capture
Disney
satisfact
convenient
Game
Garden
Hi
Lee
Search
Vict
du
east
rough
renew
vast
##yers
##comes
sufficient
##ushed
##ensity
justice
Which
Proc
belief
2001
elected
identified
privacy
appeared
missed
collected
##itution
Russia
##orgeous
candidate
dumpster
Article
Dig
Mic
Prem
cute
ven
##hab
##aud
##IA
##iner
##anes
thorough
rein
rear
##lying
##ially
dogs
meals
YouT
##luded
Therefore
advoc
driven
organic
hardware
protocol
##ossible
Applic
closely
counsel
normally
massive
residential
medicine
Clean
episode
bike
laser
ol
witness
##rick
##UT
##RA
##oration
##ares
stret
##umber
usual
diss
Asia
secret
##athy
writ
boys
Mars
Connect
equal
legs
officers
recognition
Brown
restaurants
Sales
patterns
disappoint
Federal
].
eleg
soul
veter
##St
##urally
forces
stuck
##usher
##andom
##acks
contrast
unable
##itionally
root
possess
organized
distinct
causes
truck
creates
Steel
speaker
negot
gender
cycle
Muslim
graphics
injury
circumstances
Dou
Fort
Mass
SS
fif
##how
ongoing
##aded
stations
stars
stunning
##aked
neck
external
##usi
##pection
worse
Invest
compare
unex
proven
Unf
certification
Indones
turns
household
airport
nearby
diam
Room
updates
votes
animal
removal
garage
bowl
favourite
Cy
Earth
Four
Hand
Kore
Ol
Source
Tre
bes
pm
rare
##rid
##wr
##US
##pass
##19
##hetic
##lete
whom
shut
shift
noted
containing
makeup
studio
crew
signal
winner
edition
recognize
division
referred
affected
destination
attractive
surprise
flavor
ecosystem
streets
sudden
Fair
Kind
Sol
Sky
Tru
nu
pu
pra
san
tatt
##gor
##list
##zen
##32
thin
##lets
##idents
seam
##ache
Webs
perman
coach
noise
indoor
194
positions
submit
extension
earned
filed
expectations
linked
amounts
hosted
layer
objects
sending
bulbs
merch
##burg
mortgage
Quality
odd
YouTube
05
DO
Log
Mat
Try
VPN
WH
nar
tap
vital
##ki
##de
##uits
##mond
##point
##15
##eling
##otic
conver
susp
##ulty
whenever
monitor
monitoring
visited
##overs
certificate
matches
explained
##isco
stocks
Geor
failed
turning
consistent
crypt
Canadian
anticip
Victor
Bow
Cook
SH
Sports
Term
af
downt
golf
male
raw
##ugh
##EP
##oli
prove
##outs
upcoming
description
symb
designer
strict
Should
delight
Soft
photograp
constantly
shares
Works
warrant
suggested
mixed
graphic
Communic
deposit
accomplish
ancient
Academy
enthusi
Cre
Du
Ha
bodies
ends
pen
pun
##hors
##pet
wealth
coal
##anger
decades
remaining
##obby
listening
defense
vari
capable
array
significantly
preparation
engineering
silver
Looking
impressive
##forcement
collaboration
resistance
Children
enterprise
citizens
neighborhood
Lab
Liter
Very
lit
native
wra
##13
##LS
##orable
##iser
##asp
##ears
##pected
guard
submitted
skill
2002
Expl
increases
League
controlled
capabilities
improving
returns
authorities
answers
speakers
Finally
apartment
bottle
Students
historic
Spring
adventure
obvious
Learn
Employ
portfolio
DUI
Nov
Os
bread
grown
museum
pure
telling
upper
’,
##iat
##vin
##64
##onic
##alle
##olt
##ulous
##raction
##ifies
##ardens
intr
spok
impl
critic
acid
guest
belt
surf
foundation
performing
electrical
managers
involve
Box
##holders
Remember
volunteer
Performance
57
Kr
Los
Mov
Max
ast
gate
##kay
##oir
##RI
##ingu
exceed
permission
recover
##ints
adds
charged
issued
featured
equival
Coll
trading
Enjoy
##ennis
improvement
panels
drinking
African
Visit
Architect
dynamic
choosing
Unfortunately
BE
Bost
Cir
MS
Pub
Yet
borrow
dates
##een
##hi
##DA
##va
##24
##!!
##erning
stake
criteria
strengt
expenses
founded
ordered
weekly
dram
entered
Assist
##cuit
managing
ballot
Smith
urban
nutr
judge
lucky
trouble
religious
Martin
sustainable
duty
moist
3rd
bid
cooper
dur
era
##nic
##yd
##VER
##isters
##charge
##igen
##igan
doctors
quote
recon
##anges
empty
Arts
defe
letters
##anna
Despite
taxes
dryer
categories
crucial
Bon
FL
Hard
Jose
diverse
gorgeous
sized
wick
##UST
##see
##aka
enables
Thomas
novel
##ression
supposed
blank
transition
translation
formed
##iversary
Columb
loves
walked
Comput
searching
authority
entirely
hosting
communicate
examples
attended
voter
wearing
celebrate
ultimate
strategic
yesterday
vacation
widely
pulled
waters
legislation
philosoph
freedom
Daniel
!"
Fun
Kh
Library
MA
Night
Niger
Pot
Santa
Ven
Zeal
cable
gun
gamb
penal
sad
##kes
##lers
##35
##inent
plate
##agraph
##ogue
teen
spark
desired
emails
posting
Chris
reducing
##reme
officer
printing
debate
sensitive
farmers
savings
Anton
component
Senate
Video
Ball
CR
Cast
Pict
killed
##west
##whel
##BS
##ounder
forced
##igate
shock
charm
remark
extract
facts
directed
campus
Authentic
Steve
absor
candidates
clinical
##front
bonus
trigger
47
Aud
Bh
BM
Cape
EP
NO
Right
SU
burn
fo
mile
random
##night
##bits
##rome
##pack
##ingly
thread
##gend
weak
impossible
##anged
consent
regions
Select
Comple
guitar
##resents
moder
showc
feelings
delay
investigation
moves
alongside
newslet
portion
suggests
Small
extended
template
illeg
?”
Cost
Ma
Point
Ut
bacter
gro
hun
rot
##II
##MA
##ona
##ste
##ighter
##osc
adm
contained
Station
Chair
Heart
marked
expans
technique
Trust
parent
breaking
buyers
drawn
Medic
##ATION
##nament
Financial
solve
dependent
expression
flexibility
stopped
Zealand
52
Base
Budd
CA
Cur
Jud
Mir
OR
Ve
hers
mole
sight
zone
##ship
##laim
##0s
##CA
##TION
##inating
##amber
##irty
##irts
proof
##ionship
clar
contribute
incident
dispos
scope
bridge
presents
ski
trips
##iscal
respectively
maintaining
scheme
cameras
housing
##what
convenience
Writing
split
Cab
Hon
Him
Pak
Ult
dust
dating
jew
rac
##inos
theory
contest
##loom
recall
##weight
Sea
inspection
sky
default
viewers
purchasing
responses
dealing
Carol
##liers
Professional
##inema
Colorado
satisfaction
56
65
64
78
Cover
Festival
Line
Middle
Pra
Pack
honey
soph
tab
##fa
##jo
##omy
##elly
beer
enem
##oster
prison
outcome
dishes
Ash
##iano
relief
##rowse
retire
realized
Marc
concerning
engaged
Spanish
affili
Mexic
married
Airy
regardless
pleased
decorative
guidelines
photography
chicken
surgery
##gorith
54
85
Cred
Er
cro
hurt
tub
yellow
##ument
##wan
##fe
##hew
##oty
##pends
##ustration
usage
heating
compliance
##agon
somewhere
somewhat
represents
supplement
shouldn
invited
reader
##endar
opens
generated
mainly
password
statements
filter
headed
consideration
millions
connections
deploy
##ucky
Partners
indeed
essay
Perhaps
automatic
extreme
immediate
label
mechanism
birds
publishing
Website
'.
Dub
Ell
Little
Nav
PA
Way
Would
border
nine
rig
roles
yard
##bration
##can
##under
##vy
##16
##TC
##inn
##iler
stim
asp
suspect
##emony
shots
pricing
unus
scr
overwhel
##orders
conscious
decade
Proper
transpar
Being
extent
250
##onym
functional
Brand
increasingly
clothing
Estate
upgrade
Bedroom
##oconut
false
09
Fre
GP
Jay
Mumb
Offic
Put
Sound
SEO
banks
vs
##uel
##itable
##arian
##icate
forec
##othe
convent
wash
Stat
coaching
Need
##phones
artwork
entit
muscles
paragraph
slot
enjoying
severe
lapt
drinks
figures
awarded
horse
ISO
evaluation
eggs
Islamic
Angeles
permanent
equivalent
Ep
Lum
Lock
Mid
UC
Van
Village
losing
pink
##MP
##stood
orient
deeper
##umes
chapter
themes
interface
##....
setup
crime
authors
careful
Express
possibility
prize
Conc
specialist
Blog
ensuring
typical
liked
Travel
contractor
boxes
titles
proposal
concepts
consultation
executive
Jewish
attorney
basket
Indonesia
Mumbai
(“
);
02
AR
Es
Ford
Flow
Farm
IF
Ire
Lind
Living
Ont
Tay
lect
mur
sink
tiny
##ev
##ipt
##lights
##ml
##mon
##IO
##etime
reward
##emb
chief
##quis
##acific
spots
evol
Young
consists
repairs
Requ
##ancer
Ars
handling
passing
loving
Mean
trends
integration
Quest
applies
primarily
##REE
preferred
adopted
vegetables
Richard
gallery
wireless
cotton
strengthen
Ent
Haw
Jul
Kent
Tax
cush
hang
mood
rust
sick
##eah
##bre
##ris
##gue
##zing
##MS
##QL
forest
##ayer
##usal
##osm
##anda
Thus
compr
compat
##acle
clock
spoke
arms
speech
coordin
sheet
string
##ixel
programming
availability
puts
applicable
##itcoin
1998
marriage
cookies
printed
fitness
preparing
matching
Policy
Upd
drawing
surprising
manufacturers
Local
##missions
Shopify
crisis
seamless
Ireland
?"
Fig
FOR
Mother
Ur
blow
bench
bags
hole
pour
pitch
row
##awn
##cue
##77
##onna
##edia
##rel
##enth
##urning
stir
yours
suc
healing
complim
##rup
studied
##ools
marks
programme
organis
Without
specified
viewing
controls
aircraft
##itches
entering
versions
closing
strongly
Repair
tells
structures
illness
scientists
##PSA
hospit
tomorrow
accommodation
granted
ratio
Summer
herself
4th
AA
Bible
Bath
Dark
GD
Lib
Link
Ms
Made
Wi
Want
Wedding
elev
grew
lib
lets
ma
##yan
##cers
align
algorith
##una
lease
outcomes
empower
lessons
beneficial
draft
respective
languages
Police
implementation
surprised
catalog
Magazine
reserves
continuing
photographs
Holly
spectrum
repeated
Roman
Natural
paramet
narrow
58
600
Ah
Cru
DC
Ox
Ros
dent
gear
lift
rice
##yard
##CH
##EA
##34
##ов
##heless
##atics
##ashes
##eto
deck
Still
spin
Chi
producing
conservation
synt
insert
Forest
Dev
boot
poll
breast
tested
Order
checking
Spirit
##ographic
flower
Parliament
communications
errors
completion
maxim
framework
suffering
Prior
Professor
obviously
dangerous
Creative
entrance
unexpected
Georg
Based
Fac
Ji
OP
Sher
Wal
cher
divid
lemon
pip
tall
##gent
##cling
##och
##pes
##pons
##nda
forever
##ols
abuse
##ffect
anymore
newly
acceler
phones
attached
productive
joining
##amsung
contracts
replaced
definition
degrees
exception
ultimately
authenticator
confirmed
believed
revealed
assigned
eliminate
Swedish
licensed
ceremony
Digital
succeed
Ce
Cross
Give
Low
Penn
crown
finger
fiscal
oven
por
##pie
##vision
stack
stainless
alt
whilst
##rain
depends
##ums
##ells
Three
2020
##active
Chapter
accord
##lude
phr
experim
experiment
##iances
flag
formal
confident
accessories
Americans
causing
lawyer
drone
grab
requirement
margin
tourism
traveling
younger
crack
Justice
percentage
statistics
raising
saved
mirror
Insurance
instrument
##abetes
anxiety
Kindle
Boston
??
Come
EX
Far
Fact
LLC
Psych
gentle
hide
mac
tiss
vess
wer
##rim
##greg
##fall
##21
##GB
##ester
inner
##amper
sections
##acious
inches
unw
scored
Chief
pend
command
keys
assert
##awa
Commer
personality
brill
discip
publ
promise
accounting
##bridge
staying
exceptional
https
obtained
fairly
establishment
inventory
IBPSA
juice
PDF
writers
Bang
Mu
Mah
aer
dil
ebook
laugh
patch
sod
slic
tip
##zil
##ether
reaching
##cend
##uling
worst
residence
permit
cock
column
remod
instant
finishing
Clin
viewed
covering
opposite
Among
grain
reduction
Install
recommendations
commonly
Broad
losses
suggestions
arrive
promotion
Charles
cabin
Systems
hoping
Priv
initiatives
transactions
nursing
inquiry
downtown
Award
Bachel
Equ
Hen
ZPN
awards
codes
loose
mixture
pill
pace
ran
sought
##ns
##ridge
##ko
##Com
##TH
##asters
##illy
##ellect
##rog
##sters
##igs
habits
chose
ads
##agues
meets
teeth
##erves
##aping
coloring
##ificial
Ref
pocket
booking
approval
faced
testim
wheels
packed
1999
Guide
##umbing
hyp
seller
cooling
voters
advertise
Australian
##visor
Charl
Join
drugs
struggle
Democrats
vitamin
satisfied
minimal
entrepreneurs
Beautiful
Dutch
66
CP
Copy
Creek
Norm
Pacific
Tal
cake
dental
eld
gut
lad
sorry
tack
uk
wis
##bu
##bury
##gely
##oors
##IL
##SM
##urb
##iders
##char
##amental
##ira
alter
##ership
fruits
chips
##allenge
adequ
pride
intent
unl
##ensus
recy
provision
heritage
##ertain
differences
flood
developer
writer
Shar
delivers
lasting
defic
follows
##ugs
heading
refund
devot
limits
clicking
computers
participation
##lusive
circuit
celebration
terr
indicate
holidays
fabulous
crystal
neighb
colours
hopes
flying
Jeff
architecture
attorneys
Ideas
expansion
Lumia
Ontario
Awards
Bul
Fa
MD
Maj
Material
Sn
Samsung
bab
hub
lin
sin
sou
##ray
##rad
##gl
##hire
##df
##AA
##erry
##stery
##adow
withd
sex
##mph
workplace
Stone
anyway
provisions
Albert
supplier
Process
##iox
##ieties
returning
Clar
Cloud
seriously
largely
approaches
factory
publication
matt
##poration
Prom
beds
likes
Contin
addresses
tourist
stronger
involving
representative
hyper
objective
Mrs
comparison
examine
##limited
graduate
describe
arrival
interaction
genu
passionate
originally
Engineering
swimming
thermal
DVD
elegant
##ught
sophistic
41
43
59
DI
IL
Lic
Men
Sup
Talk
lies
loyal
pipe
rar
zero
##eem
##cs
##CE
##HS
##еr
##ala
##ented
aside
seal
##rible
##aints
chronic
resume
##izza
##ava
offices
Youth
Asian
poker
decent
signature
planet
Collection
##itched
potentially
damaged
logo
##roduction
broadcast
Brazil
diseases
believes
climbing
shooting
prayer
renov
pleasure
##iculum
##igenous
Age
OS
Oak
Sus
Wisc
gained
hes
mm
yoga
##EX
##FL
##inate
stem
##ims
enforcement
prime
reserve
intro
fired
##onsin
Rev
smile
insight
finance
Andrew
mini
developers
folks
films
controller
heads
legit
##ikes
Spain
packages
crazy
falls
claimed
Getting
slowly
##interest
width
intelligence
Personal
newsletter
Wisconsin
!)
Daily
Fore
GM
MUST
Swe
cater
hat
wines
##rated
##wing
##words
##Press
##ja
##33
##**
##oman
##asure
##roke
forth
storm
##ulating
chances
enabled
##odge
intention
##ordinary
persons
insights
Tech
operational
120
engaging
naturally
tradition
ensures
humans
temporary
Report
##cribe
representing
integrity
##kyo
divide
Again
bulb
##marks
introduce
trusted
injuries
literally
watched
initiative
desktop
History
Queen
abstract
stretch
900
BR
Due
Fresh
Games
NAD
RO
Ron
SO
ft
founder
kil
lau
rating
vine
##zer
##vant
##AK
##FC
##inery
##otal
conj
admission
comprom
printer
##izer
buff
everywhere
asset
##anche
finest
brush
memories
exposed
politics
estimate
Resume
employer
visitor
representation
##rieved
sensors
magazine
Additionally
priority
applying
interactive
Luc
chairman
Obama
towel
Jackson
reaction
Latin
tutorial
tattoo
Create
nutrition
illegal
bacteria
murder
01
03
62
AL
Cra
Dom
EC
Flo
FREE
Mike
Rust
Rail
Tar
Walk
phen
ske
tone
tired
##net
##bage
##kia
##han
##ta
##vas
##70
##SE
##inity
##etry
proc
##rage
##ateful
##umer
Think
##ailable
intense
Stan
unp
somehow
screens
pepper
regulation
suppliers
finds
requests
attitude
designers
mining
discovery
ending
skilled
lists
listing
Within
directory
explan
stylish
##ERE
superb
cultiv
honor
requested
Prev
characteristics
encouraged
essentially
conversations
introduction
observed
guaranteed
principle
dollar
continuous
Senior
Democratic
Golden
recipes
Limited
Literary
Columbia
Pakistan
laptop
',
06
Bob
Golf
Hosp
Northern
Ocean
Pur
Turn
fellow
gardens
jun
lake
mob
tor
wins
##yt
##ashed
isol
##adel
pros
orange
semi
##quar
intellect
Store
##tegr
190
financing
productivity
subsequ
completing
infect
investments
nights
flooring
hotels
participating
subjects
delivering
Registration
grounds
basement
association
Associate
destroy
carrying
##burgh
dreams
adoption
Furthermore
GAAP
%,
Die
Ever
Has
Jones
Laur
MM
Pop
Pier
Ram
Run
VC
Women
bicy
hung
king
nike
vert
##iper
##hol
##da
##uition
##fers
##atie
##ouch
##alysis
beans
##unicip
##ummy
resort
##eps
##oven
conserv
understood
module
visits
##ups
funny
Tokyo
possibilities
breed
industries
explains
##oking
1997
calm
ceiling
contractors
improvements
existence
Peace
satell
council
objectives
maintained
wooden
deeply
implemented
clubs
Govern
meaningful
initially
suffer
scenes
utilize
Experience
WordPress
888
pilot
athlet
Michel
gambling
entitled
Taylor
Meanwhile
pendant
84
Bes
EU
Ice
LO
Nic
Page
Pract
Save
coconut
hanging
rh
##bar
##gal
##ding
##Ch
##ishers
deleg
washer
hasn
liability
scan
##grad
amend
assume
greatly
attach
childhood
surely
importantly
faculty
checks
swing
focusing
behalf
occurred
superior
calories
fundamental
diabetes
consumption
utility
talks
correctly
attacks
emerging
Clear
III
Below
Type
Learning
shaped
Eastern
Ba
BB
Dan
Diet
Father
Foot
Hold
Toy
dad
dipl
fest
fits
gym
hate
ocean
sail
##giving
##SI
##39
##oned
##icians
stood
##irm
assembly
neut
semin
acts
Answ
##ologist
inspect
homeown
happiness
obst
##gypt
purchases
combine
floors
involves
antique
hosts
sensor
attending
cyber
Studies
lifetime
campaigns
horiz
iPad
Planning
decrease
consequences
##ython
samples
CBD
olive
philosophy
mattress
CF
Ches
ELC
Girl
Jac
Lov
Mand
Nations
cav
gaming
mouse
pic
rod
tons
vul
vill
yield
##eer
##bi
##cular
##UN
##TV
##idal
##cho
stamp
frustr
##uster
abilities
##ffe
contribution
evolution
coat
trains
Ask
shoulder
Never
visible
##axy
grass
Armen
generic
actively
exploring
Buck
focuses
laid
occurs
Donald
magic
voting
mountains
appliances
Luka
violence
Britain
earnings
expanded
duties
Standard
Histor
Machine
Condition
emphasis
Square
compensation
08
Egypt
Fu
Fab
Hou
Ka
Ken
Nature
OK
Ra
Vent
Winter
bat
bold
fing
font
gonna
rack
rated
tape
wave
##ua
##UL
##fits
##OP
##GA
ink
##asm
##ilton
##rove
alumin
##uls
suite
plot
overlook
##pled
produces
twe
twenty
synd
remained
##issions
personnel
grants
Exchange
receipt
equity
##arsh
activated
buyer
Doctor
movements
beautifully
breaks
assistant
Barb
extraordinary
fastest
Everyone
advantages
Method
acquired
cabinet
evaluate
gathered
arrangements
habitat
Marketing
##----------------
Details
51
53
67
72
96
Kim
Ow
bars
rising
ranging
till
tact
vibr
western
##yal
##tail
##PR
##pat
##isa
##ela
##ceived
##olph
exists
seeds
##uma
clip
##ogether
##achi
Altern
flaw
flash
10th
##otted
refres
opposed
constit
creativity
demands
1000
newspaper
competitors
stayed
##AND
##mega
inspiring
Transport
nutri
subsid
Relations
supplied
demonstrate
pleasant
shelf
legisl
Safety
rapidly
Nigeria
Buddh
retirement
Arsenal
organisations
($
Cro
Cut
FA
Ho
Money
Son
TR
Tree
VA
cul
narr
pounds
##ias
##met
##ст
##inyl
##omatic
thri
##ila
##child
alert
##ulin
##raid
##aksh
##cker
neither
chairs
##ivals
##agen
legend
ups
apple
##ruption
displ
dismiss
arts
proved
Analy
Send
cheaper
##rolog
endless
grateful
entity
Teac
Trade
Plant
harder
hardly
operator
##pending
Bridge
lesson
anniversary
Print
drain
lowest
1996
summ
##books
##inois
necessarily
blogs
tracks
tracking
##olesale
Consult
bedrooms
##iami
thousand
revolution
climb
Berlin
mistake
apparently
colleagues
pregnancy
romantic
agriculture
podcast
warranty
Carolina
Bird
EM
Ess
Easter
Fast
Hun
Josh
Mess
Sav
Veg
cm
gap
pdf
riding
sq
##IV
##orous
##itis
##omic
reception
##ulpt
convey
##estation
##abeth
seed
shorter
##asted
outs
myth
workout
##ibl
##icket
##aven
##inton
consolid
pointed
Exam
##ducing
equally
opposition
faces
Space
USB
Buy
Meet
Content
##clear
Guys
falling
Simply
Everything
balanced
territ
encouraging
Area
Heritage
promoting
Overall
container
medications
golden
fraud
efficiently
##ixtures
reveal
accommodate
contributions
Capital
Following
Illinois
facilitate
Restaur
complicated
sacr
Gallery
afraid
Hollywood
Aw
Cath
Dog
Dream
Holy
Member
Zone
fiber
gutter
hol
moon
ru
shed
##aver
##dy
##win
##78
##NA
##etch
##roph
##sts
##ession
##ulf
##ifting
##ckets
weigh
sus
sees
sear
##anted
##rip
##ogen
Stock
spo
spacious
##nown
peak
##ludes
##angel
pharm
relative
##anches
##athon
flour
strange
Tele
Trad
specialists
investing
powered
Prim
Appro
painting
talked
texture
antib
cooked
paths
dressing
captured
conversion
authentication
aims
1976
Retrieved
ranked
Turkey
exhibition
transaction
relying
physician
substantial
vendors
quotes
Economic
Radio
Korea
compatible
wisdom
Block
Case
Cult
Must
Pers
Rose
Southern
WE
cu
god
grey
hiking
mit
##iating
##host
##uating
##wich
##26
inex
##omans
##sem
asks
##ppy
##unes
enroll
##ureau
Weight
##teen
recruit
##000
whereas
Seattle
signing
##elson
fewer
specialized
safely
treatments
Nothing
funded
represented
Ministry
ultra
Annual
fluid
##egir
templates
navigate
entrepreneur
mutual
Atlantic
rolling
Copyright
sophisticated
vulner
3D
98
Avenue
COM
Emb
Gentle
Had
Kans
Labor
Mix
Miami
Rent
Sense
dash
loud
##bra
##yps
##oz
##Cl
##heast
inher
##terior
alarm
prohib
convert
##iform
##ista
##emp
aband
##oding
##ocra
resident
screw
implic
##grade
Always
19th
supporters
relation
shell
designing
developments
profits
##aza
boards
handy
directions
Brad
employers
Prime
Princ
##brid
##ESS
latter
Buildings
bottles
routes
Upon
url
consistently
acquis
institution
optimal
accuracy
paintings
Return
crafts
situated
opinions
Attor
Products
Silver
Photo
Early
Francisco
Casino
weapons
walks
Administration
unusual
##onymous
intellectual
68
AG
ALL
Baby
Bloom
CON
Effect
HV
Hello
Ira
PS
Rub
Times
pit
penc
sed
wise
##iot
##born
##99
##çi
##incess
##enz
toile
##arbon
##ilty
##stall
##urious
beaches
##aya
##igr
Theatre
alive
anger
##earing
abund
Things
sofa
Insp
20th
##pton
incent
Stay
universe
overview
Anth
locally
##ologists
profiles
gran
export
generous
centers
secondary
Nokia
lawyers
employed
Coordin
##pson
closet
combat
cardi
Regard
##aska
radiation
targeted
Elçi
Memorial
rubber
argument
interpretation
venue
suddenly
Communications
##allel
stakeholders
babies
rarely
07
Cher
HE
IV
Sir
Yeah
au
duration
festival
mic
mold
rose
wider
##hard
##lined
##cons
##comm
##isers
##ilation
##state
reven
##ador
##amel
##rape
##ifier
chap
##ector
##acles
##ansen
tender
Story
##lose
disability
hero
twist
instantly
crusher
highlights
Compl
##athan
Univers
##engers
organisation
restore
engines
##rones
Manufact
representatives
absence
##criptions
strive
deduct
implementing
Consider
garlic
surrounded
Glass
##haust
ranking
Palest
religion
talented
venture
Basic
robust
instruments
intelligent
Film
constructed
distributed
acknowled
universities
Software
Mexico
Kentucky
Georgia
weren
brilliant
withdraw
Body
Cze
Dar
Kir
Pow
Ryan
Self
Solutions
auction
bin
da
gal
hence
lip
lens
ought
pond
padd
sour
southern
##eav
##log
##Hz
##het
##inar
##onial
##ati
##atile
##leep
##stream
##ige
##advant
stability
stadium
##sect
proport
cancel
##ultane
unlimited
discharge
##ishop
aggress
producer
royal
assured
Anim
smell
Season
guides
flights
brick
artificial
##urring
##ributes
Maria
prominent
caffe
Orig
edges
connecting
singing
landing
lawn
tours
fundra
picking
authorized
Country
acceptable
inspire
Finance
officially
targets
Agency
immune
casual
Working
interviews
containers
##aintiff
Jersey
Loomans
Affili
sponsored
Construction
Drive
Environmental
resolve
accordance
Supreme
Houston
Czech
350
Dump
EN
FR
Fox
IM
Navy
Rachel
Tai
Viet
[[
]]
cow
cosm
ht
tank
wishes
##known
##tra
##Ps
##UC
##ILL
##AB
##HER
##essee
##ndry
render
recept
##oto
##tery
##ersion
##ifted
weird
##riers
manif
Week
spa
Choose
intervention
accum
wanting
carrier
##obe
transformation
boots
advise
Sche
operated
salary
Reserve
Orange
Contract
calendar
recommendation
periods
Rober
21st
printable
Register
elsewhere
massage
Studio
##holder
verify
attempts
surroundings
Reading
Irish
acquire
impression
##ritis
literature
scenario
streaming
Located
spray
repeat
plugin
Panel
fulfill
##bourne
Currently
administrative
Application
Property
conventional
elder
satellite
Restaurant
##ypsum
94
Bat
CS
CL
Cou
Dur
Gifts
Large
Lyn
Mt
Move
Nice
PH
Pret
Tam
Tell
Uk
bone
bub
bills
browse
giant
mild
tie
##bro
##days
##lu
##In
##page
##intend
tooth
##eland
##uris
prosecut
frames
plain
Integr
##ocarbon
arth
sculpt
overs
##pling
##ressed
Sever
simultane
Unlike
donations
imper
modified
endeav
metadata
optional
professor
prevention
individually
Common
reviewed
steady
responsibilities
wondering
warning
collecting
divisions
screening
Eliz
Introduction
expressed
fault
reserved
Image
Kingdom
tomato
virtually
struggling
survive
renown
Republican
configuration
folder
telephone
Easy
solely
travelling
Innov
fascinating
jewel
transparent
parameters
ELCZ
Vegas
87
Bitcoin
Capt
Civil
ES
Eth
Friend
Holid
Pick
RR
Ray
Sem
TX
Tower
UP
],
bunch
cogn
hike
nm
northern
pound
wing
wake
##iams
##tage
##pon
##ji
##itivity
toy
toys
##arn
##rovers
exhaust
abroad
##ghan
compan
leaf
disadvant
Challenge
##ordan
producers
relating
Anne
transmission
resulted
Scient
patio
concert
pasta
minds
studying
privile
##EST
experiencing
difficulty
inflamm
User
parks
##ACK
##amboo
Moreover
describes
qualify
separately
consulting
filling
precise
emotion
emotions
Object
mechanical
Certified
electricity
Jews
Apart
railway
victory
crisp
chemicals
departments
encounter
diamond
hospitals
Private
athletes
Besides
##ocracy
Iraq
!”
Bud
Camer
ET
Hair
Ja
PT
Pen
boss
diversity
fitting
gotten
ho
nose
pizza
##iary
##iability
##ba
##hma
##wall
##friend
##HA
##ori
##iti
##aria
##isp
##elle
bees
##istical
##arts
shade
##elli
##aste
compelling
##acular
butt
controvers
Staff
quilt
overcome
guilty
thinks
##print
listings
define
generations
followers
performances
costly
curriculum
Shel
electron
180
edit
checked
##ikely
potatoes
landl
##ropract
beginners
##idding
amongst
Simple
sentence
##riends
solar
Technical
blocks
gathering
retailers
Michigan
uncertain
Stephen
mistakes
investigate
workshops
Galaxy
escape
oblig
iconic
cooperation
durable
Credit
compliment
Catholic
Bad
Could
Cry
Kings
Kids
Si
Sure
aest
bother
fancy
gross
hur
holes
ow
##eke
##hou
##ca
##uous
##23
##85
##ен
##еѕ
theatre
##real
##entine
##rogen
##urer
reform
##lyn
stable
stones
shirt
composition
perm
##...
Analysis
##hesis
##aze
optical
Allen
Spider
installing
Cheap
Guard
freel
damages
knowledgeable
layers
debut
networking
curious
McK
illustration
mounted
displayed
alternatives
documentation
Luke
merely
subscription
frequency
absolute
threats
Electoral
exclusively
Advanced
tagged
obligation
photographer
Joseph
penalty
##unicipal
HVAC
caffeine
Ax
Bag
CV
Der
Grow
Iron
Joy
Match
SE
Sale
Saint
baking
gig
masc
sne
tent
tile
##made
##Don
##papers
##zes
##vet
##еt
##іng
##erk
therap
##alg
##aring
##etary
##etics
##owed
##olis
##igence
haz
##uscript
enorm
##acent
reset
deserve
##oved
Whatever
##fulness
invite
##onto
bron
Deb
customized
grams
courts
Exp
runners
##aha
Screen
letting
Resort
drag
versus
1990
Chem
Syd
Particip
hearts
selecting
digest
cuts
agenda
shoe
radical
domin
graduated
Thanksgiving
speeds
premier
##nesota
Spec
Email
Available
Discover
lamps
Standards
Break
copies
Olympic
acknowledge
fifth
dramatic
##stein
##otype
explanation
Chess
Elizabeth
5th
63
97
Az
Ga
GT
HP
Own
Po
Rather
Rental
RSS
SEC
Ten
Voice
Wow
Wine
dont
fer
jail
lady
trem
##epend
##rin
##27
##од
##itative
##ician
##urches
alle
angle
##esty
franch
exit
Inv
outlet
##ocation
contents
Stadium
scores
trim
trash
preced
reply
everybody
acting
Really
carb
findings
Force
detection
grat
formats
poster
plane
varieties
distingu
Indigenous
125
parad
##annel
PhD
editing
Coffee
singer
##ERS
painted
reduces
camps
addressed
##ospel
discussions
tablet
Minnesota
Williams
login
settled
immigration
slee
smoke
struck
transferred
reminder
##proof
apartments
Affairs
Sweden
promptly
Picture
Commercial
genuine
displays
8th
Action
Bir
Band
Cool
Et
Feder
Gary
Jama
Kong
Kenn
Ly
Sa
SD
SB
batt
cust
dual
ray
rings
rural
trib
##hot
theater
##itations
##ashing
stages
oral
##ifact
seating
segment
delete
##allic
plumbing
plaintiff
admit
##urement
##acc
##ocurr
worker
manip
spare
disorders
recre
##plate
aged
repet
roots
regards
supplements
Comb
floral
folk
entries
handed
charging
corre
currency
concluded
Indeed
engra
##anned
drama
Trail
Travis
portable
measuring
measured
physically
globe
stops
automated
Quick
Austin
embrace
indicates
Harry
attempting
nuts
Course
regulatory
identifying
frequent
##TML
tomatoes
occasions
Electric
Turk
powers
tonight
Division
pregnant
Excell
overwhelming
Jayal
Answer
renowned
77
Bart
Birth
Cub
Fix
Gil
Kan
MY
Nob
Nelson
Ok
Rick
Sony
UV
caut
fert
hiring
lie
oh
okay
pine
rum
tube
##cond
##mates
##worth
##PM
##vi
##65
##EF
##LA
##esis
##ito
##aro
##isure
##ioned
##stock
rect
##oln
assemb
##ifer
exch
shirts
environ
lean
intensity
Stor
unh
uncom
coord
hadn
backpack
symp
flags
Deaf
##roller
processor
subtle
gramm
builds
Clay
payroll
handled
charity
Excel
Independ
Level
Collect
annually
Price
clearance
protecting
moms
1995
marine
Companies
cultures
Represent
methodology
answering
balls
collections
Brook
divor
attractions
celebrated
imagination
accompan
precious
injured
medication
Delivery
optimization
peaceful
wildlife
Springs
Classic
ignore
Ohio
Help
Customer
rejected
facilit
Dragon
incorporated
thoroughly
Victoria
Venus
##laimed
IFRS
tissue
adequate
laundry
refreshing
Gentleman
arthritis
73
AW
Aegir
Bern
Core
DA
Gas
Gree
IR
Mind
Merc
Nick
Od
Oft
Rome
Rights
Spect
_____
bust
mos
maps
nations
pushed
tied
vinyl
ware
##range
##rigation
##hr
##cm
##uates
##DM
##heim
##err
##onies
##ico
##ioni
##urers
onion
##estone
worried
compass
league
##ouses
##berries
Alan
1950
backed
backyard
crate
##phia
presidential
chest
Frame
explo
Client
drives
organizing
confusion
conclusion
oppon
legacy
winners
Bring
edited
##attan
Syria
blogging
hopefully
magical
towns
terror
indicated
consistency
exercises
adjustments
analytics
roofing
petition
Jerusal
fighting
limitations
principal
achieving
Knock
Maryland
tunnel
##itzer
bearing
corresponding
agricultural
Authority
heavily
DIY
##adelphia
##akshmi
Roberts
##urisd
Sydney
environments
Jerusalem
%)
Aqu
Bench
Dam
Hom
Less
Nemb
Om
Opp
RA
Say
Sab
Sree
TAG
Vi
dess
dies
greet
hits
iOS
lying
pushing
weld
waves
”)
##burn
##aft
##lay
##losure
##mother
##p3
##pool
##HT
##oning
##aters
hack
dear
dele
canc
compos
uphol
anytime
unlock
somebody
inval
##ancers
##erman
attribut
##ometric
modules
cleans
formula
retreat
politic
##ounge
filing
specialty
glue
11th
Success
##lette
##ospin
flows
Feel
Autospin
##ATE
##ASS
Grade
curtain
mixing
strike
influenced
##ictionary
aimed
accomp
instructor
burning
calculated
API
incorporate
brothers
sponsors
Temple
tailored
Linux
weapon
Terms
symbol
spokes
Prague
##quisite
Oxford
divided
devoted
legitimate
##semble
Attorney
revenues
buttons
Jayalakshmi
Ari
Bear
CN
Chen
Field
Gift
Jane
Much
SM
Tro
Treat
UR
dirt
fib
hills
lon
math
pig
piano
##iel
##site
##pace
##power
##OB
##Auth
##ол
##rets
##veys
stom
##esting
sectors
##opes
##rous
priced
manually
##iah
##ults
##aux
scal
##onder
recru
aging
##ateral
bucket
##luding
trails
Along
caring
crash
insulin
presum
preserve
artistic
autumn
Sho
Short
Share
advised
##inson
##engu
excav
Alliance
passes
Lew
##ohyd
mathem
Blu
practition
caps
Century
expecting
musicians
140
1991
1994
discussing
audiences
##edded
acceptance
tablets
popularity
recognised
consuming
Perfect
functionality
modeling
terrible
references
strip
Records
observ
loaded
enhanced
temperatures
reminded
relaxed
vegetation
resistant
disappear
spectacular
Palace
discounts
boundaries
sustainability
ethnic
begun
Photos
Championship
coastal
governments
physicians
veterans
puzz
merchand
anticipated
Antonioni
Castle
charming
Update
Jiang
vessels
Henry
unlikely
sexual
##ioxid
Pierre
aluminum
constitu
simultaneously
Often
Nembhard
Bene
BBC
Corn
Caf
FM
Final
Greg
HTML
Ky
Lot
Langu
Roy
Site
Sug
Tenn
aver
fails
hug
lun
libr
mad
##bel
##rich
##rates
##riger
##gments
##har
##cery
##chest
##oen
##zed
##ede
##itan
toss
beats
##ationally
suits
exec
##emark
Into
compact
##agan
##agers
lend
##ccoli
spouse
unknown
accred
backup
secretary
acres
Unit
branches
chef
surge
submission
meters
Climate
servers
defect
counting
generating
varied
##lington
passengers
patent
operators
parliament
refuge
refriger
constitution
camping
Assess
compete
Switzer
sensitivity
hybrid
roads
excellence
##backs
striking
Translation
interactions
convin
Posted
appreciated
##umni
copyright
Israeli
trailer
towels
Events
pups
Hyd
Decor
episodes
restrictions
derived
navigation
Better
announcement
jacket
nicely
beliefs
Bowl
spoken
asthma
showcase
Officer
forecast
##otherapy
assertion
testimony
gutters
Hospital
!).
?!
AB
DS
Eric
Event
Furn
Friends
Graph
Host
Jenn
Linc
Lady
Mun
Manche
Near
Rhe
SN
Saud
Veter
XL
bite
fake
loop
mask
wiring
##yr
##makers
##xx
##wer
##fly
##erals
##oni
##oria
toler
##alt
##ication
reverse
##chron
##igue
stays
##imp
##raine
enjo
worn
##ptic
Stick
spir
overse
##inkansen
cozy
##amps
keen
invitation
locate
##ontin
designated
Deep
worlds
processed
Shinkansen
placement
Clinton
organize
operates
broker
##rooms
publicly
constra
Chrome
painful
treating
competing
Description
##cribed
respected
integrate
circle
manufactured
1988
Activ
proposals
answered
removing
turb
Valentine
Model
analyze
pulse
relaxing
dropped
##untary
unfortunately
declared
Philadelphia
Karl
pursue
occasionally
Matthew
NEW
Leadership
fleet
Physical
vendor
Toronto
quantity
Movie
enemy
AAID
Cele
phrase
ladies
soup
License
conjunction
subsequent
cuis
Manchester
.-
69
74
700
9th
Doc
EV
Kay
Li
Lar
Lag
Lux
Purch
Rivers
Vit
WW
Wales
batch
fitted
gest
horm
jurisd
lobby
tennis
u09
##egh
##rons
##rane
##hand
##lvan
##ygen
##wal
##vo
##VI
##VL
##inth
toxic
##alo
##alph
##rell
##isely
##sty
##urities
##uty
beef
##riv
##allas
##ellers
##ques
appliance
##reement
##icks
disorder
province
coaches
colored
seeks
Hey
##iana
wherever
guided
Andre
101
Advent
corn
Individ
12th
promising
189
turnover
Resources
presentations
enjoyable
personalized
trademark
nonpro
grav
grace
tourists
selections
fallen
arranged
sells
solo
schemes
engineers
Nether
Netfl
Study
settlement
Corporation
achievement
pools
##ascular
violation
.).
vanity
Speed
ordinary
entertaining
drove
Survey
adventures
clinic
luxurious
Miller
danger
Melbourne
laboratory
colleges
Title
Junior
Muslims
Assistant
Flowers
##piece
Previous
Diego
Governor
LOVE
##graduate
territory
##rapeut
Dumpster
Storage
Individual
Netflix
86
CM
Given
Hay
Hills
Jess
Lad
Liz
Mend
Number
Oil
Oreg
Python
Rs
Raj
Size
bible
crop
cinema
dict
density
ham
hect
уо
##iology
##cut
##mail
##wa
##wear
##SC
##GE
##TER
ing
##asg
##urg
##adays
stroke
##ulu
##abil
##ifi
seasons
deem
##arten
##uns
churches
##oded
##agar
rescue
teens
##apore
disag
disaster
amen
##ova
buzz
##angers
##hedral
persist
Produ
secured
startup
Andy
minister
writes
deliber
##otto
##lessly
##ussion
##umps
applicants
legally
mature
##isms
Phone
singles
democr
contacted
Manual
versatile
steep
identification
packing
addressing
portra
Similar
ballots
##ilipp
fireplace
##forward
attendance
Users
structured
Letter
Anyone
Wells
appointments
conditioning
adjusted
judgment
outdoors
Portland
straightforward
Import
assignment
deposits
Volunte
restricted
harvest
Cambridge
sequence
Industrial
Motor
Premier
disappointed
Football
cavity
Barbara
Transportation
##Cloud
acquisition
Palestin
Several
TAG_
stomach
convinced
Lincoln
enjoys
Netherlands
Oregon
Bry
Bishop
CAN
Craft
Cancer
Dun
Dry
Ec
FI
Gi
Jordan
Kate
Las
Nut
Pu
Palm
Ralph
Sant
Song
SAP
SQL
Total
Ze
bout
euro
lime
lenses
mate
sisters
yards
##bn
##rary
##kle
##uce
##fish
##TI
##Bl
##HD
##icit
##chair
sturd
##sex
##vere
prol
neat
deaf
##oples
##udes
dose
heated
##asty
adher
leverage
uniform
arise
scoring
Change
Channel
overnight
regime
decline
remot
posit
guards
##ometer
retired
expense
Adam
excite
ordering
confidential
parallel
promised
capability
contacts
responsive
agreements
computing
216
speaks
determining
arrested
##shine
sellers
##ittees
voted
gradually
Florence
premises
preferences
Recently
circles
authenticators
reflects
Delhi
flavors
fragr
Lighting
uncover
knock
Strong
Malays
ratings
pupils
licensing
throwing
roughly
dissol
Krist
BMW
moderate
oriented
pipeline
slices
hesitate
Conditioning
Birthday
Cit
Cann
Days
Draw
ED
Fo
Mosc
Name
Nap
Rol
Rule
Sep
Sorry
Ts
Together
Vac
ax
bio
dol
hip
merc
pixel
racing
tro
wand
##iar
##bow
##bled
##gins
##cat
##cul
##Pro
##UM
##FF
##incial
inject
##icity
##igar
##amic
##amins
conferences
##abling
exterior
enrol
##oured
allerg
comply
hass
hash
leak
##ipur
##sole
spat
uniqu
##ubanes
##onda
pending
peppers
bund
underlying
poem
blame
carries
modify
subt
polish
lightweight
patches
filters
effectiveness
15th
investor
electro
Resolution
##bean
airline
affairs
kindle
cleaner
minded
temple
couch
combines
##ographical
freely
wallpaper
collective
difficulties
##sylvan
titled
figured
embra
embedded
Counsel
bulk
Conserv
Remove
tenant
loading
Ident
impressed
substance
continuously
timely
measurement
suffered
Republicans
Champion
diagnosis
dialogue
editorial
virus
retrograde
diameter
cryptocurr
involvement
scratch
Bathroom
Pennsylvan
sodium
Alberta
bicycle
Practice
Toyota
neutral
Armenian
fingers
nutrients
suspend
jewelry
carbohyd
accompanied
merchandise
Sugar
Furniture
##rapeutic
##asgow
##ubaneswar
CT
Dress
Five
Fortunately
Gmb
Greek
Kelly
Later
Mail
Map
Making
Okay
Past
Poly
Rav
Roll
Vista
cord
nail
nerv
pets
tags
##rison
##vard
##LAC
##ны
theor
##itants
##ican
##icated
thro
reass
prox
anch
##ighters
sevent
lever
lender
cloth
incom
manuscript
Stop
permitted
que
quil
queries
##eping
needing
##ampa
##merce
Anna
requiring
Death
##enders
grid
Front
metres
Advert
countless
dried
Television
performs
Index
broke
considerable
slice
Bright
facial
explos
depict
dealer
Carl
tournament
energ
Autom
replacing
claiming
prints
colorful
integral
maintains
Address
##mma
teaches
Month
Intel
Glasgow
labels
rocks
executives
vacc
Belg
Amazing
ownership
knife
ignored
eligibility
arrangement
dimensions
complaint
complaints
diagnosed
oxygen
shapes
Conditions
Singapore
advocate
nuclear
moisture
Authenticator
Complete
basketball
surprisingly
##children
vulnerable
html
elderly
enormous
bronze
tremend
compassion
Pennsylvania
GmbH
':
79
Brian
Bureau
Ca
Cinema
Dance
Dash
Dallas
ER
Greet
Kinder
NZ
Pap
Vanc
bands
fixtures
gau
hitting
iCloud
ok
paving
sinc
tune
##nish
##ront
##kers
##ded
##door
##mans
##oons
##pir
##fy
##father
##MO
##28
##76
##CL
##36
##Fi
##RO
##anne
##aration
##isy
##isons
##asy
##eli
##urse
##igious
##adas
##imson
##akh
canvas
##ustain
chip
notification
##outheast
worship
composed
prest
outline
inclusion
appet
unlike
##tends
accent
##inks
desper
blown
##rowave
aviation
##ockey
wrist
boasts
complement
differently
Adobe
corners
Marvel
oldest
distract
patience
invested
##anny
traditions
Flash
identical
packaging
1993
Medica
analog
supervision
credential
barely
digit
##comed
Grad
touches
Regional
Schools
examination
solving
1982
Crusher
referral
Greater
##arios
preventing
##OUN
Intellig
##ITY
Designs
Technologies
observe
independently
Morons
.),
establishing
accurately
calcul
deadline
##rosion
catching
Certification
Karen
victims
accomplished
oxid
YOUR
bonds
Protection
propag
Trip
Industry
confirmation
frozen
veteran
odds
Computer
grocery
Veh
experiments
neighbors
Promot
compromise
rhyth
sacrif
toilet
Coordinator
Turkish
Switzerland
Moscow
Medicaid
61
Ast
Ban
Bott
Freed
Gill
Gate
Mur
Pink
Rd
Rud
Sin
SIM
SEE
Tab
Wa
WIT
Yoga
bits
binding
drones
fiction
gre
gains
jet
lined
liber
na
nod
pest
rib
rush
sits
sorts
vib
##sis
##bally
##ran
##lass
##col
##uan
##tes
##town
##mo
##аr
##hell
##eni
##arb
##isan
thy
##otive
##irate
alike
##ushes
soy
admitted
adorable
##ocated
##izon
workflow
apples
##apes
evil
themed
armed
scar
##ishment
peer
##inkle
commands
relate
carp
crust
visibility
transit
eastern
##azines
membr
valley
realistic
organised
Text
confused
185
beneath
improves
wheat
Apply
cleaned
specifications
seasonal
Secret
##shire
comparable
impacts
footage
billing
badly
1989
rounded
Agreement
Corps
affecting
talents
destinations
broader
fabrics
Record
precision
Others
loads
Portug
execution
femin
vacu
vegetable
Typ
bathrooms
drops
habitats
honestly
stopping
homeless
satisfy
Champions
magnific
Jonas
mandatory
blessed
welcomed
universal
Premium
Double
remarkable
foam
enemies
lecture
Clinical
Bachelor
destroyed
vibrant
Essential
pencil
##igrants
grammar
execute
Assessment
excitement
Cow
Cav
Cooper
Honey
LA
Lisa
Osc
Pitt
TM
Var
Verm
WR
Wait
bay
bids
binary
fi
fence
hill
hint
jazz
liv
makers
tort
tum
tale
voices
##no
##lace
##uity
##pa
##го
##Qu
##oub
##ington
##omite
reim
reaches
##seys
ash
##illion
##ifiable
##umbers
placing
##pert
perceived
quar
##aped
disabilities
disabled
##ensely
##auc
Chap
preview
coinc
##itty
##ificates
##olds
##ermann
##awk
finishes
Coming
Forum
##reshold
avo
belly
ministry
Deal
.....
emissions
Arm
corpor
mush
MyS
accessed
terminal
slide
Respons
Philipp
annoy
Canon
Buff
democracy
Amb
steam
tempt
courage
coupon
##fortable
friendship
##ennial
accepting
##ART
cookie
##itutional
statistical
Edition
worthy
Highway
qualities
##OULD
decorated
decorating
administer
warming
Salt
trainer
imagery
precisely
smartphone
Outlook
creamy
behavi
locks
locked
fears
mirrors
survival
contributed
demonstrated
Enterpr
Wilson
Falls
pedest
Atlanta
Sarah
welcoming
Cleaning
praise
wrapped
##iatric
hunting
Statistics
liberal
algorithms
pollut
syndrome
Teacher
enrollment
Federation
accompany
Saudi
nervous
71
Agricult
Brew
Cand
Cott
Date
Gord
HA
Hop
Kat
Lut
Mang
Moh
Niss
OC
RF
Rain
Sac
Vill
Virt
Wenger
ba
bell
blo
bomb
cous
dive
fed
killing
nam
omega
pads
rou
tо
tears
##ii
##rat
##rus
##gi
##had
##ds
##dam
##wart
##DI
##V1
##EG
##ра
##orp
##orer
##ouw
##omin
thе
thumb
##elve
##etheless
##uten
##ceive
##olar
##olly
##olitan
##abs
##abul
neuro
washing
cha
chic
abdom
Third
sovere
composite
myster
##ferred
##ibu
quart
unne
arc
descend
Allow
1920
reliability
carpet
assort
smoking
acre
Deg
artifact
formation
Arc
Army
postal
offerings
##ounce
Begin
Soon
##gged
concerts
refused
slip
caf
internationally
Spot
Manh
depression
governing
couples
coupled
Carter
travels
pressing
portal
portray
texts
Parks
determination
##naments
Additional
squee
immun
feeding
celebrating
complexity
banking
sleeping
utilized
survived
discounted
cartridge
##ugged
Divi
minimize
dispute
apparent
synchron
champion
Extra
prospects
Cyber
suspension
surfaces
cushions
algorithm
Major
narrative
cuisine
Malaysia
hassle
Freedom
WITH
---
76
7th
Au
Cop
DJ
Dat
Emer
Fut
HR
Koh
Loon
MO
Mos
Mall
Nurs
PP
Pages
Ru
Side
Tick
Tah
bare
bull
grip
hood
junk
nest
ties
tang
trop
##ean
##ends
##iator
##ipper
##nut
##hal
##uant
##uitive
##tical
##master
##walk
##38
##TR
##47
##оr
##install
##onia
##atched
##orious
##eno
ine
inhab
insect
##omed
rewards
##emade
##osit
##ostic
outfit
workforce
intim
Stir
perception
liable
newest
##ensed
##ensional
arg
scared
addict
indirect
##ampoo
remed
sheets
basics
readily
minerals
##urric
customize
clever
programmes
supportive
meter
Beh
booked
technicians
happily
Marine
Marsh
centuries
infection
##omme
Leban
reflection
##iki
USD
Coach
nearest
demo
voltage
shortly
floating
freight
machinery
##uffy
##iliation
messaging
planted
seemingly
Ability
Edin
straw
McL
1986
graduation
Active
sixth
separated
dressed
casinos
draws
TVVL
consultant
independence
obtaining
neighbour
Imag
scenarios
crafted
troubles
responded
nominated
Throughout
rebu
Jonathan
IBM
Moore
Denver
excessive
Titan
motivated
resolved
lymph
forgotten
Skype
disposal
Question
Questions
WiFi
junior
##quarters
hungry
vertical
Girls
Holiday
cognitive
Language
deemed
Nissan
BL
Bru
Boy
Dy
Dining
Jr
MG
Pin
Ped
Pinterest
Qur
Rot
SW
Too
Wy
Weld
Xbox
Yellow
cub
eco
foss
hell
horn
lovers
mud
municipal
pile
ward
wages
zip
##iere
##rence
##ho
##lime
##oT
##DS
##person
##zens
##Os
##arin
##olen
##chain
semes
##eman
shr
cho
plates
pron
outlets
mystery
Stra
span
Chand
likewise
accidents
##inking
copper
Alt
underground
##cessary
donate
1010
transfers
profound
boiler
Ark
metab
signals
valuation
healthier
earning
Plat
restoration
tries
##position
Leon
Leather
Islands
refers
protest
considerably
Coloring
glory
presenting
Orch
editors
traders
##boards
##aughters
newspapers
winds
craw
Kevin
assisted
regarded
Steu
favorites
attendees
apolog
THIS
engineer
1985
sunny
sunset
settle
professionally
partnerships
documentary
promotions
releases
soldiers
burst
vanilla
females
behaviors
cheapest
Indiana
breathing
cups
lawsuit
batteries
architectural
##_____
Defense
oxide
concentrate
Single
Knowledge
romance
encountered
Legal
rolled
undertake
proceeds
Oliver
delighted
variations
Architecture
Utah
consciousness
Urban
cherry
cabinets
tackle
homeowners
microwave
fundraising
politicians
Shopping
##oenix
democratic
Loonen
**
89
:)
AF
Ave
Gre
Job
MB
Mom
Ment
Mann
Nar
NFL
Rog
Round
Rules
SA
Ster
Sett
TK
Tus
Taking
Tampa
Wash
Wonder
XP
bass
cats
divers
daughters
fought
glow
gently
iT
mesh
pad
pays
punch
rug
rows
ruled
vel
wip
wound
wides
yog
”),
##rent
##rist
##UAF
##pg
##pot
##zona
##29
##75
##just
##TU
##TE
##Book
##inance
##inge
##edo
##ali
##rep
##omer
##eled
##stra
onions
##otte
##irable
##sement
congr
##abis
exempt
shine
chill
notch
notified
dozens
heal
compound
##agn
leisure
##ormal
intend
##achus
gov
evident
disrupt
##avan
##aug
scrap
Almost
conspir
actor
blade
sheep
Anderson
beloved
brass
grinding
boats
Shin
Howard
forming
Arena
metrics
receives
elabor
termin
Respond
understands
Phill
switched
##mediate
closest
marathon
##eshari
Syn
175
flowing
antioxid
participant
essence
Mini
Swiss
Usually
accordingly
strain
McDon
Afghan
failing
Anyway
##ALL
Firm
verified
epic
snacks
tasty
##guard
Looks
Books
demanding
appreciation
incorrect
Malibu
proteins
Organization
Summit
vitamins
angry
Constitution
highlighted
Hamilton
championship
prospective
niche
venues
Korean
##writing
merchant
Medicine
Dubai
GDPR
Cruz
experimental
Sweet
tweet
Buddhist
##commun
alleged
coordination
Lewis
TAG_UAF
##elihood
##V1_
Manhattan
TAG_UAFV1_
Boo
Cell
CAS
Da
Dak
Dag
Dru
Dental
Han
Imm
Les
MET
Nu
Pie
Snow
Tools
bidding
hired
harsh
mig
pion
ric
rival
##selling
##nr
##bes
##dale
##lon
##mont
##mitting
##oa
##was
##pad
##CO
##31
##GY
##Bay
##ни
theories
##esc
##edar
##iten
##reach
inhib
inev
##stic
revers
Theme
alph
##rais
##cka
suited
expend
##opt
enabling
##oda
##ocal
##ousing
intimate
intensive
intuitive
Stainless
query
##apse
Chamber
buck
actress
##issa
sheer
locality
Compar
donated
##ometry
brid
Dead
##ixels
skip
advances
retain
technological
handful
classification
grows
refined
promises
Phoenix
##retion
contacting
Mayor
voluntary
Amy
treats
farmer
##oked
tempor
analys
##INE
credits
Track
Feed
clicks
taxi
essays
##ORE
Region
magazines
##eseat
associate
##liminary
Prep
neglect
referring
cyl
Student
Agent
Corporate
affects
archae
Patrick
garbage
1970
Images
grandchildren
Obv
castle
profitable
countertop
encouragement
journalist
pulling
elementary
switching
shelter
Fireplace
dimensional
Franklin
concentration
nurses
governor
assumed
CO2
Beauty
Multi
Investment
##writer
Workshop
cushion
loyalty
introducing
mobility
horizont
Lovely
abandoned
Anthony
Powder
Vietnam
Ukraine
##ropractic
hazard
dessert
deleted
Arizona
Tennessee
Vitamin
Jessica
sturdy
)(
Aid
Cany
Cash
Dest
GR
Hig
IA
Jazz
Na
OM
PV
Path
Sad
Sport
dia
eager
je
lately
lane
nick
node
panc
ranks
##nings
##chen
##UB
##park
##pensive
##41
##48
##BO
##esy
##ouver
##aron
##essed
comic
##emet
shout
shield
##umen
dozen
##thernet
##aco
clips
incurred
intake
manages
Straw
##erving
##assy
partial
une
arising
thereby
offline
fires
reps
Heat
bloss
##issance
informal
owns
Prob
donation
flies
modifications
memorable
##ashi
exped
delicate
counts
valued
lightly
receiver
passenger
continually
refuse
additionally
sword
cleared
##aneous
##ucks
##uckland
14th
stepping
1992
Mediter
reasonably
160
Partner
Keen
Parents
shoppers
Swan
Includes
Brother
momentum
structural
1983
encourages
Healthy
archive
glasses
discovering
bias
verification
promotional
Ready
Generally
Morgan
smartphones
organizational
reflected
renting
optimize
wastewater
Electronic
declined
mentor
Peters
transformed
sporting
appealing
citizen
ADHD
##secutive
fortun
sacred
vocal
Applications
besides
ecosystems
True
absorb
repeatedly
publisher
kilomet
legendary
fertil
URL
Kyoto
Luxury
##ranean
amenities
remotely
uniquely
Intelligence
Edinburgh
Obviously
BIO
Dear
EL
Element
Fi
Fer
Fat
Fitz
Gun
Loss
Lane
Mort
Mission
Nad
Nach
NAS
Oz
OH
Occ
PN
PL
Rand
Sit
Spl
Six
Schol
Unt
Yuk
cv
diving
dancing
fles
gad
gam
hors
ion
jam
lively
mum
pics
pork
vice
wrap
′′
##eenth
##bag
##rest
##aic
##cence
##tor
##mate
##oard
##oza
##Data
##Pal
##UE
##fire
##66
##ür
##inely
##erness
therapeutic
##itically
##ref
##isl
##asant
threshold
##letic
##utt
rever
##oween
##ching
stap
##section
##verty
##imm
alumni
haul
fres
##iffer
##emen
##unct
##iev
Thail
soap
outer
resign
##ogg
##izations
Style
partially
scent
sciences
offset
desert
coins
##anga
Whole
twelve
poetry
poverty
##olding
bases
crunch
Prote
##elfare
insist
insulation
attain
Unc
profic
Adams
extensions
approaching
varies
Exhib
Trcka
Convention
specially
refere
electoral
18th
exploration
explicit
trucks
educate
protective
Christians
multip
countryside
waist
Enc
##owship
summar
130
dealt
cement
Feat
barg
barriers
absent
sooner
automation
functioning
cooler
drying
##ews
1987
Crimson
##linary
referr
commerce
silk
biological
Patrol
##borough
##attered
Consumer
Harris
snack
Designed
##visors
genetic
mailing
adjustment
adjustable
dedication
Interior
Bookmark
Outdoor
buried
burden
reservation
executed
calcium
pulses
islands
expanding
PRO
upgraded
meantime
briefly
departure
advisor
Hopefully
cottage
charts
flew
undertaking
renewed
Chairman
Dublin
Required
maximize
##build
obstacles
Historic
inexpensive
implications
Regardless
permits
Specific
franchise
Kennedy
uncomfortable
nonprofit
Mendoza
dolomite
Greeting
rhythm
SEEA
vacuum
avoided
semester
##emetery
Mediterranean
Thailand
,'
Aaron
Auckland
BC
Bell
Bapt
Cars
Crew
Dh
Eye
GB
Jason
Kos
LG
Mental
PI
Pure
Pok
RS
Rod
Sustain
Ta
Ton
Trib
Vice
Wire
Winner
bored
cents
dense
dying
gem
gaps
hem
kits
migration
nurt
nurse
pale
rays
ramp
rides
sights
woof
##boy
##bird
##rade
##don
##losed
##ciliation
##uments
##urolog
##tails
##oom
##UD
##vals
##BI
##_EX
##inters
##atri
##enh
##omat
thirty
##lee
beings
##otes
stall
stove
anonymous
##ulk
##aki
fridge
##mentia
ate
sewing
##unting
shy
##oping
chun
chamber
Thom
Thai
##agger
##cca
incidents
tends
permal
perpet
##assador
union
unve
newer
peers
##osecond
preference
desires
wellness
beta
vegg
relatives
highway
finals
Dean
Depending
discoura
modes
##azawa
delays
defines
marketplace
particles
Sciences
Plate
classified
Indoor
header
188
glam
explores
Ord
drum
Appar
humid
1990s
supervisor
summit
##ropri
discusses
Compet
##erald
##screen
##ORK
updating
examined
woods
moral
##ACT
embark
Healthcare
lifting
bullet
Conservation
farms
consisting
Lawrence
INC
reportedly
judges
1960
nationally
Magic
Anti
##ettes
fashioned
Lightroom
PayPal
psychological
denied
journalism
ample
44AD
Maintenance
tuned
homemade
Tableegh
uploaded
Between
##iculous
Testament
REAL
Olympics
brewery
instructional
counseling
distinctive
Circle
Potter
penalties
weakness
clarity
dentist
Foreign
legislative
summary
recruitment
Princip
Universal
Innovation
companion
landlord
Volunteer
Palestinian
Vacation
theoret
membrane
Gordon
unnecessary
Degree
Steuermann
permalink
82
83
Ale
BY
Bio
DM
Fra
Fine
Fish
Gh
Gould
Gates
GPS
IoT
Jen
Ku
Lion
Liver
MF
Poll
Present
Paper
TS
TLS
Tennis
WP
WA
bats
bamboo
dot
fur
fisher
ghost
lakes
lighter
lounge
mere
nour
slo
tension
##iro
##iations
##gra
##gate
##kal
##case
##oft
##pread
##vens
##OX
##55
##around
##lend
ster
stakes
##sea
##imity
proceedings
whiting
consecutive
##istol
ships
shadow
##opher
pla
resem
##izar
##aph
##rub
disk
pean
impair
aggreg
amid
##angle
traged
consume
shoulders
afterwards
crushing
Prop
Seven
monument
simmer
branch
discretion
transpl
booth
postc
posters
##upid
polls
ears
Tea
Truth
Script
distant
confusing
passport
patrol
directors
slots
devast
##ika
paste
##ERT
##tedly
lands
##boat
steering
superv
Carbon
##enna
Desk
##umbled
positioned
Swift
amazed
##shore
baseball
##ventions
rounds
grades
graduates
targeting
squad
furnish
touching
immigrants
28th
silent
silly
conducting
alternate
celebrations
candle
##ammad
innovations
firmly
avoiding
Metadata
weekends
Joe
Emily
relaxation
utilizing
roller
cruise
Improve
pupil
seniors
schedules
journalists
##arrass
configured
joints
sponsor
Cathedral
##itarian
simpler
Administr
##habil
beside
converted
strictly
enthusiasm
penet
delayed
Medicare
molecular
Ashley
mechanisms
stimul
aspir
GPLAC
rustic
Installation
Clarke
vinegar
Floor
cultivation
seminar
Analytics
consolidation
acknowledged
Budget
obligations
Kanazawa
exchanges
attributed
accredited
constraints
Purchase
Production
cryptocurrency
magnificent
##oubtedly
namely
McDonald
Dakota
Canyon
Until
flesh
gadget
91
Ald
Abs
Bush
DE
Focus
Fashion
Ground
GHz
Hong
Jam
JIN
Kill
Lor
Luck
Mine
Ni
NS
Pixel
Rh
RC
Sic
Sleep
TN
Wedd
Yu
bol
cam
damp
dimin
ele
gel
gates
lbs
lining
maker
ta
tear
tones
tribute
wore
wax
##eals
##iy
##ni
##lad
##lining
##cler
##mith
##VA
##ée
##inction
##erie
##edge
inaug
##robe
##stairs
##uto
reun
static
stiff
proactive
prostate
conform
##oooo
##ako
extends
##aine
shipped
enquir
##ourse
heel
composing
reson
##izable
partly
##ensively
scary
Chat
Choice
interf
trap
indu
indul
Wholesale
consensus
undergraduate
Heavy
regret
blast
assure
assists
crimes
##aware
cheer
Shipping
##ceptable
Arri
Claim
Adachi
payday
approached
centres
restored
trials
specializes
hardwood
##mann
opera
refresh
prototype
elite
activation
activists
Results
##beat
joke
practicing
Princess
educated
clearing
musician
margins
Syrian
Guy
picks
##cribers
downloading
downloaded
##ANT
breakdown
##ARD
extraction
Grant
Abu
logic
manufacture
Edward
Editor
curved
residing
animated
biology
warmth
assessed
attempted
##market
promoted
consultants
thankful
Glad
influences
Otherwise
1967
reflecting
Speaking
literacy
timing
sustained
letterhead
Avoid
fatal
Visual
##rosse
prayers
Jerry
Virgo
struggled
##cycle
Halloween
perspectives
Jean
ampl
Safe
pursuant
occupation
hydro
diagnostic
Landing
concentr
enterprises
recipient
tricky
pilgr
surgical
substantially
breweries
Solar
Collabor
Ultra
Especially
discipline
publishers
Processing
renovation
buffet
phenomen
procurement
Dietary
festivals
##iblical
Primary
Kansas
##employ
aggressive
Captain
Objective
Jaipur
complimentary
divorce
Greece
warehouse
gauge
credentials
TK_EX
iTunes
widespread
JINR
TK_EXAM
("
430
92
BS
Bron
Browse
Cass
Cold
Cedar
Dual
Dave
Dana
DNA
Eleg
Gov
Hal
Hab
Hans
HERE
LL
Late
Mum
Ott
Ross
SL
Sens
Tel
Upper
bump
baked
cigar
dough
dictionary
fax
gene
gaining
gypsum
jaw
kiss
loos
nerve
oak
pc
pel
pension
pinterest
rugs
sons
villa
wings
wool
##eing
##note
##bell
##rint
##rams
##km
##cules
##uations
##uco
##69
##CP
##Net
##42
##45
##hett
##initely
##esign
##organ
##omers
##etts
##storm
##uru
##othing
##irational
iter
wholesale
comfy
##ighth
sends
##anth
##empl
shifts
shaft
shampoo
##umat
chains
socc
compress
##ptions
##inds
##ocate
Weeke
Stage
feas
##ountain
uncle
1940
actors
syrup
##erty
informative
locals
insured
finances
Unless
avoc
mineral
##eneg
meditation
##iolet
##lando
Beat
Beyond
Beij
##arming
entities
corruption
costume
confront
passive
128
equation
##aja
Brid
##being
Orlando
Suz
loft
protects
Ens
marble
dealers
Carib
Instruct
##enny
environmentally
##liest
barrier
comfortably
textures
assisting
honored
branding
Switch
##mington
significance
missions
Griff
arrest
statut
utter
curve
##ACH
1984
Prepar
priorities
cycling
Corp
silence
Transformation
celebrity
circulation
genre
ultras
filler
tenants
analysts
volunteering
Magn
undoubtedly
hoped
Woodstock
fraction
dropping
Democrat
Certificate
irre
ingredient
Volume
nomine
Expert
Maintain
ancest
ONE
Options
advisory
tricks
fulfilling
Horse
varying
MP3
polyester
motivation
lyrics
illustrated
reinfor
Oslo
dramatically
Hawai
Charlotte
Susan
conservative
BBQ
abundance
receptor
Jamaat
Excellent
Café
libraries
Celebr
spatial
Vancouver
##Query
corporations
behaviour
Future
conspiracy
soccer
Beijing
""
)?
,’
310
93
Bend
Born
Carm
DR
DEC
Ey
Eind
Fail
Gard
Hu
Hack
Homes
Java
ME
MW
None
Obs
OEM
TP
Tony
Touch
coc
fool
gast
pengu
tv
tier
wires
##iop
##iators
##nels
##bound
##bane
##gie
##hill
##lb
##uka
##mn
##will
##pre
##fig
##SL
theat
theft
##orate
##ouri
toe
##ications
thir
##rot
beverage
##olo
stere
##amar
Therapy
alerts
comedy
framing
shore
shades
chim
chalk
notify
##andal
##ellor
##quet
lending
##acon
resil
resolutions
incon
##sover
quit
unm
scra
preliminary
deserves
coating
firing
bugs
colonial
twin
betting
backing
blasting
##ictions
deciding
persu
homepage
monster
belts
deter
subur
##azy
boil
serial
handmade
Whenever
funeral
excuse
Attend
Plans
passage
giveaway
applicant
salmon
practically
##iku
Spa
Door
installations
##braska
keyboard
keyword
##iodiversity
Contem
competent
audi
traveled
necessity
warned
participated
globally
planting
Regular
cannabis
comparing
solved
225
inflation
Associates
divine
announces
describing
qualifications
adjacent
destruction
achievements
Patio
##iffany
Harvard
Progress
eaten
stressed
##visory
influential
literary
backgrounds
timeless
darkness
misunder
Payment
reveals
clouds
Evan
exhibit
declare
UAFAuth
ethics
robot
Listen
occupied
angles
dynamics
Bali
Francis
banner
complications
Protect
pedal
thrilled
Massachus
criticism
gateway
Collins
moistur
durability
wicket
affiliates
Partnership
Epis
stirring
cocktail
advertisements
Snap
villages
frustrating
overlooking
holistic
Traditional
deductible
proportion
rendered
controversial
Crystal
welding
practitioners
Bryan
proximity
tremendous
##manship
prestigious
Vehicle
sacrifice
Oscar
Vermont
MySQL
Lebanon
fossil
Elementary
phenomenon
UAFAuthnr
Massachusetts
.;
.'
.’
?)
Cisco
Eli
Eval
Fill
Fif
Fury
Il
Iss
Jules
Ko
Kap
LC
Math
Nich
Pun
Pain
Pump
RV
Rout
Ruth
Sample
VM
Vers
Wat
Wear
Wars
cant
cure
cree
dos
dip
dub
dwell
google
jury
lid
melt
ram
rab
ranges
ruling
sor
tanks
vig
vivid
void
wanna
zones
##iencies
##normal
##bie
##gly
##coon
##ucc
##tim
##matic
##PG
##ping
##ponse
##MI
##57
##Sh
##88
##TT
##ре
##heet
##inence
##eran
##onnect
##atomy
##esity
##ndra
##itas
tox
##icon
##icide
##ompass
##asion
##elier
revel
propri
procl
##essions
fried
##cking
sung
##ortion
##rix
##usters
shipment
##oped
##andin
Inside
compiled
##izers
incoming
inclusive
pertain
spite
unemploy
##aved
needle
##ensing
spends
scroll
##tec
imposed
accused
offense
safer
##ovo
additions
Alice
Whilst
considers
repay
1930
vegan
invites
Nebraska
##oba
moncler
imaging
prescription
preserved
memor
retention
defence
tops
Trading
classical
lett
controlling
matched
promo
gloss
##lishing
prevents
creator
Commons
installment
encry
loveseat
stepped
Mechan
Enh
marvel
13th
##afood
combining
Traffic
24th
Parts
##inoa
##scape
Pareto
Parker
##mingham
Gran
Deputy
Incre
integrating
##2010
logged
1980
balcon
negl
Saturn
arriving
decoration
decorations
##OME
assessments
Wheat
Directors
attracted
snap
surprises
circular
tasting
stressful
Disp
gardening
Metal
Metro
sticky
sticking
evaluating
threatened
rankings
Evans
contributing
Specialist
harmful
##presso
Campus
railroad
Philip
Safari
Academic
simplicity
malaria
escal
Entertain
Reviews
blessing
scholarship
inquiries
tattoos
symbols
defeat
defeated
molecules
Cabinet
deployment
vessel
unwanted
##Commerce
linear
infections
amendment
attachment
homeowner
culinary
Cultural
incentive
chapters
inflammation
Birmingham
Nobody
Brooklyn
defects
Veterans
jurisdiction
quilts
Pitts
Buffalo
Enterprise
Tickets
tropical
Imagine
congrat
Afghanistan
fortunate
Yukon
480
ACC
Belt
Battle
Cad
Close
Emma
File
Gem
Gulf
Hart
Hence
Happ
Jump
KG
Lakes
Lots
Male
Nash
Ot
Perm
Rah
Ranch
SK
Ted
UA
VIP
Wik
Woman
Yang
Yoz
ber
bot
dign
gang
greens
gospel
hi
hamper
jar
lol
mes
ore
pap
rally
races
sch
tong
tire
tires
аnd
по
##brew
##kward
##aS
##cr
##cled
##uana
##mers
##DAY
##Pl
##Point
##fu
##feed
##OO
##ju
##EW
##EAR
##оm
thesis
##orative
##iche
##star
fork
##olas
##adows
Ther
itiner
##imen
ankle
ornament
combo
sup
##ante
##unge
shake
shame
##umph
##through
abnormal
##oca
##ocyt
##ipedia
Items
##soever
Stri
Stamp
spam
spell
spine
##lov
unav
unfor
army
##plates
bug
trauma
nobody
consc
acted
pockets
relates
##weet
buses
instances
inviting
invoice
##gett
Comments
downs
flor
flip
preschool
prescribed
Deanna
