#version: 0.2
t h
i n
a n
e r
o n
r e
th e
a t
o r
o u
e n
e s
a l
i s
t o
in g
an d
e d
a r
i t
o f
a s
i c
l e
s t
i on
o m
i l
en t
a c
e l
r o
y ou
f or
s e
c h
v e
b e
h e
a d
o w
l y
i d
a y
a m
o l
e t
i m
i th
i g
v er
a re
c t
w h
at ion
o t
th at
w ith
a b
s u
t er
u s
u n
u t
i r
c e
a g
u r
c om
p ro
l o
c on
il l
er s
al l
t r
n e
e m
T he
a p
m o
o p
i f
u l
p l
ou r
es s
e x
es t
k e
w e
re s
d e
f r
h a
er e
ou t
you r
p e
ig h
s h
s o
at e
a in
m ent
q u
ou n
ar t
an t
on e
it y
p er
ha ve
c an
T h
l d
w as
i es
i v
i ve
o d
th is
p r
th er
b y
fr om
ac t
w or
n ot
w ill
p o
is t
t e
u m
an y
or t
c l
igh t
ar d
en d
d o
om e
f e
in d
u p
i al
u st
c o
g e
I n
g r
i p
el l
ou ld
m e
g o
g h
ab le
id e
o k
i e
2 0
in e
u d
b ut
h as
ac k
a k
e ar
ic e
ag e
al ly
u re
a v
p ort
< /
t im
as t
ou gh
d er
ac h
com p
l i
ion s
wor k
a ke
b o
for m
i re
ic h
c re
n ow
mo re
ver y
u se
s er
the ir
m y
at ed
oun d
d u
i z
it e
a il
d ay
a f
w ay
an s
f er
the y
f o
g et
c k
t s
ou s
on g
s p
e v
as s
i b
ow n
s ome
an ce
it s
o ther
ab out
en ce
ig n
I t
is h
wh ich
0 0
ac e
tim e
W e
p art
st r
c r
b r
th ing
am e
i a
b er
con t
p re
n o
as e
Th is
d is
al so
wh o
y ear
el y
ne w
c ess
. .
e p
ct ion
b l
W h
ent s
ar k
ic k
o ver
f ul
i le
re n
A n
ar y
ation s
ic al
re e
t y
m an
in ter
20 1
in t
it ion
ne ed
a w
C h
com m
pro v
the m
li ke
s pe
h is
d r
p h
p le
po s
wh en
re at
c ial
th ere
d es
S t
l l
h el
en s
or s
be en
p res
of f
wh at
j ust
h er
c ol
th an
h ow
c or
l ow
in k
il d
k now
ser v
t ing
w ould
an g
ch o
u e
mo st
e f
f ir
o g
at er
t w
c ent
h ad
v el
c a
b u
w ere
c us
c i
ol d
ad d
Y ou
ad e
m er
in to
en c
n ing
s a
op le
hel p
m in
c ur
th r
re ad
w ell
m ake
o b
or y
s y
lo ok
f in
I f
r y
c oun
ver s
at ing
in cl
m ay
ro w
a u
pro du
pe ople
b ack
1 9
on ly
j e
ic es
fo re
o se
ap p
re g
) .
thr ough
at es
se e
pl ay
be t
h igh
H e
a ir
i an
p t
fir st
e very
le ct
v is
u al
un der
d if
i ed
su p
at t
com e
fe ct
w ant
su r
ment s
the se
wh ere
f l
i ous
c er
le t
it ies
m on
ex per
l ine
je ct
m any
m ed
in ess
to p
ul t
ie w
A s
re d
b us
se t
if ic
ar ch
ing s
t ain
to m
the n
p ers
en er
ca use
c ar
d on
g u
re l
R e
st ud
o s
an k
is e
il y
st and
in v
it t
ib le
d own
re qu
tw o
res s
go od
c al
su re
m ark
1 0
F or
U n
on s
g reat
tr y
f un
ev en
if e
le ar
ic t
e ver
s el
af ter
u ch
ur n
r ight
l es
form ation
v iew
year s
d el
l ess
a th
il ity
b est
c ould
s he
sh ould
st em
f ind
ak ing
an ge
us ed
st art
incl ud
ation al
as ed
y s
e k
h o
des ign
l and
u res
s ite
su ch
C om
ul ar
w r
al s
h ome
bo ok
bus iness
is s
en g
c es
C on
al th
An d
s m
d s
em ent
s s
m uch
l ong
j o
b le
h ere
ic s
m em
t ake
dif fer
i x
at ive
in s
N e
g an
l ight
c ed
u bl
pers on
ol og
su b
T r
at ch
in formation
way s
b el
e ach
i o
e as
ro om
sh ow
ur ing
m ade
f am
s im
c all
gr am
r a
m ain
ex t
id ent
vel op
con s
sa id
be cause
sy stem
n er
ter n
exper i
su l
as h
str u
) ,
produ ct
Th ere
c are
de velop
f act
A l
prov id
w ard
in st
a x
con d
l ar
pe ct
it ed
pl ace
th ink
l ife
n um
be ing
v en
s ol
u b
d id
s k
tr ans
v ed
th ose
ch n
h and
P ro
m s
we b
cho ol
c lo
al k
wor ld
l ed
do es
ag es
ar r
S o
em p
be fore
al ity
we ek
A r
a z
s ay
v al
ch e
f ol
re t
v ing
d et
as k
an n
am p
20 0
t en
wh ile
F r
p ut
iz e
pr of
c our
iv es
l ot
th ough
O n
ou se
f ree
sh ip
ch ar
B ut
d ing
mark et
ou p
E n
ag ain
se arch
H ow
i vers
iv ing
us ing
at a
po st
l ast
sup port
c ap
ar ound
l ist
differ ent
p ol
pro cess
T o
ren t
D e
ire ct
sel f
ion al
g l
es e
pl ic
ow er
p ur
of fer
f ic
av ail
le ad
comm un
S e
s ide
.. .
ter s
re ally
pro gram
to o
u g
i ent
The y
P r
go ing
ch ild
ak es
in ce
B e
p ubl
i or
Ne w
le g
te chn
it ing
im port
o od
a ve
co ver
o c
he ad
h im
n ess
s ing
f il
s ign
all ow
de c
t on
as on
te am
w ater
r un
we en
fe el
bu ild
i ver
b lo
i end
pres ent
avail able
E x
C l
pos s
s ame
bo th
B o
p ay
3 0
serv ice
v ar
s to
g ener
ar m
po int
f ound
re al
st ill
ad v
comp any
bet ween
s al
id er
iz ed
at ure
p ar
or gan
i er
lo ad
pl an
lo ve
ce pt
ke ep
or der
c le
b re
Wh at
c ut
1 2
N o
ire d
m iss
M o
fe w
Wh en
p at
n et
A d
v es
s it
B r
i el
mon th
et y
ex p
experi ence
pro ject
fol low
itt le
in es
inter est
5 0
fr iend
op t
g y
h app
sm all
he alth
is su
in cre
op en
num ber
includ ing
P l
res p
d ata
C o
G r
tr act
ant s
serv ices
S h
lo c
part ic
re sul
s chool
co st
ab ility
qu e
it al
p ass
op er
ro ss
cl ass
m ust
u ally
fam ily
A ll
g g
ex am
thing s
prov ide
it ch
olog y
th ree
lo y
l ittle
g ot
b ers
al ways
1 8
00 0
le vel
on line
c y
or d
ef fect
W ith
g row
spe c
m a
with out
d irect
ic ally
import ant
w on
pres s
R o
per form
ur al
O ur
d uring
qu ality
p ower
for t
b ased
read y
ent er
spe cial
ap h
i ents
un t
re st
a ther
cont in
pro per
re ce
L e
bet ter
b od
A t
ed u
qu est
1 5
u de
et s
su m
man ag
ish ed
jo y
ne x
v ir
are a
m et
a ut
de p
g ive
I s
U S
ch ange
pro ble
ist s
b ig
ful l
t est
some thing
gr oup
ap pro
c cess
m us
tr i
ac cess
v ent
cus tom
ar s
nex t
f ac
coun t
g er
h ouse
f f
day s
m ight
p ly
mer ic
h ard
b ab
one y
p are
c as
o th
ard s
work ing
am es
on t
ut ion
at ely
A meric
with in
s of
cur rent
ent ial
ph o
re port
an other
comp le
our s
inv est
r ic
tr ain
S er
com es
so ci
b al
Th at
c ell
pr om
i k
lo cal
l a
pr act
S he
C ol
look ing
cont ro
pl ac
iv id
1 1
act iv
l aw
m aking
ust r
l im
sh are
el s
prof ess
Ch r
ch ang
cons ider
publ ic
s ince
um p
J o
pho to
le ase
M y
ne ver
e qu
ap plic
add ition
en se
L o
O r
p op
to day
D o
b en
me et
ke y
stud ents
under stand
b ro
at or
E R
mo ve
gr aph
bod y
c ase
u es
on d
b it
g in
a h
fo od
ivers ity
cour se
g ame
a im
t ed
need s
enc y
stru ct
D r
product s
web site
R es
re search
st ate
or k
h old
che ck
s c
tri but
bu y
a way
i um
m ill
at ter
on es
pro te
poss ible
end ing
In d
ap pe
b or
v ide
h ist
m ind
em s
ot e
ge ther
j ob
tr u
f t
c u
M an
sh op
child ren
ie ve
C an
iv en
lear n
f ace
su ccess
op e
ev ent
con ne
tr a
Th ese
us h
n ight
d em
n or
! !
end ed
un d
p or
p ain
g re
enc es
b ed
A f
t em
c ame
eas y
I N
st e
iv ed
st y
p ing
m oney
ful ly
tr ad
p ot
vis it
le ction
en joy
p age
ail s
b as
th or
to gether
lar ge
emp loy
er y
. "
iel d
is ter
if ied
1 4
n ame
B l
1 6
ou th
ex pect
O ne
p ed
com ing
min ut
d i
c lear
se ver
2 5
cre ate
P h
se cond
at s
al e
i que
unt il
e lect
ne ar
k ind
iz ation
l ing
ater ial
ap er
if y
t urn
r is
C oun
al ong
it ions
commun ity
of ten
be aut
w in
wh y
person al
h um
s w
un ch
fo cus
as ter
to w
ill s
re view
is m
per fect
b all
d ate
mem ber
e y
A N
ivid ual
cer tain
is tr
w he
u ro
v ol
m en
, ”
ic le
tim es
A p
go ver
ur y
t reat
at ures
ha ving
o re
gr ound
s on
im e
T e
de v
spec ific
comp an
in al
cont act
h ol
st at
again st
N or
l ab
Th ank
a ud
incl ude
p ack
or ies
s ch
m aterial
h ot
requ ire
li k
f our
is ed
ne y
work s
iv ely
n on
1 3
re cor
re am
p an
port un
G od
2 4
re f
mo del
Chr ist
ben ef
R E
af f
vir on
w om
ind ividual
1 00
id s
is ion
d one
Af ter
pr ice
i ke
n am
h y
t alk
G o
n ment
h ip
me ans
in a
1 7
. ,
n ational
inst all
te ach
mem bers
p ast
sp ace
M ar
re cent
k s
op portun
st ep
sh ort
l ink
be come
contro l
t ell
develop ment
ro p
f ar
so cial
it er
cre d
ar ing
edu c
O N
m akes
cr ip
m it
tr av
if ul
A T
know n
w ood
it ive
de al
qu ick
v ious
f lo
- -
oth ers
h al
le y
p ie
coun try
j or
s ell
to ol
ph one
act ion
st er
mus ic
l ive
w alk
f ut
pur ch
ust ry
m ult
en ough
Un iversity
How ever
cle an
pro ve
is ing
u ck
con f
ate g
sever al
ac ross
ind ow
A c
r ound
get ting
call ed
ir d
al ready
w a
do or
* *
le ft
A m
con om
w w
a id
miss ion
h ours
C ar
Y our
bo ard
201 8
f av
M ay
an al
n at
pe cial
conne ct
o ve
build ing
un e
th od
viron ment
var i
re m
t al
cont ent
c ity
g en
bel ow
D es
r ange
pl ain
ty p
and s
ie f
P o
se ason
d om
do ing
I T
ag o
pr iv
id ay
oun t
pos ition
g n
br ing
im p
4 0
comp et
19 9
f ield
off ers
ens ive
comp let
or ig
fut ure
fin an
ough t
vide o
el f
d ed
n g
compan ies
add ress
partic ular
in ation
ro ad
ith er
com b
c ing
u su
re du
cor ding
ma jor
d am
cont ain
b ar
me an
s top
d en
st ay
m il
act ually
c amp
ap s
w ide
m om
val ue
s cre
on ce
de fin
fr ont
In tern
ind ustry
st ory
exam ple
inv ol
crip t
gr ad
v i
sol ut
re ach
ro ll
ty pe
s l
start ed
ur ther
f low
ac y
p ict
g ar
c ard
id es
ip s
str ong
in ed
if t
off ic
O f
I S
ch all
custom ers
n ers
bo x
6 0
m al
re ason
om et
f ast
cus s
ret urn
minut es
did n
cur ity
il ities
beaut iful
stud y
an ces
proble m
r on
le ast
per i
t able
G u
il t
an e
down load
f ill
Ser v
tow n
F e
A S
f it
ple ase
su per
ou ch
dep end
M ed
resp ons
does n
ear ly
w atch
en n
sp ir
S y
techn ology
E S
s our
fe atures
m ot
re comm
m ar
M e
im es
con cer
t ax
ure d
mill ion
g iven
in ts
ot s
Americ an
e le
ac count
comple te
be gin
cl aim
E uro
led ge
ou d
every thing
ab ove
t aking
to mer
A R
in o
re le
p air
bre ak
he art
gover nment
cent er
re main
char ac
provid es
M in
proper ty
ct or
du e
issu es
d ist
en vironment
S te
profess ional
fer ence
month s
pare n
D is
b ur
s ound
g ed
S p
ward s
though t
ur ch
resul ts
re co
M on
me thod
tr ack
hal f
sim ple
h n
fl u
S ome
e conom
au thor
p ick
are d
f all
pre t
res h
at ic
tw are
sur ance
say s
v o
im prove
y et
ho st
u ary
de f
to ok
m ag
pr int
quest ions
l ater
friend s
P lease
c op
N ot
ak en
d ig
iv al
requ ired
manag ement
c ult
w all
for d
P er
ne cess
i ate
O R
train ing
A C
ul l
t ar
it ut
au gh
sty le
se lect
sing le
p aper
i ans
ver t
201 7
s ize
du ct
N ow
perform ance
ib ility
w ent
us es
col or
var ious
Wh ile
8 0
b ot
are as
em ail
trav el
design ed
h ope
dis cuss
it or
se en
who le
follow ing
A L
ic y
happ en
sh o
med ia
il ar
ul ation
m ber
some one
C he
W or
wor d
m ach
B y
le ge
need ed
C r
av ing
id ence
m p
com fort
per cent
it ical
g lo
B u
ass ist
g est
issu e
won der
s ci
l iving
w er
mo b
ide a
r ate
con tract
whe ther
u ation
rel ation
finan cial
c ast
clo se
c ou
peri od
Euro pe
m id
ph ys
nat ural
appro ach
n ed
f ive
wr iting
a i
m ix
Jo hn
spe ct
ener gy
cho ose
am ount
dr aw
det er
im m
me as
ha ir
T H
C al
ab l
n al
, "
un ique
do cu
ic ation
off ice
in c
system s
en sure
a ur
po se
ent ire
pl es
st aff
qu ite
fo ot
eng ine
u ter
co ok
ent ion
ex c
am ong
201 9
pecial ly
equ ip
cus tomer
e ither
m or
res our
fun ction
Con t
f urther
your self
sim ply
cl ick
opt ions
provid ed
ent ly
b and
wom en
es pecially
hist ory
sit es
h t
l at
in ing
s at
ap e
hum an
br and
p et
w ar
wor th
ex ist
D on
S u
2 2
ser ies
vers ion
sel ves
ir l
g ain
partic ip
ag ed
in it
J ust
res ident
S outh
prote ct
rel ated
as ing
I C
port s
ter m
resul t
fe e
m ess
t our
I D
az ing
pot ential
know ledge
u fact
mo der
us er
s af
le x
blo g
pos ed
lik ely
itt ed
o il
wh ite
ab les
est s
for ward
so on
sof tware
bab y
su gg
h om
bel ieve
2 3
r al
id ed
ang u
includ es
H ere
you ng
applic ation
any thing
E N
b ank
every one
pop ular
b on
en e
Un ited
st or
er ing
g es
m atch
ag ing
h on
sign ific
bl ack
col lect
t aken
ev ents
t re
w el
A P
reg ard
fav or
cred it
t ext
ast ic
C or
cl ients
chang es
Q u
er al
p en
dif fic
ip le
ck s
se curity
p ark
t ren
C ity
d ou
et c
l ic
H is
el se
E D
S un
add ed
proble ms
quest ion
S chool
are n
cre ated
F l
part y
i res
fil m
w ish
ition al
wor ds
b ill
scre en
re present
te gr
new s
al most
stru ction
sto re
fir m
re ct
no v
we ight
201 6
b ad
det ails
on y
del iver
at ors
bab ly
ide as
comm on
est abl
bu ilt
d y
s en
s ent
part ment
ris k
g ames
itch en
want ed
how ever
loc ated
pl ant
H igh
ic ro
us ers
e e
se em
Nor th
sub ject
imp act
P ark
usu ally
c ir
f ire
C O
M ark
through out
P art
re et
er r
Fr om
A M
ple ment
sal es
F in
a ver
m atter
opportun ity
g iving
ific ation
v ia
w ed
rece ive
b i
relation ship
f ile
opt ion
t it
g ing
N ational
A pr
act ive
lear ning
er t
ro le
2 1
. ”
h ind
j our
m as
su it
sim ilar
M r
s pr
fam il
try ing
ay s
end s
r ad
ra ther
Com p
ex tra
th ird
hel d
In st
as soci
im age
in surance
sk ills
happ y
ish ing
activ ities
signific ant
is es
an ced
s le
reg ular
ch es
St ate
ve h
f ix
E d
pract ice
P e
fe ature
book s
res pect
7 0
current ly
at form
A u
reco gn
contin ue
u ge
for ce
S c
educ ation
g ress
ro du
land s
pro bably
man ufact
St ud
is n
ef fic
Wor ld
2 6
B ar
t akes
s ix
J an
el t
tr ies
h or
read ing
s es
incre ase
an im
su n
mob ile
offic ial
po ints
Y ork
leg al
s ess
n ur
se m
ail y
dr ive
omet imes
cor por
project s
low er
market ing
ac c
au tom
cr ib
pre vious
dis play
h am
h ar
eas ily
e cut
lo g
u x
out side
priv ate
Re g
sof t
S E
necess ary
H er
sk in
Thank s
I m
ex act
indow s
get s
p s
l er
grow th
dr y
cr u
ic a
do g
c up
vis ion
ac cept
gener al
pret ty
treat ment
b ud
s ed
moder n
se ction
W ill
diffic ult
addition al
Ad d
contin u
loc ation
high er
cho ice
co de
tr ue
effect ive
run ning
am azing
h ib
ul es
stand ard
to ld
201 5
main tain
ob ject
in tegr
U K
et er
mo v
s mo
rece ived
charac ter
T w
co ol
C ent
P ol
orig inal
d rop
k ids
f ig
flo or
app ly
te e
le ave
l angu
spe ak
ac cording
istr ation
produ ction
to tal
s we
b ir
ex cell
lab or
t le
S T
itt en
ad a
lo ss
is on
id ge
show s
t ouch
ag re
st ain
as es
iz ing
set ting
Coun ty
co re
it ems
ins ide
cover ed
/ /
up on
fin al
week s
ann oun
appe ar
i ence
am er
sugg est
lo ck
9 0
allow s
E very
k ing
sup pl
b row
vari ety
am a
pl atform
2 7
Apr il
T V
ce ed
En g
u ff
comp uter
og le
S ep
enc ed
comm er
recomm end
can not
se qu
A re
program s
cr af
w are
re fer
purch ase
ic ated
net work
f resh
lat est
We b
ent al
be hind
part s
art icle
cost s
includ ed
long er
pr ior
I P
sa fe
J une
any one
H o
Ar t
G e
ab ly
cor rect
s ens
ce le
typ es
exp lo
f ail
sum mer
fe ed
room s
J u
quick ly
spe ed
provid ing
con tribut
ans wer
I I
tr ip
F ir
Mo re
G et
h it
il le
sh all
C enter
b ase
e es
work ed
an a
lead ing
l ate
re member
no thing
Th en
sa ve
3 5
int rodu
n s
A ct
pie ce
W ork
requ est
pat ients
con st
ad min
Al so
U p
S m
cer t
A ustr
reg ister
cele br
P ar
D ev
sal e
pre pare
" .
m un
g as
ter ms
av o
l ives
D ay
inter national
L et
St ates
sol ution
ight s
look s
s ong
mo d
Mo st
in ary
pr im
201 4
l ay
m at
material s
chall eng
pr ices
l if
m ine
qu al
n ice
2 8
b ath
lead ers
se ems
tool s
s il
d le
com pl
mom ent
resp on
G er
meet ing
V al
de ep
cond itions
ht t
im um
stud ent
p ath
comm it
he av
w ise
equip ment
det ail
bor n
i am
expect ed
ad em
ask ed
af fect
b an
ter r
.. ..
cou ple
O S
S at
ist ic
Man ag
se par
go al
prov ed
med ical
pre vent
re pair
cond ition
M arch
r u
ap pl
ap point
gl ass
tr ust
4 5
solut ions
ex plain
A ir
m ail
in j
ag r
ell ow
t ies
: //
resour ces
ic les
cas es
i qu
high ly
c il
m ass
Go ogle
k itchen
i et
ys is
recent ly
saf ety
wr itten
lim ited
av es
mo ved
A b
d aily
la unch
mor ning
An y
iz es
ens ion
inst e
s ense
im med
h our
recor d
exper t
v ot
H ouse
g irl
se ts
He alth
pol icy
enc our
c ul
col lection
b t
invol ved
wr ite
organ ization
On ce
care er
M us
ct ions
pre ci
H ome
Fir st
in ner
ar ter
W est
dig ital
L on
act ions
2 9
A D
R ep
g ives
blo ck
G re
f a
its elf
s aw
sour ce
su f
cript ion
lot s
O ff
ard en
201 3
coun tries
Intern ational
n es
m ing
mo ving
glo bal
M c
aw are
e ase
cl us
require ments
up d
ear ch
dec ision
l ines
gre en
rest aur
M any
H ar
s end
Austr al
ho od
W ell
ex cept
t ic
ex press
A fr
O c
b ag
f air
ment ion
oun tain
level s
inste ad
pl ans
excell ent
benef its
F o
help s
n a
r ing
S im
ser ve
ess ential
char ge
adv ant
p m
se c
favor ite
he ar
B us
s cal
interest ing
sur pr
docu ment
ad es
s qu
En gl
go es
E ven
them selves
direct ly
ww w
id ing
19 8
Bo ok
att ention
n y
sto ck
str ate
t ask
P re
h uge
mach ine
it es
ch ance
plac es
z e
ren g
v an
ct ure
em er
Engl ish
S an
not e
langu age
r out
a ign
Des ign
Lon don
de ath
f urn
po ol
my self
at tract
ch urch
at ory
or g
” .
b s
end er
oc cur
im plement
serv ed
ict ion
r ich
h ab
c ross
Bl ack
cre ating
commer cial
G reat
i ers
As soci
tren d
success ful
n ut
p aid
mult iple
he at
dec ided
paren ts
con sul
Americ a
own ers
cons ist
trad itional
plan ning
im ages
pict ure
g old
f re
R O
D av
develop ed
at o
lo st
think ing
Serv ice
F ree
g ree
us s
c and
re lease
u k
str ateg
im ate
Wh y
P C
group s
ubl ic
A ug
er ous
J e
m m
re as
pre m
d est
dis tribut
stor age
cop y
h ous
k y
let ter
stand ing
w arm
In ter
s n
S al
photo s
P resident
at ives
M S
c ash
a ul
ac qu
201 2
play ing
st ream
ach ieve
O ver
Ind ia
s ort
sp end
aver age
comple x
tar get
um e
in form
st reng
ol ution
ex ecut
complet ely
Br it
5 00
S up
cl ient
form er
dr ink
3 6
L L
ser ious
interest ed
s is
ent ry
applic ations
n ature
att ack
on to
t ur
em ents
play ers
plac ed
n ia
es ter
t ick
dev ice
ve y
R em
pay ment
con struction
D irect
h aps
b ow
to wards
ie ved
cre t
U R
7 5
r ain
E T
S ince
ro ck
G ener
h op
hand s
business es
appro pr
ur s
K e
k er
ill ed
iv ity
pre fer
Fr iday
O T
m ax
un g
consider ed
understand ing
Christ mas
ig ation
prom ot
reg ul
cour t
U N
u el
Ch ar
en ge
n ation
ers on
ib ly
Ju ly
d iv
er c
profess ion
E l
s am
ar ant
G l
ot t
view s
ac es
it ure
R ed
de cor
car ry
be gan
post ed
u ate
be came
bro ad
S ch
s po
it ation
i very
in nov
exact ly
N et
c ateg
r up
start ing
ther n
we ar
f an
wa it
individual s
ad vert
s cr
part ners
health y
is ions
id ents
o red
Ch ina
fr ame
anal ysis
con sum
sat is
ent y
invest ment
camp aign
s ometimes
F ace
W ar
b ul
hol iday
9 9
ob tain
it ely
publ ished
wonder ful
r i
res er
sit uation
to ber
P at
pl ate
con duct
em pt
E ach
p ages
ey e
as te
pl us
olog ical
photo graph
w ind
go als
tem ber
in flu
Tr ans
ass ess
re li
Sep tember
B el
P S
i for
emp or
m is
sup ply
be y
pos itive
pro gress
pur pose
S ci
right s
Com mun
L a
pat ient
c at
k en
an ch
wr ong
ic ed
th us
en h
st ress
fin ish
Oc tober
201 0
phys ical
In c
Bus iness
bud get
mo ther
comfort able
s low
grow ing
gr ade
Cl ick
H ol
sp ot
gu ide
t ure
f arm
im press
3 1
organ iz
or ge
M P
friend ly
ch air
j ud
of fee
ch an
l in
st age
depend ent
O ut
c amer
en ing
ir ing
activ ity
mo on
ib r
f ine
Cal ifor
Gr oup
Jan uary
Re ad
de gree
opportun ities
employ ees
d ream
f elt
te le
c el
ad vis
sur round
ef fort
al tern
allow ed
bir th
cr y
r ates
v ille
hist or
veh icle
il es
tem per
own er
be ha
s old
anal y
Comp any
S am
E ar
im ag
ed eral
bl ue
d ol
C E
P al
T od
De partment
sm art
inter net
e at
d ark
an c
defin itely
pict ures
D own
J es
i ately
st ick
Serv ices
Califor nia
f ab
benef it
B er
d ress
C our
coun ts
M A
201 1
offer ing
itut e
st ar
f ish
eas ier
G ood
ven ue
ap art
op tim
K ing
a head
st on
ir t
Pr of
famil ies
des crib
ing ton
pat tern
was n
ho sp
col lege
or ing
L E
Sun day
C A
school s
i ant
r ough
aw ard
dr ug
st one
ap an
f requ
certain ly
M od
ic ate
3 2
w id
s av
Sy stem
L aw
regard ing
pres sure
differ ence
sle ep
pro ced
cl ub
dam age
y l
st uff
htt p
W indows
De ce
ide al
reg ion
bas is
ac cur
adv ice
um b
Sat ur
ig r
lo ved
review s
avo id
ag ue
H el
Se e
dem and
experi enced
f ant
pol itical
Dece mber
blo od
ex erc
ve mber
i ar
exist ing
li er
sp ent
ad s
del ivery
bas ic
rele ased
ear n
feel ing
z z
he ard
be ach
gu arant
No vember
M ag
str a
W ed
in come
Pl ay
sub st
if f
S S
eng th
R ev
ap preci
g el
ne g
we ather
ant ic
ext rem
Te chn
hot el
Face book
P ort
Col lege
tr ade
W he
as pect
produ ce
offer ed
begin ning
com ment
chang ed
spir it
ch em
tru ly
S w
appropr iate
respons ible
ad just
att le
Aug ust
af ford
m aster
c ards
tr ied
fe et
ak er
respon se
ne igh
g ency
trans fer
report ed
wed ding
effic ient
ind ustr
effect s
ref lect
B est
al one
mess age
b um
it ter
redu ce
deter min
l iter
R et
U se
ous ly
cult ure
sy n
dev ices
id a
M ake
fil es
fr u
econom ic
Europe an
light s
Po st
vi ol
ab s
g ave
ant ly
ic ations
J apan
play ed
nor mal
mov ie
D el
mean ing
than ks
g ift
M ac
incre asing
p ite
C D
r an
th ous
use ful
Lo ok
car r
H ot
lar gest
over all
f ly
un it
ash ion
Satur day
ar ily
ou l
num bers
jo in
8 8
E ast
Jes us
hom es
st ories
Intern et
ren ch
o st
br uary
high est
au to
IN G
ag ree
f ight
than k
un te
M em
C H
im ent
Fe bruary
sci ence
O h
it em
_ _
ap y
comp on
re w
O b
con cept
c in
form s
pie ces
in struct
bot tom
l ack
sh own
ber t
associ ated
gr and
C ap
ey es
t ag
co ach
S tr
prof it
con ven
init ial
bey ond
d ish
C ur
Al though
Pro gram
chall enge
s and
edu le
i os
B en
P M
ev al
Tod ay
r id
sh ot
cl in
Wh ite
look ed
S to
ab solut
R uss
ord ers
F ind
S en
s ports
dem on
G old
may be
em ot
sur face
ser y
c offee
Y es
de cl
Can ada
ut il
ann ual
3 3
play er
Che ck
sy ch
v est
ident ify
trans port
ab ilities
br ought
b ol
p ush
turn ed
v ant
Bo ard
t or
alth ough
power ful
step s
S pe
particular ly
stud ies
M id
S pr
resp ond
TH E
er o
fin ally
cap ital
dou ble
tit le
g arden
B C
prote ction
al y
complet ed
du c
es tern
ic ious
help ing
Su per
stra ight
St reet
establ ished
S ub
strate gy
o o
iqu es
not ice
near ly
ic ing
u be
ol f
st ates
week end
Gre en
x im
se lection
D uring
S ur
immed iately
elect ric
ex hib
r ank
reas ons
pre d
Be cause
l ength
j u
de ad
incre ased
sh aring
consul t
V is
B ay
ro of
T O
B ro
d at
pl ants
meas ure
Dev el
re ve
col labor
S ol
extrem ely
b atter
part ner
L u
z a
st ation
w indow
al ing
4 4
E m
it ary
model s
wom an
Associ ation
dis ease
method s
H ave
c um
k new
advant age
Res earch
c ab
at ively
C all
in sp
ic o
nur sery
M icro
is try
oper ation
est ate
res ist
Mark et
und red
i ation
su me
ste ad
ser ver
for ts
str ict
ate ver
cap e
r ules
ron ic
Ph il
struct ure
f ather
ant i
p ul
olog ies
mil es
v ac
ib er
back ground
cy cl
furn iture
Ind ian
announ ced
g un
swe et
empor ary
v ill
br ain
ro l
ac ity
ic an
5 5
af fic
c row
ret ail
T M
rel ax
m itted
se ven
ch ain
sci ent
” ,
ev idence
requ ires
incre d
v ote
ist ics
W ash
P ho
fin ished
keep ing
O ther
Dav id
ro id
say ing
sell ing
L O
cre ative
man age
ens es
c it
see ing
4 8
M or
che ap
M a
P A
f lex
Pl an
sec ure
ed ge
minut e
G over
gu id
sub s
at ically
lar ger
im in
t ips
do ors
me chan
w ine
comp ared
report s
exp and
help ed
200 8
craf t
register ed
jour ney
P D
w est
use um
sur v
techn ical
Ac cording
T ake
scal e
fort un
fun d
cent ury
oc cas
bal ance
ch ann
ste el
Off ice
but ton
E duc
b ound
chang ing
produ ced
w inter
act ual
gener ally
sw itch
team s
M al
bill ion
p al
es ome
f at
th row
3 8
enc ies
th reat
ul tim
ten ance
T y
link s
Fl or
m es
lo v
am s
great er
ire ction
list ed
mid dle
Devel op
lo se
200 9
fl av
T ex
u ce
det e
M et
t end
il ing
3 7
ment al
C us
C T
ke pt
cr itical
d ance
ear lier
h undred
m ap
adv anced
D em
d a
su stain
was h
iv il
sch edule
Cl ass
B ank
lo an
conne ction
met al
Mon day
g ent
mon itor
M ic
ell ing
l am
r ace
AN D
val u
S ing
fun ds
augh ter
Coun cil
D an
hand le
corpor ate
profession als
o x
exp ensive
mult i
nam ed
in spir
pres ident
Ph one
T op
experi ences
us her
aud ience
pe ace
col d
I ON
W al
car s
Pe ople
cand id
m icro
ac adem
commun ication
Brit ish
um n
present ed
per haps
C are
I R
ef forts
streng th
want s
suf fer
moon light
vide os
sess ion
teach ing
) :
le ts
Un der
19 7
i ance
On line
form at
dis cover
art s
An other
Cl ub
s light
sh ape
Bl ue
vol unte
v it
stand ards
pass ion
coun ter
f ashion
ar gu
Austral ia
s pl
exper ts
est ival
m arr
contain s
challeng es
P aul
n ic
stat ement
camer a
g am
? ?
plac ement
I V
is ation
play ard
talk ing
rele vant
L ast
re move
con vers
contro ll
S et
ele ments
om en
ded icated
open ing
fill ed
h us
ro y
enter tain
t ree
pol ice
R el
up date
share d
spr ing
Whe ther
S k
p a
pr ay
arch ite
heav y
Y ear
us ion
who se
3 9
find ing
Ch o
orig in
fa ith
organiz ations
tr affic
part ies
shop ping
vo ice
al bum
Wh o
ex clus
g one
job s
P ay
can cer
work ers
ar ies
for get
l ap
smo oth
agre ement
6 5
iver se
wel come
c atch
add ing
o cr
I M
J er
fam ous
ap t
prepare d
n ames
li br
est im
so le
dr iving
re h
s co
l uck
pos it
call s
move ment
un k
col ors
Manag ement
g ather
A B
L ife
Ar ch
M ill
develop ing
vir t
O pen
follow ed
m ir
od es
pre par
T ur
t a
ul ts
pt ion
3 4
mot or
V er
re c
att ach
deter mine
Ap ple
com ments
Lo ve
op in
cl ud
cent ral
ck et
F rench
comp reh
L ab
ac com
mention ed
ed s
h ang
att end
prim ary
F ound
b ing
n d
d irection
w ire
t ail
ass ign
sho ot
d ump
there fore
r ap
focus ed
restaur ant
Prof ess
qu arter
ra el
H D
win ning
connect ed
learn ed
Gener al
3 00
pl enty
ple as
ro t
pos es
fig ure
dol lar
inter view
in fr
se a
cap acity
w ild
in y
him self
a ult
ha ven
Th urs
J ack
lim it
manufact ur
ol der
ord in
techn iques
US A
D A
te en
arr ang
ap ers
buy ing
P ower
st reet
ad o
con ference
fac ilities
est y
cour ses
Tex as
clo sed
sit u
B re
ul ty
cy cle
L ike
ing red
Is rael
rup t
M er
fact ors
in ch
W ater
class ic
i ency
su mer
I L
T ues
cre am
class es
r om
att empt
pass ed
agr am
serv ing
Tr ump
visit ors
the me
select ed
P R
R iver
i be
tr ail
br ight
g all
design s
proper ties
sc en
E M
was te
ick en
" ,
ig er
wa iting
big gest
po or
L ord
ut e
az on
V ol
iel ds
E lect
stat us
P ress
oper ating
M iss
in fo
** **
p ow
b es
suppl ies
r are
T om
ce p
main tenance
test ing
be at
gener ation
val ues
ship s
direct or
Ch in
pop ulation
N A
al ed
J ames
e th
y ard
commun ities
adv ance
e gg
gu ests
sol id
ag no
pack age
explo re
o graph
sp ending
Wh ere
C S
le an
Ch urch
S il
se ctor
w ife
200 7
adv ent
pract ices
Tw o
v in
dat ab
out door
Will iam
e ight
ang er
F am
l ux
could n
Flor ida
res idents
clean ing
m ist
y a
St ar
air s
vis ual
b ought
d ro
v ior
Down load
ess ay
lead er
Wash ington
small er
Afr ica
re ality
ro te
econom y
An n
be comes
pol it
help ful
process es
shop s
xim ately
it ors
re mind
ct ors
di et
W r
tr ou
sp read
H y
Tues day
even ing
Inst itute
hus band
ap ter
b a
separ ate
M ary
manag ed
conf ig
nut r
dr iver
r ide
open ed
M art
invest ig
6 4
qu ot
O F
f em
g a
fl at
install ed
P an
Thurs day
B ig
it ude
bo y
rel ig
des k
Re al
tr ial
Mus ic
cl oud
oper ations
!! !
pain ting
num erous
soci ety
init i
an cy
to t
pl astic
compet ition
il s
comb ination
continu ed
art ist
amp ion
S um
bath room
fe es
dec ide
P et
other wise
f ans
usu al
market s
Christ ian
Educ ation
pro of
20 00
docu ments
m ountain
ear th
en ed
ob vious
Bu ild
establ ish
h ur
wh atever
k ill
re ci
recor ds
l ation
o v
pr oud
Pho to
ph ones
process ing
f old
on a
Sh op
C B
E L
men u
T or
cell s
f ing
z y
Eng ine
ic on
d ur
Ro ad
d inner
provid er
B row
d ie
ha el
t aste
ve get
Cour t
T er
cre ation
w rote
sch ed
F ol
l ad
in dependent
val id
squ are
gr ant
Wed nes
en su
charac ters
temper ature
ly ing
Pro ject
col our
Bo th
out s
be coming
In formation
install ation
fant astic
F ire
me ant
dec isions
beaut y
I G
Chin ese
T ime
W ood
to ward
mo dif
New s
paren t
W all
p sych
v s
ar a
pl ug
g al
L A
sto res
Ro ck
comp ar
h i
thous ands
Ch ild
pres ents
allow ing
happen ed
ar i
D ata
light ing
I ts
b urn
as y
ind ic
con struct
strateg ies
V e
9 5
r ies
med ium
St art
describ ed
O U
un its
exc ited
min im
ship ping
top ic
H um
pre c
remain s
F il
de bt
fun ding
exerc ise
as p
The ir
th ers
dist ance
appl ied
bur g
ann ed
Am azon
B al
the s
loc ations
detail ed
n el
has e
ak ers
sour ces
f ederal
cas ino
exc iting
e ating
tru th
d ial
i to
will ing
R om
do ctor
manag er
appro ximately
Direct or
6 6
C C
law s
l unch
assist ance
s outh
C ard
ip es
bel ie
it ution
ag ency
sound s
reli able
absolut ely
inst itut
F un
dis tr
in et
A G
cover age
dom ain
. )
d ut
L ake
ic ine
y es
ot a
up s
mil itary
l or
satis f
Pro duct
web sites
relationship s
fore ign
or ial
H am
fe at
B ack
sh ap
N ext
B each
enjoy ed
suit able
run s
altern ative
am ent
con tr
wor ry
br idge
happ ens
leaders hip
pract ical
de b
or al
claim s
Ke ep
know s
di agno
cit iz
N E
ic ies
if ts
s now
el ess
An gel
se y
would n
anim als
Wednes day
D ef
b our
I F
fru it
s core
y ing
clear ly
reci pe
though ts
T S
show ing
cor ner
ag on
le aves
pr ise
as tru
se at
upd ated
form ed
S how
r ical
cr it
M O
W el
Be fore
hosp ital
N ote
re pe
con ds
R ich
sy m
mem ory
oc cup
Micro soft
de partment
pres ence
B A
d aughter
ent ed
ear ning
teach ers
grad uate
C am
G lo
art ists
major ity
gu ess
max imum
un less
I A
it ar
u gh
M il
aw esome
Is land
port ion
own ed
start s
N Y
col ate
Th om
lov ely
spec ies
fac ility
4 7
walk ing
F ort
P ublic
b ac
In t
br ings
bed room
ul ed
i est
St and
app ed
ingred ients
post s
appe ars
M ain
me al
expert ise
famil iar
beha vior
m ort
p itch
teach er
ig ence
L ight
min imum
f uel
cre te
L y
recomm ended
ca used
sy mp
prof ile
cap t
Commun ity
C as
C amp
no on
show er
M aster
good s
Com mission
vent ion
B et
S pecial
y e
import ance
B as
proper ly
sh ut
not es
Sci ence
k n
ound s
afford able
com plain
fe ar
m ut
te ch
nor th
E r
Pl us
concer ns
chem ical
H ist
aud io
g ins
p ump
and er
C R
n av
trad ing
cr is
Develop ment
support ed
pain t
contin ues
fab ric
industr ial
res ol
pol icies
inj ury
8 00
S P
as er
respons ibility
pers pect
typ ically
neg ative
sc ene
jour nal
am in
d im
k ick
p y
hold s
cult ural
Ger man
r ac
A ward
C a
er n
categ ory
B ill
d ining
an cing
le aving
qu ant
foot ball
autom atically
cal cul
J our
ser t
Mic hael
ack s
rad io
h un
ic ians
im prov
B ur
conf idence
hous es
advert ising
fortun ately
se conds
p on
um in
ph il
del icious
art icles
po ly
she et
ain t
D et
in stru
demon str
cl im
test s
ex change
Com mit
ask ing
Ro y
sign ed
sen ior
H all
bl ing
perform ed
tre es
astru cture
academ ic
slight ly
i Phone
4 9
dep ending
A v
tr ig
Eng land
av el
conf ident
c ivil
br ands
see k
So ci
insp ired
L ou
M ad
v ic
no vel
fac es
k es
bus y
fav our
o bl
car bon
comm itted
most ly
m outh
con cent
Gr and
ap proved
inter nal
man ner
cho ices
ify ing
de ed
de als
D iv
watch ing
L in
an o
So cial
environment al
r ise
con sumer
clo s
enc ing
aspect s
specific ally
c ities
techn ologies
D ig
ar row
cur ren
provid ers
Cont act
of t
in ct
err or
t ast
Or gan
hold ing
i en
s ha
od y
vol ume
previous ly
inter ior
wr iter
O ld
er ve
pro pos
sur vey
az ine
ger y
dy nam
r d
ra ised
Q ue
put ting
discuss ion
ant a
T R
pro ceed
leg is
R ob
batter y
reg istration
j ump
re ference
cent re
meas ures
G en
Th rough
tot ally
a j
co ast
li qu
gu ys
And roid
neigh bor
sch em
ou thern
ip ping
vis iting
veh icles
est ic
A lex
co vers
w arr
op h
list en
park ing
l s
un ning
ill ustr
ce an
200 6
ru le
r ub
show ed
D ep
re me
V iew
lead s
mot iv
cir cum
h es
pan el
Rep ublic
w s
t es
se cret
tr ick
ac counts
pred ict
M ex
Th ose
compreh ensive
4 6
b ell
k it
C y
W ord
comb ined
Gover nment
s port
au then
F ood
ol ar
jo ined
compon ents
poss ess
F L
V ir
g ment
ac compl
ag ement
n u
il ed
de cre
G al
S ha
k a
encour age
p ull
but ter
dep th
datab ase
M ich
ur ies
ph en
te a
Found ation
e ch
m el
w indows
On ly
miss ing
4 00
at ers
M ot
pre ne
ele ment
any where
up load
af t
augh t
mark s
f aster
app s
j un
ver se
our selves
t un
feed back
appoint ment
G ar
r ating
influ ence
p in
is o
Ge orge
ed om
br ief
Ger many
sub mit
it ness
su gar
ex pl
i at
H ill
c ular
N O
inst ance
pur poses
flow ers
resour ce
d ied
en able
bo at
poss ibly
os s
guarant ee
i pe
ter min
int ell
En ter
V an
r ang
libr ary
M E
th ick
month ly
s aving
you th
bl es
act s
ch at
8 5
Cent ral
Tw itter
N at
c ake
om b
m and
F A
S A
fact or
dis ci
h ire
j ack
Fr ance
introdu ced
fore st
whe el
consum ers
G B
call ing
build ings
4 2
res olution
c m
Chr is
E v
defin ed
fun ctions
iss ion
M ob
S a
C ert
y er
is land
des pite
deliver ed
partners hip
ens ions
stru gg
Commit tee
k id
re put
int ended
train ed
ad ults
reach ed
enh ance
char ges
7 7
r or
att or
C ong
Sc ott
acc ident
W atch
fl ight
om in
os ing
tern al
compet itive
as sem
employ ment
upd ates
Fam ily
C P
og a
distribut ion
it z
pay ing
hon est
i us
M at
s or
employ ee
cons ci
e per
Do es
L ist
S O
Med ical
Val ley
ther apy
dis count
man ual
C op
song s
se as
Te am
innov ative
H or
P erson
cr im
s ight
bl ed
m l
al d
ag ent
P ack
event ually
W estern
1 50
N OT
ra ise
Z e
Le ad
f ields
ch icken
fic ient
Manag er
1 st
dou bt
B M
prom ote
Rev iew
a e
g age
cept ion
commit ment
t ight
we ak
ree k
ir on
cut ting
D istr
girl s
emer gency
valu able
el ine
Cent re
U sing
sk y
fil ter
l it
s ides
in sul
He ad
kind s
R ad
real ize
dis covered
gar age
accur ate
In stead
restaur ants
p atch
E mp
gu ard
200 5
el imin
un iversity
t ub
com plic
ul ations
tick ets
proced ure
D i
o ven
r at
r ics
L im
sp here
anim al
surround ing
Fol low
re strict
hab it
L ong
l ie
t ough
D E
t i
pr inc
Tr ain
lay er
r iver
Fr ank
L at
S C
pos itions
see king
cep ts
lo ans
Se curity
d ent
appear ance
b ly
er a
spe aking
fix ed
re moved
S and
F re
19 6
B ud
g ate
Ac adem
r um
G ame
set tle
tom s
return ed
un ivers
know ing
H and
w is
ow s
me at
educ ational
prem ium
Ear th
S U
v ation
cl imate
sal t
effect ively
sty les
admin istration
launch ed
H P
d ating
break fast
opin ion
ind ing
occas ion
D en
H i
f le
or ation
st ret
pay ments
h arm
in fl
you t
ci ent
Soci ety
ber g
dom in
b read
L earn
fac ing
ip al
Ch ic
interest s
Afr ican
D I
ition ally
present ation
setting s
des ire
A ccess
ap os
appreci ate
cho colate
bring ing
Spr ing
k m
ro b
great est
h all
emp has
sit ting
cook ing
clin ical
el ines
conven ient
incred ible
infr astructure
t ank
and om
rent al
pur su
T em
v ary
il it
ill a
Col or
nor m
f ellow
con sequ
organ ic
Distr ict
instruct ions
E U
pl ates
Of fic
s an
A ud
determin ed
v ict
ik ing
In vest
appe ared
O per
coun ting
seem ed
cr usher
jo int
grow n
H O
k in
distr ict
op s
too th
exam ples
bro ken
Hot el
om a
cont ext
announ ce
mo de
t ons
su sp
C re
P ass
ext ensive
Jour nal
i P
ent re
support ing
lic ense
ar ms
gl ad
le ather
gu y
for ced
sh el
esty le
we alth
oper ate
rap id
ne ck
brow n
M el
inv ent
read ers
wall s
F ull
w ing
Ser ies
elect ronic
hundred s
cho sen
feel s
dog s
E ner
ro s
ul ate
19 5
Net work
s izes
re place
There fore
purch ased
M ach
miss ed
R u
id den
Ad min
cert ific
M ass
su c
cl es
food s
mach ines
m g
ind ex
reco very
effic iency
B B
ed ition
sa uce
min or
hous ing
claim ed
improve ment
Au to
S ometimes
e lection
ident ified
task s
V D
ist an
As s
admin istr
P res
qu iet
bl ess
dete ct
It al
engine ering
regular ly
I r
sh ar
p apers
t ables
it ers
circum st
w ers
V ide
T own
l ived
ult ure
im proved
D ou
H aving
L ev
tell ing
after noon
dr ivers
D O
re mo
perfect ly
che ese
m ic
Car ol
T est
r ail
top ics
L t
el ig
bo ys
Se cond
sam ple
d ang
Fr anc
sess ions
al le
con firm
um ber
co hol
K now
ac he
ol es
bo ost
care fully
grad u
de part
out put
success fully
lic ens
Q ual
b ike
perspect ive
um s
lab el
priv acy
accom mod
L oc
May be
F ig
wh om
at mo
T able
t aught
et te
Cong ress
per man
consider ing
as sets
play s
reason able
v ital
ad or
co in
a is
publ ish
bow l
A V
p up
ord inary
share s
W il
rout e
Techn ology
T our
sp aces
gu est
Le g
Chic ago
pl anned
gr at
qual ified
G O
sur gery
D id
n one
Ar ts
redu ced
r ig
z en
let ters
particip ants
er g
chann el
Glo bal
m oun
re new
0 1
st re
con fl
br id
ang le
imm ing
affect ed
bo ards
B lo
re venue
arr ived
ip p
M ax
P O
min ing
Bo x
P ac
ur ation
pro spect
B E
Med ia
particip ate
graph y
carr ied
exclus ive
T E
L ar
ex tract
app ing
’ .
ul a
AL L
C reat
S ign
b ass
i age
At l
Dem ocr
t il
Pro te
und ers
A A
ex ternal
0 8
cor d
sign s
igr ation
2 nd
in put
Un ion
sil ver
de ck
lux ury
6 00
char ged
appoint ed
situ ations
F lo
pr in
v as
or row
pro p
rel atively
official s
st ated
Ad v
t ut
Stud ents
on om
is co
ne got
b attle
the ory
frequ ently
ic ian
Wh ich
birth day
T im
to x
Part y
accept ed
be ar
invest ors
au th
200 3
big ger
disci pl
K en
p ure
entre prene
ur ban
bel ief
dec ades
ro ot
ib ilities
St at
pattern s
ed itor
support s
bel ong
Pro v
miss ions
F urther
L ive
ul ous
mat ters
manufact uring
re cru
Con ne
hard ware
convers ation
ul ated
mil k
L and
tru ck
w et
U s
it a
am ed
fir ms
tre ated
tw ice
b arr
s can
con crete
significant ly
histor ical
ad opt
ex cess
up per
access ible
EN T
ex po
inform ed
M useum
b io
r ated
w al
dollar s
F ore
qu ir
br ush
imag ine
vis ible
H ope
comm ission
Sm ith
Russ ian
s oul
re placement
he aring
Japan ese
M C
the tic
200 4
iso de
ester day
in i
pos ite
direct ory
We ek
4 1
O k
ag er
fe ction
ack now
Ho sp
issu ed
assess ment
ip ped
ca uses
protect ed
K ey
As ia
comm and
Au thor
Vir gin
Fin ally
fail ure
commit tee
U l
ut ions
I de
hy dr
resident ial
4 3
Can ad
M en
er ies
cont emporary
ext ended
world wide
aren t
satis fact
F estival
con ver
tick et
B ra
s ized
sk ill
Cont rol
in ations
mov ies
aware ness
f ell
enc oun
d ates
u ters
organ ized
sho es
Ab out
T ry
V ery
W omen
ch ief
ans wers
thor ough
Ener gy
M ountain
O p
Ro bert
rece iving
min i
CE O
scient ific
G A
g ro
ik es
P eter
fil ms
phil os
warr ant
7 6
H app
ur ally
vic tim
% .
inter face
p ill
an x
search ing
ial ly
serv ation
gr ass
0 9
K o
ast s
health care
Hum an
Lt d
T it
bro ther
challeng ing
pow der
M s
az z
ask et
host ing
brow ser
3 D
for ces
Pl ace
be gins
sim pl
az y
Min ister
) ;
K ore
re tain
recor ded
Par is
proced ures
sym bol
C ons
L ink
f as
7 8
F all
v end
co very
fin ance
prom ise
mom ents
guid ance
Thom as
Ital ian
av en
stud io
del ight
hold ers
Com mer
Mob ile
et ch
dr iven
subst ant
0 4
se cut
net works
L os
hol der
mix ed
stret ch
c oup
ic ial
et ic
En joy
Ap plic
hor se
suf ficient
ed y
pro posed
organ is
institut ions
Lou is
liqu id
p hase
mon d
const antly
L ibr
M ont
ac le
ac id
remain ing
dist inct
Dis ney
bag s
d ivid
des cription
F OR
Th er
ear ned
int age
fre edom
found ation
feature d
emot ional
vill age
ent r
qu ar
integr ated
f if
en a
H S
f ro
str ain
cr ibe
fl ash
bre ath
gre es
e en
conduct ed
Con ference
n ative
end ar
commun ications
bre aking
apart ment
i j
ell a
rem ote
y ellow
A F
B ir
se x
Americ ans
concer ned
recogn ized
it age
cho osing
sur ing
prote in
cert ified
surpr ise
en ab
ad ult
keep s
in f
Ro om
ig an
not iced
sk i
test ed
r andom
at re
camp us
dump ster
P L
g reg
ut ter
so il
cr ush
equ al
consist ent
C at
oun der
concer n
inspir ation
Build ing
Wel come
F air
M D
v ast
person ally
e leg
or ient
not ed
agre ed
gr ap
adv oc
execut ive
sched uled
Child ren
tem plate
3 rd
impress ive
al og
meet ings
lif estyle
g ifts
ol a
ho le
mot ion
cru cial
Dig ital
C hair
clo ser
s in
prom pt
author ity
def ault
feat uring
Pr iv
Brow n
and a
expect ations
flex ible
comp are
ber ry
symp toms
1 000
bu g
s ac
B S
W in
ag encies
B I
i ors
sav ings
equip ped
C lean
V ict
the less
il st
am ing
fl ag
Le ague
Tr ad
mess ages
c able
d iverse
al ty
Bu y
lands cape
strateg ic
Cus tom
act ing
invol ve
dest ination
set t
fem ale
circumst ances
B ob
S ite
S af
D u
N C
Co st
E conom
V ER
he ight
ot ic
dr ain
Ap p
pick ed
Austral ian
h an
p il
st ars
ak s
serv es
ci ples
ugh t
s ad
sol ar
typ ical
S pan
it is
de grees
0 5
T ube
lo go
eng age
Be aut
program me
celebr ate
t ics
al ter
ind er
stand s
S of
y an
col l
PD F
S ar
pro to
ident ity
virt ual
dr am
every day
return s
m ur
he ating
qu ote
her o
entertain ment
] .
ca ught
entire ly
regul ations
W ay
an cient
co ordin
techn ique
found ed
Sp ir
SE O
clos ely
we aring
members hip
fail ed
P ubl
th read
we ap
tee th
vot er
archite ct
g olf
m ile
sup posed
Fin an
G all
on going
high light
expo sure
re ar
res ort
Ex ecut
research ers
re vol
pe p
bo ot
Cor por
R est
al cohol
ap prov
ak ed
ach el
graph ic
po ker
spirit ual
K r
i i
z o
ol ic
reg ional
fac ilit
C ross
i as
be er
em ber
Th ough
ret ire
mass ive
norm ally
k ins
igh ter
bank s
w itness
at tribut
di am
ch er
gover n
p od
st im
out standing
aud i
function al
Look ing
W alk
main ly
perform ing
Vide o
S earch
just ice
order ed
D C
u a
su s
gener ate
C ab
b id
af fil
cap able
link ed
l on
air port
manag ing
consci ous
Cl oud
Co de
orge ous
T A
sh ire
poss ibility
got ten
bon us
J ef
us age
report ing
J ul
am oun
B ed
r ay
r ation
res to
sp in
exp enses
abs or
ris ks
Ass ist
' ,
marr ied
2 50
n ine
st al
work shop
v a
Ar ab
ev ol
cover ing
Pac ific
ol l
J ose
S ho
trans ition
Sh ould
6 9
L ED
m ous
en de
comp ens
Com ple
B ab
c ot
Y oun
up coming
Un fortunately
sol ve
Russ ia
atmo sphere
B O
cre ates
aw a
fun dam
neighbor hood
en force
en thus
tur ning
su red
De c
tele vision
attach ed
B i
Tr ust
Finan cial
al leg
pre gn
vis ited
iven ess
Sup port
H a
object s
O w
clo thes
Sm all
estim ated
E C
er ed
bl ind
Market ing
app arent
const ant
authen tic
the sis
or n
st unning
ens ity
discuss ed
I ll
cre w
str ing
pol l
happen ing
histor ic
candid ates
contr ast
j a
l augh
ag ents
ex ceed
print ed
N av
re sume
Po int
L og
V P
Academ y
r am
med icine
fit ness
5 8
su d
coun ty
N ight
def ense
manufactur er
gall ery
gr ab
E p
M L
express ion
ato es
Bo ston
recogn ize
collabor ation
flav or
top s
fol ks
favour ite
th in
sh ots
Ex am
s ister
re ward
al ign
ge ar
cut e
stop ped
F ederal
cl ar
turn s
Mart in
dut y
Mex ico
T C
plac ing
Des pite
Roy al
C ome
relig ious
t iny
ve ter
Is lam
refer red
z one
ou red
wor se
d ers
d ies
Sm art
F our
trou ble
r ice
ol s
200 2
mus ical
H om
t ack
ch apter
lo ves
ke ys
eng agement
innov ation
C up
P rem
en em
Sc ot
advent ure
pr ison
ult ural
prov en
fir med
Ob ama
D VD
fair ly
C ast
N ever
s op
in corpor
when ever
incre ases
D R
P op
vac ation
real ized
Co ok
box es
citiz ens
att emp
E qu
i ety
des ired
ho ok
arr ive
Canad ian
E P
O K
Ch ief
enter ed
collect ed
r ug
u zz
me als
J un
J ud
ir ty
sub mitted
invest igation
H im
ic ts
dep loy
fill ing
explain ed
platform s
clo sure
tell s
am ber
mo ist
spe ech
par am
pass eng
Cur rent
crim inal
vers ions
e ed
four th
antic ip
in ches
Libr ary
S qu
sp ons
produ cing
design er
b one
You Tube
list s
RE E
photograph y
ph arm
Re port
blo gg
suggest ed
beha vi
spl it
improv ing
5 9
nam ent
implement ation
reput ation
k o
con cepts
wr iters
Be ing
recor ding
monitor ing
0 7
p un
cr ack
rel and
B on
ac ious
pass ing
l ined
p p
near by
Mid dle
encoun ter
Vict or
Y et
h idden
col le
Span ish
O s
ch a
Inst agram
C L
M ult
Co ast
S ky
ans ion
dom estic
dest roy
M ike
c ure
T each
Pro per
l ish
st ers
un able
em br
R ight
iz er
avail ability
tren ds
controll ed
O x
off ices
m ac
we et
Angel es
satisfact ion
sud den
5 6
et ime
fact ory
press ion
deal ing
htt ps
prepar ation
op hy
de posit
bod ies
b ird
Se a
plan et
It aly
c am
f its
m akers
lo sing
del ay
tal ent
concer ning
ach ieved
road s
contribut e
K ar
v ibr
sh ad
sub sequ
amp s
elig ible
C ON
m useum
for th
se ed
D S
b order
n arrow
ian o
trans l
special ist
d ust
g or
Rem ember
cris is
K itchen
sh irt
cer em
list ening
fil ed
pass word
prim arily
H en
S ports
dang erous
Youn g
E as
ce iling
Ph ys
ill iant
k illed
t all
t one
port fol
sch olar
resist ance
curren cy
0 6
h ers
t u
el er
ath let
remo val
5 7
fl our
200 1
f ishing
bir ds
W ould
mix ture
attract ive
P enn
St ill
elect rical
reve aled
m ph
en ables
st ro
gu itar
s cript
av a
form al
gener ated
sho ck
wid ely
B ath
I reland
ultim ate
R A
Th ree
gre w
bot tle
origin ally
? "
ple ased
trans form
s lot
Hist ory
F ac
t ro
W A
st able
week ly
dynam ic
C I
im possible
su spect
bel ieved
clo ck
h ill
stain less
C ir
w estern
y esterday
al and
rel ief
inv ited
y ards
-- --
b ars
e ast
cr ime
0 3
L ow
our ce
view ed
immed iate
Sto re
J im
r aw
le te
se ats
cor n
lik ed
clo thing
cap ture
__ __
lik es
prin ciples
W E
in deed
ed er
Te ch
S uch
arr ay
win ner
Web site
compon ent
ep isode
Se lect
cu it
stat ements
crow d
vent ure
drug s
att ended
mark ed
archite cture
attor ney
suc ceed
Virgin ia
S on
comp at
System s
luck y
M ur
T imes
ing ly
ch ampion
Con d
c rop
se ctions
ad apt
ag ues
dec ade
Happ y
D un
ard ens
fact s
roll ing
E le
I ran
add s
mon t
enter prise
Lo cal
Add itionally
compl iance
G ive
pr icing
Ste p
night s
t ip
ind u
az e
flo od
sustain able
T ha
t ap
c odes
0 2
E X
M ir
con vent
ell ed
sp ark
head s
Execut ive
S ty
cont est
Pol ice
B ow
y o
Se cret
Le e
offic er
tax es
en suring
sh ift
bl ank
fig ures
stre ets
i ated
t ab
Ne ed
resul ting
div ision
transport ation
volunte ers
P age
c ue
co ck
buy ers
terr or
eval uation
accompl ish
ell er
eng ines
C over
P ut
d ia
Th us
comp ass
new sp
cons ists
Spir it
inter pret
C red
F arm
S l
co al
ext ension
rout ine
guid elines
less ons
sm ile
Per haps
chann els
schem e
Hosp ital
L ittle
commun icate
bas ically
hon or
rec ipes
amoun ts
purch asing
redu cing
tom orrow
Qu est
E f
F und
m ath
p ace
coun sel
program ming
obtain ed
wid th
T ax
st ery
auth ors
struct ures
V o
ren der
v ul
des cribe
gr ain
some where
author ities
scen ar
Sum mer
in tr
bre ast
R os
b ury
print ing
introdu ction
an es
ific ations
sign al
sto red
ch art
sell er
mag azine
surpr ised
Conne ct
pers ons
mag n
e co
k no
is k
eng aged
sens itive
Ret r
dish es
candid ate
R ef
V E
d ental
l ens
je ction
sw imming
flow er
award ed
F O
as sum
con clus
jo ining
develop ers
industr ies
egg s
1 20
Y OU
f est
ade qu
Fr iend
pack ed
f al
you n
ly mp
no ise
sc ope
hot els
S W
consider ation
mill ions
C ha
g orgeous
w ich
ar rest
hy dro
LL C
H aw
R ay
c ow
p to
li ber
manufactur ers
ut ch
In surance
Te le
offic ers
worth y
Oh io
9 7
h r
fac ulty
enjoy ing
connect ions
Sp ace
hosp it
Dan iel
Ze aland
ly n
draw n
con firmed
Th ink
gl ing
z er
ick s
wel ry
integr ation
clud ed
M M
i ro
s ending
se min
wire less
n arr
t um
ag ric
draw ing
direct ed
Engine ering
propos al
A gain
int ent
No v
access ories
Sil ver
u c
cal endar
Pr ice
increasing ly
hand ling
fall s
surpr ising
L ad
incred ibly
reg ions
appe al
AT ION
control s
cycl ing
re v
str ike
head ed
pack ages
redu ction
Ste ve
youn ger
if ies
ext ent
Pr om
M os
il der
ac ing
cap abilities
gen u
or a
fr ustr
up grade
differ ences
En vironment
perman ent
l ies
wh el
gr y
requ ests
employ ed
sugg ests
B all
H ard
f estival
For m
st ic
ext reme
inj uries
exhib ition
approv al
lo s
ear s
super ior
Profess ional
’ ,
for um
per mission
cut s
applic able
roll ed
crit ic
6 8
C ath
el lect
sever e
along side
serious ly
A g
F i
V ill
k il
w ave
ve t
Gu ide
L ine
R un
w o
it i
' .
as ide
Ad vis
Mod ern
portfol io
S outhern
W i
post ing
199 0
host ed
except ional
m aker
v y
cr iter
O lymp
S us
Com mon
Jo in
track s
cab in
pleas ure
U T
ro se
ins ight
correct ly
bac ter
p ink
s ick
comp ut
manag ers
intell igence
g ers
v intage
st uck
graph ics
Ge org
V A
ter ior
mus cle
percent age
hop ing
Qual ity
b are
t ill
sp ots
cho se
maintain ing
cert ification
re placed
set up
Or der
hon ored
G arden
S D
is ol
im ents
comm only
spe ction
licens ed
T urn
lo ving
depend s
sav ed
ju ice
6 7
ent it
ie ving
ph r
marr iage
h at
out comes
spec ified
aim s
Jef f
U r
cr ash
mem ories
advant ages
categ ories
shoot ing
? ”
mer ch
emp ty
Mus lim
l ift
pos ing
except ion
ultim ately
5 3
m ad
ro les
am b
po cket
cr azy
pres er
book ing
ivers ary
house hold
prior ity
attack s
Train ing
P en
re fr
he aling
Br and
Me an
inc ident
Vis it
H un
S anta
st ake
ches ter
! "
5 4
F REE
P E
h ate
ex plan
Tr avel
clo sing
treat ments
contain ed
text ure
F ather
repair s
conven ience
A sh
ap ore
port able
Se ction
bor row
defin ition
mag ic
frame work
En d
Char les
g ap
in ent
leg s
S ave
ne ys
fore ver
potential ly
consult ation
B ible
m ary
re mark
new ly
aw ards
Sal es
5 2
Me et
legis lation
hers elf
do ctors
approach es
complic ated
R S
ill ness
iz za
b asket
satisf ied
G E
M ade
W ild
v ine
h ack
re presents
follow s
fac ed
continu ing
slow ly
S n
il ly
ial s
ref resh
deb ate
re ly
st ations
act or
minim al
confl ict
in fect
br illiant
Ex p
organ isation
load ed
S wed
Ch ampion
spo ke
H on
ur ning
em a
Cl in
require ment
contain ing
compar ison
strugg le
d ad
trad ition
wood en
th y
per t
last ing
ill ing
Jo e
drink ing
Franc isco
E li
recogn ition
L iving
b in
b at
are s
buy er
bot t
recommend ations
trig ger
D NA
be half
et ers
invol ves
H R
plan e
Nor thern
P ot
r ush
every where
B ased
d ess
ir ts
class room
Ser ver
c art
sh ell
list ing
equ ival
check ing
suggest ions
sam ples
fight ing
mort gage
st ir
wh ilst
exper iment
craf ts
Carol ina
Pr act
feel ings
nat urally
contract s
volunte er
Rom an
E ss
ap ple
walk ed
Ho ly
Rich ard
F ar
S eas
or ter
ben ch
B ang
f ur
l ake
ion e
read er
Hel p
Sing apore
shap ed
7 2
mo ves
fun ny
she ets
necess arily
K at
su ng
pl ed
Je wish
Mich igan
! )
ik i
spr ay
D ie
H A
R am
to od
care ful
Are a
liter ally
P ur
em ails
pan els
inter active
blo cks
r it
w an
sh ine
to ile
le ver
su ite
com pr
pet ition
II I
Profess or
p es
br a
ht ml
prefer red
B it
G irl
dis put
bl end
hum ans
travel ing
9 8
F C
o cean
t act
um es
up grad
Per form
h ub
over whel
Mem bers
L D
c s
unders tood
og ue
stay ing
Every one
S ale
St ation
benef icial
sh ore
match es
b ond
invol ving
P RO
S em
p ets
track ing
err ors
carry ing
consum ption
g ender
z ero
in depend
ig ate
ha z
iz z
dr ag
col umn
def end
hop es
Person al
Retr ieved
R ose
T ar
a fr
f ounder
i ac
With out
cook ies
display ed
se es
et ry
For d
anx iety
grap her
su med
199 9
o h
lar g
Pr int
Cont in
Bro ok
shar p
5 1
G P
J ones
stor m
pul led
l aser
ac ed
And rew
special ly
M att
T alk
am m
op ens
G ames
W ant
de but
la yout
Or ig
John son
B ase
S M
r if
fr aud
gy pt
elect ron
y n
am ic
tr ips
subject s
Air port
suffer ing
W H
Ind ustr
regard less
iP ad
vul ner
B a
J ob
in door
sk illed
war ning
criter ia
pro s
tr ay
your s
air craft
less on
lim its
reach ing
speak er
c od
id ers
un expected
comp uters
ans as
g od
li ament
L i
in struction
ren ce
law yer
Gu ys
flex ibility
fas cin
wor st
cl ip
ES T
apply ing
Brit ain
max im
lap top
k i
some what
veget ables
eleg ant
retire ment
s ail
eng aging
Cus tomer
G M
k ne
ig ent
holiday s
hang ing
obl ig
w aters
should n
power ed
talk s
gain ed
Jer sey
re ject
est imate
sl ip
ac ular
ul um
d f
ph y
improve ments
accur acy
A gre
C ut
ac cus
ak a
ca using
fore cast
Ex peri
US B
fit ting
acc eler
Saf ety
y ers
comp ress
deliver ing
tit les
ag en
respons es
eval u
Product s
introdu ce
lif etime
scr atch
them at
person ality
ven ues
respect ively
King dom
electric ity
Ide as
re nov
St one
glass es
c ro
ser vers
E gypt
en to
ch r
public ation
ne ut
ev olution
6 3
B ul
are t
trans action
dream s
Av ail
col ours
sof a
second ary
ele v
Au tom
nu clear
w ick
un a
con vert
great ly
less ly
ed it
el le
ific ial
certific ate
D ar
P ak
f iber
m old
mo du
bo ss
prov ision
visit or
request ed
respon ding
acqu is
B es
D og
le af
col og
bur gh
associ ation
Sof tware
tw enty
ol id
int end
por ters
viron ments
scient ists
pep per
S pain
employ er
complet ion
exist ence
object ive
Bra z
modu le
E s
me ets
eas es
belie ves
T ot
in cent
particip ation
obvious ly
C and
n ie
or ange
ing u
int ention
trans actions
viol ence
prepar ing
ch ances
moun ted
D ream
it ting
out come
gr an
gr av
focus ing
photograph s
accommod ation
convent ional
O P
as sume
pr ide
mem or
Ar my
V i
pr ize
int ellect
explain s
quot es
Cop y
Priv ate
op posite
sh r
cent ers
guarant eed
fing er
Mach ine
cerem ony
E E
m ale
we igh
bl ow
med ication
dam aged
Don ald
H al
l u
He art
bre a
Nat ural
al umin
pr inter
oper ated
drop ped
Emp loy
settle ment
D ark
b its
r ings
in er
in tim
ou ter
ad ium
ha ust
cook ed
encour aged
Stand ard
entr ance
express ed
M ah
Dr ive
Hol ly
chair s
U I
ther ap
Con sul
acknow led
Eas tern
N on
c ater
el ly
ext end
Pro cess
Cas ino
C er
b aking
lo b
head ing
activ ely
7 9
any way
inter action
suppl iers
Sto ck
M as
ar ian
Br idge
Fo rest
A h
ob served
fin est
comb ine
E vent
O pt
la id
al a
ann a
dem ands
ris ing
autom atic
4 th
r ack
ers hip
co gn
occur s
advert is
Div ision
n om
oun ge
exp ansion
focus es
Cho ose
ut ility
K im
b age
m art
in se
stud ied
o le
ian a
S Q
v ous
y oga
on so
en vironments
rel ations
revol ution
p our
in her
ate ful
ust er
prof its
occur red
M ix
Y e
inst itution
represent ed
W S
at ivity
al es
ag gress
bel t
Fr ont
Pr im
Am ong
contain er
Im age
rel ative
inst ant
study ing
UR L
S her
ex posed
them es
M I
co at
check ed
hor iz
sco res
n is
do se
sup plement
down town
un ion
ex port
ground s
William s
b ills
le ague
mo od
pain ted
character istics
B R
d edu
f iction
con vey
view ing
jud ge
vict ory
fundam ental
im ental
ul ing
farm ers
T ER
iv als
br anch
St or
cal m
product ive
sign ature
argu ment
gam ing
polit ics
colle agues
fal se
O ak
as set
pray er
expl oring
sop hist
talk ed
Fil m
E asy
coun cil
mass age
A I
T ay
fun ded
find s
enn a
tag ged
Braz il
bet es
hol es
strong ly
larg ely
V en
c ers
t rem
iss ions
finan cing
Bel ow
grant ed
Scot land
As k
ret urning
ask s
loc ate
pleas ant
b unch
in ity
has n
As ian
object ives
Color ado
be an
pres sing
design ers
ra ising
address es
implement ed
repe ated
A z
H old
K ind
p it
ot ive
ind icate
click ing
i ary
For ce
represent ative
streng then
R ights
e c
g i
is a
drink s
adopt ed
substant ial
de eper
att ending
arr ival
equival ent
st ack
D ue
T X
T reat
sco red
sor ry
6 2
st airs
ul pt
des er
contract ors
broad cast
t ile
re plic
res idence
dis eases
Stud ies
W as
ach es
respect ive
lay ers
nation ally
hur t
ensu res
W is
z ip
re in
author ized
particip ating
Rad io
7 4
A wards
it able
st all
C lo
d ict
pl ot
super vis
Sim ply
univers ities
L earning
re fund
st ages
cur ric
gy m
H ou
f ers
s ink
z ing
in spection
ab use
Arch ite
philos ophy
C lear
p as
speak ers
Mod el
Sen ior
cab inet
gor ith
h its
h oney
l an
vis its
enter ing
regul atory
consequ ences
entreprene ur
pl ied
de em
19 80
Pol icy
target ed
R yan
d ated
x y
ne ither
per mit
De cor
hard er
flo ors
fall ing
O il
ac cor
Con st
strong er
Stud io
Agre ement
g iant
v ess
us ive
enthus i
d ash
ro ots
su res
ian ces
emp ower
nur sing
contribut ion
Admin istration
entit led
Coun try
Mot or
rat io
B and
pre ced
char ity
continu ous
liter ature
fly ing
3 50
H T
O ct
m ates
t ie
t emporary
su its
199 8
Ste el
Cred it
b old
sm ell
invest ments
passion ate
Gall ery
cot ton
pe ak
pr a
work shops
find ings
design ing
par alle
quar ters
H as
m i
ac counting
od d
Pr ime
function ality
maintain ed
W inter
l en
li ability
fin ishing
pat io
langu ages
gent le
se am
Inst all
compens ation
C reek
b ay
in n
ur b
ins ights
coach ing
invent ory
V iet
r ural
emer ging
Inter est
rang ing
Follow ing
K it
se eds
ig en
ure au
dev ot
Ty pe
assign ed
initi ative
K ent
Re cent
promot ion
enforce ment
K E
M om
U ser
se gment
do s
H arr
p ha
An t
low est
remain ed
M u
!! !!
tele phone
M other
al ive
ed ited
mur der
M B
r ust
am en
Ex press
rapid ly
C F
ex haust
cons olid
develop er
Gr ad
bal anced
absolut e
C it
p ad
t ape
it ate
ang el
spect acular
har mon
Ir ish
m ate
il legal
un i
ant ib
ber ries
leg es
stat istics
Lab or
C ub
k g
r iding
vers at
fol der
Sh are
priv ile
Beaut iful
Jose ph
7 00
D om
t issue
trans mission
Med ic
imm une
lock ed
Cons ider
H E
S ever
i OS
ad ap
sty lish
Every thing
div or
resist ant
A gency
E ver
M ess
U t
rel ating
dem ocr
watch ed
tr ash
any more
ask a
def ine
Comp uter
commer ce
trust ed
gold en
Tur key
Tor onto
al i
car pet
Ann ual
j i
str act
Work ing
reser ve
Secret ary
f ence
hy per
vot ing
scen es
Que en
W I
re med
ab road
us al
leg it
Pl ant
surv ival
N ick
p ic
re action
ck ets
owners hip
Pak istan
% ,
9 1
lo op
gr ateful
vert ical
deep ly
thous and
compat ible
D oc
o z
ex ists
end ers
pre v
Sy n
celebr ation
util ize
R a
st amp
pro hib
comp act
wer en
camer as
proto col
f itted
p ip
et ies
un known
con ce
att itude
whe els
Jack son
Cath olic
B L
N ur
U L
col on
gen e
temper atures
F ish
r ib
le mon
inter act
important ly
promot ing
construct ed
d il
break s
appl ies
ensu s
Further more
R C
re fin
equ ally
accor dance
Res ort
Mr s
initial ly
Kore a
to y
sh ed
ind icated
ph er
sur ve
leg end
stay ed
mar gin
Offic er
S or
in spect
Con tract
person nel
child hood
cas ual
lands cap
reser ved
B ot
Tr ade
Gl ass
Proper ty
b ands
ch ef
dr aft
bro ke
Ac count
contract or
7 3
A venue
m aps
dr a
prom ised
W a
r ick
com position
de cent
her itage
P ok
P ict
mo le
sh ade
ath y
ann iversary
Reg ard
essential ly
initi atives
B or
T re
c af
s oup
v oc
distribut ed
Lim ited
SQ L
onso red
S av
S hel
m ers
al gorith
ch ap
un usual
res id
qu is
ell ite
More over
emphas is
w ins
pr ime
gr ace
du al
elimin ate
Corpor ation
D ol
E ll
fl ights
pack aging
199 7
match ing
eval uate
Cre ate
Y O
l van
n ail
p ine
at om
ge ograph
work place
allow een
elect ed
Lev el
9 6
j et
l ers
ne uro
co s
str ange
invest ing
suppl ier
Work s
cry pto
Sol utions
Georg ia
D aily
H ER
N iger
m ouse
ed iting
warrant y
L ic
t ex
An im
Ex change
concer t
sem i
demon strate
mist ake
O cean
en or
pr ints
bu ff
afr aid
F ast
consist ently
B road
p ounds
few er
bed s
Des cription
heart s
saf ely
Sen ate
G reek
lo ose
mo date
want ing
roll er
Fo x
C ase
can cell
profess or
tut orial
Viet nam
R s
al o
co ins
ark s
t ures
accom modate
Word Press
D ave
t ired
fol k
walk s
config uration
organis ations
T am
h iring
s lo
s ought
an th
Per fect
wonder ing
Fo ot
phen omen
Hen ry
man if
Col lection
tour nament
S ound
an i
exam ination
adequ ate
R I
p ipe
product ivity
Bo y
Book s
subs cription
umn i
M oney
r ied
w ines
if i
cus h
ax y
review ed
park s
Cap ital
desk top
m ud
equ ity
compet e
tre as
5 th
8 7
C ry
es cape
cript ions
Min istry
cop ies
display s
acqu ired
cat alog
negot i
P a
p ig
pr iced
inter views
connect ing
citiz en
g ut
l ip
w ider
ist a
li ver
should er
tal ented
Sy d
floor ing
s ion
al er
was her
um a
St an
arr ange
bre ed
ball s
Pre vious
Commer ce
F resh
P T
g on
m ount
p df
y r
es h
ad mit
ab and
trans lation
document ation
frequ ency
C N
c ats
oun ce
wr ap
put s
Br ad
perform ances
tem plates
emot ions
6 1
ic ip
Ch all
Just ice
Seas on
il a
sur ge
sto cks
happ iness
agr aph
subs id
s cor
flu id
Cr usher
estim ates
newsp aper
l amp
il ton
ad el
od ge
wor n
stream ing
Lat in
bu b
direct ions
clud es
l atter
st ability
un certain
con vin
sh elf
can cel
ors es
je welry
reg ulation
Un ivers
check s
9 00
B ell
H op
Th ings
An g
prov isions
Mo v
por ter
sw ing
Rep air
decl ine
intellect ual
c akes
p izza
ia h
St ory
every body
wash ing
mountain s
decre ase
B log
with draw
dis covery
inter n
sure ly
gar lic
sens or
I ra
it ory
ur a
art work
mer ely
Qu ick
reve al
F E
st ones
Al ways
Ar iz
special ists
install ing
dur able
Loc ated
S aint
d ough
d iversity
j aw
k ers
the ast
ed ia
publ ishing
sec ured
mist akes
shap es
Avail able
T ick
c cer
or ous
en ess
ay a
ach ing
back up
loc ally
cy ber
rop ical
199 5
dam ages
Hel lo
rare ly
E mer
c ouch
s car
ed ges
un dry
process ed
sal ad
acqu ire
instru ment
enab led
E state
Pr ince
compl iment
rupt ion
8 6
L ux
N AS
j er
u ous
v ard
20 th
let ting
Br ing
among st
Gold en
Squ are
M ap
s outhern
des tru
ious ly
ult ane
oper ator
instru ments
thorough ly
re ception
wor ship
int ense
tar gets
campaign s
Experi ence
O L
re y
ac compan
AR T
smo ke
iam i
impress ion
analy st
conclus ion
O M
h ou
m its
net ic
official ly
describ es
resol ve
F ut
R on
gr id
inv ite
cons ent
ER S
employ ers
Sam sung
inspir ing
administr ative
w aves
dr ives
make up
point ed
ref uge
199 6
Gu ard
relig ion
S ure
sc ulpt
gre y
Fe b
surv ive
M un
u ment
act ors
gh an
fru its
Spe c
Applic ation
Current ly
( $
h ide
de pression
end a
Tr ack
Tr ail
To y
special ized
Med icine
refer ences
Ly n
D y
im plic
pro b
pro pr
tw ist
88 8
spons or
J on
L ind
ord an
custom ized
log ical
L Y
P sych
T ext
ast ed
cre ativity
sol o
poss ibilities
represent ation
tox ic
ust in
exam ine
expand ed
rub ber
vend ors
jo ys
uck y
B ol
D P
F ab
I mag
J enn
K ong
N umber
W on
p ix
ab il
fr anch
bo il
au x
load s
cool ing
preci ous
sophist icated
T un
re moving
un iverse
con ut
sp acious
ton ight
Man ufact
elect ions
hy po
mechan ism
assem bly
Tay lor
Syd ney
re ply
experi encing
hand y
With in
pick ing
Reg ister
cru ise
achel or
A ction
M ount
l oud
ab und
our ces
back s
inst antly
real istic
press ed
comple ting
represent atives
sudden ly
kno ck
t ender
int on
Ind ustry
hope fully
AP I
Spe ed
weap ons
M iami
a es
c ulation
r ia
is to
ev il
St ay
mus cles
ik a
hy th
copy right
gather ing
H ong
N u
g gling
in ery
Ad am
club s
dim ensions
N ame
t ours
genu ine
re tr
con serv
if ting
bre w
Cr u
th s
re model
lo gg
Co ol
vot ers
divid ed
bacter ia
fascin ating
Bes ides
9 3
B ad
G ul
j am
de fic
Al tern
period s
modif ied
coup on
I ron
L as
S I
is ters
sign als
suppl ied
frequ ent
opin ions
K n
del ivers
Con struction
Sh ort
tra it
bed rooms
assist ant
fab ulous
param eters
subsequ ent
g ue
pass es
met ers
attemp ts
G olf
g ardens
str ip
An aly
min istry
cir cle
cir cuit
inj ured
efficient ly
Fig ure
P as
n ations
No thing
rec ip
pow ers
Mean while
1 10
re cover
att ain
Ex cell
sto od
Comple te
apparent ly
Ef fect
D am
K ids
ch ip
Pr ior
oper ational
IC E
contribut ions
sleep ing
remark able
3 60
ut en
aw n
gu ided
AC T
meaning ful
nutr ition
dram atic
Ira q
T err
19 70
He y
pt on
collect ions
loss es
church es
Met ro
gather ed
arrang ed
princ ipal
alleg ed
dia betes
Ariz ona
S ource
col ored
che aper
Over all
Lar ge
D J
T ok
U k
o ved
move ments
aim ed
surround ed
Cert ified
L iter
g s
j ur
to ler
19 th
high lights
sim ultane
az ed
host s
Hist or
aband on
sp an
Lin ux
S top
am end
ex tr
some how
cap ability
De ad
hab its
consul ting
Prote ction
pil ot
V C
f ib
ol ive
com ed
table t
har vest
Bab y
curric ulum
A long
E ric
G row
G reg
n omin
cont ents
inv o
flow s
acquis ition
S cre
f is
are st
Com pan
bro ker
smart phone
recru it
8 2
N a
S L
S elf
V ers
is ms
to s
st itch
ful fill
inv as
impress ed
insp ire
Ve gas
Perform ance
P N
n est
en o
le ep
over view
cour age
mind s
ON E
wall paper
color ing
accept able
Ear ly
mir ror
ar on
ap ol
tim ely
tain s
bank ing
princ iple
se al
ver sus
Ch apter
cor ds
trans formation
az a
imm ers
exerc ises
( “
C li
H ub
K ings
st ig
produ ces
ann el
load ing
iat ric
restrict ions
Creat ive
T enn
ch ronic
form ats
fer ences
no se
rece ip
nor thern
comb at
blog s
else where
screen ing
arrang ements
painting s
sett led
G R
S H
d or
f are
t an
at in
co ating
You th
di pl
Stud ent
Bud d
behavi our
W ind
n an
w iring
it ative
develop ments
comple ment
address ed
diffic ulty
extra ordinary
craf ted
Vill age
B io
s lots
re str
el ing
ex it
feed ing
Elect ric
explan ation
B an
R od
In tegr
glo be
heav en
gradu ated
refr iger
re now
An ton
Ed ition
acc um
rank ed
wis dom
s q
w ake
ch op
ad option
Cont ent
Part ners
repe at
quant ity
Hou ston
A li
E aster
T en
pl ies
fif th
ad ed
ct s
sp ell
ins on
sing ing
gener ous
net working
bas ement
vo cal
beach es
situ ated
8 3
8 9
Do or
appreci ated
convers ations
sex ual
orient ed
D ub
t ension
dis counts
Un like
Pro du
ond a
Min nes
meas ured
Mag azine
suffer ed
8 1
m u
p uzz
con version
trad em
compet itors
integr ity
Get ting
K ev
L angu
U C
fr ames
min ister
rac ing
R ail
S ix
l enses
Po ly
subs crib
mechan ical
N ut
n t
in quir
ag u
20 20
over come
Col umb
Me thod
umb ing
Wed ding
alumin um
S port
c ope
re p
se ctors
ag s
art ificial
reg on
olog ist
nut s
pa ired
P ain
P ick
th ir
if ier
law yers
purch ases
Rest aur
J ac
po ver
Mo on
US D
test im
Mal ays
virt ually
dut ies
A k
d in
f u
p aste
ess ays
co sm
Fin ance
identify ing
ox y
lvan ia
B ear
p unch
ch ron
sh irts
ath ers
cult iv
victim s
be th
man n
par agraph
protect ing
plug in
passeng ers
Minnes ota
d well
u um
z ed
op posed
end or
Ch ange
cur ities
stru ggling
C amer
T ree
p iano
s tom
al t
as tr
char ging
stop s
Trans port
indic ates
t ort
re ction
gu ides
Al bert
gain s
excell ence
V I
es y
to ys
ac les
Ber lin
P P
′ ′
he t
go v
exp ense
Author ity
A gr
D all
The atre
ex terior
resul ted
manufact ured
Sim ilar
C ivil
ach ed
IS O
beautiful ly
dig est
represent ing
diagno sis
pod cast
Sever al
7 1
A w
R ol
T ai
ch est
em bed
resto re
K a
l as
l ounge
al arm
sp onsored
dis aster
ret ro
pract ition
Lo ck
Or ange
Plan ning
prec ise
F I
S ir
res ent
pre ad
discuss ions
oles ale
P os
T an
om er
dis tract
hun ting
enem y
D ump
N ice
h u
l ining
ang les
la undry
enjoy able
mar ine
heav ily
B lock
C row
C ash
D iam
P it
et t
ag greg
Se attle
Gr ant
prom inent
Stud y
O t
c ott
m igration
t ied
al ike
ad mission
ur er
dr ama
back ed
design ated
hand ed
list ings
di agram
dist ingu
cast le
spect rum
qual ify
F ield
cl ude
In nov
19 60
sur faces
On tar
bab ies
rom antic
M aking
O regon
P ow
h ob
on ic
as sured
am el
art istic
col leges
18 0
Sup reme
neigh b
scenar io
P ast
a er
bo ats
min eral
sol ving
fan cy
Bre ak
Ontar io
C ould
P aper
le e
il is
work er
sp a
sp are
199 4
rele ases
Adv anced
C ra
con v
ib l
cons in
appl iances
B uck
er als
se cre
ke en
prof iles
tour ist
Hol iday
kn ife
M uch
in os
work out
personal ized
Dis cover
optim al
Mill er
Penn sy
C arr
N um
Wr iting
jun ction
seas ons
J ordan
re cept
he m
Jo sh
cred its
AT E
popular ity
encour aging
chemical s
rob ust
facilit ate
Cond ition
9 2
C ro
C ape
g ical
re form
ach ieving
og en
under lying
law n
log ic
Har ry
Dav is
G or
T al
f ed
cl er
ino is
engine ers
athlet es
% )
re vis
ab ol
add le
win ners
const itut
9 4
e uro
v ice
is ely
enh anced
Pal est
Ret urn
dete ction
renow ned
D or
the atre
gr ants
ann y
gener ic
AN Y
vari able
gain ing
abs ence
pursu e
Industr ial
Holly wood
J r
per ce
co operation
dis ability
photo grapher
ste am
roll s
farm ing
Del hi
relax ing
expand ing
Wis consin
V ar
str ive
emot ion
sole ly
Scott ish
D er
m igr
an no
an ches
pro secut
over night
fl aw
gener ations
knowledge able
S ong
b atch
g em
m att
x x
AN T
sent ence
narr ative
M aterial
a o
be c
opt ional
imm un
Atl antic
ok ay
pres cription
ma themat
Min i
shel ter
Copy right
Pennsy lvania
? !
A ff
B urn
F T
H alloween
U E
n i
is ine
op pon
stru ck
sw im
cred ited
A K
R ome
g ig
h iking
h orses
y ield
the ater
fr ag
As sem
Phil ipp
fle et
F S
V ice
al ysis
em an
sp el
G ro
b und
E st
n it
el der
ha i
wor ried
bo o
ob serv
pers ist
wish es
exclus ively
G iven
h ug
Res ume
bur ning
bul k
F ix
b ust
d irt
in fection
re verse
im per
ens en
cy l
mag ical
vibr ant
K ir
b ull
d d
re hab
en joys
ab r
em on
An th
land ing
market place
Is lands
June au
base ball
capt ured
amen ities
b inding
g ently
j ar
ac o
de leg
ther mal
ast ro
dis pos
inter actions
Br ian
celebr ated
Let ter
Mat the
gro cer
accompan ied
B ody
d ancing
re ck
op position
man ip
produ cer
reg ards
key board
struct ured
imm igration
spo kes
Mem ber
occas ions
confident ial
trem end
Columb ia
divor ce
b att
om ed
he ated
un like
est one
had n
autom ated
wild life
arrang ement
O l
b ie
it u
.. ...
don es
prom ises
Res ident
21 st
Cour se
Mary land
Bet ter
fis cal
F low
comp ly
Col lect
B ush
J ay
N ature
P ers
s que
ch ips
form ula
don ation
Un it
sl ide
super b
Art icle
answer ed
scr ibe
Ill inois
Sty le
H ay
T ony
dis orders
Al li
sign ing
Sar ah
versat ile
C ele
L ess
S now
T el
ent ity
ul ating
effect iveness
vir us
Res p
advis e
Kev in
Dall as
8 4
J am
R P
b ark
ac res
ain s
new est
cour ts
oper ators
Of fer
trial s
po etry
In dones
where as
io x
think s
Can cer
redu ces
assign ment
limit ations
l ace
n ab
p el
other apy
ste in
specific ations
difficult ies
trail er
D if
W ow
w ings
in sert
ha w
bo ots
fo am
prem ier
nutr ients
govern ments
K S
t el
con servation
int u
Tr ue
Ste phen
ape ut
tit led
Eli za
k its
ad ing
Ch ang
d ot
ag ra
table ts
Cor n
Tot al
H u
K ate
p ens
in hib
be ef
use t
clean er
bur den
analy tics
dur ation
Assist ant
moist ure
F urn
ple ments
And erson
Ind ex
ref ers
agre ements
sort s
fortun ate
mes h
bour ne
demonstr ated
Bath room
' '
t ale
act ed
spo ken
Class ic
hospit als
c ub
al umni
ant e
ish es
** *
contribut ed
depart ments
phr ase
toile t
adel ph
A ustin
M and
U D
tr ails
if er
de lete
leg acy
hy brid
cred ential
earning s
Republic an
G y
S ize
a us
lo d
ES S
vo id
lad y
H z
M ust
be ans
bl ast
inter vention
De ep
exc it
Add itional
Any one
vot es
Ul tim
audi ences
in ar
en roll
pro portion
des erve
Tr u
rest oration
mix ing
sat ellite
oil s
NE W
A ge
R out
T ell
d ensity
w art
out let
any time
care d
oper ates
prom ising
cop per
phys ically
condition ing
altern atives
Mem orial
K ansas
O D
est e
ud es
br ick
where ver
vol t
collect ive
Up on
Inter ior
relax ed
C le
g au
r ational
s ne
ent ries
de fect
Res erve
Mag ic
Play er
lad ies
Den ver
K er
P or
d anger
e ager
g ments
om s
ile y
au ction
os is
inv al
Val ent
prevent ion
rating s
compass ion
es is
sh ades
advis ed
decl ared
gam bling
tail ored
nav igate
! ”
' :
A qu
E ag
n ick
su su
form ing
establish ment
Islam ic
Victor ia
Ox ford
adelph ia
l av
com posed
gr inding
ep is
post er
Des k
stay s
legis l
neut ral
Won der
P ER
V R
d ale
In tell
cret ion
sand wich
controll er
concent ration
t ent
tr im
sk etch
12 th
Gre y
e u
fo ster
process or
par ad
order ing
hard ly
elf are
fast est
rout es
complain ts
announce ment
d iction
t ropical
is ure
ic ting
ur ious
pat ent
spl ash
prec isely
complain t
b out
ur t
out doors
ach uset
eng er
organ ize
town s
admin ister
consum ing
rank ing
6 th
h ired
lo gy
199 2
select ing
associ ate
Spr ings
E mail
F ive
K enn
h en
in corporate
Col l
brow se
push ed
retail ers
occasion ally
P ear
S ug
at i
10 1
Mo ve
drop s
entreprene urs
M ail
t ube
ct ive
ke eper
co conut
well ness
gre et
Dou ble
achuset ts
D ur
h ence
ow ed
em pl
pack ing
accept ance
hit ting
categ or
Commer cial
crush ing
interpret ation
I dent
S R
h ell
sp her
olog ists
Res ources
stat ic
Pe ace
Up date
enab ling
Compan ies
B at
G as
S G
t une
he im
sm ith
leg ally
imm igr
hor r
T B
sing er
Phil adelphia
Econom ic
dies el
Environment al
G ra
H L
L es
ne ur
sk ip
sum mary
Sim ple
implement ing
apart ments
possess ion
manif est
o ret
il ation
light weight
offer ings
cup s
Ho st
execut ion
Rem ove
push ing
Lad y
L ot
S ou
S mo
o res
dis c
Ch annel
air y
At tor
Man ual
meas uring
Su ccess
news letter
reli ability
Mass achusetts
involve ment
S ac
ar c
str aw
cor respond
199 3
comb ines
block ed
Read ing
resol ved
jack et
H ad
S i
m ild
some body
old est
cur ious
follow ers
Ph D
elect ro
stop ping
sn ap
decor ative
reser ves
obl igation
G ree
P ages
b un
h unt
de pos
ish ment
For um
deal er
IT Y
d ys
invest or
integr ate
motiv ation
Uk rain
H an
V irt
f ired
re vers
be aring
rel ate
acc idents
valu ed
entertain ing
Th ird
dr um
car ing
clo th
different ly
Dr ug
bar rel
smo king
sequ ence
qual ities
stro ke
D ate
S ER
c ies
f ax
Wh atever
fil ters
Sci ences
overwhel ming
W ire
m ere
u er
col n
ann ually
Do ctor
pot atoes
cult ures
match ed
collect ing
Part icip
Par liament
IV E
D im
i ology
j an
An sw
10 th
US T
hum id
crip ts
mut ual
Die go
1 30
A part
C V
F ellow
M ind
P urch
c end
f ake
am bit
if ted
de er
my th
over seas
An ne
Ch ap
med ications
ret ired
download ed
threat s
Int rodu
basket ball
simultane ously
w age
ar my
An alysis
ont al
tra its
Af ghan
mod ules
separ ated
measure ment
univers al
vulner able
memor able
C ell
E th
b inary
ic ipal
end less
sal ary
class ical
respons ibilities
pen alty
High way
prefer ences
util ized
embr ace
Ye ah
L an
R F
R ap
cook ie
Cent ury
I ce
V M
a qu
p sy
be ver
pl ing
but tons
ak i
des per
Be gin
bro thers
Bu ff
bless ed
R h
p ub
un likely
br anches
19 50
U P
ob st
Am azing
Lu ke
Assem bly
excit ement
L aur
N T
el i
se ating
tour ism
decor ating
8 th
H ills
J ason
g low
sh orter
per mitted
sp ouse
Ch amber
St aff
conf used
intell igent
Langu age
G ary
N S
r hyth
Res er
treat s
reflect s
vend or
pregn ancy
W ins
col lar
tom atoes
Re ally
Com b
tow er
impact s
rough ly
icon ic
deem ed
R av
Y oga
ten nis
gl u
Pr in
carr ier
compar able
P ath
T ro
ro bot
ot ing
dis order
produ cers
Le wis
public ly
trav elling
Car l
achieve ment
vit amin
Democr atic
jur is
D utch
r aces
ut ical
de let
pe er
ful ness
fa ult
scholar ship
enor mous
W arr
pr on
cor responding
wr ites
wr apped
Je ws
fing ers
incorpor ated
bott les
F act
I B
t ion
v acc
bu ck
show case
ner vous
hand led
techn icians
Sing le
E V
P y
b ally
c key
e book
r ons
r ix
al ert
ist ical
let on
ident ification
particip ated
vot ed
Techn ical
Lin coln
hes itate
Equ ip
H TM
m ature
o ke
w ound
il i
ol ly
ab led
de fe
start up
sell ers
phys ics
tour ists
speed s
Je an
vin yl
investig ate
weap on
ende av
Friend s
pover ty
N one
P ier
r ival
om ing
tim ing
dr ied
ink le
ath on
fil ing
Ap ply
cou ples
separ ately
Port land
dead line
vac uum
B ureau
p ound
ac cent
fr act
gl ory
cost ly
count less
consider able
addition ally
grad es
affect s
neigh bour
kne e
B BC
R ain
R og
R ather
S audi
ag enda
my stery
satisf y
A E
W ars
b ish
d an
re call
ad m
od ds
don ations
inst ances
hand les
ret reat
char ter
struct ural
Christ ians
Mon th
sho e
batter ies
stead y
HTM L
F ed
a ire
il itation
In side
All en
expect ing
prem ises
analy ze
comput ing
Bit coin
aggress ive
propr iet
H ur
U sed
re wards
to ss
my ster
mor al
Cam bridge
expl oration
. -
b ite
inv itation
Che ap
Ed ward
ades h
attract ions
La ure
L T
ch ed
ab o
ab ad
lo gin
de ar
ine vit
der ived
present ations
direct ors
198 9
bare ly
P i
or ate
ir a
em issions
do ck
cus sing
ins ist
tru cks
transfer red
Gal axy
confirm ation
D ance
L am
S ad
b ones
k ay
” )
in sur
com edy
incl usion
special ty
bur st
Chair man
Chall enge
A ut
K y
S ony
r ip
ex plic
dr af
vis a
dem o
treat ing
sert ation
attor neys
anticip ated
P I
b icy
c ia
su ited
do zen
int ro
sub tle
12 5
Sh ipping
IT H
calcul ated
accompl ished
belief s
M T
W ine
c ous
d ar
um my
Pr inc
applic ants
plant ed
fre el
Atl anta
Cast le
Sor ry
B right
H ous
b is
f fer
in th
ro it
read s
requ iring
trans parent
var ied
Mar ine
gen etic
Reg ional
recommend ation
clim b
cabin ets
epis odes
J ane
il and
lo re
rad iation
autom otive
dry er
path s
susp ension
B ag
p ione
t ire
on ing
ar ise
lo vers
dig it
Her itage
DI Y
magn ific
H air
O H
R ick
b omb
h ike
es tr
qu ire
care ers
promot ional
cycl es
propos als
weak ness
igen ous
R en
R ound
c ig
j ac
int ensive
vo ices
apeut ic
E A
F er
P interest
or ious
ning s
exper imental
Re cords
scre ens
collabor ative
Ma jor
Ter ms
nav igation
Aud io
shel ves
Clean ing
Hom es
destroy ed
agric ulture
C lar
D at
N ic
dis appointed
over s
cal ories
Man chester
corpor ation
fig ured
exhib it
flav ors
Malays ia
C e
K u
N ev
t ang
is er
work force
cent uries
view ers
Br on
Cor p
D ays
P H
il ty
ow a
out ing
Co re
grow s
fix tures
carr ies
kill ing
Democr ats
discipl ine
up hol
pres erve
tw in
don t
bel oved
pass age
contact s
wood s
Of ten
engine er
nur se
clim bing
gradu ates
delight ed
Consul t
franch ise
M atch
s its
is an
is lands
ig e
sol ved
nic ely
Que ens
restrict ed
paralle l
Restaur ant
N ations
R ot
short ly
School s
celebr ating
motiv ated
I mp
l bs
com mod
In deed
Cl inton
Commun ications
architect ural
Ur ban
G S
S weet
U M
g ang
o ak
in ject
be e
am i
so ver
partic les
gen es
terr ible
Sim on
Post ed
Tem ple
lob by
legit imate
Fut ure
Cele br
L ib
R aj
T reas
an ony
ar gue
ict ed
optim ization
tag s
Cert ific
grat ulations
Recent ly
ilis oft
ro d
un fortunately
po ckets
bo asts
let t
med ic
Al ab
cuss ion
AS E
electron ics
Aff airs
Eliza beth
th ro
es a
ab stract
un lock
ex empt
them ed
vis ibility
tack le
YO UR
( "
O C
t in
exam s
invest ed
Pat rick
Sci ent
cep ting
. ;
L ater
o y
in ely
ro cks
ch ant
commun ic
program mes
cu isine
phys ician
moder ate
sem ester
influ enced
arrest ed
stake holders
G PS
N J
R oss
t ong
en cry
dis cussing
ph an
fin ite
To o
present ing
corpor ations
straight forward
Fore ign
stom ach
B arr
N ob
S ide
all erg
part ial
fl ip
ho o
pur ple
reser vation
reve als
pal m
sustain ability
diam eter
D B
H art
P ed
f el
s ons
t iles
we ed
so ccer
pre stig
199 1
bank rupt
Bel g
dress ing
modif y
scor ing
F ant
st ere
am pl
ter y
ul tra
res cue
gr ill
let te
tom ato
ident ical
world s
document ary
DA Y
Pan el
tast y
Toy ota
F eder
S had
o ch
s cent
im aging
val ley
ship ped
14 0
subst ance
rank s
Wil son
F ine
ar bit
we ird
ci um
read ily
grad ually
pool s
appreci ation
clud ing
7 th
K ay
s ke
w ax
out fit
pe ar
Dr agon
mal ink
har sh
lux urious
asp ir
Mel bourne
Diam ond
A my
ro g
ben e
lab our
teach es
music ians
speak s
attend ance
Det ails
jun ior
Enter prise
Niger ia
matt ress
F R
ne at
own s
cr imin
techn ological
Im port
Wal es
excess ive
Dump ster
R ent
g ross
enc lo
au g
gram s
Ar m
To gether
Ro ber
Sep t
respond ed
Indian a
Bir th
passeng er
Swed en
Stor age
V eter
sh am
po on
port al
dis cretion
dr ome
He at
Ne ther
continu ously
Tit le
pregn ant
oblig ations
F a
M ars
S ab
T ouch
l ighter
for gotten
iz ations
ace utical
inter pre
old s
high way
sub mission
Pl ans
18 th
met ro
Ph arm
season al
scr ap
ograph ic
advent ures
vas cular
Pract ice
A y
C u
L iber
be am
te ars
ign ore
public ations
tem ple
econom ics
color ful
Rep resent
consist ency
instruct or
util izing
Lab our
Kore an
oxy gen
Equip ment
F ile
c av
r us
z ens
ag an
ess ence
any body
br is
inter nationally
int ensity
St ars
home owners
pack s
Fe el
Book mark
consult ant
Sa fe
agric ultural
k ed
in cur
in trig
ch amp
be gun
em ade
bl ade
pho sp
round s
dest inations
adjust ed
itz er
acknow ledge
Mult i
I BM
M i
b om
ag ger
cr aw
contain ers
Dep ending
trick s
Us ers
Prem ier
> >
j unk
t empor
re placing
el ve
ke e
comp elling
des ert
rece ives
Dr aw
AS T
crib ed
sens it
a a
g le
s i
fr agr
ie val
br ack
Gr ound
Le on
vi et
autom ation
adjust able
Tur k
wal let
brea thing
uni form
Dub ai
9 th
V ent
j ail
po em
gh ost
Com pare
ash ed
function ing
tre k
jud gment
demand ing
Olymp ic
B T
L uck
a use
ot y
ne ath
row s
fl ies
Any way
conduct ing
psych ological
! ).
F M
G h
Q U
ol ars
im s
our i
ob serve
clear ance
cou ver
president ial
pitch es
haz ard
s ou
be ings
tr ib
cry stal
CB D
dim ension
distinct ive
B ren
b ikes
i ot
t at
ar med
ut y
qu il
ast y
sup pose
To ol
authen t
enem ies
Furn iture
. ).
B ry
F inal
N FL
l ane
u an
ag a
ded ication
fall en
terr itory
Har vard
D ist
G il
U su
ad mitted
sh i
gr ay
eas iest
trans it
Co ach
IS T
respons ive
Gover nor
Israel i
Clin ical
Dy nam
S pot
d ivers
or i
ing er
ell ers
Ex per
Ro of
Ind ividual
prospect s
VP N
convin ced
H onda
V it
ac re
port ions
need ing
bar a
anim ation
broad er
BM W
fro zen
Bow l
Haw ai
kil omet
c ents
i ates
j ury
on ion
ap a
In fo
ev ident
br on
bet ting
contact ed
board ing
enn ial
bi ological
36 5
upload ed
Fall s
Quest ion
G ift
en rich
av an
li x
ail ing
prov ince
St ream
tw elve
sup porters
sol ic
build s
train s
protect ive
indic ator
Palest in
tremend ous
Attor ney
N ation
W O
f usion
ch ill
dis k
sim ulation
atter ed
Ap pro
Cor ps
coach es
U V
X P
e colog
l ung
m ask
v on
st ap
op y
gu ilty
15 th
Ev ents
coup ons
chr ist
bene ath
: :
P il
d ings
t emp
th al
re cycling
con e
organ izing
class ified
Char lie
imag ination
neg lect
Vis ual
honest ly
poll ution
Matthe w
H ensen
W y
f ate
is sa
le ak
un limited
ut s
ind ivid
In n
eas tern
activ ated
ane an
signific ance
Fl ash
bath rooms
anc ers
Pay Pal
receip t
A th
A RE
P aren
ver ify
li able
ang ers
trad itions
card io
assist ed
Reg istration
swe at
sold iers
viol ation
clin ic
Set ting
eth nic
Through out
Foot ball
h ills
per malink
sp at
ener y
lab els
ref use
anal ys
bon ds
inform ative
Met al
peace ful
termin al
Van couver
M eas
g ly
re cycl
le isure
ac company
con cluded
igh ters
bo oth
des ir
tain ing
clo set
cle ver
sell s
appoint ments
Mor ris
diagno sed
" )
B run
W indow
f ires
t ier
ir s
tr ap
qu ery
ind irect
mon et
pay s
Mar ia
seem ingly
complex ity
iff s
bug s
Imag ine
p end
p ants
in ser
ad ays
out line
bo ther
mind ed
pain ful
gen re
foot age
.... ....
death s
pul ling
catch ing
clos est
Mex ican
harm ful
blogg ing
Ele ment
C ateg
K elly
S oft
T on
m arch
lo ver
de ce
pre ference
car tr
gu ards
Ar k
val uation
contin ually
den ied
claim ing
D ress
L P
S r
st arter
id al
dis sertation
ane ous
pen et
surround ings
dro ve
conver ted
dedu ct
A ve
M ort
th irty
wh is
str iking
there by
incl usive
sur gical
Con ver
support ive
Be y
ord ination
Le ave
clean ed
omet ric
mach inery
dial ogue
embed ded
secre ts
J ess
L C
P in
c et
m ant
re sem
st abil
et ics
pr ises
Ch at
fin ity
az ines
val ve
bas ics
whe at
wel coming
decor ated
determin ing
measure ments
Ham ilton
Blo om
devot ed
G ur
b ins
ut es
can nab
te ar
add y
exper iments
Con f
ste ep
Bl u
vari eties
favor ites
refer ring
sens ors
roy al
Miss ouri
attemp ting
Tha iland
disput e
N P
R T
n els
ic ide
ent ities
im mer
pl umbing
fr idge
igh th
Ex tra
Gr aph
past a
educ ated
attempt ed
shad ow
Champion ship
recip ient
D ry
E ye
u ing
v ig
con vention
ne arest
op les
gener ating
13 th
regard ed
prevent ing
coast al
advoc ate
destru ction
Alab ama
T aking
in no
en ix
ch lor
ha ul
To ols
mus h
fac ial
ling ton
Ed itor
throw n
itar ian
Meet ing
independ ence
Jac ob
S ay
W W
ac ter
ro gen
add iction
reg ime
Tr i
So viet
Sh ar
appe aling
ref used
Det roit
surprising ly
L I
R and
W ITH
m ice
st ur
em y
per ception
ser ial
under ground
Tr av
Pr ize
dec iding
oper ative
center ed
king dom
Year s
remind er
iro pract
cor ners
fl ed
prom o
LO VE
mechan isms
Fort un
sac rif
magnific ent
M arr
p c
t ical
fo ol
bl ame
aud it
compet ing
fail ing
rid ic
prec ision
highlight ed
dipl om
G ate
T ower
iz able
Wh it
char ming
ton es
organ ised
advis or
merch and
Opt ions
Usu ally
H ence
S cript
c ant
on ions
con sole
pre p
ll a
bu zz
16 0
ref lection
Min ing
pick up
Act iv
obtain ing
Organ ization
mand atory
Ok ay
Publ ish
Gul f
grocer y
R oll
Ch amp
del icate
compan ion
Some thing
prospect ive
Jun ior
Prom ot
crafts man
Prim ary
J ava
S ter
V in
Y ellow
f i
the oret
ch or
man ually
well ery
see ks
And y
Al aska
gar bage
roof ing
onom y
usal em
individ ually
S end
g ad
t ends
for cing
lo cks
mo ck
comp ound
cr ust
car to
wel comed
warm ing
Prem ium
reject ed
L isa
N ik
Z o
ac cepting
qu eries
med iate
ash es
custom ize
vol unt
ham mer
Im ages
RO M
cand y
libr aries
veget able
conscious ness
Cli ent
I owa
d ive
i ere
j azz
l ately
ant ique
te es
ens ively
Ex pl
access ed
labor atory
determin ation
L ane
N ok
S el
b ump
z an
gr ip
du plic
As sess
Con vention
ble m
local s
pan ic
affect ing
198 7
accur ately
bound aries
---- ----
C M
J P
l b
back yard
sub scribe
che er
Br uce
11 th
Fo cus
Jer usalem
rang es
clar ity
C ulture
G un
O thers
p ies
In cre
cer amic
els on
IN E
address ing
camp ing
manufact ure
contribut ing
occup ied
Bas ic
Nav y
Agr ic
F F
r ally
u le
not ification
cur ing
bal con
understand s
phys icians
organiz ational
fant asy
Sol ar
vess els
recruit ment
Virt ual
C AR
V AC
f ails
ch arts
do zens
health ier
dress ed
habit at
veter an
legend ary
neighb ors
Anth ony
Alli ance
Indones ia
C ow
F ashion
G ill
p ir
he al
ow ing
ce ment
res il
dis abled
Ex cel
rece iver
appro x
Jo y
aff airs
hor ror
maxim ize
C os
b ree
ct ic
has sle
no body
pat ience
dev ast
wa ist
Car ib
sn acks
Sur vey
Sus an
dispos al
Nether lands
D ad
re cess
ad hes
pe ers
St adium
hand ful
conf usion
flow ing
syn thetic
NY C
Ther apy
resto red
Resident ial
W N
ou ds
ro be
can vas
Ch an
book ed
prof ound
exam ined
met er
pair s
bes ides
Admin istr
Phys ical
tro ops
Univers al
Tick ets
C offee
R M
to ll
ig s
ul u
fr ied
ther apeutic
del iber
trans mit
scre w
hom eless
drop ping
throw ing
D al
P RE
R AM
r ab
s ights
es see
long est
tem pt
ware house
Ty p
attribut es
lever age
Tok yo
apol is
Valent ine
B rew
C old
F DA
G host
J en
M all
M ath
n ails
s om
com ic
te c
dis abilities
ca ution
att ende
TH IS
according ly
prior ities
nation wide
/ .
G T
I O
R us
out lets
int ake
under graduate
encour ages
Pre pare
smooth ly
partnership s
dess ert
explic it
C K
] ,
f y
u it
le ans
am ins
con junction
mob ility
human ity
sn ack
finish es
chair man
HER E
Gree ce
F red
so d
per pet
In cludes
ok ed
ach t
ca ve
Con sumer
vari ables
accus ed
B achelor
V ision
i ju
w y
can o
ort ion
Ch er
tain ment
Un til
light ly
Be at
sto len
activ ate
vari ations
draw s
rad ical
198 8
wind s
Ber n
strength s
Beaut y
p enc
r ors
con ferences
ul s
fer ent
under neath
char m
De ath
execut e
sis ters
chem istry
Lead ership
Tha i
D M
w elfare
min erals
app et
friend ship
Ed ge
Bar bara
sil ent
polit an
fold ing
Hope fully
Ess ential
Scre en
S cr
r h
v ouch
ch amber
de feat
sh ield
iv a
air line
tribut e
tast ing
isto l
R ub
S in
l id
de bris
br ace
19 30
Re cord
Fr ame
How ard
reach es
reason ably
establ ishing
remind ed
Y a
iz ers
her bs
cus to
cur ve
print able
AC K
Miss ion
minim ize
hun gry
ó n
th a
ex otic
An na
head phones
stick s
Sw iss
tun ed
E specially
N ich
R idge
il er
am id
bu cket
fl oral
Le gal
At t
pract icing
appe aring
bor ing
anal og
glo bally
ches tra
Direct ors
chain s
argu ments
decre ased
domin ant
tex ts
C in
L um
g ence
g ement
l ord
o val
as sumed
qu it
co ated
ens ional
sup plements
Al an
Thanks giving
Sum mit
dram atically
subsequ ently
cush ion
conserv ative
desir able
R SS
un necessary
ment or
Tr inity
ret t
Gr ade
Val ue
proceed ings
forest s
Invest ment
Franc is
orient ation
dra ising
compliment ary
Pit ts
Afghan istan
A Z
B Y
F X
F el
M BA
T ed
T ab
W ol
n ish
for k
ur ge
dis closure
cent res
iter r
Car ter
introdu cing
bul bs
Ob ject
Swed ish
jac ent
Carib bean
A do
F al
M organ
o id
p ipes
v able
an gry
ap o
qu o
tribut ion
Sp a
def ensive
mag azines
execut ives
Job s
Kent ucky
Excell ent
volt age
L S
T ip
med itation
cap su
De b
grad uation
separ ation
execut ed
dur ability
psych ology
depart ure
Brook lyn
I ES
h att
p ads
in ction
ve gan
she ep
Be ck
sing les
Co ordin
trav els
mag netic
soon er
trou bles
OU T
tast es
implic ations
Innov ation
iju ana
S ud
the dr
ol ine
home work
regul ated
Gl ad
datab ases
absor b
champion ship
quis ite
P ret
S cal
f ont
n ity
ill ion
per mits
po o
part ially
bor ne
trad es
nam ents
profession ally
liter ary
Republic ans
diam ond
govern ance
affil iate
Never theless
Fortun ately
iterr anean
B os
J i
re actions
tr an
Mo ore
ma id
bi ology
recogn ised
surpr ises
198 6
former ly
Ty ler
Vo ice
Certific ate
prestig ious
G C
N ET
p ension
ad op
con greg
In it
go ogle
line ar
strict ly
R ace
W ik
en velop
ol i
ol as
tr am
pe an
like wise
off set
mem br
ann ers
Gr ay
sum mar
Te a
round ed
tal ents
hom emade
respect ed
polit icians
Treat ment
C art
L ex
k ar
so ap
qu et
Th r
far ms
fre ely
progress ive
gun s
improv es
infl ation
cogn itive
S ri
l ender
v ap
ac er
ab ul
te ens
hard wood
mar ble
Str ateg
Pho enix
Start ing
Int el
Loc ation
eco system
Pok er
Vers ion
Tenn essee
M umb
V ac
el ite
sh ame
co zy
ep ic
ob servation
Al most
trans formed
loy al
activ ation
Associ ate
consist ing
target ing
crow n
veter ans
Philipp ines
P ic
S B
f lix
t ires
al pha
st an
el and
ill er
per su
af ood
For mat
Un less
Gr an
law suit
14 th
Add ress
Ret ail
viol ent
rail way
gran ite
N ash
P ul
not ion
Med iterranean
travel ers
dy ing
document ed
adjust ment
profit able
motor cycle
Vol unte
Bet ween
concent rate
Girl s
Base ball
W o
ch ic
up set
fo x
down s
Com m
var ies
Is su
bor ough
connect s
swe ep
198 2
attract ion
reflect ed
cris p
Cer tain
chap ters
G a
P ink
Z one
d rew
p est
p ork
on ts
con sume
new er
prov in
bu cks
Lo v
cross ed
stress ed
fem in
Emp ire
prompt ly
Bed room
cure ment
delet ed
Mumb ai
B ish
S pl
X L
h int
j ug
p ins
ac ids
un ting
head quarters
When ever
Pl atform
fire place
associ ations
detect ed
Know ledge
Corpor ate
Walk er
evol ved
scenar ios
surve ys
Jenn ifer
Ukrain e
F an
H it
I E
L ef
b aked
c ence
d ip
t weet
re con
the ft
so o
found ing
Chr ome
ball ot
IT E
bud s
Design s
Trans fer
refresh ing
F le
G U
r ou
r ides
z u
th umb
re venues
ac ry
con strain
ain e
cre atures
Po ol
Gener ally
Ob vious
eth ical
tank s
barr iers
Wi Fi
credential s
: )
B attle
R ing
R ow
pr izes
not ify
pre val
And re
Tr ip
bre ach
Mad ison
Enter tainment
Custom ers
reward ing
Orig inal
Kind le
Doc ument
eli hood
A id
A ren
G i
R ules
T u
e ve
h ing
iv ic
cr imes
ener g
oc y
met rics
explain ing
emer ged
Read y
nic he
Mos cow
independ ently
Harr is
Rober ts
I sa
d irty
t v
el ab
tr aged
fe as
ak h
main stream
week ends
Cl ark
check out
prote ins
17 th
mun icipal
Sw itch
Ben ef
dynam ics
Publ ished
Orig in
Bey ond
. ’
A x
H ugh
L ay
W OR
ig ue
fer til
row ave
place holder
Ad vert
applic ant
Just in
sen iors
six th
Act ive
argu ed
vary ing
gau ge
a que
g um
top ped
car b
gl ue
learn ers
tit ude
hop ed
Sk in
pursu ing
cyl inder
V el
e cho
con front
all ic
po ke
ip her
iz on
ink s
gl as
point ing
opt ical
met res
trad ers
vari ation
Fe atures
Su ite
pen al
mas ters
Sen ator
S ust
T a
pl as
We ight
bu ilder
Con serv
paren cy
necess ity
elt a
moment um
subst itute
Bre x
lit igation
Obvious ly
N az
S K
V s
k iss
l ug
r ays
s ake
s aves
in expensive
av ed
fl ush
land o
Fr an
ug al
Res ults
suggest ion
institut ional
dent ist
discipl inary
Anton io
H ud
N ep
st up
for ums
Pro ceed
Ex pert
sl ice
Che m
Health care
Char lot
adjust ments
replic a
prev ents
Aw esome
C AN
i y
it ations
thr illed
train er
pop ulations
flo ating
comb ining
sun ny
remember ed
cin ema
assign ments
Op tim
t ails
th res
in ate
to ck
li est
don ated
loy alty
vent ions
pot ato
connect ivity
integr al
challeng ed
promot ions
Pal m
journal ist
philos oph
2 20
F ul
J a
K al
P ump
b ted
c ill
ar ising
ac ies
des ires
mon ster
Con gratulations
gl uten
Cl ay
lim e
ste ering
non profit
rup ted
Commun ication
Cy ber
ador able
Flo or
pill ow
refin ed
Nok ia
C ars
c ited
ill ance
30 pm
educ ate
Sy ria
CO M
dry ing
brow sing
cross ing
prop ag
gon na
analyst s
Tai wan
intu itive
? )
D a
id y
te as
reg ret
Gr ace
dist ress
launch ing
block chain
surv ived
lap se
Ver mont
Main e
renew able
ias m
Jeff erson
amm ation
inquir y
observ ations
sque e
bankrupt cy
sensit ivity
merchand ise
2 B
T i
c ort
en rolled
se aled
So on
Be ij
augh ters
cou pled
div ine
ox id
Cho ice
Cab inet
adap ted
Regard less
propriet ary
Sust ain
C ann
S leep
es cap
ad jacent
te ous
cl ips
aw k
mark ing
tow el
compet ent
sil ence
proceed s
trick y
aes thetic
Resp ons
F u
r ivers
w ides
We ather
au f
ho ly
jo ints
De an
plic ity
Or leans
key words
Cr ush
Part s
maintain s
switch ing
susp ended
iP od
delay ed
democr acy
Answ er
S even
S oul
k not
th ur
st air
id ges
od ies
An ti
Re quest
But ter
vi able
SE C
Blue tooth
ograph y
transl ated
pros per
Medic are
negoti ations
p he
em bro
comm ands
cor rection
cred ible
super vision
depend ence
discover ing
tact ics
horiz ontal
Grad uate
pix els
or er
ne gl
qu er
ign ored
don ate
Per u
stream s
enh ancing
rid ers
pray ers
CB L
Def ense
behavior al
Cost a
intim ate
abandon ed
Intell igence
thedr al
L ots
P od
S pect
d iving
v ations
ag ers
Ch i
back ing
je ans
Re ce
Col oring
contro vers
Or acle
face book
16 th
tax i
Her o
La unch
Mor ning
threat ening
insul ation
Tun es
elder ly
Turk ish
ar ia
ch i
un iqu
tr as
not able
... "
furn ish
Alex ander
moun ting
Fore x
symbol s
hospit ality
A U
B ull
P s
P ie
b ou
in sured
on ds
ic he
fun draising
De al
sl ides
Me chan
flu x
198 4
198 5
Techn ologies
Elect ronic
ona than
Mov ie
B orn
K in
s well
v ance
am azed
ct r
wh olesale
un comfortable
man ages
Ch and
19 20
run ners
perform s
ric ane
sch olars
lif ting
distribut e
?? ?
enthus iasm
myster ious
uphol stery
authent ication
Ath let
attende es
D ental
T ow
b ind
e Bay
tr ace
should ers
Tr uck
cle ans
Coun ter
step ped
tax pay
Pol ish
mail ing
Del ivery
cream y
Cop per
practition ers
SG CBL
. '
L if
l ending
to dd
ch en
res on
fun eral
sum mit
24 0
exc use
Ed in
explo red
Up per
decor ation
cheap est
extract ion
pra ise
Pitts burgh
Brex it
A aron
b orders
c ade
u ed
st en
not ified
um ns
str ap
off ensive
thr itis
ten ant
Or lando
por tray
Mar g
plain t
Fe ed
AC E
brand ed
eral d
MP 3
Spe aking
Other wise
fat al
barr ier
therap ist
Similar ly
) ?
B U
C ream
D ak
D rop
D omin
on ia
and o
se gments
com promise
po ems
enc er
Se an
special izes
la hom
assess ed
NO W
strike outs
Const itution
F ill
G ardens
H IV
J et
J onathan
c c
k u
r he
he ater
ok es
sp ine
St ain
off ense
ob sess
ner ve
hum or
comb inations
particip ant
fab rics
Rev olution
relax ation
