{
  "version": "1.0",
  "truncation": null,
  "padding": null,
  "added_tokens": [
    {
      "id": 0,
      "content": "<UNK>",
      "single_word": false,
      "lstrip": false,
      "rstrip": false,
      "normalized": false,
      "special": true
    },
    {
      "id": 1,
      "content": "<PAD>",
      "single_word": false,
      "lstrip": false,
      "rstrip": false,
      "normalized": false,
      "special": true
    },
    {
      "id": 2,
      "content": "<s>",
      "single_word": false,
      "lstrip": false,
      "rstrip": false,
      "normalized": false,
      "special": true
    },
    {
      "id": 3,
      "content": "<s/>",
      "single_word": false,
      "lstrip": false,
      "rstrip": false,
      "normalized": false,
      "special": true
    }
  ],
  "normalizer": null,
  "pre_tokenizer": {
    "type": "Whitespace"
  },
  "post_processor": null,
  "decoder": null,
  "model": {
    "type": "BPE",
    "dropout": null,
    "unk_token": "<UNK>",
    "continuing_subword_prefix": null,
    "end_of_word_suffix": null,
    "fuse_unk": false,
    "byte_fallback": false,
    "ignore_merges": false,
    "vocab": {
      "<UNK>": 0,
      "<PAD>": 1,
      "<s>": 2,
      "<s/>": 3,
      "\u0000": 4,
      "\u0001": 5,
      "\u0003": 6,
      "\u0005": 7,
      "\u0006": 8,
      "\u0007": 9,
      "\b": 10,
      "\u0012": 11,
      "\u0014": 12,
      "\u0018": 13,
      "\u0019": 14,
      "!": 15,
      "\"": 16,
      "#": 17,
      "$": 18,
      "%": 19,
      "&": 20,
      "'": 21,
      "(": 22,
      ")": 23,
      "*": 24,
      "+": 25,
      ",": 26,
      "-": 27,
      ".": 28,
      "/": 29,
      "0": 30,
      "1": 31,
      "2": 32,
      "3": 33,
      "4": 34,
      "5": 35,
      "6": 36,
      "7": 37,
      "8": 38,
      "9": 39,
      ":": 40,
      ";": 41,
      "<": 42,
      "=": 43,
      ">": 44,
      "?": 45,
      "@": 46,
      "A": 47,
      "B": 48,
      "C": 49,
      "D": 50,
      "E": 51,
      "F": 52,
      "G": 53,
      "H": 54,
      "I": 55,
      "J": 56,
      "K": 57,
      "L": 58,
      "M": 59,
      "N": 60,
      "O": 61,
      "P": 62,
      "Q": 63,
      "R": 64,
      "S": 65,
      "T": 66,
      "U": 67,
      "V": 68,
      "W": 69,
      "X": 70,
      "Y": 71,
      "Z": 72,
      "[": 73,
      "\\": 74,
      "]": 75,
      "^": 76,
      "_": 77,
      "`": 78,
      "a": 79,
      "b": 80,
      "c": 81,
      "d": 82,
      "e": 83,
      "f": 84,
      "g": 85,
      "h": 86,
      "i": 87,
      "j": 88,
      "k": 89,
      "l": 90,
      "m": 91,
      "n": 92,
      "o": 93,
      "p": 94,
      "q": 95,
      "r": 96,
      "s": 97,
      "t": 98,
      "u": 99,
      "v": 100,
      "w": 101,
      "x": 102,
      "y": 103,
      "z": 104,
      "|": 105,
      "}": 106,
      "~": 107,
      "": 108,
      "": 109,
      "": 110,
      "": 111,
      "": 112,
      "": 113,
      "": 114,
      "": 115,
      "": 116,
      "": 117,
      "": 118,
      "": 119,
      "": 120,
      "": 121,
      "": 122,
      "": 123,
      "": 124,
      "": 125,
      "": 126,
      "": 127,
      "": 128,
      "": 129,
      "": 130,
      "": 131,
      "": 132,
      "": 133,
      "¡": 134,
      "¢": 135,
      "£": 136,
      "¤": 137,
      "¥": 138,
      "¦": 139,
      "§": 140,
      "©": 141,
      "«": 142,
      "¬": 143,
      "­": 144,
      "®": 145,
      "°": 146,
      "±": 147,
      "¶": 148,
      "·": 149,
      "»": 150,
      "¿": 151,
      "À": 152,
      "Á": 153,
      "Â": 154,
      "Ã": 155,
      "Ä": 156,
      "Å": 157,
      "Æ": 158,
      "Ç": 159,
      "È": 160,
      "É": 161,
      "Ê": 162,
      "Ë": 163,
      "Ì": 164,
      "Í": 165,
      "Î": 166,
      "Ï": 167,
      "Ð": 168,
      "Ñ": 169,
      "Ò": 170,
      "Ó": 171,
      "Ô": 172,
      "Õ": 173,
      "Ö": 174,
      "×": 175,
      "Ø": 176,
      "Ú": 177,
      "Û": 178,
      "Ü": 179,
      "Ý": 180,
      "Þ": 181,
      "ß": 182,
      "à": 183,
      "á": 184,
      "â": 185,
      "ã": 186,
      "ä": 187,
      "å": 188,
      "æ": 189,
      "ç": 190,
      "è": 191,
      "é": 192,
      "ê": 193,
      "ë": 194,
      "ì": 195,
      "í": 196,
      "î": 197,
      "ï": 198,
      "ð": 199,
      "ñ": 200,
      "ò": 201,
      "ó": 202,
      "ô": 203,
      "õ": 204,
      "ö": 205,
      "÷": 206,
      "ø": 207,
      "ù": 208,
      "ú": 209,
      "û": 210,
      "ü": 211,
      "ý": 212,
      "þ": 213,
      "ÿ": 214,
      "Ā": 215,
      "ā": 216,
      "Ă": 217,
      "ă": 218,
      "ą": 219,
      "Ć": 220,
      "ć": 221,
      "ċ": 222,
      "Č": 223,
      "č": 224,
      "Ď": 225,
      "ď": 226,
      "Đ": 227,
      "đ": 228,
      "Ē": 229,
      "ē": 230,
      "ĕ": 231,
      "ė": 232,
      "Ę": 233,
      "ę": 234,
      "Ě": 235,
      "ě": 236,
      "Ğ": 237,
      "ğ": 238,
      "Ġ": 239,
      "ģ": 240,
      "ĥ": 241,
      "ĩ": 242,
      "Ī": 243,
      "ī": 244,
      "ĭ": 245,
      "į": 246,
      "İ": 247,
      "ı": 248,
      "ĺ": 249,
      "Ļ": 250,
      "Ľ": 251,
      "ľ": 252,
      "Ł": 253,
      "ł": 254,
      "Ń": 255,
      "ń": 256,
      "ņ": 257,
      "ň": 258,
      "ŋ": 259,
      "Ō": 260,
      "ō": 261,
      "ŏ": 262,
      "ő": 263,
      "Œ": 264,
      "œ": 265,
      "Ř": 266,
      "ř": 267,
      "Ś": 268,
      "ś": 269,
      "Ş": 270,
      "ş": 271,
      "Š": 272,
      "š": 273,
      "ţ": 274,
      "ť": 275,
      "ũ": 276,
      "Ū": 277,
      "ū": 278,
      "ŭ": 279,
      "ů": 280,
      "ų": 281,
      "ŵ": 282,
      "ŷ": 283,
      "Ÿ": 284,
      "Ź": 285,
      "ź": 286,
      "Ż": 287,
      "ż": 288,
      "Ž": 289,
      "ž": 290,
      "ƅ": 291,
      "Ǝ": 292,
      "ƒ": 293,
      "Ɩ": 294,
      "Ɵ": 295,
      "ơ": 296,
      "ư": 297,
      "Ƴ": 298,
      "ǎ": 299,
      "ǐ": 300,
      "ǒ": 301,
      "ǔ": 302,
      "ǣ": 303,
      "ǫ": 304,
      "ǽ": 305,
      "ȏ": 306,
      "ș": 307,
      "Ț": 308,
      "ț": 309,
      "Ȟ": 310,
      "ȯ": 311,
      "ɐ": 312,
      "ɑ": 313,
      "ɔ": 314,
      "ɕ": 315,
      "ə": 316,
      "ɛ": 317,
      "ɠ": 318,
      "ɡ": 319,
      "ɦ": 320,
      "ɪ": 321,
      "ɵ": 322,
      "ʁ": 323,
      "ʃ": 324,
      "ʉ": 325,
      "ʊ": 326,
      "ʌ": 327,
      "ʏ": 328,
      "ʒ": 329,
      "ʔ": 330,
      "ʹ": 331,
      "ʺ": 332,
      "ʻ": 333,
      "ʼ": 334,
      "ʽ": 335,
      "ʾ": 336,
      "ʿ": 337,
      "˅": 338,
      "ˆ": 339,
      "ˇ": 340,
      "ˈ": 341,
      "ˌ": 342,
      "ː": 343,
      "́": 344,
      "̂": 345,
      "̃": 346,
      "̄": 347,
      "̆": 348,
      "̇": 349,
      "̈": 350,
      "̊": 351,
      "̋": 352,
      "̍": 353,
      "̓": 354,
      "̣": 355,
      "̧": 356,
      "̨": 357,
      "̩": 358,
      "̪": 359,
      "̯": 360,
      "̱": 361,
      "̶": 362,
      "͛": 363,
      "͞": 364,
      "͡": 365,
      "Ά": 366,
      "Έ": 367,
      "Ή": 368,
      "Ώ": 369,
      "Α": 370,
      "Β": 371,
      "Γ": 372,
      "Δ": 373,
      "Ε": 374,
      "Ζ": 375,
      "Η": 376,
      "Θ": 377,
      "Ι": 378,
      "Κ": 379,
      "Λ": 380,
      "Μ": 381,
      "Ν": 382,
      "Ξ": 383,
      "Ο": 384,
      "Π": 385,
      "Ρ": 386,
      "Σ": 387,
      "Τ": 388,
      "Υ": 389,
      "Φ": 390,
      "Χ": 391,
      "Ψ": 392,
      "Ω": 393,
      "ά": 394,
      "έ": 395,
      "ή": 396,
      "ί": 397,
      "α": 398,
      "β": 399,
      "γ": 400,
      "δ": 401,
      "ε": 402,
      "ζ": 403,
      "η": 404,
      "θ": 405,
      "ι": 406,
      "κ": 407,
      "λ": 408,
      "μ": 409,
      "ν": 410,
      "ξ": 411,
      "ο": 412,
      "π": 413,
      "ρ": 414,
      "ς": 415,
      "σ": 416,
      "τ": 417,
      "υ": 418,
      "φ": 419,
      "χ": 420,
      "ψ": 421,
      "ω": 422,
      "ϋ": 423,
      "ό": 424,
      "ύ": 425,
      "ώ": 426,
      "ϳ": 427,
      "Ѐ": 428,
      "Ђ": 429,
      "Ѕ": 430,
      "І": 431,
      "Ў": 432,
      "А": 433,
      "Б": 434,
      "В": 435,
      "Г": 436,
      "Д": 437,
      "Е": 438,
      "Ж": 439,
      "З": 440,
      "И": 441,
      "Й": 442,
      "К": 443,
      "Л": 444,
      "М": 445,
      "Н": 446,
      "О": 447,
      "П": 448,
      "Р": 449,
      "С": 450,
      "Т": 451,
      "У": 452,
      "Ф": 453,
      "Х": 454,
      "Ц": 455,
      "Ч": 456,
      "Ш": 457,
      "Щ": 458,
      "Ъ": 459,
      "Ы": 460,
      "Ь": 461,
      "Э": 462,
      "Ю": 463,
      "Я": 464,
      "а": 465,
      "б": 466,
      "в": 467,
      "г": 468,
      "д": 469,
      "е": 470,
      "ж": 471,
      "з": 472,
      "и": 473,
      "й": 474,
      "к": 475,
      "л": 476,
      "м": 477,
      "н": 478,
      "о": 479,
      "п": 480,
      "р": 481,
      "с": 482,
      "т": 483,
      "у": 484,
      "ф": 485,
      "х": 486,
      "ц": 487,
      "ч": 488,
      "ш": 489,
      "щ": 490,
      "ъ": 491,
      "ы": 492,
      "ь": 493,
      "э": 494,
      "ю": 495,
      "я": 496,
      "ё": 497,
      "є": 498,
      "ѕ": 499,
      "і": 500,
      "ї": 501,
      "ј": 502,
      "љ": 503,
      "њ": 504,
      "ќ": 505,
      "ў": 506,
      "ѡ": 507,
      "Ѵ": 508,
      "ѵ": 509,
      "Ґ": 510,
      "ґ": 511,
      "ғ": 512,
      "Қ": 513,
      "ң": 514,
      "һ": 515,
      "Ӏ": 516,
      "ӏ": 517,
      "ӓ": 518,
      "ө": 519,
      "Ԁ": 520,
      "ԁ": 521,
      "ԛ": 522,
      "Ԝ": 523,
      "ԝ": 524,
      "Հ": 525,
      "ա": 526,
      "ե": 527,
      "ն": 528,
      "շ": 529,
      "ո": 530,
      "ս": 531,
      "վ": 532,
      "տ": 533,
      "ց": 534,
      "ֲ": 535,
      "ִ": 536,
      "ַ": 537,
      "ָ": 538,
      "ּ": 539,
      "א": 540,
      "ב": 541,
      "ג": 542,
      "ד": 543,
      "ה": 544,
      "ו": 545,
      "ז": 546,
      "ח": 547,
      "ט": 548,
      "י": 549,
      "ך": 550,
      "כ": 551,
      "ל": 552,
      "ם": 553,
      "מ": 554,
      "ן": 555,
      "נ": 556,
      "ס": 557,
      "ע": 558,
      "ף": 559,
      "פ": 560,
      "ץ": 561,
      "צ": 562,
      "ק": 563,
      "ר": 564,
      "ש": 565,
      "ת": 566,
      "،": 567,
      "؛": 568,
      "؟": 569,
      "ء": 570,
      "آ": 571,
      "أ": 572,
      "ؤ": 573,
      "إ": 574,
      "ئ": 575,
      "ا": 576,
      "ب": 577,
      "ة": 578,
      "ت": 579,
      "ث": 580,
      "ج": 581,
      "ح": 582,
      "خ": 583,
      "د": 584,
      "ذ": 585,
      "ر": 586,
      "ز": 587,
      "س": 588,
      "ش": 589,
      "ص": 590,
      "ض": 591,
      "ط": 592,
      "ظ": 593,
      "ع": 594,
      "غ": 595,
      "ف": 596,
      "ق": 597,
      "ك": 598,
      "ل": 599,
      "م": 600,
      "ن": 601,
      "ه": 602,
      "و": 603,
      "ى": 604,
      "ي": 605,
      "ً": 606,
      "ٌ": 607,
      "ٍ": 608,
      "َ": 609,
      "ُ": 610,
      "ِ": 611,
      "ّ": 612,
      "ْ": 613,
      "پ": 614,
      "چ": 615,
      "ڈ": 616,
      "ڌ": 617,
      "ژ": 618,
      "ک": 619,
      "گ": 620,
      "ھ": 621,
      "ہ": 622,
      "ۆ": 623,
      "ی": 624,
      "ے": 625,
      "۪": 626,
      "۰": 627,
      "۱": 628,
      "۲": 629,
      "۳": 630,
      "۴": 631,
      "۶": 632,
      "۷": 633,
      "۸": 634,
      "۹": 635,
      "ܐ": 636,
      "ܘ": 637,
      "ܚ": 638,
      "ܛ": 639,
      "ܝ": 640,
      "ܡ": 641,
      "ܢ": 642,
      "ܣ": 643,
      "ܬ": 644,
      "ߋ": 645,
      "ँ": 646,
      "ं": 647,
      "ः": 648,
      "अ": 649,
      "आ": 650,
      "इ": 651,
      "ई": 652,
      "उ": 653,
      "ए": 654,
      "ओ": 655,
      "औ": 656,
      "क": 657,
      "ख": 658,
      "ग": 659,
      "घ": 660,
      "ङ": 661,
      "च": 662,
      "छ": 663,
      "ज": 664,
      "झ": 665,
      "ट": 666,
      "ठ": 667,
      "ड": 668,
      "ढ": 669,
      "ण": 670,
      "त": 671,
      "थ": 672,
      "द": 673,
      "ध": 674,
      "न": 675,
      "प": 676,
      "फ": 677,
      "ब": 678,
      "भ": 679,
      "म": 680,
      "य": 681,
      "र": 682,
      "ल": 683,
      "ळ": 684,
      "व": 685,
      "श": 686,
      "ष": 687,
      "स": 688,
      "ह": 689,
      "़": 690,
      "ा": 691,
      "ि": 692,
      "ी": 693,
      "ु": 694,
      "ू": 695,
      "ृ": 696,
      "े": 697,
      "ै": 698,
      "ॉ": 699,
      "ो": 700,
      "ौ": 701,
      "्": 702,
      "।": 703,
      "ং": 704,
      "অ": 705,
      "আ": 706,
      "ই": 707,
      "উ": 708,
      "এ": 709,
      "ও": 710,
      "ক": 711,
      "খ": 712,
      "গ": 713,
      "ঘ": 714,
      "চ": 715,
      "ছ": 716,
      "জ": 717,
      "ট": 718,
      "ঠ": 719,
      "ড": 720,
      "ণ": 721,
      "ত": 722,
      "থ": 723,
      "দ": 724,
      "ন": 725,
      "প": 726,
      "ফ": 727,
      "ব": 728,
      "ভ": 729,
      "ম": 730,
      "য": 731,
      "র": 732,
      "ল": 733,
      "শ": 734,
      "ষ": 735,
      "স": 736,
      "হ": 737,
      "়": 738,
      "া": 739,
      "ি": 740,
      "ী": 741,
      "ু": 742,
      "ূ": 743,
      "ৃ": 744,
      "ে": 745,
      "ো": 746,
      "্": 747,
      "ৎ": 748,
      "৪": 749,
      "ਅ": 750,
      "ਈ": 751,
      "ਤ": 752,
      "ਦ": 753,
      "ਭ": 754,
      "ਮ": 755,
      "ਰ": 756,
      "ਸ": 757,
      "ਾ": 758,
      "ੀ": 759,
      "ં": 760,
      "અ": 761,
      "આ": 762,
      "ઇ": 763,
      "ઈ": 764,
      "ઉ": 765,
      "ઊ": 766,
      "એ": 767,
      "ઓ": 768,
      "ક": 769,
      "ખ": 770,
      "ગ": 771,
      "ઘ": 772,
      "ચ": 773,
      "છ": 774,
      "જ": 775,
      "ઞ": 776,
      "ટ": 777,
      "ઠ": 778,
      "ડ": 779,
      "ણ": 780,
      "ત": 781,
      "થ": 782,
      "દ": 783,
      "ધ": 784,
      "ન": 785,
      "પ": 786,
      "ફ": 787,
      "બ": 788,
      "ભ": 789,
      "મ": 790,
      "ય": 791,
      "ર": 792,
      "લ": 793,
      "ળ": 794,
      "વ": 795,
      "શ": 796,
      "ષ": 797,
      "સ": 798,
      "હ": 799,
      "ા": 800,
      "િ": 801,
      "ી": 802,
      "ુ": 803,
      "ૂ": 804,
      "ૃ": 805,
      "ે": 806,
      "ો": 807,
      "્": 808,
      "૦": 809,
      "૧": 810,
      "૨": 811,
      "૩": 812,
      "ஊ": 813,
      "க": 814,
      "ங": 815,
      "ச": 816,
      "ண": 817,
      "த": 818,
      "ந": 819,
      "ன": 820,
      "ப": 821,
      "ம": 822,
      "ய": 823,
      "ர": 824,
      "ற": 825,
      "ல": 826,
      "ள": 827,
      "வ": 828,
      "ா": 829,
      "ி": 830,
      "ு": 831,
      "ூ": 832,
      "ெ": 833,
      "ே": 834,
      "ை": 835,
      "ோ": 836,
      "்": 837,
      "అ": 838,
      "ఆ": 839,
      "క": 840,
      "గ": 841,
      "చ": 842,
      "జ": 843,
      "ట": 844,
      "డ": 845,
      "త": 846,
      "న": 847,
      "ప": 848,
      "మ": 849,
      "ర": 850,
      "ల": 851,
      "ళ": 852,
      "స": 853,
      "హ": 854,
      "ా": 855,
      "ి": 856,
      "ీ": 857,
      "ు": 858,
      "ె": 859,
      "ే": 860,
      "ై": 861,
      "ో": 862,
      "్": 863,
      "ം": 864,
      "അ": 865,
      "ആ": 866,
      "ഇ": 867,
      "ഉ": 868,
      "എ": 869,
      "ഒ": 870,
      "ഓ": 871,
      "ക": 872,
      "ങ": 873,
      "ച": 874,
      "ജ": 875,
      "ഞ": 876,
      "ട": 877,
      "ണ": 878,
      "ത": 879,
      "ദ": 880,
      "ധ": 881,
      "ന": 882,
      "പ": 883,
      "ഫ": 884,
      "ഭ": 885,
      "മ": 886,
      "യ": 887,
      "ര": 888,
      "റ": 889,
      "ല": 890,
      "ള": 891,
      "ഴ": 892,
      "വ": 893,
      "ശ": 894,
      "ഷ": 895,
      "സ": 896,
      "ഹ": 897,
      "ാ": 898,
      "ി": 899,
      "ീ": 900,
      "ു": 901,
      "ൂ": 902,
      "ൃ": 903,
      "െ": 904,
      "േ": 905,
      "ൈ": 906,
      "ൊ": 907,
      "ോ": 908,
      "്": 909,
      "ർ": 910,
      "ൽ": 911,
      "ൾ": 912,
      "ක": 913,
      "ණ": 914,
      "ත": 915,
      "ද": 916,
      "ප": 917,
      "ර": 918,
      "ළ": 919,
      "ා": 920,
      "ු": 921,
      "ก": 922,
      "ข": 923,
      "ค": 924,
      "ง": 925,
      "จ": 926,
      "ฉ": 927,
      "ช": 928,
      "ญ": 929,
      "ฎ": 930,
      "ณ": 931,
      "ด": 932,
      "ต": 933,
      "ถ": 934,
      "ท": 935,
      "ธ": 936,
      "น": 937,
      "บ": 938,
      "ป": 939,
      "ผ": 940,
      "ฝ": 941,
      "พ": 942,
      "ฟ": 943,
      "ภ": 944,
      "ม": 945,
      "ย": 946,
      "ร": 947,
      "ล": 948,
      "ว": 949,
      "ษ": 950,
      "ส": 951,
      "ห": 952,
      "อ": 953,
      "ะ": 954,
      "ั": 955,
      "า": 956,
      "ิ": 957,
      "ี": 958,
      "ึ": 959,
      "ื": 960,
      "ุ": 961,
      "ู": 962,
      "฿": 963,
      "เ": 964,
      "แ": 965,
      "โ": 966,
      "ใ": 967,
      "ไ": 968,
      "็": 969,
      "่": 970,
      "้": 971,
      "์": 972,
      "က": 973,
      "ဂ": 974,
      "င": 975,
      "စ": 976,
      "ဆ": 977,
      "တ": 978,
      "ထ": 979,
      "ဒ": 980,
      "န": 981,
      "ပ": 982,
      "ဖ": 983,
      "ဘ": 984,
      "မ": 985,
      "ယ": 986,
      "လ": 987,
      "ဝ": 988,
      "သ": 989,
      "အ": 990,
      "ါ": 991,
      "ာ": 992,
      "ိ": 993,
      "ီ": 994,
      "ု": 995,
      "ေ": 996,
      "ဲ": 997,
      "ဳ": 998,
      "့": 999,
      "း": 1000,
      "္": 1001,
      "်": 1002,
      "ျ": 1003,
      "ြ": 1004,
      "ွ": 1005,
      "၊": 1006,
      "။": 1007,
      "ၾ": 1008,
      "ႀ": 1009,
      "႔": 1010,
      "ა": 1011,
      "ბ": 1012,
      "გ": 1013,
      "დ": 1014,
      "ე": 1015,
      "ვ": 1016,
      "თ": 1017,
      "ი": 1018,
      "კ": 1019,
      "ლ": 1020,
      "მ": 1021,
      "ნ": 1022,
      "ო": 1023,
      "რ": 1024,
      "ს": 1025,
      "ტ": 1026,
      "უ": 1027,
      "ქ": 1028,
      "ყ": 1029,
      "შ": 1030,
      "ც": 1031,
      "წ": 1032,
      "ხ": 1033,
      "ᅮ": 1034,
      "ᅲ": 1035,
      "ህ": 1036,
      "ለ": 1037,
      "ሉ": 1038,
      "ሊ": 1039,
      "ላ": 1040,
      "ል": 1041,
      "መ": 1042,
      "ም": 1043,
      "ረ": 1044,
      "ሪ": 1045,
      "ር": 1046,
      "ሮ": 1047,
      "ስ": 1048,
      "በ": 1049,
      "ቢ": 1050,
      "ባ": 1051,
      "ብ": 1052,
      "ቲ": 1053,
      "ታ": 1054,
      "ት": 1055,
      "ቶ": 1056,
      "ች": 1057,
      "ነ": 1058,
      "ን": 1059,
      "አ": 1060,
      "ኣ": 1061,
      "እ": 1062,
      "ከ": 1063,
      "ክ": 1064,
      "ኸ": 1065,
      "ወ": 1066,
      "ዊ": 1067,
      "ው": 1068,
      "ዓ": 1069,
      "ዘ": 1070,
      "ዜ": 1071,
      "የ": 1072,
      "ዩ": 1073,
      "ያ": 1074,
      "ይ": 1075,
      "ደ": 1076,
      "ዲ": 1077,
      "ዳ": 1078,
      "ድ": 1079,
      "ጀ": 1080,
      "ጅ": 1081,
      "ገ": 1082,
      "ጊ": 1083,
      "ግ": 1084,
      "ጨ": 1085,
      "ፈ": 1086,
      "ፋ": 1087,
      "ፕ": 1088,
      "ᐈ": 1089,
      "ក": 1090,
      "ខ": 1091,
      "គ": 1092,
      "ង": 1093,
      "ច": 1094,
      "ឆ": 1095,
      "ញ": 1096,
      "ដ": 1097,
      "ណ": 1098,
      "ត": 1099,
      "ទ": 1100,
      "ធ": 1101,
      "ន": 1102,
      "ប": 1103,
      "ព": 1104,
      "ភ": 1105,
      "ម": 1106,
      "យ": 1107,
      "រ": 1108,
      "ល": 1109,
      "វ": 1110,
      "ស": 1111,
      "ហ": 1112,
      "ឡ": 1113,
      "អ": 1114,
      "ឳ": 1115,
      "ា": 1116,
      "ិ": 1117,
      "ី": 1118,
      "ុ": 1119,
      "ួ": 1120,
      "ើ": 1121,
      "ៀ": 1122,
      "េ": 1123,
      "ោ": 1124,
      "ៅ": 1125,
      "ំ": 1126,
      "ះ": 1127,
      "់": 1128,
      "៍": 1129,
      "៏": 1130,
      "្": 1131,
      "។": 1132,
      "᧐": 1133,
      "ᴡ": 1134,
      "ḅ": 1135,
      "ḍ": 1136,
      "Ḥ": 1137,
      "ḥ": 1138,
      "ḵ": 1139,
      "ḷ": 1140,
      "ṃ": 1141,
      "Ṅ": 1142,
      "ṅ": 1143,
      "ṇ": 1144,
      "ṓ": 1145,
      "Ṛ": 1146,
      "ṛ": 1147,
      "ṣ": 1148,
      "Ṭ": 1149,
      "ṭ": 1150,
      "Ẓ": 1151,
      "ạ": 1152,
      "Ả": 1153,
      "ả": 1154,
      "ấ": 1155,
      "ầ": 1156,
      "ậ": 1157,
      "ắ": 1158,
      "ằ": 1159,
      "ẳ": 1160,
      "ẵ": 1161,
      "ặ": 1162,
      "ẹ": 1163,
      "ẻ": 1164,
      "ẽ": 1165,
      "ế": 1166,
      "ề": 1167,
      "ể": 1168,
      "ễ": 1169,
      "ệ": 1170,
      "ỉ": 1171,
      "Ị": 1172,
      "ị": 1173,
      "ọ": 1174,
      "ố": 1175,
      "ồ": 1176,
      "ổ": 1177,
      "ỗ": 1178,
      "Ộ": 1179,
      "ộ": 1180,
      "ớ": 1181,
      "ờ": 1182,
      "ở": 1183,
      "ợ": 1184,
      "ụ": 1185,
      "ủ": 1186,
      "ứ": 1187,
      "ừ": 1188,
      "ử": 1189,
      "ữ": 1190,
      "ự": 1191,
      "ỳ": 1192,
      "ỹ": 1193,
      "ἀ": 1194,
      "ἂ": 1195,
      "ἄ": 1196,
      "ἐ": 1197,
      "ἔ": 1198,
      "Ἐ": 1199,
      "ἢ": 1200,
      "ἦ": 1201,
      "ἰ": 1202,
      "ἴ": 1203,
      "ὄ": 1204,
      "ὅ": 1205,
      "ὐ": 1206,
      "ὑ": 1207,
      "ὕ": 1208,
      "ὖ": 1209,
      "ὰ": 1210,
      "ὲ": 1211,
      "ὴ": 1212,
      "ὶ": 1213,
      "ὸ": 1214,
      "ὺ": 1215,
      "ᾶ": 1216,
      "ῖ": 1217,
      "ῶ": 1218,
      "​": 1219,
      "‌": 1220,
      "‍": 1221,
      "‎": 1222,
      "‏": 1223,
      "‐": 1224,
      "‒": 1225,
      "–": 1226,
      "—": 1227,
      "―": 1228,
      "‖": 1229,
      "‘": 1230,
      "’": 1231,
      "‚": 1232,
      "“": 1233,
      "”": 1234,
      "„": 1235,
      "‟": 1236,
      "†": 1237,
      "‡": 1238,
      "•": 1239,
      "‣": 1240,
      "‧": 1241,
      "‪": 1242,
      "‬": 1243,
      "‰": 1244,
      "′": 1245,
      "‹": 1246,
      "›": 1247,
      "※": 1248,
      "‽": 1249,
      "⁄": 1250,
      "⁍": 1251,
      "⁕": 1252,
      "⁠": 1253,
      "⁦": 1254,
      "⁩": 1255,
      "₤": 1256,
      "₦": 1257,
      "₪": 1258,
      "€": 1259,
      "₱": 1260,
      "₹": 1261,
      "⃣": 1262,
      "℗": 1263,
      "←": 1264,
      "↑": 1265,
      "→": 1266,
      "↓": 1267,
      "↵": 1268,
      "⇑": 1269,
      "⇒": 1270,
      "⇓": 1271,
      "⇨": 1272,
      "∂": 1273,
      "∃": 1274,
      "∆": 1275,
      "∑": 1276,
      "−": 1277,
      "∗": 1278,
      "∙": 1279,
      "√": 1280,
      "∞": 1281,
      "∠": 1282,
      "∥": 1283,
      "∴": 1284,
      "∶": 1285,
      "∼": 1286,
      "≈": 1287,
      "≠": 1288,
      "≡": 1289,
      "≤": 1290,
      "≥": 1291,
      "≪": 1292,
      "≫": 1293,
      "⊕": 1294,
      "⊙": 1295,
      "⊞": 1296,
      "⊥": 1297,
      "⋅": 1298,
      "⋮": 1299,
      "⋯": 1300,
      "⌖": 1301,
      "⎮": 1302,
      "─": 1303,
      "│": 1304,
      "═": 1305,
      "■": 1306,
      "□": 1307,
      "▪": 1308,
      "▬": 1309,
      "▲": 1310,
      "▶": 1311,
      "▷": 1312,
      "▸": 1313,
      "►": 1314,
      "▼": 1315,
      "◆": 1316,
      "◇": 1317,
      "◊": 1318,
      "○": 1319,
      "●": 1320,
      "◦": 1321,
      "◯": 1322,
      "◼": 1323,
      "☀": 1324,
      "☁": 1325,
      "★": 1326,
      "☆": 1327,
      "☎": 1328,
      "☛": 1329,
      "☞": 1330,
      "☨": 1331,
      "☮": 1332,
      "☰": 1333,
      "☹": 1334,
      "☺": 1335,
      "☾": 1336,
      "♀": 1337,
      "♂": 1338,
      "♊": 1339,
      "♋": 1340,
      "♐": 1341,
      "♑": 1342,
      "♒": 1343,
      "♠": 1344,
      "♡": 1345,
      "♣": 1346,
      "♥": 1347,
      "♦": 1348,
      "♧": 1349,
      "♪": 1350,
      "♫": 1351,
      "♯": 1352,
      "⚖": 1353,
      "⚠": 1354,
      "⚡": 1355,
      "✅": 1356,
      "✈": 1357,
      "✉": 1358,
      "✓": 1359,
      "✔": 1360,
      "✖": 1361,
      "✚": 1362,
      "✝": 1363,
      "✨": 1364,
      "✭": 1365,
      "✮": 1366,
      "✱": 1367,
      "✳": 1368,
      "❃": 1369,
      "❇": 1370,
      "❌": 1371,
      "❝": 1372,
      "❞": 1373,
      "❣": 1374,
      "❤": 1375,
      "❭": 1376,
      "❯": 1377,
      "❶": 1378,
      "➞": 1379,
      "➡": 1380,
      "➣": 1381,
      "➨": 1382,
      "➽": 1383,
      "⠀": 1384,
      "⦁": 1385,
      "⬄": 1386,
      "⬅": 1387,
      "⬆": 1388,
      "⬇": 1389,
      "⬈": 1390,
      "⭐": 1391,
      "⭕": 1392,
      "、": 1393,
      "。": 1394,
      "〉": 1395,
      "《": 1396,
      "》": 1397,
      "「": 1398,
      "」": 1399,
      "『": 1400,
      "』": 1401,
      "【": 1402,
      "】": 1403,
      "〜": 1404,
      "〞": 1405,
      "あ": 1406,
      "い": 1407,
      "う": 1408,
      "え": 1409,
      "お": 1410,
      "か": 1411,
      "が": 1412,
      "き": 1413,
      "く": 1414,
      "け": 1415,
      "げ": 1416,
      "こ": 1417,
      "ご": 1418,
      "さ": 1419,
      "ざ": 1420,
      "し": 1421,
      "じ": 1422,
      "す": 1423,
      "ず": 1424,
      "せ": 1425,
      "ぜ": 1426,
      "そ": 1427,
      "ぞ": 1428,
      "た": 1429,
      "だ": 1430,
      "ち": 1431,
      "っ": 1432,
      "つ": 1433,
      "て": 1434,
      "で": 1435,
      "と": 1436,
      "ど": 1437,
      "な": 1438,
      "に": 1439,
      "ぬ": 1440,
      "ね": 1441,
      "の": 1442,
      "は": 1443,
      "ば": 1444,
      "ひ": 1445,
      "び": 1446,
      "ふ": 1447,
      "ぶ": 1448,
      "へ": 1449,
      "べ": 1450,
      "ほ": 1451,
      "ま": 1452,
      "み": 1453,
      "む": 1454,
      "め": 1455,
      "も": 1456,
      "ゃ": 1457,
      "や": 1458,
      "ゆ": 1459,
      "ょ": 1460,
      "よ": 1461,
      "ら": 1462,
      "り": 1463,
      "る": 1464,
      "れ": 1465,
      "ろ": 1466,
      "わ": 1467,
      "を": 1468,
      "ん": 1469,
      "ァ": 1470,
      "ア": 1471,
      "ィ": 1472,
      "イ": 1473,
      "ウ": 1474,
      "ェ": 1475,
      "エ": 1476,
      "ォ": 1477,
      "オ": 1478,
      "カ": 1479,
      "ガ": 1480,
      "キ": 1481,
      "ギ": 1482,
      "ク": 1483,
      "グ": 1484,
      "ケ": 1485,
      "ゲ": 1486,
      "コ": 1487,
      "ゴ": 1488,
      "サ": 1489,
      "ザ": 1490,
      "シ": 1491,
      "ジ": 1492,
      "ス": 1493,
      "ズ": 1494,
      "セ": 1495,
      "ゼ": 1496,
      "ソ": 1497,
      "ゾ": 1498,
      "タ": 1499,
      "ダ": 1500,
      "チ": 1501,
      "ッ": 1502,
      "ツ": 1503,
      "テ": 1504,
      "デ": 1505,
      "ト": 1506,
      "ド": 1507,
      "ナ": 1508,
      "ニ": 1509,
      "ヌ": 1510,
      "ネ": 1511,
      "ノ": 1512,
      "ハ": 1513,
      "バ": 1514,
      "パ": 1515,
      "ヒ": 1516,
      "ビ": 1517,
      "ピ": 1518,
      "フ": 1519,
      "ブ": 1520,
      "プ": 1521,
      "ベ": 1522,
      "ペ": 1523,
      "ホ": 1524,
      "ボ": 1525,
      "ポ": 1526,
      "マ": 1527,
      "ミ": 1528,
      "ム": 1529,
      "メ": 1530,
      "モ": 1531,
      "ャ": 1532,
      "ュ": 1533,
      "ョ": 1534,
      "ヨ": 1535,
      "ラ": 1536,
      "リ": 1537,
      "ル": 1538,
      "レ": 1539,
      "ロ": 1540,
      "ワ": 1541,
      "ン": 1542,
      "ヴ": 1543,
      "・": 1544,
      "ー": 1545,
      "一": 1546,
      "丁": 1547,
      "万": 1548,
      "丈": 1549,
      "三": 1550,
      "上": 1551,
      "下": 1552,
      "不": 1553,
      "与": 1554,
      "丑": 1555,
      "专": 1556,
      "且": 1557,
      "世": 1558,
      "业": 1559,
      "东": 1560,
      "丟": 1561,
      "両": 1562,
      "两": 1563,
      "严": 1564,
      "並": 1565,
      "个": 1566,
      "中": 1567,
      "串": 1568,
      "临": 1569,
      "丷": 1570,
      "为": 1571,
      "主": 1572,
      "丽": 1573,
      "举": 1574,
      "久": 1575,
      "么": 1576,
      "义": 1577,
      "之": 1578,
      "乎": 1579,
      "乐": 1580,
      "九": 1581,
      "也": 1582,
      "习": 1583,
      "乡": 1584,
      "书": 1585,
      "买": 1586,
      "乱": 1587,
      "乳": 1588,
      "乾": 1589,
      "了": 1590,
      "予": 1591,
      "争": 1592,
      "事": 1593,
      "二": 1594,
      "于": 1595,
      "云": 1596,
      "互": 1597,
      "五": 1598,
      "井": 1599,
      "些": 1600,
      "亞": 1601,
      "交": 1602,
      "亦": 1603,
      "产": 1604,
      "享": 1605,
      "京": 1606,
      "亮": 1607,
      "人": 1608,
      "亿": 1609,
      "什": 1610,
      "仅": 1611,
      "今": 1612,
      "介": 1613,
      "从": 1614,
      "仕": 1615,
      "他": 1616,
      "付": 1617,
      "代": 1618,
      "令": 1619,
      "以": 1620,
      "们": 1621,
      "件": 1622,
      "价": 1623,
      "任": 1624,
      "份": 1625,
      "企": 1626,
      "休": 1627,
      "众": 1628,
      "优": 1629,
      "会": 1630,
      "伝": 1631,
      "传": 1632,
      "伤": 1633,
      "估": 1634,
      "伴": 1635,
      "伸": 1636,
      "似": 1637,
      "但": 1638,
      "位": 1639,
      "住": 1640,
      "佐": 1641,
      "体": 1642,
      "佔": 1643,
      "何": 1644,
      "作": 1645,
      "你": 1646,
      "佬": 1647,
      "佳": 1648,
      "使": 1649,
      "來": 1650,
      "例": 1651,
      "供": 1652,
      "依": 1653,
      "侯": 1654,
      "便": 1655,
      "俄": 1656,
      "俊": 1657,
      "保": 1658,
      "信": 1659,
      "修": 1660,
      "個": 1661,
      "倍": 1662,
      "們": 1663,
      "倒": 1664,
      "候": 1665,
      "借": 1666,
      "债": 1667,
      "值": 1668,
      "倾": 1669,
      "假": 1670,
      "做": 1671,
      "健": 1672,
      "側": 1673,
      "偷": 1674,
      "傑": 1675,
      "備": 1676,
      "傳": 1677,
      "傷": 1678,
      "僅": 1679,
      "像": 1680,
      "儀": 1681,
      "償": 1682,
      "優": 1683,
      "儿": 1684,
      "元": 1685,
      "充": 1686,
      "先": 1687,
      "光": 1688,
      "克": 1689,
      "免": 1690,
      "児": 1691,
      "兒": 1692,
      "入": 1693,
      "內": 1694,
      "全": 1695,
      "兩": 1696,
      "八": 1697,
      "公": 1698,
      "六": 1699,
      "兰": 1700,
      "共": 1701,
      "关": 1702,
      "兴": 1703,
      "其": 1704,
      "具": 1705,
      "典": 1706,
      "兼": 1707,
      "内": 1708,
      "円": 1709,
      "再": 1710,
      "写": 1711,
      "农": 1712,
      "冯": 1713,
      "冰": 1714,
      "决": 1715,
      "况": 1716,
      "准": 1717,
      "凑": 1718,
      "几": 1719,
      "出": 1720,
      "函": 1721,
      "刀": 1722,
      "分": 1723,
      "切": 1724,
      "划": 1725,
      "列": 1726,
      "刘": 1727,
      "刚": 1728,
      "创": 1729,
      "初": 1730,
      "判": 1731,
      "別": 1732,
      "利": 1733,
      "别": 1734,
      "到": 1735,
      "制": 1736,
      "刷": 1737,
      "券": 1738,
      "前": 1739,
      "剥": 1740,
      "割": 1741,
      "創": 1742,
      "劃": 1743,
      "力": 1744,
      "办": 1745,
      "功": 1746,
      "加": 1747,
      "务": 1748,
      "动": 1749,
      "励": 1750,
      "劲": 1751,
      "劳": 1752,
      "効": 1753,
      "势": 1754,
      "勃": 1755,
      "勇": 1756,
      "勉": 1757,
      "動": 1758,
      "勘": 1759,
      "務": 1760,
      "勝": 1761,
      "募": 1762,
      "勢": 1763,
      "包": 1764,
      "化": 1765,
      "北": 1766,
      "区": 1767,
      "医": 1768,
      "匾": 1769,
      "區": 1770,
      "十": 1771,
      "千": 1772,
      "午": 1773,
      "半": 1774,
      "华": 1775,
      "单": 1776,
      "卖": 1777,
      "南": 1778,
      "単": 1779,
      "博": 1780,
      "卢": 1781,
      "印": 1782,
      "即": 1783,
      "却": 1784,
      "卵": 1785,
      "卻": 1786,
      "厂": 1787,
      "历": 1788,
      "厉": 1789,
      "压": 1790,
      "原": 1791,
      "去": 1792,
      "参": 1793,
      "參": 1794,
      "又": 1795,
      "及": 1796,
      "友": 1797,
      "双": 1798,
      "反": 1799,
      "収": 1800,
      "发": 1801,
      "取": 1802,
      "受": 1803,
      "变": 1804,
      "叢": 1805,
      "口": 1806,
      "古": 1807,
      "句": 1808,
      "另": 1809,
      "只": 1810,
      "召": 1811,
      "可": 1812,
      "台": 1813,
      "史": 1814,
      "右": 1815,
      "号": 1816,
      "司": 1817,
      "吃": 1818,
      "各": 1819,
      "合": 1820,
      "吊": 1821,
      "同": 1822,
      "名": 1823,
      "后": 1824,
      "向": 1825,
      "吒": 1826,
      "君": 1827,
      "吧": 1828,
      "吨": 1829,
      "含": 1830,
      "听": 1831,
      "吴": 1832,
      "告": 1833,
      "味": 1834,
      "呼": 1835,
      "命": 1836,
      "和": 1837,
      "咖": 1838,
      "咨": 1839,
      "哀": 1840,
      "品": 1841,
      "响": 1842,
      "員": 1843,
      "哪": 1844,
      "哲": 1845,
      "售": 1846,
      "商": 1847,
      "啊": 1848,
      "問": 1849,
      "啓": 1850,
      "善": 1851,
      "單": 1852,
      "嗎": 1853,
      "嗫": 1854,
      "嘉": 1855,
      "器": 1856,
      "嚅": 1857,
      "嚴": 1858,
      "囉": 1859,
      "四": 1860,
      "回": 1861,
      "囟": 1862,
      "因": 1863,
      "団": 1864,
      "园": 1865,
      "囲": 1866,
      "図": 1867,
      "围": 1868,
      "固": 1869,
      "国": 1870,
      "图": 1871,
      "圈": 1872,
      "國": 1873,
      "園": 1874,
      "圓": 1875,
      "圖": 1876,
      "團": 1877,
      "土": 1878,
      "在": 1879,
      "地": 1880,
      "圳": 1881,
      "场": 1882,
      "圻": 1883,
      "址": 1884,
      "均": 1885,
      "坐": 1886,
      "坛": 1887,
      "坡": 1888,
      "垂": 1889,
      "型": 1890,
      "城": 1891,
      "域": 1892,
      "基": 1893,
      "埼": 1894,
      "堂": 1895,
      "報": 1896,
      "場": 1897,
      "塗": 1898,
      "塞": 1899,
      "塩": 1900,
      "境": 1901,
      "墅": 1902,
      "墊": 1903,
      "増": 1904,
      "墟": 1905,
      "墨": 1906,
      "壅": 1907,
      "壓": 1908,
      "士": 1909,
      "壬": 1910,
      "声": 1911,
      "売": 1912,
      "壹": 1913,
      "处": 1914,
      "备": 1915,
      "変": 1916,
      "复": 1917,
      "夏": 1918,
      "外": 1919,
      "多": 1920,
      "够": 1921,
      "夠": 1922,
      "大": 1923,
      "天": 1924,
      "太": 1925,
      "夫": 1926,
      "失": 1927,
      "头": 1928,
      "夷": 1929,
      "奇": 1930,
      "奕": 1931,
      "奖": 1932,
      "套": 1933,
      "奥": 1934,
      "奮": 1935,
      "女": 1936,
      "她": 1937,
      "好": 1938,
      "如": 1939,
      "妆": 1940,
      "妙": 1941,
      "妳": 1942,
      "妹": 1943,
      "妻": 1944,
      "姆": 1945,
      "始": 1946,
      "威": 1947,
      "娃": 1948,
      "娘": 1949,
      "婆": 1950,
      "婚": 1951,
      "媒": 1952,
      "媚": 1953,
      "嫩": 1954,
      "子": 1955,
      "孔": 1956,
      "字": 1957,
      "存": 1958,
      "孙": 1959,
      "孝": 1960,
      "季": 1961,
      "孤": 1962,
      "学": 1963,
      "孩": 1964,
      "學": 1965,
      "它": 1966,
      "宇": 1967,
      "守": 1968,
      "安": 1969,
      "宋": 1970,
      "完": 1971,
      "宏": 1972,
      "官": 1973,
      "定": 1974,
      "宜": 1975,
      "宝": 1976,
      "实": 1977,
      "実": 1978,
      "客": 1979,
      "室": 1980,
      "宫": 1981,
      "宮": 1982,
      "害": 1983,
      "家": 1984,
      "容": 1985,
      "宿": 1986,
      "寄": 1987,
      "密": 1988,
      "富": 1989,
      "寒": 1990,
      "察": 1991,
      "寫": 1992,
      "寬": 1993,
      "寰": 1994,
      "寶": 1995,
      "寸": 1996,
      "对": 1997,
      "寺": 1998,
      "寻": 1999,
      "导": 2000,
      "対": 2001,
      "寿": 2002,
      "封": 2003,
      "専": 2004,
      "将": 2005,
      "將": 2006,
      "專": 2007,
      "尊": 2008,
      "對": 2009,
      "導": 2010,
      "小": 2011,
      "少": 2012,
      "尔": 2013,
      "尖": 2014,
      "尚": 2015,
      "就": 2016,
      "尺": 2017,
      "尻": 2018,
      "尼": 2019,
      "尽": 2020,
      "尾": 2021,
      "屆": 2022,
      "届": 2023,
      "屋": 2024,
      "屏": 2025,
      "展": 2026,
      "属": 2027,
      "層": 2028,
      "屬": 2029,
      "山": 2030,
      "岩": 2031,
      "峰": 2032,
      "崎": 2033,
      "崑": 2034,
      "崔": 2035,
      "崙": 2036,
      "川": 2037,
      "州": 2038,
      "工": 2039,
      "左": 2040,
      "差": 2041,
      "己": 2042,
      "已": 2043,
      "巴": 2044,
      "巷": 2045,
      "巻": 2046,
      "市": 2047,
      "布": 2048,
      "师": 2049,
      "希": 2050,
      "带": 2051,
      "帯": 2052,
      "帶": 2053,
      "常": 2054,
      "幅": 2055,
      "幕": 2056,
      "干": 2057,
      "平": 2058,
      "年": 2059,
      "并": 2060,
      "幸": 2061,
      "幹": 2062,
      "幻": 2063,
      "幼": 2064,
      "幾": 2065,
      "広": 2066,
      "床": 2067,
      "序": 2068,
      "库": 2069,
      "应": 2070,
      "底": 2071,
      "店": 2072,
      "府": 2073,
      "废": 2074,
      "度": 2075,
      "康": 2076,
      "廖": 2077,
      "廣": 2078,
      "延": 2079,
      "建": 2080,
      "开": 2081,
      "弁": 2082,
      "异": 2083,
      "弃": 2084,
      "式": 2085,
      "弓": 2086,
      "引": 2087,
      "张": 2088,
      "張": 2089,
      "強": 2090,
      "彈": 2091,
      "归": 2092,
      "当": 2093,
      "录": 2094,
      "形": 2095,
      "彩": 2096,
      "影": 2097,
      "役": 2098,
      "彻": 2099,
      "彼": 2100,
      "往": 2101,
      "征": 2102,
      "待": 2103,
      "很": 2104,
      "律": 2105,
      "後": 2106,
      "徒": 2107,
      "得": 2108,
      "從": 2109,
      "御": 2110,
      "循": 2111,
      "德": 2112,
      "心": 2113,
      "必": 2114,
      "忍": 2115,
      "志": 2116,
      "忘": 2117,
      "快": 2118,
      "态": 2119,
      "思": 2120,
      "怡": 2121,
      "急": 2122,
      "性": 2123,
      "总": 2124,
      "恋": 2125,
      "恩": 2126,
      "息": 2127,
      "患": 2128,
      "您": 2129,
      "悪": 2130,
      "悲": 2131,
      "情": 2132,
      "惊": 2133,
      "惠": 2134,
      "惩": 2135,
      "想": 2136,
      "意": 2137,
      "愛": 2138,
      "感": 2139,
      "愿": 2140,
      "態": 2141,
      "慎": 2142,
      "慣": 2143,
      "慮": 2144,
      "慶": 2145,
      "憶": 2146,
      "懇": 2147,
      "應": 2148,
      "懸": 2149,
      "成": 2150,
      "我": 2151,
      "戒": 2152,
      "或": 2153,
      "戦": 2154,
      "户": 2155,
      "戸": 2156,
      "房": 2157,
      "所": 2158,
      "手": 2159,
      "才": 2160,
      "打": 2161,
      "払": 2162,
      "托": 2163,
      "扱": 2164,
      "批": 2165,
      "找": 2166,
      "承": 2167,
      "技": 2168,
      "抎": 2169,
      "抑": 2170,
      "投": 2171,
      "抗": 2172,
      "抛": 2173,
      "抜": 2174,
      "抣": 2175,
      "报": 2176,
      "抰": 2177,
      "抹": 2178,
      "拍": 2179,
      "拜": 2180,
      "择": 2181,
      "括": 2182,
      "拿": 2183,
      "持": 2184,
      "指": 2185,
      "挑": 2186,
      "挖": 2187,
      "挥": 2188,
      "振": 2189,
      "捞": 2190,
      "损": 2191,
      "换": 2192,
      "据": 2193,
      "掃": 2194,
      "授": 2195,
      "排": 2196,
      "掘": 2197,
      "探": 2198,
      "接": 2199,
      "控": 2200,
      "推": 2201,
      "措": 2202,
      "掲": 2203,
      "描": 2204,
      "提": 2205,
      "插": 2206,
      "援": 2207,
      "搭": 2208,
      "搶": 2209,
      "携": 2210,
      "摄": 2211,
      "摘": 2212,
      "摩": 2213,
      "撃": 2214,
      "播": 2215,
      "撮": 2216,
      "擁": 2217,
      "擅": 2218,
      "擇": 2219,
      "擊": 2220,
      "據": 2221,
      "擬": 2222,
      "攝": 2223,
      "支": 2224,
      "收": 2225,
      "改": 2226,
      "攻": 2227,
      "放": 2228,
      "政": 2229,
      "故": 2230,
      "效": 2231,
      "救": 2232,
      "教": 2233,
      "敢": 2234,
      "散": 2235,
      "数": 2236,
      "整": 2237,
      "敵": 2238,
      "數": 2239,
      "文": 2240,
      "料": 2241,
      "新": 2242,
      "斷": 2243,
      "方": 2244,
      "於": 2245,
      "施": 2246,
      "旅": 2247,
      "旋": 2248,
      "族": 2249,
      "无": 2250,
      "日": 2251,
      "旦": 2252,
      "旧": 2253,
      "早": 2254,
      "时": 2255,
      "昇": 2256,
      "明": 2257,
      "昏": 2258,
      "易": 2259,
      "星": 2260,
      "映": 2261,
      "春": 2262,
      "昨": 2263,
      "昭": 2264,
      "是": 2265,
      "時": 2266,
      "普": 2267,
      "景": 2268,
      "晴": 2269,
      "智": 2270,
      "暖": 2271,
      "暗": 2272,
      "暴": 2273,
      "曆": 2274,
      "曜": 2275,
      "曲": 2276,
      "更": 2277,
      "書": 2278,
      "曽": 2279,
      "曾": 2280,
      "替": 2281,
      "最": 2282,
      "會": 2283,
      "月": 2284,
      "有": 2285,
      "朋": 2286,
      "服": 2287,
      "朗": 2288,
      "望": 2289,
      "期": 2290,
      "木": 2291,
      "未": 2292,
      "本": 2293,
      "术": 2294,
      "朱": 2295,
      "朵": 2296,
      "机": 2297,
      "杂": 2298,
      "权": 2299,
      "李": 2300,
      "材": 2301,
      "村": 2302,
      "束": 2303,
      "条": 2304,
      "来": 2305,
      "杨": 2306,
      "杰": 2307,
      "東": 2308,
      "松": 2309,
      "板": 2310,
      "构": 2311,
      "析": 2312,
      "枕": 2313,
      "林": 2314,
      "枚": 2315,
      "果": 2316,
      "枯": 2317,
      "架": 2318,
      "柒": 2319,
      "染": 2320,
      "查": 2321,
      "柯": 2322,
      "栄": 2323,
      "标": 2324,
      "栏": 2325,
      "树": 2326,
      "校": 2327,
      "株": 2328,
      "样": 2329,
      "核": 2330,
      "根": 2331,
      "格": 2332,
      "桃": 2333,
      "框": 2334,
      "案": 2335,
      "桌": 2336,
      "档": 2337,
      "桥": 2338,
      "梅": 2339,
      "條": 2340,
      "梨": 2341,
      "械": 2342,
      "检": 2343,
      "棄": 2344,
      "棒": 2345,
      "棲": 2346,
      "椅": 2347,
      "検": 2348,
      "楚": 2349,
      "業": 2350,
      "極": 2351,
      "楷": 2352,
      "楼": 2353,
      "楽": 2354,
      "概": 2355,
      "構": 2356,
      "様": 2357,
      "樂": 2358,
      "標": 2359,
      "樟": 2360,
      "模": 2361,
      "樸": 2362,
      "樹": 2363,
      "橙": 2364,
      "機": 2365,
      "檔": 2366,
      "欅": 2367,
      "次": 2368,
      "欢": 2369,
      "欧": 2370,
      "款": 2371,
      "歌": 2372,
      "歐": 2373,
      "正": 2374,
      "此": 2375,
      "步": 2376,
      "武": 2377,
      "歲": 2378,
      "歴": 2379,
      "歷": 2380,
      "死": 2381,
      "殊": 2382,
      "殼": 2383,
      "母": 2384,
      "毎": 2385,
      "每": 2386,
      "比": 2387,
      "毛": 2388,
      "民": 2389,
      "气": 2390,
      "気": 2391,
      "氣": 2392,
      "水": 2393,
      "永": 2394,
      "汁": 2395,
      "江": 2396,
      "池": 2397,
      "汪": 2398,
      "沖": 2399,
      "没": 2400,
      "沢": 2401,
      "沪": 2402,
      "河": 2403,
      "油": 2404,
      "治": 2405,
      "況": 2406,
      "法": 2407,
      "注": 2408,
      "泰": 2409,
      "泳": 2410,
      "泽": 2411,
      "洁": 2412,
      "洋": 2413,
      "洲": 2414,
      "活": 2415,
      "流": 2416,
      "浅": 2417,
      "测": 2418,
      "济": 2419,
      "浓": 2420,
      "浪": 2421,
      "浮": 2422,
      "海": 2423,
      "消": 2424,
      "涉": 2425,
      "涌": 2426,
      "液": 2427,
      "涼": 2428,
      "淇": 2429,
      "淋": 2430,
      "淏": 2431,
      "淘": 2432,
      "深": 2433,
      "清": 2434,
      "済": 2435,
      "渐": 2436,
      "渡": 2437,
      "港": 2438,
      "游": 2439,
      "湊": 2440,
      "湖": 2441,
      "湯": 2442,
      "湾": 2443,
      "源": 2444,
      "準": 2445,
      "溫": 2446,
      "滲": 2447,
      "滿": 2448,
      "漂": 2449,
      "漉": 2450,
      "漢": 2451,
      "漫": 2452,
      "潛": 2453,
      "潭": 2454,
      "澄": 2455,
      "澤": 2456,
      "濕": 2457,
      "灌": 2458,
      "灣": 2459,
      "火": 2460,
      "灵": 2461,
      "灶": 2462,
      "灸": 2463,
      "災": 2464,
      "炁": 2465,
      "炎": 2466,
      "炒": 2467,
      "点": 2468,
      "為": 2469,
      "烧": 2470,
      "热": 2471,
      "無": 2472,
      "然": 2473,
      "焼": 2474,
      "照": 2475,
      "熟": 2476,
      "熱": 2477,
      "燈": 2478,
      "燕": 2479,
      "爪": 2480,
      "爬": 2481,
      "爱": 2482,
      "父": 2483,
      "爸": 2484,
      "爽": 2485,
      "爾": 2486,
      "牀": 2487,
      "片": 2488,
      "版": 2489,
      "牛": 2490,
      "牠": 2491,
      "物": 2492,
      "特": 2493,
      "牽": 2494,
      "犯": 2495,
      "状": 2496,
      "狀": 2497,
      "狐": 2498,
      "狗": 2499,
      "独": 2500,
      "猪": 2501,
      "猫": 2502,
      "獨": 2503,
      "獲": 2504,
      "玄": 2505,
      "率": 2506,
      "玉": 2507,
      "玩": 2508,
      "环": 2509,
      "现": 2510,
      "玲": 2511,
      "玻": 2512,
      "班": 2513,
      "現": 2514,
      "球": 2515,
      "理": 2516,
      "琉": 2517,
      "瑕": 2518,
      "瑤": 2519,
      "瑾": 2520,
      "璃": 2521,
      "璑": 2522,
      "環": 2523,
      "瓶": 2524,
      "甚": 2525,
      "生": 2526,
      "産": 2527,
      "用": 2528,
      "田": 2529,
      "由": 2530,
      "申": 2531,
      "电": 2532,
      "男": 2533,
      "甸": 2534,
      "画": 2535,
      "界": 2536,
      "留": 2537,
      "略": 2538,
      "番": 2539,
      "異": 2540,
      "畳": 2541,
      "當": 2542,
      "疑": 2543,
      "疗": 2544,
      "疫": 2545,
      "疲": 2546,
      "疾": 2547,
      "病": 2548,
      "症": 2549,
      "痕": 2550,
      "瘓": 2551,
      "療": 2552,
      "癱": 2553,
      "発": 2554,
      "發": 2555,
      "白": 2556,
      "百": 2557,
      "的": 2558,
      "皆": 2559,
      "皇": 2560,
      "皮": 2561,
      "盒": 2562,
      "盔": 2563,
      "盘": 2564,
      "盛": 2565,
      "盟": 2566,
      "盡": 2567,
      "監": 2568,
      "盤": 2569,
      "目": 2570,
      "直": 2571,
      "相": 2572,
      "省": 2573,
      "看": 2574,
      "県": 2575,
      "真": 2576,
      "眼": 2577,
      "着": 2578,
      "睇": 2579,
      "睛": 2580,
      "睡": 2581,
      "督": 2582,
      "瞬": 2583,
      "矢": 2584,
      "知": 2585,
      "短": 2586,
      "码": 2587,
      "砂": 2588,
      "研": 2589,
      "破": 2590,
      "硅": 2591,
      "硬": 2592,
      "确": 2593,
      "碟": 2594,
      "碧": 2595,
      "確": 2596,
      "磁": 2597,
      "礎": 2598,
      "示": 2599,
      "礼": 2600,
      "社": 2601,
      "祈": 2602,
      "祝": 2603,
      "神": 2604,
      "祥": 2605,
      "票": 2606,
      "禁": 2607,
      "福": 2608,
      "禮": 2609,
      "离": 2610,
      "私": 2611,
      "秋": 2612,
      "种": 2613,
      "科": 2614,
      "秒": 2615,
      "秘": 2616,
      "称": 2617,
      "移": 2618,
      "稀": 2619,
      "程": 2620,
      "稚": 2621,
      "稳": 2622,
      "稿": 2623,
      "穫": 2624,
      "究": 2625,
      "空": 2626,
      "突": 2627,
      "立": 2628,
      "站": 2629,
      "童": 2630,
      "竭": 2631,
      "端": 2632,
      "競": 2633,
      "笑": 2634,
      "符": 2635,
      "第": 2636,
      "等": 2637,
      "筋": 2638,
      "策": 2639,
      "签": 2640,
      "简": 2641,
      "算": 2642,
      "管": 2643,
      "節": 2644,
      "築": 2645,
      "篮": 2646,
      "籍": 2647,
      "籠": 2648,
      "米": 2649,
      "类": 2650,
      "粉": 2651,
      "粤": 2652,
      "精": 2653,
      "系": 2654,
      "紀": 2655,
      "約": 2656,
      "純": 2657,
      "級": 2658,
      "素": 2659,
      "索": 2660,
      "紧": 2661,
      "組": 2662,
      "経": 2663,
      "結": 2664,
      "絡": 2665,
      "統": 2666,
      "絹": 2667,
      "經": 2668,
      "続": 2669,
      "綜": 2670,
      "綠": 2671,
      "綫": 2672,
      "維": 2673,
      "網": 2674,
      "緊": 2675,
      "総": 2676,
      "線": 2677,
      "緣": 2678,
      "緩": 2679,
      "縦": 2680,
      "縮": 2681,
      "繋": 2682,
      "纖": 2683,
      "红": 2684,
      "约": 2685,
      "级": 2686,
      "纪": 2687,
      "纯": 2688,
      "纽": 2689,
      "线": 2690,
      "组": 2691,
      "细": 2692,
      "终": 2693,
      "绍": 2694,
      "经": 2695,
      "给": 2696,
      "绚": 2697,
      "络": 2698,
      "绝": 2699,
      "统": 2700,
      "维": 2701,
      "综": 2702,
      "绽": 2703,
      "绿": 2704,
      "编": 2705,
      "缺": 2706,
      "网": 2707,
      "罚": 2708,
      "罪": 2709,
      "置": 2710,
      "美": 2711,
      "群": 2712,
      "羽": 2713,
      "習": 2714,
      "翻": 2715,
      "翼": 2716,
      "老": 2717,
      "考": 2718,
      "者": 2719,
      "而": 2720,
      "耍": 2721,
      "耳": 2722,
      "耸": 2723,
      "联": 2724,
      "聚": 2725,
      "聯": 2726,
      "職": 2727,
      "聽": 2728,
      "肆": 2729,
      "肉": 2730,
      "肚": 2731,
      "肠": 2732,
      "股": 2733,
      "肥": 2734,
      "育": 2735,
      "背": 2736,
      "胞": 2737,
      "能": 2738,
      "脐": 2739,
      "脑": 2740,
      "脫": 2741,
      "脳": 2742,
      "腊": 2743,
      "腐": 2744,
      "腦": 2745,
      "腳": 2746,
      "腸": 2747,
      "腾": 2748,
      "膏": 2749,
      "膳": 2750,
      "臘": 2751,
      "臥": 2752,
      "臨": 2753,
      "自": 2754,
      "臭": 2755,
      "至": 2756,
      "與": 2757,
      "興": 2758,
      "舞": 2759,
      "般": 2760,
      "艦": 2761,
      "良": 2762,
      "色": 2763,
      "艳": 2764,
      "节": 2765,
      "花": 2766,
      "芸": 2767,
      "苗": 2768,
      "若": 2769,
      "英": 2770,
      "苹": 2771,
      "茶": 2772,
      "草": 2773,
      "荐": 2774,
      "荒": 2775,
      "药": 2776,
      "莆": 2777,
      "莫": 2778,
      "莱": 2779,
      "获": 2780,
      "莹": 2781,
      "菁": 2782,
      "華": 2783,
      "萌": 2784,
      "营": 2785,
      "萬": 2786,
      "落": 2787,
      "葉": 2788,
      "著": 2789,
      "蓓": 2790,
      "蓬": 2791,
      "蔻": 2792,
      "蕾": 2793,
      "薦": 2794,
      "薩": 2795,
      "薬": 2796,
      "藍": 2797,
      "藏": 2798,
      "藤": 2799,
      "虎": 2800,
      "虑": 2801,
      "虔": 2802,
      "號": 2803,
      "虽": 2804,
      "蜥": 2805,
      "螺": 2806,
      "蟲": 2807,
      "蟹": 2808,
      "血": 2809,
      "行": 2810,
      "術": 2811,
      "街": 2812,
      "衝": 2813,
      "补": 2814,
      "表": 2815,
      "袁": 2816,
      "袋": 2817,
      "被": 2818,
      "裂": 2819,
      "装": 2820,
      "裏": 2821,
      "裕": 2822,
      "補": 2823,
      "裝": 2824,
      "裱": 2825,
      "製": 2826,
      "襪": 2827,
      "襯": 2828,
      "西": 2829,
      "要": 2830,
      "見": 2831,
      "規": 2832,
      "覓": 2833,
      "視": 2834,
      "覧": 2835,
      "親": 2836,
      "観": 2837,
      "覽": 2838,
      "觀": 2839,
      "见": 2840,
      "观": 2841,
      "规": 2842,
      "览": 2843,
      "觉": 2844,
      "角": 2845,
      "解": 2846,
      "言": 2847,
      "計": 2848,
      "訊": 2849,
      "討": 2850,
      "記": 2851,
      "訪": 2852,
      "設": 2853,
      "訳": 2854,
      "註": 2855,
      "証": 2856,
      "評": 2857,
      "詞": 2858,
      "試": 2859,
      "話": 2860,
      "誌": 2861,
      "認": 2862,
      "語": 2863,
      "誠": 2864,
      "誦": 2865,
      "説": 2866,
      "調": 2867,
      "請": 2868,
      "論": 2869,
      "諾": 2870,
      "謝": 2871,
      "識": 2872,
      "警": 2873,
      "護": 2874,
      "變": 2875,
      "讓": 2876,
      "计": 2877,
      "订": 2878,
      "认": 2879,
      "讨": 2880,
      "让": 2881,
      "议": 2882,
      "讯": 2883,
      "记": 2884,
      "论": 2885,
      "设": 2886,
      "证": 2887,
      "评": 2888,
      "诉": 2889,
      "词": 2890,
      "译": 2891,
      "试": 2892,
      "诗": 2893,
      "话": 2894,
      "诞": 2895,
      "询": 2896,
      "该": 2897,
      "语": 2898,
      "误": 2899,
      "说": 2900,
      "请": 2901,
      "课": 2902,
      "谁": 2903,
      "调": 2904,
      "谈": 2905,
      "谓": 2906,
      "豆": 2907,
      "豐": 2908,
      "象": 2909,
      "貝": 2910,
      "財": 2911,
      "貨": 2912,
      "販": 2913,
      "費": 2914,
      "貼": 2915,
      "賀": 2916,
      "資": 2917,
      "賜": 2918,
      "賢": 2919,
      "質": 2920,
      "購": 2921,
      "賽": 2922,
      "贈": 2923,
      "贛": 2924,
      "负": 2925,
      "责": 2926,
      "货": 2927,
      "质": 2928,
      "购": 2929,
      "贴": 2930,
      "费": 2931,
      "资": 2932,
      "赛": 2933,
      "赞": 2934,
      "赣": 2935,
      "赤": 2936,
      "赫": 2937,
      "走": 2938,
      "赵": 2939,
      "赶": 2940,
      "起": 2941,
      "超": 2942,
      "越": 2943,
      "趣": 2944,
      "趨": 2945,
      "足": 2946,
      "跟": 2947,
      "路": 2948,
      "身": 2949,
      "躺": 2950,
      "車": 2951,
      "軍": 2952,
      "軟": 2953,
      "載": 2954,
      "輯": 2955,
      "輸": 2956,
      "輾": 2957,
      "轉": 2958,
      "车": 2959,
      "轨": 2960,
      "转": 2961,
      "软": 2962,
      "轴": 2963,
      "轻": 2964,
      "载": 2965,
      "辑": 2966,
      "输": 2967,
      "辞": 2968,
      "辟": 2969,
      "辣": 2970,
      "辰": 2971,
      "農": 2972,
      "込": 2973,
      "达": 2974,
      "迁": 2975,
      "过": 2976,
      "迎": 2977,
      "运": 2978,
      "近": 2979,
      "还": 2980,
      "这": 2981,
      "进": 2982,
      "违": 2983,
      "连": 2984,
      "迪": 2985,
      "述": 2986,
      "迷": 2987,
      "迹": 2988,
      "退": 2989,
      "送": 2990,
      "适": 2991,
      "逃": 2992,
      "选": 2993,
      "逍": 2994,
      "透": 2995,
      "途": 2996,
      "逗": 2997,
      "這": 2998,
      "通": 2999,
      "速": 3000,
      "造": 3001,
      "逢": 3002,
      "連": 3003,
      "週": 3004,
      "進": 3005,
      "遊": 3006,
      "運": 3007,
      "遍": 3008,
      "過": 3009,
      "道": 3010,
      "達": 3011,
      "違": 3012,
      "遙": 3013,
      "遠": 3014,
      "適": 3015,
      "遭": 3016,
      "遮": 3017,
      "遲": 3018,
      "遵": 3019,
      "遷": 3020,
      "選": 3021,
      "遺": 3022,
      "避": 3023,
      "邀": 3024,
      "還": 3025,
      "邈": 3026,
      "邊": 3027,
      "邑": 3028,
      "那": 3029,
      "邪": 3030,
      "郁": 3031,
      "部": 3032,
      "郵": 3033,
      "都": 3034,
      "酉": 3035,
      "配": 3036,
      "酒": 3037,
      "醒": 3038,
      "采": 3039,
      "释": 3040,
      "里": 3041,
      "重": 3042,
      "野": 3043,
      "量": 3044,
      "金": 3045,
      "針": 3046,
      "鈥": 3047,
      "銀": 3048,
      "銅": 3049,
      "銘": 3050,
      "鋸": 3051,
      "錄": 3052,
      "錢": 3053,
      "録": 3054,
      "鏡": 3055,
      "针": 3056,
      "钟": 3057,
      "钢": 3058,
      "钻": 3059,
      "铃": 3060,
      "铢": 3061,
      "银": 3062,
      "链": 3063,
      "销": 3064,
      "错": 3065,
      "長": 3066,
      "长": 3067,
      "門": 3068,
      "開": 3069,
      "間": 3070,
      "関": 3071,
      "閲": 3072,
      "關": 3073,
      "门": 3074,
      "问": 3075,
      "间": 3076,
      "闻": 3077,
      "阐": 3078,
      "队": 3079,
      "阪": 3080,
      "防": 3081,
      "阳": 3082,
      "阴": 3083,
      "阿": 3084,
      "附": 3085,
      "际": 3086,
      "陆": 3087,
      "陈": 3088,
      "降": 3089,
      "限": 3090,
      "院": 3091,
      "除": 3092,
      "险": 3093,
      "陰": 3094,
      "陳": 3095,
      "陸": 3096,
      "陽": 3097,
      "隊": 3098,
      "随": 3099,
      "隐": 3100,
      "際": 3101,
      "障": 3102,
      "隨": 3103,
      "隱": 3104,
      "雀": 3105,
      "雄": 3106,
      "集": 3107,
      "難": 3108,
      "雯": 3109,
      "零": 3110,
      "電": 3111,
      "需": 3112,
      "露": 3113,
      "青": 3114,
      "靓": 3115,
      "静": 3116,
      "靜": 3117,
      "非": 3118,
      "面": 3119,
      "鞋": 3120,
      "韩": 3121,
      "韬": 3122,
      "音": 3123,
      "響": 3124,
      "頂": 3125,
      "順": 3126,
      "領": 3127,
      "頭": 3128,
      "頸": 3129,
      "頻": 3130,
      "頼": 3131,
      "題": 3132,
      "額": 3133,
      "願": 3134,
      "類": 3135,
      "顯": 3136,
      "页": 3137,
      "项": 3138,
      "须": 3139,
      "顽": 3140,
      "颂": 3141,
      "预": 3142,
      "颖": 3143,
      "题": 3144,
      "额": 3145,
      "風": 3146,
      "风": 3147,
      "飛": 3148,
      "飞": 3149,
      "食": 3150,
      "飲": 3151,
      "養": 3152,
      "餐": 3153,
      "餓": 3154,
      "館": 3155,
      "馆": 3156,
      "首": 3157,
      "香": 3158,
      "馬": 3159,
      "駅": 3160,
      "駐": 3161,
      "駝": 3162,
      "駱": 3163,
      "験": 3164,
      "騷": 3165,
      "驱": 3166,
      "骨": 3167,
      "體": 3168,
      "高": 3169,
      "鬆": 3170,
      "鬣": 3171,
      "魅": 3172,
      "魔": 3173,
      "魚": 3174,
      "鰹": 3175,
      "鱗": 3176,
      "鲜": 3177,
      "鳄": 3178,
      "鳥": 3179,
      "鳴": 3180,
      "鸟": 3181,
      "鸭": 3182,
      "鹊": 3183,
      "麗": 3184,
      "麥": 3185,
      "麻": 3186,
      "麼": 3187,
      "黃": 3188,
      "黄": 3189,
      "黑": 3190,
      "黒": 3191,
      "點": 3192,
      "黨": 3193,
      "鼎": 3194,
      "鼓": 3195,
      "齒": 3196,
      "龍": 3197,
      "龙": 3198,
      "ꬶ": 3199,
      "ꭒ": 3200,
      "가": 3201,
      "각": 3202,
      "간": 3203,
      "감": 3204,
      "강": 3205,
      "같": 3206,
      "개": 3207,
      "거": 3208,
      "건": 3209,
      "검": 3210,
      "것": 3211,
      "게": 3212,
      "겨": 3213,
      "격": 3214,
      "결": 3215,
      "경": 3216,
      "계": 3217,
      "고": 3218,
      "곳": 3219,
      "공": 3220,
      "과": 3221,
      "관": 3222,
      "교": 3223,
      "구": 3224,
      "국": 3225,
      "규": 3226,
      "그": 3227,
      "근": 3228,
      "글": 3229,
      "금": 3230,
      "급": 3231,
      "기": 3232,
      "긴": 3233,
      "길": 3234,
      "까": 3235,
      "깍": 3236,
      "깝": 3237,
      "깨": 3238,
      "께": 3239,
      "꼭": 3240,
      "꼼": 3241,
      "꼽": 3242,
      "꾸": 3243,
      "끈": 3244,
      "끗": 3245,
      "나": 3246,
      "난": 3247,
      "날": 3248,
      "남": 3249,
      "낮": 3250,
      "내": 3251,
      "낸": 3252,
      "낼": 3253,
      "냐": 3254,
      "냥": 3255,
      "너": 3256,
      "널": 3257,
      "넓": 3258,
      "넥": 3259,
      "넷": 3260,
      "녀": 3261,
      "년": 3262,
      "노": 3263,
      "녹": 3264,
      "농": 3265,
      "높": 3266,
      "누": 3267,
      "눈": 3268,
      "느": 3269,
      "는": 3270,
      "늘": 3271,
      "능": 3272,
      "늦": 3273,
      "니": 3274,
      "닌": 3275,
      "님": 3276,
      "닙": 3277,
      "다": 3278,
      "단": 3279,
      "닫": 3280,
      "담": 3281,
      "답": 3282,
      "당": 3283,
      "대": 3284,
      "더": 3285,
      "데": 3286,
      "델": 3287,
      "도": 3288,
      "독": 3289,
      "동": 3290,
      "돼": 3291,
      "됐": 3292,
      "되": 3293,
      "된": 3294,
      "될": 3295,
      "두": 3296,
      "드": 3297,
      "든": 3298,
      "들": 3299,
      "등": 3300,
      "디": 3301,
      "따": 3302,
      "때": 3303,
      "떤": 3304,
      "또": 3305,
      "뛰": 3306,
      "라": 3307,
      "락": 3308,
      "람": 3309,
      "랍": 3310,
      "랑": 3311,
      "래": 3312,
      "랙": 3313,
      "랜": 3314,
      "램": 3315,
      "러": 3316,
      "런": 3317,
      "럴": 3318,
      "럼": 3319,
      "레": 3320,
      "려": 3321,
      "력": 3322,
      "렴": 3323,
      "렵": 3324,
      "로": 3325,
      "록": 3326,
      "론": 3327,
      "롤": 3328,
      "료": 3329,
      "루": 3330,
      "률": 3331,
      "른": 3332,
      "를": 3333,
      "리": 3334,
      "릭": 3335,
      "림": 3336,
      "립": 3337,
      "링": 3338,
      "마": 3339,
      "막": 3340,
      "만": 3341,
      "많": 3342,
      "망": 3343,
      "매": 3344,
      "맥": 3345,
      "머": 3346,
      "메": 3347,
      "며": 3348,
      "면": 3349,
      "명": 3350,
      "모": 3351,
      "목": 3352,
      "못": 3353,
      "무": 3354,
      "문": 3355,
      "물": 3356,
      "므": 3357,
      "미": 3358,
      "민": 3359,
      "믿": 3360,
      "및": 3361,
      "바": 3362,
      "반": 3363,
      "받": 3364,
      "발": 3365,
      "밝": 3366,
      "방": 3367,
      "배": 3368,
      "백": 3369,
      "버": 3370,
      "번": 3371,
      "벌": 3372,
      "법": 3373,
      "베": 3374,
      "벽": 3375,
      "변": 3376,
      "별": 3377,
      "보": 3378,
      "본": 3379,
      "볼": 3380,
      "부": 3381,
      "북": 3382,
      "분": 3383,
      "브": 3384,
      "블": 3385,
      "비": 3386,
      "빈": 3387,
      "빠": 3388,
      "빵": 3389,
      "쁜": 3390,
      "사": 3391,
      "산": 3392,
      "살": 3393,
      "삼": 3394,
      "상": 3395,
      "새": 3396,
      "색": 3397,
      "생": 3398,
      "샷": 3399,
      "서": 3400,
      "석": 3401,
      "선": 3402,
      "설": 3403,
      "섰": 3404,
      "성": 3405,
      "세": 3406,
      "센": 3407,
      "셔": 3408,
      "션": 3409,
      "셜": 3410,
      "소": 3411,
      "속": 3412,
      "솔": 3413,
      "송": 3414,
      "수": 3415,
      "숙": 3416,
      "순": 3417,
      "술": 3418,
      "쉐": 3419,
      "쉬": 3420,
      "쉽": 3421,
      "스": 3422,
      "슨": 3423,
      "습": 3424,
      "시": 3425,
      "식": 3426,
      "신": 3427,
      "실": 3428,
      "심": 3429,
      "십": 3430,
      "싶": 3431,
      "싼": 3432,
      "아": 3433,
      "악": 3434,
      "안": 3435,
      "않": 3436,
      "알": 3437,
      "았": 3438,
      "앙": 3439,
      "애": 3440,
      "액": 3441,
      "앱": 3442,
      "야": 3443,
      "약": 3444,
      "얀": 3445,
      "양": 3446,
      "어": 3447,
      "언": 3448,
      "업": 3449,
      "없": 3450,
      "엇": 3451,
      "었": 3452,
      "에": 3453,
      "엔": 3454,
      "엘": 3455,
      "여": 3456,
      "역": 3457,
      "연": 3458,
      "열": 3459,
      "였": 3460,
      "영": 3461,
      "오": 3462,
      "온": 3463,
      "올": 3464,
      "옵": 3465,
      "와": 3466,
      "왔": 3467,
      "외": 3468,
      "요": 3469,
      "욕": 3470,
      "욜": 3471,
      "용": 3472,
      "우": 3473,
      "운": 3474,
      "움": 3475,
      "워": 3476,
      "원": 3477,
      "월": 3478,
      "웠": 3479,
      "웨": 3480,
      "위": 3481,
      "유": 3482,
      "육": 3483,
      "율": 3484,
      "융": 3485,
      "으": 3486,
      "은": 3487,
      "을": 3488,
      "음": 3489,
      "의": 3490,
      "이": 3491,
      "익": 3492,
      "인": 3493,
      "일": 3494,
      "임": 3495,
      "입": 3496,
      "있": 3497,
      "자": 3498,
      "작": 3499,
      "잘": 3500,
      "잡": 3501,
      "장": 3502,
      "재": 3503,
      "쟁": 3504,
      "저": 3505,
      "적": 3506,
      "전": 3507,
      "절": 3508,
      "점": 3509,
      "접": 3510,
      "정": 3511,
      "제": 3512,
      "조": 3513,
      "존": 3514,
      "좋": 3515,
      "좌": 3516,
      "주": 3517,
      "죽": 3518,
      "준": 3519,
      "줍": 3520,
      "중": 3521,
      "줘": 3522,
      "즈": 3523,
      "즌": 3524,
      "증": 3525,
      "지": 3526,
      "직": 3527,
      "진": 3528,
      "질": 3529,
      "집": 3530,
      "징": 3531,
      "짜": 3532,
      "째": 3533,
      "쪼": 3534,
      "찍": 3535,
      "찢": 3536,
      "차": 3537,
      "참": 3538,
      "창": 3539,
      "찾": 3540,
      "채": 3541,
      "책": 3542,
      "처": 3543,
      "척": 3544,
      "천": 3545,
      "청": 3546,
      "체": 3547,
      "쳐": 3548,
      "초": 3549,
      "총": 3550,
      "추": 3551,
      "축": 3552,
      "출": 3553,
      "취": 3554,
      "츠": 3555,
      "치": 3556,
      "친": 3557,
      "침": 3558,
      "카": 3559,
      "캐": 3560,
      "컴": 3561,
      "크": 3562,
      "타": 3563,
      "탁": 3564,
      "탕": 3565,
      "태": 3566,
      "택": 3567,
      "터": 3568,
      "턴": 3569,
      "테": 3570,
      "템": 3571,
      "토": 3572,
      "톤": 3573,
      "통": 3574,
      "투": 3575,
      "트": 3576,
      "특": 3577,
      "틀": 3578,
      "티": 3579,
      "틱": 3580,
      "틴": 3581,
      "파": 3582,
      "판": 3583,
      "팔": 3584,
      "패": 3585,
      "퍼": 3586,
      "페": 3587,
      "펩": 3588,
      "펴": 3589,
      "편": 3590,
      "평": 3591,
      "포": 3592,
      "풀": 3593,
      "품": 3594,
      "퓨": 3595,
      "프": 3596,
      "픈": 3597,
      "플": 3598,
      "피": 3599,
      "필": 3600,
      "핑": 3601,
      "하": 3602,
      "학": 3603,
      "한": 3604,
      "할": 3605,
      "함": 3606,
      "합": 3607,
      "항": 3608,
      "해": 3609,
      "핸": 3610,
      "했": 3611,
      "행": 3612,
      "현": 3613,
      "형": 3614,
      "호": 3615,
      "혹": 3616,
      "혼": 3617,
      "홈": 3618,
      "화": 3619,
      "확": 3620,
      "환": 3621,
      "활": 3622,
      "황": 3623,
      "효": 3624,
      "후": 3625,
      "훈": 3626,
      "휴": 3627,
      "흥": 3628,
      "희": 3629,
      "히": 3630,
      "힘": 3631,
      "": 3632,
      "": 3633,
      "": 3634,
      "": 3635,
      "": 3636,
      "": 3637,
      "": 3638,
      "": 3639,
      "": 3640,
      "": 3641,
      "": 3642,
      "": 3643,
      "": 3644,
      "": 3645,
      "": 3646,
      "": 3647,
      "": 3648,
      "": 3649,
      "": 3650,
      "": 3651,
      "": 3652,
      "": 3653,
      "": 3654,
      "": 3655,
      "": 3656,
      "": 3657,
      "": 3658,
      "": 3659,
      "": 3660,
      "": 3661,
      "": 3662,
      "": 3663,
      "": 3664,
      "": 3665,
      "": 3666,
      "": 3667,
      "": 3668,
      "": 3669,
      "": 3670,
      "": 3671,
      "": 3672,
      "": 3673,
      "": 3674,
      "": 3675,
      "": 3676,
      "﷓": 3677,
      "︎": 3678,
      "️": 3679,
      "﻿": 3680,
      "￼": 3681,
      "�": 3682,
      "🆕": 3683,
      "🇧": 3684,
      "🇩": 3685,
      "🇪": 3686,
      "🇬": 3687,
      "🇭": 3688,
      "🇵": 3689,
      "🇷": 3690,
      "🇹": 3691,
      "🌈": 3692,
      "🌉": 3693,
      "🌐": 3694,
      "🌙": 3695,
      "🌱": 3696,
      "🌴": 3697,
      "🌺": 3698,
      "🍂": 3699,
      "🍎": 3700,
      "🍔": 3701,
      "🍟": 3702,
      "🍦": 3703,
      "🍪": 3704,
      "🍳": 3705,
      "🍹": 3706,
      "🍺": 3707,
      "🎁": 3708,
      "🎂": 3709,
      "🎆": 3710,
      "🎈": 3711,
      "🎉": 3712,
      "🎊": 3713,
      "🎧": 3714,
      "🎨": 3715,
      "🎮": 3716,
      "🎹": 3717,
      "🏉": 3718,
      "🏡": 3719,
      "🏴": 3720,
      "🏷": 3721,
      "🏻": 3722,
      "🏼": 3723,
      "🏽": 3724,
      "🐚": 3725,
      "🐛": 3726,
      "🐜": 3727,
      "🐶": 3728,
      "👀": 3729,
      "👄": 3730,
      "👇": 3731,
      "👈": 3732,
      "👉": 3733,
      "👊": 3734,
      "👋": 3735,
      "👌": 3736,
      "👍": 3737,
      "👎": 3738,
      "👑": 3739,
      "👧": 3740,
      "👨": 3741,
      "👮": 3742,
      "💃": 3743,
      "💈": 3744,
      "💕": 3745,
      "💖": 3746,
      "💗": 3747,
      "💚": 3748,
      "💛": 3749,
      "💜": 3750,
      "💝": 3751,
      "💞": 3752,
      "💟": 3753,
      "💡": 3754,
      "💥": 3755,
      "💪": 3756,
      "💯": 3757,
      "📣": 3758,
      "📴": 3759,
      "📸": 3760,
      "🔍": 3761,
      "🔙": 3762,
      "🔥": 3763,
      "🔴": 3764,
      "🔸": 3765,
      "🕺": 3766,
      "🖤": 3767,
      "🗺": 3768,
      "😀": 3769,
      "😁": 3770,
      "😂": 3771,
      "😃": 3772,
      "😄": 3773,
      "😅": 3774,
      "😆": 3775,
      "😉": 3776,
      "😊": 3777,
      "😌": 3778,
      "😍": 3779,
      "😎": 3780,
      "😐": 3781,
      "😒": 3782,
      "😕": 3783,
      "😘": 3784,
      "😛": 3785,
      "😜": 3786,
      "😝": 3787,
      "😡": 3788,
      "😢": 3789,
      "😦": 3790,
      "😭": 3791,
      "😮": 3792,
      "😰": 3793,
      "😱": 3794,
      "😲": 3795,
      "😳": 3796,
      "😶": 3797,
      "😻": 3798,
      "🙁": 3799,
      "🙂": 3800,
      "🙃": 3801,
      "🙄": 3802,
      "🙅": 3803,
      "🙆": 3804,
      "🙋": 3805,
      "🙌": 3806,
      "🙏": 3807,
      "🚀": 3808,
      "🚨": 3809,
      "🚫": 3810,
      "🛑": 3811,
      "🤗": 3812,
      "🤣": 3813,
      "🤤": 3814,
      "🤯": 3815,
      "🥳": 3816,
      "🥶": 3817,
      "🦄": 3818,
      "🧀": 3819,
      "🧚": 3820,
      "🧨": 3821,
      "󠁢": 3822,
      "󠁣": 3823,
      "󠁧": 3824,
      "󠁬": 3825,
      "󠁳": 3826,
      "󠁴": 3827,
      "󠁷": 3828,
      "󠁿": 3829,
      "th": 3830,
      "in": 3831,
      "an": 3832,
      "er": 3833,
      "on": 3834,
      "re": 3835,
      "the": 3836,
      "at": 3837,
      "or": 3838,
      "ou": 3839,
      "en": 3840,
      "es": 3841,
      "al": 3842,
      "is": 3843,
      "to": 3844,
      "ing": 3845,
      "and": 3846,
      "ed": 3847,
      "ar": 3848,
      "it": 3849,
      "of": 3850,
      "as": 3851,
      "ic": 3852,
      "le": 3853,
      "st": 3854,
      "ion": 3855,
      "om": 3856,
      "il": 3857,
      "ent": 3858,
      "ac": 3859,
      "el": 3860,
      "ro": 3861,
      "you": 3862,
      "for": 3863,
      "se": 3864,
      "ch": 3865,
      "ve": 3866,
      "be": 3867,
      "he": 3868,
      "ad": 3869,
      "ow": 3870,
      "ly": 3871,
      "id": 3872,
      "ay": 3873,
      "am": 3874,
      "ol": 3875,
      "et": 3876,
      "im": 3877,
      "ith": 3878,
      "ig": 3879,
      "ver": 3880,
      "are": 3881,
      "ct": 3882,
      "wh": 3883,
      "ation": 3884,
      "ot": 3885,
      "that": 3886,
      "with": 3887,
      "ab": 3888,
      "su": 3889,
      "ter": 3890,
      "us": 3891,
      "un": 3892,
      "ut": 3893,
      "ir": 3894,
      "ce": 3895,
      "ag": 3896,
      "ur": 3897,
      "com": 3898,
      "pro": 3899,
      "lo": 3900,
      "con": 3901,
      "ill": 3902,
      "ers": 3903,
      "all": 3904,
      "tr": 3905,
      "ne": 3906,
      "em": 3907,
      "The": 3908,
      "ap": 3909,
      "mo": 3910,
      "op": 3911,
      "if": 3912,
      "ul": 3913,
      "pl": 3914,
      "our": 3915,
      "ess": 3916,
      "ex": 3917,
      "est": 3918,
      "ke": 3919,
      "we": 3920,
      "res": 3921,
      "de": 3922,
      "fr": 3923,
      "ha": 3924,
      "ere": 3925,
      "out": 3926,
      "your": 3927,
      "pe": 3928,
      "igh": 3929,
      "sh": 3930,
      "so": 3931,
      "ate": 3932,
      "ain": 3933,
      "ment": 3934,
      "qu": 3935,
      "oun": 3936,
      "art": 3937,
      "ant": 3938,
      "one": 3939,
      "ity": 3940,
      "per": 3941,
      "have": 3942,
      "can": 3943,
      "Th": 3944,
      "ld": 3945,
      "was": 3946,
      "ies": 3947,
      "iv": 3948,
      "ive": 3949,
      "od": 3950,
      "this": 3951,
      "pr": 3952,
      "ther": 3953,
      "by": 3954,
      "from": 3955,
      "act": 3956,
      "wor": 3957,
      "not": 3958,
      "will": 3959,
      "po": 3960,
      "ist": 3961,
      "te": 3962,
      "um": 3963,
      "any": 3964,
      "ort": 3965,
      "cl": 3966,
      "ight": 3967,
      "ard": 3968,
      "end": 3969,
      "do": 3970,
      "ome": 3971,
      "fe": 3972,
      "ind": 3973,
      "up": 3974,
      "ial": 3975,
      "ust": 3976,
      "co": 3977,
      "ge": 3978,
      "In": 3979,
      "gr": 3980,
      "ip": 3981,
      "ell": 3982,
      "ould": 3983,
      "me": 3984,
      "go": 3985,
      "gh": 3986,
      "able": 3987,
      "ide": 3988,
      "ok": 3989,
      "ie": 3990,
      "20": 3991,
      "ine": 3992,
      "ud": 3993,
      "but": 3994,
      "has": 3995,
      "ack": 3996,
      "ak": 3997,
      "ear": 3998,
      "ice": 3999,
      "age": 4000,
      "ally": 4001,
      "ure": 4002,
      "av": 4003,
      "port": 4004,
      "</": 4005,
      "tim": 4006,
      "ast": 4007,
      "ough": 4008,
      "der": 4009,
      "ach": 4010,
      "comp": 4011,
      "li": 4012,
      "ions": 4013,
      "work": 4014,
      "ake": 4015,
      "bo": 4016,
      "form": 4017,
      "ire": 4018,
      "ich": 4019,
      "cre": 4020,
      "now": 4021,
      "more": 4022,
      "very": 4023,
      "use": 4024,
      "ser": 4025,
      "their": 4026,
      "my": 4027,
      "ated": 4028,
      "ound": 4029,
      "du": 4030,
      "iz": 4031,
      "ite": 4032,
      "ail": 4033,
      "day": 4034,
      "af": 4035,
      "way": 4036,
      "ans": 4037,
      "fer": 4038,
      "they": 4039,
      "fo": 4040,
      "get": 4041,
      "ck": 4042,
      "ts": 4043,
      "ous": 4044,
      "ong": 4045,
      "sp": 4046,
      "ev": 4047,
      "ass": 4048,
      "ib": 4049,
      "own": 4050,
      "some": 4051,
      "ance": 4052,
      "its": 4053,
      "other": 4054,
      "about": 4055,
      "ence": 4056,
      "ign": 4057,
      "It": 4058,
      "ish": 4059,
      "which": 4060,
      "00": 4061,
      "ace": 4062,
      "time": 4063,
      "We": 4064,
      "part": 4065,
      "str": 4066,
      "cr": 4067,
      "br": 4068,
      "thing": 4069,
      "ame": 4070,
      "ia": 4071,
      "ber": 4072,
      "cont": 4073,
      "pre": 4074,
      "no": 4075,
      "ase": 4076,
      "This": 4077,
      "dis": 4078,
      "also": 4079,
      "who": 4080,
      "year": 4081,
      "ely": 4082,
      "new": 4083,
      "cess": 4084,
      "..": 4085,
      "ep": 4086,
      "ction": 4087,
      "bl": 4088,
      "Wh": 4089,
      "ents": 4090,
      "ark": 4091,
      "ick": 4092,
      "over": 4093,
      "ful": 4094,
      "ile": 4095,
      "ren": 4096,
      "An": 4097,
      "ary": 4098,
      "ations": 4099,
      "ical": 4100,
      "ree": 4101,
      "ty": 4102,
      "man": 4103,
      "inter": 4104,
      "201": 4105,
      "int": 4106,
      "ition": 4107,
      "need": 4108,
      "aw": 4109,
      "Ch": 4110,
      "comm": 4111,
      "prov": 4112,
      "them": 4113,
      "like": 4114,
      "spe": 4115,
      "his": 4116,
      "dr": 4117,
      "ph": 4118,
      "ple": 4119,
      "pos": 4120,
      "when": 4121,
      "reat": 4122,
      "cial": 4123,
      "there": 4124,
      "des": 4125,
      "St": 4126,
      "ll": 4127,
      "hel": 4128,
      "ens": 4129,
      "ors": 4130,
      "been": 4131,
      "pres": 4132,
      "off": 4133,
      "what": 4134,
      "just": 4135,
      "her": 4136,
      "col": 4137,
      "than": 4138,
      "how": 4139,
      "cor": 4140,
      "low": 4141,
      "ink": 4142,
      "ild": 4143,
      "know": 4144,
      "serv": 4145,
      "ting": 4146,
      "would": 4147,
      "ang": 4148,
      "cho": 4149,
      "ue": 4150,
      "most": 4151,
      "ef": 4152,
      "fir": 4153,
      "og": 4154,
      "ater": 4155,
      "tw": 4156,
      "cent": 4157,
      "had": 4158,
      "vel": 4159,
      "ca": 4160,
      "bu": 4161,
      "were": 4162,
      "cus": 4163,
      "ci": 4164,
      "old": 4165,
      "add": 4166,
      "You": 4167,
      "ade": 4168,
      "mer": 4169,
      "into": 4170,
      "enc": 4171,
      "ning": 4172,
      "sa": 4173,
      "ople": 4174,
      "help": 4175,
      "min": 4176,
      "cur": 4177,
      "thr": 4178,
      "read": 4179,
      "well": 4180,
      "make": 4181,
      "ob": 4182,
      "ory": 4183,
      "sy": 4184,
      "look": 4185,
      "fin": 4186,
      "If": 4187,
      "ry": 4188,
      "coun": 4189,
      "vers": 4190,
      "ating": 4191,
      "incl": 4192,
      "may": 4193,
      "row": 4194,
      "au": 4195,
      "produ": 4196,
      "people": 4197,
      "back": 4198,
      "19": 4199,
      "only": 4200,
      "je": 4201,
      "ices": 4202,
      "fore": 4203,
      "ose": 4204,
      "app": 4205,
      "reg": 4206,
      ").": 4207,
      "through": 4208,
      "ates": 4209,
      "see": 4210,
      "play": 4211,
      "bet": 4212,
      "high": 4213,
      "He": 4214,
      "air": 4215,
      "ian": 4216,
      "pt": 4217,
      "first": 4218,
      "every": 4219,
      "lect": 4220,
      "vis": 4221,
      "ual": 4222,
      "under": 4223,
      "dif": 4224,
      "ied": 4225,
      "sup": 4226,
      "att": 4227,
      "come": 4228,
      "fect": 4229,
      "want": 4230,
      "sur": 4231,
      "ments": 4232,
      "these": 4233,
      "where": 4234,
      "fl": 4235,
      "ious": 4236,
      "cer": 4237,
      "let": 4238,
      "ities": 4239,
      "mon": 4240,
      "exper": 4241,
      "line": 4242,
      "ject": 4243,
      "many": 4244,
      "med": 4245,
      "iness": 4246,
      "top": 4247,
      "ult": 4248,
      "iew": 4249,
      "As": 4250,
      "red": 4251,
      "bus": 4252,
      "set": 4253,
      "ific": 4254,
      "arch": 4255,
      "ings": 4256,
      "tain": 4257,
      "tom": 4258,
      "then": 4259,
      "pers": 4260,
      "ener": 4261,
      "cause": 4262,
      "car": 4263,
      "don": 4264,
      "gu": 4265,
      "rel": 4266,
      "Re": 4267,
      "stud": 4268,
      "os": 4269,
      "ank": 4270,
      "ise": 4271,
      "ily": 4272,
      "stand": 4273,
      "inv": 4274,
      "itt": 4275,
      "ible": 4276,
      "down": 4277,
      "requ": 4278,
      "two": 4279,
      "ress": 4280,
      "good": 4281,
      "cal": 4282,
      "sure": 4283,
      "mark": 4284,
      "10": 4285,
      "For": 4286,
      "Un": 4287,
      "ons": 4288,
      "great": 4289,
      "try": 4290,
      "fun": 4291,
      "even": 4292,
      "ife": 4293,
      "lear": 4294,
      "ict": 4295,
      "ever": 4296,
      "sel": 4297,
      "after": 4298,
      "uch": 4299,
      "urn": 4300,
      "right": 4301,
      "les": 4302,
      "formation": 4303,
      "view": 4304,
      "years": 4305,
      "del": 4306,
      "less": 4307,
      "ath": 4308,
      "ility": 4309,
      "best": 4310,
      "could": 4311,
      "she": 4312,
      "should": 4313,
      "stem": 4314,
      "find": 4315,
      "aking": 4316,
      "ange": 4317,
      "used": 4318,
      "start": 4319,
      "includ": 4320,
      "ational": 4321,
      "ased": 4322,
      "ys": 4323,
      "ek": 4324,
      "ho": 4325,
      "design": 4326,
      "land": 4327,
      "ures": 4328,
      "site": 4329,
      "such": 4330,
      "Com": 4331,
      "ular": 4332,
      "wr": 4333,
      "als": 4334,
      "home": 4335,
      "book": 4336,
      "business": 4337,
      "iss": 4338,
      "eng": 4339,
      "ces": 4340,
      "Con": 4341,
      "alth": 4342,
      "And": 4343,
      "sm": 4344,
      "ds": 4345,
      "ement": 4346,
      "ss": 4347,
      "much": 4348,
      "long": 4349,
      "jo": 4350,
      "ble": 4351,
      "here": 4352,
      "ics": 4353,
      "mem": 4354,
      "take": 4355,
      "differ": 4356,
      "ix": 4357,
      "ative": 4358,
      "ins": 4359,
      "Ne": 4360,
      "gan": 4361,
      "light": 4362,
      "ced": 4363,
      "ubl": 4364,
      "person": 4365,
      "olog": 4366,
      "sub": 4367,
      "Tr": 4368,
      "atch": 4369,
      "information": 4370,
      "ways": 4371,
      "bel": 4372,
      "each": 4373,
      "io": 4374,
      "eas": 4375,
      "room": 4376,
      "show": 4377,
      "uring": 4378,
      "made": 4379,
      "fam": 4380,
      "sim": 4381,
      "call": 4382,
      "gram": 4383,
      "ra": 4384,
      "main": 4385,
      "ext": 4386,
      "ident": 4387,
      "velop": 4388,
      "cons": 4389,
      "said": 4390,
      "because": 4391,
      "system": 4392,
      "ner": 4393,
      "tern": 4394,
      "experi": 4395,
      "sul": 4396,
      "ash": 4397,
      "stru": 4398,
      "),": 4399,
      "product": 4400,
      "There": 4401,
      "care": 4402,
      "develop": 4403,
      "fact": 4404,
      "Al": 4405,
      "provid": 4406,
      "ward": 4407,
      "inst": 4408,
      "ax": 4409,
      "cond": 4410,
      "lar": 4411,
      "pect": 4412,
      "ited": 4413,
      "place": 4414,
      "think": 4415,
      "life": 4416,
      "num": 4417,
      "being": 4418,
      "ven": 4419,
      "sol": 4420,
      "ub": 4421,
      "did": 4422,
      "sk": 4423,
      "trans": 4424,
      "ved": 4425,
      "those": 4426,
      "chn": 4427,
      "hand": 4428,
      "Pro": 4429,
      "ms": 4430,
      "web": 4431,
      "chool": 4432,
      "clo": 4433,
      "alk": 4434,
      "world": 4435,
      "led": 4436,
      "does": 4437,
      "ages": 4438,
      "arr": 4439,
      "So": 4440,
      "emp": 4441,
      "before": 4442,
      "ality": 4443,
      "week": 4444,
      "Ar": 4445,
      "az": 4446,
      "say": 4447,
      "val": 4448,
      "che": 4449,
      "fol": 4450,
      "ret": 4451,
      "ving": 4452,
      "det": 4453,
      "ask": 4454,
      "ann": 4455,
      "amp": 4456,
      "200": 4457,
      "ten": 4458,
      "while": 4459,
      "Fr": 4460,
      "put": 4461,
      "ize": 4462,
      "prof": 4463,
      "cour": 4464,
      "ives": 4465,
      "lot": 4466,
      "though": 4467,
      "On": 4468,
      "ouse": 4469,
      "free": 4470,
      "ship": 4471,
      "char": 4472,
      "But": 4473,
      "ding": 4474,
      "market": 4475,
      "oup": 4476,
      "En": 4477,
      "again": 4478,
      "search": 4479,
      "How": 4480,
      "ivers": 4481,
      "iving": 4482,
      "using": 4483,
      "ata": 4484,
      "post": 4485,
      "last": 4486,
      "support": 4487,
      "cap": 4488,
      "around": 4489,
      "list": 4490,
      "different": 4491,
      "pol": 4492,
      "process": 4493,
      "To": 4494,
      "rent": 4495,
      "De": 4496,
      "irect": 4497,
      "self": 4498,
      "ional": 4499,
      "gl": 4500,
      "ese": 4501,
      "plic": 4502,
      "ower": 4503,
      "pur": 4504,
      "offer": 4505,
      "fic": 4506,
      "avail": 4507,
      "lead": 4508,
      "commun": 4509,
      "Se": 4510,
      "side": 4511,
      "...": 4512,
      "ters": 4513,
      "really": 4514,
      "program": 4515,
      "too": 4516,
      "ug": 4517,
      "ient": 4518,
      "They": 4519,
      "Pr": 4520,
      "going": 4521,
      "child": 4522,
      "akes": 4523,
      "ince": 4524,
      "Be": 4525,
      "publ": 4526,
      "ior": 4527,
      "New": 4528,
      "leg": 4529,
      "techn": 4530,
      "iting": 4531,
      "import": 4532,
      "ood": 4533,
      "ave": 4534,
      "cover": 4535,
      "oc": 4536,
      "head": 4537,
      "him": 4538,
      "ness": 4539,
      "sing": 4540,
      "fil": 4541,
      "sign": 4542,
      "allow": 4543,
      "dec": 4544,
      "ton": 4545,
      "ason": 4546,
      "team": 4547,
      "water": 4548,
      "run": 4549,
      "ween": 4550,
      "feel": 4551,
      "build": 4552,
      "iver": 4553,
      "blo": 4554,
      "iend": 4555,
      "present": 4556,
      "available": 4557,
      "Ex": 4558,
      "Cl": 4559,
      "poss": 4560,
      "same": 4561,
      "both": 4562,
      "Bo": 4563,
      "pay": 4564,
      "30": 4565,
      "service": 4566,
      "var": 4567,
      "sto": 4568,
      "gener": 4569,
      "arm": 4570,
      "point": 4571,
      "found": 4572,
      "real": 4573,
      "still": 4574,
      "adv": 4575,
      "company": 4576,
      "between": 4577,
      "sal": 4578,
      "ider": 4579,
      "ized": 4580,
      "ature": 4581,
      "par": 4582,
      "organ": 4583,
      "ier": 4584,
      "load": 4585,
      "plan": 4586,
      "love": 4587,
      "cept": 4588,
      "keep": 4589,
      "order": 4590,
      "cle": 4591,
      "bre": 4592,
      "What": 4593,
      "cut": 4594,
      "12": 4595,
      "No": 4596,
      "ired": 4597,
      "miss": 4598,
      "Mo": 4599,
      "few": 4600,
      "When": 4601,
      "pat": 4602,
      "net": 4603,
      "Ad": 4604,
      "ves": 4605,
      "sit": 4606,
      "Br": 4607,
      "iel": 4608,
      "month": 4609,
      "ety": 4610,
      "exp": 4611,
      "experience": 4612,
      "project": 4613,
      "follow": 4614,
      "ittle": 4615,
      "ines": 4616,
      "interest": 4617,
      "50": 4618,
      "friend": 4619,
      "opt": 4620,
      "gy": 4621,
      "happ": 4622,
      "small": 4623,
      "health": 4624,
      "issu": 4625,
      "incre": 4626,
      "open": 4627,
      "number": 4628,
      "including": 4629,
      "Pl": 4630,
      "resp": 4631,
      "data": 4632,
      "Co": 4633,
      "Gr": 4634,
      "tract": 4635,
      "ants": 4636,
      "services": 4637,
      "Sh": 4638,
      "loc": 4639,
      "partic": 4640,
      "resul": 4641,
      "school": 4642,
      "cost": 4643,
      "ability": 4644,
      "que": 4645,
      "ital": 4646,
      "pass": 4647,
      "oper": 4648,
      "ross": 4649,
      "class": 4650,
      "must": 4651,
      "ually": 4652,
      "family": 4653,
      "All": 4654,
      "gg": 4655,
      "exam": 4656,
      "things": 4657,
      "provide": 4658,
      "itch": 4659,
      "ology": 4660,
      "three": 4661,
      "loy": 4662,
      "little": 4663,
      "got": 4664,
      "bers": 4665,
      "always": 4666,
      "18": 4667,
      "000": 4668,
      "level": 4669,
      "online": 4670,
      "cy": 4671,
      "ord": 4672,
      "effect": 4673,
      "With": 4674,
      "grow": 4675,
      "spec": 4676,
      "ma": 4677,
      "without": 4678,
      "direct": 4679,
      "ically": 4680,
      "important": 4681,
      "won": 4682,
      "press": 4683,
      "Ro": 4684,
      "perform": 4685,
      "ural": 4686,
      "Our": 4687,
      "during": 4688,
      "quality": 4689,
      "power": 4690,
      "fort": 4691,
      "based": 4692,
      "ready": 4693,
      "enter": 4694,
      "special": 4695,
      "aph": 4696,
      "ients": 4697,
      "unt": 4698,
      "rest": 4699,
      "ather": 4700,
      "contin": 4701,
      "proper": 4702,
      "rece": 4703,
      "Le": 4704,
      "better": 4705,
      "bod": 4706,
      "At": 4707,
      "edu": 4708,
      "quest": 4709,
      "15": 4710,
      "ude": 4711,
      "ets": 4712,
      "sum": 4713,
      "manag": 4714,
      "ished": 4715,
      "joy": 4716,
      "nex": 4717,
      "vir": 4718,
      "area": 4719,
      "met": 4720,
      "aut": 4721,
      "dep": 4722,
      "give": 4723,
      "Is": 4724,
      "US": 4725,
      "change": 4726,
      "proble": 4727,
      "ists": 4728,
      "big": 4729,
      "full": 4730,
      "test": 4731,
      "something": 4732,
      "group": 4733,
      "appro": 4734,
      "ccess": 4735,
      "mus": 4736,
      "tri": 4737,
      "access": 4738,
      "vent": 4739,
      "custom": 4740,
      "ars": 4741,
      "next": 4742,
      "fac": 4743,
      "count": 4744,
      "ger": 4745,
      "house": 4746,
      "ff": 4747,
      "days": 4748,
      "might": 4749,
      "ply": 4750,
      "meric": 4751,
      "hard": 4752,
      "bab": 4753,
      "oney": 4754,
      "pare": 4755,
      "cas": 4756,
      "oth": 4757,
      "ards": 4758,
      "working": 4759,
      "ames": 4760,
      "ont": 4761,
      "ution": 4762,
      "ately": 4763,
      "Americ": 4764,
      "within": 4765,
      "sof": 4766,
      "current": 4767,
      "ential": 4768,
      "pho": 4769,
      "report": 4770,
      "another": 4771,
      "comple": 4772,
      "ours": 4773,
      "invest": 4774,
      "ric": 4775,
      "train": 4776,
      "Ser": 4777,
      "comes": 4778,
      "soci": 4779,
      "bal": 4780,
      "That": 4781,
      "cell": 4782,
      "prom": 4783,
      "ik": 4784,
      "local": 4785,
      "la": 4786,
      "pract": 4787,
      "She": 4788,
      "Col": 4789,
      "looking": 4790,
      "contro": 4791,
      "plac": 4792,
      "ivid": 4793,
      "11": 4794,
      "activ": 4795,
      "law": 4796,
      "making": 4797,
      "ustr": 4798,
      "lim": 4799,
      "share": 4800,
      "els": 4801,
      "profess": 4802,
      "Chr": 4803,
      "chang": 4804,
      "consider": 4805,
      "public": 4806,
      "since": 4807,
      "ump": 4808,
      "Jo": 4809,
      "photo": 4810,
      "lease": 4811,
      "My": 4812,
      "never": 4813,
      "equ": 4814,
      "applic": 4815,
      "addition": 4816,
      "ense": 4817,
      "Lo": 4818,
      "Or": 4819,
      "pop": 4820,
      "today": 4821,
      "Do": 4822,
      "ben": 4823,
      "meet": 4824,
      "key": 4825,
      "students": 4826,
      "understand": 4827,
      "bro": 4828,
      "ator": 4829,
      "ER": 4830,
      "move": 4831,
      "graph": 4832,
      "body": 4833,
      "case": 4834,
      "ues": 4835,
      "ond": 4836,
      "bit": 4837,
      "gin": 4838,
      "ah": 4839,
      "food": 4840,
      "iversity": 4841,
      "course": 4842,
      "game": 4843,
      "aim": 4844,
      "ted": 4845,
      "needs": 4846,
      "ency": 4847,
      "struct": 4848,
      "Dr": 4849,
      "products": 4850,
      "website": 4851,
      "Res": 4852,
      "research": 4853,
      "state": 4854,
      "ork": 4855,
      "hold": 4856,
      "check": 4857,
      "sc": 4858,
      "tribut": 4859,
      "buy": 4860,
      "away": 4861,
      "ium": 4862,
      "mill": 4863,
      "atter": 4864,
      "ones": 4865,
      "prote": 4866,
      "possible": 4867,
      "ending": 4868,
      "Ind": 4869,
      "appe": 4870,
      "bor": 4871,
      "vide": 4872,
      "hist": 4873,
      "mind": 4874,
      "ems": 4875,
      "ote": 4876,
      "gether": 4877,
      "job": 4878,
      "tru": 4879,
      "ft": 4880,
      "cu": 4881,
      "Man": 4882,
      "shop": 4883,
      "children": 4884,
      "ieve": 4885,
      "Can": 4886,
      "iven": 4887,
      "learn": 4888,
      "face": 4889,
      "success": 4890,
      "ope": 4891,
      "event": 4892,
      "conne": 4893,
      "tra": 4894,
      "These": 4895,
      "ush": 4896,
      "night": 4897,
      "dem": 4898,
      "nor": 4899,
      "!!": 4900,
      "ended": 4901,
      "und": 4902,
      "por": 4903,
      "pain": 4904,
      "gre": 4905,
      "ences": 4906,
      "bed": 4907,
      "Af": 4908,
      "tem": 4909,
      "came": 4910,
      "easy": 4911,
      "IN": 4912,
      "ste": 4913,
      "ived": 4914,
      "sty": 4915,
      "ping": 4916,
      "money": 4917,
      "fully": 4918,
      "trad": 4919,
      "pot": 4920,
      "visit": 4921,
      "lection": 4922,
      "enjoy": 4923,
      "page": 4924,
      "ails": 4925,
      "bas": 4926,
      "thor": 4927,
      "together": 4928,
      "large": 4929,
      "employ": 4930,
      "ery": 4931,
      ".\"": 4932,
      "ield": 4933,
      "ister": 4934,
      "ified": 4935,
      "14": 4936,
      "name": 4937,
      "Bl": 4938,
      "16": 4939,
      "outh": 4940,
      "expect": 4941,
      "One": 4942,
      "ped": 4943,
      "coming": 4944,
      "minut": 4945,
      "di": 4946,
      "clear": 4947,
      "sever": 4948,
      "25": 4949,
      "create": 4950,
      "Ph": 4951,
      "second": 4952,
      "ats": 4953,
      "ale": 4954,
      "ique": 4955,
      "until": 4956,
      "elect": 4957,
      "near": 4958,
      "kind": 4959,
      "ization": 4960,
      "ling": 4961,
      "aterial": 4962,
      "aper": 4963,
      "ify": 4964,
      "turn": 4965,
      "ris": 4966,
      "Coun": 4967,
      "along": 4968,
      "itions": 4969,
      "community": 4970,
      "often": 4971,
      "beaut": 4972,
      "win": 4973,
      "why": 4974,
      "personal": 4975,
      "hum": 4976,
      "sw": 4977,
      "unch": 4978,
      "focus": 4979,
      "aster": 4980,
      "tow": 4981,
      "ills": 4982,
      "review": 4983,
      "ism": 4984,
      "perfect": 4985,
      "ball": 4986,
      "date": 4987,
      "member": 4988,
      "ey": 4989,
      "AN": 4990,
      "ividual": 4991,
      "certain": 4992,
      "istr": 4993,
      "whe": 4994,
      "uro": 4995,
      "vol": 4996,
      "men": 4997,
      ",”": 4998,
      "icle": 4999,
      "times": 5000,
      "Ap": 5001,
      "gover": 5002,
      "ury": 5003,
      "treat": 5004,
      "atures": 5005,
      "having": 5006,
      "ore": 5007,
      "ground": 5008,
      "son": 5009,
      "ime": 5010,
      "Te": 5011,
      "dev": 5012,
      "specific": 5013,
      "compan": 5014,
      "inal": 5015,
      "contact": 5016,
      "hol": 5017,
      "stat": 5018,
      "against": 5019,
      "Nor": 5020,
      "lab": 5021,
      "Thank": 5022,
      "aud": 5023,
      "include": 5024,
      "pack": 5025,
      "ories": 5026,
      "sch": 5027,
      "material": 5028,
      "hot": 5029,
      "require": 5030,
      "lik": 5031,
      "four": 5032,
      "ised": 5033,
      "ney": 5034,
      "works": 5035,
      "ively": 5036,
      "non": 5037,
      "13": 5038,
      "recor": 5039,
      "ream": 5040,
      "pan": 5041,
      "portun": 5042,
      "God": 5043,
      "24": 5044,
      "ref": 5045,
      "model": 5046,
      "Christ": 5047,
      "benef": 5048,
      "RE": 5049,
      "aff": 5050,
      "viron": 5051,
      "wom": 5052,
      "individual": 5053,
      "100": 5054,
      "ids": 5055,
      "ision": 5056,
      "done": 5057,
      "After": 5058,
      "price": 5059,
      "ike": 5060,
      "nam": 5061,
      "hy": 5062,
      "talk": 5063,
      "Go": 5064,
      "nment": 5065,
      "hip": 5066,
      "means": 5067,
      "ina": 5068,
      "17": 5069,
      ".,": 5070,
      "national": 5071,
      "install": 5072,
      "teach": 5073,
      "members": 5074,
      "past": 5075,
      "space": 5076,
      "Mar": 5077,
      "recent": 5078,
      "ks": 5079,
      "opportun": 5080,
      "step": 5081,
      "short": 5082,
      "link": 5083,
      "become": 5084,
      "control": 5085,
      "tell": 5086,
      "development": 5087,
      "rop": 5088,
      "far": 5089,
      "social": 5090,
      "iter": 5091,
      "cred": 5092,
      "aring": 5093,
      "educ": 5094,
      "ON": 5095,
      "makes": 5096,
      "crip": 5097,
      "mit": 5098,
      "trav": 5099,
      "iful": 5100,
      "AT": 5101,
      "known": 5102,
      "wood": 5103,
      "itive": 5104,
      "deal": 5105,
      "quick": 5106,
      "vious": 5107,
      "flo": 5108,
      "--": 5109,
      "others": 5110,
      "hal": 5111,
      "ley": 5112,
      "pie": 5113,
      "country": 5114,
      "jor": 5115,
      "sell": 5116,
      "tool": 5117,
      "phone": 5118,
      "action": 5119,
      "ster": 5120,
      "music": 5121,
      "live": 5122,
      "walk": 5123,
      "fut": 5124,
      "purch": 5125,
      "ustry": 5126,
      "mult": 5127,
      "enough": 5128,
      "University": 5129,
      "However": 5130,
      "clean": 5131,
      "prove": 5132,
      "ising": 5133,
      "uck": 5134,
      "conf": 5135,
      "ateg": 5136,
      "several": 5137,
      "across": 5138,
      "indow": 5139,
      "Ac": 5140,
      "round": 5141,
      "getting": 5142,
      "called": 5143,
      "ird": 5144,
      "already": 5145,
      "wa": 5146,
      "door": 5147,
      "**": 5148,
      "left": 5149,
      "Am": 5150,
      "conom": 5151,
      "ww": 5152,
      "aid": 5153,
      "mission": 5154,
      "hours": 5155,
      "Car": 5156,
      "Your": 5157,
      "board": 5158,
      "2018": 5159,
      "fav": 5160,
      "May": 5161,
      "anal": 5162,
      "nat": 5163,
      "pecial": 5164,
      "connect": 5165,
      "ove": 5166,
      "building": 5167,
      "une": 5168,
      "thod": 5169,
      "vironment": 5170,
      "vari": 5171,
      "rem": 5172,
      "tal": 5173,
      "content": 5174,
      "city": 5175,
      "gen": 5176,
      "below": 5177,
      "Des": 5178,
      "range": 5179,
      "plain": 5180,
      "typ": 5181,
      "ands": 5182,
      "ief": 5183,
      "Po": 5184,
      "season": 5185,
      "dom": 5186,
      "doing": 5187,
      "IT": 5188,
      "ago": 5189,
      "priv": 5190,
      "iday": 5191,
      "ount": 5192,
      "position": 5193,
      "gn": 5194,
      "bring": 5195,
      "imp": 5196,
      "40": 5197,
      "compet": 5198,
      "199": 5199,
      "field": 5200,
      "offers": 5201,
      "ensive": 5202,
      "complet": 5203,
      "orig": 5204,
      "future": 5205,
      "finan": 5206,
      "ought": 5207,
      "video": 5208,
      "elf": 5209,
      "ded": 5210,
      "ng": 5211,
      "companies": 5212,
      "address": 5213,
      "particular": 5214,
      "ination": 5215,
      "road": 5216,
      "ither": 5217,
      "comb": 5218,
      "cing": 5219,
      "usu": 5220,
      "redu": 5221,
      "cording": 5222,
      "major": 5223,
      "dam": 5224,
      "contain": 5225,
      "bar": 5226,
      "mean": 5227,
      "stop": 5228,
      "den": 5229,
      "stay": 5230,
      "mil": 5231,
      "actually": 5232,
      "camp": 5233,
      "aps": 5234,
      "wide": 5235,
      "mom": 5236,
      "value": 5237,
      "scre": 5238,
      "once": 5239,
      "defin": 5240,
      "front": 5241,
      "Intern": 5242,
      "industry": 5243,
      "story": 5244,
      "example": 5245,
      "invol": 5246,
      "cript": 5247,
      "grad": 5248,
      "vi": 5249,
      "solut": 5250,
      "reach": 5251,
      "roll": 5252,
      "type": 5253,
      "sl": 5254,
      "started": 5255,
      "urther": 5256,
      "flow": 5257,
      "acy": 5258,
      "pict": 5259,
      "gar": 5260,
      "card": 5261,
      "ides": 5262,
      "ips": 5263,
      "strong": 5264,
      "ined": 5265,
      "ift": 5266,
      "offic": 5267,
      "Of": 5268,
      "IS": 5269,
      "chall": 5270,
      "customers": 5271,
      "ners": 5272,
      "box": 5273,
      "60": 5274,
      "mal": 5275,
      "reason": 5276,
      "omet": 5277,
      "fast": 5278,
      "cuss": 5279,
      "return": 5280,
      "minutes": 5281,
      "didn": 5282,
      "curity": 5283,
      "ilities": 5284,
      "beautiful": 5285,
      "study": 5286,
      "ances": 5287,
      "problem": 5288,
      "ron": 5289,
      "least": 5290,
      "peri": 5291,
      "table": 5292,
      "Gu": 5293,
      "ilt": 5294,
      "ane": 5295,
      "download": 5296,
      "fill": 5297,
      "Serv": 5298,
      "town": 5299,
      "Fe": 5300,
      "AS": 5301,
      "fit": 5302,
      "please": 5303,
      "super": 5304,
      "ouch": 5305,
      "depend": 5306,
      "Med": 5307,
      "respons": 5308,
      "doesn": 5309,
      "early": 5310,
      "watch": 5311,
      "enn": 5312,
      "spir": 5313,
      "Sy": 5314,
      "technology": 5315,
      "ES": 5316,
      "sour": 5317,
      "features": 5318,
      "mot": 5319,
      "recomm": 5320,
      "mar": 5321,
      "Me": 5322,
      "imes": 5323,
      "concer": 5324,
      "tax": 5325,
      "ured": 5326,
      "million": 5327,
      "given": 5328,
      "ints": 5329,
      "ots": 5330,
      "American": 5331,
      "ele": 5332,
      "account": 5333,
      "complete": 5334,
      "begin": 5335,
      "claim": 5336,
      "Euro": 5337,
      "ledge": 5338,
      "oud": 5339,
      "everything": 5340,
      "above": 5341,
      "taking": 5342,
      "tomer": 5343,
      "AR": 5344,
      "ino": 5345,
      "rele": 5346,
      "pair": 5347,
      "break": 5348,
      "heart": 5349,
      "government": 5350,
      "center": 5351,
      "remain": 5352,
      "charac": 5353,
      "provides": 5354,
      "Min": 5355,
      "property": 5356,
      "ctor": 5357,
      "due": 5358,
      "issues": 5359,
      "dist": 5360,
      "environment": 5361,
      "Ste": 5362,
      "professional": 5363,
      "ference": 5364,
      "months": 5365,
      "paren": 5366,
      "Dis": 5367,
      "bur": 5368,
      "sound": 5369,
      "ged": 5370,
      "Sp": 5371,
      "wards": 5372,
      "thought": 5373,
      "urch": 5374,
      "results": 5375,
      "reco": 5376,
      "Mon": 5377,
      "method": 5378,
      "track": 5379,
      "half": 5380,
      "simple": 5381,
      "hn": 5382,
      "flu": 5383,
      "Some": 5384,
      "econom": 5385,
      "author": 5386,
      "pick": 5387,
      "ared": 5388,
      "fall": 5389,
      "pret": 5390,
      "resh": 5391,
      "atic": 5392,
      "tware": 5393,
      "surance": 5394,
      "says": 5395,
      "vo": 5396,
      "improve": 5397,
      "yet": 5398,
      "host": 5399,
      "uary": 5400,
      "def": 5401,
      "took": 5402,
      "mag": 5403,
      "print": 5404,
      "questions": 5405,
      "later": 5406,
      "friends": 5407,
      "Please": 5408,
      "cop": 5409,
      "Not": 5410,
      "aken": 5411,
      "dig": 5412,
      "ival": 5413,
      "required": 5414,
      "management": 5415,
      "cult": 5416,
      "wall": 5417,
      "ford": 5418,
      "Per": 5419,
      "necess": 5420,
      "iate": 5421,
      "OR": 5422,
      "training": 5423,
      "AC": 5424,
      "ull": 5425,
      "tar": 5426,
      "itut": 5427,
      "augh": 5428,
      "style": 5429,
      "select": 5430,
      "single": 5431,
      "paper": 5432,
      "ians": 5433,
      "vert": 5434,
      "2017": 5435,
      "size": 5436,
      "duct": 5437,
      "Now": 5438,
      "performance": 5439,
      "ibility": 5440,
      "went": 5441,
      "uses": 5442,
      "color": 5443,
      "various": 5444,
      "While": 5445,
      "80": 5446,
      "bot": 5447,
      "areas": 5448,
      "email": 5449,
      "travel": 5450,
      "designed": 5451,
      "hope": 5452,
      "discuss": 5453,
      "itor": 5454,
      "seen": 5455,
      "whole": 5456,
      "following": 5457,
      "AL": 5458,
      "icy": 5459,
      "happen": 5460,
      "sho": 5461,
      "media": 5462,
      "ilar": 5463,
      "ulation": 5464,
      "mber": 5465,
      "someone": 5466,
      "Che": 5467,
      "Wor": 5468,
      "word": 5469,
      "mach": 5470,
      "By": 5471,
      "lege": 5472,
      "needed": 5473,
      "Cr": 5474,
      "aving": 5475,
      "idence": 5476,
      "mp": 5477,
      "comfort": 5478,
      "percent": 5479,
      "itical": 5480,
      "glo": 5481,
      "Bu": 5482,
      "assist": 5483,
      "gest": 5484,
      "issue": 5485,
      "wonder": 5486,
      "sci": 5487,
      "living": 5488,
      "wer": 5489,
      "mob": 5490,
      "idea": 5491,
      "rate": 5492,
      "contract": 5493,
      "whether": 5494,
      "uation": 5495,
      "relation": 5496,
      "financial": 5497,
      "cast": 5498,
      "close": 5499,
      "cou": 5500,
      "period": 5501,
      "Europe": 5502,
      "mid": 5503,
      "phys": 5504,
      "natural": 5505,
      "approach": 5506,
      "ned": 5507,
      "five": 5508,
      "writing": 5509,
      "ai": 5510,
      "mix": 5511,
      "John": 5512,
      "spect": 5513,
      "energy": 5514,
      "choose": 5515,
      "amount": 5516,
      "draw": 5517,
      "deter": 5518,
      "imm": 5519,
      "meas": 5520,
      "hair": 5521,
      "TH": 5522,
      "Cal": 5523,
      "abl": 5524,
      "nal": 5525,
      ",\"": 5526,
      "unique": 5527,
      "docu": 5528,
      "ication": 5529,
      "office": 5530,
      "inc": 5531,
      "systems": 5532,
      "ensure": 5533,
      "aur": 5534,
      "pose": 5535,
      "entire": 5536,
      "ples": 5537,
      "staff": 5538,
      "quite": 5539,
      "foot": 5540,
      "engine": 5541,
      "uter": 5542,
      "cook": 5543,
      "ention": 5544,
      "exc": 5545,
      "among": 5546,
      "2019": 5547,
      "pecially": 5548,
      "equip": 5549,
      "customer": 5550,
      "either": 5551,
      "mor": 5552,
      "resour": 5553,
      "function": 5554,
      "Cont": 5555,
      "further": 5556,
      "yourself": 5557,
      "simply": 5558,
      "click": 5559,
      "options": 5560,
      "provided": 5561,
      "ently": 5562,
      "band": 5563,
      "women": 5564,
      "especially": 5565,
      "history": 5566,
      "sites": 5567,
      "ht": 5568,
      "lat": 5569,
      "ining": 5570,
      "sat": 5571,
      "ape": 5572,
      "human": 5573,
      "brand": 5574,
      "pet": 5575,
      "war": 5576,
      "worth": 5577,
      "exist": 5578,
      "Don": 5579,
      "Su": 5580,
      "22": 5581,
      "series": 5582,
      "version": 5583,
      "selves": 5584,
      "irl": 5585,
      "gain": 5586,
      "particip": 5587,
      "aged": 5588,
      "init": 5589,
      "Just": 5590,
      "resident": 5591,
      "South": 5592,
      "protect": 5593,
      "related": 5594,
      "asing": 5595,
      "IC": 5596,
      "ports": 5597,
      "term": 5598,
      "result": 5599,
      "fee": 5600,
      "mess": 5601,
      "tour": 5602,
      "ID": 5603,
      "azing": 5604,
      "potential": 5605,
      "knowledge": 5606,
      "ufact": 5607,
      "moder": 5608,
      "user": 5609,
      "saf": 5610,
      "lex": 5611,
      "blog": 5612,
      "posed": 5613,
      "likely": 5614,
      "itted": 5615,
      "oil": 5616,
      "white": 5617,
      "ables": 5618,
      "ests": 5619,
      "forward": 5620,
      "soon": 5621,
      "software": 5622,
      "baby": 5623,
      "sugg": 5624,
      "hom": 5625,
      "believe": 5626,
      "23": 5627,
      "ral": 5628,
      "ided": 5629,
      "angu": 5630,
      "includes": 5631,
      "Here": 5632,
      "young": 5633,
      "application": 5634,
      "anything": 5635,
      "EN": 5636,
      "bank": 5637,
      "everyone": 5638,
      "popular": 5639,
      "bon": 5640,
      "ene": 5641,
      "United": 5642,
      "stor": 5643,
      "ering": 5644,
      "ges": 5645,
      "match": 5646,
      "aging": 5647,
      "hon": 5648,
      "signific": 5649,
      "black": 5650,
      "collect": 5651,
      "taken": 5652,
      "events": 5653,
      "tre": 5654,
      "wel": 5655,
      "AP": 5656,
      "regard": 5657,
      "favor": 5658,
      "credit": 5659,
      "text": 5660,
      "astic": 5661,
      "Cor": 5662,
      "clients": 5663,
      "changes": 5664,
      "Qu": 5665,
      "eral": 5666,
      "pen": 5667,
      "diffic": 5668,
      "iple": 5669,
      "cks": 5670,
      "security": 5671,
      "park": 5672,
      "tren": 5673,
      "City": 5674,
      "dou": 5675,
      "etc": 5676,
      "lic": 5677,
      "His": 5678,
      "else": 5679,
      "ED": 5680,
      "Sun": 5681,
      "added": 5682,
      "problems": 5683,
      "question": 5684,
      "School": 5685,
      "aren": 5686,
      "created": 5687,
      "Fl": 5688,
      "party": 5689,
      "ires": 5690,
      "film": 5691,
      "wish": 5692,
      "itional": 5693,
      "words": 5694,
      "bill": 5695,
      "screen": 5696,
      "represent": 5697,
      "tegr": 5698,
      "news": 5699,
      "almost": 5700,
      "struction": 5701,
      "store": 5702,
      "firm": 5703,
      "rect": 5704,
      "nov": 5705,
      "weight": 5706,
      "2016": 5707,
      "bad": 5708,
      "details": 5709,
      "ony": 5710,
      "deliver": 5711,
      "ators": 5712,
      "bably": 5713,
      "ideas": 5714,
      "common": 5715,
      "establ": 5716,
      "built": 5717,
      "dy": 5718,
      "sen": 5719,
      "sent": 5720,
      "partment": 5721,
      "risk": 5722,
      "games": 5723,
      "itchen": 5724,
      "wanted": 5725,
      "however": 5726,
      "located": 5727,
      "plant": 5728,
      "High": 5729,
      "icro": 5730,
      "users": 5731,
      "ee": 5732,
      "seem": 5733,
      "North": 5734,
      "subject": 5735,
      "impact": 5736,
      "Park": 5737,
      "usually": 5738,
      "cir": 5739,
      "fire": 5740,
      "CO": 5741,
      "Mark": 5742,
      "throughout": 5743,
      "Part": 5744,
      "reet": 5745,
      "err": 5746,
      "From": 5747,
      "AM": 5748,
      "plement": 5749,
      "sales": 5750,
      "Fin": 5751,
      "aver": 5752,
      "matter": 5753,
      "opportunity": 5754,
      "giving": 5755,
      "ification": 5756,
      "via": 5757,
      "wed": 5758,
      "receive": 5759,
      "bi": 5760,
      "relationship": 5761,
      "file": 5762,
      "option": 5763,
      "tit": 5764,
      "ging": 5765,
      "National": 5766,
      "Apr": 5767,
      "active": 5768,
      "learning": 5769,
      "ert": 5770,
      "role": 5771,
      "21": 5772,
      ".”": 5773,
      "hind": 5774,
      "jour": 5775,
      "mas": 5776,
      "suit": 5777,
      "similar": 5778,
      "Mr": 5779,
      "spr": 5780,
      "famil": 5781,
      "trying": 5782,
      "ays": 5783,
      "ends": 5784,
      "rad": 5785,
      "rather": 5786,
      "Comp": 5787,
      "extra": 5788,
      "third": 5789,
      "held": 5790,
      "Inst": 5791,
      "associ": 5792,
      "image": 5793,
      "insurance": 5794,
      "skills": 5795,
      "happy": 5796,
      "ishing": 5797,
      "activities": 5798,
      "significant": 5799,
      "ises": 5800,
      "anced": 5801,
      "sle": 5802,
      "regular": 5803,
      "ches": 5804,
      "State": 5805,
      "veh": 5806,
      "fix": 5807,
      "Ed": 5808,
      "practice": 5809,
      "Pe": 5810,
      "feature": 5811,
      "books": 5812,
      "respect": 5813,
      "70": 5814,
      "currently": 5815,
      "atform": 5816,
      "Au": 5817,
      "recogn": 5818,
      "continue": 5819,
      "uge": 5820,
      "force": 5821,
      "Sc": 5822,
      "education": 5823,
      "gress": 5824,
      "rodu": 5825,
      "lands": 5826,
      "probably": 5827,
      "manufact": 5828,
      "Stud": 5829,
      "isn": 5830,
      "effic": 5831,
      "World": 5832,
      "26": 5833,
      "Bar": 5834,
      "takes": 5835,
      "six": 5836,
      "Jan": 5837,
      "elt": 5838,
      "tries": 5839,
      "hor": 5840,
      "reading": 5841,
      "ses": 5842,
      "increase": 5843,
      "anim": 5844,
      "sun": 5845,
      "mobile": 5846,
      "official": 5847,
      "points": 5848,
      "York": 5849,
      "legal": 5850,
      "sess": 5851,
      "nur": 5852,
      "sem": 5853,
      "aily": 5854,
      "drive": 5855,
      "ometimes": 5856,
      "corpor": 5857,
      "projects": 5858,
      "lower": 5859,
      "marketing": 5860,
      "acc": 5861,
      "autom": 5862,
      "crib": 5863,
      "previous": 5864,
      "display": 5865,
      "ham": 5866,
      "har": 5867,
      "easily": 5868,
      "ecut": 5869,
      "log": 5870,
      "ux": 5871,
      "outside": 5872,
      "private": 5873,
      "Reg": 5874,
      "soft": 5875,
      "SE": 5876,
      "necessary": 5877,
      "Her": 5878,
      "skin": 5879,
      "Thanks": 5880,
      "Im": 5881,
      "exact": 5882,
      "indows": 5883,
      "gets": 5884,
      "ps": 5885,
      "ler": 5886,
      "growth": 5887,
      "dry": 5888,
      "cru": 5889,
      "ica": 5890,
      "dog": 5891,
      "cup": 5892,
      "vision": 5893,
      "accept": 5894,
      "general": 5895,
      "pretty": 5896,
      "treatment": 5897,
      "bud": 5898,
      "sed": 5899,
      "modern": 5900,
      "section": 5901,
      "Will": 5902,
      "difficult": 5903,
      "additional": 5904,
      "Add": 5905,
      "continu": 5906,
      "location": 5907,
      "higher": 5908,
      "choice": 5909,
      "code": 5910,
      "true": 5911,
      "effective": 5912,
      "running": 5913,
      "amazing": 5914,
      "hib": 5915,
      "ules": 5916,
      "standard": 5917,
      "told": 5918,
      "2015": 5919,
      "maintain": 5920,
      "object": 5921,
      "integr": 5922,
      "UK": 5923,
      "eter": 5924,
      "mov": 5925,
      "smo": 5926,
      "received": 5927,
      "character": 5928,
      "Tw": 5929,
      "cool": 5930,
      "Cent": 5931,
      "Pol": 5932,
      "original": 5933,
      "drop": 5934,
      "kids": 5935,
      "fig": 5936,
      "floor": 5937,
      "apply": 5938,
      "tee": 5939,
      "leave": 5940,
      "langu": 5941,
      "speak": 5942,
      "according": 5943,
      "istration": 5944,
      "production": 5945,
      "total": 5946,
      "swe": 5947,
      "bir": 5948,
      "excell": 5949,
      "labor": 5950,
      "tle": 5951,
      "ST": 5952,
      "itten": 5953,
      "ada": 5954,
      "loss": 5955,
      "ison": 5956,
      "idge": 5957,
      "shows": 5958,
      "touch": 5959,
      "agre": 5960,
      "stain": 5961,
      "ases": 5962,
      "izing": 5963,
      "setting": 5964,
      "County": 5965,
      "core": 5966,
      "items": 5967,
      "inside": 5968,
      "covered": 5969,
      "//": 5970,
      "upon": 5971,
      "final": 5972,
      "weeks": 5973,
      "announ": 5974,
      "appear": 5975,
      "ience": 5976,
      "amer": 5977,
      "suggest": 5978,
      "lock": 5979,
      "90": 5980,
      "allows": 5981,
      "Every": 5982,
      "king": 5983,
      "suppl": 5984,
      "brow": 5985,
      "variety": 5986,
      "ama": 5987,
      "platform": 5988,
      "27": 5989,
      "April": 5990,
      "TV": 5991,
      "ceed": 5992,
      "Eng": 5993,
      "uff": 5994,
      "computer": 5995,
      "ogle": 5996,
      "Sep": 5997,
      "enced": 5998,
      "commer": 5999,
      "recommend": 6000,
      "cannot": 6001,
      "sequ": 6002,
      "Are": 6003,
      "programs": 6004,
      "craf": 6005,
      "ware": 6006,
      "refer": 6007,
      "purchase": 6008,
      "icated": 6009,
      "network": 6010,
      "fresh": 6011,
      "latest": 6012,
      "Web": 6013,
      "ental": 6014,
      "behind": 6015,
      "parts": 6016,
      "article": 6017,
      "costs": 6018,
      "included": 6019,
      "longer": 6020,
      "prior": 6021,
      "IP": 6022,
      "safe": 6023,
      "June": 6024,
      "anyone": 6025,
      "Ho": 6026,
      "Art": 6027,
      "Ge": 6028,
      "ably": 6029,
      "correct": 6030,
      "sens": 6031,
      "cele": 6032,
      "types": 6033,
      "explo": 6034,
      "fail": 6035,
      "summer": 6036,
      "feed": 6037,
      "rooms": 6038,
      "Ju": 6039,
      "quickly": 6040,
      "speed": 6041,
      "providing": 6042,
      "contribut": 6043,
      "answer": 6044,
      "II": 6045,
      "trip": 6046,
      "Fir": 6047,
      "More": 6048,
      "Get": 6049,
      "hit": 6050,
      "ille": 6051,
      "shall": 6052,
      "Center": 6053,
      "base": 6054,
      "ees": 6055,
      "worked": 6056,
      "ana": 6057,
      "leading": 6058,
      "late": 6059,
      "remember": 6060,
      "nothing": 6061,
      "Then": 6062,
      "save": 6063,
      "35": 6064,
      "introdu": 6065,
      "ns": 6066,
      "Act": 6067,
      "piece": 6068,
      "Work": 6069,
      "request": 6070,
      "patients": 6071,
      "const": 6072,
      "admin": 6073,
      "Also": 6074,
      "Up": 6075,
      "Sm": 6076,
      "cert": 6077,
      "Austr": 6078,
      "register": 6079,
      "celebr": 6080,
      "Par": 6081,
      "Dev": 6082,
      "sale": 6083,
      "prepare": 6084,
      "\".": 6085,
      "mun": 6086,
      "gas": 6087,
      "terms": 6088,
      "avo": 6089,
      "lives": 6090,
      "Day": 6091,
      "international": 6092,
      "Let": 6093,
      "States": 6094,
      "solution": 6095,
      "ights": 6096,
      "looks": 6097,
      "song": 6098,
      "mod": 6099,
      "Most": 6100,
      "inary": 6101,
      "prim": 6102,
      "2014": 6103,
      "lay": 6104,
      "mat": 6105,
      "materials": 6106,
      "challeng": 6107,
      "prices": 6108,
      "lif": 6109,
      "mine": 6110,
      "qual": 6111,
      "nice": 6112,
      "28": 6113,
      "bath": 6114,
      "leaders": 6115,
      "seems": 6116,
      "tools": 6117,
      "sil": 6118,
      "dle": 6119,
      "compl": 6120,
      "moment": 6121,
      "respon": 6122,
      "Ger": 6123,
      "meeting": 6124,
      "Val": 6125,
      "deep": 6126,
      "conditions": 6127,
      "htt": 6128,
      "imum": 6129,
      "student": 6130,
      "path": 6131,
      "commit": 6132,
      "heav": 6133,
      "wise": 6134,
      "equipment": 6135,
      "detail": 6136,
      "born": 6137,
      "iam": 6138,
      "expected": 6139,
      "adem": 6140,
      "asked": 6141,
      "affect": 6142,
      "ban": 6143,
      "terr": 6144,
      "....": 6145,
      "couple": 6146,
      "OS": 6147,
      "Sat": 6148,
      "istic": 6149,
      "Manag": 6150,
      "separ": 6151,
      "goal": 6152,
      "proved": 6153,
      "medical": 6154,
      "prevent": 6155,
      "repair": 6156,
      "condition": 6157,
      "March": 6158,
      "ru": 6159,
      "appl": 6160,
      "appoint": 6161,
      "glass": 6162,
      "trust": 6163,
      "45": 6164,
      "solutions": 6165,
      "explain": 6166,
      "Air": 6167,
      "mail": 6168,
      "inj": 6169,
      "agr": 6170,
      "ellow": 6171,
      "ties": 6172,
      "://": 6173,
      "resources": 6174,
      "icles": 6175,
      "cases": 6176,
      "iqu": 6177,
      "highly": 6178,
      "cil": 6179,
      "mass": 6180,
      "Google": 6181,
      "kitchen": 6182,
      "iet": 6183,
      "ysis": 6184,
      "recently": 6185,
      "safety": 6186,
      "written": 6187,
      "limited": 6188,
      "aves": 6189,
      "moved": 6190,
      "Ab": 6191,
      "daily": 6192,
      "launch": 6193,
      "morning": 6194,
      "Any": 6195,
      "izes": 6196,
      "ension": 6197,
      "inste": 6198,
      "sense": 6199,
      "immed": 6200,
      "hour": 6201,
      "record": 6202,
      "expert": 6203,
      "vot": 6204,
      "House": 6205,
      "girl": 6206,
      "sets": 6207,
      "Health": 6208,
      "policy": 6209,
      "encour": 6210,
      "cul": 6211,
      "collection": 6212,
      "bt": 6213,
      "involved": 6214,
      "write": 6215,
      "organization": 6216,
      "Once": 6217,
      "career": 6218,
      "Mus": 6219,
      "ctions": 6220,
      "preci": 6221,
      "Home": 6222,
      "First": 6223,
      "inner": 6224,
      "arter": 6225,
      "West": 6226,
      "digital": 6227,
      "Lon": 6228,
      "actions": 6229,
      "29": 6230,
      "AD": 6231,
      "Rep": 6232,
      "gives": 6233,
      "block": 6234,
      "Gre": 6235,
      "fa": 6236,
      "itself": 6237,
      "saw": 6238,
      "source": 6239,
      "suf": 6240,
      "cription": 6241,
      "lots": 6242,
      "Off": 6243,
      "arden": 6244,
      "2013": 6245,
      "countries": 6246,
      "International": 6247,
      "nes": 6248,
      "ming": 6249,
      "moving": 6250,
      "global": 6251,
      "Mc": 6252,
      "aware": 6253,
      "ease": 6254,
      "clus": 6255,
      "requirements": 6256,
      "upd": 6257,
      "earch": 6258,
      "decision": 6259,
      "lines": 6260,
      "green": 6261,
      "restaur": 6262,
      "Many": 6263,
      "Har": 6264,
      "send": 6265,
      "Austral": 6266,
      "hood": 6267,
      "Well": 6268,
      "except": 6269,
      "tic": 6270,
      "express": 6271,
      "Afr": 6272,
      "Oc": 6273,
      "bag": 6274,
      "fair": 6275,
      "mention": 6276,
      "ountain": 6277,
      "levels": 6278,
      "instead": 6279,
      "plans": 6280,
      "excellent": 6281,
      "benefits": 6282,
      "Fo": 6283,
      "helps": 6284,
      "na": 6285,
      "ring": 6286,
      "Sim": 6287,
      "serve": 6288,
      "essential": 6289,
      "charge": 6290,
      "advant": 6291,
      "pm": 6292,
      "sec": 6293,
      "favorite": 6294,
      "hear": 6295,
      "Bus": 6296,
      "scal": 6297,
      "interesting": 6298,
      "surpr": 6299,
      "document": 6300,
      "ades": 6301,
      "squ": 6302,
      "Engl": 6303,
      "goes": 6304,
      "Even": 6305,
      "themselves": 6306,
      "directly": 6307,
      "www": 6308,
      "iding": 6309,
      "198": 6310,
      "Book": 6311,
      "attention": 6312,
      "ny": 6313,
      "stock": 6314,
      "strate": 6315,
      "task": 6316,
      "Pre": 6317,
      "huge": 6318,
      "machine": 6319,
      "ites": 6320,
      "chance": 6321,
      "places": 6322,
      "ze": 6323,
      "reng": 6324,
      "van": 6325,
      "cture": 6326,
      "emer": 6327,
      "English": 6328,
      "San": 6329,
      "note": 6330,
      "language": 6331,
      "rout": 6332,
      "aign": 6333,
      "Design": 6334,
      "London": 6335,
      "death": 6336,
      "furn": 6337,
      "pool": 6338,
      "myself": 6339,
      "attract": 6340,
      "church": 6341,
      "atory": 6342,
      "org": 6343,
      "”.": 6344,
      "bs": 6345,
      "ender": 6346,
      "occur": 6347,
      "implement": 6348,
      "served": 6349,
      "iction": 6350,
      "rich": 6351,
      "hab": 6352,
      "cross": 6353,
      "Black": 6354,
      "creating": 6355,
      "commercial": 6356,
      "Great": 6357,
      "iers": 6358,
      "Associ": 6359,
      "trend": 6360,
      "successful": 6361,
      "nut": 6362,
      "paid": 6363,
      "multiple": 6364,
      "heat": 6365,
      "decided": 6366,
      "parents": 6367,
      "consul": 6368,
      "America": 6369,
      "owners": 6370,
      "consist": 6371,
      "traditional": 6372,
      "planning": 6373,
      "images": 6374,
      "picture": 6375,
      "gold": 6376,
      "fre": 6377,
      "RO": 6378,
      "Dav": 6379,
      "developed": 6380,
      "ato": 6381,
      "lost": 6382,
      "thinking": 6383,
      "Service": 6384,
      "Free": 6385,
      "gree": 6386,
      "uss": 6387,
      "cand": 6388,
      "release": 6389,
      "uk": 6390,
      "strateg": 6391,
      "imate": 6392,
      "Why": 6393,
      "PC": 6394,
      "groups": 6395,
      "ublic": 6396,
      "Aug": 6397,
      "erous": 6398,
      "Je": 6399,
      "mm": 6400,
      "reas": 6401,
      "prem": 6402,
      "dest": 6403,
      "distribut": 6404,
      "storage": 6405,
      "copy": 6406,
      "hous": 6407,
      "ky": 6408,
      "letter": 6409,
      "standing": 6410,
      "warm": 6411,
      "Inter": 6412,
      "sn": 6413,
      "Sal": 6414,
      "photos": 6415,
      "President": 6416,
      "atives": 6417,
      "MS": 6418,
      "cash": 6419,
      "aul": 6420,
      "acqu": 6421,
      "2012": 6422,
      "playing": 6423,
      "stream": 6424,
      "achieve": 6425,
      "Over": 6426,
      "India": 6427,
      "sort": 6428,
      "spend": 6429,
      "average": 6430,
      "complex": 6431,
      "target": 6432,
      "ume": 6433,
      "inform": 6434,
      "streng": 6435,
      "olution": 6436,
      "execut": 6437,
      "completely": 6438,
      "Brit": 6439,
      "500": 6440,
      "Sup": 6441,
      "client": 6442,
      "former": 6443,
      "drink": 6444,
      "36": 6445,
      "LL": 6446,
      "serious": 6447,
      "interested": 6448,
      "sis": 6449,
      "entry": 6450,
      "applications": 6451,
      "nature": 6452,
      "attack": 6453,
      "onto": 6454,
      "tur": 6455,
      "ements": 6456,
      "players": 6457,
      "placed": 6458,
      "nia": 6459,
      "ester": 6460,
      "tick": 6461,
      "device": 6462,
      "vey": 6463,
      "Rem": 6464,
      "payment": 6465,
      "construction": 6466,
      "Direct": 6467,
      "haps": 6468,
      "bow": 6469,
      "towards": 6470,
      "ieved": 6471,
      "cret": 6472,
      "UR": 6473,
      "75": 6474,
      "rain": 6475,
      "ET": 6476,
      "Since": 6477,
      "rock": 6478,
      "Gener": 6479,
      "hop": 6480,
      "hands": 6481,
      "businesses": 6482,
      "appropr": 6483,
      "urs": 6484,
      "Ke": 6485,
      "ker": 6486,
      "illed": 6487,
      "ivity": 6488,
      "prefer": 6489,
      "Friday": 6490,
      "OT": 6491,
      "max": 6492,
      "ung": 6493,
      "considered": 6494,
      "understanding": 6495,
      "Christmas": 6496,
      "igation": 6497,
      "promot": 6498,
      "regul": 6499,
      "court": 6500,
      "UN": 6501,
      "uel": 6502,
      "Char": 6503,
      "enge": 6504,
      "nation": 6505,
      "erson": 6506,
      "ibly": 6507,
      "July": 6508,
      "div": 6509,
      "erc": 6510,
      "profession": 6511,
      "El": 6512,
      "sam": 6513,
      "arant": 6514,
      "Gl": 6515,
      "ott": 6516,
      "views": 6517,
      "aces": 6518,
      "iture": 6519,
      "Red": 6520,
      "decor": 6521,
      "carry": 6522,
      "began": 6523,
      "posted": 6524,
      "uate": 6525,
      "became": 6526,
      "broad": 6527,
      "Sch": 6528,
      "spo": 6529,
      "itation": 6530,
      "ivery": 6531,
      "innov": 6532,
      "exactly": 6533,
      "Net": 6534,
      "categ": 6535,
      "rup": 6536,
      "starting": 6537,
      "thern": 6538,
      "wear": 6539,
      "fan": 6540,
      "wait": 6541,
      "individuals": 6542,
      "advert": 6543,
      "scr": 6544,
      "partners": 6545,
      "healthy": 6546,
      "isions": 6547,
      "idents": 6548,
      "ored": 6549,
      "China": 6550,
      "frame": 6551,
      "analysis": 6552,
      "consum": 6553,
      "satis": 6554,
      "enty": 6555,
      "investment": 6556,
      "campaign": 6557,
      "sometimes": 6558,
      "Face": 6559,
      "War": 6560,
      "bul": 6561,
      "holiday": 6562,
      "99": 6563,
      "obtain": 6564,
      "itely": 6565,
      "published": 6566,
      "wonderful": 6567,
      "ri": 6568,
      "reser": 6569,
      "situation": 6570,
      "tober": 6571,
      "Pat": 6572,
      "plate": 6573,
      "conduct": 6574,
      "empt": 6575,
      "Each": 6576,
      "pages": 6577,
      "eye": 6578,
      "aste": 6579,
      "plus": 6580,
      "ological": 6581,
      "photograph": 6582,
      "wind": 6583,
      "goals": 6584,
      "tember": 6585,
      "influ": 6586,
      "Trans": 6587,
      "assess": 6588,
      "reli": 6589,
      "September": 6590,
      "Bel": 6591,
      "PS": 6592,
      "ifor": 6593,
      "empor": 6594,
      "mis": 6595,
      "supply": 6596,
      "bey": 6597,
      "positive": 6598,
      "progress": 6599,
      "purpose": 6600,
      "Sci": 6601,
      "rights": 6602,
      "Commun": 6603,
      "La": 6604,
      "patient": 6605,
      "cat": 6606,
      "ken": 6607,
      "anch": 6608,
      "wrong": 6609,
      "iced": 6610,
      "thus": 6611,
      "enh": 6612,
      "stress": 6613,
      "finish": 6614,
      "October": 6615,
      "2010": 6616,
      "physical": 6617,
      "Inc": 6618,
      "Business": 6619,
      "budget": 6620,
      "mother": 6621,
      "comfortable": 6622,
      "slow": 6623,
      "growing": 6624,
      "grade": 6625,
      "Click": 6626,
      "Hol": 6627,
      "spot": 6628,
      "guide": 6629,
      "ture": 6630,
      "farm": 6631,
      "impress": 6632,
      "31": 6633,
      "organiz": 6634,
      "orge": 6635,
      "MP": 6636,
      "friendly": 6637,
      "chair": 6638,
      "jud": 6639,
      "offee": 6640,
      "chan": 6641,
      "lin": 6642,
      "stage": 6643,
      "dependent": 6644,
      "Out": 6645,
      "camer": 6646,
      "ening": 6647,
      "iring": 6648,
      "activity": 6649,
      "moon": 6650,
      "ibr": 6651,
      "fine": 6652,
      "Califor": 6653,
      "Group": 6654,
      "January": 6655,
      "Read": 6656,
      "degree": 6657,
      "opportunities": 6658,
      "employees": 6659,
      "dream": 6660,
      "felt": 6661,
      "tele": 6662,
      "cel": 6663,
      "advis": 6664,
      "surround": 6665,
      "effort": 6666,
      "altern": 6667,
      "allowed": 6668,
      "birth": 6669,
      "cry": 6670,
      "rates": 6671,
      "ville": 6672,
      "histor": 6673,
      "vehicle": 6674,
      "iles": 6675,
      "temper": 6676,
      "owner": 6677,
      "beha": 6678,
      "sold": 6679,
      "analy": 6680,
      "Company": 6681,
      "Sam": 6682,
      "Ear": 6683,
      "imag": 6684,
      "ederal": 6685,
      "blue": 6686,
      "dol": 6687,
      "CE": 6688,
      "Pal": 6689,
      "Tod": 6690,
      "Department": 6691,
      "smart": 6692,
      "internet": 6693,
      "eat": 6694,
      "dark": 6695,
      "anc": 6696,
      "definitely": 6697,
      "pictures": 6698,
      "Down": 6699,
      "Jes": 6700,
      "iately": 6701,
      "stick": 6702,
      "Services": 6703,
      "California": 6704,
      "fab": 6705,
      "benefit": 6706,
      "Ber": 6707,
      "dress": 6708,
      "Cour": 6709,
      "counts": 6710,
      "MA": 6711,
      "2011": 6712,
      "offering": 6713,
      "itute": 6714,
      "star": 6715,
      "fish": 6716,
      "easier": 6717,
      "Good": 6718,
      "venue": 6719,
      "apart": 6720,
      "optim": 6721,
      "King": 6722,
      "ahead": 6723,
      "ston": 6724,
      "irt": 6725,
      "Prof": 6726,
      "families": 6727,
      "describ": 6728,
      "ington": 6729,
      "pattern": 6730,
      "wasn": 6731,
      "hosp": 6732,
      "college": 6733,
      "oring": 6734,
      "LE": 6735,
      "Sunday": 6736,
      "CA": 6737,
      "schools": 6738,
      "iant": 6739,
      "rough": 6740,
      "award": 6741,
      "drug": 6742,
      "stone": 6743,
      "apan": 6744,
      "frequ": 6745,
      "certainly": 6746,
      "Mod": 6747,
      "icate": 6748,
      "32": 6749,
      "wid": 6750,
      "sav": 6751,
      "System": 6752,
      "Law": 6753,
      "regarding": 6754,
      "pressure": 6755,
      "difference": 6756,
      "sleep": 6757,
      "proced": 6758,
      "club": 6759,
      "damage": 6760,
      "yl": 6761,
      "stuff": 6762,
      "http": 6763,
      "Windows": 6764,
      "Dece": 6765,
      "ideal": 6766,
      "region": 6767,
      "basis": 6768,
      "accur": 6769,
      "advice": 6770,
      "umb": 6771,
      "Satur": 6772,
      "igr": 6773,
      "loved": 6774,
      "reviews": 6775,
      "avoid": 6776,
      "ague": 6777,
      "Hel": 6778,
      "See": 6779,
      "demand": 6780,
      "experienced": 6781,
      "fant": 6782,
      "political": 6783,
      "December": 6784,
      "blood": 6785,
      "exerc": 6786,
      "vember": 6787,
      "iar": 6788,
      "existing": 6789,
      "lier": 6790,
      "spent": 6791,
      "ads": 6792,
      "delivery": 6793,
      "basic": 6794,
      "released": 6795,
      "earn": 6796,
      "feeling": 6797,
      "zz": 6798,
      "heard": 6799,
      "beach": 6800,
      "guarant": 6801,
      "November": 6802,
      "Mag": 6803,
      "stra": 6804,
      "Wed": 6805,
      "income": 6806,
      "Play": 6807,
      "subst": 6808,
      "iff": 6809,
      "SS": 6810,
      "ength": 6811,
      "Rev": 6812,
      "appreci": 6813,
      "gel": 6814,
      "neg": 6815,
      "weather": 6816,
      "antic": 6817,
      "extrem": 6818,
      "Techn": 6819,
      "hotel": 6820,
      "Facebook": 6821,
      "Port": 6822,
      "College": 6823,
      "trade": 6824,
      "Whe": 6825,
      "aspect": 6826,
      "produce": 6827,
      "offered": 6828,
      "beginning": 6829,
      "comment": 6830,
      "changed": 6831,
      "spirit": 6832,
      "chem": 6833,
      "truly": 6834,
      "Sw": 6835,
      "appropriate": 6836,
      "responsible": 6837,
      "adjust": 6838,
      "attle": 6839,
      "August": 6840,
      "afford": 6841,
      "master": 6842,
      "cards": 6843,
      "tried": 6844,
      "feet": 6845,
      "aker": 6846,
      "response": 6847,
      "neigh": 6848,
      "gency": 6849,
      "transfer": 6850,
      "reported": 6851,
      "wedding": 6852,
      "efficient": 6853,
      "industr": 6854,
      "effects": 6855,
      "reflect": 6856,
      "Best": 6857,
      "alone": 6858,
      "message": 6859,
      "bum": 6860,
      "itter": 6861,
      "reduce": 6862,
      "determin": 6863,
      "liter": 6864,
      "Ret": 6865,
      "Use": 6866,
      "ously": 6867,
      "culture": 6868,
      "syn": 6869,
      "devices": 6870,
      "ida": 6871,
      "Make": 6872,
      "files": 6873,
      "fru": 6874,
      "economic": 6875,
      "European": 6876,
      "lights": 6877,
      "Post": 6878,
      "viol": 6879,
      "abs": 6880,
      "gave": 6881,
      "antly": 6882,
      "ications": 6883,
      "Japan": 6884,
      "played": 6885,
      "normal": 6886,
      "movie": 6887,
      "Del": 6888,
      "meaning": 6889,
      "thanks": 6890,
      "gift": 6891,
      "Mac": 6892,
      "increasing": 6893,
      "pite": 6894,
      "CD": 6895,
      "ran": 6896,
      "thous": 6897,
      "useful": 6898,
      "Look": 6899,
      "carr": 6900,
      "Hot": 6901,
      "largest": 6902,
      "overall": 6903,
      "fly": 6904,
      "unit": 6905,
      "ashion": 6906,
      "Saturday": 6907,
      "arily": 6908,
      "oul": 6909,
      "numbers": 6910,
      "join": 6911,
      "88": 6912,
      "East": 6913,
      "Jesus": 6914,
      "homes": 6915,
      "stories": 6916,
      "Internet": 6917,
      "rench": 6918,
      "ost": 6919,
      "bruary": 6920,
      "highest": 6921,
      "auto": 6922,
      "ING": 6923,
      "agree": 6924,
      "fight": 6925,
      "thank": 6926,
      "unte": 6927,
      "Mem": 6928,
      "CH": 6929,
      "iment": 6930,
      "February": 6931,
      "science": 6932,
      "Oh": 6933,
      "item": 6934,
      "__": 6935,
      "apy": 6936,
      "compon": 6937,
      "rew": 6938,
      "Ob": 6939,
      "concept": 6940,
      "cin": 6941,
      "forms": 6942,
      "pieces": 6943,
      "instruct": 6944,
      "bottom": 6945,
      "lack": 6946,
      "shown": 6947,
      "bert": 6948,
      "associated": 6949,
      "grand": 6950,
      "Cap": 6951,
      "eyes": 6952,
      "tag": 6953,
      "coach": 6954,
      "Str": 6955,
      "profit": 6956,
      "conven": 6957,
      "initial": 6958,
      "beyond": 6959,
      "dish": 6960,
      "Cur": 6961,
      "Although": 6962,
      "Program": 6963,
      "challenge": 6964,
      "sand": 6965,
      "edule": 6966,
      "ios": 6967,
      "Ben": 6968,
      "PM": 6969,
      "eval": 6970,
      "Today": 6971,
      "rid": 6972,
      "shot": 6973,
      "clin": 6974,
      "White": 6975,
      "looked": 6976,
      "Sto": 6977,
      "absolut": 6978,
      "Russ": 6979,
      "orders": 6980,
      "Find": 6981,
      "Sen": 6982,
      "sports": 6983,
      "demon": 6984,
      "Gold": 6985,
      "maybe": 6986,
      "emot": 6987,
      "surface": 6988,
      "sery": 6989,
      "coffee": 6990,
      "Yes": 6991,
      "decl": 6992,
      "Canada": 6993,
      "util": 6994,
      "annual": 6995,
      "33": 6996,
      "player": 6997,
      "Check": 6998,
      "sych": 6999,
      "vest": 7000,
      "identify": 7001,
      "transport": 7002,
      "abilities": 7003,
      "brought": 7004,
      "bol": 7005,
      "push": 7006,
      "turned": 7007,
      "vant": 7008,
      "Board": 7009,
      "tor": 7010,
      "although": 7011,
      "powerful": 7012,
      "steps": 7013,
      "Spe": 7014,
      "particularly": 7015,
      "studies": 7016,
      "Mid": 7017,
      "Spr": 7018,
      "respond": 7019,
      "THE": 7020,
      "ero": 7021,
      "finally": 7022,
      "capital": 7023,
      "double": 7024,
      "title": 7025,
      "garden": 7026,
      "BC": 7027,
      "protection": 7028,
      "aly": 7029,
      "completed": 7030,
      "duc": 7031,
      "estern": 7032,
      "icious": 7033,
      "helping": 7034,
      "Super": 7035,
      "straight": 7036,
      "Street": 7037,
      "established": 7038,
      "Sub": 7039,
      "strategy": 7040,
      "oo": 7041,
      "iques": 7042,
      "notice": 7043,
      "nearly": 7044,
      "icing": 7045,
      "ube": 7046,
      "olf": 7047,
      "states": 7048,
      "weekend": 7049,
      "Green": 7050,
      "xim": 7051,
      "selection": 7052,
      "During": 7053,
      "Sur": 7054,
      "immediately": 7055,
      "electric": 7056,
      "exhib": 7057,
      "rank": 7058,
      "reasons": 7059,
      "pred": 7060,
      "Because": 7061,
      "length": 7062,
      "ju": 7063,
      "dead": 7064,
      "increased": 7065,
      "sharing": 7066,
      "consult": 7067,
      "Vis": 7068,
      "Bay": 7069,
      "roof": 7070,
      "TO": 7071,
      "Bro": 7072,
      "dat": 7073,
      "plants": 7074,
      "measure": 7075,
      "Devel": 7076,
      "reve": 7077,
      "collabor": 7078,
      "Sol": 7079,
      "extremely": 7080,
      "batter": 7081,
      "partner": 7082,
      "Lu": 7083,
      "za": 7084,
      "station": 7085,
      "window": 7086,
      "aling": 7087,
      "44": 7088,
      "Em": 7089,
      "itary": 7090,
      "models": 7091,
      "woman": 7092,
      "Association": 7093,
      "disease": 7094,
      "methods": 7095,
      "Have": 7096,
      "cum": 7097,
      "knew": 7098,
      "advantage": 7099,
      "Research": 7100,
      "cab": 7101,
      "atively": 7102,
      "Call": 7103,
      "insp": 7104,
      "ico": 7105,
      "nursery": 7106,
      "Micro": 7107,
      "istry": 7108,
      "operation": 7109,
      "estate": 7110,
      "resist": 7111,
      "Market": 7112,
      "undred": 7113,
      "iation": 7114,
      "sume": 7115,
      "stead": 7116,
      "server": 7117,
      "forts": 7118,
      "strict": 7119,
      "atever": 7120,
      "cape": 7121,
      "rules": 7122,
      "ronic": 7123,
      "Phil": 7124,
      "structure": 7125,
      "father": 7126,
      "anti": 7127,
      "pul": 7128,
      "ologies": 7129,
      "miles": 7130,
      "vac": 7131,
      "iber": 7132,
      "background": 7133,
      "cycl": 7134,
      "furniture": 7135,
      "Indian": 7136,
      "announced": 7137,
      "gun": 7138,
      "sweet": 7139,
      "emporary": 7140,
      "vill": 7141,
      "brain": 7142,
      "rol": 7143,
      "acity": 7144,
      "ican": 7145,
      "55": 7146,
      "affic": 7147,
      "crow": 7148,
      "retail": 7149,
      "TM": 7150,
      "relax": 7151,
      "mitted": 7152,
      "seven": 7153,
      "chain": 7154,
      "scient": 7155,
      "”,": 7156,
      "evidence": 7157,
      "requires": 7158,
      "incred": 7159,
      "vote": 7160,
      "istics": 7161,
      "Wash": 7162,
      "Pho": 7163,
      "finished": 7164,
      "keeping": 7165,
      "Other": 7166,
      "David": 7167,
      "roid": 7168,
      "saying": 7169,
      "selling": 7170,
      "LO": 7171,
      "creative": 7172,
      "manage": 7173,
      "enses": 7174,
      "cit": 7175,
      "seeing": 7176,
      "48": 7177,
      "Mor": 7178,
      "cheap": 7179,
      "Ma": 7180,
      "PA": 7181,
      "flex": 7182,
      "Plan": 7183,
      "secure": 7184,
      "edge": 7185,
      "minute": 7186,
      "Gover": 7187,
      "guid": 7188,
      "subs": 7189,
      "atically": 7190,
      "larger": 7191,
      "imin": 7192,
      "tips": 7193,
      "doors": 7194,
      "mechan": 7195,
      "wine": 7196,
      "compared": 7197,
      "reports": 7198,
      "expand": 7199,
      "helped": 7200,
      "2008": 7201,
      "craft": 7202,
      "registered": 7203,
      "journey": 7204,
      "PD": 7205,
      "west": 7206,
      "useum": 7207,
      "surv": 7208,
      "technical": 7209,
      "According": 7210,
      "Take": 7211,
      "scale": 7212,
      "fortun": 7213,
      "fund": 7214,
      "century": 7215,
      "occas": 7216,
      "balance": 7217,
      "chann": 7218,
      "steel": 7219,
      "Office": 7220,
      "button": 7221,
      "Educ": 7222,
      "bound": 7223,
      "changing": 7224,
      "produced": 7225,
      "winter": 7226,
      "actual": 7227,
      "generally": 7228,
      "switch": 7229,
      "teams": 7230,
      "Mal": 7231,
      "billion": 7232,
      "pal": 7233,
      "esome": 7234,
      "fat": 7235,
      "throw": 7236,
      "38": 7237,
      "encies": 7238,
      "threat": 7239,
      "ultim": 7240,
      "tenance": 7241,
      "Ty": 7242,
      "links": 7243,
      "Flor": 7244,
      "mes": 7245,
      "lov": 7246,
      "ams": 7247,
      "greater": 7248,
      "irection": 7249,
      "listed": 7250,
      "middle": 7251,
      "Develop": 7252,
      "lose": 7253,
      "2009": 7254,
      "flav": 7255,
      "Tex": 7256,
      "uce": 7257,
      "dete": 7258,
      "Met": 7259,
      "tend": 7260,
      "iling": 7261,
      "37": 7262,
      "mental": 7263,
      "Cus": 7264,
      "CT": 7265,
      "kept": 7266,
      "critical": 7267,
      "dance": 7268,
      "earlier": 7269,
      "hundred": 7270,
      "map": 7271,
      "advanced": 7272,
      "Dem": 7273,
      "da": 7274,
      "sustain": 7275,
      "wash": 7276,
      "ivil": 7277,
      "schedule": 7278,
      "Class": 7279,
      "Bank": 7280,
      "loan": 7281,
      "connection": 7282,
      "metal": 7283,
      "Monday": 7284,
      "gent": 7285,
      "monitor": 7286,
      "Mic": 7287,
      "elling": 7288,
      "lam": 7289,
      "race": 7290,
      "AND": 7291,
      "valu": 7292,
      "Sing": 7293,
      "funds": 7294,
      "aughter": 7295,
      "Council": 7296,
      "Dan": 7297,
      "handle": 7298,
      "corporate": 7299,
      "professionals": 7300,
      "ox": 7301,
      "expensive": 7302,
      "multi": 7303,
      "named": 7304,
      "inspir": 7305,
      "president": 7306,
      "Phone": 7307,
      "Top": 7308,
      "experiences": 7309,
      "usher": 7310,
      "audience": 7311,
      "peace": 7312,
      "cold": 7313,
      "ION": 7314,
      "Wal": 7315,
      "cars": 7316,
      "People": 7317,
      "candid": 7318,
      "micro": 7319,
      "academ": 7320,
      "communication": 7321,
      "British": 7322,
      "umn": 7323,
      "presented": 7324,
      "perhaps": 7325,
      "Care": 7326,
      "IR": 7327,
      "efforts": 7328,
      "strength": 7329,
      "wants": 7330,
      "suffer": 7331,
      "moonlight": 7332,
      "videos": 7333,
      "session": 7334,
      "teaching": 7335,
      "):": 7336,
      "lets": 7337,
      "Under": 7338,
      "197": 7339,
      "iance": 7340,
      "Online": 7341,
      "format": 7342,
      "discover": 7343,
      "arts": 7344,
      "Another": 7345,
      "Club": 7346,
      "slight": 7347,
      "shape": 7348,
      "Blue": 7349,
      "volunte": 7350,
      "vit": 7351,
      "standards": 7352,
      "passion": 7353,
      "counter": 7354,
      "fashion": 7355,
      "argu": 7356,
      "Australia": 7357,
      "spl": 7358,
      "experts": 7359,
      "estival": 7360,
      "marr": 7361,
      "contains": 7362,
      "challenges": 7363,
      "Paul": 7364,
      "nic": 7365,
      "statement": 7366,
      "camera": 7367,
      "gam": 7368,
      "??": 7369,
      "placement": 7370,
      "IV": 7371,
      "isation": 7372,
      "playard": 7373,
      "talking": 7374,
      "relevant": 7375,
      "Last": 7376,
      "remove": 7377,
      "convers": 7378,
      "controll": 7379,
      "Set": 7380,
      "elements": 7381,
      "omen": 7382,
      "dedicated": 7383,
      "opening": 7384,
      "filled": 7385,
      "hus": 7386,
      "roy": 7387,
      "entertain": 7388,
      "tree": 7389,
      "police": 7390,
      "Rel": 7391,
      "update": 7392,
      "shared": 7393,
      "spring": 7394,
      "Whether": 7395,
      "Sk": 7396,
      "pa": 7397,
      "pray": 7398,
      "archite": 7399,
      "heavy": 7400,
      "Year": 7401,
      "usion": 7402,
      "whose": 7403,
      "39": 7404,
      "finding": 7405,
      "Cho": 7406,
      "origin": 7407,
      "faith": 7408,
      "organizations": 7409,
      "traffic": 7410,
      "parties": 7411,
      "shopping": 7412,
      "voice": 7413,
      "album": 7414,
      "Who": 7415,
      "exclus": 7416,
      "gone": 7417,
      "jobs": 7418,
      "Pay": 7419,
      "cancer": 7420,
      "workers": 7421,
      "aries": 7422,
      "forget": 7423,
      "lap": 7424,
      "smooth": 7425,
      "agreement": 7426,
      "65": 7427,
      "iverse": 7428,
      "welcome": 7429,
      "catch": 7430,
      "adding": 7431,
      "ocr": 7432,
      "IM": 7433,
      "Jer": 7434,
      "famous": 7435,
      "apt": 7436,
      "prepared": 7437,
      "names": 7438,
      "libr": 7439,
      "estim": 7440,
      "sole": 7441,
      "driving": 7442,
      "reh": 7443,
      "sco": 7444,
      "luck": 7445,
      "posit": 7446,
      "calls": 7447,
      "movement": 7448,
      "unk": 7449,
      "colors": 7450,
      "Management": 7451,
      "gather": 7452,
      "AB": 7453,
      "Life": 7454,
      "Arch": 7455,
      "Mill": 7456,
      "developing": 7457,
      "virt": 7458,
      "Open": 7459,
      "followed": 7460,
      "mir": 7461,
      "odes": 7462,
      "prepar": 7463,
      "Tur": 7464,
      "ta": 7465,
      "ults": 7466,
      "ption": 7467,
      "34": 7468,
      "motor": 7469,
      "Ver": 7470,
      "rec": 7471,
      "attach": 7472,
      "determine": 7473,
      "Apple": 7474,
      "comments": 7475,
      "Love": 7476,
      "opin": 7477,
      "clud": 7478,
      "central": 7479,
      "cket": 7480,
      "French": 7481,
      "compreh": 7482,
      "Lab": 7483,
      "accom": 7484,
      "mentioned": 7485,
      "eds": 7486,
      "hang": 7487,
      "attend": 7488,
      "primary": 7489,
      "Found": 7490,
      "bing": 7491,
      "nd": 7492,
      "direction": 7493,
      "wire": 7494,
      "tail": 7495,
      "assign": 7496,
      "shoot": 7497,
      "dump": 7498,
      "therefore": 7499,
      "rap": 7500,
      "focused": 7501,
      "restaurant": 7502,
      "Profess": 7503,
      "quarter": 7504,
      "rael": 7505,
      "HD": 7506,
      "winning": 7507,
      "connected": 7508,
      "learned": 7509,
      "General": 7510,
      "300": 7511,
      "plenty": 7512,
      "pleas": 7513,
      "rot": 7514,
      "poses": 7515,
      "figure": 7516,
      "dollar": 7517,
      "interview": 7518,
      "infr": 7519,
      "sea": 7520,
      "capacity": 7521,
      "wild": 7522,
      "iny": 7523,
      "himself": 7524,
      "ault": 7525,
      "haven": 7526,
      "Thurs": 7527,
      "Jack": 7528,
      "limit": 7529,
      "manufactur": 7530,
      "older": 7531,
      "ordin": 7532,
      "techniques": 7533,
      "USA": 7534,
      "DA": 7535,
      "teen": 7536,
      "arrang": 7537,
      "apers": 7538,
      "buying": 7539,
      "Power": 7540,
      "street": 7541,
      "ado": 7542,
      "conference": 7543,
      "facilities": 7544,
      "esty": 7545,
      "courses": 7546,
      "Texas": 7547,
      "closed": 7548,
      "situ": 7549,
      "Bre": 7550,
      "ulty": 7551,
      "cycle": 7552,
      "Like": 7553,
      "ingred": 7554,
      "Israel": 7555,
      "rupt": 7556,
      "Mer": 7557,
      "factors": 7558,
      "inch": 7559,
      "Water": 7560,
      "classic": 7561,
      "iency": 7562,
      "sumer": 7563,
      "IL": 7564,
      "Tues": 7565,
      "cream": 7566,
      "classes": 7567,
      "rom": 7568,
      "attempt": 7569,
      "passed": 7570,
      "agram": 7571,
      "serving": 7572,
      "Trump": 7573,
      "visitors": 7574,
      "theme": 7575,
      "selected": 7576,
      "PR": 7577,
      "River": 7578,
      "ibe": 7579,
      "trail": 7580,
      "bright": 7581,
      "gall": 7582,
      "designs": 7583,
      "properties": 7584,
      "scen": 7585,
      "EM": 7586,
      "waste": 7587,
      "icken": 7588,
      "\",": 7589,
      "iger": 7590,
      "waiting": 7591,
      "biggest": 7592,
      "poor": 7593,
      "Lord": 7594,
      "ute": 7595,
      "azon": 7596,
      "Vol": 7597,
      "ields": 7598,
      "Elect": 7599,
      "status": 7600,
      "Press": 7601,
      "operating": 7602,
      "Miss": 7603,
      "info": 7604,
      "****": 7605,
      "pow": 7606,
      "bes": 7607,
      "supplies": 7608,
      "rare": 7609,
      "Tom": 7610,
      "cep": 7611,
      "maintenance": 7612,
      "testing": 7613,
      "beat": 7614,
      "generation": 7615,
      "values": 7616,
      "ships": 7617,
      "director": 7618,
      "Chin": 7619,
      "population": 7620,
      "NA": 7621,
      "aled": 7622,
      "James": 7623,
      "eth": 7624,
      "yard": 7625,
      "communities": 7626,
      "advance": 7627,
      "egg": 7628,
      "guests": 7629,
      "solid": 7630,
      "agno": 7631,
      "package": 7632,
      "explore": 7633,
      "ograph": 7634,
      "spending": 7635,
      "Where": 7636,
      "CS": 7637,
      "lean": 7638,
      "Church": 7639,
      "Sil": 7640,
      "sector": 7641,
      "wife": 7642,
      "2007": 7643,
      "advent": 7644,
      "practices": 7645,
      "Two": 7646,
      "vin": 7647,
      "datab": 7648,
      "outdoor": 7649,
      "William": 7650,
      "eight": 7651,
      "anger": 7652,
      "Fam": 7653,
      "lux": 7654,
      "couldn": 7655,
      "Florida": 7656,
      "residents": 7657,
      "cleaning": 7658,
      "mist": 7659,
      "ya": 7660,
      "Star": 7661,
      "airs": 7662,
      "visual": 7663,
      "bought": 7664,
      "dro": 7665,
      "vior": 7666,
      "Download": 7667,
      "essay": 7668,
      "leader": 7669,
      "Washington": 7670,
      "smaller": 7671,
      "Africa": 7672,
      "reality": 7673,
      "rote": 7674,
      "economy": 7675,
      "Ann": 7676,
      "becomes": 7677,
      "polit": 7678,
      "helpful": 7679,
      "processes": 7680,
      "shops": 7681,
      "ximately": 7682,
      "itors": 7683,
      "remind": 7684,
      "ctors": 7685,
      "diet": 7686,
      "Wr": 7687,
      "trou": 7688,
      "spread": 7689,
      "Hy": 7690,
      "Tuesday": 7691,
      "evening": 7692,
      "Institute": 7693,
      "husband": 7694,
      "apter": 7695,
      "ba": 7696,
      "separate": 7697,
      "Mary": 7698,
      "managed": 7699,
      "config": 7700,
      "nutr": 7701,
      "driver": 7702,
      "ride": 7703,
      "opened": 7704,
      "Mart": 7705,
      "investig": 7706,
      "64": 7707,
      "quot": 7708,
      "OF": 7709,
      "fem": 7710,
      "ga": 7711,
      "flat": 7712,
      "installed": 7713,
      "Pan": 7714,
      "Thursday": 7715,
      "Big": 7716,
      "itude": 7717,
      "boy": 7718,
      "relig": 7719,
      "desk": 7720,
      "Real": 7721,
      "trial": 7722,
      "Music": 7723,
      "cloud": 7724,
      "operations": 7725,
      "!!!": 7726,
      "painting": 7727,
      "numerous": 7728,
      "society": 7729,
      "initi": 7730,
      "ancy": 7731,
      "tot": 7732,
      "plastic": 7733,
      "competition": 7734,
      "ils": 7735,
      "combination": 7736,
      "continued": 7737,
      "artist": 7738,
      "ampion": 7739,
      "Sum": 7740,
      "bathroom": 7741,
      "fees": 7742,
      "decide": 7743,
      "Pet": 7744,
      "otherwise": 7745,
      "fans": 7746,
      "usual": 7747,
      "markets": 7748,
      "Christian": 7749,
      "Education": 7750,
      "proof": 7751,
      "2000": 7752,
      "documents": 7753,
      "mountain": 7754,
      "earth": 7755,
      "ened": 7756,
      "obvious": 7757,
      "Build": 7758,
      "establish": 7759,
      "hur": 7760,
      "whatever": 7761,
      "kill": 7762,
      "reci": 7763,
      "records": 7764,
      "lation": 7765,
      "ov": 7766,
      "proud": 7767,
      "Photo": 7768,
      "phones": 7769,
      "processing": 7770,
      "fold": 7771,
      "ona": 7772,
      "Shop": 7773,
      "CB": 7774,
      "EL": 7775,
      "menu": 7776,
      "Tor": 7777,
      "cells": 7778,
      "fing": 7779,
      "zy": 7780,
      "Engine": 7781,
      "icon": 7782,
      "dur": 7783,
      "Road": 7784,
      "dinner": 7785,
      "provider": 7786,
      "Brow": 7787,
      "die": 7788,
      "hael": 7789,
      "taste": 7790,
      "veget": 7791,
      "Court": 7792,
      "Ter": 7793,
      "creation": 7794,
      "wrote": 7795,
      "sched": 7796,
      "Fol": 7797,
      "lad": 7798,
      "independent": 7799,
      "valid": 7800,
      "square": 7801,
      "grant": 7802,
      "Wednes": 7803,
      "ensu": 7804,
      "characters": 7805,
      "temperature": 7806,
      "lying": 7807,
      "Project": 7808,
      "colour": 7809,
      "Both": 7810,
      "outs": 7811,
      "becoming": 7812,
      "Information": 7813,
      "installation": 7814,
      "fantastic": 7815,
      "Fire": 7816,
      "meant": 7817,
      "decisions": 7818,
      "beauty": 7819,
      "IG": 7820,
      "Chinese": 7821,
      "Time": 7822,
      "Wood": 7823,
      "toward": 7824,
      "modif": 7825,
      "News": 7826,
      "parent": 7827,
      "Wall": 7828,
      "psych": 7829,
      "vs": 7830,
      "ara": 7831,
      "plug": 7832,
      "gal": 7833,
      "LA": 7834,
      "stores": 7835,
      "Rock": 7836,
      "compar": 7837,
      "hi": 7838,
      "thousands": 7839,
      "Child": 7840,
      "presents": 7841,
      "allowing": 7842,
      "happened": 7843,
      "ari": 7844,
      "Data": 7845,
      "lighting": 7846,
      "Its": 7847,
      "burn": 7848,
      "asy": 7849,
      "indic": 7850,
      "construct": 7851,
      "strategies": 7852,
      "Ve": 7853,
      "95": 7854,
      "ries": 7855,
      "medium": 7856,
      "Start": 7857,
      "described": 7858,
      "OU": 7859,
      "units": 7860,
      "excited": 7861,
      "minim": 7862,
      "shipping": 7863,
      "topic": 7864,
      "Hum": 7865,
      "prec": 7866,
      "remains": 7867,
      "Fil": 7868,
      "debt": 7869,
      "funding": 7870,
      "exercise": 7871,
      "asp": 7872,
      "Their": 7873,
      "thers": 7874,
      "distance": 7875,
      "applied": 7876,
      "burg": 7877,
      "anned": 7878,
      "Amazon": 7879,
      "Bal": 7880,
      "thes": 7881,
      "locations": 7882,
      "detailed": 7883,
      "nel": 7884,
      "hase": 7885,
      "akers": 7886,
      "sources": 7887,
      "federal": 7888,
      "casino": 7889,
      "exciting": 7890,
      "eating": 7891,
      "truth": 7892,
      "dial": 7893,
      "ito": 7894,
      "willing": 7895,
      "Rom": 7896,
      "doctor": 7897,
      "manager": 7898,
      "approximately": 7899,
      "Director": 7900,
      "66": 7901,
      "CC": 7902,
      "laws": 7903,
      "lunch": 7904,
      "assistance": 7905,
      "south": 7906,
      "Card": 7907,
      "ipes": 7908,
      "belie": 7909,
      "itution": 7910,
      "agency": 7911,
      "sounds": 7912,
      "reliable": 7913,
      "absolutely": 7914,
      "institut": 7915,
      "Fun": 7916,
      "distr": 7917,
      "inet": 7918,
      "AG": 7919,
      "coverage": 7920,
      "domain": 7921,
      ".)": 7922,
      "dut": 7923,
      "Lake": 7924,
      "icine": 7925,
      "yes": 7926,
      "ota": 7927,
      "ups": 7928,
      "military": 7929,
      "lor": 7930,
      "satisf": 7931,
      "Product": 7932,
      "websites": 7933,
      "relationships": 7934,
      "foreign": 7935,
      "orial": 7936,
      "Ham": 7937,
      "feat": 7938,
      "Back": 7939,
      "shap": 7940,
      "Next": 7941,
      "Beach": 7942,
      "enjoyed": 7943,
      "suitable": 7944,
      "runs": 7945,
      "alternative": 7946,
      "ament": 7947,
      "contr": 7948,
      "worry": 7949,
      "bridge": 7950,
      "happens": 7951,
      "leadership": 7952,
      "practical": 7953,
      "deb": 7954,
      "oral": 7955,
      "claims": 7956,
      "Keep": 7957,
      "knows": 7958,
      "diagno": 7959,
      "citiz": 7960,
      "NE": 7961,
      "icies": 7962,
      "ifts": 7963,
      "snow": 7964,
      "eless": 7965,
      "Angel": 7966,
      "sey": 7967,
      "wouldn": 7968,
      "animals": 7969,
      "Wednesday": 7970,
      "Def": 7971,
      "bour": 7972,
      "IF": 7973,
      "fruit": 7974,
      "score": 7975,
      "ying": 7976,
      "clearly": 7977,
      "recipe": 7978,
      "thoughts": 7979,
      "TS": 7980,
      "showing": 7981,
      "corner": 7982,
      "agon": 7983,
      "leaves": 7984,
      "prise": 7985,
      "astru": 7986,
      "seat": 7987,
      "updated": 7988,
      "formed": 7989,
      "Show": 7990,
      "rical": 7991,
      "crit": 7992,
      "MO": 7993,
      "Wel": 7994,
      "Before": 7995,
      "hospital": 7996,
      "Note": 7997,
      "repe": 7998,
      "conds": 7999,
      "Rich": 8000,
      "sym": 8001,
      "memory": 8002,
      "occup": 8003,
      "Microsoft": 8004,
      "department": 8005,
      "presence": 8006,
      "BA": 8007,
      "daughter": 8008,
      "ented": 8009,
      "earning": 8010,
      "teachers": 8011,
      "graduate": 8012,
      "Cam": 8013,
      "Glo": 8014,
      "artists": 8015,
      "majority": 8016,
      "guess": 8017,
      "maximum": 8018,
      "unless": 8019,
      "IA": 8020,
      "itar": 8021,
      "ugh": 8022,
      "Mil": 8023,
      "awesome": 8024,
      "Island": 8025,
      "portion": 8026,
      "owned": 8027,
      "starts": 8028,
      "NY": 8029,
      "colate": 8030,
      "Thom": 8031,
      "lovely": 8032,
      "species": 8033,
      "facility": 8034,
      "47": 8035,
      "walking": 8036,
      "Fort": 8037,
      "Public": 8038,
      "bac": 8039,
      "Int": 8040,
      "brings": 8041,
      "bedroom": 8042,
      "uled": 8043,
      "iest": 8044,
      "Stand": 8045,
      "apped": 8046,
      "ingredients": 8047,
      "posts": 8048,
      "appears": 8049,
      "Main": 8050,
      "meal": 8051,
      "expertise": 8052,
      "familiar": 8053,
      "behavior": 8054,
      "mort": 8055,
      "pitch": 8056,
      "teacher": 8057,
      "igence": 8058,
      "Light": 8059,
      "minimum": 8060,
      "fuel": 8061,
      "crete": 8062,
      "Ly": 8063,
      "recommended": 8064,
      "caused": 8065,
      "symp": 8066,
      "profile": 8067,
      "capt": 8068,
      "Community": 8069,
      "Cas": 8070,
      "Camp": 8071,
      "noon": 8072,
      "shower": 8073,
      "Master": 8074,
      "goods": 8075,
      "Commission": 8076,
      "vention": 8077,
      "Bet": 8078,
      "Special": 8079,
      "ye": 8080,
      "importance": 8081,
      "Bas": 8082,
      "properly": 8083,
      "shut": 8084,
      "notes": 8085,
      "Science": 8086,
      "kn": 8087,
      "ounds": 8088,
      "affordable": 8089,
      "complain": 8090,
      "fear": 8091,
      "mut": 8092,
      "tech": 8093,
      "north": 8094,
      "Er": 8095,
      "Plus": 8096,
      "concerns": 8097,
      "chemical": 8098,
      "Hist": 8099,
      "audio": 8100,
      "gins": 8101,
      "pump": 8102,
      "ander": 8103,
      "CR": 8104,
      "nav": 8105,
      "trading": 8106,
      "cris": 8107,
      "Development": 8108,
      "supported": 8109,
      "paint": 8110,
      "continues": 8111,
      "fabric": 8112,
      "industrial": 8113,
      "resol": 8114,
      "policies": 8115,
      "injury": 8116,
      "800": 8117,
      "SP": 8118,
      "aser": 8119,
      "responsibility": 8120,
      "perspect": 8121,
      "typically": 8122,
      "negative": 8123,
      "scene": 8124,
      "journal": 8125,
      "amin": 8126,
      "dim": 8127,
      "kick": 8128,
      "py": 8129,
      "holds": 8130,
      "cultural": 8131,
      "German": 8132,
      "rac": 8133,
      "Award": 8134,
      "Ca": 8135,
      "ern": 8136,
      "category": 8137,
      "Bill": 8138,
      "dining": 8139,
      "ancing": 8140,
      "leaving": 8141,
      "quant": 8142,
      "football": 8143,
      "automatically": 8144,
      "calcul": 8145,
      "Jour": 8146,
      "sert": 8147,
      "Michael": 8148,
      "acks": 8149,
      "radio": 8150,
      "hun": 8151,
      "icians": 8152,
      "improv": 8153,
      "Bur": 8154,
      "confidence": 8155,
      "houses": 8156,
      "advertising": 8157,
      "fortunately": 8158,
      "seconds": 8159,
      "pon": 8160,
      "umin": 8161,
      "phil": 8162,
      "delicious": 8163,
      "articles": 8164,
      "poly": 8165,
      "sheet": 8166,
      "aint": 8167,
      "Det": 8168,
      "instru": 8169,
      "demonstr": 8170,
      "clim": 8171,
      "tests": 8172,
      "exchange": 8173,
      "Commit": 8174,
      "asking": 8175,
      "Roy": 8176,
      "signed": 8177,
      "senior": 8178,
      "Hall": 8179,
      "bling": 8180,
      "performed": 8181,
      "trees": 8182,
      "astructure": 8183,
      "academic": 8184,
      "slightly": 8185,
      "iPhone": 8186,
      "49": 8187,
      "depending": 8188,
      "Av": 8189,
      "trig": 8190,
      "England": 8191,
      "avel": 8192,
      "confident": 8193,
      "civil": 8194,
      "brands": 8195,
      "seek": 8196,
      "Soci": 8197,
      "inspired": 8198,
      "Lou": 8199,
      "Mad": 8200,
      "vic": 8201,
      "novel": 8202,
      "faces": 8203,
      "kes": 8204,
      "busy": 8205,
      "favour": 8206,
      "obl": 8207,
      "carbon": 8208,
      "committed": 8209,
      "mostly": 8210,
      "mouth": 8211,
      "concent": 8212,
      "Grand": 8213,
      "approved": 8214,
      "internal": 8215,
      "manner": 8216,
      "choices": 8217,
      "ifying": 8218,
      "deed": 8219,
      "deals": 8220,
      "Div": 8221,
      "watching": 8222,
      "Lin": 8223,
      "ano": 8224,
      "Social": 8225,
      "environmental": 8226,
      "rise": 8227,
      "consumer": 8228,
      "clos": 8229,
      "encing": 8230,
      "aspects": 8231,
      "specifically": 8232,
      "cities": 8233,
      "technologies": 8234,
      "Dig": 8235,
      "arrow": 8236,
      "curren": 8237,
      "providers": 8238,
      "Contact": 8239,
      "oft": 8240,
      "inct": 8241,
      "error": 8242,
      "tast": 8243,
      "Organ": 8244,
      "holding": 8245,
      "ien": 8246,
      "sha": 8247,
      "ody": 8248,
      "volume": 8249,
      "previously": 8250,
      "interior": 8251,
      "writer": 8252,
      "Old": 8253,
      "erve": 8254,
      "propos": 8255,
      "survey": 8256,
      "azine": 8257,
      "gery": 8258,
      "dynam": 8259,
      "rd": 8260,
      "raised": 8261,
      "Que": 8262,
      "putting": 8263,
      "discussion": 8264,
      "anta": 8265,
      "TR": 8266,
      "proceed": 8267,
      "legis": 8268,
      "Rob": 8269,
      "battery": 8270,
      "registration": 8271,
      "jump": 8272,
      "reference": 8273,
      "centre": 8274,
      "measures": 8275,
      "Gen": 8276,
      "Through": 8277,
      "totally": 8278,
      "aj": 8279,
      "coast": 8280,
      "liqu": 8281,
      "guys": 8282,
      "Android": 8283,
      "neighbor": 8284,
      "schem": 8285,
      "outhern": 8286,
      "ipping": 8287,
      "visiting": 8288,
      "vehicles": 8289,
      "estic": 8290,
      "Alex": 8291,
      "covers": 8292,
      "warr": 8293,
      "oph": 8294,
      "listen": 8295,
      "parking": 8296,
      "ls": 8297,
      "unning": 8298,
      "illustr": 8299,
      "cean": 8300,
      "2006": 8301,
      "rule": 8302,
      "rub": 8303,
      "showed": 8304,
      "Dep": 8305,
      "reme": 8306,
      "View": 8307,
      "leads": 8308,
      "motiv": 8309,
      "circum": 8310,
      "hes": 8311,
      "panel": 8312,
      "Republic": 8313,
      "ws": 8314,
      "tes": 8315,
      "secret": 8316,
      "trick": 8317,
      "accounts": 8318,
      "predict": 8319,
      "Mex": 8320,
      "Those": 8321,
      "comprehensive": 8322,
      "46": 8323,
      "bell": 8324,
      "kit": 8325,
      "Cy": 8326,
      "Word": 8327,
      "combined": 8328,
      "Government": 8329,
      "sport": 8330,
      "authen": 8331,
      "Food": 8332,
      "olar": 8333,
      "joined": 8334,
      "components": 8335,
      "possess": 8336,
      "FL": 8337,
      "Vir": 8338,
      "gment": 8339,
      "accompl": 8340,
      "agement": 8341,
      "nu": 8342,
      "iled": 8343,
      "decre": 8344,
      "Gal": 8345,
      "Sha": 8346,
      "ka": 8347,
      "encourage": 8348,
      "pull": 8349,
      "butter": 8350,
      "depth": 8351,
      "database": 8352,
      "Mich": 8353,
      "uries": 8354,
      "phen": 8355,
      "tea": 8356,
      "Foundation": 8357,
      "ech": 8358,
      "mel": 8359,
      "windows": 8360,
      "Only": 8361,
      "missing": 8362,
      "400": 8363,
      "aters": 8364,
      "Mot": 8365,
      "prene": 8366,
      "element": 8367,
      "anywhere": 8368,
      "upload": 8369,
      "aft": 8370,
      "aught": 8371,
      "marks": 8372,
      "faster": 8373,
      "apps": 8374,
      "jun": 8375,
      "verse": 8376,
      "ourselves": 8377,
      "tun": 8378,
      "feedback": 8379,
      "appointment": 8380,
      "Gar": 8381,
      "rating": 8382,
      "influence": 8383,
      "pin": 8384,
      "iso": 8385,
      "George": 8386,
      "edom": 8387,
      "brief": 8388,
      "Germany": 8389,
      "submit": 8390,
      "itness": 8391,
      "sugar": 8392,
      "expl": 8393,
      "iat": 8394,
      "Hill": 8395,
      "cular": 8396,
      "NO": 8397,
      "instance": 8398,
      "purposes": 8399,
      "flowers": 8400,
      "resource": 8401,
      "died": 8402,
      "enable": 8403,
      "boat": 8404,
      "possibly": 8405,
      "oss": 8406,
      "guarantee": 8407,
      "ipe": 8408,
      "termin": 8409,
      "intell": 8410,
      "Enter": 8411,
      "Van": 8412,
      "rang": 8413,
      "library": 8414,
      "ME": 8415,
      "thick": 8416,
      "monthly": 8417,
      "saving": 8418,
      "youth": 8419,
      "bles": 8420,
      "acts": 8421,
      "chat": 8422,
      "85": 8423,
      "Central": 8424,
      "Twitter": 8425,
      "Nat": 8426,
      "cake": 8427,
      "omb": 8428,
      "mand": 8429,
      "FA": 8430,
      "SA": 8431,
      "factor": 8432,
      "disci": 8433,
      "hire": 8434,
      "jack": 8435,
      "France": 8436,
      "introduced": 8437,
      "forest": 8438,
      "wheel": 8439,
      "consumers": 8440,
      "GB": 8441,
      "calling": 8442,
      "buildings": 8443,
      "42": 8444,
      "resolution": 8445,
      "cm": 8446,
      "Chris": 8447,
      "Ev": 8448,
      "defined": 8449,
      "functions": 8450,
      "ission": 8451,
      "Mob": 8452,
      "Sa": 8453,
      "Cert": 8454,
      "yer": 8455,
      "island": 8456,
      "despite": 8457,
      "delivered": 8458,
      "partnership": 8459,
      "ensions": 8460,
      "strugg": 8461,
      "Committee": 8462,
      "kid": 8463,
      "reput": 8464,
      "intended": 8465,
      "trained": 8466,
      "adults": 8467,
      "reached": 8468,
      "enhance": 8469,
      "charges": 8470,
      "77": 8471,
      "ror": 8472,
      "attor": 8473,
      "Cong": 8474,
      "Scott": 8475,
      "accident": 8476,
      "Watch": 8477,
      "flight": 8478,
      "omin": 8479,
      "osing": 8480,
      "ternal": 8481,
      "competitive": 8482,
      "assem": 8483,
      "employment": 8484,
      "updates": 8485,
      "Family": 8486,
      "CP": 8487,
      "oga": 8488,
      "distribution": 8489,
      "itz": 8490,
      "paying": 8491,
      "honest": 8492,
      "ius": 8493,
      "Mat": 8494,
      "sor": 8495,
      "employee": 8496,
      "consci": 8497,
      "eper": 8498,
      "Does": 8499,
      "List": 8500,
      "SO": 8501,
      "Medical": 8502,
      "Valley": 8503,
      "therapy": 8504,
      "discount": 8505,
      "manual": 8506,
      "Cop": 8507,
      "songs": 8508,
      "seas": 8509,
      "Team": 8510,
      "innovative": 8511,
      "Hor": 8512,
      "Person": 8513,
      "crim": 8514,
      "sight": 8515,
      "bled": 8516,
      "ml": 8517,
      "ald": 8518,
      "agent": 8519,
      "Pack": 8520,
      "eventually": 8521,
      "Western": 8522,
      "150": 8523,
      "NOT": 8524,
      "raise": 8525,
      "Ze": 8526,
      "Lead": 8527,
      "fields": 8528,
      "chicken": 8529,
      "ficient": 8530,
      "Manager": 8531,
      "1st": 8532,
      "doubt": 8533,
      "BM": 8534,
      "promote": 8535,
      "Review": 8536,
      "ae": 8537,
      "gage": 8538,
      "ception": 8539,
      "commitment": 8540,
      "tight": 8541,
      "weak": 8542,
      "reek": 8543,
      "iron": 8544,
      "cutting": 8545,
      "Distr": 8546,
      "girls": 8547,
      "emergency": 8548,
      "valuable": 8549,
      "eline": 8550,
      "Centre": 8551,
      "Using": 8552,
      "sky": 8553,
      "filter": 8554,
      "lit": 8555,
      "sides": 8556,
      "insul": 8557,
      "Head": 8558,
      "kinds": 8559,
      "Rad": 8560,
      "realize": 8561,
      "discovered": 8562,
      "garage": 8563,
      "accurate": 8564,
      "Instead": 8565,
      "restaurants": 8566,
      "patch": 8567,
      "Emp": 8568,
      "guard": 8569,
      "2005": 8570,
      "elimin": 8571,
      "university": 8572,
      "tub": 8573,
      "complic": 8574,
      "ulations": 8575,
      "tickets": 8576,
      "procedure": 8577,
      "Di": 8578,
      "oven": 8579,
      "rat": 8580,
      "rics": 8581,
      "Lim": 8582,
      "sphere": 8583,
      "animal": 8584,
      "surrounding": 8585,
      "Follow": 8586,
      "restrict": 8587,
      "habit": 8588,
      "Long": 8589,
      "lie": 8590,
      "tough": 8591,
      "DE": 8592,
      "ti": 8593,
      "princ": 8594,
      "Train": 8595,
      "layer": 8596,
      "river": 8597,
      "Frank": 8598,
      "Lat": 8599,
      "SC": 8600,
      "positions": 8601,
      "seeking": 8602,
      "cepts": 8603,
      "loans": 8604,
      "Security": 8605,
      "dent": 8606,
      "appearance": 8607,
      "bly": 8608,
      "era": 8609,
      "speaking": 8610,
      "fixed": 8611,
      "removed": 8612,
      "Sand": 8613,
      "Fre": 8614,
      "196": 8615,
      "Bud": 8616,
      "gate": 8617,
      "Academ": 8618,
      "rum": 8619,
      "Game": 8620,
      "settle": 8621,
      "toms": 8622,
      "returned": 8623,
      "univers": 8624,
      "knowing": 8625,
      "Hand": 8626,
      "wis": 8627,
      "ows": 8628,
      "meat": 8629,
      "educational": 8630,
      "premium": 8631,
      "Earth": 8632,
      "SU": 8633,
      "vation": 8634,
      "climate": 8635,
      "salt": 8636,
      "effectively": 8637,
      "styles": 8638,
      "administration": 8639,
      "launched": 8640,
      "HP": 8641,
      "dating": 8642,
      "breakfast": 8643,
      "opinion": 8644,
      "inding": 8645,
      "occasion": 8646,
      "Den": 8647,
      "Hi": 8648,
      "fle": 8649,
      "oration": 8650,
      "stret": 8651,
      "payments": 8652,
      "harm": 8653,
      "infl": 8654,
      "yout": 8655,
      "cient": 8656,
      "Society": 8657,
      "berg": 8658,
      "domin": 8659,
      "bread": 8660,
      "Learn": 8661,
      "facing": 8662,
      "ipal": 8663,
      "Chic": 8664,
      "interests": 8665,
      "African": 8666,
      "DI": 8667,
      "itionally": 8668,
      "presentation": 8669,
      "settings": 8670,
      "desire": 8671,
      "Access": 8672,
      "apos": 8673,
      "appreciate": 8674,
      "chocolate": 8675,
      "bringing": 8676,
      "Spring": 8677,
      "km": 8678,
      "rob": 8679,
      "greatest": 8680,
      "hall": 8681,
      "emphas": 8682,
      "sitting": 8683,
      "cooking": 8684,
      "clinical": 8685,
      "elines": 8686,
      "convenient": 8687,
      "incredible": 8688,
      "infrastructure": 8689,
      "tank": 8690,
      "andom": 8691,
      "rental": 8692,
      "pursu": 8693,
      "Tem": 8694,
      "vary": 8695,
      "ilit": 8696,
      "illa": 8697,
      "Color": 8698,
      "norm": 8699,
      "fellow": 8700,
      "consequ": 8701,
      "organic": 8702,
      "District": 8703,
      "instructions": 8704,
      "EU": 8705,
      "plates": 8706,
      "Offic": 8707,
      "san": 8708,
      "Aud": 8709,
      "determined": 8710,
      "vict": 8711,
      "iking": 8712,
      "Invest": 8713,
      "appeared": 8714,
      "Oper": 8715,
      "counting": 8716,
      "seemed": 8717,
      "crusher": 8718,
      "joint": 8719,
      "grown": 8720,
      "HO": 8721,
      "kin": 8722,
      "district": 8723,
      "ops": 8724,
      "tooth": 8725,
      "examples": 8726,
      "broken": 8727,
      "Hotel": 8728,
      "oma": 8729,
      "context": 8730,
      "announce": 8731,
      "mode": 8732,
      "tons": 8733,
      "susp": 8734,
      "Cre": 8735,
      "Pass": 8736,
      "extensive": 8737,
      "Journal": 8738,
      "iP": 8739,
      "entre": 8740,
      "supporting": 8741,
      "license": 8742,
      "arms": 8743,
      "glad": 8744,
      "leather": 8745,
      "guy": 8746,
      "forced": 8747,
      "shel": 8748,
      "estyle": 8749,
      "wealth": 8750,
      "operate": 8751,
      "rapid": 8752,
      "neck": 8753,
      "brown": 8754,
      "Mel": 8755,
      "invent": 8756,
      "readers": 8757,
      "walls": 8758,
      "Full": 8759,
      "wing": 8760,
      "Series": 8761,
      "electronic": 8762,
      "hundreds": 8763,
      "chosen": 8764,
      "feels": 8765,
      "dogs": 8766,
      "Ener": 8767,
      "ros": 8768,
      "ulate": 8769,
      "195": 8770,
      "Network": 8771,
      "sizes": 8772,
      "replace": 8773,
      "Therefore": 8774,
      "purchased": 8775,
      "Mach": 8776,
      "missed": 8777,
      "Ru": 8778,
      "idden": 8779,
      "Admin": 8780,
      "certific": 8781,
      "Mass": 8782,
      "suc": 8783,
      "cles": 8784,
      "foods": 8785,
      "machines": 8786,
      "mg": 8787,
      "index": 8788,
      "recovery": 8789,
      "efficiency": 8790,
      "BB": 8791,
      "edition": 8792,
      "sauce": 8793,
      "minor": 8794,
      "housing": 8795,
      "claimed": 8796,
      "improvement": 8797,
      "Auto": 8798,
      "Sometimes": 8799,
      "election": 8800,
      "identified": 8801,
      "tasks": 8802,
      "VD": 8803,
      "istan": 8804,
      "Ass": 8805,
      "administr": 8806,
      "Pres": 8807,
      "quiet": 8808,
      "bless": 8809,
      "detect": 8810,
      "Ital": 8811,
      "engineering": 8812,
      "regularly": 8813,
      "Ir": 8814,
      "shar": 8815,
      "papers": 8816,
      "tables": 8817,
      "iters": 8818,
      "circumst": 8819,
      "wers": 8820,
      "Vide": 8821,
      "Town": 8822,
      "lived": 8823,
      "ulture": 8824,
      "improved": 8825,
      "Dou": 8826,
      "Having": 8827,
      "Lev": 8828,
      "telling": 8829,
      "afternoon": 8830,
      "drivers": 8831,
      "DO": 8832,
      "remo": 8833,
      "perfectly": 8834,
      "cheese": 8835,
      "mic": 8836,
      "Carol": 8837,
      "Test": 8838,
      "rail": 8839,
      "topics": 8840,
      "Lt": 8841,
      "elig": 8842,
      "boys": 8843,
      "Second": 8844,
      "sample": 8845,
      "dang": 8846,
      "Franc": 8847,
      "sessions": 8848,
      "alle": 8849,
      "confirm": 8850,
      "umber": 8851,
      "cohol": 8852,
      "Know": 8853,
      "ache": 8854,
      "oles": 8855,
      "boost": 8856,
      "carefully": 8857,
      "gradu": 8858,
      "depart": 8859,
      "output": 8860,
      "successfully": 8861,
      "licens": 8862,
      "Qual": 8863,
      "bike": 8864,
      "perspective": 8865,
      "ums": 8866,
      "label": 8867,
      "privacy": 8868,
      "accommod": 8869,
      "Loc": 8870,
      "Maybe": 8871,
      "Fig": 8872,
      "whom": 8873,
      "atmo": 8874,
      "Table": 8875,
      "taught": 8876,
      "ette": 8877,
      "Congress": 8878,
      "perman": 8879,
      "considering": 8880,
      "assets": 8881,
      "plays": 8882,
      "reasonable": 8883,
      "vital": 8884,
      "ador": 8885,
      "coin": 8886,
      "ais": 8887,
      "publish": 8888,
      "bowl": 8889,
      "AV": 8890,
      "pup": 8891,
      "ordinary": 8892,
      "shares": 8893,
      "Wil": 8894,
      "route": 8895,
      "Technology": 8896,
      "Tour": 8897,
      "spaces": 8898,
      "guest": 8899,
      "Leg": 8900,
      "Chicago": 8901,
      "planned": 8902,
      "grat": 8903,
      "qualified": 8904,
      "GO": 8905,
      "surgery": 8906,
      "Did": 8907,
      "none": 8908,
      "Arts": 8909,
      "reduced": 8910,
      "rig": 8911,
      "zen": 8912,
      "letters": 8913,
      "participants": 8914,
      "erg": 8915,
      "channel": 8916,
      "Global": 8917,
      "moun": 8918,
      "renew": 8919,
      "01": 8920,
      "stre": 8921,
      "confl": 8922,
      "brid": 8923,
      "angle": 8924,
      "imming": 8925,
      "affected": 8926,
      "boards": 8927,
      "Blo": 8928,
      "revenue": 8929,
      "arrived": 8930,
      "ipp": 8931,
      "Max": 8932,
      "PO": 8933,
      "mining": 8934,
      "Box": 8935,
      "Pac": 8936,
      "uration": 8937,
      "prospect": 8938,
      "BE": 8939,
      "Media": 8940,
      "participate": 8941,
      "graphy": 8942,
      "carried": 8943,
      "exclusive": 8944,
      "TE": 8945,
      "Lar": 8946,
      "extract": 8947,
      "apping": 8948,
      "’.": 8949,
      "ula": 8950,
      "ALL": 8951,
      "Creat": 8952,
      "Sign": 8953,
      "bass": 8954,
      "iage": 8955,
      "Atl": 8956,
      "Democr": 8957,
      "til": 8958,
      "Prote": 8959,
      "unders": 8960,
      "AA": 8961,
      "external": 8962,
      "08": 8963,
      "cord": 8964,
      "signs": 8965,
      "igration": 8966,
      "2nd": 8967,
      "input": 8968,
      "Union": 8969,
      "silver": 8970,
      "deck": 8971,
      "luxury": 8972,
      "600": 8973,
      "charged": 8974,
      "appointed": 8975,
      "situations": 8976,
      "Flo": 8977,
      "prin": 8978,
      "vas": 8979,
      "orrow": 8980,
      "prop": 8981,
      "relatively": 8982,
      "officials": 8983,
      "stated": 8984,
      "Adv": 8985,
      "tut": 8986,
      "Students": 8987,
      "onom": 8988,
      "isco": 8989,
      "negot": 8990,
      "battle": 8991,
      "theory": 8992,
      "frequently": 8993,
      "ician": 8994,
      "Which": 8995,
      "birthday": 8996,
      "Tim": 8997,
      "tox": 8998,
      "Party": 8999,
      "accepted": 9000,
      "bear": 9001,
      "investors": 9002,
      "auth": 9003,
      "2003": 9004,
      "bigger": 9005,
      "discipl": 9006,
      "Ken": 9007,
      "pure": 9008,
      "entreprene": 9009,
      "urban": 9010,
      "belief": 9011,
      "decades": 9012,
      "root": 9013,
      "ibilities": 9014,
      "Stat": 9015,
      "patterns": 9016,
      "editor": 9017,
      "supports": 9018,
      "belong": 9019,
      "Prov": 9020,
      "missions": 9021,
      "Further": 9022,
      "Live": 9023,
      "ulous": 9024,
      "matters": 9025,
      "manufacturing": 9026,
      "recru": 9027,
      "Conne": 9028,
      "hardware": 9029,
      "conversation": 9030,
      "ulated": 9031,
      "milk": 9032,
      "Land": 9033,
      "truck": 9034,
      "wet": 9035,
      "Us": 9036,
      "ita": 9037,
      "amed": 9038,
      "firms": 9039,
      "treated": 9040,
      "twice": 9041,
      "barr": 9042,
      "scan": 9043,
      "concrete": 9044,
      "significantly": 9045,
      "historical": 9046,
      "adopt": 9047,
      "excess": 9048,
      "upper": 9049,
      "accessible": 9050,
      "ENT": 9051,
      "expo": 9052,
      "informed": 9053,
      "Museum": 9054,
      "bio": 9055,
      "rated": 9056,
      "wal": 9057,
      "dollars": 9058,
      "Fore": 9059,
      "quir": 9060,
      "brush": 9061,
      "imagine": 9062,
      "visible": 9063,
      "Hope": 9064,
      "commission": 9065,
      "Smith": 9066,
      "Russian": 9067,
      "soul": 9068,
      "replacement": 9069,
      "hearing": 9070,
      "Japanese": 9071,
      "MC": 9072,
      "thetic": 9073,
      "2004": 9074,
      "isode": 9075,
      "esterday": 9076,
      "ini": 9077,
      "posite": 9078,
      "directory": 9079,
      "Week": 9080,
      "41": 9081,
      "Ok": 9082,
      "ager": 9083,
      "fection": 9084,
      "acknow": 9085,
      "Hosp": 9086,
      "issued": 9087,
      "assessment": 9088,
      "ipped": 9089,
      "causes": 9090,
      "protected": 9091,
      "Key": 9092,
      "Asia": 9093,
      "command": 9094,
      "Author": 9095,
      "Virgin": 9096,
      "Finally": 9097,
      "failure": 9098,
      "committee": 9099,
      "Ul": 9100,
      "utions": 9101,
      "Ide": 9102,
      "hydr": 9103,
      "residential": 9104,
      "43": 9105,
      "Canad": 9106,
      "Men": 9107,
      "eries": 9108,
      "contemporary": 9109,
      "extended": 9110,
      "worldwide": 9111,
      "arent": 9112,
      "satisfact": 9113,
      "Festival": 9114,
      "conver": 9115,
      "ticket": 9116,
      "Bra": 9117,
      "sized": 9118,
      "skill": 9119,
      "Control": 9120,
      "inations": 9121,
      "movies": 9122,
      "awareness": 9123,
      "fell": 9124,
      "encoun": 9125,
      "dates": 9126,
      "uters": 9127,
      "organized": 9128,
      "shoes": 9129,
      "About": 9130,
      "Try": 9131,
      "Very": 9132,
      "Women": 9133,
      "chief": 9134,
      "answers": 9135,
      "thorough": 9136,
      "Energy": 9137,
      "Mountain": 9138,
      "Op": 9139,
      "Robert": 9140,
      "receiving": 9141,
      "mini": 9142,
      "CEO": 9143,
      "scientific": 9144,
      "GA": 9145,
      "gro": 9146,
      "ikes": 9147,
      "Peter": 9148,
      "films": 9149,
      "philos": 9150,
      "warrant": 9151,
      "76": 9152,
      "Happ": 9153,
      "urally": 9154,
      "victim": 9155,
      "%.": 9156,
      "interface": 9157,
      "pill": 9158,
      "anx": 9159,
      "searching": 9160,
      "ially": 9161,
      "servation": 9162,
      "grass": 9163,
      "09": 9164,
      "Ko": 9165,
      "asts": 9166,
      "healthcare": 9167,
      "Human": 9168,
      "Ltd": 9169,
      "Tit": 9170,
      "brother": 9171,
      "challenging": 9172,
      "powder": 9173,
      "Ms": 9174,
      "azz": 9175,
      "asket": 9176,
      "hosting": 9177,
      "browser": 9178,
      "3D": 9179,
      "forces": 9180,
      "Place": 9181,
      "begins": 9182,
      "simpl": 9183,
      "azy": 9184,
      "Minister": 9185,
      ");": 9186,
      "Kore": 9187,
      "retain": 9188,
      "recorded": 9189,
      "Paris": 9190,
      "procedures": 9191,
      "symbol": 9192,
      "Cons": 9193,
      "Link": 9194,
      "fas": 9195,
      "78": 9196,
      "Fall": 9197,
      "vend": 9198,
      "covery": 9199,
      "finance": 9200,
      "promise": 9201,
      "moments": 9202,
      "guidance": 9203,
      "Thomas": 9204,
      "Italian": 9205,
      "aven": 9206,
      "studio": 9207,
      "delight": 9208,
      "holders": 9209,
      "Commer": 9210,
      "Mobile": 9211,
      "etch": 9212,
      "driven": 9213,
      "substant": 9214,
      "04": 9215,
      "secut": 9216,
      "networks": 9217,
      "Los": 9218,
      "holder": 9219,
      "mixed": 9220,
      "stretch": 9221,
      "coup": 9222,
      "icial": 9223,
      "etic": 9224,
      "Enjoy": 9225,
      "Applic": 9226,
      "horse": 9227,
      "sufficient": 9228,
      "edy": 9229,
      "proposed": 9230,
      "organis": 9231,
      "institutions": 9232,
      "Louis": 9233,
      "liquid": 9234,
      "phase": 9235,
      "mond": 9236,
      "constantly": 9237,
      "Libr": 9238,
      "Mont": 9239,
      "acle": 9240,
      "acid": 9241,
      "remaining": 9242,
      "distinct": 9243,
      "Disney": 9244,
      "bags": 9245,
      "divid": 9246,
      "description": 9247,
      "FOR": 9248,
      "Ther": 9249,
      "earned": 9250,
      "intage": 9251,
      "freedom": 9252,
      "foundation": 9253,
      "featured": 9254,
      "emotional": 9255,
      "village": 9256,
      "entr": 9257,
      "quar": 9258,
      "integrated": 9259,
      "fif": 9260,
      "ena": 9261,
      "HS": 9262,
      "fro": 9263,
      "strain": 9264,
      "cribe": 9265,
      "flash": 9266,
      "breath": 9267,
      "grees": 9268,
      "een": 9269,
      "conducted": 9270,
      "Conference": 9271,
      "native": 9272,
      "endar": 9273,
      "communications": 9274,
      "breaking": 9275,
      "apartment": 9276,
      "ij": 9277,
      "ella": 9278,
      "remote": 9279,
      "yellow": 9280,
      "AF": 9281,
      "Bir": 9282,
      "sex": 9283,
      "Americans": 9284,
      "concerned": 9285,
      "recognized": 9286,
      "itage": 9287,
      "choosing": 9288,
      "suring": 9289,
      "protein": 9290,
      "certified": 9291,
      "surprise": 9292,
      "enab": 9293,
      "adult": 9294,
      "keeps": 9295,
      "inf": 9296,
      "Room": 9297,
      "igan": 9298,
      "noticed": 9299,
      "ski": 9300,
      "tested": 9301,
      "random": 9302,
      "atre": 9303,
      "campus": 9304,
      "dumpster": 9305,
      "PL": 9306,
      "greg": 9307,
      "utter": 9308,
      "soil": 9309,
      "crush": 9310,
      "equal": 9311,
      "consistent": 9312,
      "Cat": 9313,
      "ounder": 9314,
      "concern": 9315,
      "inspiration": 9316,
      "Building": 9317,
      "Welcome": 9318,
      "Fair": 9319,
      "MD": 9320,
      "vast": 9321,
      "personally": 9322,
      "eleg": 9323,
      "orient": 9324,
      "noted": 9325,
      "agreed": 9326,
      "grap": 9327,
      "advoc": 9328,
      "executive": 9329,
      "scheduled": 9330,
      "Children": 9331,
      "template": 9332,
      "3rd": 9333,
      "impressive": 9334,
      "alog": 9335,
      "meetings": 9336,
      "lifestyle": 9337,
      "gifts": 9338,
      "ola": 9339,
      "hole": 9340,
      "motion": 9341,
      "crucial": 9342,
      "Digital": 9343,
      "Chair": 9344,
      "closer": 9345,
      "sin": 9346,
      "prompt": 9347,
      "authority": 9348,
      "default": 9349,
      "featuring": 9350,
      "Priv": 9351,
      "Brown": 9352,
      "anda": 9353,
      "expectations": 9354,
      "flexible": 9355,
      "compare": 9356,
      "berry": 9357,
      "symptoms": 9358,
      "1000": 9359,
      "bug": 9360,
      "sac": 9361,
      "BS": 9362,
      "Win": 9363,
      "agencies": 9364,
      "BI": 9365,
      "iors": 9366,
      "savings": 9367,
      "equipped": 9368,
      "Clean": 9369,
      "Vict": 9370,
      "theless": 9371,
      "ilst": 9372,
      "aming": 9373,
      "flag": 9374,
      "League": 9375,
      "Trad": 9376,
      "messages": 9377,
      "cable": 9378,
      "diverse": 9379,
      "alty": 9380,
      "Buy": 9381,
      "landscape": 9382,
      "strategic": 9383,
      "Custom": 9384,
      "acting": 9385,
      "involve": 9386,
      "destination": 9387,
      "sett": 9388,
      "female": 9389,
      "circumstances": 9390,
      "Bob": 9391,
      "Site": 9392,
      "Saf": 9393,
      "Du": 9394,
      "NC": 9395,
      "Cost": 9396,
      "Econom": 9397,
      "VER": 9398,
      "height": 9399,
      "otic": 9400,
      "drain": 9401,
      "App": 9402,
      "picked": 9403,
      "Australian": 9404,
      "han": 9405,
      "pil": 9406,
      "stars": 9407,
      "aks": 9408,
      "serves": 9409,
      "ciples": 9410,
      "ught": 9411,
      "sad": 9412,
      "solar": 9413,
      "typical": 9414,
      "Span": 9415,
      "itis": 9416,
      "degrees": 9417,
      "05": 9418,
      "Tube": 9419,
      "logo": 9420,
      "engage": 9421,
      "Beaut": 9422,
      "programme": 9423,
      "celebrate": 9424,
      "tics": 9425,
      "alter": 9426,
      "inder": 9427,
      "stands": 9428,
      "Sof": 9429,
      "yan": 9430,
      "coll": 9431,
      "PDF": 9432,
      "Sar": 9433,
      "proto": 9434,
      "identity": 9435,
      "virtual": 9436,
      "dram": 9437,
      "everyday": 9438,
      "returns": 9439,
      "mur": 9440,
      "heating": 9441,
      "quote": 9442,
      "hero": 9443,
      "entertainment": 9444,
      "].": 9445,
      "caught": 9446,
      "entirely": 9447,
      "regulations": 9448,
      "Way": 9449,
      "ancient": 9450,
      "coordin": 9451,
      "technique": 9452,
      "founded": 9453,
      "Spir": 9454,
      "SEO": 9455,
      "closely": 9456,
      "wearing": 9457,
      "membership": 9458,
      "failed": 9459,
      "Publ": 9460,
      "thread": 9461,
      "weap": 9462,
      "teeth": 9463,
      "voter": 9464,
      "architect": 9465,
      "golf": 9466,
      "mile": 9467,
      "supposed": 9468,
      "Finan": 9469,
      "Gall": 9470,
      "ongoing": 9471,
      "highlight": 9472,
      "exposure": 9473,
      "rear": 9474,
      "resort": 9475,
      "Execut": 9476,
      "researchers": 9477,
      "revol": 9478,
      "pep": 9479,
      "boot": 9480,
      "Corpor": 9481,
      "Rest": 9482,
      "alcohol": 9483,
      "approv": 9484,
      "aked": 9485,
      "achel": 9486,
      "graphic": 9487,
      "poker": 9488,
      "spiritual": 9489,
      "Kr": 9490,
      "ii": 9491,
      "zo": 9492,
      "olic": 9493,
      "regional": 9494,
      "facilit": 9495,
      "Cross": 9496,
      "ias": 9497,
      "beer": 9498,
      "ember": 9499,
      "Though": 9500,
      "retire": 9501,
      "massive": 9502,
      "normally": 9503,
      "kins": 9504,
      "ighter": 9505,
      "banks": 9506,
      "witness": 9507,
      "attribut": 9508,
      "diam": 9509,
      "cher": 9510,
      "govern": 9511,
      "pod": 9512,
      "stim": 9513,
      "outstanding": 9514,
      "audi": 9515,
      "functional": 9516,
      "Looking": 9517,
      "Walk": 9518,
      "mainly": 9519,
      "performing": 9520,
      "Video": 9521,
      "Search": 9522,
      "justice": 9523,
      "ordered": 9524,
      "DC": 9525,
      "ua": 9526,
      "sus": 9527,
      "generate": 9528,
      "Cab": 9529,
      "bid": 9530,
      "affil": 9531,
      "capable": 9532,
      "linked": 9533,
      "lon": 9534,
      "airport": 9535,
      "managing": 9536,
      "conscious": 9537,
      "Cloud": 9538,
      "Code": 9539,
      "orgeous": 9540,
      "TA": 9541,
      "shire": 9542,
      "possibility": 9543,
      "gotten": 9544,
      "bonus": 9545,
      "Jef": 9546,
      "usage": 9547,
      "reporting": 9548,
      "Jul": 9549,
      "amoun": 9550,
      "Bed": 9551,
      "ray": 9552,
      "ration": 9553,
      "resto": 9554,
      "spin": 9555,
      "expenses": 9556,
      "absor": 9557,
      "risks": 9558,
      "Assist": 9559,
      "',": 9560,
      "married": 9561,
      "250": 9562,
      "nine": 9563,
      "stal": 9564,
      "workshop": 9565,
      "va": 9566,
      "Arab": 9567,
      "evol": 9568,
      "covering": 9569,
      "Pacific": 9570,
      "oll": 9571,
      "Jose": 9572,
      "Sho": 9573,
      "transition": 9574,
      "Should": 9575,
      "69": 9576,
      "LED": 9577,
      "mous": 9578,
      "ende": 9579,
      "compens": 9580,
      "Comple": 9581,
      "Bab": 9582,
      "cot": 9583,
      "Youn": 9584,
      "upcoming": 9585,
      "Unfortunately": 9586,
      "solve": 9587,
      "Russia": 9588,
      "atmosphere": 9589,
      "BO": 9590,
      "creates": 9591,
      "awa": 9592,
      "fundam": 9593,
      "neighborhood": 9594,
      "enforce": 9595,
      "enthus": 9596,
      "turning": 9597,
      "sured": 9598,
      "Dec": 9599,
      "television": 9600,
      "attached": 9601,
      "Bi": 9602,
      "Trust": 9603,
      "Financial": 9604,
      "alleg": 9605,
      "pregn": 9606,
      "visited": 9607,
      "iveness": 9608,
      "Support": 9609,
      "Ha": 9610,
      "objects": 9611,
      "Ow": 9612,
      "clothes": 9613,
      "Small": 9614,
      "estimated": 9615,
      "EC": 9616,
      "ered": 9617,
      "blind": 9618,
      "Marketing": 9619,
      "apparent": 9620,
      "constant": 9621,
      "authentic": 9622,
      "thesis": 9623,
      "orn": 9624,
      "stunning": 9625,
      "ensity": 9626,
      "discussed": 9627,
      "Ill": 9628,
      "crew": 9629,
      "string": 9630,
      "poll": 9631,
      "happening": 9632,
      "historic": 9633,
      "candidates": 9634,
      "contrast": 9635,
      "ja": 9636,
      "laugh": 9637,
      "agents": 9638,
      "exceed": 9639,
      "printed": 9640,
      "Nav": 9641,
      "resume": 9642,
      "Point": 9643,
      "Log": 9644,
      "VP": 9645,
      "Academy": 9646,
      "ram": 9647,
      "medicine": 9648,
      "fitness": 9649,
      "58": 9650,
      "sud": 9651,
      "county": 9652,
      "Night": 9653,
      "defense": 9654,
      "manufacturer": 9655,
      "gallery": 9656,
      "grab": 9657,
      "Ep": 9658,
      "ML": 9659,
      "expression": 9660,
      "atoes": 9661,
      "Boston": 9662,
      "recognize": 9663,
      "collaboration": 9664,
      "flavor": 9665,
      "tops": 9666,
      "folks": 9667,
      "favourite": 9668,
      "thin": 9669,
      "shots": 9670,
      "Exam": 9671,
      "sister": 9672,
      "reward": 9673,
      "align": 9674,
      "gear": 9675,
      "cute": 9676,
      "stopped": 9677,
      "Federal": 9678,
      "clar": 9679,
      "turns": 9680,
      "Martin": 9681,
      "duty": 9682,
      "Mexico": 9683,
      "TC": 9684,
      "placing": 9685,
      "Despite": 9686,
      "Royal": 9687,
      "Come": 9688,
      "religious": 9689,
      "tiny": 9690,
      "veter": 9691,
      "Islam": 9692,
      "referred": 9693,
      "zone": 9694,
      "oured": 9695,
      "worse": 9696,
      "ders": 9697,
      "dies": 9698,
      "Smart": 9699,
      "Four": 9700,
      "trouble": 9701,
      "rice": 9702,
      "ols": 9703,
      "2002": 9704,
      "musical": 9705,
      "Hom": 9706,
      "tack": 9707,
      "chapter": 9708,
      "loves": 9709,
      "keys": 9710,
      "engagement": 9711,
      "innovation": 9712,
      "Cup": 9713,
      "Prem": 9714,
      "enem": 9715,
      "Scot": 9716,
      "adventure": 9717,
      "prison": 9718,
      "ultural": 9719,
      "proven": 9720,
      "firmed": 9721,
      "Obama": 9722,
      "DVD": 9723,
      "fairly": 9724,
      "Cast": 9725,
      "Never": 9726,
      "sop": 9727,
      "incorpor": 9728,
      "whenever": 9729,
      "increases": 9730,
      "DR": 9731,
      "Pop": 9732,
      "vacation": 9733,
      "realized": 9734,
      "Cook": 9735,
      "boxes": 9736,
      "citizens": 9737,
      "attemp": 9738,
      "Equ": 9739,
      "iety": 9740,
      "desired": 9741,
      "hook": 9742,
      "arrive": 9743,
      "Canadian": 9744,
      "EP": 9745,
      "OK": 9746,
      "Chief": 9747,
      "entered": 9748,
      "collected": 9749,
      "rug": 9750,
      "uzz": 9751,
      "meals": 9752,
      "Jun": 9753,
      "Jud": 9754,
      "irty": 9755,
      "submitted": 9756,
      "investigation": 9757,
      "Him": 9758,
      "icts": 9759,
      "deploy": 9760,
      "filling": 9761,
      "explained": 9762,
      "platforms": 9763,
      "closure": 9764,
      "tells": 9765,
      "amber": 9766,
      "moist": 9767,
      "speech": 9768,
      "param": 9769,
      "passeng": 9770,
      "Current": 9771,
      "criminal": 9772,
      "versions": 9773,
      "eed": 9774,
      "fourth": 9775,
      "anticip": 9776,
      "inches": 9777,
      "Library": 9778,
      "Squ": 9779,
      "spons": 9780,
      "producing": 9781,
      "designer": 9782,
      "bone": 9783,
      "YouTube": 9784,
      "lists": 9785,
      "REE": 9786,
      "photography": 9787,
      "pharm": 9788,
      "Report": 9789,
      "blogg": 9790,
      "suggested": 9791,
      "behavi": 9792,
      "split": 9793,
      "improving": 9794,
      "59": 9795,
      "nament": 9796,
      "implementation": 9797,
      "reputation": 9798,
      "ko": 9799,
      "concepts": 9800,
      "writers": 9801,
      "Being": 9802,
      "recording": 9803,
      "monitoring": 9804,
      "07": 9805,
      "pun": 9806,
      "crack": 9807,
      "reland": 9808,
      "Bon": 9809,
      "acious": 9810,
      "passing": 9811,
      "lined": 9812,
      "pp": 9813,
      "nearby": 9814,
      "Middle": 9815,
      "encounter": 9816,
      "Victor": 9817,
      "Yet": 9818,
      "hidden": 9819,
      "colle": 9820,
      "Spanish": 9821,
      "Os": 9822,
      "cha": 9823,
      "Instagram": 9824,
      "CL": 9825,
      "Mult": 9826,
      "Coast": 9827,
      "Sky": 9828,
      "ansion": 9829,
      "domestic": 9830,
      "destroy": 9831,
      "Mike": 9832,
      "cure": 9833,
      "Teach": 9834,
      "Proper": 9835,
      "lish": 9836,
      "sters": 9837,
      "unable": 9838,
      "embr": 9839,
      "Right": 9840,
      "izer": 9841,
      "availability": 9842,
      "trends": 9843,
      "controlled": 9844,
      "Ox": 9845,
      "offices": 9846,
      "mac": 9847,
      "weet": 9848,
      "Angeles": 9849,
      "satisfaction": 9850,
      "sudden": 9851,
      "56": 9852,
      "etime": 9853,
      "factory": 9854,
      "pression": 9855,
      "dealing": 9856,
      "https": 9857,
      "preparation": 9858,
      "ophy": 9859,
      "deposit": 9860,
      "bodies": 9861,
      "bird": 9862,
      "Sea": 9863,
      "planet": 9864,
      "Italy": 9865,
      "cam": 9866,
      "fits": 9867,
      "makers": 9868,
      "losing": 9869,
      "delay": 9870,
      "talent": 9871,
      "concerning": 9872,
      "achieved": 9873,
      "roads": 9874,
      "contribute": 9875,
      "Kar": 9876,
      "vibr": 9877,
      "shad": 9878,
      "subsequ": 9879,
      "amps": 9880,
      "eligible": 9881,
      "CON": 9882,
      "museum": 9883,
      "forth": 9884,
      "seed": 9885,
      "DS": 9886,
      "border": 9887,
      "narrow": 9888,
      "iano": 9889,
      "transl": 9890,
      "specialist": 9891,
      "dust": 9892,
      "gor": 9893,
      "Remember": 9894,
      "crisis": 9895,
      "Kitchen": 9896,
      "shirt": 9897,
      "cerem": 9898,
      "listening": 9899,
      "filed": 9900,
      "password": 9901,
      "primarily": 9902,
      "Hen": 9903,
      "Sports": 9904,
      "dangerous": 9905,
      "Young": 9906,
      "Eas": 9907,
      "ceiling": 9908,
      "Phys": 9909,
      "illiant": 9910,
      "killed": 9911,
      "tall": 9912,
      "tone": 9913,
      "portfol": 9914,
      "scholar": 9915,
      "resistance": 9916,
      "currency": 9917,
      "06": 9918,
      "hers": 9919,
      "tu": 9920,
      "eler": 9921,
      "athlet": 9922,
      "removal": 9923,
      "57": 9924,
      "flour": 9925,
      "2001": 9926,
      "fishing": 9927,
      "birds": 9928,
      "Would": 9929,
      "mixture": 9930,
      "attractive": 9931,
      "Penn": 9932,
      "Still": 9933,
      "electrical": 9934,
      "revealed": 9935,
      "mph": 9936,
      "enables": 9937,
      "stro": 9938,
      "guitar": 9939,
      "script": 9940,
      "ava": 9941,
      "formal": 9942,
      "generated": 9943,
      "shock": 9944,
      "widely": 9945,
      "Bath": 9946,
      "Ireland": 9947,
      "ultimate": 9948,
      "RA": 9949,
      "Three": 9950,
      "grew": 9951,
      "bottle": 9952,
      "originally": 9953,
      "?\"": 9954,
      "pleased": 9955,
      "transform": 9956,
      "slot": 9957,
      "History": 9958,
      "Fac": 9959,
      "tro": 9960,
      "WA": 9961,
      "stable": 9962,
      "weekly": 9963,
      "dynamic": 9964,
      "CI": 9965,
      "impossible": 9966,
      "suspect": 9967,
      "believed": 9968,
      "clock": 9969,
      "hill": 9970,
      "stainless": 9971,
      "Cir": 9972,
      "western": 9973,
      "yesterday": 9974,
      "aland": 9975,
      "relief": 9976,
      "invited": 9977,
      "yards": 9978,
      "----": 9979,
      "bars": 9980,
      "east": 9981,
      "crime": 9982,
      "03": 9983,
      "Low": 9984,
      "ource": 9985,
      "viewed": 9986,
      "immediate": 9987,
      "Store": 9988,
      "Jim": 9989,
      "raw": 9990,
      "lete": 9991,
      "seats": 9992,
      "corn": 9993,
      "liked": 9994,
      "clothing": 9995,
      "capture": 9996,
      "____": 9997,
      "likes": 9998,
      "principles": 9999,
      "WE": 10000,
      "indeed": 10001,
      "eder": 10002,
      "Tech": 10003,
      "Such": 10004,
      "array": 10005,
      "winner": 10006,
      "Website": 10007,
      "component": 10008,
      "episode": 10009,
      "Select": 10010,
      "cuit": 10011,
      "statements": 10012,
      "crowd": 10013,
      "venture": 10014,
      "drugs": 10015,
      "attended": 10016,
      "marked": 10017,
      "architecture": 10018,
      "attorney": 10019,
      "succeed": 10020,
      "Virginia": 10021,
      "Son": 10022,
      "compat": 10023,
      "Systems": 10024,
      "lucky": 10025,
      "Mur": 10026,
      "Times": 10027,
      "ingly": 10028,
      "champion": 10029,
      "Cond": 10030,
      "crop": 10031,
      "sections": 10032,
      "adapt": 10033,
      "agues": 10034,
      "decade": 10035,
      "Happy": 10036,
      "Dun": 10037,
      "ardens": 10038,
      "facts": 10039,
      "rolling": 10040,
      "Ele": 10041,
      "Iran": 10042,
      "adds": 10043,
      "mont": 10044,
      "enterprise": 10045,
      "Local": 10046,
      "Additionally": 10047,
      "compliance": 10048,
      "Give": 10049,
      "pricing": 10050,
      "Step": 10051,
      "nights": 10052,
      "tip": 10053,
      "indu": 10054,
      "aze": 10055,
      "flood": 10056,
      "sustainable": 10057,
      "Tha": 10058,
      "tap": 10059,
      "codes": 10060,
      "02": 10061,
      "EX": 10062,
      "Mir": 10063,
      "convent": 10064,
      "elled": 10065,
      "spark": 10066,
      "heads": 10067,
      "Executive": 10068,
      "Sty": 10069,
      "contest": 10070,
      "Police": 10071,
      "Bow": 10072,
      "yo": 10073,
      "Secret": 10074,
      "Lee": 10075,
      "officer": 10076,
      "taxes": 10077,
      "ensuring": 10078,
      "shift": 10079,
      "blank": 10080,
      "figures": 10081,
      "streets": 10082,
      "iated": 10083,
      "tab": 10084,
      "Need": 10085,
      "resulting": 10086,
      "division": 10087,
      "transportation": 10088,
      "volunteers": 10089,
      "Page": 10090,
      "cue": 10091,
      "cock": 10092,
      "buyers": 10093,
      "terror": 10094,
      "evaluation": 10095,
      "accomplish": 10096,
      "eller": 10097,
      "engines": 10098,
      "Cover": 10099,
      "Put": 10100,
      "dia": 10101,
      "Thus": 10102,
      "compass": 10103,
      "newsp": 10104,
      "consists": 10105,
      "Spirit": 10106,
      "interpret": 10107,
      "Cred": 10108,
      "Farm": 10109,
      "Sl": 10110,
      "coal": 10111,
      "extension": 10112,
      "routine": 10113,
      "guidelines": 10114,
      "lessons": 10115,
      "smile": 10116,
      "Perhaps": 10117,
      "channels": 10118,
      "scheme": 10119,
      "Hospital": 10120,
      "Little": 10121,
      "communicate": 10122,
      "basically": 10123,
      "honor": 10124,
      "recipes": 10125,
      "amounts": 10126,
      "purchasing": 10127,
      "reducing": 10128,
      "tomorrow": 10129,
      "Quest": 10130,
      "Ef": 10131,
      "Fund": 10132,
      "math": 10133,
      "pace": 10134,
      "counsel": 10135,
      "programming": 10136,
      "obtained": 10137,
      "width": 10138,
      "Tax": 10139,
      "stery": 10140,
      "authors": 10141,
      "structures": 10142,
      "Vo": 10143,
      "render": 10144,
      "vul": 10145,
      "describe": 10146,
      "grain": 10147,
      "somewhere": 10148,
      "authorities": 10149,
      "scenar": 10150,
      "Summer": 10151,
      "intr": 10152,
      "breast": 10153,
      "Ros": 10154,
      "bury": 10155,
      "printing": 10156,
      "introduction": 10157,
      "anes": 10158,
      "ifications": 10159,
      "signal": 10160,
      "stored": 10161,
      "chart": 10162,
      "seller": 10163,
      "magazine": 10164,
      "surprised": 10165,
      "Connect": 10166,
      "persons": 10167,
      "magn": 10168,
      "eco": 10169,
      "kno": 10170,
      "isk": 10171,
      "engaged": 10172,
      "sensitive": 10173,
      "Retr": 10174,
      "dishes": 10175,
      "candidate": 10176,
      "Ref": 10177,
      "VE": 10178,
      "dental": 10179,
      "lens": 10180,
      "jection": 10181,
      "swimming": 10182,
      "flower": 10183,
      "awarded": 10184,
      "FO": 10185,
      "assum": 10186,
      "conclus": 10187,
      "joining": 10188,
      "developers": 10189,
      "industries": 10190,
      "eggs": 10191,
      "120": 10192,
      "YOU": 10193,
      "fest": 10194,
      "adequ": 10195,
      "Friend": 10196,
      "packed": 10197,
      "fal": 10198,
      "youn": 10199,
      "lymp": 10200,
      "noise": 10201,
      "scope": 10202,
      "hotels": 10203,
      "SW": 10204,
      "consideration": 10205,
      "millions": 10206,
      "Cha": 10207,
      "gorgeous": 10208,
      "wich": 10209,
      "arrest": 10210,
      "hydro": 10211,
      "LLC": 10212,
      "Haw": 10213,
      "Ray": 10214,
      "cow": 10215,
      "pto": 10216,
      "liber": 10217,
      "manufacturers": 10218,
      "utch": 10219,
      "Insurance": 10220,
      "Tele": 10221,
      "officers": 10222,
      "worthy": 10223,
      "Ohio": 10224,
      "97": 10225,
      "hr": 10226,
      "faculty": 10227,
      "enjoying": 10228,
      "connections": 10229,
      "Space": 10230,
      "hospit": 10231,
      "Daniel": 10232,
      "Zealand": 10233,
      "lyn": 10234,
      "drawn": 10235,
[...]
