{
  "version": "1.0",
  "truncation": null,
  "padding": null,
  "added_tokens": [
    {
      "id": 0,
      "content": "<UNK>",
      "single_word": false,
      "lstrip": false,
      "rstrip": false,
      "normalized": false,
      "special": true
    },
    {
      "id": 1,
      "content": "<PAD>",
      "single_word": false,
      "lstrip": false,
      "rstrip": false,
      "normalized": false,
      "special": true
    },
    {
      "id": 2,
      "content": "<s>",
      "single_word": false,
      "lstrip": false,
      "rstrip": false,
      "normalized": false,
      "special": true
    },
    {
      "id": 3,
      "content": "<s/>",
      "single_word": false,
      "lstrip": false,
      "rstrip": false,
      "normalized": false,
      "special": true
    }
  ],
  "normalizer": null,
  "pre_tokenizer": {
    "type": "Whitespace"
  },
  "post_processor": null,
  "decoder": null,
  "model": {
    "type": "Unigram",
    "unk_id": 0,
    "vocab": [
      [
        "<UNK>",
        0.0
      ],
      [
        "<PAD>",
        0.0
      ],
      [
        "<s>",
        0.0
      ],
      [
        "<s/>",
        0.0
      ],
      [
        "s",
        -3.013816404188022
      ],
      [
        ".",
        -3.2808793358190496
      ],
      [
        ",",
        -3.46178500243243
      ],
      [
        "the",
        -3.4653370778021237
      ],
      [
        "a",
        -3.5078783979187307
      ],
      [
        "and",
        -3.910016671129851
      ],
      [
        "to",
        -3.9319021303034063
      ],
      [
        "t",
        -3.9784221282217924
      ],
      [
        "of",
        -4.1006274329305885
      ],
      [
        "d",
        -4.189589595285785
      ],
      [
        "e",
        -4.217320761849139
      ],
      [
        "in",
        -4.31775813394167
      ],
      [
        "i",
        -4.455941154797339
      ],
      [
        "is",
        -4.723582717313754
      ],
      [
        "o",
        -4.740285110358737
      ],
      [
        "I",
        -4.74965424915924
      ],
      [
        "for",
        -4.9132331794378175
      ],
      [
        "-",
        -4.9367848560860885
      ],
      [
        "on",
        -4.976655823931891
      ],
      [
        "ing",
        -4.9976379193758635
      ],
      [
        "you",
        -5.10383171425098
      ],
      [
        "n",
        -5.105359201748117
      ],
      [
        "that",
        -5.107660878510842
      ],
      [
        "with",
        -5.217748170937227
      ],
      [
        "’",
        -5.313404968257547
      ],
      [
        "y",
        -5.336377086064486
      ],
      [
        "are",
        -5.386200075294408
      ],
      [
        "be",
        -5.408306718326889
      ],
      [
        "r",
        -5.457329451949716
      ],
      [
        "or",
        -5.465832840002182
      ],
      [
        "The",
        -5.480953059298736
      ],
      [
        "ly",
        -5.511371123224482
      ],
      [
        "f",
        -5.581605653595185
      ],
      [
        ">",
        -5.592254754720564
      ],
      [
        "<",
        -5.609971680988265
      ],
      [
        "m",
        -5.636549193126045
      ],
      [
        "your",
        -5.658378074973351
      ],
      [
        "an",
        -5.662073625850203
      ],
      [
        "'",
        -5.674228965164682
      ],
      [
        "/",
        -5.792135507777761
      ],
      [
        "A",
        -5.795068505870219
      ],
      [
        "have",
        -5.804291683496455
      ],
      [
        "(",
        -5.840235030679885
      ],
      [
        "was",
        -5.883089955085058
      ],
      [
        "from",
        -5.885972709831334
      ],
      [
        "this",
        -5.88926805682641
      ],
      [
        "by",
        -5.898120095186034
      ],
      [
        "can",
        -5.903062886554185
      ],
      [
        "will",
        -5.949838325829862
      ],
      [
        "l",
        -5.994660330080414
      ],
      [
        "not",
        -6.080520986300433
      ],
      [
        ":",
        -6.131041935605449
      ],
      [
        "we",
        -6.142647458781303
      ],
      [
        "h",
        -6.156363330422046
      ],
      [
        "c",
        -6.189525748478513
      ],
      [
        "S",
        -6.195052459566316
      ],
      [
        "all",
        -6.220340244173581
      ],
      [
        "p",
        -6.247457793843607
      ],
      [
        "\"",
        -6.252991041283499
      ],
      [
        "re",
        -6.29596215145979
      ],
      [
        "has",
        -6.301425995025927
      ],
      [
        "our",
        -6.310542129128116
      ],
      [
        "!",
        -6.319579955929839
      ],
      [
        ")",
        -6.330163941452298
      ],
      [
        "g",
        -6.347400964214275
      ],
      [
        "u",
        -6.358422875072931
      ],
      [
        "one",
        -6.361518388879206
      ],
      [
        "more",
        -6.412493527739622
      ],
      [
        "?",
        -6.4380300068665335
      ],
      [
        "but",
        -6.4390137987541145
      ],
      [
        "their",
        -6.450262911040069
      ],
      [
        "b",
        -6.4647903646350855
      ],
      [
        "up",
        -6.473011622106654
      ],
      [
        "out",
        -6.521615133289611
      ],
      [
        "time",
        -6.535358919870909
      ],
      [
        "my",
        -6.5644267784407635
      ],
      [
        "about",
        -6.596315490101107
      ],
      [
        "which",
        -6.602621010609681
      ],
      [
        "they",
        -6.603277548603774
      ],
      [
        "This",
        -6.695099588877849
      ],
      [
        "also",
        -6.698599310122887
      ],
      [
        "he",
        -6.701541193084754
      ],
      [
        "M",
        -6.712223437507431
      ],
      [
        "We",
        -6.714272294240967
      ],
      [
        "1",
        -6.728134774686412
      ],
      [
        "2",
        -6.779391281089888
      ],
      [
        "In",
        -6.788897529137234
      ],
      [
        "me",
        -6.7982537193467625
      ],
      [
        "other",
        -6.817974790822934
      ],
      [
        "who",
        -6.818766207296253
      ],
      [
        "like",
        -6.819308637969806
      ],
      [
        "us",
        -6.823818781915959
      ],
      [
        "“",
        -6.84085284041581
      ],
      [
        "his",
        -6.8522279259558605
      ],
      [
        "when",
        -6.888451215514037
      ],
      [
        "get",
        -6.914429732724745
      ],
      [
        "been",
        -6.916390382955715
      ],
      [
        "new",
        -6.923546475643938
      ],
      [
        "some",
        -6.924973655054913
      ],
      [
        "k",
        -6.932288791577447
      ],
      [
        "what",
        -6.942589794601993
      ],
      [
        "C",
        -6.944362777384248
      ],
      [
        "over",
        -6.959077798891995
      ],
      [
        "B",
        -6.959687980365043
      ],
      [
        "P",
        -6.9661275882077085
      ],
      [
        "any",
        -6.972452931667416
      ],
      [
        "al",
        -7.001430709274386
      ],
      [
        "3",
        -7.00698801914764
      ],
      [
        "D",
        -7.007457327048572
      ],
      [
        "them",
        -7.0126147736246605
      ],
      [
        "were",
        -7.017752566093641
      ],
      [
        "would",
        -7.018353885004457
      ],
      [
        "T",
        -7.0196496748551205
      ],
      [
        "there",
        -7.027108407501624
      ],
      [
        "had",
        -7.027203442227444
      ],
      [
        "her",
        -7.045017069388566
      ],
      [
        "just",
        -7.048240072599661
      ],
      [
        ";",
        -7.06141459774355
      ],
      [
        "need",
        -7.062329970677672
      ],
      [
        "how",
        -7.067463469202924
      ],
      [
        "make",
        -7.076622172103315
      ],
      [
        "work",
        -7.080084085869144
      ],
      [
        "its",
        -7.086739895160015
      ],
      [
        "use",
        -7.097524730009539
      ],
      [
        "You",
        -7.098779093643852
      ],
      [
        "than",
        -7.111429309113982
      ],
      [
        "E",
        -7.116193916867184
      ],
      [
        "–",
        -7.13054482236768
      ],
      [
        "well",
        -7.1487346614039815
      ],
      [
        "people",
        -7.153149526183881
      ],
      [
        "most",
        -7.169049866379867
      ],
      [
        "way",
        -7.181564610417357
      ],
      [
        "5",
        -7.1900849903226955
      ],
      [
        "may",
        -7.2206880118399255
      ],
      [
        "R",
        -7.224053713433511
      ],
      [
        "4",
        -7.224161453025555
      ],
      [
        "only",
        -7.244551344349743
      ],
      [
        "w",
        -7.24656996535964
      ],
      [
        "first",
        -7.2487661735394475
      ],
      [
        "G",
        -7.253189810294668
      ],
      [
        "able",
        -7.255892687679582
      ],
      [
        "very",
        -7.297639670211105
      ],
      [
        "help",
        -7.301605874171068
      ],
      [
        "”",
        -7.312737222286595
      ],
      [
        ").",
        -7.314780747966685
      ],
      [
        "year",
        -7.316276528206176
      ],
      [
        "these",
        -7.317803708587562
      ],
      [
        "day",
        -7.321812069341275
      ],
      [
        "where",
        -7.345130401681697
      ],
      [
        "ve",
        -7.353686069895064
      ],
      [
        "through",
        -7.3704010532979325
      ],
      [
        "v",
        -7.380114523736431
      ],
      [
        "many",
        -7.386328480650892
      ],
      [
        "two",
        -7.398933111445444
      ],
      [
        "good",
        -7.39972506912812
      ],
      [
        "K",
        -7.401581750810838
      ],
      [
        "back",
        -7.4016779790399685
      ],
      [
        "W",
        -7.402589541968142
      ],
      [
        "know",
        -7.41368258124297
      ],
      [
        "even",
        -7.419939617361312
      ],
      [
        "now",
        -7.42255385024605
      ],
      [
        "L",
        -7.424319164633339
      ],
      [
        "F",
        -7.428648332479241
      ],
      [
        "into",
        -7.434572543895053
      ],
      [
        "H",
        -7.437398538059725
      ],
      [
        "N",
        -7.439009819812968
      ],
      [
        "ies",
        -7.4454382317400505
      ],
      [
        "best",
        -7.466081602189117
      ],
      [
        "take",
        -7.480826143904094
      ],
      [
        "home",
        -7.483696342023796
      ],
      [
        "10",
        -7.4937032417108576
      ],
      [
        "want",
        -7.497766912671731
      ],
      [
        "&",
        -7.501887870110567
      ],
      [
        "should",
        -7.510441464247084
      ],
      [
        "years",
        -7.513364204021931
      ],
      [
        "For",
        -7.515546469579137
      ],
      [
        "such",
        -7.517887582397302
      ],
      [
        "after",
        -7.532829923277681
      ],
      [
        "He",
        -7.539719850977306
      ],
      [
        "could",
        -7.548381847848203
      ],
      [
        "much",
        -7.556110054425362
      ],
      [
        "ll",
        -7.557064964447823
      ],
      [
        "great",
        -7.591104879036106
      ],
      [
        "made",
        -7.596785505199916
      ],
      [
        "high",
        -7.605128977337886
      ],
      [
        "information",
        -7.605844043842419
      ],
      [
        "6",
        -7.615594957012215
      ],
      [
        "find",
        -7.617921654067315
      ],
      [
        "right",
        -7.618421648417886
      ],
      [
        "because",
        -7.6401679599117625
      ],
      [
        "said",
        -7.644688576724425
      ],
      [
        "look",
        -7.650920134760835
      ],
      [
        "here",
        -7.653166565432791
      ],
      [
        "used",
        -7.6572832241108095
      ],
      [
        "life",
        -7.66911212326934
      ],
      [
        "place",
        -7.681852095111257
      ],
      [
        "she",
        -7.689614961527411
      ],
      [
        "part",
        -7.692464649674113
      ],
      [
        "$",
        -7.693741892580398
      ],
      [
        "business",
        -7.697293433449289
      ],
      [
        "each",
        -7.697818819573541
      ],
      [
        "And",
        -7.697940039263804
      ],
      [
        "U",
        -7.698154616098103
      ],
      [
        "those",
        -7.69848189734773
      ],
      [
        "O",
        -7.704173675468978
      ],
      [
        "before",
        -7.715190268807733
      ],
      [
        "end",
        -7.716327459027118
      ],
      [
        "own",
        -7.728267882401626
      ],
      [
        "7",
        -7.730235244958369
      ],
      [
        "being",
        -7.73034665354464
      ],
      [
        "x",
        -7.732643361380765
      ],
      [
        "There",
        -7.738112805894783
      ],
      [
        "long",
        -7.745303207234912
      ],
      [
        "while",
        -7.754844598046892
      ],
      [
        "8",
        -7.756731568234944
      ],
      [
        "experience",
        -7.762920304323201
      ],
      [
        "free",
        -7.7632493736078185
      ],
      [
        "down",
        -7.772622299235907
      ],
      [
        "man",
        -7.77704974693833
      ],
      [
        "world",
        -7.778875663433677
      ],
      [
        "every",
        -7.778940487422187
      ],
      [
        "V",
        -7.779017023829759
      ],
      [
        "),",
        -7.798442428861822
      ],
      [
        "J",
        -7.802289168663625
      ],
      [
        "But",
        -7.804149788985349
      ],
      [
        "around",
        -7.817800275138186
      ],
      [
        "don",
        -7.820614350233601
      ],
      [
        "under",
        -7.829393541823677
      ],
      [
        "To",
        -7.833690059233508
      ],
      [
        "per",
        -7.835221394437859
      ],
      [
        "different",
        -7.844184094835006
      ],
      [
        "off",
        -7.846132279206463
      ],
      [
        "love",
        -7.848230473494123
      ],
      [
        "less",
        -7.848847127480182
      ],
      [
        "z",
        -7.849018241578662
      ],
      [
        "ers",
        -7.852032840258445
      ],
      [
        "really",
        -7.853659265381161
      ],
      [
        "going",
        -7.859398971534869
      ],
      [
        "service",
        -7.870441628899096
      ],
      [
        "%",
        -7.870559036874237
      ],
      [
        "using",
        -7.873246073384584
      ],
      [
        "think",
        -7.873805716950185
      ],
      [
        "last",
        -7.879927912497067
      ],
      [
        "water",
        -7.886513320720759
      ],
      [
        "They",
        -7.912157587658612
      ],
      [
        "same",
        -7.923347145205568
      ],
      [
        "th",
        -7.925170183650904
      ],
      [
        "still",
        -7.927012186306186
      ],
      [
        "both",
        -7.927760312691138
      ],
      [
        "So",
        -7.9283748302412125
      ],
      [
        "available",
        -7.932922396487465
      ],
      [
        "support",
        -7.939543752406985
      ],
      [
        "lot",
        -7.947851832155671
      ],
      [
        "between",
        -7.9511980111032585
      ],
      [
        "start",
        -7.96029020733892
      ],
      [
        "come",
        -7.961383675150433
      ],
      [
        "—",
        -7.962800360094388
      ],
      [
        "20",
        -7.963696006003833
      ],
      [
        "number",
        -7.969399618352645
      ],
      [
        "com",
        -7.970424188562795
      ],
      [
        "system",
        -7.97049248890384
      ],
      [
        "What",
        -7.971498276747555
      ],
      [
        "ity",
        -7.976384015074931
      ],
      [
        "When",
        -7.98021574430893
      ],
      [
        "...",
        -7.980943031172519
      ],
      [
        "company",
        -7.981661174149087
      ],
      [
        "New",
        -7.98601850159937
      ],
      [
        "team",
        -7.986315820572232
      ],
      [
        "him",
        -7.999566265687619
      ],
      [
        "sure",
        -8.00269553085914
      ],
      [
        "line",
        -8.01261770377357
      ],
      [
        "provide",
        -8.014473179393692
      ],
      [
        "data",
        -8.014978549511513
      ],
      [
        "include",
        -8.021322172329107
      ],
      [
        "including",
        -8.024292585567224
      ],
      [
        "few",
        -8.033247950639886
      ],
      [
        "30",
        -8.041385184124671
      ],
      [
        "9",
        -8.045568995317947
      ],
      [
        "book",
        -8.04669511292983
      ],
      [
        "site",
        -8.062627592320991
      ],
      [
        "program",
        -8.06489937269956
      ],
      [
        "ever",
        -8.068303638237266
      ],
      [
        "ation",
        -8.069033163872847
      ],
      [
        "family",
        -8.07150965027948
      ],
      [
        "side",
        -8.073414366479572
      ],
      [
        "0",
        -8.074027038827024
      ],
      [
        "must",
        -8.074606902780605
      ],
      [
        "design",
        -8.078797452842743
      ],
      [
        "car",
        -8.079339313801196
      ],
      [
        "little",
        -8.083059813092683
      ],
      [
        "did",
        -8.085136998080943
      ],
      [
        "three",
        -8.08581343104038
      ],
      [
        "always",
        -8.092395625402048
      ],
      [
        "during",
        -8.099100293448927
      ],
      [
        "services",
        -8.09931442961632
      ],
      [
        "important",
        -8.10431823707099
      ],
      [
        "complete",
        -8.107409714080227
      ],
      [
        "Our",
        -8.10875668510466
      ],
      [
        "give",
        -8.109025953428649
      ],
      [
        "online",
        -8.10920374806336
      ],
      [
        "change",
        -8.112781477572636
      ],
      [
        "top",
        -8.114200355468038
      ],
      [
        "quality",
        -8.114971309362513
      ],
      [
        "Y",
        -8.117642559583297
      ],
      [
        "things",
        -8.120279504948163
      ],
      [
        "based",
        -8.12534971927576
      ],
      [
        "without",
        -8.12956889318733
      ],
      [
        "does",
        -8.13059345767245
      ],
      [
        "order",
        -8.133587684400641
      ],
      [
        "better",
        -8.134178402877982
      ],
      [
        "course",
        -8.136704288918693
      ],
      [
        "try",
        -8.147536764460337
      ],
      [
        "All",
        -8.15112740884578
      ],
      [
        "12",
        -8.155591494697095
      ],
      [
        "ar",
        -8.16187698496243
      ],
      [
        "small",
        -8.173541589625192
      ],
      [
        "group",
        -8.175208486135483
      ],
      [
        "found",
        -8.177335805602393
      ],
      [
        "something",
        -8.178224589283165
      ],
      [
        "full",
        -8.17824160607185
      ],
      [
        "live",
        -8.178307383654534
      ],
      [
        "process",
        -8.183125581919517
      ],
      [
        "next",
        -8.186419324929256
      ],
      [
        "old",
        -8.190865952202358
      ],
      [
        "local",
        -8.192193167515866
      ],
      [
        "might",
        -8.193495049328005
      ],
      [
        "000",
        -8.194629064972604
      ],
      [
        "19",
        -8.19703171877988
      ],
      [
        "current",
        -8.207480778542054
      ],
      [
        "Re",
        -8.210010786531852
      ],
      [
        "school",
        -8.211981338309965
      ],
      [
        "keep",
        -8.215901380138174
      ],
      [
        "An",
        -8.216081395048969
      ],
      [
        "With",
        -8.218874510676194
      ],
      [
        "X",
        -8.222919837116827
      ],
      [
        "allow",
        -8.233761197458582
      ],
      [
        "15",
        -8.235518948434295
      ],
      [
        "another",
        -8.237547160488685
      ],
      [
        "She",
        -8.237967306877035
      ],
      [
        "No",
        -8.240580430044966
      ],
      [
        "That",
        -8.240627112790214
      ],
      [
        "age",
        -8.241553689826002
      ],
      [
        "since",
        -8.24210871716727
      ],
      [
        "making",
        -8.254289584816187
      ],
      [
        "point",
        -8.255550138752453
      ],
      [
        "week",
        -8.261738492116839
      ],
      [
        "offer",
        -8.263640438877616
      ],
      [
        "put",
        -8.263991693305169
      ],
      [
        "room",
        -8.26862197502428
      ],
      [
        "game",
        -8.26952783500639
      ],
      [
        "‘",
        -8.272309469456136
      ],
      [
        "let",
        -8.27404677666874
      ],
      [
        "looking",
        -8.275081582625864
      ],
      [
        "ch",
        -8.277029469874922
      ],
      [
        "working",
        -8.286777767995147
      ],
      [
        "house",
        -8.28796855708251
      ],
      [
        "website",
        -8.288093944030885
      ],
      [
        "got",
        -8.288226951882045
      ],
      [
        "care",
        -8.28826315906171
      ],
      [
        "feel",
        -8.290730925521368
      ],
      [
        "never",
        -8.290859420040045
      ],
      [
        "light",
        -8.294980189410502
      ],
      [
        "say",
        -8.298576253907598
      ],
      [
        "18",
        -8.298692984490872
      ],
      [
        "name",
        -8.302584945377747
      ],
      [
        "ur",
        -8.304452927595138
      ],
      [
        "state",
        -8.307387572081787
      ],
      [
        "post",
        -8.309165925733451
      ],
      [
        "open",
        -8.31106056612441
      ],
      [
        "market",
        -8.311485770553176
      ],
      [
        "real",
        -8.31662894917403
      ],
      [
        "person",
        -8.317103359931236
      ],
      [
        "11",
        -8.318729733442794
      ],
      [
        "students",
        -8.322871474950604
      ],
      [
        "case",
        -8.32587342929311
      ],
      [
        "large",
        -8.331356993824086
      ],
      [
        "second",
        -8.338462884212518
      ],
      [
        "How",
        -8.340110267194522
      ],
      [
        "today",
        -8.345098889999987
      ],
      [
        "My",
        -8.35511015369704
      ],
      [
        "project",
        -8.360796581297441
      ],
      [
        "create",
        -8.367599813427084
      ],
      [
        "term",
        -8.368580548994514
      ],
      [
        "children",
        -8.368679785955608
      ],
      [
        "body",
        -8.37012047548865
      ],
      [
        "page",
        -8.372119741660356
      ],
      [
        "enjoy",
        -8.372129346691462
      ],
      [
        "came",
        -8.377248795965741
      ],
      [
        "power",
        -8.377670283749492
      ],
      [
        "easy",
        -8.378318318916863
      ],
      [
        "products",
        -8.378936061722912
      ],
      [
        "read",
        -8.381415000254608
      ],
      [
        "Do",
        -8.384632739810664
      ],
      [
        "These",
        -8.387948240733682
      ],
      [
        "money",
        -8.396588043153397
      ],
      [
        "list",
        -8.397130242072238
      ],
      [
        "run",
        -8.40003120758769
      ],
      [
        "days",
        -8.401816750994477
      ],
      [
        "public",
        -8.406372955883388
      ],
      [
        "hard",
        -8.409061521110363
      ],
      [
        "level",
        -8.410024128101815
      ],
      [
        "On",
        -8.412232132759893
      ],
      [
        "together",
        -8.412242409293606
      ],
      [
        "ness",
        -8.417393350122087
      ],
      [
        "food",
        -8.417922409579035
      ],
      [
        "play",
        -8.421327858739104
      ],
      [
        "often",
        -8.428656003368689
      ],
      [
        "One",
        -8.43327259764138
      ],
      [
        "call",
        -8.43674841736242
      ],
      [
        "until",
        -8.446170257526987
      ],
      [
        "ive",
        -8.44957307778252
      ],
      [
        "j",
        -8.452783297304912
      ],
      [
        "access",
        -8.454788173537732
      ],
      [
        "health",
        -8.45480761347854
      ],
      [
        "away",
        -8.457655855616341
      ],
      [
        "again",
        -8.459142194210735
      ],
      [
        "cost",
        -8.45956399464217
      ],
      [
        "um",
        -8.460153251626135
      ],
      [
        "building",
        -8.46576981974656
      ],
      [
        "price",
        -8.466377915853624
      ],
      [
        "bit",
        -8.467114084028397
      ],
      [
        "community",
        -8.467627337509077
      ],
      [
        "possible",
        -8.470652281688167
      ],
      [
        "plan",
        -8.471729936602443
      ],
      [
        "personal",
        -8.472429684403036
      ],
      [
        "why",
        -8.473699076793066
      ],
      [
        "space",
        -8.4761821392009
      ],
      [
        "low",
        -8.480641151117752
      ],
      [
        "thing",
        -8.48333605076886
      ],
      [
        "add",
        -8.483690160964935
      ],
      [
        "air",
        -8.48390544495055
      ],
      [
        "50",
        -8.487659380724176
      ],
      [
        "ter",
        -8.491643385364569
      ],
      [
        "perfect",
        -8.493590413219108
      ],
      [
        "development",
        -8.49819436356953
      ],
      [
        "show",
        -8.501023985549413
      ],
      [
        "art",
        -8.502977952777938
      ],
      [
        "research",
        -8.504567381691192
      ],
      [
        "having",
        -8.508716404647902
      ],
      [
        "big",
        -8.508995955055767
      ],
      [
        "product",
        -8.51140784659943
      ],
      [
        "special",
        -8.511556308763934
      ],
      [
        "against",
        -8.522988565196316
      ],
      [
        "needs",
        -8.523046222655807
      ],
      [
        "within",
        -8.52326551662206
      ],
      [
        "become",
        -8.531400206600308
      ],
      [
        "ability",
        -8.545811164809333
      ],
      [
        "God",
        -8.546195357411982
      ],
      [
        "event",
        -8.547523728602297
      ],
      [
        "After",
        -8.548710282582467
      ],
      [
        "16",
        -8.550831401939268
      ],
      [
        "100",
        -8.551010908831286
      ],
      [
        "range",
        -8.55757190932409
      ],
      [
        "form",
        -8.558518296318352
      ],
      [
        "night",
        -8.5678521113338
      ],
      [
        "pre",
        -8.568027987770268
      ],
      [
        "job",
        -8.568838319400143
      ],
      [
        "check",
        -8.573187572690077
      ],
      [
        "25",
        -8.573249736891679
      ],
      [
        "contact",
        -8.57530989402997
      ],
      [
        "content",
        -8.57677232134728
      ],
      [
        "certain",
        -8.577097476401276
      ],
      [
        "close",
        -8.577205651451262
      ],
      [
        "social",
        -8.57957709377536
      ],
      [
        "value",
        -8.582698157114647
      ],
      [
        "means",
        -8.584553760782244
      ],
      [
        "board",
        -8.588803592777206
      ],
      [
        "field",
        -8.591155202171215
      ],
      [
        "pay",
        -8.597066996396787
      ],
      [
        "left",
        -8.600739595666893
      ],
      [
        ",”",
        -8.603208215371058
      ],
      [
        "14",
        -8.604919105647184
      ],
      [
        "ally",
        -8.606111699374981
      ],
      [
        "quick",
        -8.606606032366237
      ],
      [
        "model",
        -8.607880028180997
      ],
      [
        "head",
        -8.618644173290935
      ],
      [
        "believe",
        -8.618931210275429
      ],
      [
        "enough",
        -8.619850530552583
      ],
      [
        "University",
        -8.621343321526922
      ],
      [
        "far",
        -8.622375312091973
      ],
      [
        "specific",
        -8.624188785128611
      ],
      [
        "past",
        -8.624331264613101
      ],
      [
        "several",
        -8.624687081238607
      ],
      [
        "size",
        -8.626711350432824
      ],
      [
        "city",
        -8.626793613630293
      ],
      [
        "control",
        -8.626834705157094
      ],
      [
        "ment",
        -8.626848993194157
      ],
      [
        "video",
        -8.627460083861006
      ],
      [
        "reason",
        -8.627739791584847
      ],
      [
        "though",
        -8.627746036032063
      ],
      [
        "called",
        -8.629436595350194
      ],
      [
        "getting",
        -8.629545634374908
      ],
      [
        "million",
        -8.629818625298105
      ],
      [
        "bring",
        -8.63043074096939
      ],
      [
        "Z",
        -8.632428881000713
      ],
      [
        "across",
        -8.634400955548541
      ],
      [
        "men",
        -8.634795212575217
      ],
      [
        "already",
        -8.634899518462023
      ],
      [
        "wide",
        -8.644542869223969
      ],
      [
        "along",
        -8.645470559668082
      ],
      [
        "learn",
        -8.64920396510124
      ],
      [
        "2018",
        -8.649727761921788
      ],
      [
        "comes",
        -8.650507761767484
      ],
      [
        "share",
        -8.651925210876314
      ],
      [
        "country",
        -8.652149320829556
      ],
      [
        "future",
        -8.652675802950524
      ],
      [
        "kind",
        -8.658370150611086
      ],
      [
        "type",
        -8.658752845842091
      ],
      [
        "season",
        -8.659350576186661
      ],
      [
        "Your",
        -8.659417837167103
      ],
      [
        "example",
        -8.665679157948741
      ],
      [
        "short",
        -8.666112937847664
      ],
      [
        "hours",
        -8.668351639226508
      ],
      [
        "24",
        -8.670428366617358
      ],
      [
        "below",
        -8.670915896156345
      ],
      [
        "brand",
        -8.672243083429228
      ],
      [
        "doing",
        -8.675926990306236
      ],
      [
        "ask",
        -8.67701664063063
      ],
      [
        "once",
        -8.677151266625133
      ],
      [
        "key",
        -8.678866639165781
      ],
      [
        "seem",
        -8.683329954223572
      ],
      [
        "fact",
        -8.683473855461143
      ],
      [
        "condition",
        -8.683618718703803
      ],
      [
        "professional",
        -8.688706922386283
      ],
      [
        "interest",
        -8.691783594959931
      ],
      [
        "understand",
        -8.694143529560845
      ],
      [
        "particular",
        -8.695827806951886
      ],
      [
        "17",
        -8.698035246032116
      ],
      [
        "visit",
        -8.699712409562691
      ],
      [
        "practice",
        -8.703463984727259
      ],
      [
        "companies",
        -8.70494459031637
      ],
      [
        "13",
        -8.705140563593034
      ],
      [
        "general",
        -8.707020704606956
      ],
      [
        "actually",
        -8.707375826051544
      ],
      [
        "government",
        -8.707621032505488
      ],
      [
        "done",
        -8.708090846632695
      ],
      [
        "self",
        -8.710484993834624
      ],
      [
        "media",
        -8.710745023498411
      ],
      [
        "industry",
        -8.713062317869998
      ],
      [
        "benefit",
        -8.713202881087842
      ],
      [
        "fun",
        -8.714316327169344
      ],
      [
        "view",
        -8.71473046661798
      ],
      [
        "con",
        -8.716724379974215
      ],
      [
        "result",
        -8.719538805308378
      ],
      [
        "music",
        -8.720102542691228
      ],
      [
        "rate",
        -8.720680395531547
      ],
      [
        "started",
        -8.721719683886256
      ],
      [
        "known",
        -8.723309311137548
      ],
      [
        "problem",
        -8.724913249540684
      ],
      [
        "simple",
        -8.725008734010377
      ],
      [
        "Howeve",
        -8.726706033741497
      ],
      [
        "issue",
        -8.72678937067869
      ],
      [
        "US",
        -8.728447722594723
      ],
      [
        "American",
        -8.7298023359779
      ],
      [
        "Co",
        -8.730065251366144
      ],
      [
        "please",
        -8.732498677117967
      ],
      [
        "four",
        -8.732511913817849
      ],
      [
        "style",
        -8.736877171379927
      ],
      [
        "bar",
        -8.737014438912743
      ],
      [
        "ex",
        -8.738776968155243
      ],
      [
        "amount",
        -8.73927616784675
      ],
      [
        "mind",
        -8.740592171003644
      ],
      [
        "email",
        -8.741355416180003
      ],
      [
        "story",
        -8.743400814674049
      ],
      [
        "performance",
        -8.743989488954748
      ],
      [
        "beautiful",
        -8.744901849718056
      ],
      [
        "study",
        -8.74495993399675
      ],
      [
        "least",
        -8.749320208999354
      ],
      [
        "early",
        -8.749928732555281
      ],
      [
        "technology",
        -8.752311984515373
      ],
      [
        "didn",
        -8.756037545890164
      ],
      [
        "oil",
        -8.756178459901681
      ],
      [
        "hope",
        -8.757664628745353
      ],
      [
        "due",
        -8.75828060600595
      ],
      [
        "account",
        -8.758349890323274
      ],
      [
        "single",
        -8.758960682745997
      ],
      [
        "month",
        -8.760259096899905
      ],
      [
        "minutes",
        -8.76161870289465
      ],
      [
        "hear",
        -8.762540428009805
      ],
      [
        "near",
        -8.763271775786285
      ],
      [
        "offers",
        -8.764345439101419
      ],
      [
        "purchase",
        -8.769522006932451
      ],
      [
        "either",
        -8.76975840166366
      ],
      [
        "doesn",
        -8.773152415728811
      ],
      [
        "ensure",
        -8.773361351615737
      ],
      [
        "tell",
        -8.775510062661743
      ],
      [
        "members",
        -8.776290242585642
      ],
      [
        "won",
        -8.779179939466754
      ],
      [
        "Q",
        -8.780013564001402
      ],
      [
        "customers",
        -8.781648250656529
      ],
      [
        "phone",
        -8.783417728498229
      ],
      [
        "everything",
        -8.785474147759972
      ],
      [
        "report",
        -8.785530879103787
      ],
      [
        "above",
        -8.785776046050188
      ],
      [
        "40",
        -8.785969366802776
      ],
      [
        "law",
        -8.790474992063467
      ],
      [
        "ary",
        -8.791258290626487
      ],
      [
        "Al",
        -8.793604100908414
      ],
      [
        "property",
        -8.798202337744117
      ],
      [
        "leave",
        -8.798393035186725
      ],
      [
        "drive",
        -8.800864514729058
      ],
      [
        "front",
        -8.802403540063079
      ],
      [
        "features",
        -8.804209343152392
      ],
      [
        "ago",
        -8.807648604831392
      ],
      [
        "center",
        -8.80903826348926
      ],
      [
        "risk",
        -8.810321731492907
      ],
      [
        "half",
        -8.811588901918707
      ],
      [
        ".\"",
        -8.812601813181258
      ],
      [
        "tic",
        -8.813114962238998
      ],
      [
        "ance",
        -8.814284553713732
      ],
      [
        "training",
        -8.820353763744185
      ],
      [
        "led",
        -8.822722192727344
      ],
      [
        "web",
        -8.822731465012145
      ],
      [
        "require",
        -8.822735284967315
      ],
      [
        "given",
        -8.823134430667896
      ],
      [
        "class",
        -8.82367097297443
      ],
      [
        "+",
        -8.824831733409928
      ],
      [
        "ge",
        -8.82666488183836
      ],
      [
        "buy",
        -8.82960807652193
      ],
      [
        "Please",
        -8.831180556776756
      ],
      [
        "took",
        -8.83477600739838
      ],
      [
        "main",
        -8.835901470420616
      ],
      [
        "management",
        -8.836097625191918
      ],
      [
        "thought",
        -8.837087421172816
      ],
      [
        "download",
        -8.840951766548852
      ],
      [
        "makes",
        -8.84876360187435
      ],
      [
        "whole",
        -8.849211817541315
      ],
      [
        "version",
        -8.850082702323403
      ],
      [
        "build",
        -8.850671560400196
      ],
      [
        "idea",
        -8.850969801437143
      ],
      [
        "organization",
        -8.85106236680654
      ],
      [
        "_",
        -8.85119165894924
      ],
      [
        "total",
        -8.851666631470533
      ],
      [
        "required",
        -8.854042002675547
      ],
      [
        "2017",
        -8.854367410559108
      ],
      [
        "red",
        -8.854902558198692
      ],
      [
        "credit",
        -8.855160541363215
      ],
      [
        "[",
        -8.85571677165561
      ],
      [
        "months",
        -8.855978533247058
      ],
      [
        "unique",
        -8.856080769981741
      ],
      [
        "turn",
        -8.856160490916004
      ],
      [
        "rest",
        -8.857060996768965
      ],
      [
        "card",
        -8.859078248528295
      ],
      [
        "various",
        -8.861637876424679
      ],
      [
        "table",
        -8.861848815468283
      ],
      [
        "While",
        -8.863812779774845
      ],
      [
        "Be",
        -8.86423870695648
      ],
      [
        "issues",
        -8.864268935897925
      ],
      [
        "Pro",
        -8.866607488232816
      ],
      [
        "results",
        -8.866663109928462
      ],
      [
        "office",
        -8.867580866202665
      ],
      [
        "position",
        -8.867792945756197
      ],
      [
        "taking",
        -8.86803611713336
      ],
      [
        "writing",
        -8.86837520006733
      ],
      [
        "designed",
        -8.868631751767927
      ],
      [
        "date",
        -8.86905473661372
      ],
      [
        "player",
        -8.869207938386298
      ],
      [
        "Some",
        -8.87049846229238
      ],
      [
        "wait",
        -8.871920290083128
      ],
      [
        "questions",
        -8.873584514264309
      ],
      [
        "friends",
        -8.873672470033139
      ],
      [
        "following",
        -8.87564682547065
      ],
      [
        "addition",
        -8.876032877643242
      ],
      [
        "pro",
        -8.876874922147827
      ],
      [
        "cause",
        -8.878733891067686
      ],
      [
        "face",
        -8.879227244282278
      ],
      [
        "increase",
        -8.880738509322759
      ],
      [
        "00",
        -8.88459195333841
      ],
      [
        "focus",
        -8.884593663610453
      ],
      [
        "choose",
        -8.884662570863746
      ],
      [
        "customer",
        -8.885193330037671
      ],
      [
        "later",
        -8.888061727943306
      ],
      [
        "strong",
        -8.88816835294451
      ],
      [
        "human",
        -8.888885352212947
      ],
      [
        "app",
        -8.889017985174965
      ],
      [
        "living",
        -8.889217075046616
      ],
      [
        "someone",
        -8.890285068411897
      ],
      [
        "white",
        -8.890551111587248
      ],
      [
        "went",
        -8.890562289494856
      ],
      [
        "Now",
        -8.892068296083421
      ],
      [
        "consider",
        -8.893035205081363
      ],
      [
        "ling",
        -8.894541388776029
      ],
      [
        "La",
        -8.895314782674202
      ],
      [
        "method",
        -8.89534088651876
      ],
      [
        "natural",
        -8.898592119119721
      ],
      [
        "whether",
        -8.8994932544648
      ],
      [
        "child",
        -8.900008495753692
      ],
      [
        "financial",
        -8.900490658095904
      ],
      [
        "wood",
        -8.903081387347784
      ],
      [
        "common",
        -8.903537807492864
      ],
      [
        "says",
        -8.904000000307084
      ],
      [
        "times",
        -8.906617139818648
      ],
      [
        "five",
        -8.907908697335447
      ],
      [
        "#",
        -8.909355067302279
      ],
      [
        "individual",
        -8.910145788793365
      ],
      [
        "address",
        -8.91034527079185
      ],
      [
        "provides",
        -8.91040075400809
      ],
      [
        "energy",
        -8.91255425269859
      ],
      [
        "heart",
        -8.91372626657939
      ],
      [
        "original",
        -8.914466183258874
      ],
      [
        "test",
        -8.914652913993862
      ],
      [
        "areas",
        -8.916138688539608
      ],
      [
        "Can",
        -8.917469758316834
      ],
      [
        "clear",
        -8.918901320116833
      ],
      [
        "seen",
        -8.920244613154928
      ],
      [
        "May",
        -8.922606581747571
      ],
      [
        "move",
        -8.922848437004204
      ],
      [
        "staff",
        -8.92403065900863
      ],
      [
        "quite",
        -8.926252285611218
      ],
      [
        "watch",
        -8.927606561338145
      ],
      [
        "town",
        -8.927900442406989
      ],
      [
        "der",
        -8.92923171510898
      ],
      [
        "By",
        -8.931005082172387
      ],
      [
        "store",
        -8.93170854880528
      ],
      [
        "women",
        -8.932476389227869
      ],
      [
        "ent",
        -8.93406764310857
      ],
      [
        "2019",
        -8.934388918687098
      ],
      [
        "Dr",
        -8.934500195749603
      ],
      [
        "others",
        -8.93459852006386
      ],
      [
        "application",
        -8.934844173994868
      ],
      [
        "present",
        -8.936028634101325
      ],
      [
        "further",
        -8.937295762860067
      ],
      [
        "coming",
        -8.937401247321457
      ],
      [
        "simply",
        -8.939257538878902
      ],
      [
        "click",
        -8.939542703364665
      ],
      [
        "yourself",
        -8.941724469471234
      ],
      [
        "history",
        -8.942004954952157
      ],
      [
        "meet",
        -8.942441177077207
      ],
      [
        "late",
        -8.944570582258503
      ],
      [
        "follow",
        -8.9453850690285
      ],
      [
        "hold",
        -8.94572072834009
      ],
      [
        "blog",
        -8.94688032815697
      ],
      [
        "stay",
        -8.947285100519164
      ],
      [
        "treatment",
        -8.947303575855136
      ],
      [
        "paper",
        -8.947859955250816
      ],
      [
        "search",
        -8.948500371552132
      ],
      [
        "via",
        -8.95008850416851
      ],
      [
        "series",
        -8.952905502309957
      ],
      [
        "deal",
        -8.955083936227423
      ],
      [
        "baby",
        -8.958724928037649
      ],
      [
        "receive",
        -8.95968270324952
      ],
      [
        "potential",
        -8.961074312801292
      ],
      [
        "exist",
        -8.961133764434777
      ],
      [
        "knowledge",
        -8.961636183954333
      ],
      [
        "especiall",
        -8.96169792819747
      ],
      [
        "etc",
        -8.967757429830566
      ],
      [
        "major",
        -8.968719402776216
      ],
      [
        "image",
        -8.96919326173819
      ],
      [
        "film",
        -8.969280290552245
      ],
      [
        "period",
        -8.973143958497532
      ],
      [
        "software",
        -8.973174676306666
      ],
      [
        "file",
        -8.973600766364994
      ],
      [
        "related",
        -8.97432333024103
      ],
      [
        "box",
        -8.976215300035335
      ],
      [
        "South",
        -8.978149719767632
      ],
      [
        "provided",
        -8.979191935046462
      ],
      [
        "moment",
        -8.980806829244552
      ],
      [
        "review",
        -8.981247437368872
      ],
      [
        "options",
        -8.982077269637145
      ],
      [
        "popular",
        -8.98616031772812
      ],
      [
        "anything",
        -8.986669581743907
      ],
      [
        "United",
        -8.988370638967622
      ],
      [
        "everyone",
        -8.989372113318316
      ],
      [
        "travel",
        -8.990211399820424
      ],
      [
        "environment",
        -8.991349403525104
      ],
      [
        "worth",
        -8.993006839427508
      ],
      [
        "color",
        -8.996585183418595
      ],
      [
        "Here",
        -8.997226863296506
      ],
      [
        "cut",
        -9.002472997916055
      ],
      [
        "user",
        -9.002813258829756
      ],
      [
        "security",
        -9.004844327668273
      ],
      [
        "matter",
        -9.005186013109634
      ],
      [
        "question",
        -9.008332039045866
      ],
      [
        "action",
        -9.008972728011113
      ],
      [
        "City",
        -9.009748629652561
      ],
      [
        "added",
        -9.010056767550411
      ],
      [
        "60",
        -9.010383120823684
      ],
      [
        "Not",
        -9.01047512157643
      ],
      [
        "School",
        -9.012431740411767
      ],
      [
        "war",
        -9.013232839232991
      ],
      [
        "Le",
        -9.013825855949566
      ],
      [
        "Con",
        -9.01409236534236
      ],
      [
        "lead",
        -9.015149938541631
      ],
      [
        "role",
        -9.020357056175255
      ],
      [
        "code",
        -9.02388806513428
      ],
      [
        "State",
        -9.02498315735052
      ],
      [
        "almost",
        -9.025800201360823
      ],
      [
        "2016",
        -9.027631479497092
      ],
      [
        "young",
        -9.031069542589872
      ],
      [
        "black",
        -9.031628105052258
      ],
      [
        "clients",
        -9.034389507752124
      ],
      [
        "party",
        -9.035473590544473
      ],
      [
        "step",
        -9.035726581167836
      ],
      [
        "trip",
        -9.039019817116282
      ],
      [
        "created",
        -9.042190278348667
      ],
      [
        "built",
        -9.042298881568756
      ],
      [
        "effort",
        -9.043438660289889
      ],
      [
        "additional",
        -9.04435387884613
      ],
      [
        "*",
        -9.044359469585123
      ],
      [
        "Go",
        -9.045583715362584
      ],
      [
        "third",
        -9.046390917932609
      ],
      [
        "feature",
        -9.046523375424455
      ],
      [
        "link",
        -9.048585458835944
      ],
      [
        "wanted",
        -9.049702296833326
      ],
      [
        "walk",
        -9.050471146155479
      ],
      [
        "bad",
        -9.050795407844916
      ],
      [
        "ready",
        -9.05151602412983
      ],
      [
        "continue",
        -9.051523634624147
      ],
      [
        "however",
        -9.051719581767149
      ],
      [
        "section",
        -9.052348631396578
      ],
      [
        "details",
        -9.052553948141046
      ],
      [
        "subject",
        -9.052928410396733
      ],
      [
        "regard",
        -9.053886510482336
      ],
      [
        "purpose",
        -9.054858355926834
      ],
      [
        "sub",
        -9.055074055875874
      ],
      [
        "impact",
        -9.055569383405686
      ],
      [
        "else",
        -9.055740280524049
      ],
      [
        "couple",
        -9.05619641869975
      ],
      [
        "taken",
        -9.057261160111716
      ],
      [
        "clean",
        -9.058852847313798
      ],
      [
        "direct",
        -9.06007640936034
      ],
      [
        "tax",
        -9.06051197694036
      ],
      [
        "From",
        -9.061045669685539
      ],
      [
        "National",
        -9.064437979050256
      ],
      [
        "opportunity",
        -9.064619506196712
      ],
      [
        "among",
        -9.064692369636902
      ],
      [
        "]",
        -9.06506525760761
      ],
      [
        "throughout",
        -9.06655765820097
      ],
      [
        "similar",
        -9.069135502390807
      ],
      [
        "claim",
        -9.069354123218098
      ],
      [
        "charge",
        -9.069403419796844
      ],
      [
        "relationship",
        -9.06957374588972
      ],
      [
        "held",
        -9.071073208948064
      ],
      [
        "final",
        -9.071454216311091
      ],
      [
        "ver",
        -9.071465970443505
      ],
      [
        "fresh",
        -9.072864610152447
      ],
      [
        "forward",
        -9.072981899006095
      ],
      [
        "fully",
        -9.073289762521336
      ],
      [
        "success",
        -9.074410919879663
      ],
      [
        "contain",
        -9.074857816186977
      ],
      [
        "significant",
        -9.07585949542483
      ],
      [
        "private",
        -9.075859496484698
      ],
      [
        "problems",
        -9.077373210593285
      ],
      [
        "insurance",
        -9.077449758922667
      ],
      [
        "located",
        -9.077803991084552
      ],
      [
        "usually",
        -9.077982349140369
      ],
      [
        "soon",
        -9.078367222617823
      ],
      [
        "gan",
        -9.07929893271219
      ],
      [
        "works",
        -9.07961827251611
      ],
      [
        "member",
        -9.079722336162074
      ],
      [
        "events",
        -9.080042600335306
      ],
      [
        "nice",
        -9.08012582435684
      ],
      [
        "rather",
        -9.080879102473903
      ],
      [
        "word",
        -9.080887762696054
      ],
      [
        "North",
        -9.081050537071107
      ],
      [
        "learning",
        -9.082452893547414
      ],
      [
        "reduce",
        -9.084628973192372
      ],
      [
        "percent",
        -9.088771285184672
      ],
      [
        "systems",
        -9.089516985234585
      ],
      [
        "successful",
        -9.089696877008903
      ],
      [
        "save",
        -9.090461611672012
      ],
      [
        "activities",
        -9.090701627761023
      ],
      [
        "His",
        -9.09170989455567
      ],
      [
        "21",
        -9.093171816586977
      ],
      [
        "mean",
        -9.095041326492993
      ],
      [
        "skills",
        -9.095387024333593
      ],
      [
        "Home",
        -9.096844574601304
      ],
      [
        "ger",
        -9.097600896660763
      ],
      [
        "choice",
        -9.098111667852494
      ],
      [
        "outside",
        -9.098652853108089
      ],
      [
        "education",
        -9.100223275036697
      ],
      [
        "Just",
        -9.100610455186523
      ],
      [
        "ring",
        -9.10153154060707
      ],
      [
        "ideas",
        -9.102460138314074
      ],
      [
        "probably",
        -9.104033276656907
      ],
      [
        "users",
        -9.104050256246202
      ],
      [
        "effective",
        -9.104393137621022
      ],
      [
        "sales",
        -9.10455501159438
      ],
      [
        "production",
        -9.10472487869915
      ],
      [
        "World",
        -9.105055127990918
      ],
      [
        "cover",
        -9.106365952955205
      ],
      [
        "true",
        -9.109649249973266
      ],
      [
        "stop",
        -9.109846912153433
      ],
      [
        "safe",
        -9.11218679665317
      ],
      [
        "win",
        -9.11426081278555
      ],
      [
        "likely",
        -9.116118592704492
      ],
      [
        "ways",
        -9.116167326560038
      ],
      [
        "vi",
        -9.119136325719364
      ],
      [
        "22",
        -9.119770530990651
      ],
      [
        "screen",
        -9.121279940373574
      ],
      [
        "happy",
        -9.12356121851807
      ],
      [
        "Or",
        -9.124176462221106
      ],
      [
        "talk",
        -9.124309438024367
      ],
      [
        "employee",
        -9.124749455894984
      ],
      [
        "Day",
        -9.126897522402261
      ],
      [
        "easily",
        -9.12695895605152
      ],
      [
        "location",
        -9.127790160997153
      ],
      [
        "regular",
        -9.128572786421666
      ],
      [
        "sale",
        -9.129064801562063
      ],
      [
        "international",
        -9.13079489756961
      ],
      [
        "growth",
        -9.130940439720375
      ],
      [
        "article",
        -9.131943750465043
      ],
      [
        "marketing",
        -9.134782363313189
      ],
      [
        "John",
        -9.134785672403686
      ],
      [
        "reading",
        -9.136298509278305
      ],
      [
        "lower",
        -9.136330489263727
      ],
      [
        "legal",
        -9.137778433854686
      ],
      [
        "computer",
        -9.137783270466667
      ],
      [
        "network",
        -9.138749845702785
      ],
      [
        "road",
        -9.139464668028749
      ],
      [
        "modern",
        -9.139993101047224
      ],
      [
        "standard",
        -9.141316835205266
      ],
      [
        "difficult",
        -9.141521545311988
      ],
      [
        "chance",
        -9.141587555838976
      ],
      [
        "pretty",
        -9.141678467977599
      ],
      [
        "skin",
        -9.141704626174214
      ],
      [
        "80",
        -9.143396156578723
      ],
      [
        "Mar",
        -9.144434928531586
      ],
      [
        "material",
        -9.145221023078483
      ],
      [
        "door",
        -9.146028414318177
      ],
      [
        "weight",
        -9.146463191505308
      ],
      [
        "damage",
        -9.14877621593682
      ],
      [
        "higher",
        -9.148986172697652
      ],
      [
        "running",
        -9.150062030939457
      ],
      [
        "amazing",
        -9.150830336542171
      ],
      [
        "York",
        -9.150972542402297
      ],
      [
        "approach",
        -9.151805694413856
      ],
      [
        "collection",
        -9.151855126381042
      ],
      [
        "games",
        -9.152996845459278
      ],
      [
        "national",
        -9.153642494322797
      ],
      [
        "extra",
        -9.153910711188033
      ],
      [
        "2015",
        -9.154746326471791
      ],
      [
        "giving",
        -9.157972229074183
      ],
      [
        "Center",
        -9.158937472307821
      ],
      [
        "active",
        -9.159468796149064
      ],
      [
        "UK",
        -9.160028569669342
      ],
      [
        "TV",
        -9.160441550964602
      ],
      [
        "Don",
        -9.16118599287085
      ],
      [
        "ground",
        -9.162216500814344
      ],
      [
        "inside",
        -9.16326934183934
      ],
      [
        "entire",
        -9.163641716834592
      ],
      [
        "firm",
        -9.164330098845632
      ],
      [
        "according",
        -9.165607383033768
      ],
      [
        "guide",
        -9.166776962850278
      ],
      [
        "apply",
        -9.166993671049433
      ],
      [
        "plant",
        -9.167539207412993
      ],
      [
        "option",
        -9.168630738499735
      ],
      [
        "Park",
        -9.16872754578088
      ],
      [
        "protect",
        -9.169018756135193
      ],
      [
        "mobile",
        -9.171088117858542
      ],
      [
        "kids",
        -9.171124616567752
      ],
      [
        "County",
        -9.173615689153037
      ],
      [
        "sound",
        -9.17361759736813
      ],
      [
        "source",
        -9.173760839605741
      ],
      [
        "begin",
        -9.17405808172898
      ],
      [
        "received",
        -9.175750281921127
      ],
      [
        "summer",
        -9.177769430483993
      ],
      [
        "26",
        -9.179334345259557
      ],
      [
        "improve",
        -9.179459001162
      ],
      [
        "write",
        -9.180372643045375
      ],
      [
        "break",
        -9.18057620732039
      ],
      [
        "expert",
        -9.182207644964713
      ],
      [
        "basic",
        -9.182896118355242
      ],
      [
        "variety",
        -9.183227444604352
      ],
      [
        "23",
        -9.183691650385333
      ],
      [
        "fast",
        -9.18379800247138
      ],
      [
        "platform",
        -9.184565337070984
      ],
      [
        "April",
        -9.186099845297704
      ],
      [
        "hair",
        -9.187708798883362
      ],
      [
        "solution",
        -9.188266850150516
      ],
      [
        "return",
        -9.18831113005291
      ],
      [
        "sense",
        -9.19190519045424
      ],
      [
        "track",
        -9.1931532464351
      ],
      [
        "career",
        -9.194072505435162
      ],
      [
        "piece",
        -9.196097279158474
      ],
      [
        "fire",
        -9.196304046263402
      ],
      [
        "provid",
        -9.196362371104161
      ],
      [
        "remember",
        -9.196571653793534
      ],
      [
        "round",
        -9.196729624364004
      ],
      [
        "words",
        -9.197727152534807
      ],
      [
        "born",
        -9.197873476530251
      ],
      [
        "More",
        -9.197888273932323
      ],
      [
        "changes",
        -9.198248036239882
      ],
      [
        "latest",
        -9.19852480494762
      ],
      [
        "behind",
        -9.198597459337767
      ],
      [
        "degree",
        -9.198825661563703
      ],
      [
        "longer",
        -9.201240465324824
      ],
      [
        "Man",
        -9.202258158918973
      ],
      [
        "ill",
        -9.203512834712678
      ],
      [
        "items",
        -9.20545803405857
      ],
      [
        "ell",
        -9.20811734811149
      ],
      [
        "Car",
        -9.210076247581993
      ],
      [
        "speak",
        -9.210379194815493
      ],
      [
        "necessar",
        -9.212090311936729
      ],
      [
        "speed",
        -9.2132728824393
      ],
      [
        "student",
        -9.21378203503503
      ],
      [
        "told",
        -9.218561693139895
      ],
      [
        "meeting",
        -9.219337906702766
      ],
      [
        "medical",
        -9.220151619311258
      ],
      [
        "anyone",
        -9.220858780010225
      ],
      [
        "goal",
        -9.221697600316515
      ],
      [
        "recent",
        -9.222090520368702
      ],
      [
        "nothing",
        -9.222420100534931
      ],
      [
        "global",
        -9.22287562660694
      ],
      [
        "six",
        -9.223129195644857
      ],
      [
        "worked",
        -9.223388087485025
      ],
      [
        "Of",
        -9.223826333324604
      ],
      [
        "ham",
        -9.225459920089397
      ],
      [
        "release",
        -9.227750717234047
      ],
      [
        "Also",
        -9.228197336670211
      ],
      [
        "IT",
        -9.229824295600338
      ],
      [
        "projects",
        -9.230335817108987
      ],
      [
        "trend",
        -9.230730701179883
      ],
      [
        "kitchen",
        -9.234045168433191
      ],
      [
        "ler",
        -9.234986385403047
      ],
      [
        "favorite",
        -9.236305963922058
      ],
      [
        "equipment",
        -9.237008113600965
      ],
      [
        "letter",
        -9.24158582059556
      ],
      [
        "schedule",
        -9.244560132161102
      ],
      [
        "fund",
        -9.244725353993454
      ],
      [
        "tools",
        -9.245773929132717
      ],
      [
        "27",
        -9.246518257360783
      ],
      [
        "points",
        -9.246646823945882
      ],
      [
        "repair",
        -9.247699684726074
      ],
      [
        "base",
        -9.248733295774356
      ],
      [
        "Her",
        -9.248753852669404
      ],
      [
        "2014",
        -9.248815923190474
      ],
      [
        "ou",
        -9.249562632208479
      ],
      [
        "que",
        -9.249655325508938
      ],
      [
        "Most",
        -9.249784525955492
      ],
      [
        "90",
        -9.249905237038307
      ],
      [
        "included",
        -9.25111487881212
      ],
      [
        "director",
        -9.251668307660742
      ],
      [
        "deliver",
        -9.25168004732131
      ],
      [
        "cannot",
        -9.254417306933576
      ],
      [
        "message",
        -9.255695383381145
      ],
      [
        "join",
        -9.255926908862952
      ],
      [
        "document",
        -9.256321447109043
      ],
      [
        "House",
        -9.258326981987247
      ],
      [
        "leading",
        -9.260632790959688
      ],
      [
        "patients",
        -9.266643330177256
      ],
      [
        "investment",
        -9.2685765432155
      ],
      [
        "picture",
        -9.269361655156805
      ],
      [
        "asked",
        -9.27196686955297
      ],
      [
        "floor",
        -9.272496979379557
      ],
      [
        "loss",
        -9.272738935362815
      ],
      [
        "stock",
        -9.272839718874115
      ],
      [
        "Thanks",
        -9.27297478281571
      ],
      [
        "ful",
        -9.275538520642325
      ],
      [
        "ized",
        -9.276626519959068
      ],
      [
        "develop",
        -9.277640828807655
      ],
      [
        "ship",
        -9.277874661850268
      ],
      [
        "difference",
        -9.279633907020918
      ],
      [
        "tool",
        -9.279746675844397
      ],
      [
        "shows",
        -9.28085193690922
      ],
      [
        "upon",
        -9.28114573805399
      ],
      [
        "War",
        -9.281269938822192
      ],
      [
        "March",
        -9.281526257892347
      ],
      [
        "decision",
        -9.281591341024974
      ],
      [
        "@",
        -9.282057447884705
      ],
      [
        "text",
        -9.283496180412799
      ],
      [
        "mention",
        -9.283814652262809
      ],
      [
        "Google",
        -9.284499527181968
      ],
      [
        "heat",
        -9.287005357138518
      ],
      [
        "digital",
        -9.287283454790245
      ],
      [
        "trade",
        -9.287668209259058
      ],
      [
        "machine",
        -9.28775474661787
      ],
      [
        "sign",
        -9.288012557172799
      ],
      [
        "://",
        -9.28912848503455
      ],
      [
        "books",
        -9.289276864561925
      ],
      [
        "wall",
        -9.290341572838138
      ],
      [
        "safety",
        -9.291229439130701
      ],
      [
        "hour",
        -9.291855845329401
      ],
      [
        "ated",
        -9.291886939861593
      ],
      [
        "anti",
        -9.293106830064618
      ],
      [
        "written",
        -9.29511609207227
      ],
      [
        "materials",
        -9.296391552529624
      ],
      [
        "daily",
        -9.296535617421153
      ],
      [
        "recently",
        -9.29870151283286
      ],
      [
        "takes",
        -9.29919399001893
      ],
      [
        "shall",
        -9.299510462200487
      ],
      [
        "morning",
        -9.30027570100162
      ],
      [
        "multi",
        -9.300578093042056
      ],
      [
        ".”",
        -9.300963876708456
      ],
      [
        "answer",
        -9.300975591896297
      ],
      [
        "friend",
        -9.3010613086624
      ],
      [
        "Thank",
        -9.301373614195311
      ],
      [
        "hotel",
        -9.301716528171942
      ],
      [
        "traditional",
        -9.302036640998917
      ],
      [
        "types",
        -9.30244872373156
      ],
      [
        "flow",
        -9.302543285537714
      ],
      [
        "green",
        -9.304742287997897
      ],
      [
        "perform",
        -9.304928618992463
      ],
      [
        "deep",
        -9.305415956907
      ],
      [
        "High",
        -9.306403756169967
      ],
      [
        "weeks",
        -9.306719352507782
      ],
      [
        "wish",
        -9.30690571981928
      ],
      [
        "record",
        -9.307527409495524
      ],
      [
        "gas",
        -9.307789345557191
      ],
      [
        "States",
        -9.308385867950753
      ],
      [
        "costs",
        -9.308810935015883
      ],
      [
        "ball",
        -9.309274786828942
      ],
      [
        "Onc",
        -9.309362340828386
      ],
      [
        "huge",
        -9.310726914990271
      ],
      [
        "resources",
        -9.311036050574117
      ],
      [
        "policy",
        -9.311860073076666
      ],
      [
        "ice",
        -9.313933915506217
      ],
      [
        "Free",
        -9.314304320452125
      ],
      [
        "selves",
        -9.314462755644925
      ],
      [
        "ID",
        -9.31461760500866
      ],
      [
        "moving",
        -9.315788087127768
      ],
      [
        "First",
        -9.317556155890703
      ],
      [
        "normal",
        -9.318009148013283
      ],
      [
        "International",
        -9.319622258677986
      ],
      [
        "ating",
        -9.320249662368402
      ],
      [
        "language",
        -9.320342742935594
      ],
      [
        "depend",
        -9.320590936631726
      ],
      [
        "involved",
        -9.321495501569544
      ],
      [
        "star",
        -9.321790079418614
      ],
      [
        "West",
        -9.32182364517351
      ],
      [
        "enter",
        -9.323992642208067
      ],
      [
        "é",
        -9.324334648827923
      ],
      [
        "prevent",
        -9.324943734566732
      ],
      [
        "reach",
        -9.325032236362324
      ],
      [
        "expect",
        -9.325388812266935
      ],
      [
        "photo",
        -9.32614082287894
      ],
      [
        "2013",
        -9.327349130472758
      ],
      [
        "countries",
        -9.329088139274207
      ],
      [
        "solutions",
        -9.330982802012707
      ],
      [
        "ley",
        -9.331145540755683
      ],
      [
        "35",
        -9.333928588178154
      ],
      [
        "ities",
        -9.334265352907677
      ],
      [
        "maintain",
        -9.335408029060957
      ],
      [
        "demand",
        -9.3361698306712
      ],
      [
        "Even",
        -9.336913125978903
      ],
      [
        "fine",
        -9.337237910975706
      ],
      [
        "America",
        -9.338899685604622
      ],
      [
        "excellent",
        -9.33926612172354
      ],
      [
        "display",
        -9.339453849625153
      ],
      [
        "park",
        -9.340224459273443
      ],
      [
        "Service",
        -9.340347693630706
      ],
      [
        "figure",
        -9.341932999465337
      ],
      [
        "Well",
        -9.345444416921143
      ],
      [
        "requirements",
        -9.345489279560988
      ],
      [
        "agree",
        -9.34597657481441
      ],
      [
        "average",
        -9.34679958666206
      ],
      [
        "www",
        -9.348184502725667
      ],
      [
        "essential",
        -9.34938831536369
      ],
      [
        "response",
        -9.349649043613438
      ],
      [
        "attention",
        -9.353046860709805
      ],
      [
        "instead",
        -9.353247288138446
      ],
      [
        "compare",
        -9.353702042734586
      ],
      [
        "70",
        -9.353960135518571
      ],
      [
        "Many",
        -9.35415595752252
      ],
      [
        "remain",
        -9.354196656196583
      ],
      [
        "goes",
        -9.35484275852081
      ],
      [
        "ride",
        -9.355444853399543
      ],
      [
        "June",
        -9.355473130888134
      ],
      [
        "San",
        -9.358974738228985
      ],
      [
        "effect",
        -9.360676437252437
      ],
      [
        "element",
        -9.361158063257568
      ],
      [
        "van",
        -9.361253280110963
      ],
      [
        "See",
        -9.362425538480064
      ],
      [
        "court",
        -9.365283194388288
      ],
      [
        "prices",
        -9.365963888823549
      ],
      [
        "multiple",
        -9.366407374317626
      ],
      [
        "Get",
        -9.367089573476392
      ],
      [
        "target",
        -9.367514623808415
      ],
      [
        "interesting",
        -9.36919986659242
      ],
      [
        "path",
        -9.369625368871915
      ],
      [
        "pick",
        -9.370928291657108
      ],
      [
        "death",
        -9.371044898392299
      ],
      [
        "English",
        -9.37127881810136
      ],
      [
        "race",
        -9.371515903813421
      ],
      [
        "teacher",
        -9.372165265140513
      ],
      [
        "Ex",
        -9.372757407197398
      ],
      [
        "ca",
        -9.37423933453615
      ],
      [
        "28",
        -9.374306289651237
      ],
      [
        "warm",
        -9.374340456077416
      ],
      [
        "London",
        -9.375310024129647
      ],
      [
        "college",
        -9.37635665160563
      ],
      [
        "act",
        -9.376892496672188
      ],
      [
        "avoid",
        -9.377010925300656
      ],
      [
        "500",
        -9.377870462391353
      ],
      [
        "touch",
        -9.378791968068983
      ],
      [
        "myself",
        -9.38075018422835
      ],
      [
        "press",
        -9.381319995010113
      ],
      [
        "fall",
        -9.381949591084709
      ],
      [
        "station",
        -9.38312576311871
      ],
      [
        "wear",
        -9.385172036752666
      ],
      [
        "lost",
        -9.385206493410388
      ],
      [
        "29",
        -9.385326712052683
      ],
      [
        "commercial",
        -9.386321140915479
      ],
      [
        "creating",
        -9.38633174178256
      ],
      [
        "port",
        -9.387008855577985
      ],
      [
        "ang",
        -9.3872316722467
      ],
      [
        "culture",
        -9.387418891175955
      ],
      [
        "produce",
        -9.38764844152976
      ],
      [
        "spend",
        -9.388093092290823
      ],
      [
        "handle",
        -9.389144518511696
      ],
      [
        "payment",
        -9.39017448041404
      ],
      [
        "request",
        -9.390560811729348
      ],
      [
        "device",
        -9.390945451231184
      ],
      [
        "Bar",
        -9.391000279441513
      ],
      [
        "El",
        -9.393029176532812
      ],
      [
        "grow",
        -9.394050928324575
      ],
      [
        "Vi",
        -9.394229639357684
      ],
      [
        "45",
        -9.394467182746006
      ],
      [
        "positive",
        -9.397406561857967
      ],
      [
        "mid",
        -9.397559371011939
      ],
      [
        "fair",
        -9.398543639525363
      ],
      [
        "unit",
        -9.400150770361485
      ],
      [
        "decided",
        -9.400925770527909
      ],
      [
        "super",
        -9.403349736565591
      ],
      [
        "dog",
        -9.403885260186586
      ],
      [
        "uk",
        -9.405200156241634
      ],
      [
        "CO",
        -9.40558552161916
      ],
      [
        "shop",
        -9.40606521011537
      ],
      [
        "India",
        -9.408666957259378
      ],
      [
        "official",
        -9.409981513758249
      ],
      [
        "develope",
        -9.410089887352584
      ],
      [
        "offering",
        -9.410170032817105
      ],
      [
        "Why",
        -9.41078149716135
      ],
      [
        "IN",
        -9.412732102460469
      ],
      [
        "construction",
        -9.412977663363986
      ],
      [
        "storage",
        -9.413918741450065
      ],
      [
        "Black",
        -9.41515203644359
      ],
      [
        "Health",
        -9.415171705401692
      ],
      [
        "client",
        -9.41944747847384
      ],
      [
        "budget",
        -9.419914297920002
      ],
      [
        "cool",
        -9.420136064838445
      ],
      [
        "enable",
        -9.420209828173258
      ],
      [
        "print",
        -9.420338244417028
      ],
      [
        "2012",
        -9.421795158349786
      ],
      [
        "lives",
        -9.421931366330021
      ],
      [
        "connect",
        -9.422330397693353
      ],
      [
        "stand",
        -9.426476041648757
      ],
      [
        "sell",
        -9.42780798507212
      ],
      [
        "nature",
        -9.428129026205266
      ],
      [
        "announce",
        -9.429408877575312
      ],
      [
        "wonderful",
        -9.429834993534483
      ],
      [
        "situation",
        -9.430907942369412
      ],
      [
        "stage",
        -9.431796042405725
      ],
      [
        "cash",
        -9.43273517498204
      ],
      [
        "statement",
        -9.433422651371261
      ],
      [
        "custom",
        -9.433507333377749
      ],
      [
        "thinking",
        -9.433650547239216
      ],
      [
        "disease",
        -9.43408941731309
      ],
      [
        "Since",
        -9.434868311098242
      ],
      [
        "entry",
        -9.435661236235502
      ],
      [
        "send",
        -9.436048334730861
      ],
      [
        "President",
        -9.437650577455306
      ],
      [
        "interested",
        -9.438930685151933
      ],
      [
        "itsel",
        -9.439556397634602
      ],
      [
        "package",
        -9.44061105328799
      ],
      [
        "Let",
        -9.440907732071597
      ],
      [
        "connection",
        -9.441498148170268
      ],
      [
        "hands",
        -9.442422728914337
      ],
      [
        "science",
        -9.442549475807528
      ],
      [
        "stone",
        -9.443441679007872
      ],
      [
        "nation",
        -9.444194850715533
      ],
      [
        "challenge",
        -9.444328967887065
      ],
      [
        "lanning",
        -9.445343248698293
      ],
      [
        "collect",
        -9.446663401885282
      ],
      [
        "recommend",
        -9.447179823978823
      ],
      [
        "--",
        -9.447367994632096
      ],
      [
        "paid",
        -9.447784023101635
      ],
      [
        "understanding",
        -9.44857223355623
      ],
      [
        "playing",
        -9.448722029352886
      ],
      [
        "ke",
        -9.450001081879844
      ],
      [
        "mission",
        -9.450780794425675
      ],
      [
        "conduct",
        -9.450877552995092
      ],
      [
        "sleep",
        -9.45144987614919
      ],
      [
        "economic",
        -9.451482499254574
      ],
      [
        "businesses",
        -9.452161473476737
      ],
      [
        "Friday",
        -9.453021781034364
      ],
      [
        "Christmas",
        -9.453492682969456
      ],
      [
        "sometime",
        -9.453660151052103
      ],
      [
        "ja",
        -9.456152954346633
      ],
      [
        "е",
        -9.457030136541437
      ],
      [
        "publishe",
        -9.457283310387723
      ],
      [
        "mer",
        -9.45899062966493
      ],
      [
        "patient",
        -9.459220701288166
      ],
      [
        "bill",
        -9.45948547780258
      ],
      [
        "pent",
        -9.460542142100161
      ],
      [
        "spot",
        -9.462055856980516
      ],
      [
        "China",
        -9.462533428808305
      ],
      [
        "analysi",
        -9.46286811661871
      ],
      [
        "July",
        -9.463651514566978
      ],
      [
        "contract",
        -9.464358106002791
      ],
      [
        "consumer",
        -9.464394265122861
      ],
      [
        "=",
        -9.465135294864272
      ],
      [
        "che",
        -9.465379915981712
      ],
      [
        "32",
        -9.46633134433714
      ],
      [
        "pressure",
        -9.466416146738371
      ],
      [
        "photos",
        -9.467563540319858
      ],
      [
        "author",
        -9.467922767408519
      ],
      [
        "balance",
        -9.467930742331623
      ],
      [
        "posted",
        -9.468453501091668
      ],
      [
        "images",
        -9.470926948592064
      ],
      [
        "limited",
        -9.471049575547308
      ],
      [
        "carry",
        -9.471402465505244
      ],
      [
        "plans",
        -9.471508111353923
      ],
      [
        "exactly",
        -9.4726537475993
      ],
      [
        "Are",
        -9.474385536213404
      ],
      [
        "towards",
        -9.474787100836204
      ],
      [
        "levels",
        -9.474880487990088
      ],
      [
        "Un",
        -9.475278551853027
      ],
      [
        "parents",
        -9.475433231722791
      ],
      [
        "physical",
        -9.475618752807975
      ],
      [
        "!!",
        -9.477068728225959
      ],
      [
        "attempt",
        -9.478995307438803
      ],
      [
        "pain",
        -9.479724403540535
      ],
      [
        "match",
        -9.479791005184929
      ],
      [
        "considere",
        -9.480651158677427
      ],
      [
        "edge",
        -9.48126409480099
      ],
      [
        "treat",
        -9.481763969214365
      ],
      [
        "blue",
        -9.481859993801523
      ],
      [
        "annual",
        -9.484061374038353
      ],
      [
        "Great",
        -9.484220406914648
      ],
      [
        "foot",
        -9.484623088484568
      ],
      [
        "RE",
        -9.485131174609196
      ],
      [
        "cases",
        -9.486432893203094
      ],
      [
        "Li",
        -9.486827658809355
      ],
      [
        "serve",
        -9.48694530079182
      ],
      [
        "appropriate",
        -9.487045867740335
      ],
      [
        "campaign",
        -9.4873457853164
      ],
      [
        "Dur",
        -9.487359346127263
      ],
      [
        "pool",
        -9.488276073454902
      ],
      [
        "count",
        -9.489164001359443
      ],
      [
        "Design",
        -9.489520300379379
      ],
      [
        "pass",
        -9.489527525024219
      ],
      [
        "vehicle",
        -9.49126744291735
      ],
      [
        "31",
        -9.491679785856466
      ],
      [
        "par",
        -9.49248256399303
      ],
      [
        "rock",
        -9.497500815600784
      ],
      [
        "Each",
        -9.498453603501826
      ],
      [
        "bank",
        -9.498771287698089
      ],
      [
        "dry",
        -9.499447060521609
      ],
      [
        "mix",
        -9.499499232112578
      ],
      [
        "|",
        -9.501519209378223
      ],
      [
        "September",
        -9.50334379380133
      ],
      [
        "gives",
        -9.503365350308528
      ],
      [
        "supply",
        -9.505788841914997
      ],
      [
        "bus",
        -9.506299531027532
      ],
      [
        "sent",
        -9.506363257857329
      ],
      [
        "plus",
        -9.506570946232214
      ],
      [
        "ideal",
        -9.506757645213638
      ],
      [
        "expected",
        -9.510010831853034
      ],
      [
        "wrong",
        -9.510060287009733
      ],
      [
        "Inc",
        -9.510298981589482
      ],
      [
        "political",
        -9.510765958998546
      ],
      [
        "vote",
        -9.511468944455283
      ],
      [
        "ville",
        -9.51177564923359
      ],
      [
        "PC",
        -9.51283182749741
      ],
      [
        "function",
        -9.51283620439778
      ],
      [
        "wedding",
        -9.51317326982925
      ],
      [
        "October",
        -9.51343507264296
      ],
      [
        "2010",
        -9.515055572555443
      ],
      [
        "wine",
        -9.51618964275398
      ],
      [
        "Business",
        -9.516211199345227
      ],
      [
        "rich",
        -9.51675569736055
      ],
      [
        "mail",
        -9.517444615823766
      ],
      [
        "select",
        -9.51787641335209
      ],
      [
        "sun",
        -9.518025638829805
      ],
      [
        "Sunday",
        -9.518569140000151
      ],
      [
        "applications",
        -9.522454887038824
      ],
      [
        "Group",
        -9.52246218548359
      ],
      [
        "wind",
        -9.522531250996375
      ],
      [
        "correct",
        -9.522567271160089
      ],
      [
        "glass",
        -9.523564323453739
      ],
      [
        "parts",
        -9.523668224190816
      ],
      [
        "felt",
        -9.524218598733821
      ],
      [
        "server",
        -9.524402139105721
      ],
      [
        "growing",
        -9.525150161656422
      ],
      [
        "complex",
        -9.5266574786325
      ],
      [
        "friendly",
        -9.527459942459043
      ],
      [
        "Department",
        -9.52767457865206
      ],
      [
        "Add",
        -9.527871133872358
      ],
      [
        "http",
        -9.528332435908844
      ],
      [
        "camera",
        -9.528726982708847
      ],
      [
        "host",
        -9.528779937309334
      ],
      [
        "advantage",
        -9.530013844910078
      ],
      [
        "grade",
        -9.531561179578283
      ],
      [
        "activity",
        -9.53212995463252
      ],
      [
        "Air",
        -9.532422423776776
      ],
      [
        "setting",
        -9.533439381062307
      ],
      [
        "January",
        -9.533929587417763
      ],
      [
        "Art",
        -9.534046092038484
      ],
      [
        "opportunities",
        -9.535188056652435
      ],
      [
        "Web",
        -9.535302450661263
      ],
      [
        "ide",
        -9.535336166126429
      ],
      [
        "California",
        -9.537701263599494
      ],
      [
        "master",
        -9.539420983222309
      ],
      [
        "double",
        -9.539594157429878
      ],
      [
        "cross",
        -9.539630831451426
      ],
      [
        "•",
        -9.540223730491016
      ],
      [
        "concern",
        -9.540795899411185
      ],
      [
        "allowed",
        -9.541148813707851
      ],
      [
        "engine",
        -9.54115581658856
      ],
      [
        "draw",
        -9.542112004817437
      ],
      [
        "assist",
        -9.542546429415426
      ],
      [
        "inter",
        -9.543218737033143
      ],
      [
        "character",
        -9.543221395802679
      ],
      [
        "sort",
        -9.543461379796788
      ],
      [
        "Company",
        -9.54374008779928
      ],
      [
        "les",
        -9.543946432506978
      ],
      [
        "region",
        -9.544489566541628
      ],
      [
        "combine",
        -9.545298556950577
      ],
      [
        "format",
        -9.546714327599322
      ],
      [
        "internet",
        -9.54693386356904
      ],
      [
        "direction",
        -9.54865746367355
      ],
      [
        "ization",
        -9.549994239091461
      ],
      [
        "healthy",
        -9.550552621557234
      ],
      [
        "definitely",
        -9.550712231943113
      ],
      [
        "ious",
        -9.551178454498165
      ],
      [
        "THE",
        -9.552693883921732
      ],
      [
        "install",
        -9.553108595211494
      ],
      [
        "Click",
        -9.554664528627793
      ],
      [
        "happen",
        -9.55511035907184
      ],
      [
        "Good",
        -9.555117825309356
      ],
      [
        "2011",
        -9.555268618120486
      ],
      [
        "ize",
        -9.555676238123365
      ],
      [
        "Any",
        -9.556486608016765
      ],
      [
        "College",
        -9.557098599211496
      ],
      [
        "desire",
        -9.557808185034645
      ],
      [
        "easier",
        -9.559382835381395
      ],
      [
        "weekend",
        -9.559694983291418
      ],
      [
        "sites",
        -9.559796210330854
      ],
      [
        "AL",
        -9.561748860476806
      ],
      [
        "suggest",
        -9.561755807441948
      ],
      [
        "familie",
        -9.561926015476013
      ],
      [
        "elected",
        -9.5625733699183
      ],
      [
        "Make",
        -9.56263660262608
      ],
      [
        "manage",
        -9.562740381339783
      ],
      [
        "explore",
        -9.56451363320411
      ],
      [
        "mother",
        -9.56471012942247
      ],
      [
        "gift",
        -9.565525656535609
      ],
      [
        "represent",
        -9.566668185460902
      ],
      [
        "log",
        -9.567589857431907
      ],
      [
        "individuals",
        -9.568170240506953
      ],
      [
        "church",
        -9.56868464771666
      ],
      [
        "mine",
        -9.569483466577106
      ],
      [
        "Use",
        -9.569834119053036
      ],
      [
        "scale",
        -9.57038666951056
      ],
      [
        "previous",
        -9.570849829359975
      ],
      [
        "goals",
        -9.57129769117096
      ],
      [
        "feeling",
        -9.572368093603805
      ],
      [
        "stuff",
        -9.57329279835542
      ],
      [
        "voice",
        -9.573835641228486
      ],
      [
        "cell",
        -9.573883010552096
      ],
      [
        "lines",
        -9.573948275545082
      ],
      [
        "drop",
        -9.574310143504913
      ],
      [
        "comfortabl",
        -9.574690044279949
      ],
      [
        "button",
        -9.574870630373532
      ],
      [
        "former",
        -9.576405887250258
      ],
      [
        "£",
        -9.57687788970724
      ],
      [
        "advice",
        -9.57698335703172
      ],
      [
        "Green",
        -9.577471965448712
      ],
      [
        "basis",
        -9.5808628398804
      ],
      [
        "score",
        -9.582627945237352
      ],
      [
        "encourage",
        -9.583611578203644
      ],
      [
        "tion",
        -9.583944073734203
      ],
      [
        "movie",
        -9.584991803490793
      ],
      [
        "200",
        -9.585331558838034
      ],
      [
        "Hi",
        -9.585778909218948
      ],
      [
        "interview",
        -9.586111689594315
      ],
      [
        "Red",
        -9.586201223687032
      ],
      [
        "audience",
        -9.587085030626808
      ],
      [
        "finishe",
        -9.587223022312655
      ],
      [
        "Other",
        -9.587401404096568
      ],
      [
        "Europe",
        -9.587437930234124
      ],
      [
        "owner",
        -9.588562420323495
      ],
      [
        "Windows",
        -9.589311963430495
      ],
      [
        "aid",
        -9.5898478891195
      ],
      [
        "December",
        -9.590398025148525
      ],
      [
        "finding",
        -9.590438466396398
      ],
      [
        "monitor",
        -9.591731403483717
      ],
      [
        "blood",
        -9.592685415291
      ],
      [
        "Saturday",
        -9.595054240475324
      ],
      [
        "meal",
        -9.595184334575537
      ],
      [
        "har",
        -9.597077583965458
      ],
      [
        "surface",
        -9.59734014139865
      ],
      [
        "block",
        -9.597539309417106
      ],
      [
        "ster",
        -9.598314553309635
      ],
      [
        "November",
        -9.599735646343179
      ],
      [
        "weather",
        -9.601430737419758
      ],
      [
        "welcome",
        -9.602112174612309
      ],
      [
        "delivery",
        -9.602203206649412
      ],
      [
        "appear",
        -9.6026938998715
      ],
      [
        "gold",
        -9.602803824469209
      ],
      [
        "recipe",
        -9.603090424416383
      ],
      [
        "Love",
        -9.603126161901201
      ],
      [
        "European",
        -9.603441258008719
      ],
      [
        "stress",
        -9.60389311379485
      ],
      [
        "copy",
        -9.604229667663787
      ],
      [
        "Facebook",
        -9.606174093988598
      ],
      [
        "respect",
        -9.60690029018674
      ],
      [
        "passe",
        -9.607038495019527
      ],
      [
        "ard",
        -9.607229075195075
      ],
      [
        "rates",
        -9.60781397793933
      ],
      [
        "August",
        -9.608154978228054
      ],
      [
        "offered",
        -9.608185686584275
      ],
      [
        "explain",
        -9.60824919595204
      ],
      [
        "arrive",
        -9.609225995711968
      ],
      [
        "fill",
        -9.609386032527997
      ],
      [
        "aspect",
        -9.609392014539107
      ],
      [
        "ble",
        -9.609684265928585
      ],
      [
        "ries",
        -9.609772577196031
      ],
      [
        "beginning",
        -9.610240877700194
      ],
      [
        "truly",
        -9.612237355117395
      ],
      [
        "responsible",
        -9.614050730912036
      ],
      [
        "trust",
        -9.614411630792372
      ],
      [
        "espite",
        -9.614817976603458
      ],
      [
        "Over",
        -9.615172613638988
      ],
      [
        "garden",
        -9.615815212784199
      ],
      [
        "White",
        -9.61582911789014
      ],
      [
        "gave",
        -9.615981932148618
      ],
      [
        "Services",
        -9.616229354749553
      ],
      [
        "title",
        -9.616565981666
      ],
      [
        "MA",
        -9.616688628431293
      ],
      [
        "released",
        -9.61754668245451
      ],
      [
        "Mac",
        -9.617649085947455
      ],
      [
        "feet",
        -9.618563016516998
      ],
      [
        "Act",
        -9.619120435349464
      ],
      [
        "procedure",
        -9.619700956787767
      ],
      [
        "accept",
        -9.620571944475493
      ],
      [
        "item",
        -9.621434441672054
      ],
      [
        "reported",
        -9.62158911251834
      ],
      [
        "ical",
        -9.62354492050059
      ],
      [
        "agreement",
        -9.624603822741285
      ],
      [
        "tried",
        -9.62467021770495
      ],
      [
        "rent",
        -9.625313215467454
      ],
      [
        "fish",
        -9.625528715695602
      ],
      [
        "Best",
        -9.625889600612986
      ],
      [
        "lack",
        -9.627381790214464
      ],
      [
        "length",
        -9.62759589115754
      ],
      [
        "king",
        -9.631454448164295
      ],
      [
        "license",
        -9.632473777580596
      ],
      [
        "hospital",
        -9.63312166876771
      ],
      [
        "selection",
        -9.635829557258518
      ],
      [
        "sports",
        -9.63659713130517
      ],
      [
        "prior",
        -9.636901951209254
      ],
      [
        "useful",
        -9.637398082382727
      ],
      [
        "force",
        -9.638793546040231
      ],
      [
        "gain",
        -9.639290979276858
      ],
      [
        "played",
        -9.640380462929052
      ],
      [
        "gen",
        -9.641303944096059
      ],
      [
        "ahead",
        -9.642851429433785
      ],
      [
        "eyes",
        -9.642858935675246
      ],
      [
        "income",
        -9.643007679474794
      ],
      [
        "East",
        -9.644329018891383
      ],
      [
        "TO",
        -9.644652465903766
      ],
      [
        "Board",
        -9.645338963890605
      ],
      [
        "stories",
        -9.64534591558878
      ],
      [
        "introduce",
        -9.645671945361823
      ],
      [
        "largest",
        -9.645929296930799
      ],
      [
        "covered",
        -9.647342940673084
      ],
      [
        "Pre",
        -9.647404735507987
      ],
      [
        "Internet",
        -9.647447065210553
      ],
      [
        "alone",
        -9.647518773449477
      ],
      [
        "protection",
        -9.647622427094088
      ],
      [
        "bottom",
        -9.64777941187699
      ],
      [
        "Jesus",
        -9.647784505697818
      ],
      [
        "und",
        -9.648352358260842
      ],
      [
        "highest",
        -9.649994828284191
      ],
      [
        "discuss",
        -9.650043094672696
      ],
      [
        "establishe",
        -9.65105846045968
      ],
      [
        "technical",
        -9.651303843831245
      ],
      [
        "metal",
        -9.65131228518285
      ],
      [
        "coffee",
        -9.651313280020196
      ],
      [
        "loved",
        -9.651578137755198
      ],
      [
        "soft",
        -9.652658405300432
      ],
      [
        "sector",
        -9.654657462868736
      ],
      [
        "finish",
        -9.654695309531625
      ],
      [
        "February",
        -9.654835005361475
      ],
      [
        "agent",
        -9.65492952439346
      ],
      [
        "Check",
        -9.655210331665995
      ],
      [
        "OR",
        -9.65571445709034
      ],
      [
        "comment",
        -9.655885761790943
      ],
      [
        "SE",
        -9.656219597499849
      ],
      [
        "pan",
        -9.656823498872711
      ],
      [
        "99",
        -9.657221631412295
      ],
      [
        "slow",
        -9.657348926846995
      ],
      [
        "notice",
        -9.65814407508636
      ],
      [
        "vision",
        -9.658887371909648
      ],
      [
        "drink",
        -9.658973848168454
      ],
      [
        "component",
        -9.659096432200396
      ],
      [
        "train",
        -9.659880204369784
      ],
      [
        "Star",
        -9.660439037820222
      ],
      [
        "Street",
        -9.660923071302175
      ],
      [
        "ST",
        -9.660960582157742
      ],
      [
        "temperature",
        -9.66122831717967
      ],
      [
        "wonder",
        -9.661449115611052
      ],
      [
        "profit",
        -9.662283489337952
      ],
      [
        "partner",
        -9.663237201786526
      ],
      [
        "separate",
        -9.663290697950096
      ],
      [
        "structure",
        -9.66355337981847
      ],
      [
        "served",
        -9.663561409573926
      ],
      [
        "hal",
        -9.664713335423738
      ],
      [
        "initial",
        -9.66516292086986
      ],
      [
        "capital",
        -9.666035816329961
      ],
      [
        "window",
        -9.666486534551645
      ],
      [
        "beyond",
        -9.666625087986533
      ],
      [
        "75",
        -9.669109742581885
      ],
      [
        "transfer",
        -9.669652221112122
      ],
      [
        "powerful",
        -9.669727248680218
      ],
      [
        "gun",
        -9.670006940558181
      ],
      [
        "earlie",
        -9.670381245623886
      ],
      [
        "surprise",
        -9.671255248549329
      ],
      [
        "Every",
        -9.671286594634564
      ],
      [
        "achieve",
        -9.67183469404372
      ],
      [
        "overall",
        -9.672520227822062
      ],
      [
        "creative",
        -9.673063543433294
      ],
      [
        "IP",
        -9.673710682915859
      ],
      [
        "Blue",
        -9.67392177740668
      ],
      [
        "Today",
        -9.674142412987944
      ],
      [
        "lock",
        -9.67446783009891
      ],
      [
        "cat",
        -9.674630664927658
      ],
      [
        "Canada",
        -9.675618956292215
      ],
      [
        "looked",
        -9.675894466607026
      ],
      [
        "Yes",
        -9.677392236826236
      ],
      [
        "stick",
        -9.677810298173895
      ],
      [
        "ence",
        -9.678180050153236
      ],
      [
        "reviews",
        -9.678239737462084
      ],
      [
        "applie",
        -9.678624362753556
      ],
      [
        "Association",
        -9.679204603333417
      ],
      [
        "absolute",
        -9.6792046079103
      ],
      [
        "cent",
        -9.680208875160801
      ],
      [
        "billion",
        -9.680252326268569
      ],
      [
        "thanks",
        -9.680322876572381
      ],
      [
        "identify",
        -9.680657034772754
      ],
      [
        "lots",
        -9.680908165616966
      ],
      [
        "brought",
        -9.68140072820568
      ],
      [
        "taste",
        -9.68312948814431
      ],
      [
        "ended",
        -9.683317232255389
      ],
      [
        "frame",
        -9.684295633047837
      ],
      [
        "lic",
        -9.68501925290155
      ],
      [
        "studies",
        -9.685088989462894
      ],
      [
        "remove",
        -9.686590125103617
      ],
      [
        "36",
        -9.686905886483657
      ],
      [
        "influence",
        -9.686968435806712
      ],
      [
        "pages",
        -9.687441965535637
      ],
      [
        "recognize",
        -9.687636314390591
      ],
      [
        "effects",
        -9.687837964396314
      ],
      [
        "shown",
        -9.68810973394358
      ],
      [
        "Have",
        -9.689028163756987
      ],
      [
        "Take",
        -9.689193224969145
      ],
      [
        "journey",
        -9.690514467487397
      ],
      [
        "Office",
        -9.691079967388502
      ],
      [
        "devices",
        -9.691313421888434
      ],
      [
        "ear",
        -9.692708856340865
      ],
      [
        "trategy",
        -9.693625274087836
      ],
      [
        "critical",
        -9.693971780654703
      ],
      [
        "evidence",
        -9.694190289172068
      ],
      [
        "roll",
        -9.694805982891404
      ],
      [
        "finally",
        -9.695646675995466
      ],
      [
        "turne",
        -9.69690492288979
      ],
      [
        "outdoor",
        -9.697047613474385
      ],
      [
        "LE",
        -9.69917485656659
      ],
      [
        "General",
        -9.699743208764925
      ],
      [
        "minute",
        -9.699979619976133
      ],
      [
        "miles",
        -9.702426483545171
      ],
      [
        "older",
        -9.704494349972194
      ],
      [
        "rise",
        -9.70495167116232
      ],
      [
        "generate",
        -9.705000567951355
      ],
      [
        "immediately",
        -9.70564170216122
      ],
      [
        "Ka",
        -9.705870646092956
      ],
      [
        "Because",
        -9.706406040684783
      ],
      [
        "sharing",
        -9.706452140187139
      ],
      [
        "qui",
        -9.707040720241665
      ],
      [
        "pictures",
        -9.70759829480967
      ],
      [
        "ze",
        -9.708867272963854
      ],
      [
        "Life",
        -9.709855489819812
      ],
      [
        "conference",
        -9.710151999448282
      ],
      [
        "Will",
        -9.710584673048135
      ],
      [
        "woman",
        -9.710593898696143
      ],
      [
        "processe",
        -9.71282338136538
      ],
      [
        "Up",
        -9.71320817120602
      ],
      [
        "shape",
        -9.713727416036068
      ],
      [
        "although",
        -9.71483556687376
      ],
      [
        "extremely",
        -9.715215705600869
      ],
      [
        "secure",
        -9.715369587101772
      ],
      [
        "fix",
        -9.716314160744087
      ],
      [
        "CA",
        -9.716503052895467
      ],
      [
        "eating",
        -9.717449943005764
      ],
      [
        "shot",
        -9.719117165235815
      ],
      [
        "cast",
        -9.719964538390188
      ],
      [
        "comfort",
        -9.720280512585752
      ],
      [
        "nursery",
        -9.720691642562148
      ],
      [
        "spring",
        -9.721663592045502
      ],
      [
        "actual",
        -9.723448567273524
      ],
      [
        "nearly",
        -9.723604263467111
      ],
      [
        "inspire",
        -9.724196555565317
      ],
      [
        "del",
        -9.72514953050003
      ],
      [
        "cards",
        -9.72690059670397
      ],
      [
        "ward",
        -9.727202690155089
      ],
      [
        "replace",
        -9.728465769430986
      ],
      [
        "maybe",
        -9.72952787083458
      ],
      [
        "relative",
        -9.729886526052677
      ],
      [
        "®",
        -9.730946698012993
      ],
      [
        "teaching",
        -9.731566066165641
      ],
      [
        "furniture",
        -9.731711077973316
      ],
      [
        "David",
        -9.731747407421707
      ],
      [
        "alternative",
        -9.732498469383117
      ],
      [
        "Director",
        -9.733866733688895
      ],
      [
        "eight",
        -9.734153627129192
      ],
      [
        "loan",
        -9.734228378564428
      ],
      [
        "determine",
        -9.734286791947937
      ],
      [
        "knew",
        -9.734477906537062
      ],
      [
        "camp",
        -9.735201195555181
      ],
      [
        "background",
        -9.735449496127297
      ],
      [
        "sweet",
        -9.735620003671386
      ],
      [
        "Christian",
        -9.736347811592236
      ],
      [
        "files",
        -9.738515016384948
      ],
      [
        "org",
        -9.740375084235092
      ],
      [
        "hat",
        -9.740658282590356
      ],
      [
        "ED",
        -9.7417608523217
      ],
      [
        "graduate",
        -9.74311502783279
      ],
      [
        "Qu",
        -9.743201861787043
      ],
      [
        "tree",
        -9.74322762171061
      ],
      [
        "pop",
        -9.743311126214847
      ],
      [
        "increased",
        -9.743557317159137
      ],
      [
        "estate",
        -9.745138821806972
      ],
      [
        "steel",
        -9.746037004921334
      ],
      [
        "presente",
        -9.746708050765804
      ],
      [
        "decade",
        -9.747187782711261
      ],
      [
        "constant",
        -9.748288362755794
      ],
      [
        "People",
        -9.74867703886908
      ],
      [
        "bedroom",
        -9.748882235935692
      ],
      [
        "spread",
        -9.749555089986725
      ],
      [
        "population",
        -9.749853561855584
      ],
      [
        "brain",
        -9.74993567553443
      ],
      [
        "dark",
        -9.751341253902101
      ],
      [
        "flat",
        -9.751366385797457
      ],
      [
        "”.",
        -9.752110838051507
      ],
      [
        "Monday",
        -9.75230608726701
      ],
      [
        "Bay",
        -9.753965952242593
      ],
      [
        "news",
        -9.75462490838154
      ],
      [
        "throw",
        -9.754727416584897
      ],
      [
        "PM",
        -9.755800239575901
      ],
      [
        "saying",
        -9.756640881030371
      ],
      [
        "song",
        -9.757266509798544
      ],
      [
        "bathroom",
        -9.757950378614428
      ],
      [
        "bag",
        -9.759371155902457
      ],
      [
        "truck",
        -9.759426019236509
      ],
      [
        "registered",
        -9.76018493690713
      ],
      [
        "2008",
        -9.760638570090856
      ],
      [
        "pieces",
        -9.76189078653028
      ],
      [
        "holiday",
        -9.762297536071928
      ],
      [
        "о",
        -9.7623919679884
      ],
      [
        "According",
        -9.763564633710143
      ],
      [
        "ending",
        -9.76413572605917
      ],
      [
        "helped",
        -9.764600093484097
      ],
      [
        "liste",
        -9.764735834045377
      ],
      [
        "MS",
        -9.765270289987496
      ],
      [
        "father",
        -9.765566965261709
      ],
      [
        "map",
        -9.765627243615565
      ],
      [
        "Council",
        -9.765935779960882
      ],
      [
        "century",
        -9.767124680251099
      ],
      [
        "ER",
        -9.767441979753393
      ],
      [
        "core",
        -9.767708645745515
      ],
      [
        "helping",
        -9.768121973114255
      ],
      [
        "cancer",
        -9.76939563580522
      ],
      [
        "schools",
        -9.769475639132326
      ],
      [
        "irectly",
        -9.76987383105332
      ],
      [
        "winter",
        -9.77006402155856
      ],
      [
        "serious",
        -9.771813874500069
      ],
      [
        "update",
        -9.772278689942617
      ],
      [
        "generation",
        -9.772715175739958
      ],
      [
        "AS",
        -9.772855826283081
      ],
      [
        "waste",
        -9.773365455232891
      ],
      [
        "craft",
        -9.773515552994613
      ],
      [
        "changing",
        -9.774113885569724
      ],
      [
        "tips",
        -9.77539636972436
      ],
      [
        "larger",
        -9.77609172355428
      ],
      [
        "rules",
        -9.776331098910406
      ],
      [
        "Call",
        -9.77651011674685
      ],
      [
        "pet",
        -9.777323450747783
      ],
      [
        "keeping",
        -9.778173384187307
      ],
      [
        "Per",
        -9.778211579676634
      ],
      [
        "Paul",
        -9.778738221360133
      ],
      [
        "reflect",
        -9.779351972417993
      ],
      [
        "River",
        -9.779509602041735
      ],
      [
        "seeing",
        -9.780109517002042
      ],
      [
        "middle",
        -9.78029230096655
      ],
      [
        "department",
        -9.780615487689682
      ],
      [
        "greater",
        -9.780869135390624
      ],
      [
        "steps",
        -9.780874050981048
      ],
      [
        "ng",
        -9.781538847571133
      ],
      [
        "cloud",
        -9.782183709356271
      ],
      [
        "Post",
        -9.782669046026356
      ],
      [
        "traffic",
        -9.782692515452469
      ],
      [
        "club",
        -9.78285152635987
      ],
      [
        "promote",
        -9.782937181219808
      ],
      [
        "2009",
        -9.783022383079421
      ],
      [
        "cold",
        -9.783344985169572
      ],
      [
        "rule",
        -9.784117606522965
      ],
      [
        "33",
        -9.784337430264326
      ],
      [
        "opening",
        -9.784557779431585
      ],
      [
        "communication",
        -9.785349265973107
      ],
      [
        "mini",
        -9.786296531174681
      ],
      [
        "Su",
        -9.788152488182911
      ],
      [
        "pot",
        -9.788234822133646
      ],
      [
        "tag",
        -9.788439467115554
      ],
      [
        "engage",
        -9.789807759717892
      ],
      [
        "asset",
        -9.790075495606247
      ],
      [
        "AM",
        -9.790468408454153
      ],
      [
        "hundred",
        -9.790772156053283
      ],
      [
        "combination",
        -9.791651134662912
      ],
      [
        "produced",
        -9.792023618476367
      ],
      [
        "lthough",
        -9.793705350145336
      ],
      [
        "classic",
        -9.79410949917983
      ],
      [
        "38",
        -9.795799240226533
      ],
      [
        "pp",
        -9.795800087864588
      ],
      [
        "mark",
        -9.798771200853015
      ],
      [
        "ING",
        -9.79960768792997
      ],
      [
        "Th",
        -9.800373603070998
      ],
      [
        "Hol",
        -9.800439601363813
      ],
      [
        "pair",
        -9.802089466297586
      ],
      [
        "movement",
        -9.804691771970003
      ],
      [
        "37",
        -9.80474593015477
      ],
      [
        "advanced",
        -9.804773289138208
      ],
      [
        "famous",
        -9.805069472153662
      ],
      [
        "Research",
        -9.806665923460269
      ],
      [
        "competition",
        -9.807647588763473
      ],
      [
        "Book",
        -9.808310271388851
      ],
      [
        "attack",
        -9.808541949793158
      ],
      [
        "measure",
        -9.809062569261666
      ],
      [
        "police",
        -9.809100327667924
      ],
      [
        "erhaps",
        -9.809515102622935
      ],
      [
        "British",
        -9.809606123977177
      ],
      [
        "strength",
        -9.809890118623692
      ],
      [
        "moonlight",
        -9.810924151671962
      ],
      [
        "east",
        -9.811444248180809
      ],
      [
        "dream",
        -9.81173026468634
      ],
      [
        "Science",
        -9.812924029919241
      ],
      [
        "Online",
        -9.813036032319047
      ],
      [
        "places",
        -9.813498021230348
      ],
      [
        "named",
        -9.815282014713706
      ],
      [
        "decide",
        -9.815454119441316
      ],
      [
        "Program",
        -9.81554796668825
      ],
      [
        "Australia",
        -9.815593903207482
      ],
      [
        "arm",
        -9.816588534471268
      ],
      [
        "improvement",
        -9.816598685567303
      ],
      [
        "Club",
        -9.817073049014745
      ],
      [
        "auto",
        -9.818475385735557
      ],
      [
        "volunteer",
        -9.818739836107213
      ],
      [
        "discussion",
        -9.819568555534321
      ],
      [
        "Hu",
        -9.819696721439009
      ],
      [
        "session",
        -9.820707741797056
      ],
      [
        "moved",
        -9.82211933546314
      ],
      [
        "talking",
        -9.822751588212206
      ],
      [
        "aster",
        -9.823130151653343
      ],
      [
        "task",
        -9.82315193388607
      ],
      [
        "Law",
        -9.823331614998049
      ],
      [
        "amp",
        -9.82361116359511
      ],
      [
        "55",
        -9.824022012618611
      ],
      [
        "responsibilit",
        -9.824596364895182
      ],
      [
        "cream",
        -9.824853081376961
      ],
      [
        "AT",
        -9.824916726870779
      ],
      [
        "restaurant",
        -9.825133446990552
      ],
      [
        "Like",
        -9.826476640393569
      ],
      [
        "bra",
        -9.82852356807901
      ],
      [
        "thank",
        -9.82879162360852
      ],
      [
        "poor",
        -9.828844883507953
      ],
      [
        "Open",
        -9.828924454387689
      ],
      [
        "Lake",
        -9.829217341358511
      ],
      [
        "mill",
        -9.829625797494849
      ],
      [
        "relevant",
        -9.829643737834953
      ],
      [
        "ki",
        -9.830135360927375
      ],
      [
        "tech",
        -9.83089572230333
      ],
      [
        "workers",
        -9.831047363020206
      ],
      [
        "Year",
        -9.831296806826064
      ],
      [
        "street",
        -9.831338778579589
      ],
      [
        "Last",
        -9.831933899426678
      ],
      [
        "note",
        -9.832204758276728
      ],
      [
        "Bank",
        -9.832323234426234
      ],
      [
        "fear",
        -9.832751619169443
      ],
      [
        "corner",
        -9.832778211606087
      ],
      [
        "seek",
        -9.833144648735495
      ],
      [
        "300",
        -9.833766014274271
      ],
      [
        "han",
        -9.833996380050603
      ],
      [
        "Power",
        -9.83418393433269
      ],
      [
        "dedicated",
        -9.834335485253824
      ],
      [
        "ology",
        -9.834519499157132
      ],
      [
        "installation",
        -9.835686855355682
      ],
      [
        "smooth",
        -9.835833734860925
      ],
      [
        "ck",
        -9.836865301127638
      ],
      [
        "Apple",
        -9.83788612111762
      ],
      [
        "Whether",
        -9.838965960702762
      ],
      [
        "heavy",
        -9.838965982987006
      ],
      [
        "rain",
        -9.839470657576626
      ],
      [
        "progress",
        -9.840355201823987
      ],
      [
        "micro",
        -9.84198043455648
      ],
      [
        "album",
        -9.84238509976526
      ],
      [
        "diet",
        -9.842621026329077
      ],
      [
        "Find",
        -9.843327061109076
      ],
      [
        "casino",
        -9.846284947082772
      ],
      [
        "shopping",
        -9.846656046973637
      ],
      [
        "fille",
        -9.848455343001696
      ],
      [
        "discount",
        -9.84919251635145
      ],
      [
        "Sea",
        -9.849735622691657
      ],
      [
        "equal",
        -9.85037310065005
      ],
      [
        "Water",
        -9.850715534105547
      ],
      [
        "ative",
        -9.851138472170256
      ],
      [
        "playar",
        -9.851462596072519
      ],
      [
        "SA",
        -9.85206521639877
      ],
      [
        "followe",
        -9.852080436084572
      ],
      [
        "exchange",
        -9.85227462592885
      ],
      [
        "suit",
        -9.852916020149094
      ],
      [
        "Christ",
        -9.85294714578023
      ],
      [
        "Music",
        -9.853014959639882
      ],
      [
        "LA",
        -9.855019304610114
      ],
      [
        "Management",
        -9.85573171413776
      ],
      [
        "CD",
        -9.855850063829319
      ],
      [
        "driving",
        -9.8562275893185
      ],
      [
        "facilit",
        -9.856345980480437
      ],
      [
        "detail",
        -9.856376855848339
      ],
      [
        "solid",
        -9.856440975972742
      ],
      [
        "SS",
        -9.856455267488208
      ],
      [
        "ES",
        -9.857496761904812
      ],
      [
        "menu",
        -9.859439046314895
      ],
      [
        "beach",
        -9.85962589124243
      ],
      [
        "selling",
        -9.860340002649503
      ],
      [
        "TE",
        -9.861012005154377
      ],
      [
        "Lord",
        -9.862085011580366
      ],
      [
        "talent",
        -9.862520746902998
      ],
      [
        "prepared",
        -9.863542765124384
      ],
      [
        "centre",
        -9.863594683318965
      ],
      [
        "lie",
        -9.86475913631973
      ],
      [
        "Time",
        -9.864775942641032
      ],
      [
        "French",
        -9.86570737138133
      ],
      [
        "catch",
        -9.86750885720533
      ],
      [
        "appreciate",
        -9.867969070105861
      ],
      [
        "debt",
        -9.86803000993116
      ],
      [
        "developing",
        -9.869175955479307
      ],
      [
        "USA",
        -9.869369849927413
      ],
      [
        "plastic",
        -9.869675913111113
      ],
      [
        "ible",
        -9.870005530107253
      ],
      [
        "primary",
        -9.870550669754193
      ],
      [
        "quarter",
        -9.870618950104083
      ],
      [
        "load",
        -9.871236908719977
      ],
      [
        "reache",
        -9.871246799229308
      ],
      [
        "plenty",
        -9.871406484126247
      ],
      [
        "winning",
        -9.871735195217848
      ],
      [
        "links",
        -9.872091824116318
      ],
      [
        "lose",
        -9.872822148873496
      ],
      [
        "ions",
        -9.87329143649968
      ],
      [
        "rying",
        -9.87348759477829
      ],
      [
        "adding",
        -9.873662866597302
      ],
      [
        "Court",
        -9.875457172387918
      ],
      [
        "obtain",
        -9.875591575395376
      ],
      [
        "meaning",
        -9.875617149032156
      ],
      [
        "daughter",
        -9.87625416343894
      ],
      [
        "hire",
        -9.87637816246267
      ],
      [
        "Out",
        -9.877218694073463
      ],
      [
        "fuel",
        -9.877265397456426
      ],
      [
        "pen",
        -9.87751949805909
      ],
      [
        "Lu",
        -9.877954568225984
      ],
      [
        "opinion",
        -9.878024511104737
      ],
      [
        "info",
        -9.878098545761166
      ],
      [
        "girl",
        -9.878595822218816
      ],
      [
        "connected",
        -9.878816718962252
      ],
      [
        "Indian",
        -9.879194173021176
      ],
      [
        "learned",
        -9.881125891244318
      ],
      [
        "focused",
        -9.881299602152351
      ],
      [
        "OS",
        -9.881623246910701
      ],
      [
        "practical",
        -9.881799007241025
      ],
      [
        "capacity",
        -9.882248287892786
      ],
      [
        "owners",
        -9.882641189384394
      ],
      [
        "pull",
        -9.882937366942194
      ],
      [
        "distance",
        -9.882952453487809
      ],
      [
        "himself",
        -9.883987654113536
      ],
      [
        "fruit",
        -9.884009540460822
      ],
      [
        "umerous",
        -9.884079567005298
      ],
      [
        "affect",
        -9.884702752206262
      ],
      [
        "serving",
        -9.884887084064058
      ],
      [
        "shared",
        -9.886458791837397
      ],
      [
        "sets",
        -9.88671031420095
      ],
      [
        "UN",
        -9.887277810094437
      ],
      [
        "34",
        -9.88768205408604
      ],
      [
        "Super",
        -9.887805130390925
      ],
      [
        "leader",
        -9.88897472290784
      ],
      [
        "efficient",
        -9.88909974481371
      ],
      [
        "Texas",
        -9.890049078910586
      ],
      [
        "):",
        -9.890207289258914
      ],
      [
        "essay",
        -9.891846581642852
      ],
      [
        "careful",
        -9.893054987240308
      ],
      [
        "signed",
        -9.893263135962115
      ],
      [
        "estimate",
        -9.89379934550227
      ],
      [
        "Light",
        -9.89454556648925
      ],
      [
        "evening",
        -9.894722589766419
      ],
      [
        "gone",
        -9.895477824112774
      ],
      [
        "electronic",
        -9.896333166934129
      ],
      [
        "ingredient",
        -9.896335117209208
      ],
      [
        "Note",
        -9.89643917568896
      ],
      [
        "cur",
        -9.896784549315889
      ],
      [
        "roof",
        -9.89771725267753
      ],
      [
        "а",
        -9.899402814393245
      ],
      [
        "reports",
        -9.89952775352757
      ],
      [
        "instance",
        -9.899591052422096
      ],
      [
        "48",
        -9.900214007150188
      ],
      [
        "cheap",
        -9.900791416089305
      ],
      [
        "Gu",
        -9.901412991571114
      ],
      [
        "status",
        -9.90178680998119
      ],
      [
        "enhance",
        -9.902075351524516
      ],
      [
        "gate",
        -9.902104167877297
      ],
      [
        "challenges",
        -9.902115743236257
      ],
      [
        "Trump",
        -9.902227284867141
      ],
      [
        "visual",
        -9.90259680775723
      ],
      [
        "senior",
        -9.902669947111573
      ],
      [
        "views",
        -9.902707302236276
      ],
      [
        "classes",
        -9.902971526021108
      ],
      [
        "leg",
        -9.903195941957057
      ],
      [
        "straight",
        -9.903198167071757
      ],
      [
        "fashion",
        -9.903350260912987
      ],
      [
        "ung",
        -9.903834742576835
      ],
      [
        "artist",
        -9.904298167832417
      ],
      [
        "husband",
        -9.90448393251691
      ],
      [
        "Institute",
        -9.904936297439974
      ],
      [
        "kept",
        -9.905606051564902
      ],
      [
        "q",
        -9.906800275810513
      ],
      [
        "hop",
        -9.907208775694604
      ],
      [
        "lightly",
        -9.90752748258826
      ],
      [
        "gar",
        -9.908334228765664
      ],
      [
        "Thursday",
        -9.908580152326458
      ],
      [
        "Tuesday",
        -9.909036549834136
      ],
      [
        "buying",
        -9.909411637041531
      ],
      [
        "properties",
        -9.909985098024283
      ],
      [
        "Set",
        -9.91002660112866
      ],
      [
        "exercise",
        -9.910053132759778
      ],
      [
        "dinner",
        -9.91018554471826
      ],
      [
        "plants",
        -9.910604597810632
      ],
      [
        "concept",
        -9.911483632724764
      ],
      [
        "sky",
        -9.912263467878905
      ],
      [
        "Master",
        -9.912712122434943
      ],
      [
        "biggest",
        -9.913189110729537
      ],
      [
        "institution",
        -9.914196966752232
      ],
      [
        "filter",
        -9.914575490793215
      ],
      [
        "01",
        -9.915221111857186
      ],
      [
        "Du",
        -9.915478712016236
      ],
      [
        "stream",
        -9.915540864449753
      ],
      [
        "techniques",
        -9.915749307821027
      ],
      [
        "discover",
        -9.91650123476855
      ],
      [
        "wife",
        -9.917757437437672
      ],
      [
        "maintenance",
        -9.918208949239851
      ],
      [
        "beat",
        -9.918323486712673
      ],
      [
        "leaders",
        -9.918903357893075
      ],
      [
        "volume",
        -9.919619747173385
      ],
      [
        "trial",
        -9.919896534699436
      ],
      [
        "cycle",
        -9.920076430370859
      ],
      [
        "survey",
        -9.921441852414453
      ],
      [
        "Cor",
        -9.921775307470444
      ],
      [
        "Two",
        -9.921833565238021
      ],
      [
        "frequent",
        -9.921901404898303
      ],
      [
        "topic",
        -9.922355846139354
      ],
      [
        "standards",
        -9.922382902367385
      ],
      [
        "James",
        -9.922739813308485
      ],
      [
        "communities",
        -9.9232941023972
      ],
      [
        "mental",
        -9.923679166189284
      ],
      [
        "AR",
        -9.923697677631168
      ],
      [
        "Who",
        -9.924950634545386
      ],
      [
        "chain",
        -9.926184253620477
      ],
      [
        "comments",
        -9.926232483680241
      ],
      [
        "Church",
        -9.926543121967256
      ],
      [
        "visitors",
        -9.926574577137071
      ],
      [
        "driver",
        -9.92667392374469
      ],
      [
        "label",
        -9.927303952610663
      ],
      [
        "radio",
        -9.927627653360465
      ],
      [
        "PA",
        -9.927829589748185
      ],
      [
        "perating",
        -9.928493685721186
      ],
      [
        "2007",
        -9.928810935031386
      ],
      [
        "shower",
        -9.929135686170852
      ],
      [
        "Africa",
        -9.92980171555864
      ],
      [
        "central",
        -9.929894873288738
      ],
      [
        "AND",
        -9.930408696956611
      ],
      [
        "Road",
        -9.930789147050971
      ],
      [
        "consist",
        -9.93085428616978
      ],
      [
        "Florida",
        -9.931194466858088
      ],
      [
        "chi",
        -9.931719639926065
      ],
      [
        "cleaning",
        -9.932005237994206
      ],
      [
        "Mark",
        -9.933064514997369
      ],
      [
        "bu",
        -9.933112897799258
      ],
      [
        "presentation",
        -9.933410591088602
      ],
      [
        "mic",
        -9.93354522108725
      ],
      [
        "aware",
        -9.933631286389417
      ],
      [
        "factors",
        -9.93406580585815
      ],
      [
        "supplies",
        -9.934586996654556
      ],
      [
        "standing",
        -9.934656157845296
      ],
      [
        "database",
        -9.935646848579086
      ],
      [
        "Where",
        -9.935646901584152
      ],
      [
        "conversation",
        -9.936340408372008
      ],
      [
        "inch",
        -9.936794792144672
      ],
      [
        "motor",
        -9.93766568590455
      ],
      [
        "negative",
        -9.938219892565623
      ],
      [
        "Washington",
        -9.939165448729511
      ],
      [
        "Sch",
        -9.939168088724628
      ],
      [
        "bought",
        -9.939249873143527
      ],
      [
        "helpful",
        -9.939652438369006
      ],
      [
        "Plan",
        -9.939831131027521
      ],
      [
        "hill",
        -9.939911320860901
      ],
      [
        "seat",
        -9.939923444388988
      ],
      [
        "smaller",
        -9.940000269060983
      ],
      [
        "smart",
        -9.940052921268139
      ],
      [
        "raise",
        -9.94006921982793
      ],
      [
        "invite",
        -9.940118639405938
      ],
      [
        "Download",
        -9.940466812848966
      ],
      [
        "rights",
        -9.940871697667088
      ],
      [
        "economy",
        -9.941043643742116
      ],
      [
        "Work",
        -9.941391820336078
      ],
      [
        "reality",
        -9.942225560743292
      ],
      [
        "proper",
        -9.94321770189541
      ],
      [
        "mal",
        -9.944047079819587
      ],
      [
        "mode",
        -9.945459862188933
      ],
      [
        "partie",
        -9.946528119170889
      ],
      [
        "44",
        -9.946806674800865
      ],
      [
        "ultimate",
        -9.948613651434052
      ],
      [
        "celebrate",
        -9.948860394589687
      ],
      [
        "cultural",
        -9.949087541501829
      ],
      [
        "numbers",
        -9.949142861905717
      ],
      [
        "limit",
        -9.94957753195553
      ],
      [
        "square",
        -9.94980517277718
      ],
      [
        "Big",
        -9.950354792150405
      ],
      [
        "ssociated",
        -9.950998174304921
      ],
      [
        "DE",
        -9.95118390424184
      ],
      [
        "testing",
        -9.951224960597855
      ],
      [
        "expensive",
        -9.951385397824161
      ],
      [
        "island",
        -9.951967586476941
      ],
      [
        "zz",
        -9.952279475496578
      ],
      [
        "pack",
        -9.952987675861431
      ],
      [
        "opened",
        -9.95309591638019
      ],
      [
        "fight",
        -9.95353195864341
      ],
      [
        "ised",
        -9.954492060008388
      ],
      [
        "kit",
        -9.95598919896625
      ],
      [
        "rading",
        -9.956124998663128
      ],
      [
        "Jo",
        -9.956311049253936
      ],
      [
        "ski",
        -9.956400213508875
      ],
      [
        "society",
        -9.957187716141682
      ],
      [
        "professionals",
        -9.958290212633955
      ],
      [
        "provider",
        -9.958463650703912
      ],
      [
        "Har",
        -9.958649601446634
      ],
      [
        "academic",
        -9.95911786189767
      ],
      [
        "MO",
        -9.95915733382884
      ],
      [
        "TM",
        -9.959202168773611
      ],
      [
        "award",
        -9.95942351964672
      ],
      [
        "manual",
        -9.96025698920748
      ],
      [
        "guests",
        -9.960451725370335
      ],
      [
        "spending",
        -9.960937996369903
      ],
      [
        "ium",
        -9.961298172250226
      ],
      [
        "fantastic",
        -9.96200118093229
      ],
      [
        "bike",
        -9.9637913983961
      ],
      [
        "Bu",
        -9.96393799739107
      ],
      [
        "cap",
        -9.963992951177849
      ],
      [
        "tend",
        -9.964337938604789
      ],
      [
        "painting",
        -9.96443056207984
      ],
      [
        "programme",
        -9.964492710630498
      ],
      [
        "states",
        -9.96467430192455
      ],
      [
        "independent",
        -9.96508489793291
      ],
      [
        "drug",
        -9.965426601777887
      ],
      [
        "error",
        -9.966017042555837
      ],
      [
        "izing",
        -9.966086016032019
      ],
      [
        "System",
        -9.966177515236847
      ],
      [
        "doctor",
        -9.966775507338353
      ],
      [
        "Education",
        -9.967513969036471
      ],
      [
        "guarantee",
        -9.967643991362268
      ],
      [
        "otherwise",
        -9.967842585446913
      ],
      [
        "reference",
        -9.967888578453678
      ],
      [
        "factor",
        -9.968288095263436
      ],
      [
        "consistent",
        -9.96841313799617
      ],
      [
        "exclusive",
        -9.968762818576991
      ],
      [
        "proud",
        -9.969179340490541
      ],
      [
        "ease",
        -9.969392242509173
      ],
      [
        "fabric",
        -9.969483018059606
      ],
      [
        "ME",
        -9.969533145648285
      ],
      [
        "­",
        -9.96973248488787
      ],
      [
        "advance",
        -9.969836717158422
      ],
      [
        "spirit",
        -9.970378063866555
      ],
      [
        "iz",
        -9.970682626613096
      ],
      [
        "obvious",
        -9.970703136457097
      ],
      [
        "toward",
        -9.97128843165214
      ],
      [
        "uses",
        -9.971373428072138
      ],
      [
        "managed",
        -9.972339994536298
      ],
      [
        "surrounding",
        -9.972598871109541
      ],
      [
        "HD",
        -9.972896944872936
      ],
      [
        "Top",
        -9.97383728975366
      ],
      [
        "Real",
        -9.974054181398284
      ],
      [
        "participate",
        -9.974305776679817
      ],
      [
        "SP",
        -9.974410890763231
      ],
      [
        "accurate",
        -9.974595236183836
      ],
      [
        "push",
        -9.974602269007171
      ],
      [
        "lay",
        -9.974749995557069
      ],
      [
        "een",
        -9.975204342276205
      ],
      [
        "ped",
        -9.975405567526145
      ],
      [
        "Project",
        -9.975619030711101
      ],
      [
        "wrot",
        -9.97606913403796
      ],
      [
        "president",
        -9.976825983714498
      ],
      [
        "prepare",
        -9.977101977993247
      ],
      [
        "39",
        -9.977220533879455
      ],
      [
        "exam",
        -9.97735817086323
      ],
      [
        "thus",
        -9.977512401294145
      ],
      [
        "whatever",
        -9.977746462584667
      ],
      [
        "lunch",
        -9.978027027092569
      ],
      [
        "Ch",
        -9.978050906268054
      ],
      [
        "ach",
        -9.978406983138965
      ],
      [
        "dance",
        -9.978484197970086
      ],
      [
        "aim",
        -9.978576353382461
      ],
      [
        "colors",
        -9.97864492090594
      ],
      [
        "tur",
        -9.978803723874556
      ],
      [
        "herefore",
        -9.981090495013447
      ],
      [
        "NA",
        -9.981185928842883
      ],
      [
        "promise",
        -9.981599946418719
      ],
      [
        "signal",
        -9.982349094540027
      ],
      [
        "fans",
        -9.982489853704905
      ],
      [
        "acilities",
        -9.982684920908797
      ],
      [
        "ick",
        -9.982741962277219
      ],
      [
        "profile",
        -9.983100055060108
      ],
      [
        "burn",
        -9.98375994555115
      ],
      [
        "App",
        -9.984032964693135
      ],
      [
        "row",
        -9.984045725516516
      ],
      [
        "Com",
        -9.98416428382015
      ],
      [
        "shift",
        -9.984401814460005
      ],
      [
        "organize",
        -9.985113796204443
      ],
      [
        "Rock",
        -9.985319409599661
      ],
      [
        "2000",
        -9.985628772144366
      ],
      [
        "MP",
        -9.985670344211266
      ],
      [
        "Gold",
        -9.985727957955401
      ],
      [
        "installe",
        -9.98589032838014
      ],
      [
        "Wednesday",
        -9.986362852323929
      ],
      [
        "AC",
        -9.987228619001701
      ],
      [
        "river",
        -9.987646500066827
      ],
      [
        "videos",
        -9.988114073687797
      ],
      [
        "95",
        -9.988626189495076
      ],
      [
        "operation",
        -9.988853856971193
      ],
      [
        "federal",
        -9.989327222162533
      ],
      [
        "Both",
        -9.990267009481814
      ],
      [
        "residents",
        -9.99034866187998
      ],
      [
        "Information",
        -9.990384668379772
      ],
      [
        "miss",
        -9.992313836858447
      ],
      [
        "regulation",
        -9.992860481920847
      ],
      [
        "beauty",
        -9.99329231696312
      ],
      [
        "Chinese",
        -9.994783103736694
      ],
      [
        "contribute",
        -9.995231030753844
      ],
      [
        "environmental",
        -9.99597854761037
      ],
      [
        "Card",
        -9.996169033483703
      ],
      [
        "Wood",
        -9.996702049978293
      ],
      [
        "owned",
        -9.997093106058278
      ],
      [
        "Ver",
        -9.997207397117922
      ],
      [
        "paint",
        -9.997533718000636
      ],
      [
        "fees",
        -9.998148796008483
      ],
      [
        "rating",
        -9.998353001396222
      ],
      [
        "corporate",
        -9.998685982082515
      ],
      [
        "ric",
        -9.998805307549656
      ],
      [
        "angle",
        -9.999902048905206
      ],
      [
        "mate",
        -10.000029291713599
      ],
      [
        "bright",
        -10.000761463369244
      ],
      [
        "dic",
        -10.000826619453875
      ],
      [
        "Data",
        -10.00116530419125
      ],
      [
        "south",
        -10.0011766931025
      ],
      [
        "interior",
        -10.001351751354768
      ],
      [
        "kin",
        -10.001954879449201
      ],
      [
        "couldn",
        -10.002384735427174
      ],
      [
        "strategies",
        -10.002772968626662
      ],
      [
        "rooms",
        -10.003239055548889
      ],
      [
        "medium",
        -10.003795866128527
      ],
      [
        "salt",
        -10.004771870036926
      ],
      [
        "excited",
        -10.005824051685067
      ],
      [
        "becoming",
        -10.006067800374403
      ],
      [
        "Fi",
        -10.006113200194715
      ],
      [
        "capture",
        -10.008555123131362
      ],
      [
        "Amazon",
        -10.008807703101521
      ],
      [
        "operations",
        -10.0088470538153
      ],
      [
        "EN",
        -10.008912692222784
      ],
      [
        "65",
        -10.010991376030887
      ],
      [
        "coverage",
        -10.013050018476102
      ],
      [
        "CC",
        -10.01321365326745
      ],
      [
        "meter",
        -10.014367969635035
      ],
      [
        "Their",
        -10.014896533553348
      ],
      [
        "truth",
        -10.015058751651651
      ],
      [
        "processing",
        -10.01509660231245
      ],
      [
        "detailed",
        -10.015144032923468
      ],
      [
        "therapy",
        -10.01521391483136
      ],
      [
        "internal",
        -10.015441453000081
      ],
      [
        "shipping",
        -10.01565657508495
      ],
      [
        "cake",
        -10.016370173679038
      ],
      [
        "Los",
        -10.017649973828956
      ],
      [
        "valuable",
        -10.01792981729962
      ],
      [
        "exciting",
        -10.017954249949636
      ],
      [
        "Island",
        -10.0187023677758
      ],
      [
        "manager",
        -10.018818590756124
      ],
      [
        "described",
        -10.01913561898369
      ],
      [
        "investor",
        -10.019526210052808
      ],
      [
        "ile",
        -10.019697835049293
      ],
      [
        "thousands",
        -10.019784278673368
      ],
      [
        "Tri",
        -10.019969984241119
      ],
      [
        "rid",
        -10.020385585123828
      ],
      [
        "RO",
        -10.020947231922147
      ],
      [
        "harm",
        -10.021582442179346
      ],
      [
        "expand",
        -10.021898915181291
      ],
      [
        "German",
        -10.021929363327864
      ],
      [
        "approximately",
        -10.022355887799003
      ],
      [
        "military",
        -10.022520457865038
      ],
      [
        "49",
        -10.022596953838958
      ],
      [
        "happene",
        -10.022853161613135
      ],
      [
        "polic",
        -10.023057134324814
      ],
      [
        "assistance",
        -10.023272353120097
      ],
      [
        "secret",
        -10.023393140690864
      ],
      [
        "Play",
        -10.023397371115028
      ],
      [
        "jo",
        -10.024366493573346
      ],
      [
        "PS",
        -10.024395708627331
      ],
      [
        "doubt",
        -10.024576164633132
      ],
      [
        "!!!",
        -10.024923730835003
      ],
      [
        "domain",
        -10.024954857072577
      ],
      [
        "ker",
        -10.025047008124146
      ],
      [
        "Ru",
        -10.025692673322368
      ],
      [
        "Final",
        -10.025872119391277
      ],
      [
        "Next",
        -10.026846742538696
      ],
      [
        "qua",
        -10.027214260498976
      ],
      [
        "King",
        -10.027248417735265
      ],
      [
        "funding",
        -10.027619335417423
      ],
      [
        "honest",
        -10.027636234825593
      ],
      [
        "possibilit",
        -10.027648392503234
      ],
      [
        "agency",
        -10.02766686728404
      ],
      [
        "reliable",
        -10.028354811486578
      ],
      [
        "audio",
        -10.029111190473175
      ],
      [
        "carrie",
        -10.029745462875072
      ],
      [
        "cho",
        -10.029894704774007
      ],
      [
        "sugar",
        -10.030416003032403
      ],
      [
        "val",
        -10.03161835265476
      ],
      [
        "scene",
        -10.032380288432124
      ],
      [
        "Development",
        -10.032649806496087
      ],
      [
        "listen",
        -10.03305187146457
      ],
      [
        "pecies",
        -10.03313873869579
      ],
      [
        "operate",
        -10.033405251743623
      ],
      [
        "boat",
        -10.034785881802375
      ],
      [
        "jobs",
        -10.035541002358805
      ],
      [
        "ight",
        -10.035840413115572
      ],
      [
        "AN",
        -10.036779005062185
      ],
      [
        "42",
        -10.037167486965547
      ],
      [
        "suitable",
        -10.037274768596102
      ],
      [
        "ailed",
        -10.037291558131884
      ],
      [
        "Keep",
        -10.037377695015149
      ],
      [
        "bowl",
        -10.037418699472983
      ],
      [
        "worry",
        -10.038583217284785
      ],
      [
        "leadership",
        -10.03864905282655
      ],
      [
        "sold",
        -10.03995521807898
      ],
      [
        "virtual",
        -10.040580925680953
      ],
      [
        "awesome",
        -10.04101007253498
      ],
      [
        "farm",
        -10.04173210608328
      ],
      [
        "grand",
        -10.041876190573173
      ],
      [
        "colour",
        -10.042847717072355
      ],
      [
        "rental",
        -10.044092648966249
      ],
      [
        "wise",
        -10.044367747894672
      ],
      [
        "deed",
        -10.044897767765896
      ],
      [
        "Beach",
        -10.046547917006077
      ],
      [
        "finance",
        -10.046582101177243
      ],
      [
        "district",
        -10.046963971947783
      ],
      [
        "SC",
        -10.047090776749311
      ],
      [
        "Men",
        -10.047100913349869
      ],
      [
        "appointment",
        -10.047249438763311
      ],
      [
        "chat",
        -10.04750824110744
      ],
      [
        "presence",
        -10.048435728533407
      ],
      [
        "faith",
        -10.04977989048628
      ],
      [
        "election",
        -10.049983945800633
      ],
      [
        "bottle",
        -10.051049486332673
      ],
      [
        "chemical",
        -10.051051310417133
      ],
      [
        "iPhone",
        -10.051342055673963
      ],
      [
        "register",
        -10.051353172060573
      ],
      [
        "invest",
        -10.05164122616305
      ],
      [
        "wire",
        -10.051873362928987
      ],
      [
        "cells",
        -10.05211343328219
      ],
      [
        "Before",
        -10.052498188185966
      ],
      [
        "memory",
        -10.053161229960391
      ],
      [
        "peace",
        -10.053294890657114
      ],
      [
        "CH",
        -10.053302237043713
      ],
      [
        "Microsoft",
        -10.053723208026934
      ],
      [
        "commitment",
        -10.054286238750603
      ],
      [
        "dead",
        -10.054415390559367
      ],
      [
        "dating",
        -10.054493054804563
      ],
      [
        "resolution",
        -10.054794475689269
      ],
      [
        "dress",
        -10.054849293969024
      ],
      [
        "47",
        -10.056043887059484
      ],
      [
        "Ben",
        -10.057320149820075
      ],
      [
        "Plus",
        -10.057412700128062
      ],
      [
        "Under",
        -10.057459607022125
      ],
      [
        "Part",
        -10.05746526117976
      ],
      [
        "guess",
        -10.057654156203323
      ],
      [
        "unless",
        -10.05809897945914
      ],
      [
        "800",
        -10.0581392997751
      ],
      [
        "chair",
        -10.058313306007635
      ],
      [
        "maximum",
        -10.058443166639965
      ],
      [
        "majority",
        -10.05893297134008
      ],
      [
        "clearly",
        -10.058963227572713
      ],
      [
        "Michael",
        -10.058973329909076
      ],
      [
        "Cha",
        -10.059513481181511
      ],
      [
        "closed",
        -10.060021449289565
      ],
      [
        "apartment",
        -10.060093131082015
      ],
      [
        "flavor",
        -10.060574701609815
      ],
      [
        "attend",
        -10.06087343625126
      ],
      [
        "forms",
        -10.061202690791482
      ],
      [
        "Award",
        -10.061334056464652
      ],
      [
        "ram",
        -10.06171465022533
      ],
      [
        "FA",
        -10.063398126338166
      ],
      [
        "accident",
        -10.06427657521494
      ],
      [
        "imp",
        -10.065054263880695
      ],
      [
        "Fire",
        -10.065729837521175
      ],
      [
        "registration",
        -10.065891919939485
      ],
      [
        "Read",
        -10.067121701183584
      ],
      [
        "lesson",
        -10.067830970653624
      ],
      [
        "expertise",
        -10.067832864432898
      ],
      [
        "characters",
        -10.067835422069097
      ],
      [
        "manner",
        -10.068754773055826
      ],
      [
        "updated",
        -10.06978654058009
      ],
      [
        "400",
        -10.069858468570553
      ],
      [
        "Network",
        -10.071125267111409
      ],
      [
        "showing",
        -10.071412057657845
      ],
      [
        "records",
        -10.07158454237129
      ],
      [
        "holding",
        -10.072433553444835
      ],
      [
        "north",
        -10.07305936957513
      ],
      [
        "minimum",
        -10.073412268162091
      ],
      [
        "lift",
        -10.074417679742924
      ],
      [
        "ray",
        -10.074481674372386
      ],
      [
        "panel",
        -10.074770858712181
      ],
      [
        "launch",
        -10.075292851792307
      ],
      [
        "recommended",
        -10.075968848261518
      ],
      [
        "Sun",
        -10.07617050446056
      ],
      [
        "traine",
        -10.07621601574689
      ],
      [
        "Community",
        -10.076649859667764
      ],
      [
        "behavior",
        -10.077566393843975
      ],
      [
        "mass",
        -10.078173558965885
      ],
      [
        "Robert",
        -10.079340197874085
      ],
      [
        "increasing",
        -10.079606604041789
      ],
      [
        "creation",
        -10.079882598830302
      ],
      [
        "affordable",
        -10.081437223730642
      ],
      [
        "Bill",
        -10.08151470243288
      ],
      [
        "trick",
        -10.081743108129174
      ],
      [
        "sight",
        -10.082194964401097
      ],
      [
        "Tom",
        -10.082688280783845
      ],
      [
        "walking",
        -10.083725626988413
      ],
      [
        "refer",
        -10.083956069571002
      ],
      [
        "NC",
        -10.084032342565202
      ],
      [
        "importanc",
        -10.084156249910992
      ],
      [
        "Hotel",
        -10.084381427076519
      ],
      [
        "revenue",
        -10.084772607815621
      ],
      [
        "continued",
        -10.085172810984353
      ],
      [
        "novel",
        -10.085904256949465
      ],
      [
        "joint",
        -10.086055242752842
      ],
      [
        "launche",
        -10.086334218185085
      ],
      [
        "animals",
        -10.08691812951508
      ],
      [
        "prefer",
        -10.08698554194121
      ],
      [
        "plate",
        -10.08723620281933
      ],
      [
        "industrial",
        -10.088577734115749
      ],
      [
        "supported",
        -10.088847506802548
      ],
      [
        "electric",
        -10.089253585370347
      ],
      [
        "gra",
        -10.089834600808572
      ],
      [
        "raised",
        -10.090741976799466
      ],
      [
        "counter",
        -10.090892282068612
      ],
      [
        "crusher",
        -10.091365642631057
      ],
      [
        "64",
        -10.091424527891323
      ],
      [
        "cute",
        -10.091567204501413
      ],
      [
        "participant",
        -10.092408625145136
      ],
      [
        "jump",
        -10.093092031037264
      ],
      [
        "injury",
        -10.093269683743738
      ],
      [
        "46",
        -10.094114152775564
      ],
      [
        "appearance",
        -10.094347730766785
      ],
      [
        "France",
        -10.094744092151977
      ],
      [
        "feed",
        -10.094933670017006
      ],
      [
        "leaving",
        -10.095178861638693
      ],
      [
        "08",
        -10.09532728055834
      ],
      [
        "Gra",
        -10.09571641612099
      ],
      [
        "AD",
        -10.095799705005387
      ],
      [
        "category",
        -10.097356408374944
      ],
      [
        "football",
        -10.097533497142626
      ],
      [
        "lake",
        -10.099018098822933
      ],
      [
        "developer",
        -10.099397592902026
      ],
      [
        "decisions",
        -10.099514557895173
      ],
      [
        "competitive",
        -10.099563308911797
      ],
      [
        "perspective",
        -10.100115792166246
      ],
      [
        "confidence",
        -10.100668587724462
      ],
      [
        "Cal",
        -10.101233741904746
      ],
      [
        "Hall",
        -10.101261004939643
      ],
      [
        "units",
        -10.101302374802607
      ],
      [
        "Team",
        -10.10135815359103
      ],
      [
        "lovely",
        -10.10167072393056
      ],
      [
        "delicious",
        -10.101775109899261
      ],
      [
        "ure",
        -10.10309380973413
      ],
      [
        "principle",
        -10.103991764860321
      ],
      [
        "suite",
        -10.104086925799397
      ],
      [
        "mouth",
        -10.104201754547395
      ],
      [
        "advertising",
        -10.104228782089926
      ],
      [
        "lam",
        -10.104530427172504
      ],
      [
        "ä",
        -10.10510195089738
      ],
      [
        "extensive",
        -10.105101951352903
      ],
      [
        "Col",
        -10.105227550704676
      ],
      [
        "describe",
        -10.1054355382969
      ],
      [
        "04",
        -10.107132655875038
      ],
      [
        "distribution",
        -10.107339739549555
      ],
      [
        "remains",
        -10.10752758484389
      ],
      [
        "pattern",
        -10.107893694791201
      ],
      [
        "England",
        -10.10961217319339
      ],
      [
        "Government",
        -10.109651043931585
      ],
      [
        "teams",
        -10.10974738960967
      ],
      [
        "dynamic",
        -10.110113352787646
      ],
      [
        "cal",
        -10.110302476349684
      ],
      [
        "objective",
        -10.110871220773696
      ],
      [
        "Manager",
        -10.111358131009045
      ],
      [
        "Care",
        -10.112679062512132
      ],
      [
        "chicken",
        -10.112929312253407
      ],
      [
        "kick",
        -10.113012964770547
      ],
      [
        "earth",
        -10.113177175302987
      ],
      [
        "crowd",
        -10.113726749724512
      ],
      [
        "Peter",
        -10.114046714030795
      ],
      [
        "properly",
        -10.11449277703002
      ],
      [
        "para",
        -10.114622159039369
      ],
      [
        "SO",
        -10.115260120350817
      ],
      [
        "Foundation",
        -10.115757641396623
      ],
      [
        "resource",
        -10.116386833172175
      ],
      [
        "identifie",
        -10.116734119659156
      ],
      [
        "artists",
        -10.117297670556296
      ],
      [
        "Grand",
        -10.117433081222888
      ],
      [
        "committed",
        -10.117453790827657
      ],
      [
        "George",
        -10.117560229856824
      ],
      [
        "MC",
        -10.118026569398104
      ],
      [
        "village",
        -10.118038074182
      ],
      [
        "comprehensive",
        -10.118521218175783
      ],
      [
        "automatical",
        -10.11854118967041
      ],
      [
        "cities",
        -10.119209420478757
      ],
      [
        "happens",
        -10.120433921366217
      ],
      [
        "eventual",
        -10.121164829255
      ],
      [
        "died",
        -10.121286050740782
      ],
      [
        "technologie",
        -10.12133914153503
      ],
      [
        "destination",
        -10.121339740599542
      ],
      [
        "adventure",
        -10.122172941438114
      ],
      [
        "saving",
        -10.122639994091351
      ],
      [
        "bridge",
        -10.123036737667398
      ],
      [
        "approved",
        -10.123542861183454
      ],
      [
        "ix",
        -10.123617315776642
      ],
      [
        "boy",
        -10.123768687300725
      ],
      [
        "Social",
        -10.124002025710752
      ],
      [
        "transport",
        -10.124308812623037
      ],
      [
        "Contact",
        -10.124940186827835
      ],
      [
        "actions",
        -10.125095905321349
      ],
      [
        "busy",
        -10.125709365688882
      ],
      [
        "values",
        -10.126238160942187
      ],
      [
        "landscape",
        -10.126452468348774
      ],
      [
        "forget",
        -10.128315567706238
      ],
      [
        "sources",
        -10.12964676726235
      ],
      [
        "dining",
        -10.130039433250019
      ],
      [
        "Old",
        -10.130119259418343
      ],
      [
        "battle",
        -10.131098998768799
      ],
      [
        "cook",
        -10.131212926128924
      ],
      [
        "foreign",
        -10.131640103868499
      ],
      [
        "laws",
        -10.132047274594541
      ],
      [
        "cul",
        -10.13244128092697
      ],
      [
        "BA",
        -10.133206512784955
      ],
      [
        "meat",
        -10.133706057380653
      ],
      [
        "GA",
        -10.133756148266489
      ],
      [
        "PR",
        -10.134068584328281
      ],
      [
        "assessment",
        -10.134524093107913
      ],
      [
        "Auto",
        -10.135009359867858
      ],
      [
        "putting",
        -10.135939623047193
      ],
      [
        "Android",
        -10.136311792562505
      ],
      [
        "Public",
        -10.13639388218138
      ],
      [
        "performe",
        -10.136537299585314
      ],
      [
        "Place",
        -10.136695683113022
      ],
      [
        "battery",
        -10.137255354834885
      ],
      [
        "outcome",
        -10.13835809321598
      ],
      [
        "typical",
        -10.138681151970374
      ],
      [
        "acid",
        -10.138985818488024
      ],
      [
        "Through",
        -10.139603333163857
      ],
      [
        "previously",
        -10.139834650443465
      ],
      [
        "lan",
        -10.141037405516197
      ],
      [
        "imagine",
        -10.141955495998143
      ],
      [
        "names",
        -10.142262732291696
      ],
      [
        "parking",
        -10.142601688895741
      ],
      [
        "stores",
        -10.143731461081973
      ],
      [
        "ourselves",
        -10.143747786369005
      ],
      [
        "View",
        -10.144485809727918
      ],
      [
        "foundation",
        -10.144684636366922
      ],
      [
        "2006",
        -10.144935337803517
      ],
      [
        "zi",
        -10.14623727131164
      ],
      [
        "possibl",
        -10.146276728681421
      ],
      [
        "seller",
        -10.14679805073812
      ],
      [
        "parent",
        -10.147130813300555
      ],
      [
        "winner",
        -10.14718195963955
      ],
      [
        "realize",
        -10.147323369741631
      ],
      [
        "Market",
        -10.147377142107498
      ],
      [
        "Bra",
        -10.147397589476768
      ],
      [
        "executive",
        -10.147687140810842
      ],
      [
        "iron",
        -10.14820646515177
      ],
      [
        "wild",
        -10.148948699475813
      ],
      [
        "ET",
        -10.149361004722232
      ],
      [
        "sample",
        -10.149591847652129
      ],
      [
        "highlight",
        -10.14996433828314
      ],
      [
        "Back",
        -10.150296016771062
      ],
      [
        "Those",
        -10.150766917488703
      ],
      [
        "relax",
        -10.151525102723804
      ],
      [
        "earn",
        -10.151960872488448
      ],
      [
        "pur",
        -10.152657647785368
      ],
      [
        "Food",
        -10.152898821885678
      ],
      [
        "brown",
        -10.153282034139764
      ],
      [
        "Hav",
        -10.153452651924418
      ],
      [
        "protein",
        -10.153475032402676
      ],
      [
        "notes",
        -10.153681512930318
      ],
      [
        "provision",
        -10.153691557073179
      ],
      [
        "deposit",
        -10.153872553295686
      ],
      [
        "cars",
        -10.154537190419187
      ],
      [
        "sheet",
        -10.155062820554953
      ],
      [
        "express",
        -10.155207017386527
      ],
      [
        "joine",
        -10.155350796380109
      ],
      [
        "indicate",
        -10.155791799882579
      ],
      [
        "Committee",
        -10.156380628679475
      ],
      [
        "command",
        -10.156844824791541
      ],
      [
        "upgrade",
        -10.156936986056888
      ],
      [
        "depth",
        -10.15696979258016
      ],
      [
        "AP",
        -10.157028724400728
      ],
      [
        "birth",
        -10.157122213317301
      ],
      [
        "bath",
        -10.157184924282744
      ],
      [
        "lighting",
        -10.158025846973967
      ],
      [
        "yard",
        -10.159377021490435
      ],
      [
        "Sam",
        -10.15957631674318
      ],
      [
        "Game",
        -10.159743452027122
      ],
      [
        "context",
        -10.160321071300793
      ],
      [
        "lip",
        -10.160330090072652
      ],
      [
        "feedback",
        -10.160547088451146
      ],
      [
        "trees",
        -10.160727206476816
      ],
      [
        "locations",
        -10.160822411323654
      ],
      [
        "mom",
        -10.161058897107834
      ],
      [
        "demonstrate",
        -10.16165638286142
      ],
      [
        "forest",
        -10.161715012271706
      ],
      [
        "sauce",
        -10.162836427110143
      ],
      [
        "Centre",
        -10.163817903845642
      ],
      [
        "mistake",
        -10.164307397943361
      ],
      [
        "garage",
        -10.166202261350648
      ],
      [
        "pic",
        -10.166360713798056
      ],
      [
        "description",
        -10.16636902572076
      ],
      [
        "Mal",
        -10.166853716890152
      ],
      [
        "visiting",
        -10.167398080033697
      ],
      [
        "09",
        -10.167466659432543
      ],
      [
        "trouble",
        -10.167606253239594
      ],
      [
        "retail",
        -10.167715089204211
      ],
      [
        "nic",
        -10.168258155157991
      ],
      [
        "Live",
        -10.168847645168034
      ],
      [
        "Full",
        -10.169809805360753
      ],
      [
        "uck",
        -10.169978218561672
      ],
      [
        "involve",
        -10.170000339697872
      ],
      [
        "Central",
        -10.170512610285385
      ],
      [
        "passion",
        -10.170619799909044
      ],
      [
        "flight",
        -10.172494936030246
      ],
      [
        "calls",
        -10.172646094050712
      ],
      [
        "sounds",
        -10.172843785515486
      ],
      [
        "cup",
        -10.172854804223633
      ],
      [
        "chocolate",
        -10.174074991299467
      ],
      [
        "Additional",
        -10.174075034665929
      ],
      [
        "egg",
        -10.174894808281502
      ],
      [
        "wouldn",
        -10.17572591469051
      ],
      [
        "Israel",
        -10.175851310050664
      ],
      [
        "Germany",
        -10.176339321288316
      ],
      [
        "quote",
        -10.17772966556053
      ],
      [
        "script",
        -10.17789658657226
      ],
      [
        "PO",
        -10.178105076217147
      ],
      [
        "library",
        -10.178249441173353
      ],
      [
        "animal",
        -10.178967011696951
      ],
      [
        "anywhere",
        -10.17896898228797
      ],
      [
        "familiar",
        -10.180631270833398
      ],
      [
        "phase",
        -10.18191038644051
      ],
      [
        "DO",
        -10.182944359578457
      ],
      [
        "Only",
        -10.183169117312442
      ],
      [
        "carbon",
        -10.18316978332092
      ],
      [
        "Twitter",
        -10.184844195679165
      ],
      [
        "Inter",
        -10.184876643872716
      ],
      [
        "edition",
        -10.1849873197705
      ],
      [
        "guys",
        -10.187072233299027
      ],
      [
        "construct",
        -10.187589466024207
      ],
      [
        "LO",
        -10.187836574625972
      ],
      [
        "mel",
        -10.189366980407186
      ],
      [
        "becomes",
        -10.189639772745853
      ],
      [
        "missing",
        -10.189653206743905
      ],
      [
        "route",
        -10.189802705808269
      ],
      [
        "resume",
        -10.189874129627347
      ],
      [
        "African",
        -10.190262348857257
      ],
      [
        "Class",
        -10.190639687674185
      ],
      [
        "providers",
        -10.190930190283709
      ],
      [
        "43",
        -10.191441723258823
      ],
      [
        "Learn",
        -10.192033645423308
      ],
      [
        "Ke",
        -10.192173772894622
      ],
      [
        "clinical",
        -10.192768479645377
      ],
      [
        "struggle",
        -10.19330059455821
      ],
      [
        "writer",
        -10.193565744148597
      ],
      [
        "Rob",
        -10.193764913910254
      ],
      [
        "Media",
        -10.193916852237662
      ],
      [
        "insight",
        -10.193938577204772
      ],
      [
        "Table",
        -10.194147337042395
      ],
      [
        "partnership",
        -10.194275303648
      ],
      [
        "monthly",
        -10.19513915177307
      ],
      [
        "studio",
        -10.195210942214679
      ],
      [
        "Head",
        -10.19562473851883
      ],
      [
        "intended",
        -10.195652696994285
      ],
      [
        "historical",
        -10.196932823827902
      ],
      [
        "occasion",
        -10.19703622807194
      ],
      [
        "Long",
        -10.197537009970581
      ],
      [
        "except",
        -10.198473496034213
      ],
      [
        "Watch",
        -10.199010139963896
      ],
      [
        "failure",
        -10.20003933285696
      ],
      [
        "Cat",
        -10.20014117967442
      ],
      [
        "climate",
        -10.200460081621902
      ],
      [
        "organic",
        -10.200554849936523
      ],
      [
        "administration",
        -10.200606539303667
      ],
      [
        "Valley",
        -10.20075881042062
      ],
      [
        "defined",
        -10.20081048764952
      ],
      [
        "NO",
        -10.200915235142453
      ],
      [
        "itch",
        -10.201378325544944
      ],
      [
        "2nd",
        -10.201414591556734
      ],
      [
        "Family",
        -10.201829533280081
      ],
      [
        "idden",
        -10.202186408974905
      ],
      [
        "supplier",
        -10.202526676453498
      ],
      [
        "ack",
        -10.2026283780672
      ],
      [
        "interface",
        -10.203438490347924
      ],
      [
        "object",
        -10.203570933125857
      ],
      [
        "innovative",
        -10.204279650483048
      ],
      [
        "41",
        -10.204340336047716
      ],
      [
        "lights",
        -10.20491632314938
      ],
      [
        "lab",
        -10.205073080383812
      ],
      [
        "fficiency",
        -10.20512312554268
      ],
      [
        "Medical",
        -10.205427465952624
      ],
      [
        "85",
        -10.206011129745397
      ],
      [
        "Look",
        -10.206241222365257
      ],
      [
        "sister",
        -10.207982341898408
      ],
      [
        "cheese",
        -10.207990043761463
      ],
      [
        "appears",
        -10.208616544640979
      ],
      [
        "capabilit",
        -10.209275963952777
      ],
      [
        "episode",
        -10.209814719383498
      ],
      [
        "measures",
        -10.209947045879261
      ],
      [
        "portion",
        -10.210436960714102
      ],
      [
        "Sub",
        -10.210672796869458
      ],
      [
        "remote",
        -10.211083020273607
      ],
      [
        "Does",
        -10.21142339229519
      ],
      [
        "OF",
        -10.211620857690146
      ],
      [
        "rose",
        -10.211939701796743
      ],
      [
        "Western",
        -10.21231771317414
      ],
      [
        "establish",
        -10.212527155593836
      ],
      [
        "600",
        -10.212884761027535
      ],
      [
        "ON",
        -10.213049134829802
      ],
      [
        "committee",
        -10.21352379051272
      ],
      [
        "Show",
        -10.21380040785726
      ],
      [
        "flowers",
        -10.214635092869788
      ],
      [
        "observe",
        -10.21501925899325
      ],
      [
        "oven",
        -10.21512225648027
      ],
      [
        "string",
        -10.215277781555894
      ],
      [
        "proof",
        -10.217794340262989
      ],
      [
        "EC",
        -10.21849092890577
      ],
      [
        "layer",
        -10.219175267000164
      ],
      [
        "trans",
        -10.219360058798571
      ],
      [
        "bound",
        -10.21960136682777
      ],
      [
        "employer",
        -10.219700405995479
      ],
      [
        "guy",
        -10.219939349730986
      ],
      [
        "vol",
        -10.220358149554944
      ],
      [
        "RA",
        -10.22038382090797
      ],
      [
        "dish",
        -10.221194789892252
      ],
      [
        "fixed",
        -10.22134873568957
      ],
      [
        "cutting",
        -10.221465583553432
      ],
      [
        "deck",
        -10.221922452371281
      ],
      [
        "Hill",
        -10.222289747066743
      ],
      [
        "associate",
        -10.222402756641038
      ],
      [
        "cable",
        -10.223144523041471
      ],
      [
        "emergency",
        -10.223252614853173
      ],
      [
        "infrastructure",
        -10.223475285347106
      ],
      [
        "58",
        -10.223564062928324
      ],
      [
        "thi",
        -10.224599530899134
      ],
      [
        "District",
        -10.225360456862909
      ],
      [
        "zone",
        -10.226167513428454
      ],
      [
        "meant",
        -10.227235527102106
      ],
      [
        "delivere",
        -10.227286211625195
      ],
      [
        "blend",
        -10.227430086504196
      ],
      [
        "Start",
        -10.227592325871804
      ],
      [
        "contractor",
        -10.227624710053563
      ],
      [
        "Using",
        -10.227652953234657
      ],
      [
        "Review",
        -10.228244598898392
      ],
      [
        "chapter",
        -10.228489924631607
      ],
      [
        "2005",
        -10.22963370452011
      ],
      [
        "valid",
        -10.230379731913096
      ],
      [
        "university",
        -10.230408639807639
      ],
      [
        "thoughts",
        -10.230657536789668
      ],
      [
        "quiet",
        -10.230789428669015
      ],
      [
        "rapid",
        -10.23092546351879
      ],
      [
        "pad",
        -10.23142246702379
      ],
      [
        "showe",
        -10.23178429230535
      ],
      [
        "guest",
        -10.231910604817958
      ],
      [
        "Spring",
        -10.232167466010548
      ],
      [
        "upper",
        -10.234060646725684
      ],
      [
        "sitting",
        -10.234098175538108
      ],
      [
        "IL",
        -10.234136723427886
      ],
      [
        "glad",
        -10.234245834756795
      ],
      [
        "istic",
        -10.234721803039388
      ],
      [
        "vital",
        -10.235314575823242
      ],
      [
        "partners",
        -10.235554617699677
      ],
      [
        "initiative",
        -10.236090188436085
      ],
      [
        "BE",
        -10.236804656501004
      ],
      [
        "paying",
        -10.237507398842892
      ],
      [
        "Nor",
        -10.237762316496315
      ],
      [
        "calling",
        -10.237826152285088
      ],
      [
        "bond",
        -10.237941915500326
      ],
      [
        "continues",
        -10.238580607533855
      ],
      [
        "Pet",
        -10.238986401579082
      ],
      [
        "attract",
        -10.239471518870804
      ],
      [
        "Security",
        -10.239863952476934
      ],
      [
        "vehicles",
        -10.24108968712834
      ],
      [
        "shed",
        -10.241164138859284
      ],
      [
        "150",
        -10.241211479373181
      ],
      [
        "Sal",
        -10.241465393509898
      ],
      [
        "windows",
        -10.241623112405216
      ],
      [
        "и",
        -10.24238163359978
      ],
      [
        "articles",
        -10.2425181077688
      ],
      [
        "adults",
        -10.242634127515148
      ],
      [
        "Earth",
        -10.24308328762915
      ],
      [
        "EL",
        -10.24341079389761
      ],
      [
        "corn",
        -10.243849467628845
      ],
      [
        "channel",
        -10.243904594940805
      ],
      [
        "ably",
        -10.244132224516676
      ],
      [
        "educational",
        -10.244132548630057
      ],
      [
        "afternoon",
        -10.244966616569112
      ],
      [
        "rated",
        -10.245535896468061
      ],
      [
        "investigation",
        -10.246320966928442
      ],
      [
        "habit",
        -10.246363730199068
      ],
      [
        "Paris",
        -10.247239065170351
      ],
      [
        "premium",
        -10.247520428363083
      ],
      [
        "nstead",
        -10.247907091220622
      ],
      [
        "respond",
        -10.248158551378996
      ],
      [
        "youth",
        -10.248424306803628
      ],
      [
        "ification",
        -10.249726711980228
      ],
      [
        "Dec",
        -10.249774310072748
      ],
      [
        "emotional",
        -10.249862530397035
      ],
      [
        "DA",
        -10.249979823009053
      ],
      [
        "proposal",
        -10.250084852941631
      ],
      [
        "adult",
        -10.25017130058199
      ],
      [
        "breakfast",
        -10.250383918816032
      ],
      [
        "chart",
        -10.250631421955372
      ],
      [
        "bid",
        -10.250686402308347
      ],
      [
        "Report",
        -10.25125445260871
      ],
      [
        "graphic",
        -10.251979160722357
      ],
      [
        "female",
        -10.2526971992324
      ],
      [
        "Jan",
        -10.253446816382862
      ],
      [
        "59",
        -10.253469359074785
      ],
      [
        "stretch",
        -10.253754169729643
      ],
      [
        "Society",
        -10.25423261630953
      ],
      [
        "browser",
        -10.254371853072833
      ],
      [
        "Journal",
        -10.254591323034541
      ],
      [
        "Site",
        -10.254758408624472
      ],
      [
        "leather",
        -10.255901437685065
      ],
      [
        "dumpster",
        -10.255914551470255
      ],
      [
        "representative",
        -10.25598536551624
      ],
      [
        "tank",
        -10.256325505299326
      ],
      [
        "listing",
        -10.256727271787309
      ],
      [
        "sponsor",
        -10.2570277261227
      ],
      [
        "bread",
        -10.25772873110919
      ],
      [
        "extend",
        -10.25805410966438
      ],
      [
        "breath",
        -10.258908815239364
      ],
      [
        "Come",
        -10.258953176273675
      ],
      [
        "56",
        -10.259006467784904
      ],
      [
        "birthday",
        -10.259655494098809
      ],
      [
        "Commission",
        -10.259840922735094
      ],
      [
        "Engineer",
        -10.259986547503665
      ],
      [
        "utilize",
        -10.26027552937772
      ],
      [
        "effectively",
        -10.260331354027224
      ],
      [
        "vary",
        -10.261568278479338
      ],
      [
        "Point",
        -10.261800494612187
      ],
      [
        "greatest",
        -10.261906724908215
      ],
      [
        "doors",
        -10.262319359358928
      ],
      [
        "convenient",
        -10.262358434731881
      ],
      [
        "inner",
        -10.262633972643712
      ],
      [
        "fail",
        -10.26296128264362
      ],
      [
        "continu",
        -10.263086599860676
      ],
      [
        "Human",
        -10.263179850305955
      ],
      [
        "designs",
        -10.263332245130329
      ],
      [
        "nce",
        -10.264535256488827
      ],
      [
        "choices",
        -10.265145700404386
      ],
      [
        "motion",
        -10.265605962756688
      ],
      [
        "incredible",
        -10.26735810720604
      ],
      [
        "raw",
        -10.26835612469357
      ],
      [
        "rig",
        -10.268608523707474
      ],
      [
        "07",
        -10.268748812163766
      ],
      [
        "tickets",
        -10.269084630076357
      ],
      [
        "02",
        -10.269852143766034
      ],
      [
        "discovere",
        -10.270017069334262
      ],
      [
        "cooking",
        -10.270787162945027
      ],
      [
        "onic",
        -10.270878878848038
      ],
      [
        "removed",
        -10.271617917447342
      ],
      [
        "instant",
        -10.27223959156678
      ],
      [
        "acquire",
        -10.272308353176228
      ],
      [
        "housing",
        -10.272542968031999
      ],
      [
        "CT",
        -10.273111083489761
      ],
      [
        "NS",
        -10.273862163400217
      ],
      [
        "urge",
        -10.274136958125307
      ],
      [
        "bonus",
        -10.274798496523326
      ],
      [
        "unt",
        -10.27502033202721
      ],
      [
        "Pol",
        -10.275318510913886
      ],
      [
        "Wall",
        -10.275604591980862
      ],
      [
        "experiences",
        -10.275930292754268
      ],
      [
        "reated",
        -10.276592498091361
      ],
      [
        "guard",
        -10.276720068725364
      ],
      [
        "Che",
        -10.276994695976201
      ],
      [
        "Key",
        -10.277767589229336
      ],
      [
        "prompt",
        -10.278082746258912
      ],
      [
        "05",
        -10.278282120452829
      ],
      [
        "songs",
        -10.278485225771101
      ],
      [
        "broken",
        -10.278675049565255
      ],
      [
        "contribution",
        -10.278904866797376
      ],
      [
        "bear",
        -10.279219040399763
      ],
      [
        "coach",
        -10.279361056639244
      ],
      [
        "aka",
        -10.279451748482487
      ],
      [
        "Mor",
        -10.279669281524885
      ],
      [
        "1st",
        -10.27968700267741
      ],
      [
        "crime",
        -10.28007104681405
      ],
      [
        "airport",
        -10.280499563239744
      ],
      [
        "CS",
        -10.281216409960479
      ],
      [
        "medicine",
        -10.281388179928866
      ],
      [
        "updates",
        -10.281410714959456
      ],
      [
        "Mill",
        -10.281718344243352
      ],
      [
        "aging",
        -10.281721991000454
      ],
      [
        "77",
        -10.28213723998692
      ],
      [
        "wealth",
        -10.2821813804706
      ],
      [
        "returne",
        -10.282510900294344
      ],
      [
        "replacement",
        -10.282789249094577
      ],
      [
        "grown",
        -10.28304086029225
      ],
      [
        "external",
        -10.283377290353954
      ],
      [
        "matche",
        -10.284327824558671
      ],
      [
        "deals",
        -10.284361862061825
      ],
      [
        "pocket",
        -10.284706202506165
      ],
      [
        "Series",
        -10.285121387221203
      ],
      [
        "Bur",
        -10.28565261739454
      ],
      [
        "Japan",
        -10.286050986568156
      ],
      [
        "VI",
        -10.287179950339688
      ],
      [
        "crew",
        -10.287275998404322
      ],
      [
        "residential",
        -10.287971295706315
      ],
      [
        "liquid",
        -10.288054057965773
      ],
      [
        "DC",
        -10.289323404331881
      ],
      [
        "vent",
        -10.289346393971218
      ],
      [
        "chosen",
        -10.289452997042478
      ],
      [
        "reveal",
        -10.289854045508601
      ],
      [
        "Therefore",
        -10.290004561766604
      ],
      [
        "index",
        -10.290589601389744
      ],
      [
        "girls",
        -10.291131901114436
      ],
      [
        "innovation",
        -10.292044509514696
      ],
      [
        "recommendation",
        -10.292774154149292
      ],
      [
        "arrange",
        -10.292871365673964
      ],
      [
        "claimed",
        -10.29291367256268
      ],
      [
        "Shop",
        -10.292915560195503
      ],
      [
        "recovery",
        -10.292967087175
      ],
      [
        "bringing",
        -10.293019337171977
      ],
      [
        "54",
        -10.293223077306127
      ],
      [
        "Sometimes",
        -10.293577624029105
      ],
      [
        "3rd",
        -10.294176236764152
      ],
      [
        "milk",
        -10.294433951470339
      ],
      [
        "apos",
        -10.294536964606902
      ],
      [
        "border",
        -10.295057906183867
      ],
      [
        "determined",
        -10.295851771466939
      ],
      [
        "51",
        -10.296224801178415
      ],
      [
        "switch",
        -10.296426444878652
      ],
      [
        "63",
        -10.296687044521391
      ],
      [
        "silver",
        -10.297576069404075
      ],
      [
        "EU",
        -10.297719973556006
      ],
      [
        "hip",
        -10.29789319346539
      ],
      [
        "engineering",
        -10.298150104719163
      ],
      [
        "runs",
        -10.298716404295815
      ],
      [
        "instructions",
        -10.298973200359438
      ],
      [
        "functions",
        -10.29965341217711
      ],
      [
        "restaurants",
        -10.300597515870052
      ],
      [
        "Global",
        -10.300786497409625
      ],
      [
        "Pass",
        -10.301056225597732
      ],
      [
        "threat",
        -10.301092250981881
      ],
      [
        "examine",
        -10.301109260165841
      ],
      [
        "magazine",
        -10.302138295260189
      ],
      [
        "Building",
        -10.30298399100204
      ],
      [
        "routine",
        -10.304206239683262
      ],
      [
        "cha",
        -10.304631830870893
      ],
      [
        "tub",
        -10.304912759648769
      ],
      [
        "transition",
        -10.304938097885051
      ],
      [
        "kill",
        -10.305250978790038
      ],
      [
        "wheel",
        -10.305317412683852
      ],
      [
        "horse",
        -10.305903340968035
      ],
      [
        "homes",
        -10.306475202653186
      ],
      [
        "discusse",
        -10.3066399023964
      ],
      [
        "Special",
        -10.306719080220104
      ],
      [
        "leads",
        -10.307564301968725
      ],
      [
        "Val",
        -10.307740206664384
      ],
      [
        "Sha",
        -10.30783002870675
      ],
      [
        "66",
        -10.307928768920716
      ],
      [
        "sensor",
        -10.308274713423181
      ],
      [
        "predict",
        -10.30829398831399
      ],
      [
        "tested",
        -10.309188896092536
      ],
      [
        "News",
        -10.309898444391983
      ],
      [
        "°",
        -10.31028773904751
      ],
      [
        "Chicago",
        -10.310288034044461
      ],
      [
        "Which",
        -10.31097107086556
      ],
      [
        "hearing",
        -10.311133601083021
      ],
      [
        "circumstance",
        -10.311654635914001
      ],
      [
        "Video",
        -10.313010732298181
      ],
      [
        "privacy",
        -10.313703081568066
      ],
      [
        "Russian",
        -10.314670964037958
      ],
      [
        "expression",
        -10.3146960332831
      ],
      [
        "Mary",
        -10.314901481507938
      ],
      [
        "broad",
        -10.315701246177309
      ],
      [
        "Union",
        -10.316158543848104
      ],
      [
        "taught",
        -10.316452765353935
      ],
      [
        "Brown",
        -10.316588963432666
      ],
      [
        "reasonable",
        -10.317268358083377
      ],
      [
        "hood",
        -10.317780417159657
      ],
      [
        "Maybe",
        -10.318510632252362
      ],
      [
        "Port",
        -10.318571945382839
      ],
      [
        "wave",
        -10.319224721881206
      ],
      [
        "solve",
        -10.31954803148928
      ],
      [
        "output",
        -10.319690395457222
      ],
      [
        "Festival",
        -10.319880216899133
      ],
      [
        "texture",
        -10.320300219835577
      ],
      [
        "tradition",
        -10.320495741874375
      ],
      [
        "strategic",
        -10.320568950182881
      ],
      [
        "Women",
        -10.320602336059856
      ],
      [
        "Code",
        -10.321049847784796
      ],
      [
        "facing",
        -10.321070653690303
      ],
      [
        "Did",
        -10.321083337962154
      ],
      [
        "planne",
        -10.321097119024387
      ],
      [
        "ypically",
        -10.321201391508257
      ],
      [
        "loans",
        -10.321253932492597
      ],
      [
        "Technology",
        -10.321258312672825
      ],
      [
        "receiv",
        -10.321549552258164
      ],
      [
        "Press",
        -10.322769403815938
      ],
      [
        "surgery",
        -10.323330194713739
      ],
      [
        "scheme",
        -10.323480611302006
      ],
      [
        "butter",
        -10.323689796998455
      ],
      [
        "shade",
        -10.323909267625176
      ],
      [
        "instrument",
        -10.324316297661024
      ],
      [
        "height",
        -10.32518849126198
      ],
      [
        "desk",
        -10.32534948834328
      ],
      [
        "enterprise",
        -10.325403484416608
      ],
      [
        "BO",
        -10.32565164967632
      ],
      [
        "qualified",
        -10.325750032156048
      ],
      [
        "hole",
        -10.325982575831311
      ],
      [
        "gle",
        -10.327002934803861
      ],
      [
        "occur",
        -10.32741057663462
      ],
      [
        "medication",
        -10.328176573643821
      ],
      [
        "division",
        -10.328520834134899
      ],
      [
        "SD",
        -10.328572080408524
      ],
      [
        "Martin",
        -10.329141247657814
      ],
      [
        "mile",
        -10.3298182629923
      ],
      [
        "tough",
        -10.32984506794864
      ],
      [
        "gear",
        -10.330225458221015
      ],
      [
        "03",
        -10.330421084176518
      ],
      [
        "Price",
        -10.330528841856465
      ],
      [
        "affected",
        -10.330635965300893
      ],
      [
        "spoke",
        -10.33228605691696
      ],
      [
        "employment",
        -10.332290322505504
      ],
      [
        "ticket",
        -10.332345027578551
      ],
      [
        "Ken",
        -10.333121617407276
      ],
      [
        "Op",
        -10.33334457729772
      ],
      [
        "addresse",
        -10.333388474431775
      ],
      [
        "52",
        -10.33362922634643
      ],
      [
        "trail",
        -10.333665326114268
      ],
      [
        "Box",
        -10.334604251856405
      ],
      [
        "GB",
        -10.335518835430964
      ],
      [
        "prop",
        -10.336043680589622
      ],
      [
        "Control",
        -10.336047673414956
      ],
      [
        "с",
        -10.33678102359821
      ],
      [
        "powder",
        -10.337241796704973
      ],
      [
        "53",
        -10.33731013693984
      ],
      [
        "boost",
        -10.337578520058562
      ],
      [
        "markets",
        -10.338048684287674
      ],
      [
        "storm",
        -10.338174967251552
      ],
      [
        "readers",
        -10.338752327410408
      ],
      [
        "luxury",
        -10.339345718272984
      ],
      [
        "ages",
        -10.339554932411263
      ],
      [
        "�",
        -10.340750460247445
      ],
      [
        "judge",
        -10.341742497147548
      ],
      [
        "prove",
        -10.342137586256527
      ],
      [
        "visible",
        -10.342212417223177
      ],
      [
        "recording",
        -10.342234343700076
      ],
      [
        "inspiration",
        -10.342442730549934
      ],
      [
        "rely",
        -10.342756400968625
      ],
      [
        "honor",
        -10.342806168934311
      ],
      [
        "Minister",
        -10.34291225754179
      ],
      [
        "submit",
        -10.344050642357441
      ],
      [
        "lifestyle",
        -10.344432797819607
      ],
      [
        "rising",
        -10.345290801651334
      ],
      [
        "Test",
        -10.345807253462853
      ],
      [
        "luck",
        -10.34622053382665
      ],
      [
        "publish",
        -10.34665257943503
      ],
      [
        "WA",
        -10.346749244728166
      ],
      [
        "Australian",
        -10.346782141616558
      ],
      [
        "joy",
        -10.346857002998199
      ],
      [
        "seeme",
        -10.346976527542576
      ],
      [
        "misse",
        -10.34738649609716
      ],
      [
        "06",
        -10.347504770814023
      ],
      [
        "native",
        -10.347712679547922
      ],
      [
        "Step",
        -10.347891285137152
      ],
      [
        "improved",
        -10.34836124812988
      ],
      [
        "apps",
        -10.348431184091966
      ],
      [
        "improv",
        -10.348564441829513
      ],
      [
        "campus",
        -10.349869315952718
      ],
      [
        "2003",
        -10.350806183875335
      ],
      [
        "criminal",
        -10.351351361125019
      ],
      [
        "brother",
        -10.351624481321398
      ],
      [
        "Royal",
        -10.352393801720815
      ],
      [
        "concrete",
        -10.35348498514892
      ],
      [
        "Sh",
        -10.353669369246681
      ],
      [
        "accepted",
        -10.353948999988962
      ],
      [
        "pure",
        -10.354810325664424
      ],
      [
        "76",
        -10.355072188354395
      ],
      [
        "ought",
        -10.355227914253952
      ],
      [
        "manufacturing",
        -10.355623255028956
      ],
      [
        "Asia",
        -10.355814594776067
      ],
      [
        "sur",
        -10.355971521743122
      ],
      [
        "SU",
        -10.356324968256224
      ],
      [
        "belief",
        -10.356364751069929
      ],
      [
        "experiment",
        -10.356432466842941
      ],
      [
        "Party",
        -10.356517664366931
      ],
      [
        "permanent",
        -10.357052016604513
      ],
      [
        "Guide",
        -10.357172013959666
      ],
      [
        "tent",
        -10.358088759089878
      ],
      [
        "57",
        -10.35809620630101
      ],
      [
        "mountain",
        -10.358359838805654
      ],
      [
        "Chris",
        -10.358409597894507
      ],
      [
        "conflict",
        -10.358482021257677
      ],
      [
        "Garden",
        -10.358586660290328
      ],
      [
        "publication",
        -10.358597971192001
      ],
      [
        "Further",
        -10.359238578684067
      ],
      [
        "hardware",
        -10.35994958577368
      ],
      [
        "Buy",
        -10.36016749585993
      ],
      [
        "mining",
        -10.360764215252653
      ],
      [
        "Join",
        -10.360811594202755
      ],
      [
        "Fund",
        -10.361063508156299
      ],
      [
        "Though",
        -10.361189998527102
      ],
      [
        "ceiling",
        -10.361349468014883
      ],
      [
        "websites",
        -10.361564915918757
      ],
      [
        "rum",
        -10.361904219898614
      ],
      [
        "agged",
        -10.362283945623906
      ],
      [
        "Smith",
        -10.362461194605467
      ],
      [
        "settings",
        -10.363498387120677
      ],
      [
        "bug",
        -10.363942377153453
      ],
      [
        "dogs",
        -10.364307033132462
      ],
      [
        "contemporar",
        -10.364675659218157
      ],
      [
        "kid",
        -10.36491822232853
      ],
      [
        "twice",
        -10.364980563650132
      ],
      [
        "rice",
        -10.365389071383328
      ],
      [
        "payments",
        -10.36586445845814
      ],
      [
        "pie",
        -10.367250471353287
      ],
      [
        "Gar",
        -10.368196512259498
      ],
      [
        "Museum",
        -10.368558490226672
      ],
      [
        "accounts",
        -10.368975164033527
      ],
      [
        "password",
        -10.369043161137373
      ],
      [
        "2004",
        -10.370593404831808
      ],
      [
        "pound",
        -10.37075405299436
      ],
      [
        "tooth",
        -10.371378286166923
      ],
      [
        "Italian",
        -10.371447586427593
      ],
      [
        "extension",
        -10.371530792315976
      ],
      [
        "festival",
        -10.37217039729018
      ],
      [
        "Japanese",
        -10.372181938735082
      ],
      [
        "theory",
        -10.372397662313777
      ],
      [
        "Dan",
        -10.373195923630593
      ],
      [
        "knowing",
        -10.373225746440532
      ],
      [
        "FOR",
        -10.373253661572416
      ],
      [
        "default",
        -10.373759316023285
      ],
      [
        "verse",
        -10.374085063075736
      ],
      [
        "Students",
        -10.374483050681977
      ],
      [
        "planet",
        -10.375117700312234
      ],
      [
        "recorde",
        -10.375211769814793
      ],
      [
        "exact",
        -10.375575842165215
      ],
      [
        "pump",
        -10.375612387865186
      ],
      [
        "appeal",
        -10.375810518142991
      ],
      [
        "TS",
        -10.37581706735583
      ],
      [
        "eeking",
        -10.376241618254625
      ],
      [
        "template",
        -10.376260514352964
      ],
      [
        "drawing",
        -10.376404503047674
      ],
      [
        "priorit",
        -10.377018008924331
      ],
      [
        "skill",
        -10.37719361638895
      ],
      [
        "NE",
        -10.377195101327612
      ],
      [
        "dentity",
        -10.377218725893645
      ],
      [
        "tasks",
        -10.377984106019849
      ],
      [
        "·",
        -10.37799070891288
      ],
      [
        "drivers",
        -10.378349857830806
      ],
      [
        "decrease",
        -10.378720639434603
      ],
      [
        "vegetable",
        -10.378736921677458
      ],
      [
        "EX",
        -10.37877132549077
      ],
      [
        "spiritual",
        -10.379467310856798
      ],
      [
        "prize",
        -10.379609758006543
      ],
      [
        "topics",
        -10.379944217643148
      ],
      [
        "Conference",
        -10.380182090345633
      ],
      [
        "nine",
        -10.380264818986891
      ],
      [
        "MD",
        -10.38028280731455
      ],
      [
        "soul",
        -10.380382668672446
      ],
      [
        "neck",
        -10.381426228310147
      ],
      [
        "NY",
        -10.382269031456314
      ],
      [
        "vast",
        -10.382493835969377
      ],
      [
        "specialize",
        -10.382755564825432
      ],
      [
        "charges",
        -10.383273041927035
      ],
      [
        "chief",
        -10.384592078253885
      ],
      [
        "pace",
        -10.384655038400275
      ],
      [
        "extended",
        -10.384871531203753
      ],
      [
        "favourite",
        -10.385326241077014
      ],
      [
        "worldwide",
        -10.38549683189009
      ],
      [
        "scientific",
        -10.386049361760165
      ],
      [
        "69",
        -10.386327067154813
      ],
      [
        "sole",
        -10.387051697530818
      ],
      [
        "suggestion",
        -10.387081547847691
      ],
      [
        "Bio",
        -10.387145072326216
      ],
      [
        "informe",
        -10.388127672785068
      ],
      [
        "lim",
        -10.388175237587893
      ],
      [
        "^",
        -10.388258492096472
      ],
      [
        "encounter",
        -10.388386573098842
      ],
      [
        "About",
        -10.388484781074784
      ],
      [
        "incorporate",
        -10.38848571242669
      ],
      [
        "awareness",
        -10.38875344902748
      ],
      [
        "ALL",
        -10.389133044614812
      ],
      [
        "Energy",
        -10.389733962687323
      ],
      [
        "sport",
        -10.389796043260969
      ],
      [
        "mixed",
        -10.390277919512549
      ],
      [
        "Mountain",
        -10.390741163241298
      ],
      [
        "editor",
        -10.39085735042405
      ],
      [
        "blow",
        -10.390895576087917
      ],
      [
        "accessibl",
        -10.391082737152487
      ],
      [
        "Thomas",
        -10.391212723833576
      ],
      [
        "collaboration",
        -10.3912471959164
      ],
      [
        "CEO",
        -10.39169171253646
      ],
      [
        "victim",
        -10.392851231360996
      ],
      [
        "scope",
        -10.39300188938886
      ],
      [
        "commission",
        -10.393097818632295
      ],
      [
        "beer",
        -10.394410783867293
      ],
      [
        "exhibit",
        -10.394601587004171
      ],
      [
        "referred",
        -10.394615552991445
      ],
      [
        "rear",
        -10.394636639616811
      ],
      [
        "grass",
        -10.394851486422095
      ],
      [
        "spir",
        -10.3952651592186
      ],
      [
        "impressive",
        -10.395697475993412
      ],
      [
        "forum",
        -10.395792275447565
      ],
      [
        "Very",
        -10.396153119095636
      ],
      [
        "household",
        -10.396931513400112
      ],
      [
        "Mobile",
[...]
