{
  "version": "1.0",
  "truncation": null,
  "padding": null,
  "added_tokens": [
    {
      "id": 0,
      "content": "<UNK>",
      "single_word": false,
      "lstrip": false,
      "rstrip": false,
      "normalized": false,
      "special": true
    },
    {
      "id": 1,
      "content": "<PAD>",
      "single_word": false,
      "lstrip": false,
      "rstrip": false,
      "normalized": false,
      "special": true
    },
    {
      "id": 2,
      "content": "<s>",
      "single_word": false,
      "lstrip": false,
      "rstrip": false,
      "normalized": false,
      "special": true
    },
    {
      "id": 3,
      "content": "<s/>",
      "single_word": false,
      "lstrip": false,
      "rstrip": false,
      "normalized": false,
      "special": true
    }
  ],
  "normalizer": null,
  "pre_tokenizer": {
    "type": "Whitespace"
  },
  "post_processor": null,
  "decoder": null,
  "model": {
    "type": "WordPiece",
    "unk_token": "<UNK>",
    "continuing_subword_prefix": "##",
    "max_input_chars_per_word": 100,
    "vocab": {
      "<UNK>": 0,
      "<PAD>": 1,
      "<s>": 2,
      "<s/>": 3,
      "\u0000": 4,
      "\u0001": 5,
      "\u0003": 6,
      "\u0005": 7,
      "\u0006": 8,
      "\u0007": 9,
      "\b": 10,
      "\u0012": 11,
      "\u0014": 12,
      "\u0018": 13,
      "\u0019": 14,
      "!": 15,
      "\"": 16,
      "#": 17,
      "$": 18,
      "%": 19,
      "&": 20,
      "'": 21,
      "(": 22,
      ")": 23,
      "*": 24,
      "+": 25,
      ",": 26,
      "-": 27,
      ".": 28,
      "/": 29,
      "0": 30,
      "1": 31,
      "2": 32,
      "3": 33,
      "4": 34,
      "5": 35,
      "6": 36,
      "7": 37,
      "8": 38,
      "9": 39,
      ":": 40,
      ";": 41,
      "<": 42,
      "=": 43,
      ">": 44,
      "?": 45,
      "@": 46,
      "A": 47,
      "B": 48,
      "C": 49,
      "D": 50,
      "E": 51,
      "F": 52,
      "G": 53,
      "H": 54,
      "I": 55,
      "J": 56,
      "K": 57,
      "L": 58,
      "M": 59,
      "N": 60,
      "O": 61,
      "P": 62,
      "Q": 63,
      "R": 64,
      "S": 65,
      "T": 66,
      "U": 67,
      "V": 68,
      "W": 69,
      "X": 70,
      "Y": 71,
      "Z": 72,
      "[": 73,
      "\\": 74,
      "]": 75,
      "^": 76,
      "_": 77,
      "`": 78,
      "a": 79,
      "b": 80,
      "c": 81,
      "d": 82,
      "e": 83,
      "f": 84,
      "g": 85,
      "h": 86,
      "i": 87,
      "j": 88,
      "k": 89,
      "l": 90,
      "m": 91,
      "n": 92,
      "o": 93,
      "p": 94,
      "q": 95,
      "r": 96,
      "s": 97,
      "t": 98,
      "u": 99,
      "v": 100,
      "w": 101,
      "x": 102,
      "y": 103,
      "z": 104,
      "|": 105,
      "}": 106,
      "~": 107,
      "": 108,
      "": 109,
      "": 110,
      "": 111,
      "": 112,
      "": 113,
      "": 114,
      "": 115,
      "": 116,
      "": 117,
      "": 118,
      "": 119,
      "": 120,
      "": 121,
      "": 122,
      "": 123,
      "": 124,
      "": 125,
      "": 126,
      "": 127,
      "": 128,
      "": 129,
      "": 130,
      "": 131,
      "": 132,
      "": 133,
      "¡": 134,
      "¢": 135,
      "£": 136,
      "¤": 137,
      "¥": 138,
      "¦": 139,
      "§": 140,
      "©": 141,
      "«": 142,
      "¬": 143,
      "­": 144,
      "®": 145,
      "°": 146,
      "±": 147,
      "¶": 148,
      "·": 149,
      "»": 150,
      "¿": 151,
      "À": 152,
      "Á": 153,
      "Â": 154,
      "Ã": 155,
      "Ä": 156,
      "Å": 157,
      "Æ": 158,
      "Ç": 159,
      "È": 160,
      "É": 161,
      "Ê": 162,
      "Ë": 163,
      "Ì": 164,
      "Í": 165,
      "Î": 166,
      "Ï": 167,
      "Ð": 168,
      "Ñ": 169,
      "Ò": 170,
      "Ó": 171,
      "Ô": 172,
      "Õ": 173,
      "Ö": 174,
      "×": 175,
      "Ø": 176,
      "Ú": 177,
      "Û": 178,
      "Ü": 179,
      "Ý": 180,
      "Þ": 181,
      "ß": 182,
      "à": 183,
      "á": 184,
      "â": 185,
      "ã": 186,
      "ä": 187,
      "å": 188,
      "æ": 189,
      "ç": 190,
      "è": 191,
      "é": 192,
      "ê": 193,
      "ë": 194,
      "ì": 195,
      "í": 196,
      "î": 197,
      "ï": 198,
      "ð": 199,
      "ñ": 200,
      "ò": 201,
      "ó": 202,
      "ô": 203,
      "õ": 204,
      "ö": 205,
      "÷": 206,
      "ø": 207,
      "ù": 208,
      "ú": 209,
      "û": 210,
      "ü": 211,
      "ý": 212,
      "þ": 213,
      "ÿ": 214,
      "Ā": 215,
      "ā": 216,
      "Ă": 217,
      "ă": 218,
      "ą": 219,
      "Ć": 220,
      "ć": 221,
      "ċ": 222,
      "Č": 223,
      "č": 224,
      "Ď": 225,
      "ď": 226,
      "Đ": 227,
      "đ": 228,
      "Ē": 229,
      "ē": 230,
      "ĕ": 231,
      "ė": 232,
      "Ę": 233,
      "ę": 234,
      "Ě": 235,
      "ě": 236,
      "Ğ": 237,
      "ğ": 238,
      "Ġ": 239,
      "ģ": 240,
      "ĥ": 241,
      "ĩ": 242,
      "Ī": 243,
      "ī": 244,
      "ĭ": 245,
      "į": 246,
      "İ": 247,
      "ı": 248,
      "ĺ": 249,
      "Ļ": 250,
      "Ľ": 251,
      "ľ": 252,
      "Ł": 253,
      "ł": 254,
      "Ń": 255,
      "ń": 256,
      "ņ": 257,
      "ň": 258,
      "ŋ": 259,
      "Ō": 260,
      "ō": 261,
      "ŏ": 262,
      "ő": 263,
      "Œ": 264,
      "œ": 265,
      "Ř": 266,
      "ř": 267,
      "Ś": 268,
      "ś": 269,
      "Ş": 270,
      "ş": 271,
      "Š": 272,
      "š": 273,
      "ţ": 274,
      "ť": 275,
      "ũ": 276,
      "Ū": 277,
      "ū": 278,
      "ŭ": 279,
      "ů": 280,
      "ų": 281,
      "ŵ": 282,
      "ŷ": 283,
      "Ÿ": 284,
      "Ź": 285,
      "ź": 286,
      "Ż": 287,
      "ż": 288,
      "Ž": 289,
      "ž": 290,
      "ƅ": 291,
      "Ǝ": 292,
      "ƒ": 293,
      "Ɩ": 294,
      "Ɵ": 295,
      "ơ": 296,
      "ư": 297,
      "Ƴ": 298,
      "ǎ": 299,
      "ǐ": 300,
      "ǒ": 301,
      "ǔ": 302,
      "ǣ": 303,
      "ǫ": 304,
      "ǽ": 305,
      "ȏ": 306,
      "ș": 307,
      "Ț": 308,
      "ț": 309,
      "Ȟ": 310,
      "ȯ": 311,
      "ɐ": 312,
      "ɑ": 313,
      "ɔ": 314,
      "ɕ": 315,
      "ə": 316,
      "ɛ": 317,
      "ɠ": 318,
      "ɡ": 319,
      "ɦ": 320,
      "ɪ": 321,
      "ɵ": 322,
      "ʁ": 323,
      "ʃ": 324,
      "ʉ": 325,
      "ʊ": 326,
      "ʌ": 327,
      "ʏ": 328,
      "ʒ": 329,
      "ʔ": 330,
      "ʹ": 331,
      "ʺ": 332,
      "ʻ": 333,
      "ʼ": 334,
      "ʽ": 335,
      "ʾ": 336,
      "ʿ": 337,
      "˅": 338,
      "ˆ": 339,
      "ˇ": 340,
      "ˈ": 341,
      "ˌ": 342,
      "ː": 343,
      "́": 344,
      "̂": 345,
      "̃": 346,
      "̄": 347,
      "̆": 348,
      "̇": 349,
      "̈": 350,
      "̊": 351,
      "̋": 352,
      "̍": 353,
      "̓": 354,
      "̣": 355,
      "̧": 356,
      "̨": 357,
      "̩": 358,
      "̪": 359,
      "̯": 360,
      "̱": 361,
      "̶": 362,
      "͛": 363,
      "͞": 364,
      "͡": 365,
      "Ά": 366,
      "Έ": 367,
      "Ή": 368,
      "Ώ": 369,
      "Α": 370,
      "Β": 371,
      "Γ": 372,
      "Δ": 373,
      "Ε": 374,
      "Ζ": 375,
      "Η": 376,
      "Θ": 377,
      "Ι": 378,
      "Κ": 379,
      "Λ": 380,
      "Μ": 381,
      "Ν": 382,
      "Ξ": 383,
      "Ο": 384,
      "Π": 385,
      "Ρ": 386,
      "Σ": 387,
      "Τ": 388,
      "Υ": 389,
      "Φ": 390,
      "Χ": 391,
      "Ψ": 392,
      "Ω": 393,
      "ά": 394,
      "έ": 395,
      "ή": 396,
      "ί": 397,
      "α": 398,
      "β": 399,
      "γ": 400,
      "δ": 401,
      "ε": 402,
      "ζ": 403,
      "η": 404,
      "θ": 405,
      "ι": 406,
      "κ": 407,
      "λ": 408,
      "μ": 409,
      "ν": 410,
      "ξ": 411,
      "ο": 412,
      "π": 413,
      "ρ": 414,
      "ς": 415,
      "σ": 416,
      "τ": 417,
      "υ": 418,
      "φ": 419,
      "χ": 420,
      "ψ": 421,
      "ω": 422,
      "ϋ": 423,
      "ό": 424,
      "ύ": 425,
      "ώ": 426,
      "ϳ": 427,
      "Ѐ": 428,
      "Ђ": 429,
      "Ѕ": 430,
      "І": 431,
      "Ў": 432,
      "А": 433,
      "Б": 434,
      "В": 435,
      "Г": 436,
      "Д": 437,
      "Е": 438,
      "Ж": 439,
      "З": 440,
      "И": 441,
      "Й": 442,
      "К": 443,
      "Л": 444,
      "М": 445,
      "Н": 446,
      "О": 447,
      "П": 448,
      "Р": 449,
      "С": 450,
      "Т": 451,
      "У": 452,
      "Ф": 453,
      "Х": 454,
      "Ц": 455,
      "Ч": 456,
      "Ш": 457,
      "Щ": 458,
      "Ъ": 459,
      "Ы": 460,
      "Ь": 461,
      "Э": 462,
      "Ю": 463,
      "Я": 464,
      "а": 465,
      "б": 466,
      "в": 467,
      "г": 468,
      "д": 469,
      "е": 470,
      "ж": 471,
      "з": 472,
      "и": 473,
      "й": 474,
      "к": 475,
      "л": 476,
      "м": 477,
      "н": 478,
      "о": 479,
      "п": 480,
      "р": 481,
      "с": 482,
      "т": 483,
      "у": 484,
      "ф": 485,
      "х": 486,
      "ц": 487,
      "ч": 488,
      "ш": 489,
      "щ": 490,
      "ъ": 491,
      "ы": 492,
      "ь": 493,
      "э": 494,
      "ю": 495,
      "я": 496,
      "ё": 497,
      "є": 498,
      "ѕ": 499,
      "і": 500,
      "ї": 501,
      "ј": 502,
      "љ": 503,
      "њ": 504,
      "ќ": 505,
      "ў": 506,
      "ѡ": 507,
      "Ѵ": 508,
      "ѵ": 509,
      "Ґ": 510,
      "ґ": 511,
      "ғ": 512,
      "Қ": 513,
      "ң": 514,
      "һ": 515,
      "Ӏ": 516,
      "ӏ": 517,
      "ӓ": 518,
      "ө": 519,
      "Ԁ": 520,
      "ԁ": 521,
      "ԛ": 522,
      "Ԝ": 523,
      "ԝ": 524,
      "Հ": 525,
      "ա": 526,
      "ե": 527,
      "ն": 528,
      "շ": 529,
      "ո": 530,
      "ս": 531,
      "վ": 532,
      "տ": 533,
      "ց": 534,
      "ֲ": 535,
      "ִ": 536,
      "ַ": 537,
      "ָ": 538,
      "ּ": 539,
      "א": 540,
      "ב": 541,
      "ג": 542,
      "ד": 543,
      "ה": 544,
      "ו": 545,
      "ז": 546,
      "ח": 547,
      "ט": 548,
      "י": 549,
      "ך": 550,
      "כ": 551,
      "ל": 552,
      "ם": 553,
      "מ": 554,
      "ן": 555,
      "נ": 556,
      "ס": 557,
      "ע": 558,
      "ף": 559,
      "פ": 560,
      "ץ": 561,
      "צ": 562,
      "ק": 563,
      "ר": 564,
      "ש": 565,
      "ת": 566,
      "،": 567,
      "؛": 568,
      "؟": 569,
      "ء": 570,
      "آ": 571,
      "أ": 572,
      "ؤ": 573,
      "إ": 574,
      "ئ": 575,
      "ا": 576,
      "ب": 577,
      "ة": 578,
      "ت": 579,
      "ث": 580,
      "ج": 581,
      "ح": 582,
      "خ": 583,
      "د": 584,
      "ذ": 585,
      "ر": 586,
      "ز": 587,
      "س": 588,
      "ش": 589,
      "ص": 590,
      "ض": 591,
      "ط": 592,
      "ظ": 593,
      "ع": 594,
      "غ": 595,
      "ف": 596,
      "ق": 597,
      "ك": 598,
      "ل": 599,
      "م": 600,
      "ن": 601,
      "ه": 602,
      "و": 603,
      "ى": 604,
      "ي": 605,
      "ً": 606,
      "ٌ": 607,
      "ٍ": 608,
      "َ": 609,
      "ُ": 610,
      "ِ": 611,
      "ّ": 612,
      "ْ": 613,
      "پ": 614,
      "چ": 615,
      "ڈ": 616,
      "ڌ": 617,
      "ژ": 618,
      "ک": 619,
      "گ": 620,
      "ھ": 621,
      "ہ": 622,
      "ۆ": 623,
      "ی": 624,
      "ے": 625,
      "۪": 626,
      "۰": 627,
      "۱": 628,
      "۲": 629,
      "۳": 630,
      "۴": 631,
      "۶": 632,
      "۷": 633,
      "۸": 634,
      "۹": 635,
      "ܐ": 636,
      "ܘ": 637,
      "ܚ": 638,
      "ܛ": 639,
      "ܝ": 640,
      "ܡ": 641,
      "ܢ": 642,
      "ܣ": 643,
      "ܬ": 644,
      "ߋ": 645,
      "ँ": 646,
      "ं": 647,
      "ः": 648,
      "अ": 649,
      "आ": 650,
      "इ": 651,
      "ई": 652,
      "उ": 653,
      "ए": 654,
      "ओ": 655,
      "औ": 656,
      "क": 657,
      "ख": 658,
      "ग": 659,
      "घ": 660,
      "ङ": 661,
      "च": 662,
      "छ": 663,
      "ज": 664,
      "झ": 665,
      "ट": 666,
      "ठ": 667,
      "ड": 668,
      "ढ": 669,
      "ण": 670,
      "त": 671,
      "थ": 672,
      "द": 673,
      "ध": 674,
      "न": 675,
      "प": 676,
      "फ": 677,
      "ब": 678,
      "भ": 679,
      "म": 680,
      "य": 681,
      "र": 682,
      "ल": 683,
      "ळ": 684,
      "व": 685,
      "श": 686,
      "ष": 687,
      "स": 688,
      "ह": 689,
      "़": 690,
      "ा": 691,
      "ि": 692,
      "ी": 693,
      "ु": 694,
      "ू": 695,
      "ृ": 696,
      "े": 697,
      "ै": 698,
      "ॉ": 699,
      "ो": 700,
      "ौ": 701,
      "्": 702,
      "।": 703,
      "ং": 704,
      "অ": 705,
      "আ": 706,
      "ই": 707,
      "উ": 708,
      "এ": 709,
      "ও": 710,
      "ক": 711,
      "খ": 712,
      "গ": 713,
      "ঘ": 714,
      "চ": 715,
      "ছ": 716,
      "জ": 717,
      "ট": 718,
      "ঠ": 719,
      "ড": 720,
      "ণ": 721,
      "ত": 722,
      "থ": 723,
      "দ": 724,
      "ন": 725,
      "প": 726,
      "ফ": 727,
      "ব": 728,
      "ভ": 729,
      "ম": 730,
      "য": 731,
      "র": 732,
      "ল": 733,
      "শ": 734,
      "ষ": 735,
      "স": 736,
      "হ": 737,
      "়": 738,
      "া": 739,
      "ি": 740,
      "ী": 741,
      "ু": 742,
      "ূ": 743,
      "ৃ": 744,
      "ে": 745,
      "ো": 746,
      "্": 747,
      "ৎ": 748,
      "৪": 749,
      "ਅ": 750,
      "ਈ": 751,
      "ਤ": 752,
      "ਦ": 753,
      "ਭ": 754,
      "ਮ": 755,
      "ਰ": 756,
      "ਸ": 757,
      "ਾ": 758,
      "ੀ": 759,
      "ં": 760,
      "અ": 761,
      "આ": 762,
      "ઇ": 763,
      "ઈ": 764,
      "ઉ": 765,
      "ઊ": 766,
      "એ": 767,
      "ઓ": 768,
      "ક": 769,
      "ખ": 770,
      "ગ": 771,
      "ઘ": 772,
      "ચ": 773,
      "છ": 774,
      "જ": 775,
      "ઞ": 776,
      "ટ": 777,
      "ઠ": 778,
      "ડ": 779,
      "ણ": 780,
      "ત": 781,
      "થ": 782,
      "દ": 783,
      "ધ": 784,
      "ન": 785,
      "પ": 786,
      "ફ": 787,
      "બ": 788,
      "ભ": 789,
      "મ": 790,
      "ય": 791,
      "ર": 792,
      "લ": 793,
      "ળ": 794,
      "વ": 795,
      "શ": 796,
      "ષ": 797,
      "સ": 798,
      "હ": 799,
      "ા": 800,
      "િ": 801,
      "ી": 802,
      "ુ": 803,
      "ૂ": 804,
      "ૃ": 805,
      "ે": 806,
      "ો": 807,
      "્": 808,
      "૦": 809,
      "૧": 810,
      "૨": 811,
      "૩": 812,
      "ஊ": 813,
      "க": 814,
      "ங": 815,
      "ச": 816,
      "ண": 817,
      "த": 818,
      "ந": 819,
      "ன": 820,
      "ப": 821,
      "ம": 822,
      "ய": 823,
      "ர": 824,
      "ற": 825,
      "ல": 826,
      "ள": 827,
      "வ": 828,
      "ா": 829,
      "ி": 830,
      "ு": 831,
      "ூ": 832,
      "ெ": 833,
      "ே": 834,
      "ை": 835,
      "ோ": 836,
      "்": 837,
      "అ": 838,
      "ఆ": 839,
      "క": 840,
      "గ": 841,
      "చ": 842,
      "జ": 843,
      "ట": 844,
      "డ": 845,
      "త": 846,
      "న": 847,
      "ప": 848,
      "మ": 849,
      "ర": 850,
      "ల": 851,
      "ళ": 852,
      "స": 853,
      "హ": 854,
      "ా": 855,
      "ి": 856,
      "ీ": 857,
      "ు": 858,
      "ె": 859,
      "ే": 860,
      "ై": 861,
      "ో": 862,
      "్": 863,
      "ം": 864,
      "അ": 865,
      "ആ": 866,
      "ഇ": 867,
      "ഉ": 868,
      "എ": 869,
      "ഒ": 870,
      "ഓ": 871,
      "ക": 872,
      "ങ": 873,
      "ച": 874,
      "ജ": 875,
      "ഞ": 876,
      "ട": 877,
      "ണ": 878,
      "ത": 879,
      "ദ": 880,
      "ധ": 881,
      "ന": 882,
      "പ": 883,
      "ഫ": 884,
      "ഭ": 885,
      "മ": 886,
      "യ": 887,
      "ര": 888,
      "റ": 889,
      "ല": 890,
      "ള": 891,
      "ഴ": 892,
      "വ": 893,
      "ശ": 894,
      "ഷ": 895,
      "സ": 896,
      "ഹ": 897,
      "ാ": 898,
      "ി": 899,
      "ീ": 900,
      "ു": 901,
      "ൂ": 902,
      "ൃ": 903,
      "െ": 904,
      "േ": 905,
      "ൈ": 906,
      "ൊ": 907,
      "ോ": 908,
      "്": 909,
      "ർ": 910,
      "ൽ": 911,
      "ൾ": 912,
      "ක": 913,
      "ණ": 914,
      "ත": 915,
      "ද": 916,
      "ප": 917,
      "ර": 918,
      "ළ": 919,
      "ා": 920,
      "ු": 921,
      "ก": 922,
      "ข": 923,
      "ค": 924,
      "ง": 925,
      "จ": 926,
      "ฉ": 927,
      "ช": 928,
      "ญ": 929,
      "ฎ": 930,
      "ณ": 931,
      "ด": 932,
      "ต": 933,
      "ถ": 934,
      "ท": 935,
      "ธ": 936,
      "น": 937,
      "บ": 938,
      "ป": 939,
      "ผ": 940,
      "ฝ": 941,
      "พ": 942,
      "ฟ": 943,
      "ภ": 944,
      "ม": 945,
      "ย": 946,
      "ร": 947,
      "ล": 948,
      "ว": 949,
      "ษ": 950,
      "ส": 951,
      "ห": 952,
      "อ": 953,
      "ะ": 954,
      "ั": 955,
      "า": 956,
      "ิ": 957,
      "ี": 958,
      "ึ": 959,
      "ื": 960,
      "ุ": 961,
      "ู": 962,
      "฿": 963,
      "เ": 964,
      "แ": 965,
      "โ": 966,
      "ใ": 967,
      "ไ": 968,
      "็": 969,
      "่": 970,
      "้": 971,
      "์": 972,
      "က": 973,
      "ဂ": 974,
      "င": 975,
      "စ": 976,
      "ဆ": 977,
      "တ": 978,
      "ထ": 979,
      "ဒ": 980,
      "န": 981,
      "ပ": 982,
      "ဖ": 983,
      "ဘ": 984,
      "မ": 985,
      "ယ": 986,
      "လ": 987,
      "ဝ": 988,
      "သ": 989,
      "အ": 990,
      "ါ": 991,
      "ာ": 992,
      "ိ": 993,
      "ီ": 994,
      "ု": 995,
      "ေ": 996,
      "ဲ": 997,
      "ဳ": 998,
      "့": 999,
      "း": 1000,
      "္": 1001,
      "်": 1002,
      "ျ": 1003,
      "ြ": 1004,
      "ွ": 1005,
      "၊": 1006,
      "။": 1007,
      "ၾ": 1008,
      "ႀ": 1009,
      "႔": 1010,
      "ა": 1011,
      "ბ": 1012,
      "გ": 1013,
      "დ": 1014,
      "ე": 1015,
      "ვ": 1016,
      "თ": 1017,
      "ი": 1018,
      "კ": 1019,
      "ლ": 1020,
      "მ": 1021,
      "ნ": 1022,
      "ო": 1023,
      "რ": 1024,
      "ს": 1025,
      "ტ": 1026,
      "უ": 1027,
      "ქ": 1028,
      "ყ": 1029,
      "შ": 1030,
      "ც": 1031,
      "წ": 1032,
      "ხ": 1033,
      "ᅮ": 1034,
      "ᅲ": 1035,
      "ህ": 1036,
      "ለ": 1037,
      "ሉ": 1038,
      "ሊ": 1039,
      "ላ": 1040,
      "ል": 1041,
      "መ": 1042,
      "ም": 1043,
      "ረ": 1044,
      "ሪ": 1045,
      "ር": 1046,
      "ሮ": 1047,
      "ስ": 1048,
      "በ": 1049,
      "ቢ": 1050,
      "ባ": 1051,
      "ብ": 1052,
      "ቲ": 1053,
      "ታ": 1054,
      "ት": 1055,
      "ቶ": 1056,
      "ች": 1057,
      "ነ": 1058,
      "ን": 1059,
      "አ": 1060,
      "ኣ": 1061,
      "እ": 1062,
      "ከ": 1063,
      "ክ": 1064,
      "ኸ": 1065,
      "ወ": 1066,
      "ዊ": 1067,
      "ው": 1068,
      "ዓ": 1069,
      "ዘ": 1070,
      "ዜ": 1071,
      "የ": 1072,
      "ዩ": 1073,
      "ያ": 1074,
      "ይ": 1075,
      "ደ": 1076,
      "ዲ": 1077,
      "ዳ": 1078,
      "ድ": 1079,
      "ጀ": 1080,
      "ጅ": 1081,
      "ገ": 1082,
      "ጊ": 1083,
      "ግ": 1084,
      "ጨ": 1085,
      "ፈ": 1086,
      "ፋ": 1087,
      "ፕ": 1088,
      "ᐈ": 1089,
      "ក": 1090,
      "ខ": 1091,
      "គ": 1092,
      "ង": 1093,
      "ច": 1094,
      "ឆ": 1095,
      "ញ": 1096,
      "ដ": 1097,
      "ណ": 1098,
      "ត": 1099,
      "ទ": 1100,
      "ធ": 1101,
      "ន": 1102,
      "ប": 1103,
      "ព": 1104,
      "ភ": 1105,
      "ម": 1106,
      "យ": 1107,
      "រ": 1108,
      "ល": 1109,
      "វ": 1110,
      "ស": 1111,
      "ហ": 1112,
      "ឡ": 1113,
      "អ": 1114,
      "ឳ": 1115,
      "ា": 1116,
      "ិ": 1117,
      "ី": 1118,
      "ុ": 1119,
      "ួ": 1120,
      "ើ": 1121,
      "ៀ": 1122,
      "េ": 1123,
      "ោ": 1124,
      "ៅ": 1125,
      "ំ": 1126,
      "ះ": 1127,
      "់": 1128,
      "៍": 1129,
      "៏": 1130,
      "្": 1131,
      "។": 1132,
      "᧐": 1133,
      "ᴡ": 1134,
      "ḅ": 1135,
      "ḍ": 1136,
      "Ḥ": 1137,
      "ḥ": 1138,
      "ḵ": 1139,
      "ḷ": 1140,
      "ṃ": 1141,
      "Ṅ": 1142,
      "ṅ": 1143,
      "ṇ": 1144,
      "ṓ": 1145,
      "Ṛ": 1146,
      "ṛ": 1147,
      "ṣ": 1148,
      "Ṭ": 1149,
      "ṭ": 1150,
      "Ẓ": 1151,
      "ạ": 1152,
      "Ả": 1153,
      "ả": 1154,
      "ấ": 1155,
      "ầ": 1156,
      "ậ": 1157,
      "ắ": 1158,
      "ằ": 1159,
      "ẳ": 1160,
      "ẵ": 1161,
      "ặ": 1162,
      "ẹ": 1163,
      "ẻ": 1164,
      "ẽ": 1165,
      "ế": 1166,
      "ề": 1167,
      "ể": 1168,
      "ễ": 1169,
      "ệ": 1170,
      "ỉ": 1171,
      "Ị": 1172,
      "ị": 1173,
      "ọ": 1174,
      "ố": 1175,
      "ồ": 1176,
      "ổ": 1177,
      "ỗ": 1178,
      "Ộ": 1179,
      "ộ": 1180,
      "ớ": 1181,
      "ờ": 1182,
      "ở": 1183,
      "ợ": 1184,
      "ụ": 1185,
      "ủ": 1186,
      "ứ": 1187,
      "ừ": 1188,
      "ử": 1189,
      "ữ": 1190,
      "ự": 1191,
      "ỳ": 1192,
      "ỹ": 1193,
      "ἀ": 1194,
      "ἂ": 1195,
      "ἄ": 1196,
      "ἐ": 1197,
      "ἔ": 1198,
      "Ἐ": 1199,
      "ἢ": 1200,
      "ἦ": 1201,
      "ἰ": 1202,
      "ἴ": 1203,
      "ὄ": 1204,
      "ὅ": 1205,
      "ὐ": 1206,
      "ὑ": 1207,
      "ὕ": 1208,
      "ὖ": 1209,
      "ὰ": 1210,
      "ὲ": 1211,
      "ὴ": 1212,
      "ὶ": 1213,
      "ὸ": 1214,
      "ὺ": 1215,
      "ᾶ": 1216,
      "ῖ": 1217,
      "ῶ": 1218,
      "​": 1219,
      "‌": 1220,
      "‍": 1221,
      "‎": 1222,
      "‏": 1223,
      "‐": 1224,
      "‒": 1225,
      "–": 1226,
      "—": 1227,
      "―": 1228,
      "‖": 1229,
      "‘": 1230,
      "’": 1231,
      "‚": 1232,
      "“": 1233,
      "”": 1234,
      "„": 1235,
      "‟": 1236,
      "†": 1237,
      "‡": 1238,
      "•": 1239,
      "‣": 1240,
      "‧": 1241,
      "‪": 1242,
      "‬": 1243,
      "‰": 1244,
      "′": 1245,
      "‹": 1246,
      "›": 1247,
      "※": 1248,
      "‽": 1249,
      "⁄": 1250,
      "⁍": 1251,
      "⁕": 1252,
      "⁠": 1253,
      "⁦": 1254,
      "⁩": 1255,
      "₤": 1256,
      "₦": 1257,
      "₪": 1258,
      "€": 1259,
      "₱": 1260,
      "₹": 1261,
      "⃣": 1262,
      "℗": 1263,
      "←": 1264,
      "↑": 1265,
      "→": 1266,
      "↓": 1267,
      "↵": 1268,
      "⇑": 1269,
      "⇒": 1270,
      "⇓": 1271,
      "⇨": 1272,
      "∂": 1273,
      "∃": 1274,
      "∆": 1275,
      "∑": 1276,
      "−": 1277,
      "∗": 1278,
      "∙": 1279,
      "√": 1280,
      "∞": 1281,
      "∠": 1282,
      "∥": 1283,
      "∴": 1284,
      "∶": 1285,
      "∼": 1286,
      "≈": 1287,
      "≠": 1288,
      "≡": 1289,
      "≤": 1290,
      "≥": 1291,
      "≪": 1292,
      "≫": 1293,
      "⊕": 1294,
      "⊙": 1295,
      "⊞": 1296,
      "⊥": 1297,
      "⋅": 1298,
      "⋮": 1299,
      "⋯": 1300,
      "⌖": 1301,
      "⎮": 1302,
      "─": 1303,
      "│": 1304,
      "═": 1305,
      "■": 1306,
      "□": 1307,
      "▪": 1308,
      "▬": 1309,
      "▲": 1310,
      "▶": 1311,
      "▷": 1312,
      "▸": 1313,
      "►": 1314,
      "▼": 1315,
      "◆": 1316,
      "◇": 1317,
      "◊": 1318,
      "○": 1319,
      "●": 1320,
      "◦": 1321,
      "◯": 1322,
      "◼": 1323,
      "☀": 1324,
      "☁": 1325,
      "★": 1326,
      "☆": 1327,
      "☎": 1328,
      "☛": 1329,
      "☞": 1330,
      "☨": 1331,
      "☮": 1332,
      "☰": 1333,
      "☹": 1334,
      "☺": 1335,
      "☾": 1336,
      "♀": 1337,
      "♂": 1338,
      "♊": 1339,
      "♋": 1340,
      "♐": 1341,
      "♑": 1342,
      "♒": 1343,
      "♠": 1344,
      "♡": 1345,
      "♣": 1346,
      "♥": 1347,
      "♦": 1348,
      "♧": 1349,
      "♪": 1350,
      "♫": 1351,
      "♯": 1352,
      "⚖": 1353,
      "⚠": 1354,
      "⚡": 1355,
      "✅": 1356,
      "✈": 1357,
      "✉": 1358,
      "✓": 1359,
      "✔": 1360,
      "✖": 1361,
      "✚": 1362,
      "✝": 1363,
      "✨": 1364,
      "✭": 1365,
      "✮": 1366,
      "✱": 1367,
      "✳": 1368,
      "❃": 1369,
      "❇": 1370,
      "❌": 1371,
      "❝": 1372,
      "❞": 1373,
      "❣": 1374,
      "❤": 1375,
      "❭": 1376,
      "❯": 1377,
      "❶": 1378,
      "➞": 1379,
      "➡": 1380,
      "➣": 1381,
      "➨": 1382,
      "➽": 1383,
      "⠀": 1384,
      "⦁": 1385,
      "⬄": 1386,
      "⬅": 1387,
      "⬆": 1388,
      "⬇": 1389,
      "⬈": 1390,
      "⭐": 1391,
      "⭕": 1392,
      "、": 1393,
      "。": 1394,
      "〉": 1395,
      "《": 1396,
      "》": 1397,
      "「": 1398,
      "」": 1399,
      "『": 1400,
      "』": 1401,
      "【": 1402,
      "】": 1403,
      "〜": 1404,
      "〞": 1405,
      "あ": 1406,
      "い": 1407,
      "う": 1408,
      "え": 1409,
      "お": 1410,
      "か": 1411,
      "が": 1412,
      "き": 1413,
      "く": 1414,
      "け": 1415,
      "げ": 1416,
      "こ": 1417,
      "ご": 1418,
      "さ": 1419,
      "ざ": 1420,
      "し": 1421,
      "じ": 1422,
      "す": 1423,
      "ず": 1424,
      "せ": 1425,
      "ぜ": 1426,
      "そ": 1427,
      "ぞ": 1428,
      "た": 1429,
      "だ": 1430,
      "ち": 1431,
      "っ": 1432,
      "つ": 1433,
      "て": 1434,
      "で": 1435,
      "と": 1436,
      "ど": 1437,
      "な": 1438,
      "に": 1439,
      "ぬ": 1440,
      "ね": 1441,
      "の": 1442,
      "は": 1443,
      "ば": 1444,
      "ひ": 1445,
      "び": 1446,
      "ふ": 1447,
      "ぶ": 1448,
      "へ": 1449,
      "べ": 1450,
      "ほ": 1451,
      "ま": 1452,
      "み": 1453,
      "む": 1454,
      "め": 1455,
      "も": 1456,
      "ゃ": 1457,
      "や": 1458,
      "ゆ": 1459,
      "ょ": 1460,
      "よ": 1461,
      "ら": 1462,
      "り": 1463,
      "る": 1464,
      "れ": 1465,
      "ろ": 1466,
      "わ": 1467,
      "を": 1468,
      "ん": 1469,
      "ァ": 1470,
      "ア": 1471,
      "ィ": 1472,
      "イ": 1473,
      "ウ": 1474,
      "ェ": 1475,
      "エ": 1476,
      "ォ": 1477,
      "オ": 1478,
      "カ": 1479,
      "ガ": 1480,
      "キ": 1481,
      "ギ": 1482,
      "ク": 1483,
      "グ": 1484,
      "ケ": 1485,
      "ゲ": 1486,
      "コ": 1487,
      "ゴ": 1488,
      "サ": 1489,
      "ザ": 1490,
      "シ": 1491,
      "ジ": 1492,
      "ス": 1493,
      "ズ": 1494,
      "セ": 1495,
      "ゼ": 1496,
      "ソ": 1497,
      "ゾ": 1498,
      "タ": 1499,
      "ダ": 1500,
      "チ": 1501,
      "ッ": 1502,
      "ツ": 1503,
      "テ": 1504,
      "デ": 1505,
      "ト": 1506,
      "ド": 1507,
      "ナ": 1508,
      "ニ": 1509,
      "ヌ": 1510,
      "ネ": 1511,
      "ノ": 1512,
      "ハ": 1513,
      "バ": 1514,
      "パ": 1515,
      "ヒ": 1516,
      "ビ": 1517,
      "ピ": 1518,
      "フ": 1519,
      "ブ": 1520,
      "プ": 1521,
      "ベ": 1522,
      "ペ": 1523,
      "ホ": 1524,
      "ボ": 1525,
      "ポ": 1526,
      "マ": 1527,
      "ミ": 1528,
      "ム": 1529,
      "メ": 1530,
      "モ": 1531,
      "ャ": 1532,
      "ュ": 1533,
      "ョ": 1534,
      "ヨ": 1535,
      "ラ": 1536,
      "リ": 1537,
      "ル": 1538,
      "レ": 1539,
      "ロ": 1540,
      "ワ": 1541,
      "ン": 1542,
      "ヴ": 1543,
      "・": 1544,
      "ー": 1545,
      "一": 1546,
      "丁": 1547,
      "万": 1548,
      "丈": 1549,
      "三": 1550,
      "上": 1551,
      "下": 1552,
      "不": 1553,
      "与": 1554,
      "丑": 1555,
      "专": 1556,
      "且": 1557,
      "世": 1558,
      "业": 1559,
      "东": 1560,
      "丟": 1561,
      "両": 1562,
      "两": 1563,
      "严": 1564,
      "並": 1565,
      "个": 1566,
      "中": 1567,
      "串": 1568,
      "临": 1569,
      "丷": 1570,
      "为": 1571,
      "主": 1572,
      "丽": 1573,
      "举": 1574,
      "久": 1575,
      "么": 1576,
      "义": 1577,
      "之": 1578,
      "乎": 1579,
      "乐": 1580,
      "九": 1581,
      "也": 1582,
      "习": 1583,
      "乡": 1584,
      "书": 1585,
      "买": 1586,
      "乱": 1587,
      "乳": 1588,
      "乾": 1589,
      "了": 1590,
      "予": 1591,
      "争": 1592,
      "事": 1593,
      "二": 1594,
      "于": 1595,
      "云": 1596,
      "互": 1597,
      "五": 1598,
      "井": 1599,
      "些": 1600,
      "亞": 1601,
      "交": 1602,
      "亦": 1603,
      "产": 1604,
      "享": 1605,
      "京": 1606,
      "亮": 1607,
      "人": 1608,
      "亿": 1609,
      "什": 1610,
      "仅": 1611,
      "今": 1612,
      "介": 1613,
      "从": 1614,
      "仕": 1615,
      "他": 1616,
      "付": 1617,
      "代": 1618,
      "令": 1619,
      "以": 1620,
      "们": 1621,
      "件": 1622,
      "价": 1623,
      "任": 1624,
      "份": 1625,
      "企": 1626,
      "休": 1627,
      "众": 1628,
      "优": 1629,
      "会": 1630,
      "伝": 1631,
      "传": 1632,
      "伤": 1633,
      "估": 1634,
      "伴": 1635,
      "伸": 1636,
      "似": 1637,
      "但": 1638,
      "位": 1639,
      "住": 1640,
      "佐": 1641,
      "体": 1642,
      "佔": 1643,
      "何": 1644,
      "作": 1645,
      "你": 1646,
      "佬": 1647,
      "佳": 1648,
      "使": 1649,
      "來": 1650,
      "例": 1651,
      "供": 1652,
      "依": 1653,
      "侯": 1654,
      "便": 1655,
      "俄": 1656,
      "俊": 1657,
      "保": 1658,
      "信": 1659,
      "修": 1660,
      "個": 1661,
      "倍": 1662,
      "們": 1663,
      "倒": 1664,
      "候": 1665,
      "借": 1666,
      "债": 1667,
      "值": 1668,
      "倾": 1669,
      "假": 1670,
      "做": 1671,
      "健": 1672,
      "側": 1673,
      "偷": 1674,
      "傑": 1675,
      "備": 1676,
      "傳": 1677,
      "傷": 1678,
      "僅": 1679,
      "像": 1680,
      "儀": 1681,
      "償": 1682,
      "優": 1683,
      "儿": 1684,
      "元": 1685,
      "充": 1686,
      "先": 1687,
      "光": 1688,
      "克": 1689,
      "免": 1690,
      "児": 1691,
      "兒": 1692,
      "入": 1693,
      "內": 1694,
      "全": 1695,
      "兩": 1696,
      "八": 1697,
      "公": 1698,
      "六": 1699,
      "兰": 1700,
      "共": 1701,
      "关": 1702,
      "兴": 1703,
      "其": 1704,
      "具": 1705,
      "典": 1706,
      "兼": 1707,
      "内": 1708,
      "円": 1709,
      "再": 1710,
      "写": 1711,
      "农": 1712,
      "冯": 1713,
      "冰": 1714,
      "决": 1715,
      "况": 1716,
      "准": 1717,
      "凑": 1718,
      "几": 1719,
      "出": 1720,
      "函": 1721,
      "刀": 1722,
      "分": 1723,
      "切": 1724,
      "划": 1725,
      "列": 1726,
      "刘": 1727,
      "刚": 1728,
      "创": 1729,
      "初": 1730,
      "判": 1731,
      "別": 1732,
      "利": 1733,
      "别": 1734,
      "到": 1735,
      "制": 1736,
      "刷": 1737,
      "券": 1738,
      "前": 1739,
      "剥": 1740,
      "割": 1741,
      "創": 1742,
      "劃": 1743,
      "力": 1744,
      "办": 1745,
      "功": 1746,
      "加": 1747,
      "务": 1748,
      "动": 1749,
      "励": 1750,
      "劲": 1751,
      "劳": 1752,
      "効": 1753,
      "势": 1754,
      "勃": 1755,
      "勇": 1756,
      "勉": 1757,
      "動": 1758,
      "勘": 1759,
      "務": 1760,
      "勝": 1761,
      "募": 1762,
      "勢": 1763,
      "包": 1764,
      "化": 1765,
      "北": 1766,
      "区": 1767,
      "医": 1768,
      "匾": 1769,
      "區": 1770,
      "十": 1771,
      "千": 1772,
      "午": 1773,
      "半": 1774,
      "华": 1775,
      "单": 1776,
      "卖": 1777,
      "南": 1778,
      "単": 1779,
      "博": 1780,
      "卢": 1781,
      "印": 1782,
      "即": 1783,
      "却": 1784,
      "卵": 1785,
      "卻": 1786,
      "厂": 1787,
      "历": 1788,
      "厉": 1789,
      "压": 1790,
      "原": 1791,
      "去": 1792,
      "参": 1793,
      "參": 1794,
      "又": 1795,
      "及": 1796,
      "友": 1797,
      "双": 1798,
      "反": 1799,
      "収": 1800,
      "发": 1801,
      "取": 1802,
      "受": 1803,
      "变": 1804,
      "叢": 1805,
      "口": 1806,
      "古": 1807,
      "句": 1808,
      "另": 1809,
      "只": 1810,
      "召": 1811,
      "可": 1812,
      "台": 1813,
      "史": 1814,
      "右": 1815,
      "号": 1816,
      "司": 1817,
      "吃": 1818,
      "各": 1819,
      "合": 1820,
      "吊": 1821,
      "同": 1822,
      "名": 1823,
      "后": 1824,
      "向": 1825,
      "吒": 1826,
      "君": 1827,
      "吧": 1828,
      "吨": 1829,
      "含": 1830,
      "听": 1831,
      "吴": 1832,
      "告": 1833,
      "味": 1834,
      "呼": 1835,
      "命": 1836,
      "和": 1837,
      "咖": 1838,
      "咨": 1839,
      "哀": 1840,
      "品": 1841,
      "响": 1842,
      "員": 1843,
      "哪": 1844,
      "哲": 1845,
      "售": 1846,
      "商": 1847,
      "啊": 1848,
      "問": 1849,
      "啓": 1850,
      "善": 1851,
      "單": 1852,
      "嗎": 1853,
      "嗫": 1854,
      "嘉": 1855,
      "器": 1856,
      "嚅": 1857,
      "嚴": 1858,
      "囉": 1859,
      "四": 1860,
      "回": 1861,
      "囟": 1862,
      "因": 1863,
      "団": 1864,
      "园": 1865,
      "囲": 1866,
      "図": 1867,
      "围": 1868,
      "固": 1869,
      "国": 1870,
      "图": 1871,
      "圈": 1872,
      "國": 1873,
      "園": 1874,
      "圓": 1875,
      "圖": 1876,
      "團": 1877,
      "土": 1878,
      "在": 1879,
      "地": 1880,
      "圳": 1881,
      "场": 1882,
      "圻": 1883,
      "址": 1884,
      "均": 1885,
      "坐": 1886,
      "坛": 1887,
      "坡": 1888,
      "垂": 1889,
      "型": 1890,
      "城": 1891,
      "域": 1892,
      "基": 1893,
      "埼": 1894,
      "堂": 1895,
      "報": 1896,
      "場": 1897,
      "塗": 1898,
      "塞": 1899,
      "塩": 1900,
      "境": 1901,
      "墅": 1902,
      "墊": 1903,
      "増": 1904,
      "墟": 1905,
      "墨": 1906,
      "壅": 1907,
      "壓": 1908,
      "士": 1909,
      "壬": 1910,
      "声": 1911,
      "売": 1912,
      "壹": 1913,
      "处": 1914,
      "备": 1915,
      "変": 1916,
      "复": 1917,
      "夏": 1918,
      "外": 1919,
      "多": 1920,
      "够": 1921,
      "夠": 1922,
      "大": 1923,
      "天": 1924,
      "太": 1925,
      "夫": 1926,
      "失": 1927,
      "头": 1928,
      "夷": 1929,
      "奇": 1930,
      "奕": 1931,
      "奖": 1932,
      "套": 1933,
      "奥": 1934,
      "奮": 1935,
      "女": 1936,
      "她": 1937,
      "好": 1938,
      "如": 1939,
      "妆": 1940,
      "妙": 1941,
      "妳": 1942,
      "妹": 1943,
      "妻": 1944,
      "姆": 1945,
      "始": 1946,
      "威": 1947,
      "娃": 1948,
      "娘": 1949,
      "婆": 1950,
      "婚": 1951,
      "媒": 1952,
      "媚": 1953,
      "嫩": 1954,
      "子": 1955,
      "孔": 1956,
      "字": 1957,
      "存": 1958,
      "孙": 1959,
      "孝": 1960,
      "季": 1961,
      "孤": 1962,
      "学": 1963,
      "孩": 1964,
      "學": 1965,
      "它": 1966,
      "宇": 1967,
      "守": 1968,
      "安": 1969,
      "宋": 1970,
      "完": 1971,
      "宏": 1972,
      "官": 1973,
      "定": 1974,
      "宜": 1975,
      "宝": 1976,
      "实": 1977,
      "実": 1978,
      "客": 1979,
      "室": 1980,
      "宫": 1981,
      "宮": 1982,
      "害": 1983,
      "家": 1984,
      "容": 1985,
      "宿": 1986,
      "寄": 1987,
      "密": 1988,
      "富": 1989,
      "寒": 1990,
      "察": 1991,
      "寫": 1992,
      "寬": 1993,
      "寰": 1994,
      "寶": 1995,
      "寸": 1996,
      "对": 1997,
      "寺": 1998,
      "寻": 1999,
      "导": 2000,
      "対": 2001,
      "寿": 2002,
      "封": 2003,
      "専": 2004,
      "将": 2005,
      "將": 2006,
      "專": 2007,
      "尊": 2008,
      "對": 2009,
      "導": 2010,
      "小": 2011,
      "少": 2012,
      "尔": 2013,
      "尖": 2014,
      "尚": 2015,
      "就": 2016,
      "尺": 2017,
      "尻": 2018,
      "尼": 2019,
      "尽": 2020,
      "尾": 2021,
      "屆": 2022,
      "届": 2023,
      "屋": 2024,
      "屏": 2025,
      "展": 2026,
      "属": 2027,
      "層": 2028,
      "屬": 2029,
      "山": 2030,
      "岩": 2031,
      "峰": 2032,
      "崎": 2033,
      "崑": 2034,
      "崔": 2035,
      "崙": 2036,
      "川": 2037,
      "州": 2038,
      "工": 2039,
      "左": 2040,
      "差": 2041,
      "己": 2042,
      "已": 2043,
      "巴": 2044,
      "巷": 2045,
      "巻": 2046,
      "市": 2047,
      "布": 2048,
      "师": 2049,
      "希": 2050,
      "带": 2051,
      "帯": 2052,
      "帶": 2053,
      "常": 2054,
      "幅": 2055,
      "幕": 2056,
      "干": 2057,
      "平": 2058,
      "年": 2059,
      "并": 2060,
      "幸": 2061,
      "幹": 2062,
      "幻": 2063,
      "幼": 2064,
      "幾": 2065,
      "広": 2066,
      "床": 2067,
      "序": 2068,
      "库": 2069,
      "应": 2070,
      "底": 2071,
      "店": 2072,
      "府": 2073,
      "废": 2074,
      "度": 2075,
      "康": 2076,
      "廖": 2077,
      "廣": 2078,
      "延": 2079,
      "建": 2080,
      "开": 2081,
      "弁": 2082,
      "异": 2083,
      "弃": 2084,
      "式": 2085,
      "弓": 2086,
      "引": 2087,
      "张": 2088,
      "張": 2089,
      "強": 2090,
      "彈": 2091,
      "归": 2092,
      "当": 2093,
      "录": 2094,
      "形": 2095,
      "彩": 2096,
      "影": 2097,
      "役": 2098,
      "彻": 2099,
      "彼": 2100,
      "往": 2101,
      "征": 2102,
      "待": 2103,
      "很": 2104,
      "律": 2105,
      "後": 2106,
      "徒": 2107,
      "得": 2108,
      "從": 2109,
      "御": 2110,
      "循": 2111,
      "德": 2112,
      "心": 2113,
      "必": 2114,
      "忍": 2115,
      "志": 2116,
      "忘": 2117,
      "快": 2118,
      "态": 2119,
      "思": 2120,
      "怡": 2121,
      "急": 2122,
      "性": 2123,
      "总": 2124,
      "恋": 2125,
      "恩": 2126,
      "息": 2127,
      "患": 2128,
      "您": 2129,
      "悪": 2130,
      "悲": 2131,
      "情": 2132,
      "惊": 2133,
      "惠": 2134,
      "惩": 2135,
      "想": 2136,
      "意": 2137,
      "愛": 2138,
      "感": 2139,
      "愿": 2140,
      "態": 2141,
      "慎": 2142,
      "慣": 2143,
      "慮": 2144,
      "慶": 2145,
      "憶": 2146,
      "懇": 2147,
      "應": 2148,
      "懸": 2149,
      "成": 2150,
      "我": 2151,
      "戒": 2152,
      "或": 2153,
      "戦": 2154,
      "户": 2155,
      "戸": 2156,
      "房": 2157,
      "所": 2158,
      "手": 2159,
      "才": 2160,
      "打": 2161,
      "払": 2162,
      "托": 2163,
      "扱": 2164,
      "批": 2165,
      "找": 2166,
      "承": 2167,
      "技": 2168,
      "抎": 2169,
      "抑": 2170,
      "投": 2171,
      "抗": 2172,
      "抛": 2173,
      "抜": 2174,
      "抣": 2175,
      "报": 2176,
      "抰": 2177,
      "抹": 2178,
      "拍": 2179,
      "拜": 2180,
      "择": 2181,
      "括": 2182,
      "拿": 2183,
      "持": 2184,
      "指": 2185,
      "挑": 2186,
      "挖": 2187,
      "挥": 2188,
      "振": 2189,
      "捞": 2190,
      "损": 2191,
      "换": 2192,
      "据": 2193,
      "掃": 2194,
      "授": 2195,
      "排": 2196,
      "掘": 2197,
      "探": 2198,
      "接": 2199,
      "控": 2200,
      "推": 2201,
      "措": 2202,
      "掲": 2203,
      "描": 2204,
      "提": 2205,
      "插": 2206,
      "援": 2207,
      "搭": 2208,
      "搶": 2209,
      "携": 2210,
      "摄": 2211,
      "摘": 2212,
      "摩": 2213,
      "撃": 2214,
      "播": 2215,
      "撮": 2216,
      "擁": 2217,
      "擅": 2218,
      "擇": 2219,
      "擊": 2220,
      "據": 2221,
      "擬": 2222,
      "攝": 2223,
      "支": 2224,
      "收": 2225,
      "改": 2226,
      "攻": 2227,
      "放": 2228,
      "政": 2229,
      "故": 2230,
      "效": 2231,
      "救": 2232,
      "教": 2233,
      "敢": 2234,
      "散": 2235,
      "数": 2236,
      "整": 2237,
      "敵": 2238,
      "數": 2239,
      "文": 2240,
      "料": 2241,
      "新": 2242,
      "斷": 2243,
      "方": 2244,
      "於": 2245,
      "施": 2246,
      "旅": 2247,
      "旋": 2248,
      "族": 2249,
      "无": 2250,
      "日": 2251,
      "旦": 2252,
      "旧": 2253,
      "早": 2254,
      "时": 2255,
      "昇": 2256,
      "明": 2257,
      "昏": 2258,
      "易": 2259,
      "星": 2260,
      "映": 2261,
      "春": 2262,
      "昨": 2263,
      "昭": 2264,
      "是": 2265,
      "時": 2266,
      "普": 2267,
      "景": 2268,
      "晴": 2269,
      "智": 2270,
      "暖": 2271,
      "暗": 2272,
      "暴": 2273,
      "曆": 2274,
      "曜": 2275,
      "曲": 2276,
      "更": 2277,
      "書": 2278,
      "曽": 2279,
      "曾": 2280,
      "替": 2281,
      "最": 2282,
      "會": 2283,
      "月": 2284,
      "有": 2285,
      "朋": 2286,
      "服": 2287,
      "朗": 2288,
      "望": 2289,
      "期": 2290,
      "木": 2291,
      "未": 2292,
      "本": 2293,
      "术": 2294,
      "朱": 2295,
      "朵": 2296,
      "机": 2297,
      "杂": 2298,
      "权": 2299,
      "李": 2300,
      "材": 2301,
      "村": 2302,
      "束": 2303,
      "条": 2304,
      "来": 2305,
      "杨": 2306,
      "杰": 2307,
      "東": 2308,
      "松": 2309,
      "板": 2310,
      "构": 2311,
      "析": 2312,
      "枕": 2313,
      "林": 2314,
      "枚": 2315,
      "果": 2316,
      "枯": 2317,
      "架": 2318,
      "柒": 2319,
      "染": 2320,
      "查": 2321,
      "柯": 2322,
      "栄": 2323,
      "标": 2324,
      "栏": 2325,
      "树": 2326,
      "校": 2327,
      "株": 2328,
      "样": 2329,
      "核": 2330,
      "根": 2331,
      "格": 2332,
      "桃": 2333,
      "框": 2334,
      "案": 2335,
      "桌": 2336,
      "档": 2337,
      "桥": 2338,
      "梅": 2339,
      "條": 2340,
      "梨": 2341,
      "械": 2342,
      "检": 2343,
      "棄": 2344,
      "棒": 2345,
      "棲": 2346,
      "椅": 2347,
      "検": 2348,
      "楚": 2349,
      "業": 2350,
      "極": 2351,
      "楷": 2352,
      "楼": 2353,
      "楽": 2354,
      "概": 2355,
      "構": 2356,
      "様": 2357,
      "樂": 2358,
      "標": 2359,
      "樟": 2360,
      "模": 2361,
      "樸": 2362,
      "樹": 2363,
      "橙": 2364,
      "機": 2365,
      "檔": 2366,
      "欅": 2367,
      "次": 2368,
      "欢": 2369,
      "欧": 2370,
      "款": 2371,
      "歌": 2372,
      "歐": 2373,
      "正": 2374,
      "此": 2375,
      "步": 2376,
      "武": 2377,
      "歲": 2378,
      "歴": 2379,
      "歷": 2380,
      "死": 2381,
      "殊": 2382,
      "殼": 2383,
      "母": 2384,
      "毎": 2385,
      "每": 2386,
      "比": 2387,
      "毛": 2388,
      "民": 2389,
      "气": 2390,
      "気": 2391,
      "氣": 2392,
      "水": 2393,
      "永": 2394,
      "汁": 2395,
      "江": 2396,
      "池": 2397,
      "汪": 2398,
      "沖": 2399,
      "没": 2400,
      "沢": 2401,
      "沪": 2402,
      "河": 2403,
      "油": 2404,
      "治": 2405,
      "況": 2406,
      "法": 2407,
      "注": 2408,
      "泰": 2409,
      "泳": 2410,
      "泽": 2411,
      "洁": 2412,
      "洋": 2413,
      "洲": 2414,
      "活": 2415,
      "流": 2416,
      "浅": 2417,
      "测": 2418,
      "济": 2419,
      "浓": 2420,
      "浪": 2421,
      "浮": 2422,
      "海": 2423,
      "消": 2424,
      "涉": 2425,
      "涌": 2426,
      "液": 2427,
      "涼": 2428,
      "淇": 2429,
      "淋": 2430,
      "淏": 2431,
      "淘": 2432,
      "深": 2433,
      "清": 2434,
      "済": 2435,
      "渐": 2436,
      "渡": 2437,
      "港": 2438,
      "游": 2439,
      "湊": 2440,
      "湖": 2441,
      "湯": 2442,
      "湾": 2443,
      "源": 2444,
      "準": 2445,
      "溫": 2446,
      "滲": 2447,
      "滿": 2448,
      "漂": 2449,
      "漉": 2450,
      "漢": 2451,
      "漫": 2452,
      "潛": 2453,
      "潭": 2454,
      "澄": 2455,
      "澤": 2456,
      "濕": 2457,
      "灌": 2458,
      "灣": 2459,
      "火": 2460,
      "灵": 2461,
      "灶": 2462,
      "灸": 2463,
      "災": 2464,
      "炁": 2465,
      "炎": 2466,
      "炒": 2467,
      "点": 2468,
      "為": 2469,
      "烧": 2470,
      "热": 2471,
      "無": 2472,
      "然": 2473,
      "焼": 2474,
      "照": 2475,
      "熟": 2476,
      "熱": 2477,
      "燈": 2478,
      "燕": 2479,
      "爪": 2480,
      "爬": 2481,
      "爱": 2482,
      "父": 2483,
      "爸": 2484,
      "爽": 2485,
      "爾": 2486,
      "牀": 2487,
      "片": 2488,
      "版": 2489,
      "牛": 2490,
      "牠": 2491,
      "物": 2492,
      "特": 2493,
      "牽": 2494,
      "犯": 2495,
      "状": 2496,
      "狀": 2497,
      "狐": 2498,
      "狗": 2499,
      "独": 2500,
      "猪": 2501,
      "猫": 2502,
      "獨": 2503,
      "獲": 2504,
      "玄": 2505,
      "率": 2506,
      "玉": 2507,
      "玩": 2508,
      "环": 2509,
      "现": 2510,
      "玲": 2511,
      "玻": 2512,
      "班": 2513,
      "現": 2514,
      "球": 2515,
      "理": 2516,
      "琉": 2517,
      "瑕": 2518,
      "瑤": 2519,
      "瑾": 2520,
      "璃": 2521,
      "璑": 2522,
      "環": 2523,
      "瓶": 2524,
      "甚": 2525,
      "生": 2526,
      "産": 2527,
      "用": 2528,
      "田": 2529,
      "由": 2530,
      "申": 2531,
      "电": 2532,
      "男": 2533,
      "甸": 2534,
      "画": 2535,
      "界": 2536,
      "留": 2537,
      "略": 2538,
      "番": 2539,
      "異": 2540,
      "畳": 2541,
      "當": 2542,
      "疑": 2543,
      "疗": 2544,
      "疫": 2545,
      "疲": 2546,
      "疾": 2547,
      "病": 2548,
      "症": 2549,
      "痕": 2550,
      "瘓": 2551,
      "療": 2552,
      "癱": 2553,
      "発": 2554,
      "發": 2555,
      "白": 2556,
      "百": 2557,
      "的": 2558,
      "皆": 2559,
      "皇": 2560,
      "皮": 2561,
      "盒": 2562,
      "盔": 2563,
      "盘": 2564,
      "盛": 2565,
      "盟": 2566,
      "盡": 2567,
      "監": 2568,
      "盤": 2569,
      "目": 2570,
      "直": 2571,
      "相": 2572,
      "省": 2573,
      "看": 2574,
      "県": 2575,
      "真": 2576,
      "眼": 2577,
      "着": 2578,
      "睇": 2579,
      "睛": 2580,
      "睡": 2581,
      "督": 2582,
      "瞬": 2583,
      "矢": 2584,
      "知": 2585,
      "短": 2586,
      "码": 2587,
      "砂": 2588,
      "研": 2589,
      "破": 2590,
      "硅": 2591,
      "硬": 2592,
      "确": 2593,
      "碟": 2594,
      "碧": 2595,
      "確": 2596,
      "磁": 2597,
      "礎": 2598,
      "示": 2599,
      "礼": 2600,
      "社": 2601,
      "祈": 2602,
      "祝": 2603,
      "神": 2604,
      "祥": 2605,
      "票": 2606,
      "禁": 2607,
      "福": 2608,
      "禮": 2609,
      "离": 2610,
      "私": 2611,
      "秋": 2612,
      "种": 2613,
      "科": 2614,
      "秒": 2615,
      "秘": 2616,
      "称": 2617,
      "移": 2618,
      "稀": 2619,
      "程": 2620,
      "稚": 2621,
      "稳": 2622,
      "稿": 2623,
      "穫": 2624,
      "究": 2625,
      "空": 2626,
      "突": 2627,
      "立": 2628,
      "站": 2629,
      "童": 2630,
      "竭": 2631,
      "端": 2632,
      "競": 2633,
      "笑": 2634,
      "符": 2635,
      "第": 2636,
      "等": 2637,
      "筋": 2638,
      "策": 2639,
      "签": 2640,
      "简": 2641,
      "算": 2642,
      "管": 2643,
      "節": 2644,
      "築": 2645,
      "篮": 2646,
      "籍": 2647,
      "籠": 2648,
      "米": 2649,
      "类": 2650,
      "粉": 2651,
      "粤": 2652,
      "精": 2653,
      "系": 2654,
      "紀": 2655,
      "約": 2656,
      "純": 2657,
      "級": 2658,
      "素": 2659,
      "索": 2660,
      "紧": 2661,
      "組": 2662,
      "経": 2663,
      "結": 2664,
      "絡": 2665,
      "統": 2666,
      "絹": 2667,
      "經": 2668,
      "続": 2669,
      "綜": 2670,
      "綠": 2671,
      "綫": 2672,
      "維": 2673,
      "網": 2674,
      "緊": 2675,
      "総": 2676,
      "線": 2677,
      "緣": 2678,
      "緩": 2679,
      "縦": 2680,
      "縮": 2681,
      "繋": 2682,
      "纖": 2683,
      "红": 2684,
      "约": 2685,
      "级": 2686,
      "纪": 2687,
      "纯": 2688,
      "纽": 2689,
      "线": 2690,
      "组": 2691,
      "细": 2692,
      "终": 2693,
      "绍": 2694,
      "经": 2695,
      "给": 2696,
      "绚": 2697,
      "络": 2698,
      "绝": 2699,
      "统": 2700,
      "维": 2701,
      "综": 2702,
      "绽": 2703,
      "绿": 2704,
      "编": 2705,
      "缺": 2706,
      "网": 2707,
      "罚": 2708,
      "罪": 2709,
      "置": 2710,
      "美": 2711,
      "群": 2712,
      "羽": 2713,
      "習": 2714,
      "翻": 2715,
      "翼": 2716,
      "老": 2717,
      "考": 2718,
      "者": 2719,
      "而": 2720,
      "耍": 2721,
      "耳": 2722,
      "耸": 2723,
      "联": 2724,
      "聚": 2725,
      "聯": 2726,
      "職": 2727,
      "聽": 2728,
      "肆": 2729,
      "肉": 2730,
      "肚": 2731,
      "肠": 2732,
      "股": 2733,
      "肥": 2734,
      "育": 2735,
      "背": 2736,
      "胞": 2737,
      "能": 2738,
      "脐": 2739,
      "脑": 2740,
      "脫": 2741,
      "脳": 2742,
      "腊": 2743,
      "腐": 2744,
      "腦": 2745,
      "腳": 2746,
      "腸": 2747,
      "腾": 2748,
      "膏": 2749,
      "膳": 2750,
      "臘": 2751,
      "臥": 2752,
      "臨": 2753,
      "自": 2754,
      "臭": 2755,
      "至": 2756,
      "與": 2757,
      "興": 2758,
      "舞": 2759,
      "般": 2760,
      "艦": 2761,
      "良": 2762,
      "色": 2763,
      "艳": 2764,
      "节": 2765,
      "花": 2766,
      "芸": 2767,
      "苗": 2768,
      "若": 2769,
      "英": 2770,
      "苹": 2771,
      "茶": 2772,
      "草": 2773,
      "荐": 2774,
      "荒": 2775,
      "药": 2776,
      "莆": 2777,
      "莫": 2778,
      "莱": 2779,
      "获": 2780,
      "莹": 2781,
      "菁": 2782,
      "華": 2783,
      "萌": 2784,
      "营": 2785,
      "萬": 2786,
      "落": 2787,
      "葉": 2788,
      "著": 2789,
      "蓓": 2790,
      "蓬": 2791,
      "蔻": 2792,
      "蕾": 2793,
      "薦": 2794,
      "薩": 2795,
      "薬": 2796,
      "藍": 2797,
      "藏": 2798,
      "藤": 2799,
      "虎": 2800,
      "虑": 2801,
      "虔": 2802,
      "號": 2803,
      "虽": 2804,
      "蜥": 2805,
      "螺": 2806,
      "蟲": 2807,
      "蟹": 2808,
      "血": 2809,
      "行": 2810,
      "術": 2811,
      "街": 2812,
      "衝": 2813,
      "补": 2814,
      "表": 2815,
      "袁": 2816,
      "袋": 2817,
      "被": 2818,
      "裂": 2819,
      "装": 2820,
      "裏": 2821,
      "裕": 2822,
      "補": 2823,
      "裝": 2824,
      "裱": 2825,
      "製": 2826,
      "襪": 2827,
      "襯": 2828,
      "西": 2829,
      "要": 2830,
      "見": 2831,
      "規": 2832,
      "覓": 2833,
      "視": 2834,
      "覧": 2835,
      "親": 2836,
      "観": 2837,
      "覽": 2838,
      "觀": 2839,
      "见": 2840,
      "观": 2841,
      "规": 2842,
      "览": 2843,
      "觉": 2844,
      "角": 2845,
      "解": 2846,
      "言": 2847,
      "計": 2848,
      "訊": 2849,
      "討": 2850,
      "記": 2851,
      "訪": 2852,
      "設": 2853,
      "訳": 2854,
      "註": 2855,
      "証": 2856,
      "評": 2857,
      "詞": 2858,
      "試": 2859,
      "話": 2860,
      "誌": 2861,
      "認": 2862,
      "語": 2863,
      "誠": 2864,
      "誦": 2865,
      "説": 2866,
      "調": 2867,
      "請": 2868,
      "論": 2869,
      "諾": 2870,
      "謝": 2871,
      "識": 2872,
      "警": 2873,
      "護": 2874,
      "變": 2875,
      "讓": 2876,
      "计": 2877,
      "订": 2878,
      "认": 2879,
      "讨": 2880,
      "让": 2881,
      "议": 2882,
      "讯": 2883,
      "记": 2884,
      "论": 2885,
      "设": 2886,
      "证": 2887,
      "评": 2888,
      "诉": 2889,
      "词": 2890,
      "译": 2891,
      "试": 2892,
      "诗": 2893,
      "话": 2894,
      "诞": 2895,
      "询": 2896,
      "该": 2897,
      "语": 2898,
      "误": 2899,
      "说": 2900,
      "请": 2901,
      "课": 2902,
      "谁": 2903,
      "调": 2904,
      "谈": 2905,
      "谓": 2906,
      "豆": 2907,
      "豐": 2908,
      "象": 2909,
      "貝": 2910,
      "財": 2911,
      "貨": 2912,
      "販": 2913,
      "費": 2914,
      "貼": 2915,
      "賀": 2916,
      "資": 2917,
      "賜": 2918,
      "賢": 2919,
      "質": 2920,
      "購": 2921,
      "賽": 2922,
      "贈": 2923,
      "贛": 2924,
      "负": 2925,
      "责": 2926,
      "货": 2927,
      "质": 2928,
      "购": 2929,
      "贴": 2930,
      "费": 2931,
      "资": 2932,
      "赛": 2933,
      "赞": 2934,
      "赣": 2935,
      "赤": 2936,
      "赫": 2937,
      "走": 2938,
      "赵": 2939,
      "赶": 2940,
      "起": 2941,
      "超": 2942,
      "越": 2943,
      "趣": 2944,
      "趨": 2945,
      "足": 2946,
      "跟": 2947,
      "路": 2948,
      "身": 2949,
      "躺": 2950,
      "車": 2951,
      "軍": 2952,
      "軟": 2953,
      "載": 2954,
      "輯": 2955,
      "輸": 2956,
      "輾": 2957,
      "轉": 2958,
      "车": 2959,
      "轨": 2960,
      "转": 2961,
      "软": 2962,
      "轴": 2963,
      "轻": 2964,
      "载": 2965,
      "辑": 2966,
      "输": 2967,
      "辞": 2968,
      "辟": 2969,
      "辣": 2970,
      "辰": 2971,
      "農": 2972,
      "込": 2973,
      "达": 2974,
      "迁": 2975,
      "过": 2976,
      "迎": 2977,
      "运": 2978,
      "近": 2979,
      "还": 2980,
      "这": 2981,
      "进": 2982,
      "违": 2983,
      "连": 2984,
      "迪": 2985,
      "述": 2986,
      "迷": 2987,
      "迹": 2988,
      "退": 2989,
      "送": 2990,
      "适": 2991,
      "逃": 2992,
      "选": 2993,
      "逍": 2994,
      "透": 2995,
      "途": 2996,
      "逗": 2997,
      "這": 2998,
      "通": 2999,
      "速": 3000,
      "造": 3001,
      "逢": 3002,
      "連": 3003,
      "週": 3004,
      "進": 3005,
      "遊": 3006,
      "運": 3007,
      "遍": 3008,
      "過": 3009,
      "道": 3010,
      "達": 3011,
      "違": 3012,
      "遙": 3013,
      "遠": 3014,
      "適": 3015,
      "遭": 3016,
      "遮": 3017,
      "遲": 3018,
      "遵": 3019,
      "遷": 3020,
      "選": 3021,
      "遺": 3022,
      "避": 3023,
      "邀": 3024,
      "還": 3025,
      "邈": 3026,
      "邊": 3027,
      "邑": 3028,
      "那": 3029,
      "邪": 3030,
      "郁": 3031,
      "部": 3032,
      "郵": 3033,
      "都": 3034,
      "酉": 3035,
      "配": 3036,
      "酒": 3037,
      "醒": 3038,
      "采": 3039,
      "释": 3040,
      "里": 3041,
      "重": 3042,
      "野": 3043,
      "量": 3044,
      "金": 3045,
      "針": 3046,
      "鈥": 3047,
      "銀": 3048,
      "銅": 3049,
      "銘": 3050,
      "鋸": 3051,
      "錄": 3052,
      "錢": 3053,
      "録": 3054,
      "鏡": 3055,
      "针": 3056,
      "钟": 3057,
      "钢": 3058,
      "钻": 3059,
      "铃": 3060,
      "铢": 3061,
      "银": 3062,
      "链": 3063,
      "销": 3064,
      "错": 3065,
      "長": 3066,
      "长": 3067,
      "門": 3068,
      "開": 3069,
      "間": 3070,
      "関": 3071,
      "閲": 3072,
      "關": 3073,
      "门": 3074,
      "问": 3075,
      "间": 3076,
      "闻": 3077,
      "阐": 3078,
      "队": 3079,
      "阪": 3080,
      "防": 3081,
      "阳": 3082,
      "阴": 3083,
      "阿": 3084,
      "附": 3085,
      "际": 3086,
      "陆": 3087,
      "陈": 3088,
      "降": 3089,
      "限": 3090,
      "院": 3091,
      "除": 3092,
      "险": 3093,
      "陰": 3094,
      "陳": 3095,
      "陸": 3096,
      "陽": 3097,
      "隊": 3098,
      "随": 3099,
      "隐": 3100,
      "際": 3101,
      "障": 3102,
      "隨": 3103,
      "隱": 3104,
      "雀": 3105,
      "雄": 3106,
      "集": 3107,
      "難": 3108,
      "雯": 3109,
      "零": 3110,
      "電": 3111,
      "需": 3112,
      "露": 3113,
      "青": 3114,
      "靓": 3115,
      "静": 3116,
      "靜": 3117,
      "非": 3118,
      "面": 3119,
      "鞋": 3120,
      "韩": 3121,
      "韬": 3122,
      "音": 3123,
      "響": 3124,
      "頂": 3125,
      "順": 3126,
      "領": 3127,
      "頭": 3128,
      "頸": 3129,
      "頻": 3130,
      "頼": 3131,
      "題": 3132,
      "額": 3133,
      "願": 3134,
      "類": 3135,
      "顯": 3136,
      "页": 3137,
      "项": 3138,
      "须": 3139,
      "顽": 3140,
      "颂": 3141,
      "预": 3142,
      "颖": 3143,
      "题": 3144,
      "额": 3145,
      "風": 3146,
      "风": 3147,
      "飛": 3148,
      "飞": 3149,
      "食": 3150,
      "飲": 3151,
      "養": 3152,
      "餐": 3153,
      "餓": 3154,
      "館": 3155,
      "馆": 3156,
      "首": 3157,
      "香": 3158,
      "馬": 3159,
      "駅": 3160,
      "駐": 3161,
      "駝": 3162,
      "駱": 3163,
      "験": 3164,
      "騷": 3165,
      "驱": 3166,
      "骨": 3167,
      "體": 3168,
      "高": 3169,
      "鬆": 3170,
      "鬣": 3171,
      "魅": 3172,
      "魔": 3173,
      "魚": 3174,
      "鰹": 3175,
      "鱗": 3176,
      "鲜": 3177,
      "鳄": 3178,
      "鳥": 3179,
      "鳴": 3180,
      "鸟": 3181,
      "鸭": 3182,
      "鹊": 3183,
      "麗": 3184,
      "麥": 3185,
      "麻": 3186,
      "麼": 3187,
      "黃": 3188,
      "黄": 3189,
      "黑": 3190,
      "黒": 3191,
      "點": 3192,
      "黨": 3193,
      "鼎": 3194,
      "鼓": 3195,
      "齒": 3196,
      "龍": 3197,
      "龙": 3198,
      "ꬶ": 3199,
      "ꭒ": 3200,
      "가": 3201,
      "각": 3202,
      "간": 3203,
      "감": 3204,
      "강": 3205,
      "같": 3206,
      "개": 3207,
      "거": 3208,
      "건": 3209,
      "검": 3210,
      "것": 3211,
      "게": 3212,
      "겨": 3213,
      "격": 3214,
      "결": 3215,
      "경": 3216,
      "계": 3217,
      "고": 3218,
      "곳": 3219,
      "공": 3220,
      "과": 3221,
      "관": 3222,
      "교": 3223,
      "구": 3224,
      "국": 3225,
      "규": 3226,
      "그": 3227,
      "근": 3228,
      "글": 3229,
      "금": 3230,
      "급": 3231,
      "기": 3232,
      "긴": 3233,
      "길": 3234,
      "까": 3235,
      "깍": 3236,
      "깝": 3237,
      "깨": 3238,
      "께": 3239,
      "꼭": 3240,
      "꼼": 3241,
      "꼽": 3242,
      "꾸": 3243,
      "끈": 3244,
      "끗": 3245,
      "나": 3246,
      "난": 3247,
      "날": 3248,
      "남": 3249,
      "낮": 3250,
      "내": 3251,
      "낸": 3252,
      "낼": 3253,
      "냐": 3254,
      "냥": 3255,
      "너": 3256,
      "널": 3257,
      "넓": 3258,
      "넥": 3259,
      "넷": 3260,
      "녀": 3261,
      "년": 3262,
      "노": 3263,
      "녹": 3264,
      "농": 3265,
      "높": 3266,
      "누": 3267,
      "눈": 3268,
      "느": 3269,
      "는": 3270,
      "늘": 3271,
      "능": 3272,
      "늦": 3273,
      "니": 3274,
      "닌": 3275,
      "님": 3276,
      "닙": 3277,
      "다": 3278,
      "단": 3279,
      "닫": 3280,
      "담": 3281,
      "답": 3282,
      "당": 3283,
      "대": 3284,
      "더": 3285,
      "데": 3286,
      "델": 3287,
      "도": 3288,
      "독": 3289,
      "동": 3290,
      "돼": 3291,
      "됐": 3292,
      "되": 3293,
      "된": 3294,
      "될": 3295,
      "두": 3296,
      "드": 3297,
      "든": 3298,
      "들": 3299,
      "등": 3300,
      "디": 3301,
      "따": 3302,
      "때": 3303,
      "떤": 3304,
      "또": 3305,
      "뛰": 3306,
      "라": 3307,
      "락": 3308,
      "람": 3309,
      "랍": 3310,
      "랑": 3311,
      "래": 3312,
      "랙": 3313,
      "랜": 3314,
      "램": 3315,
      "러": 3316,
      "런": 3317,
      "럴": 3318,
      "럼": 3319,
      "레": 3320,
      "려": 3321,
      "력": 3322,
      "렴": 3323,
      "렵": 3324,
      "로": 3325,
      "록": 3326,
      "론": 3327,
      "롤": 3328,
      "료": 3329,
      "루": 3330,
      "률": 3331,
      "른": 3332,
      "를": 3333,
      "리": 3334,
      "릭": 3335,
      "림": 3336,
      "립": 3337,
      "링": 3338,
      "마": 3339,
      "막": 3340,
      "만": 3341,
      "많": 3342,
      "망": 3343,
      "매": 3344,
      "맥": 3345,
      "머": 3346,
      "메": 3347,
      "며": 3348,
      "면": 3349,
      "명": 3350,
      "모": 3351,
      "목": 3352,
      "못": 3353,
      "무": 3354,
      "문": 3355,
      "물": 3356,
      "므": 3357,
      "미": 3358,
      "민": 3359,
      "믿": 3360,
      "및": 3361,
      "바": 3362,
      "반": 3363,
      "받": 3364,
      "발": 3365,
      "밝": 3366,
      "방": 3367,
      "배": 3368,
      "백": 3369,
      "버": 3370,
      "번": 3371,
      "벌": 3372,
      "법": 3373,
      "베": 3374,
      "벽": 3375,
      "변": 3376,
      "별": 3377,
      "보": 3378,
      "본": 3379,
      "볼": 3380,
      "부": 3381,
      "북": 3382,
      "분": 3383,
      "브": 3384,
      "블": 3385,
      "비": 3386,
      "빈": 3387,
      "빠": 3388,
      "빵": 3389,
      "쁜": 3390,
      "사": 3391,
      "산": 3392,
      "살": 3393,
      "삼": 3394,
      "상": 3395,
      "새": 3396,
      "색": 3397,
      "생": 3398,
      "샷": 3399,
      "서": 3400,
      "석": 3401,
      "선": 3402,
      "설": 3403,
      "섰": 3404,
      "성": 3405,
      "세": 3406,
      "센": 3407,
      "셔": 3408,
      "션": 3409,
      "셜": 3410,
      "소": 3411,
      "속": 3412,
      "솔": 3413,
      "송": 3414,
      "수": 3415,
      "숙": 3416,
      "순": 3417,
      "술": 3418,
      "쉐": 3419,
      "쉬": 3420,
      "쉽": 3421,
      "스": 3422,
      "슨": 3423,
      "습": 3424,
      "시": 3425,
      "식": 3426,
      "신": 3427,
      "실": 3428,
      "심": 3429,
      "십": 3430,
      "싶": 3431,
      "싼": 3432,
      "아": 3433,
      "악": 3434,
      "안": 3435,
      "않": 3436,
      "알": 3437,
      "았": 3438,
      "앙": 3439,
      "애": 3440,
      "액": 3441,
      "앱": 3442,
      "야": 3443,
      "약": 3444,
      "얀": 3445,
      "양": 3446,
      "어": 3447,
      "언": 3448,
      "업": 3449,
      "없": 3450,
      "엇": 3451,
      "었": 3452,
      "에": 3453,
      "엔": 3454,
      "엘": 3455,
      "여": 3456,
      "역": 3457,
      "연": 3458,
      "열": 3459,
      "였": 3460,
      "영": 3461,
      "오": 3462,
      "온": 3463,
      "올": 3464,
      "옵": 3465,
      "와": 3466,
      "왔": 3467,
      "외": 3468,
      "요": 3469,
      "욕": 3470,
      "욜": 3471,
      "용": 3472,
      "우": 3473,
      "운": 3474,
      "움": 3475,
      "워": 3476,
      "원": 3477,
      "월": 3478,
      "웠": 3479,
      "웨": 3480,
      "위": 3481,
      "유": 3482,
      "육": 3483,
      "율": 3484,
      "융": 3485,
      "으": 3486,
      "은": 3487,
      "을": 3488,
      "음": 3489,
      "의": 3490,
      "이": 3491,
      "익": 3492,
      "인": 3493,
      "일": 3494,
      "임": 3495,
      "입": 3496,
      "있": 3497,
      "자": 3498,
      "작": 3499,
      "잘": 3500,
      "잡": 3501,
      "장": 3502,
      "재": 3503,
      "쟁": 3504,
      "저": 3505,
      "적": 3506,
      "전": 3507,
      "절": 3508,
      "점": 3509,
      "접": 3510,
      "정": 3511,
      "제": 3512,
      "조": 3513,
      "존": 3514,
      "좋": 3515,
      "좌": 3516,
      "주": 3517,
      "죽": 3518,
      "준": 3519,
      "줍": 3520,
      "중": 3521,
      "줘": 3522,
      "즈": 3523,
      "즌": 3524,
      "증": 3525,
      "지": 3526,
      "직": 3527,
      "진": 3528,
      "질": 3529,
      "집": 3530,
      "징": 3531,
      "짜": 3532,
      "째": 3533,
      "쪼": 3534,
      "찍": 3535,
      "찢": 3536,
      "차": 3537,
      "참": 3538,
      "창": 3539,
      "찾": 3540,
      "채": 3541,
      "책": 3542,
      "처": 3543,
      "척": 3544,
      "천": 3545,
      "청": 3546,
      "체": 3547,
      "쳐": 3548,
      "초": 3549,
      "총": 3550,
      "추": 3551,
      "축": 3552,
      "출": 3553,
      "취": 3554,
      "츠": 3555,
      "치": 3556,
      "친": 3557,
      "침": 3558,
      "카": 3559,
      "캐": 3560,
      "컴": 3561,
      "크": 3562,
      "타": 3563,
      "탁": 3564,
      "탕": 3565,
      "태": 3566,
      "택": 3567,
      "터": 3568,
      "턴": 3569,
      "테": 3570,
      "템": 3571,
      "토": 3572,
      "톤": 3573,
      "통": 3574,
      "투": 3575,
      "트": 3576,
      "특": 3577,
      "틀": 3578,
      "티": 3579,
      "틱": 3580,
      "틴": 3581,
      "파": 3582,
      "판": 3583,
      "팔": 3584,
      "패": 3585,
      "퍼": 3586,
      "페": 3587,
      "펩": 3588,
      "펴": 3589,
      "편": 3590,
      "평": 3591,
      "포": 3592,
      "풀": 3593,
      "품": 3594,
      "퓨": 3595,
      "프": 3596,
      "픈": 3597,
      "플": 3598,
      "피": 3599,
      "필": 3600,
      "핑": 3601,
      "하": 3602,
      "학": 3603,
      "한": 3604,
      "할": 3605,
      "함": 3606,
      "합": 3607,
      "항": 3608,
      "해": 3609,
      "핸": 3610,
      "했": 3611,
      "행": 3612,
      "현": 3613,
      "형": 3614,
      "호": 3615,
      "혹": 3616,
      "혼": 3617,
      "홈": 3618,
      "화": 3619,
      "확": 3620,
      "환": 3621,
      "활": 3622,
      "황": 3623,
      "효": 3624,
      "후": 3625,
      "훈": 3626,
      "휴": 3627,
      "흥": 3628,
      "희": 3629,
      "히": 3630,
      "힘": 3631,
      "": 3632,
      "": 3633,
      "": 3634,
      "": 3635,
      "": 3636,
      "": 3637,
      "": 3638,
      "": 3639,
      "": 3640,
      "": 3641,
      "": 3642,
      "": 3643,
      "": 3644,
      "": 3645,
      "": 3646,
      "": 3647,
      "": 3648,
      "": 3649,
      "": 3650,
      "": 3651,
      "": 3652,
      "": 3653,
      "": 3654,
      "": 3655,
      "": 3656,
      "": 3657,
      "": 3658,
      "": 3659,
      "": 3660,
      "": 3661,
      "": 3662,
      "": 3663,
      "": 3664,
      "": 3665,
      "": 3666,
      "": 3667,
      "": 3668,
      "": 3669,
      "": 3670,
      "": 3671,
      "": 3672,
      "": 3673,
      "": 3674,
      "": 3675,
      "": 3676,
      "﷓": 3677,
      "︎": 3678,
      "️": 3679,
      "﻿": 3680,
      "￼": 3681,
      "�": 3682,
      "🆕": 3683,
      "🇧": 3684,
      "🇩": 3685,
      "🇪": 3686,
      "🇬": 3687,
      "🇭": 3688,
      "🇵": 3689,
      "🇷": 3690,
      "🇹": 3691,
      "🌈": 3692,
      "🌉": 3693,
      "🌐": 3694,
      "🌙": 3695,
      "🌱": 3696,
      "🌴": 3697,
      "🌺": 3698,
      "🍂": 3699,
      "🍎": 3700,
      "🍔": 3701,
      "🍟": 3702,
      "🍦": 3703,
      "🍪": 3704,
      "🍳": 3705,
      "🍹": 3706,
      "🍺": 3707,
      "🎁": 3708,
      "🎂": 3709,
      "🎆": 3710,
      "🎈": 3711,
      "🎉": 3712,
      "🎊": 3713,
      "🎧": 3714,
      "🎨": 3715,
      "🎮": 3716,
      "🎹": 3717,
      "🏉": 3718,
      "🏡": 3719,
      "🏴": 3720,
      "🏷": 3721,
      "🏻": 3722,
      "🏼": 3723,
      "🏽": 3724,
      "🐚": 3725,
      "🐛": 3726,
      "🐜": 3727,
      "🐶": 3728,
      "👀": 3729,
      "👄": 3730,
      "👇": 3731,
      "👈": 3732,
      "👉": 3733,
      "👊": 3734,
      "👋": 3735,
      "👌": 3736,
      "👍": 3737,
      "👎": 3738,
      "👑": 3739,
      "👧": 3740,
      "👨": 3741,
      "👮": 3742,
      "💃": 3743,
      "💈": 3744,
      "💕": 3745,
      "💖": 3746,
      "💗": 3747,
      "💚": 3748,
      "💛": 3749,
      "💜": 3750,
      "💝": 3751,
      "💞": 3752,
      "💟": 3753,
      "💡": 3754,
      "💥": 3755,
      "💪": 3756,
      "💯": 3757,
      "📣": 3758,
      "📴": 3759,
      "📸": 3760,
      "🔍": 3761,
      "🔙": 3762,
      "🔥": 3763,
      "🔴": 3764,
      "🔸": 3765,
      "🕺": 3766,
      "🖤": 3767,
      "🗺": 3768,
      "😀": 3769,
      "😁": 3770,
      "😂": 3771,
      "😃": 3772,
      "😄": 3773,
      "😅": 3774,
      "😆": 3775,
      "😉": 3776,
      "😊": 3777,
      "😌": 3778,
      "😍": 3779,
      "😎": 3780,
      "😐": 3781,
      "😒": 3782,
      "😕": 3783,
      "😘": 3784,
      "😛": 3785,
      "😜": 3786,
      "😝": 3787,
      "😡": 3788,
      "😢": 3789,
      "😦": 3790,
      "😭": 3791,
      "😮": 3792,
      "😰": 3793,
      "😱": 3794,
      "😲": 3795,
      "😳": 3796,
      "😶": 3797,
      "😻": 3798,
      "🙁": 3799,
      "🙂": 3800,
      "🙃": 3801,
      "🙄": 3802,
      "🙅": 3803,
      "🙆": 3804,
      "🙋": 3805,
      "🙌": 3806,
      "🙏": 3807,
      "🚀": 3808,
      "🚨": 3809,
      "🚫": 3810,
      "🛑": 3811,
      "🤗": 3812,
      "🤣": 3813,
      "🤤": 3814,
      "🤯": 3815,
      "🥳": 3816,
      "🥶": 3817,
      "🦄": 3818,
      "🧀": 3819,
      "🧚": 3820,
      "🧨": 3821,
      "󠁢": 3822,
      "󠁣": 3823,
      "󠁧": 3824,
      "󠁬": 3825,
      "󠁳": 3826,
      "󠁴": 3827,
      "󠁷": 3828,
      "󠁿": 3829,
      "##e": 3830,
      "##r": 3831,
      "##s": 3832,
      "##f": 3833,
      "##o": 3834,
      "##d": 3835,
      "##t": 3836,
      "##j": 3837,
      "##i": 3838,
      "##c": 3839,
      "##a": 3840,
      "##n": 3841,
      "##k": 3842,
      "##m": 3843,
      "##b": 3844,
      "##l": 3845,
      "##g": 3846,
      "##á": 3847,
      "##V": 3848,
      "##4": 3849,
      "##p": 3850,
      "##u": 3851,
      "##z": 3852,
      "##I": 3853,
      "##y": 3854,
      "##U": 3855,
      "##L": 3856,
      "##力": 3857,
      "##あ": 3858,
      "##る": 3859,
      "##事": 3860,
      "##業": 3861,
      "##に": 3862,
      "##取": 3863,
      "##り": 3864,
      "##組": 3865,
      "##む": 3866,
      "##企": 3867,
      "##*": 3868,
      "##<": 3869,
      "##v": 3870,
      "##h": 3871,
      "##K": 3872,
      "##G": 3873,
      "##8": 3874,
      "##2": 3875,
      "##M": 3876,
      "##F": 3877,
      "##w": 3878,
      "##р": 3879,
      "##а": 3880,
      "##ш": 3881,
      "##е": 3882,
      "##9": 3883,
      "##B": 3884,
      "##P": 3885,
      "##q": 3886,
      "##1": 3887,
      "##3": 3888,
      "##7": 3889,
      "##0": 3890,
      "##α": 3891,
      "##ς": 3892,
      "##x": 3893,
      "##S": 3894,
      "##6": 3895,
      "##X": 3896,
      "##é": 3897,
      "##E": 3898,
      "##N": 3899,
      "##T": 3900,
      "##R": 3901,
      "##_": 3902,
      "##O": 3903,
      "##C": 3904,
      "##H": 3905,
      "##Y": 3906,
      "##A": 3907,
      "##D": 3908,
      "##о": 3909,
      "##д": 3910,
      "##г": 3911,
      "##т": 3912,
      "##в": 3913,
      "##к": 3914,
      "##и": 3915,
      "##ע": 3916,
      "##מ": 3917,
      "##י": 3918,
      "##5": 3919,
      "##J": 3920,
      "##本": 3921,
      "##論": 3922,
      "##文": 3923,
      "##中": 3924,
      "##\"": 3925,
      "##>": 3926,
      "##ö": 3927,
      "##ج": 3928,
      "##ا": 3929,
      "##ر": 3930,
      "##ی": 3931,
      "##W": 3932,
      "##ل": 3933,
      "##,": 3934,
      "##'": 3935,
      "##Ö": 3936,
      "##ū": 3937,
      "##ē": 3938,
      "##Q": 3939,
      "##.": 3940,
      "##ש": 3941,
      "##ת": 3942,
      "##ѵ": 3943,
      "##â": 3944,
      "##?": 3945,
      "##)": 3946,
      "##ก": 3947,
      "##ม": 3948,
      "##อ": 3949,
      "##น": 3950,
      "##ไ": 3951,
      "##ล": 3952,
      "##์": 3953,
      "##ው": 3954,
      "##ѕ": 3955,
      "##ن": 3956,
      "##س": 3957,
      "##ب": 3958,
      "##ة": 3959,
      "##ض": 3960,
      "##ه": 3961,
      "##ق": 3962,
      "##د": 3963,
      "##م": 3964,
      "##ø": 3965,
      "##ý": 3966,
      "##à": 3967,
      "##充": 3968,
      "##说": 3969,
      "##明": 3970,
      "##-": 3971,
      "##ä": 3972,
      "##﻿": 3973,
      "##ί": 3974,
      "##ι": 3975,
      "##τ": 3976,
      "##í": 3977,
      "##л": 3978,
      "##б": 3979,
      "##щ": 3980,
      "##þ": 3981,
      "##з": 3982,
      "##ı": 3983,
      "##َ": 3984,
      "##ط": 3985,
      "##ِ": 3986,
      "##ُ": 3987,
      "##ّ": 3988,
      "##京": 3989,
      "##\u0019": 3990,
      "##ь": 3991,
      "##с": 3992,
      "##я": 3993,
      "##Z": 3994,
      "##ś": 3995,
      "##ü": 3996,
      "##і": 3997,
      "##ō": 3998,
      "##æ": 3999,
      "##": 4000,
      "##ข": 4001,
      "##า": 4002,
      "##่": 4003,
      "##ิ": 4004,
      "##ะ": 4005,
      "##ร": 4006,
      "##เ": 4007,
      "##ย": 4008,
      "##ይ": 4009,
      "##ነ": 4010,
      "##ት": 4011,
      "##​": 4012,
      "##|": 4013,
      "##”": 4014,
      "##υ": 4015,
      "##ο": 4016,
      "##啊": 4017,
      "##教": 4018,
      "##育": 4019,
      "##网": 4020,
      "##免": 4021,
      "##费": 4022,
      "##学": 4023,
      "##习": 4024,
      "##自": 4025,
      "##そ": 4026,
      "##ら": 4027,
      "##く": 4028,
      "##は": 4029,
      "##п": 4030,
      "##н": 4031,
      "##‘": 4032,
      "##ó": 4033,
      "##ā": 4034,
      "##/": 4035,
      "##メ": 4036,
      "##イ": 4037,
      "##ン": 4038,
      "##抰": 4039,
      "##ą": 4040,
      "##Ñ": 4041,
      "##ƒ": 4042,
      "##ч": 4043,
      "##м": 4044,
      "##ั": 4045,
      "##ง": 4046,
      "##Â": 4047,
      "##у": 4048,
      "##è": 4049,
      "##́": 4050,
      "##й": 4051,
      "##ھ": 4052,
      "##ú": 4053,
      "##변": 4054,
      "##ī": 4055,
      "##我": 4056,
      "##養": 4057,
      "##Δ": 4058,
      "##č": 4059,
      "##π": 4060,
      "##ε": 4061,
      "##ξ": 4062,
      "##η": 4063,
      "##Ã": 4064,
      "##ł": 4065,
      "##ù": 4066,
      "##]": 4067,
      "##É": 4068,
      "##😡": 4069,
      "##😰": 4070,
      "##늘": 4071,
      "##의": 4072,
      "##훈": 4073,
      "##남": 4074,
      "##綠": 4075,
      "##鬣": 4076,
      "##蜥": 4077,
      "##頸": 4078,
      "##部": 4079,
      "##有": 4080,
      "##肉": 4081,
      "##垂": 4082,
      "##€": 4083,
      "##高": 4084,
      "##興": 4085,
      "##能": 4086,
      "##夠": 4087,
      "##再": 4088,
      "##聯": 4089,
      "##絡": 4090,
      "##上": 4091,
      "##ñ": 4092,
      "##@": 4093,
      "##ы": 4094,
      "##ç": 4095,
      "##面": 4096,
      "##の": 4097,
      "##表": 4098,
      "##示": 4099,
      "##と": 4100,
      "##実": 4101,
      "##物": 4102,
      "##で": 4103,
      "##多": 4104,
      "##少": 4105,
      "##色": 4106,
      "##具": 4107,
      "##合": 4108,
      "##が": 4109,
      "##異": 4110,
      "##な": 4111,
      "##っ": 4112,
      "##て": 4113,
      "##見": 4114,
      "##え": 4115,
      "##場": 4116,
      "##も": 4117,
      "##ご": 4118,
      "##ざ": 4119,
      "##い": 4120,
      "##ま": 4121,
      "##す": 4122,
      "##風": 4123,
      "##景": 4124,
      "##!": 4125,
      "##ו": 4126,
      "##ח": 4127,
      "##ב": 4128,
      "##ğ": 4129,
      "##ي": 4130,
      "##و": 4131,
      "##ạ": 4132,
      "##": 4133,
      "##μ": 4134,
      "##­": 4135,
      "##ự": 4136,
      "##ò": 4137,
      "##进": 4138,
      "##口": 4139,
      "##报": 4140,
      "##关": 4141,
      "##代": 4142,
      "##理": 4143,
      "##公": 4144,
      "##司": 4145,
      "##歐": 4146,
      "##姆": 4147,
      "##耳": 4148,
      "##機": 4149,
      "##卻": 4150,
      "##的": 4151,
      "##一": 4152,
      "##天": 4153,
      "##腐": 4154,
      "##&": 4155,
      "##ê": 4156,
      "##易": 4157,
      "##云": 4158,
      "##音": 4159,
      "##乐": 4160,
      "##是": 4161,
      "##款": 4162,
      "##专": 4163,
      "##注": 4164,
      "##于": 4165,
      "##发": 4166,
      "##现": 4167,
      "##与": 4168,
      "##分": 4169,
      "##享": 4170,
      "##产": 4171,
      "##品": 4172,
      "##ף": 4173,
      "##ס": 4174,
      "##사": 4175,
      "##가": 4176,
      "##$": 4177,
      "##ş": 4178,
      "##ז": 4179,
      "##כ": 4180,
      "##ר": 4181,
      "##ן": 4182,
      "##究": 4183,
      "##年": 4184,
      "##報": 4185,
      "##~": 4186,
      "##ě": 4187,
      "##墅": 4188,
      "##建": 4189,
      "##设": 4190,
      "###": 4191,
      "##ề": 4192,
      "##᧐": 4193,
      "##ï": 4194,
      "##ę": 4195,
      "##[": 4196,
      "##ю": 4197,
      "##ů": 4198,
      "##ž": 4199,
      "##ગ": 4200,
      "##ત": 4201,
      "##:": 4202,
      "##奕": 4203,
      "##含": 4204,
      "##х": 4205,
      "##ц": 4206,
      "##ય": 4207,
      "##ુ": 4208,
      "##ં": 4209,
      "##β": 4210,
      "##ν": 4211,
      "##ω": 4212,
      "##૧": 4213,
      "##成": 4214,
      "##度": 4215,
      "##キ": 4216,
      "##出": 4217,
      "##入": 4218,
      "##幅": 4219,
      "##広": 4220,
      "##造": 4221,
      "##れ": 4222,
      "##林": 4223,
      "##外": 4224,
      "##传": 4225,
      "##ρ": 4226,
      "##λ": 4227,
      "##ά": 4228,
      "##여": 4229,
      "##개": 4230,
      "##ി": 4231,
      "##ര": 4232,
      "##്": 4233,
      "##യ": 4234,
      "##ാ": 4235,
      "##ണ": 4236,
      "##വ": 4237,
      "##ർ": 4238,
      "##ത": 4239,
      "##أ": 4240,
      "##ص": 4241,
      "##ح": 4242,
      "##શ": 4243,
      "##ે": 4244,
      "##ハ": 4245,
      "##ラ": 4246,
      "##숙": 4247,
      "##ß": 4248,
      "##נ": 4249,
      "##ם": 4250,
      "##š": 4251,
      "##弃": 4252,
      "##»": 4253,
      "##ك": 4254,
      "##果": 4255,
      "##没": 4256,
      "##置": 4257,
      "##好": 4258,
      "##项": 4259,
      "##目": 4260,
      "##参": 4261,
      "##数": 4262,
      "##ж": 4263,
      "##守": 4264,
      "##ع": 4265,
      "##ા": 4266,
      "##語": 4267,
      "##å": 4268,
      "##ל": 4269,
      "##ה": 4270,
      "##ק": 4271,
      "##ʉ": 4272,
      "##̂": 4273,
      "##ˆ": 4274,
      "##ф": 4275,
      "##米": 4276,
      "##粉": 4277,
      "##̣": 4278,
      "##ꭒ": 4279,
      "##;": 4280,
      "##ð": 4281,
      "##件": 4282,
      "##خ": 4283,
      "##ش": 4284,
      "##σ": 4285,
      "##κ": 4286,
      "##ή": 4287,
      "##ર": 4288,
      "##ડ": 4289,
      "##ન": 4290,
      "##ી": 4291,
      "##調": 4292,
      "##適": 4293,
      "##性": 4294,
      "##平": 4295,
      "##順": 4296,
      "##化": 4297,
      "##傳": 4298,
      "##輸": 4299,
      "##制": 4300,
      "##端": 4301,
      "##點": 4302,
      "##對": 4303,
      "##視": 4304,
      "##訊": 4305,
      "##串": 4306,
      "##流": 4307,
      "##系": 4308,
      "##統": 4309,
      "##õ": 4310,
      "##약": 4311,
      "##이": 4312,
      "##다": 4313,
      "##재": 4314,
      "##\\": 4315,
      "##+": 4316,
      "##始": 4317,
      "##内": 4318,
      "##容": 4319,
      "##存": 4320,
      "##档": 4321,
      "##ت": 4322,
      "##어": 4323,
      "##와": 4324,
      "##ë": 4325,
      "##ْ": 4326,
      "##ો": 4327,
      "##ક": 4328,
      "##�": 4329,
      "##ز": 4330,
      "##ئ": 4331,
      "##ٌ": 4332,
      "##പ": 4333,
      "##ോ": 4334,
      "##ള": 4335,
      "##‍": 4336,
      "##万": 4337,
      "##灵": 4338,
      "##药": 4339,
      "##大": 4340,
      "##妹": 4341,
      "##刘": 4342,
      "##雯": 4343,
      "##被": 4344,
      "##计": 4345,
      "##师": 4346,
      "##严": 4347,
      "##重": 4348,
      "##烧": 4349,
      "##伤": 4350,
      "##李": 4351,
      "##通": 4352,
      "##=": 4353,
      "##ف": 4354,
      "##포": 4355,
      "##에": 4356,
      "##غ": 4357,
      "##현": 4358,
      "##र": 4359,
      "##۱": 4360,
      "##Ý": 4361,
      "##Ě": 4362,
      "##Ô": 4363,
      "##פ": 4364,
      "##’": 4365,
      "##為": 4366,
      "##兩": 4367,
      "##向": 4368,
      "##导": 4369,
      "##ে": 4370,
      "##ম": 4371,
      "##ა": 4372,
      "##ს": 4373,
      "##მ": 4374,
      "##რ": 4375,
      "##თ": 4376,
      "##ლ": 4377,
      "##ო": 4378,
      "##업": 4379,
      "##는": 4380,
      "##문": 4381,
      "##해": 4382,
      "##द": 4383,
      "##ा": 4384,
      "##ह": 4385,
      "##ण": 4386,
      "##심": 4387,
      "##ً": 4388,
      "##レ": 4389,
      "##ス": 4390,
      "##ミ": 4391,
      "##小": 4392,
      "##ṃ": 4393,
      "##î": 4394,
      "##(": 4395,
      "##爪": 4396,
      "##也": 4397,
      "##相": 4398,
      "##當": 4399,
      "##尖": 4400,
      "##利": 4401,
      "##ː": 4402,
      "##ə": 4403,
      "##ˈ": 4404,
      "##ʁ": 4405,
      "##ʏ": 4406,
      "##燈": 4407,
      "##護": 4408,
      "##身": 4409,
      "##運": 4410,
      "##連": 4411,
      "##ô": 4412,
      "##ء": 4413,
      "##タ": 4414,
      "##۴": 4415,
      "##۰": 4416,
      "##근": 4417,
      "##하": 4418,
      "##기": 4419,
      "##ァ": 4420,
      "##ッ": 4421,
      "##シ": 4422,
      "##ョ": 4423,
      "##Ü": 4424,
      "##상": 4425,
      "##ć": 4426,
      "##유": 4427,
      "##富": 4428,
      "##莱": 4429,
      "##电": 4430,
      "##子": 4431,
      "##论": 4432,
      "##坛": 4433,
      "##э": 4434,
      "##説": 4435,
      "##東": 4436,
      "##洋": 4437,
      "##医": 4438,
      "##誌": 4439,
      "##️": 4440,
      "##⃣": 4441,
      "##은": 4442,
      "##ャ": 4443,
      "##セ": 4444,
      "##ル": 4445,
      "##来": 4446,
      "##せ": 4447,
      "##ん": 4448,
      "##Ï": 4449,
      "##Ġ": 4450,
      "##Ț": 4451,
      "##Ä": 4452,
      "##Ļ": 4453,
      "##Ź": 4454,
      "##Ø": 4455,
      "##ĺ": 4456,
      "##न": 4457,
      "##ु": 4458,
      "##ष": 4459,
      "##्": 4460,
      "##य": 4461,
      "##ः": 4462,
      "##હ": 4463,
      "##વ": 4464,
      "##涉": 4465,
      "##群": 4466,
      "##体": 4467,
      "##國": 4468,
      "##民": 4469,
      "##黨": 4470,
      "##墨": 4471,
      "##爾": 4472,
      "##支": 4473,
      "##懇": 4474,
      "##親": 4475,
      "##會": 4476,
      "##團": 4477,
      "##體": 4478,
      "##照": 4479,
      "##🏼": 4480,
      "##א": 4481,
      "##ט": 4482,
      "##Á": 4483,
      "##片": 4484,
      "##式": 4485,
      "##頭": 4486,
      "##軟": 4487,
      "##質": 4488,
      "##內": 4489,
      "##襯": 4490,
      "##墊": 4491,
      "##ג": 4492,
      "##框": 4493,
      "##장": 4494,
      "##ώ": 4495,
      "##ã": 4496,
      "##오": 4497,
      "##를": 4498,
      "##त": 4499,
      "##े": 4500,
      "##년": 4501,
      "##ک": 4502,
      "##ു": 4503,
      "##ồ": 4504,
      "##%": 4505,
      "##ă": 4506,
      "##ך": 4507,
      "##ד": 4508,
      "##도": 4509,
      "##인": 4510,
      "##데": 4511,
      "##陆": 4512,
      "##法": 4513,
      "##和": 4514,
      "##英": 4515,
      "##美": 4516,
      "##对": 4517,
      "##不": 4518,
      "##考": 4519,
      "##虑": 4520,
      "##过": 4521,
      "##错": 4522,
      "##而": 4523,
      "##主": 4524,
      "##行": 4525,
      "##归": 4526,
      "##责": 4527,
      "##同": 4528,
      "##称": 4529,
      "##谓": 4530,
      "##খ": 4531,
      "##ত": 4532,
      "##ʼ": 4533,
      "##র": 4534,
      "##测": 4535,
      "##试": 4536,
      "##ặ": 4537,
      "##을": 4538,
      "##ษ": 4539,
      "##ท": 4540,
      "##จ": 4541,
      "##Æ": 4542,
      "##ィ": 4543,
      "##ク": 4544,
      "##ो": 4545,
      "##ন": 4546,
      "##্": 4547,
      "##স": 4548,
      "##ট": 4549,
      "##া": 4550,
      "##ক": 4551,
      "##ř": 4552,
      "##સ": 4553,
      "##“": 4554,
      "##ን": 4555,
      "##抣": 4556,
      "##Ć": 4557,
      "##ľ": 4558,
      "##И": 4559,
      "##Д": 4560,
      "##Р": 4561,
      "##О": 4562,
      "##Н": 4563,
      "##А": 4564,
      "##М": 4565,
      "##К": 4566,
      "##과": 4567,
      "##ើ": 4568,
      "##យ": 4569,
      "##ច": 4570,
      "##ា": 4571,
      "##ប": 4572,
      "##់": 4573,
      "##ឡ": 4574,
      "##ុ": 4575,
      "##ង": 4576,
      "##វ": 4577,
      "##ិ": 4578,
      "##ញ": 4579,
      "##મ": 4580,
      "##Ī": 4581,
      "##😃": 4582,
      "##😊": 4583,
      "##😉": 4584,
      "##😆": 4585,
      "##😅": 4586,
      "##ộ": 4587,
      "##Ş": 4588,
      "##用": 4589,
      "##等": 4590,
      "##待": 4591,
      "##媒": 4592,
      "##資": 4593,
      "##料": 4594,
      "##完": 4595,
      "##整": 4596,
      "##下": 4597,
      "##載": 4598,
      "##便": 4599,
      "##可": 4600,
      "##以": 4601,
      "##即": 4602,
      "##時": 4603,
      "##播": 4604,
      "##放": 4605,
      "##技": 4606,
      "##術": 4607,
      "##前": 4608,
      "##發": 4609,
      "##展": 4610,
      "##趨": 4611,
      "##勢": 4612,
      "##ല": 4613,
      "##ব": 4614,
      "##傷": 4615,
      "##み": 4616,
      "##δ": 4617,
      "##ό": 4618,
      "##ா": 4619,
      "##க": 4620,
      "##ண": 4621,
      "##ம": 4622,
      "##்": 4623,
      "##ș": 4624,
      "##娘": 4625,
      "##灌": 4626,
      "##頂": 4627,
      "##御": 4628,
      "##賜": 4629,
      "##^": 4630,
      "##探": 4631,
      "##比": 4632,
      "##篮": 4633,
      "##球": 4634,
      "##野": 4635,
      "##新": 4636,
      "##幹": 4637,
      "##綫": 4638,
      "##ǎ": 4639,
      "##リ": 4640,
      "##カ": 4641,
      "##商": 4642,
      "##地": 4643,
      "##域": 4644,
      "##未": 4645,
      "##牽": 4646,
      "##引": 4647,
      "##ૂ": 4648,
      "##歌": 4649,
      "##热": 4650,
      "##在": 4651,
      "##线": 4652,
      "##首": 4653,
      "##접": 4654,
      "##ट": 4655,
      "##ấ": 4656,
      "##क": 4657,
      "##睇": 4658,
      "##서": 4659,
      "##부": 4660,
      "##터": 4661,
      "##្": 4662,
      "##ន": 4663,
      "##ព": 4664,
      "##េ": 4665,
      "##ល": 4666,
      "##ស": 4667,
      "##ទ": 4668,
      "##គ": 4669,
      "##–": 4670,
      "##机": 4671,
      "##ɔ": 4672,
      "##ɐ": 4673,
      "##编": 4674,
      "##译": 4675,
      "##时": 4676,
      "##承": 4677,
      "##Š": 4678,
      "##豆": 4679,
      "##ѡ": 4680,
      "##공": 4681,
      "##술": 4682,
      "##请": 4683,
      "##期": 4684,
      "##온": 4685,
      "##ế": 4686,
      "##床": 4687,
      "##神": 4688,
      "##経": 4689,
      "##ᅮ": 4690,
      "##到": 4691,
      "##老": 4692,
      "##厉": 4693,
      "##惩": 4694,
      "##罚": 4695,
      "##ṅ": 4696,
      "##력": 4697,
      "##으": 4698,
      "##로": 4699,
      "##व": 4700,
      "##ी": 4701,
      "##श": 4702,
      "##ि": 4703,
      "##स": 4704,
      "##્": 4705,
      "##ర": 4706,
      "##్": 4707,
      "##జ": 4708,
      "##ు": 4709,
      "##న": 4710,
      "##💖": 4711,
      "##ń": 4712,
      "##昨": 4713,
      "##会": 4714,
      "##议": 4715,
      "##讨": 4716,
      "##ি": 4717,
      "##프": 4718,
      "##색": 4719,
      "##므": 4720,
      "##ỹ": 4721,
      "##દ": 4722,
      "##′": 4723,
      "##ڈ": 4724,
      "##매": 4725,
      "##¬": 4726,
      "##▼": 4727,
      "##ุ": 4728,
      "##ณ": 4729,
      "##ด": 4730,
      "##้": 4731,
      "##گ": 4732,
      "##들": 4733,
      "##수": 4734,
      "##際": 4735,
      "##ど": 4736,
      "##よ": 4737,
      "##う": 4738,
      "##設": 4739,
      "##定": 4740,
      "##を": 4741,
      "##た": 4742,
      "##め": 4743,
      "##か": 4744,
      "##認": 4745,
      "##識": 4746,
      "##難": 4747,
      "##し": 4748,
      "##થ": 4749,
      "##细": 4750,
      "##节": 4751,
      "##ロ": 4752,
      "##ー": 4753,
      "##ド": 4754,
      "##交": 4755,
      "##要": 4756,
      "##衝": 4757,
      "##`": 4758,
      "##鼓": 4759,
      "##舞": 4760,
      "##山": 4761,
      "##道": 4762,
      "##木": 4763,
      "##曽": 4764,
      "##路": 4765,
      "##日": 4766,
      "##—": 4767,
      "##Ђ": 4768,
      "##ќ": 4769,
      "##જ": 4770,
      "##ぶ": 4771,
      "##べ": 4772,
      "##き": 4773,
      "##由": 4774,
      "##死": 4775,
      "##だ": 4776,
      "##ब": 4777,
      "##ं": 4778,
      "##変": 4779,
      "##更": 4780,
      "##ビ": 4781,
      "##コ": 4782,
      "##ト": 4783,
      "##類": 4784,
      "##テ": 4785,
      "##受": 4786,
      "##众": 4787,
      "##人": 4788,
      "##轻": 4789,
      "##样": 4790,
      "##去": 4791,
      "##け": 4792,
      "##¤": 4793,
      "##🏻": 4794,
      "##ക": 4795,
      "##മ": 4796,
      "##ǒ": 4797,
      "##ԁ": 4798,
      "##ị": 4799,
      "##题": 4800,
      "##所": 4801,
      "##ल": 4802,
      "##ˇ": 4803,
      "##스": 4804,
      "##트": 4805,
      "##한": 4806,
      "##ベ": 4807,
      "##म": 4808,
      "##ृ": 4809,
      "##리": 4810,
      "##즈": 4811,
      "##Č": 4812,
      "##대": 4813,
      "##─": 4814,
      "##【": 4815,
      "##보": 4816,
      "##시": 4817,
      "##析": 4818,
      "##極": 4819,
      "##무": 4820,
      "##격": 4821,
      "##ῖ": 4822,
      "##ả": 4823,
      "##토": 4824,
      "##籠": 4825,
      "##弁": 4826,
      "##当": 4827,
      "##П": 4828,
      "##吃": 4829,
      "##冰": 4830,
      "##淇": 4831,
      "##淋": 4832,
      "##출": 4833,
      "##고": 4834,
      "##ळ": 4835,
      "##ệ": 4836,
      "##ธ": 4837,
      "##ป": 4838,
      "##โ": 4839,
      "##ช": 4840,
      "##ใ": 4841,
      "##็": 4842,
      "##ส": 4843,
      "##古": 4844,
      "##典": 4845,
      "##欧": 4846,
      "##浅": 4847,
      "##咖": 4848,
      "##轨": 4849,
      "##ẽ": 4850,
      "##ớ": 4851,
      "##£": 4852,
      "##玻": 4853,
      "##璃": 4854,
      "##纖": 4855,
      "##維": 4856,
      "##盔": 4857,
      "##萌": 4858,
      "##家": 4859,
      "##长": 4860,
      "##台": 4861,
      "##工": 4862,
      "##學": 4863,
      "##殼": 4864,
      "##與": 4865,
      "##역": 4866,
      "##명": 4867,
      "##ì": 4868,
      "##😍": 4869,
      "##🍹": 4870,
      "##위": 4871,
      "##恩": 4872,
      "##這": 4873,
      "##個": 4874,
      "##夏": 4875,
      "##推": 4876,
      "##單": 4877,
      "##曲": 4878,
      "##उ": 4879,
      "##们": 4880,
      "##近": 4881,
      "##将": 4882,
      "##ज": 4883,
      "##प": 4884,
      "##േ": 4885,
      "##ദ": 4886,
      "##ന": 4887,
      "##ട": 4888,
      "##െ": 4889,
      "##ɛ": 4890,
      "##ヨ": 4891,
      "##ブ": 4892,
      "##バ": 4893,
      "##ザ": 4894,
      "##邀": 4895,
      "##加": 4896,
      "##聚": 4897,
      "##ू": 4898,
      "##ư": 4899,
      "##ợ": 4900,
      "##용": 4901,
      "##영": 4902,
      "##泽": 4903,
      "##车": 4904,
      "##站": 4905,
      "##■": 4906,
      "##ઇ": 4907,
      "##💕": 4908,
      "##步": 4909,
      "##阐": 4910,
      "##释": 4911,
      "##環": 4912,
      "##境": 4913,
      "##防": 4914,
      "##災": 4915,
      "##研": 4916,
      "##‌": 4917,
      "##へ": 4918,
      "##ʃ": 4919,
      "##έ": 4920,
      "##ζ": 4921,
      "##血": 4922,
      "##楼": 4923,
      "##󠁧": 4924,
      "##󠁢": 4925,
      "##󠁳": 4926,
      "##󠁣": 4927,
      "##󠁴": 4928,
      "##󠁿": 4929,
      "##판": 4930,
      "##입": 4931,
      "##니": 4932,
      "##실": 4933,
      "##Í": 4934,
      "##Ú": 4935,
      "##ห": 4936,
      "##บ": 4937,
      "##•": 4938,
      "##ĭ": 4939,
      "##습": 4940,
      "##γ": 4941,
      "##若": 4942,
      "##❤": 4943,
      "##진": 4944,
      "##ץ": 4945,
      "##법": 4946,
      "##ち": 4947,
      "##逍": 4948,
      "##遙": 4949,
      "##マ": 4950,
      "##ṇ": 4951,
      "##ḍ": 4952,
      "##셔": 4953,
      "##州": 4954,
      "##ケ": 4955,
      "##셜": 4956,
      "##미": 4957,
      "##디": 4958,
      "##ё": 4959,
      "##đ": 4960,
      "##ọ": 4961,
      "##ઈ": 4962,
      "##행": 4963,
      "##": 4964,
      "##ٍ": 4965,
      "##崙": 4966,
      "##每": 4967,
      "##逢": 4968,
      "##農": 4969,
      "##曆": 4970,
      "##初": 4971,
      "##十": 4972,
      "##五": 4973,
      "##皆": 4974,
      "##信": 4975,
      "##徒": 4976,
      "##Å": 4977,
      "##グ": 4978,
      "##ツ": 4979,
      "##체": 4980,
      "##ố": 4981,
      "##û": 4982,
      "##長": 4983,
      "##游": 4984,
      "##泳": 4985,
      "##ứ": 4986,
      "##지": 4987,
      "##打": 4988,
      "##印": 4989,
      "##都": 4990,
      "##器": 4991,
      "##值": 4992,
      "##်": 4993,
      "##င": 4994,
      "##့": 4995,
      "##္": 4996,
      "##校": 4997,
      "##級": 4998,
      "##フ": 4999,
      "##閲": 5000,
      "##覧": 5001,
      "##У": 5002,
      "##Ж": 5003,
      "##国": 5004,
      "##科": 5005,
      "##创": 5006,
      "##业": 5007,
      "##ő": 5008,
      "##影": 5009,
      "##园": 5010,
      "##̪": 5011,
      "##从": 5012,
      "##떤": 5013,
      "##요": 5014,
      "##ം": 5015,
      "##ိ": 5016,
      "##ု": 5017,
      "##ေ": 5018,
      "##တ": 5019,
      "##ြ": 5020,
      "##က": 5021,
      "##月": 5022,
      "##ਤ": 5023,
      "##ੀ": 5024,
      "##緊": 5025,
      "##湊": 5026,
      "##质": 5027,
      "##无": 5028,
      "##损": 5029,
      "##听": 5030,
      "##ذ": 5031,
      "##蔻": 5032,
      "##瑕": 5033,
      "##হ": 5034,
      "##য": 5035,
      "##😂": 5036,
      "##식": 5037,
      "##ے": 5038,
      "##ḥ": 5039,
      "##友": 5040,
      "##善": 5041,
      "##率": 5042,
      "##控": 5043,
      "##¢": 5044,
      "##愛": 5045,
      "##隨": 5046,
      "##ပ": 5047,
      "##း": 5048,
      "##လ": 5049,
      "##ါ": 5050,
      "##ယ": 5051,
      "##ň": 5052,
      "##۷": 5053,
      "##픈": 5054,
      "##간": 5055,
      "##§": 5056,
      "##動": 5057,
      "##告": 5058,
      "##−": 5059,
      "##皇": 5060,
      "##正": 5061,
      "##炁": 5062,
      "##別": 5063,
      "##Ò": 5064,
      "##ậ": 5065,
      "##\u0007": 5066,
      "##\u0005": 5067,
      "##\b": 5068,
      "##、": 5069,
      "##阳": 5070,
      "##ল": 5071,
      "##ো": 5072,
      "##ɵ": 5073,
      "##끗": 5074,
      "##했": 5075,
      "##것": 5076,
      "##처": 5077,
      "##럼": 5078,
      "##ť": 5079,
      "##ग": 5080,
      "##우": 5081,
      "##ค": 5082,
      "##ネ": 5083,
      "##降": 5084,
      "##形": 5085,
      "##財": 5086,
      "##গ": 5087,
      "##ď": 5088,
      "##မ": 5089,
      "##န": 5090,
      "##ျ": 5091,
      "##ဆ": 5092,
      "##ဲ": 5093,
      "##႔": 5094,
      "##러": 5095,
      "##超": 5096,
      "##乎": 5097,
      "##想": 5098,
      "##象": 5099,
      "##ث": 5100,
      "##産": 5101,
      "##販": 5102,
      "##売": 5103,
      "##店": 5104,
      "##移": 5105,
      "##わ": 5106,
      "##現": 5107,
      "##使": 5108,
      "##鲜": 5109,
      "##鳄": 5110,
      "##梨": 5111,
      "##Ч": 5112,
      "##С": 5113,
      "##Т": 5114,
      "##Ь": 5115,
      "##婚": 5116,
      "##째": 5117,
      "##ɑ": 5118,
      "##च": 5119,
      "##छ": 5120,
      "##据": 5121,
      "##位": 5122,
      "##크": 5123,
      "##래": 5124,
      "##치": 5125,
      "##餐": 5126,
      "##意": 5127,
      "##味": 5128,
      "##着": 5129,
      "##ဒ": 5130,
      "##市": 5131,
      "##散": 5132,
      "##策": 5133,
      "##西": 5134,
      "##围": 5135,
      "##还": 5136,
      "##额": 5137,
      "##获": 5138,
      "##得": 5139,
      "##了": 5140,
      "##존": 5141,
      "##‎": 5142,
      "##後": 5143,
      "##サ": 5144,
      "##ズ": 5145,
      "##思": 5146,
      "##邈": 5147,
      "##城": 5148,
      "##生": 5149,
      "##θ": 5150,
      "##発": 5151,
      "##送": 5152,
      "##週": 5153,
      "##間": 5154,
      "##ほ": 5155,
      "##ț": 5156,
      "##⁠": 5157,
      "##ė": 5158,
      "##函": 5159,
      "##这": 5160,
      "##个": 5161,
      "##φ": 5162,
      "##ъ": 5163,
      "##Ð": 5164,
      "##제": 5165,
      "##풀": 5166,
      "##®": 5167,
      "##그": 5168,
      "##급": 5169,
      "##되": 5170,
      "##낼": 5171,
      "##ዘ": 5172,
      "##さ": 5173,
      "##ェ": 5174,
      "##계": 5175,
      "##基": 5176,
      "##安": 5177,
      "##全": 5178,
      "##绝": 5179,
      "##义": 5180,
      "##务": 5181,
      "##违": 5182,
      "##反": 5183,
      "##☰": 5184,
      "##천": 5185,
      "##瓶": 5186,
      "##岩": 5187,
      "##ચ": 5188,
      "##松": 5189,
      "##ŏ": 5190,
      "##臭": 5191,
      "##襪": 5192,
      "##效": 5193,
      "##嗎": 5194,
      "##ָ": 5195,
      "##ַ": 5196,
      "##权": 5197,
      "##申": 5198,
      "##¦": 5199,
      "##ै": 5200,
      "##任": 5201,
      "##格": 5202,
      "##他": 5203,
      "##開": 5204,
      "##废": 5205,
      "##墟": 5206,
      "##藤": 5207,
      "##丈": 5208,
      "##夫": 5209,
      "##ż": 5210,
      "##야": 5211,
      "##할": 5212,
      "##克": 5213,
      "##プ": 5214,
      "##剥": 5215,
      "##痕": 5216,
      "##∼": 5217,
      "##💪": 5218,
      "##朋": 5219,
      "##欢": 5220,
      "##迎": 5221,
      "##绿": 5222,
      "##资": 5223,
      "##源": 5224,
      "##载": 5225,
      "##爱": 5226,
      "##普": 5227,
      "##清": 5228,
      "##零": 5229,
      "##软": 5230,
      "##백": 5231,
      "##질": 5232,
      "##ች": 5233,
      "##ላ": 5234,
      "##ሉ": 5235,
      "##ี": 5236,
      "##ญ": 5237,
      "##隊": 5238,
      "##İ": 5239,
      "##추": 5240,
      "##ὐ": 5241,
      "##ソ": 5242,
      "##パ": 5243,
      "##ワ": 5244,
      "##こ": 5245,
      "##淘": 5246,
      "##Ω": 5247,
      "##엘": 5248,
      "##צ": 5249,
      "##ナ": 5250,
      "##타": 5251,
      "##녀": 5252,
      "##િ": 5253,
      "##ॉ": 5254,
      "##В": 5255,
      "##Л": 5256,
      "##Е": 5257,
      "##۳": 5258,
      "##۸": 5259,
      "##۹": 5260,
      "##њ": 5261,
      "##©": 5262,
      "##Ị": 5263,
      "##址": 5264,
      "##ड": 5265,
      "##ċ": 5266,
      "##渐": 5267,
      "##静": 5268,
      "##ム": 5269,
      "##ペ": 5270,
      "##ジ": 5271,
      "##ṭ": 5272,
      "##ュ": 5273,
      "##Б": 5274,
      "##Я": 5275,
      "##প": 5276,
      "##ெ": 5277,
      "##ன": 5278,
      "##著": 5279,
      "##候": 5280,
      "##覓": 5281,
      "##食": 5282,
      "##及": 5283,
      "##找": 5284,
      "##溫": 5285,
      "##暖": 5286,
      "##方": 5287,
      "##消": 5288,
      "##ニ": 5289,
      "##ʊ": 5290,
      "##ɕ": 5291,
      "##久": 5292,
      "##底": 5293,
      "##液": 5294,
      "##Ž": 5295,
      "##回": 5296,
      "##为": 5297,
      "##季": 5298,
      "##ө": 5299,
      "##전": 5300,
      "##Ó": 5301,
      "##¥": 5302,
      "##露": 5303,
      "##光": 5304,
      "##ख": 5305,
      "##લ": 5306,
      "##͡": 5307,
      "##ʒ": 5308,
      "##節": 5309,
      "##慶": 5310,
      "##干": 5311,
      "##族": 5312,
      "##や": 5313,
      "##场": 5314,
      "##ጀ": 5315,
      "##መ": 5316,
      "##ር": 5317,
      "##Г": 5318,
      "##ว": 5319,
      "##👑": 5320,
      "##ప": 5321,
      "##డ": 5322,
      "##ే": 5323,
      "##Й": 5324,
      "##ţ": 5325,
      "##械": 5326,
      "##程": 5327,
      "##搶": 5328,
      "##先": 5329,
      "##看": 5330,
      "##ね": 5331,
      "##등": 5332,
      "##건": 5333,
      "##었": 5334,
      "##兒": 5335,
      "##ظ": 5336,
      "##望": 5337,
      "##陸": 5338,
      "##깝": 5339,
      "##ÿ": 5340,
      "##条": 5341,
      "##第": 5342,
      "##‪": 5343,
      "##규": 5344,
      "##본": 5345,
      "##세": 5346,
      "##ỗ": 5347,
      "##ু": 5348,
      "##ゆ": 5349,
      "##街": 5350,
      "##ŵ": 5351,
      "##റ": 5352,
      "##ى": 5353,
      "##ങ": 5354,
      "##ൾ": 5355,
      "##나": 5356,
      "##元": 5357,
      "##電": 5358,
      "##房": 5359,
      "##إ": 5360,
      "##码": 5361,
      "##발": 5362,
      "##된": 5363,
      "##楽": 5364,
      "##थ": 5365,
      "##자": 5366,
      "##민": 5367,
      "##국": 5368,
      "##村": 5369,
      "##娃": 5370,
      "##己": 5371,
      "##组": 5372,
      "##队": 5373,
      "##정": 5374,
      "##解": 5375,
      "##决": 5376,
      "##ữ": 5377,
      "##ἰ": 5378,
      "##Ο": 5379,
      "##Μ": 5380,
      "##Σ": 5381,
      "##ই": 5382,
      "##ટ": 5383,
      "##随": 5384,
      "##奖": 5385,
      "##励": 5386,
      "##江": 5387,
      "##ử": 5388,
      "##詞": 5389,
      "##È": 5390,
      "##焼": 5391,
      "##ơ": 5392,
      "##張": 5393,
      "##專": 5394,
      "##輯": 5395,
      "##獲": 5396,
      "##勝": 5397,
      "##倒": 5398,
      "##數": 5399,
      "##吧": 5400,
      "##Э": 5401,
      "##З": 5402,
      "##二": 5403,
      "##書": 5404,
      "##ở": 5405,
      "##ળ": 5406,
      "##农": 5407,
      "##写": 5408,
      "##书": 5409,
      "##非": 5410,
      "##其": 5411,
      "##寫": 5412,
      "##ắ": 5413,
      "##俊": 5414,
      "##智": 5415,
      "##쳐": 5416,
      "##드": 5417,
      "##银": 5418,
      "##때": 5419,
      "##ወ": 5420,
      "##ዳ": 5421,
      "##እ": 5422,
      "##ታ": 5423,
      "##호": 5424,
      "##적": 5425,
      "##原": 5426,
      "##装": 5427,
      "##货": 5428,
      "##息": 5429,
      "##然": 5430,
      "##원": 5431,
      "##ո": 5432,
      "##վ": 5433,
      "##տ": 5434,
      "##ա": 5435,
      "##շ": 5436,
      "##ե": 5437,
      "##ն": 5438,
      "##ણ": 5439,
      "##博": 5440,
      "##客": 5441,
      "##ὸ": 5442,
      "##炒": 5443,
      "##牛": 5444,
      "##河": 5445,
      "##ቲ": 5446,
      "##ヌ": 5447,
      "##エ": 5448,
      "##营": 5449,
      "##黒": 5450,
      "##ួ": 5451,
      "##ក": 5452,
      "##ដ": 5453,
      "##ោ": 5454,
      "##រ": 5455,
      "##ៅ": 5456,
      "##ម": 5457,
      "##丁": 5458,
      "##番": 5459,
      "##除": 5460,
      "##Ɩ": 5461,
      "##ؤ": 5462,
      "##Ë": 5463,
      "##Î": 5464,
      "##开": 5465,
      "##号": 5466,
      "##查": 5467,
      "##询": 5468,
      "##": 5469,
      "##約": 5470,
      "##套": 5471,
      "##服": 5472,
      "##務": 5473,
      "##ύ": 5474,
      "##성": 5475,
      "##율": 5476,
      "##👊": 5477,
      "##ং": 5478,
      "##উ": 5479,
      "##ደ": 5480,
      "##ባ": 5481,
      "##Ф": 5482,
      "##Ц": 5483,
      "##🏽": 5484,
      "##孔": 5485,
      "##特": 5486,
      "##圓": 5487,
      "##鱗": 5488,
      "##遠": 5489,
      "##於": 5490,
      "##母": 5491,
      "##ई": 5492,
      "##ὶ": 5493,
      "##泰": 5494,
      "##়": 5495,
      "##チ": 5496,
      "##ĩ": 5497,
      "##寻": 5498,
      "##연": 5499,
      "##였": 5500,
      "##쉐": 5501,
      "##立": 5502,
      "##図": 5503,
      "##館": 5504,
      "##페": 5505,
      "##胞": 5506,
      "##」": 5507,
      "##★": 5508,
      "##़": 5509,
      "##운": 5510,
      "##션": 5511,
      "##랑": 5512,
      "##음": 5513,
      "##吒": 5514,
      "##話": 5515,
      "##童": 5516,
      "##臨": 5517,
      "##牀": 5518,
      "##火": 5519,
      "##田": 5520,
      "##翻": 5521,
      "##历": 5522,
      "##离": 5523,
      "##奇": 5524,
      "##荒": 5525,
      "##诞": 5526,
      "##塗": 5527,
      "##稚": 5528,
      "##園": 5529,
      "##今": 5530,
      "##针": 5531,
      "##灸": 5532,
      "##课": 5533,
      "##ী": 5534,
      "##記": 5535,
      "##차": 5536,
      "##🚫": 5537,
      "##ድ": 5538,
      "##": 5539,
      "##裝": 5540,
      "##模": 5541,
      "##僅": 5542,
      "##援": 5543,
      "##硬": 5544,
      "##碟": 5545,
      "##里": 5546,
      "##包": 5547,
      "##最": 5548,
      "##兰": 5549,
      "##फ": 5550,
      "##œ": 5551,
      "##ԛ": 5552,
      "##ӓ": 5553,
      "##擬": 5554,
      "##結": 5555,
      "##顯": 5556,
      "##ዩ": 5557,
      "##届": 5558,
      "##只": 5559,
      "##授": 5560,
      "##予": 5561,
      "##语": 5562,
      "##言": 5563,
      "##处": 5564,
      "##算": 5565,
      "##举": 5566,
      "##足": 5567,
      "##响": 5568,
      "##选": 5569,
      "##者": 5570,
      "##̃": 5571,
      "##途": 5572,
      "##昇": 5573,
      "##賢": 5574,
      "##레": 5575,
      "##임": 5576,
      "##항": 5577,
      "##დ": 5578,
      "##წ": 5579,
      "##ყ": 5580,
      "##ვ": 5581,
      "##ე": 5582,
      "##ტ": 5583,
      "##ი": 5584,
      "##ბ": 5585,
      "##封": 5586,
      "##各": 5587,
      "##种": 5588,
      "##图": 5589,
      "##像": 5590,
      "##ũ": 5591,
      "##终": 5592,
      "##白": 5593,
      "##她": 5594,
      "##什": 5595,
      "##么": 5596,
      "##計": 5597,
      "##領": 5598,
      "##強": 5599,
      "##": 5600,
      "##禁": 5601,
      "##毛": 5602,
      "##骨": 5603,
      "##耸": 5604,
      "##购": 5605,
      "##就": 5606,
      "##维": 5607,
      "##库": 5608,
      "##避": 5609,
      "##转": 5610,
      "##换": 5611,
      "##债": 5612,
      "##券": 5613,
      "##价": 5614,
      "##型": 5615,
      "##화": 5616,
      "##似": 5617,
      "##又": 5618,
      "##ギ": 5619,
      "##ヒ": 5620,
      "##별": 5621,
      "##히": 5622,
      "##절": 5623,
      "##ầ": 5624,
      "##ઉ": 5625,
      "##ẳ": 5626,
      "##외": 5627,
      "##龍": 5628,
      "##束": 5629,
      "##帶": 5630,
      "##你": 5631,
      "##讓": 5632,
      "##妳": 5633,
      "##進": 5634,
      "##謝": 5635,
      "##界": 5636,
      "##经": 5637,
      "##堂": 5638,
      "##Γ": 5639,
      "##Ç": 5640,
      "##腸": 5641,
      "##帯": 5642,
      "##°": 5643,
      "##备": 5644,
      "##材": 5645,
      "##迹": 5646,
      "##많": 5647,
      "##ഭ": 5648,
      "##릭": 5649,
      "##社": 5650,
      "##三": 5651,
      "##験": 5652,
      "##ア": 5653,
      "##拜": 5654,
      "##銅": 5655,
      "##匾": 5656,
      "##바": 5657,
      "##Þ": 5658,
      "##假": 5659,
      "##标": 5660,
      "##股": 5661,
      "##票": 5662,
      "##别": 5663,
      "##遵": 5664,
      "##循": 5665,
      "##两": 5666,
      "##互": 5667,
      "##独": 5668,
      "##布": 5669,
      "##朗": 5670,
      "##运": 5671,
      "##动": 5672,
      "##메": 5673,
      "##라": 5674,
      "##얀": 5675,
      "##›": 5676,
      "##থ": 5677,
      "##丽": 5678,
      "##靓": 5679,
      "##或": 5680,
      "##丑": 5681,
      "##尻": 5682,
      "##澄": 5683,
      "##宏": 5684,
      "##À": 5685,
      "##共": 5686,
      "##🙌": 5687,
      "##랜": 5688,
      "##ụ": 5689,
      "##พ": 5690,
      "##แ": 5691,
      "##那": 5692,
      "##悲": 5693,
      "##哀": 5694,
      "##浓": 5695,
      "##郁": 5696,
      "##起": 5697,
      "##람": 5698,
      "##「": 5699,
      "##ൃ": 5700,
      "##忍": 5701,
      "##چ": 5702,
      "##碧": 5703,
      "##桃": 5704,
      "##気": 5705,
      "##≥": 5706,
      "##ँ": 5707,
      "##소": 5708,
      "##乾": 5709,
      "##盛": 5710,
      "##世": 5711,
      "##秘": 5712,
      "##史": 5713,
      "##沖": 5714,
      "##비": 5715,
      "##律": 5716,
      "##辞": 5717,
      "##ശ": 5718,
      "##آ": 5719,
      "##関": 5720,
      "##お": 5721,
      "##問": 5722,
      "##急": 5723,
      "##増": 5724,
      "##Υ": 5725,
      "##Λ": 5726,
      "##Ά": 5727,
      "##Ν": 5728,
      "##Ε": 5729,
      "##☺": 5730,
      "##±": 5731,
      "##ৎ": 5732,
      "##漂": 5733,
      "##亮": 5734,
      "##树": 5735,
      "##ǔ": 5736,
      "##压": 5737,
      "##抑": 5738,
      "##住": 5739,
      "##心": 5740,
      "##头": 5741,
      "##涌": 5742,
      "##眼": 5743,
      "##惠": 5744,
      "##區": 5745,
      "##密": 5746,
      "##栏": 5747,
      "##락": 5748,
      "##病": 5749,
      "##伴": 5750,
      "##症": 5751,
      "##状": 5752,
      "##対": 5753,
      "##Ы": 5754,
      "##艦": 5755,
      "##산": 5756,
      "##ᾶ": 5757,
      "##জ": 5758,
      "##Ш": 5759,
      "##ʌ": 5760,
      "##ɪ": 5761,
      "##真": 5762,
      "##మ": 5763,
      "##ి": 5764,
      "##ళ": 5765,
      "##必": 5766,
      "##ṣ": 5767,
      "##ṛ": 5768,
      "##Х": 5769,
      "##振": 5770,
      "##団": 5771,
      "##̍": 5772,
      "##妻": 5773,
      "##び": 5774,
      "##।": 5775,
      "##哲": 5776,
      "##纽": 5777,
      "##约": 5778,
      "##彩": 5779,
      "##金": 5780,
      "##確": 5781,
      "##杂": 5782,
      "##环": 5783,
      "##刀": 5784,
      "##轴": 5785,
      "##适": 5786,
      "##应": 5787,
      "##矢": 5788,
      "##量": 5789,
      "##优": 5790,
      "##Ю": 5791,
      "##儿": 5792,
      "##巷": 5793,
      "##态": 5794,
      "##છ": 5795,
      "##带": 5796,
      "##렵": 5797,
      "##員": 5798,
      "##借": 5799,
      "##ൂ": 5800,
      "##督": 5801,
      "##デ": 5802,
      "##オ": 5803,
      "##": 5804,
      "##愿": 5805,
      "##如": 5806,
      "##春": 5807,
      "##蓓": 5808,
      "##蕾": 5809,
      "##遺": 5810,
      "##伝": 5811,
      "##治": 5812,
      "##療": 5813,
      "##Ộ": 5814,
      "##ൈ": 5815,
      "##裕": 5816,
      "##層": 5817,
      "##募": 5818,
      "##集": 5819,
      "##総": 5820,
      "##ઞ": 5821,
      "##🎆": 5822,
      "##단": 5823,
      "##盡": 5824,
      "##網": 5825,
      "##后": 5826,
      "##提": 5827,
      "##품": 5828,
      "##じ": 5829,
      "##ゃ": 5830,
      "##¡": 5831,
      "##घ": 5832,
      "##幕": 5833,
      "##≡": 5834,
      "##ገ": 5835,
      "##ዲ": 5836,
      "##ễ": 5837,
      "##澤": 5838,
      "##車": 5839,
      "##玉": 5840,
      "##且": 5841,
      "##括": 5842,
      "##间": 5843,
      "##ധ": 5844,
      "##ച": 5845,
      "##ङ": 5846,
      "##作": 5847,
      "##ょ": 5848,
      "##એ": 5849,
      "##χ": 5850,
      "##遊": 5851,
      "##撃": 5852,
      "##手": 5853,
      "##×": 5854,
      "##ὰ": 5855,
      "##조": 5856,
      "##感": 5857,
      "##კ": 5858,
      "##ნ": 5859,
      "##უ": 5860,
      "##ც": 5861,
      "##버": 5862,
      "##љ": 5863,
      "##變": 5864,
      "##頻": 5865,
      "##寬": 5866,
      "##延": 5867,
      "##遲": 5868,
      "##題": 5869,
      "##ู": 5870,
      "##ื": 5871,
      "##Ǝ": 5872,
      "##尺": 5873,
      "##寸": 5874,
      "##懸": 5875,
      "##吊": 5876,
      "##학": 5877,
      "##錢": 5878,
      "##इ": 5879,
      "##花": 5880,
      "##空": 5881,
      "##港": 5882,
      "##거": 5883,
      "##": 5884,
      "##駱": 5885,
      "##駝": 5886,
      "##馬": 5887,
      "##往": 5888,
      "##達": 5889,
      "##配": 5890,
      "##慮": 5891,
      "##😎": 5892,
      "##肠": 5893,
      "##ʾ": 5894,
      "##济": 5895,
      "##指": 5896,
      "##฿": 5897,
      "##ዜ": 5898,
      "##官": 5899,
      "##门": 5900,
      "##ʹ": 5901,
      "##ʺ": 5902,
      "##钟": 5903,
      "##砂": 5904,
      "##点": 5905,
      "##版": 5906,
      "##황": 5907,
      "##̶": 5908,
      "##«": 5909,
      "##ய": 5910,
      "##ல": 5911,
      "##ு": 5912,
      "##ற": 5913,
      "##ை": 5914,
      "##ள": 5915,
      "##爸": 5916,
      "##爽": 5917,
      "##快": 5918,
      "##昭": 5919,
      "##ષ": 5920,
      "##ై": 5921,
      "##గ": 5922,
      "##ా": 5923,
      "##井": 5924,
      "##": 5925,
      "##叢": 5926,
      "##接": 5927,
      "##收": 5928,
      "##嚴": 5929,
      "##響": 5930,
      "##ध": 5931,
      "##ể": 5932,
      "##駅": 5933,
      "##挑": 5934,
      "##戦": 5935,
      "##門": 5936,
      "##¶": 5937,
      "##無": 5938,
      "##ば": 5939,
      "##ờ": 5940,
      "##ǐ": 5941,
      "##驱": 5942,
      "##ダ": 5943,
      "##내": 5944,
      "##ු": 5945,
      "##🐜": 5946,
      "##拿": 5947,
      "##양": 5948,
      "##繋": 5949,
      "##앙": 5950,
      "##교": 5951,
      "##육": 5952,
      "##센": 5953,
      "##ʔ": 5954,
      "##ֲ": 5955,
      "##替": 5956,
      "##联": 5957,
      "##豐": 5958,
      "##》": 5959,
      "##ถ": 5960,
      "##ึ": 5961,
      "##안": 5962,
      "##阪": 5963,
      "##弓": 5964,
      "##之": 5965,
      "##鸟": 5966,
      "##ガ": 5967,
      "##ボ": 5968,
      "##ធ": 5969,
      "##ំ": 5970,
      "##ភ": 5971,
      "##៍": 5972,
      "##ត": 5973,
      "##Ń": 5974,
      "##纪": 5975,
      "##诗": 5976,
      "##句": 5977,
      "##改": 5978,
      "##ხ": 5979,
      "##株": 5980,
      "##ብ": 5981,
      "##베": 5982,
      "##误": 5983,
      "##⊕": 5984,
      "##ʿ": 5985,
      "##應": 5986,
      "##壅": 5987,
      "##塞": 5988,
      "##情": 5989,
      "##況": 5990,
      "##ए": 5991,
      "##막": 5992,
      "##ỉ": 5993,
      "##택": 5994,
      "##주": 5995,
      "##∞": 5996,
      "##후": 5997,
      "##虎": 5998,
      "##尊": 5999,
      "##腳": 6000,
      "##ј": 6001,
      "##စ": 6002,
      "##အ": 6003,
      "##ဳ": 6004,
      "##ၾ": 6005,
      "##ာ": 6006,
      "##만": 6007,
      "##루": 6008,
      "##청": 6009,
      "##면": 6010,
      "##修": 6011,
      "##經": 6012,
      "##词": 6013,
      "##做": 6014,
      "##妆": 6015,
      "##艳": 6016,
      "##抹": 6017,
      "##女": 6018,
      "##疫": 6019,
      "##號": 6020,
      "##환": 6021,
      "##🎮": 6022,
      "##破": 6023,
      "##ठ": 6024,
      "##ધ": 6025,
      "##경": 6026,
      "##ź": 6027,
      "##搭": 6028,
      "##蓬": 6029,
      "##勃": 6030,
      "##巻": 6031,
      "##害": 6032,
      "##实": 6033,
      "##际": 6034,
      "##失": 6035,
      "##故": 6036,
      "##분": 6037,
      "##続": 6038,
      "##합": 6039,
      "##托": 6040,
      "##작": 6041,
      "##午": 6042,
      "##態": 6043,
      "##排": 6044,
      "##符": 6045,
      "##☛": 6046,
      "##✅": 6047,
      "##Ψ": 6048,
      "##낸": 6049,
      "##구": 6050,
      "##油": 6051,
      "##ɡ": 6052,
      "##̩": 6053,
      "##없": 6054,
      "##序": 6055,
      "##水": 6056,
      "##癱": 6057,
      "##瘓": 6058,
      "##睛": 6059,
      "##疲": 6060,
      "##劳": 6061,
      "##ủ": 6062,
      "##Ē": 6063,
      "##Ả": 6064,
      "##气": 6065,
      "##须": 6066,
      "##ȯ": 6067,
      "##پ": 6068,
      "##疾": 6069,
      "##患": 6070,
      "##": 6071,
      "##払": 6072,
      "##限": 6073,
      "##額": 6074,
      "##円": 6075,
      "##꼽": 6076,
      "##🎂": 6077,
      "##🎊": 6078,
      "##沢": 6079,
      "##󠁷": 6080,
      "##󠁬": 6081,
      "##習": 6082,
      "##": 6083,
      "##乳": 6084,
      "##製": 6085,
      "##奮": 6086,
      "##画": 6087,
      "##潭": 6088,
      "##湖": 6089,
      "##输": 6090,
      "##⋯": 6091,
      "##ừ": 6092,
      "##ằ": 6093,
      "##绚": 6094,
      "##朵": 6095,
      "##盟": 6096,
      "##평": 6097,
      "##北": 6098,
      "##映": 6099,
      "##選": 6100,
      "##론": 6101,
      "##ܬ": 6102,
      "##ܚ": 6103,
      "##ܢ": 6104,
      "##ܐ": 6105,
      "##마": 6106,
      "##워": 6107,
      "##료": 6108,
      "##良": 6109,
      "##扱": 6110,
      "##願": 6111,
      "##攻": 6112,
      "##擊": 6113,
      "##還": 6114,
      "##斷": 6115,
      "##尾": 6116,
      "##逃": 6117,
      "##依": 6118,
      "##諾": 6119,
      "##哪": 6120,
      "##几": 6121,
      "##描": 6122,
      "##述": 6123,
      "##ŭ": 6124,
      "##চ": 6125,
      "##備": 6126,
      "##氣": 6127,
      "##緩": 6128,
      "##બ": 6129,
      "##ઓ": 6130,
      "##飛": 6131,
      "##袋": 6132,
      "##崑": 6133,
      "##订": 6134,
      "##稿": 6135,
      "##ἴ": 6136,
      "##盘": 6137,
      "##调": 6138,
      "##评": 6139,
      "##因": 6140,
      "##素": 6141,
      "##Α": 6142,
      "##Τ": 6143,
      "##ὕ": 6144,
      "##均": 6145,
      "##需": 6146,
      "##}": 6147,
      "##直": 6148,
      "##링": 6149,
      "##": 6150,
      "##话": 6151,
      "##ქ": 6152,
      "##ഷ": 6153,
      "##潛": 6154,
      "##Ι": 6155,
      "##Φ": 6156,
      "##Κ": 6157,
      "##һ": 6158,
      "##ौ": 6159,
      "##،": 6160,
      "##福": 6161,
      "##ߋ": 6162,
      "##Õ": 6163,
      "##": 6164,
      "##幸": 6165,
      "##坐": 6166,
      "##臥": 6167,
      "##競": 6168,
      "##椅": 6169,
      "##腦": 6170,
      "##管": 6171,
      "##賽": 6172,
      "##皮": 6173,
      "##躺": 6174,
      "##ഴ": 6175,
      "##八": 6176,
      "##빵": 6177,
      "##歲": 6178,
      "##辑": 6179,
      "##抜": 6180,
      "##ખ": 6181,
      "##切": 6182,
      "##祥": 6183,
      "##付": 6184,
      "##ǽ": 6185,
      "##背": 6186,
      "##태": 6187,
      "##梅": 6188,
      "##麗": 6189,
      "##媚": 6190,
      "##증": 6191,
      "##呼": 6192,
      "##길": 6193,
      "##洁": 6194,
      "##느": 6195,
      "##紀": 6196,
      "##দ": 6197,
      "##让": 6198,
      "##脑": 6199,
      "##连": 6200,
      "##稳": 6201,
      "##走": 6202,
      "##势": 6203,
      "##ず": 6204,
      "##虽": 6205,
      "##倍": 6206,
      "##圳": 6207,
      "##海": 6208,
      "##络": 6209,
      "##ষ": 6210,
      "##您": 6211,
      "##活": 6212,
      "##顽": 6213,
      "##男": 6214,
      "##孩": 6215,
      "##랍": 6216,
      "##禮": 6217,
      "##趣": 6218,
      "##班": 6219,
      "##Ō": 6220,
      "##宮": 6221,
      "##玄": 6222,
      "##武": 6223,
      "##屬": 6224,
      "##냥": 6225,
      "##將": 6226,
      "##線": 6227,
      "##립": 6228,
      "##筋": 6229,
      "##草": 6230,
      "##妙": 6231,
      "##ড": 6232,
      "##辟": 6233,
      "##寒": 6234,
      "##风": 6235,
      "##ഞ": 6236,
      "##ജ": 6237,
      "##ሮ": 6238,
      "##ጅ": 6239,
      "##ክ": 6240,
      "##ቶ": 6241,
      "##ૃ": 6242,
      "##융": 6243,
      "##ў": 6244,
      "##책": 6245,
      "##猪": 6246,
      "##집": 6247,
      "##透": 6248,
      "##问": 6249,
      "##简": 6250,
      "##单": 6251,
      "##ぞ": 6252,
      "##ὴ": 6253,
      "##Ÿ": 6254,
      "##葉": 6255,
      "##頼": 6256,
      "##香": 6257,
      "##聽": 6258,
      "##飞": 6259,
      "##红": 6260,
      "##厂": 6261,
      "##六": 6262,
      "##템": 6263,
      "##동": 6264,
      "##廣": 6265,
      "##宇": 6266,
      "##志": 6267,
      "##👌": 6268,
      "##核": 6269,
      "##院": 6270,
      "##召": 6271,
      "##术": 6272,
      "##咨": 6273,
      "##": 6274,
      "##針": 6275,
      "##此": 6276,
      "##认": 6277,
      "##ὲ": 6278,
      "##ŷ": 6279,
      "##名": 6280,
      "##希": 6281,
      "##擁": 6282,
      "##批": 6283,
      "##黃": 6284,
      "##幻": 6285,
      "##통": 6286,
      "##籍": 6287,
      "##違": 6288,
      "##南": 6289,
      "##洲": 6290,
      "##̱": 6291,
      "##ꬶ": 6292,
      "##ḷ": 6293,
      "##ڌ": 6294,
      "##鳴": 6295,
      "##乱": 6296,
      "##아": 6297,
      "##∂": 6298,
      "##있": 6299,
      "##ϋ": 6300,
      "##达": 6301,
      "##월": 6302,
      "##일": 6303,
      "##ွ": 6304,
      "##鏡": 6305,
      "##≈": 6306,
      "##旦": 6307,
      "##ŋ": 6308,
      "##丟": 6309,
      "##棄": 6310,
      "##至": 6311,
      "##ీ": 6312,
      "##క": 6313,
      "##ઠ": 6314,
      "##축": 6315,
      "##页": 6316,
      "##ĕ": 6317,
      "##复": 6318,
      "##북": 6319,
      "##ų": 6320,
      "##═": 6321,
      "##字": 6322,
      "##链": 6323,
      "##탁": 6324,
      "##ओ": 6325,
      "##ȏ": 6326,
      "##玲": 6327,
      "##萬": 6328,
      "##머": 6329,
      "##": 6330,
      "##Π": 6331,
      "##Ρ": 6332,
      "##Η": 6333,
      "##投": 6334,
      "##并": 6335,
      "##规": 6336,
      "##ढ": 6337,
      "##록": 6338,
      "##ৃ": 6339,
      "##았": 6340,
      "##察": 6341,
      "##條": 6342,
      "##例": 6343,
      "##૦": 6344,
      "##랙": 6345,
      "##핑": 6346,
      "##ต": 6347,
      "##曜": 6348,
      "##観": 6349,
      "##芸": 6350,
      "##签": 6351,
      "##记": 6352,
      "##录": 6353,
      "##贴": 6354,
      "##枕": 6355,
      "##鹊": 6356,
      "##鸭": 6357,
      "##": 6358,
      "##户": 6359,
      "##십": 6360,
      "##쁜": 6361,
      "##ൽ": 6362,
      "##傑": 6363,
      "##ゾ": 6364,
      "##屋": 6365,
      "##ో": 6366,
      "##ঠ": 6367,
      "##琉": 6368,
      "##保": 6369,
      "##濕": 6370,
      "##深": 6371,
      "##滲": 6372,
      "##精": 6373,
      "##華": 6374,
      "##歴": 6375,
      "##持": 6376,
      "##つ": 6377,
      "##Ԁ": 6378,
      "##ም": 6379,
      "##પ": 6380,
      "##▬": 6381,
      "##শ": 6382,
      "##ట": 6383,
      "##స": 6384,
      "##ઘ": 6385,
      "##☁": 6386,
      "##崎": 6387,
      "##已": 6388,
      "##确": 6389,
      "##次": 6390,
      "##勇": 6391,
      "##敢": 6392,
      "##速": 6393,
      "##‹": 6394,
      "##威": 6395,
      "##夷": 6396,
      "##渡": 6397,
      "##囉": 6398,
      "##짜": 6399,
      "##兴": 6400,
      "##见": 6401,
      "##💯": 6402,
      "##생": 6403,
      "##중": 6404,
      "##ฉ": 6405,
      "##̇": 6406,
      "##栄": 6407,
      "##荐": 6408,
      "##功": 6409,
      "##👉": 6410,
      "##💛": 6411,
      "##💚": 6412,
      "##💜": 6413,
      "##👈": 6414,
      "##劃": 6415,
      "##餓": 6416,
      "##仅": 6417,
      "##给": 6418,
      "##谈": 6419,
      "##恋": 6420,
      "##ņ": 6421,
      "##藏": 6422,
      "##役": 6423,
      "##톤": 6424,
      "##„": 6425,
      "##സ": 6426,
      "##ژ": 6427,
      "##ਰ": 6428,
      "##ਦ": 6429,
      "##ਾ": 6430,
      "##ਸ": 6431,
      "##엇": 6432,
      "##ẻ": 6433,
      "##카": 6434,
      "##쟁": 6435,
      "##莫": 6436,
      "##ূ": 6437,
      "##纯": 6438,
      "##列": 6439,
      "##테": 6440,
      "##점": 6441,
      "##酉": 6442,
      "##購": 6443,
      "##優": 6444,
      "##●": 6445,
      "##供": 6446,
      "##県": 6447,
      "##물": 6448,
      "##못": 6449,
      "##黄": 6450,
      "##턴": 6451,
      "##办": 6452,
      "##室": 6453,
      "##Œ": 6454,
      "##朱": 6455,
      "##雀": 6456,
      "##भ": 6457,
      "##佔": 6458,
      "##闻": 6459,
      "##异": 6460,
      "##汁": 6461,
      "##区": 6462,
      "##줘": 6463,
      "##统": 6464,
      "##些": 6465,
      "##差": 6466,
      "##够": 6467,
      "##常": 6468,
      "##런": 6469,
      "##게": 6470,
      "##坡": 6471,
      "##樟": 6472,
      "##宜": 6473,
      "##ဝ": 6474,
      "##橙": 6475,
      "##乡": 6476,
      "##瑤": 6477,
      "##池": 6478,
      "##赫": 6479,
      "##¿": 6480,
      "##반": 6481,
      "##확": 6482,
      "##祈": 6483,
      "##ʻ": 6484,
      "##ভ": 6485,
      "##͛": 6486,
      "##ঘ": 6487,
      "##ウ": 6488,
      "##囲": 6489,
      "##ὺ": 6490,
      "##概": 6491,
      "##ႀ": 6492,
      "##ီ": 6493,
      "##좌": 6494,
      "##틴": 6495,
      "##슨": 6496,
      "##诉": 6497,
      "##准": 6498,
      "##ฎ": 6499,
      "##費": 6500,
      "##試": 6501,
      "##架": 6502,
      "##觉": 6503,
      "##嗫": 6504,
      "##嚅": 6505,
      "##甸": 6506,
      "##售": 6507,
      "##Θ": 6508,
      "##巴": 6509,
      "##掃": 6510,
      "##敵": 6511,
      "##慣": 6512,
      "##감": 6513,
      "##ছ": 6514,
      "##观": 6515,
      "##証": 6516,
      "##訳": 6517,
      "##寰": 6518,
      "##≤": 6519,
      "##₹": 6520,
      "##案": 6521,
      "##馆": 6522,
      "##檔": 6523,
      "##屆": 6524,
      "##覽": 6525,
      "##금": 6526,
      "##렴": 6527,
      "##漉": 6528,
      "##ி": 6529,
      "##ந": 6530,
      "##ே": 6531,
      "##ர": 6532,
      "##ஊ": 6533,
      "##疗": 6534,
      "##려": 6535,
      "##粤": 6536,
      "##歷": 6537,
      "##角": 6538,
      "##判": 6539,
      "##彻": 6540,
      "##抛": 6541,
      "##ச": 6542,
      "##士": 6543,
      "##尼": 6544,
      "##‐": 6545,
      "##職": 6546,
      "##込": 6547,
      "##ഹ": 6548,
      "##✨": 6549,
      "##🎧": 6550,
      "##🎨": 6551,
      "##ங": 6552,
      "##두": 6553,
      "##웠": 6554,
      "##며": 6555,
      "##检": 6556,
      "##티": 6557,
      "##們": 6558,
      "##脫": 6559,
      "##染": 6560,
      "##声": 6561,
      "##它": 6562,
      "##亞": 6563,
      "##貨": 6564,
      "##†": 6565,
      "##ʽ": 6566,
      "##双": 6567,
      "##湾": 6568,
      "##韩": 6569,
      "##硅": 6570,
      "##钢": 6571,
      "##施": 6572,
      "##倾": 6573,
      "##销": 6574,
      "##令": 6575,
      "##🍺": 6576,
      "##\u0014": 6577,
      "##采": 6578,
      "##ゼ": 6579,
      "##신": 6580,
      "##ህ": 6581,
      "##ል": 6582,
      "##∆": 6583,
      "##酒": 6584,
      "##ふ": 6585,
      "##遍": 6586,
      "##램": 6587,
      "##板": 6588,
      "##很": 6589,
      "##铃": 6590,
      "##挥": 6591,
      "##͞": 6592,
      "##틀": 6593,
      "##넷": 6594,
      "##ൊ": 6595,
      "##根": 6596,
      "##據": 6597,
      "##狀": 6598,
      "##담": 6599,
      "##―": 6600,
      "##ろ": 6601,
      "##▸": 6602,
      "##単": 6603,
      "##鬆": 6604,
      "##彈": 6605,
      "##ያ": 6606,
      "##ዊ": 6607,
      "##攝": 6608,
      "##撮": 6609,
      "##ᴡ": 6610,
      "##ہ": 6611,
      "##銘": 6612,
      "##杰": 6613,
      "##희": 6614,
      "##Ξ": 6615,
      "##睡": 6616,
      "##Ā": 6617,
      "##닌": 6618,
      "##까": 6619,
      "##盤": 6620,
      "##検": 6621,
      "##討": 6622,
      "##든": 6623,
      "##❣": 6624,
      "##壓": 6625,
      "##縮": 6626,
      "##熟": 6627,
      "##징": 6628,
      "##Ў": 6629,
      "##佬": 6630,
      "##救": 6631,
      "##俄": 6632,
      "##裂": 6633,
      "##ለ": 6634,
      "##構": 6635,
      "##様": 6636,
      "##薦": 6637,
      "##께": 6638,
      "##🇪": 6639,
      "##ల": 6640,
      "##움": 6641,
      "##何": 6642,
      "##퍼": 6643,
      "##속": 6644,
      "##右": 6645,
      "##擇": 6646,
      "##太": 6647,
      "##냐": 6648,
      "##邊": 6649,
      "##ґ": 6650,
      "##償": 6651,
      "##롤": 6652,
      "##강": 6653,
      "##划": 6654,
      "##羽": 6655,
      "##宝": 6656,
      "##滿": 6657,
      "##済": 6658,
      "##省": 6659,
      "##築": 6660,
      "##ኣ": 6661,
      "##አ": 6662,
      "##ከ": 6663,
      "##ቢ": 6664,
      "##ῶ": 6665,
      "##逗": 6666,
      "##ノ": 6667,
      "##憶": 6668,
      "##収": 6669,
      "##録": 6670,
      "##桥": 6671,
      "##征": 6672,
      "##桌": 6673,
      "##卖": 6674,
      "##ぜ": 6675,
      "##障": 6676,
      "##尚": 6677,
      "##级": 6678,
      "##츠": 6679,
      "##早": 6680,
      "##깍": 6681,
      "##": 6682,
      "##꼼": 6683,
      "##抎": 6684,
      "##來": 6685,
      "##ひ": 6686,
      "##웨": 6687,
      "##🇭": 6688,
      "##૩": 6689,
      "##펴": 6690,
      "##볼": 6691,
      "##側": 6692,
      "##鋸": 6693,
      "##齒": 6694,
      "##突": 6695,
      "##Đ": 6696,
      "##莹": 6697,
      "##Ū": 6698,
      "##방": 6699,
      "##变": 6700,
      "##证": 6701,
      "##빠": 6702,
      "##퓨": 6703,
      "##君": 6704,
      "##湯": 6705,
      "##効": 6706,
      "##寺": 6707,
      "##Ř": 6708,
      "##ጨ": 6709,
      "##ረ": 6710,
      "##ስ": 6711,
      "##": 6712,
      "##礼": 6713,
      "##盒": 6714,
      "##插": 6715,
      "##導": 6716,
      "##越": 6717,
      "##規": 6718,
      "##抗": 6719,
      "##薬": 6720,
      "##ె": 6721,
      "##🧚": 6722,
      "##ғ": 6723,
      "##措": 6724,
      "##標": 6725,
      "##準": 6726,
      "##過": 6727,
      "##錄": 6728,
      "##關": 6729,
      "##华": 6730,
      "##른": 6731,
      "##↑": 6732,
      "##略": 6733,
      "##礎": 6734,
      "##❞": 6735,
      "##类": 6736,
      "##择": 6737,
      "##割": 6738,
      "##ግ": 6739,
      "##በ": 6740,
      "##宫": 6741,
      "##ὖ": 6742,
      "##駐": 6743,
      "##四": 6744,
      "##棒": 6745,
      "##构": 6746,
      "##玩": 6747,
      "##耍": 6748,
      "##颂": 6749,
      "##림": 6750,
      "##负": 6751,
      "##각": 6752,
      "##知": 6753,
      "##닙": 6754,
      "##青": 6755,
      "##婆": 6756,
      "##ψ": 6757,
      "##圈": 6758,
      "##麥": 6759,
      "##百": 6760,
      "##勘": 6761,
      "##૨": 6762,
      "##休": 6763,
      "##淏": 6764,
      "##럴": 6765,
      "##ẹ": 6766,
      "##̄": 6767,
      "##आ": 6768,
      "##况": 6769,
      "##韬": 6770,
      "##尔": 6771,
      "##麼": 6772,
      "##觀": 6773,
      "##川": 6774,
      "##ோ": 6775,
      "##げ": 6776,
      "##補": 6777,
      "##宿": 6778,
      "##ભ": 6779,
      "##̯": 6780,
      "##Ɵ": 6781,
      "##吨": 6782,
      "##ܣ": 6783,
      "##ܛ": 6784,
      "##ܘ": 6785,
      "##ܝ": 6786,
      "##苹": 6787,
      "##ۆ": 6788,
      "##啓": 6789,
      "##晴": 6790,
      "##ப": 6791,
      "##ூ": 6792,
      "##曾": 6793,
      "##樸": 6794,
      "##ォ": 6795,
      "##Ή": 6796,
      "##短": 6797,
      "##줍": 6798,
      "##騷": 6799,
      "##ኸ": 6800,
      "##ổ": 6801,
      "##₤": 6802,
      "##플": 6803,
      "##亿": 6804,
      "##膳": 6805,
      "##벌": 6806,
      "##介": 6807,
      "##绍": 6808,
      "##《": 6809,
      "##배": 6810,
      "##송": 6811,
      "##该": 6812,
      "##Ґ": 6813,
      "##买": 6814,
      "##척": 6815,
      "##왔": 6816,
      "##🇷": 6817,
      "##ක": 6818,
      "##ණ": 6819,
      "##ภ": 6820,
      "##脐": 6821,
      "##💃": 6822,
      "##능": 6823,
      "##嘉": 6824,
      "##康": 6825,
      "##♥": 6826,
      "##膏": 6827,
      "##摩": 6828,
      "##囟": 6829,
      "##Ď": 6830,
      "##灣": 6831,
      "##迷": 6832,
      "##雄": 6833,
      "##浪": 6834,
      "##固": 6835,
      "##螺": 6836,
      "##旋": 6837,
      "##ণ": 6838,
      "##児": 6839,
      "##ң": 6840,
      "##💟": 6841,
      "##🕺": 6842,
      "##ゴ": 6843,
      "##熱": 6844,
      "##ỳ": 6845,
      "##警": 6846,
      "##戒": 6847,
      "##。": 6848,
      "##": 6849,
      "##\u0006": 6850,
      "##🗺": 6851,
      "##翼": 6852,
      "##鳥": 6853,
      "##旅": 6854,
      "##貼": 6855,
      "##圖": 6856,
      "##준": 6857,
      "##당": 6858,
      "##": 6859,
      "##险": 6860,
      "##ฝ": 6861,
      "##炎": 6862,
      "##틱": 6863,
      "##▶": 6864,
      "##腾": 6865,
      "##讯": 6866,
      "##ї": 6867,
      "##є": 6868,
      "##览": 6869,
      "##ḵ": 6870,
      "##ǣ": 6871,
      "##政": 6872,
      "##飲": 6873,
      "##ポ": 6874,
      "##颖": 6875,
      "##冯": 6876,
      "##峰": 6877,
      "##함": 6878,
      "##ළ": 6879,
      "##ා": 6880,
      "##ත": 6881,
      "##ਈ": 6882,
      "##緣": 6883,
      "##輾": 6884,
      "##轉": 6885,
      "##穫": 6886,
      "##寶": 6887,
      "##ី": 6888,
      "##ណ": 6889,
      "##អ": 6890,
      "##ខ": 6891,
      "##捞": 6892,
      "##ẵ": 6893,
      "##ṓ": 6894,
      "##Ğ": 6895,
      "##즌": 6896,
      "##į": 6897,
      "##ǫ": 6898,
      "##邪": 6899,
      "##률": 6900,
      "##圻": 6901,
      "##ះ": 6902,
      "##៏": 6903,
      "##ឆ": 6904,
      "##ៀ": 6905,
      "##ឳ": 6906,
      "##효": 6907,
      "##ሪ": 6908,
      "##樂": 6909,
      "##ീ": 6910,
      "##🇧": 6911,
      "##": 6912,
      "##訪": 6913,
      "##": 6914,
      "##索": 6915,
      "##挖": 6916,
      "##掘": 6917,
      "##隐": 6918,
      "##辣": 6919,
      "##枯": 6920,
      "##竭": 6921,
      "##殊": 6922,
      "##属": 6923,
      "##缺": 6924,
      "##辰": 6925,
      "##刷": 6926,
      "##ս": 6927,
      "##魔": 6928,
      "##德": 6929,
      "##健": 6930,
      "##鞋": 6931,
      "##旧": 6932,
      "##설": 6933,
      "##府": 6934,
      "##赞": 6935,
      "##ヴ": 6936,
      "##樹": 6937,
      "##棲": 6938,
      "##爬": 6939,
      "##蟲": 6940,
      "##ּ": 6941,
      "##ִ": 6942,
      "##份": 6943,
      "##祝": 6944,
      "##ց": 6945,
      "##ફ": 6946,
      "##孝": 6947,
      "##落": 6948,
      "##跟": 6949,
      "##🍂": 6950,
      "##̓": 6951,
      "##靜": 6952,
      "##怡": 6953,
      "##茶": 6954,
      "##Ъ": 6955,
      "##he": 6956,
      "##in": 6957,
      "##er": 6958,
      "the": 6959,
      "##on": 6960,
      "##es": 6961,
      "##at": 6962,
      "##nd": 6963,
      "##or": 6964,
      "##ou": 6965,
      "##en": 6966,
      "##ing": 6967,
      "##ed": 6968,
      "##it": 6969,
      "##an": 6970,
      "to": 6971,
      "##ar": 6972,
      "##al": 6973,
      "and": 6974,
      "##re": 6975,
      "of": 6976,
      "in": 6977,
      "##is": 6978,
      "##ic": 6979,
      "##om": 6980,
      "##ion": 6981,
      "##as": 6982,
      "th": 6983,
      "##le": 6984,
      "##ent": 6985,
      "##il": 6986,
      "##el": 6987,
      "you": 6988,
      "##et": 6989,
      "##st": 6990,
      "##ro": 6991,
      "##ct": 6992,
      "is": 6993,
      "##ur": 6994,
      "for": 6995,
      "##ve": 6996,
      "on": 6997,
      "##ut": 6998,
      "##ot": 6999,
      "re": 7000,
      "be": 7001,
      "##ly": 7002,
      "##ow": 7003,
      "##ay": 7004,
      "##id": 7005,
      "##ol": 7006,
      "##ce": 7007,
      "##ig": 7008,
      "##ch": 7009,
      "##ith": 7010,
      "##ad": 7011,
      "##ation": 7012,
      "##am": 7013,
      "st": 7014,
      "that": 7015,
      "with": 7016,
      "##ir": 7017,
      "##ers": 7018,
      "##se": 7019,
      "The": 7020,
      "it": 7021,
      "##im": 7022,
      "al": 7023,
      "##ver": 7024,
      "##ess": 7025,
      "an": 7026,
      "pro": 7027,
      "as": 7028,
      "##ter": 7029,
      "##ill": 7030,
      "##ul": 7031,
      "are": 7032,
      "wh": 7033,
      "##ra": 7034,
      "or": 7035,
      "ha": 7036,
      "com": 7037,
      "##est": 7038,
      "con": 7039,
      "##ge": 7040,
      "##oo": 7041,
      "##pp": 7042,
      "##her": 7043,
      "your": 7044,
      "##ment": 7045,
      "##ab": 7046,
      "##ak": 7047,
      "fr": 7048,
      "at": 7049,
      "##ate": 7050,
      "##ac": 7051,
      "ex": 7052,
      "ne": 7053,
      "##us": 7054,
      "##iv": 7055,
      "##if": 7056,
      "we": 7057,
      "se": 7058,
      "##igh": 7059,
      "su": 7060,
      "de": 7061,
      "##ld": 7062,
      "##ort": 7063,
      "##pe": 7064,
      "##ist": 7065,
      "##ity": 7066,
      "##ant": 7067,
      "have": 7068,
      "##ore": 7069,
      "##ies": 7070,
      "can": 7071,
      "was": 7072,
      "##ive": 7073,
      "##un": 7074,
      "##em": 7075,
      "##ear": 7076,
      "this": 7077,
      "##op": 7078,
      "##ain": 7079,
      "from": 7080,
      "##ust": 7081,
      "##oc": 7082,
      "sh": 7083,
      "##th": 7084,
      "ch": 7085,
      "##um": 7086,
      "##os": 7087,
      "will": 7088,
      "by": 7089,
      "not": 7090,
      "##art": 7091,
      "##ome": 7092,
      "##ight": 7093,
      "##all": 7094,
      "##and": 7095,
      "##ie": 7096,
      "en": 7097,
      "##ard": 7098,
      "##ial": 7099,
      "##ud": 7100,
      "##our": 7101,
      "##out": 7102,
      "pl": 7103,
      "ab": 7104,
      "wor": 7105,
      "##ost": 7106,
      "all": 7107,
      "##ould": 7108,
      "##ell": 7109,
      "##od": 7110,
      "##ect": 7111,
      "Th": 7112,
      "pr": 7113,
      "##per": 7114,
      "##gh": 7115,
      "##ip": 7116,
      "us": 7117,
      "##rou": 7118,
      "do": 7119,
      "##ine": 7120,
      "##ast": 7121,
      "comp": 7122,
      "##ure": 7123,
      "##age": 7124,
      "##ag": 7125,
      "he": 7126,
      "In": 7127,
      "##qu": 7128,
      "ad": 7129,
      "tr": 7130,
      "20": 7131,
      "##ib": 7132,
      "##ally": 7133,
      "##ice": 7134,
      "has": 7135,
      "</": 7136,
      "whe": 7137,
      "##ions": 7138,
      "##able": 7139,
      "up": 7140,
      "me": 7141,
      "##ake": 7142,
      "le": 7143,
      "##ks": 7144,
      "##ik": 7145,
      "##ide": 7146,
      "but": 7147,
      "out": 7148,
      "##ff": 7149,
      "##ther": 7150,
      "so": 7151,
      "##ind": 7152,
      "##ich": 7153,
      "##nt": 7154,
      "our": 7155,
      "##pt": 7156,
      "res": 7157,
      "cl": 7158,
      "##cc": 7159,
      "##one": 7160,
      "their": 7161,
      "##iz": 7162,
      "##ated": 7163,
      "##ere": 7164,
      "more": 7165,
      "##og": 7166,
      "##ack": 7167,
      "tim": 7168,
      "im": 7169,
      "cont": 7170,
      "they": 7171,
      "##ood": 7172,
      "##ite": 7173,
      "##ong": 7174,
      "my": 7175,
      "##act": 7176,
      "one": 7177,
      "##ail": 7178,
      "##orm": 7179,
      "##ous": 7180,
      "##ook": 7181,
      "##pl": 7182,
      "##so": 7183,
      "##ans": 7184,
      "It": 7185,
      "##ance": 7186,
      "##fer": 7187,
      "##du": 7188,
      "inc": 7189,
      "##ence": 7190,
      "te": 7191,
      "man": 7192,
      "int": 7193,
      "about": 7194,
      "which": 7195,
      "app": 7196,
      "##ach": 7197,
      "St": 7198,
      "We": 7199,
      "##ign": 7200,
      "qu": 7201,
      "##ry": 7202,
      "##ace": 7203,
      "##ire": 7204,
      "##are": 7205,
      "##ase": 7206,
      "fe": 7207,
      "##reat": 7208,
      "##erv": 7209,
      "##ely": 7210,
      "per": 7211,
      "time": 7212,
      "##ame": 7213,
      "##ap": 7214,
      "##ations": 7215,
      "##ia": 7216,
      "##ike": 7217,
      "go": 7218,
      "This": 7219,
      "also": 7220,
      "##ree": 7221,
      "who": 7222,
      "any": 7223,
      "work": 7224,
      "##ber": 7225,
      "year": 7226,
      "##ue": 7227,
      "##ult": 7228,
      "other": 7229,
      "##ents": 7230,
      "sp": 7231,
      "##form": 7232,
      "##ass": 7233,
      "un": 7234,
      "##ile": 7235,
      "ev": 7236,
      "##ount": 7237,
      "##vel": 7238,
      "get": 7239,
      "##ays": 7240,
      "##ep": 7241,
      "##ary": 7242,
      "##ical": 7243,
      "dis": 7244,
      "##av": 7245,
      "part": 7246,
      "some": 7247,
      "ar": 7248,
      "new": 7249,
      "##ick": 7250,
      "##ction": 7251,
      "##ub": 7252,
      "##ark": 7253,
      "##ings": 7254,
      "201": 7255,
      "##au": 7256,
      "kn": 7257,
      "them": 7258,
      "##ition": 7259,
      "##own": 7260,
      "need": 7261,
      "Ch": 7262,
      "spe": 7263,
      "his": 7264,
      "when": 7265,
      "##ery": 7266,
      "##ors": 7267,
      "like": 7268,
      "sc": 7269,
      "##ru": 7270,
      "if": 7271,
      "##ord": 7272,
      "rec": 7273,
      "##ond": 7274,
      "##00": 7275,
      "there": 7276,
      "pe": 7277,
      "##ens": 7278,
      "been": 7279,
      "imp": 7280,
      "##ild": 7281,
      "##ov": 7282,
      "##te": 7283,
      "over": 7284,
      "ag": 7285,
      "##ose": 7286,
      "what": 7287,
      "inter": 7288,
      "hel": 7289,
      "##very": 7290,
      "acc": 7291,
      "des": 7292,
      "##ck": 7293,
      "off": 7294,
      "pre": 7295,
      "would": 7296,
      "than": 7297,
      "##wn": 7298,
      "##ove": 7299,
      "##nder": 7300,
      "sa": 7301,
      "##ob": 7302,
      "##ough": 7303,
      "##ish": 7304,
      "am": 7305,
      "just": 7306,
      "##int": 7307,
      "prov": 7308,
      "how": 7309,
      "##gr": 7310,
      "##ater": 7311,
      "You": 7312,
      "##oy": 7313,
      "its": 7314,
      "were": 7315,
      "comm": 7316,
      "had": 7317,
      "##ound": 7318,
      "##rough": 7319,
      "into": 7320,
      "serv": 7321,
      "##ade": 7322,
      "fir": 7323,
      "bec": 7324,
      "##pr": 7325,
      "col": 7326,
      "##ang": 7327,
      "##ople": 7328,
      "##ink": 7329,
      "help": 7330,
      "##lud": 7331,
      "Al": 7332,
      "##ory": 7333,
      "make": 7334,
      "bu": 7335,
      "add": 7336,
      "tra": 7337,
      "If": 7338,
      "use": 7339,
      "##ning": 7340,
      "her": 7341,
      "co": 7342,
      "fl": 7343,
      "may": 7344,
      "##anc": 7345,
      "Wh": 7346,
      "##fter": 7347,
      "ind": 7348,
      "bl": 7349,
      "em": 7350,
      "people": 7351,
      "##itt": 7352,
      "##ual": 7353,
      "##ful": 7354,
      "##lic": 7355,
      "##ments": 7356,
      "##enc": 7357,
      "no": 7358,
      "most": 7359,
      "know": 7360,
      "tw": 7361,
      "produ": 7362,
      "includ": 7363,
      "##ices": 7364,
      "well": 7365,
      "only": 7366,
      "through": 7367,
      "##ft": 7368,
      "##ious": 7369,
      "19": 7370,
      "##ons": 7371,
      "##hed": 7372,
      "act": 7373,
      "##ates": 7374,
      "##ss": 7375,
      "first": 7376,
      "cons": 7377,
      "every": 7378,
      "##ied": 7379,
      "see": 7380,
      "He": 7381,
      "##round": 7382,
      "bet": 7383,
      "ph": 7384,
      "under": 7385,
      ").": 7386,
      "##ian": 7387,
      "##old": 7388,
      "##ject": 7389,
      "##ating": 7390,
      "##lect": 7391,
      "these": 7392,
      "Re": 7393,
      "supp": 7394,
      "##ne": 7395,
      "##oll": 7396,
      "want": 7397,
      "##ities": 7398,
      "##les": 7399,
      "look": 7400,
      "str": 7401,
      "exper": 7402,
      "##iness": 7403,
      "##ise": 7404,
      "very": 7405,
      "##iew": 7406,
      "##ause": 7407,
      "reg": 7408,
      "##ific": 7409,
      "back": 7410,
      "##amp": 7411,
      "##hen": 7412,
      "dif": 7413,
      "##ew": 7414,
      "##ock": 7415,
      "sy": 7416,
      "po": 7417,
      "bus": 7418,
      "##mer": 7419,
      "##..": 7420,
      "rel": 7421,
      "##cess": 7422,
      "##ph": 7423,
      "ve": 7424,
      "##xt": 7425,
      "stud": 7426,
      "many": 7427,
      "##ict": 7428,
      "inv": 7429,
      "##ily": 7430,
      "##ert": 7431,
      "she": 7432,
      "##ible": 7433,
      "##oth": 7434,
      "two": 7435,
      "ke": 7436,
      "good": 7437,
      "##cial": 7438,
      "way": 7439,
      "##ract": 7440,
      "##row": 7441,
      "great": 7442,
      "##any": 7443,
      "sm": 7444,
      "##ange": 7445,
      "##we": 7446,
      "pers": 7447,
      "##ures": 7448,
      "##bs": 7449,
      "##ife": 7450,
      "dr": 7451,
      "##erm": 7452,
      "dec": 7453,
      "##ower": 7454,
      "##urn": 7455,
      "##uch": 7456,
      "##fore": 7457,
      "##iss": 7458,
      "own": 7459,
      "cr": 7460,
      "##day": 7461,
      "pos": 7462,
      "years": 7463,
      "##ting": 7464,
      "where": 7465,
      "rem": 7466,
      "##ility": 7467,
      "##als": 7468,
      "best": 7469,
      "inform": 7470,
      "could": 7471,
      "should": 7472,
      "even": 7473,
      "##ience": 7474,
      "after": 7475,
      "##eth": 7476,
      "inst": 7477,
      "ro": 7478,
      "##port": 7479,
      "##aking": 7480,
      "##get": 7481,
      "##ool": 7482,
      "ass": 7483,
      "loc": 7484,
      "find": 7485,
      "then": 7486,
      "fin": 7487,
      "ac": 7488,
      "car": 7489,
      "day": 7490,
      "##pect": 7491,
      "high": 7492,
      "An": 7493,
      "##ased": 7494,
      "##ational": 7495,
      "now": 7496,
      "down": 7497,
      "set": 7498,
      "##elf": 7499,
      "play": 7500,
      "##stem": 7501,
      "For": 7502,
      "##ont": 7503,
      "start": 7504,
      "##aw": 7505,
      "##nds": 7506,
      "##air": 7507,
      "##ular": 7508,
      "such": 7509,
      "design": 7510,
      "eff": 7511,
      "ins": 7512,
      "##ward": 7513,
      "requ": 7514,
      "##velop": 7515,
      "##olog": 7516,
      "##uring": 7517,
      "business": 7518,
      "Un": 7519,
      "##ath": 7520,
      "Com": 7521,
      "And": 7522,
      "##ts": 7523,
      "id": 7524,
      "home": 7525,
      "As": 7526,
      "right": 7527,
      "much": 7528,
      "gu": 7529,
      "sec": 7530,
      "##hes": 7531,
      "br": 7532,
      "av": 7533,
      "10": 7534,
      "min": 7535,
      "##ics": 7536,
      "Pro": 7537,
      "##ient": 7538,
      "differ": 7539,
      "Se": 7540,
      "##its": 7541,
      "att": 7542,
      "##gan": 7543,
      "take": 7544,
      "Fr": 7545,
      "long": 7546,
      "##line": 7547,
      "##ys": 7548,
      "don": 7549,
      "##ble": 7550,
      "##ty": 7551,
      "information": 7552,
      "##tern": 7553,
      "mon": 7554,
      "read": 7555,
      "too": 7556,
      "person": 7557,
      "che": 7558,
      "##arket": 7559,
      "sim": 7560,
      "said": 7561,
      "because": 7562,
      "##hip": 7563,
      "wr": 7564,
      "made": 7565,
      "disc": 7566,
      "fam": 7567,
      "vis": 7568,
      "There": 7569,
      "##ull": 7570,
      "##ener": 7571,
      "De": 7572,
      "cre": 7573,
      "used": 7574,
      "provid": 7575,
      "bel": 7576,
      "product": 7577,
      "develop": 7578,
      "##ustom": 7579,
      "##ork": 7580,
      "##ix": 7581,
      "sur": 7582,
      "##alth": 7583,
      "##ivers": 7584,
      "call": 7585,
      "here": 7586,
      "progr": 7587,
      "system": 7588,
      "##ited": 7589,
      "mod": 7590,
      "gr": 7591,
      "##chn": 7592,
      "pres": 7593,
      "those": 7594,
      "##end": 7595,
      "did": 7596,
      "trans": 7597,
      "num": 7598,
      "##ative": 7599,
      "being": 7600,
      "##chool": 7601,
      "##urr": 7602,
      "does": 7603,
      "##ank": 7604,
      "##other": 7605,
      "##ality": 7606,
      "before": 7607,
      "##ash": 7608,
      "##ession": 7609,
      "show": 7610,
      "##ax": 7611,
      "##ek": 7612,
      "##led": 7613,
      "world": 7614,
      "##io": 7615,
      "think": 7616,
      "art": 7617,
      "##ually": 7618,
      "Pr": 7619,
      "##ner": 7620,
      "),": 7621,
      "life": 7622,
      "...": 7623,
      "##der": 7624,
      "det": 7625,
      "eas": 7626,
      "comple": 7627,
      "end": 7628,
      "##ize": 7629,
      "sk": 7630,
      "adv": 7631,
      "form": 7632,
      "sub": 7633,
      "each": 7634,
      "op": 7635,
      "##ene": 7636,
      "##ather": 7637,
      "##ouse": 7638,
      "But": 7639,
      "##ier": 7640,
      "free": 7641,
      "##ives": 7642,
      "support": 7643,
      "med": 7644,
      "##az": 7645,
      "Sh": 7646,
      "again": 7647,
      "##ues": 7648,
      "200": 7649,
      "Be": 7650,
      "##iving": 7651,
      "How": 7652,
      "aut": 7653,
      "##ven": 7654,
      "##ages": 7655,
      "##oad": 7656,
      "##ently": 7657,
      "custom": 7658,
      "##ata": 7659,
      "##alk": 7660,
      "##und": 7661,
      "prof": 7662,
      "##way": 7663,
      "Cl": 7664,
      "mem": 7665,
      "##iet": 7666,
      "market": 7667,
      "Ar": 7668,
      "##rol": 7669,
      "On": 7670,
      "##arm": 7671,
      "##cept": 7672,
      "##rib": 7673,
      "around": 7674,
      "##ines": 7675,
      "process": 7676,
      "##ng": 7677,
      "##irect": 7678,
      "while": 7679,
      "cle": 7680,
      "##olut": 7681,
      "##ever": 7682,
      "offer": 7683,
      "##ced": 7684,
      "##lease": 7685,
      "ret": 7686,
      "different": 7687,
      "post": 7688,
      "bo": 7689,
      "gl": 7690,
      "really": 7691,
      "cour": 7692,
      "ear": 7693,
      "##akes": 7694,
      "program": 7695,
      "last": 7696,
      "avail": 7697,
      "place": 7698,
      "They": 7699,
      "##ale": 7700,
      "##atch": 7701,
      "care": 7702,
      "pub": 7703,
      "##ason": 7704,
      "commun": 7705,
      "lead": 7706,
      "cent": 7707,
      "##ave": 7708,
      "##ior": 7709,
      "count": 7710,
      "##ince": 7711,
      "##land": 7712,
      "##ollow": 7713,
      "##ins": 7714,
      "New": 7715,
      "techn": 7716,
      "##iting": 7717,
      "pur": 7718,
      "import": 7719,
      "##up": 7720,
      "som": 7721,
      "So": 7722,
      "child": 7723,
      "##ress": 7724,
      "del": 7725,
      "##ple": 7726,
      "using": 7727,
      "##oun": 7728,
      "##ets": 7729,
      "list": 7730,
      "##ways": 7731,
      "Ad": 7732,
      "ll": 7733,
      "top": 7734,
      "lar": 7735,
      "sign": 7736,
      "##els": 7737,
      "##ween": 7738,
      "ser": 7739,
      "char": 7740,
      "him": 7741,
      "ext": 7742,
      "##view": 7743,
      "def": 7744,
      "fun": 7745,
      "team": 7746,
      "same": 7747,
      "though": 7748,
      "ent": 7749,
      "both": 7750,
      "opt": 7751,
      "service": 7752,
      "available": 7753,
      "##roup": 7754,
      "lot": 7755,
      "##ized": 7756,
      "##ric": 7757,
      "val": 7758,
      "between": 7759,
      "hand": 7760,
      "still": 7761,
      "ty": 7762,
      "build": 7763,
      "sl": 7764,
      "##iqu": 7765,
      "plan": 7766,
      "##read": 7767,
      "found": 7768,
      "lear": 7769,
      "going": 7770,
      "gener": 7771,
      "##ider": 7772,
      "var": 7773,
      "##gg": 7774,
      "What": 7775,
      "##ces": 7776,
      "love": 7777,
      "few": 7778,
      "point": 7779,
      "company": 7780,
      "##ential": 7781,
      "To": 7782,
      "run": 7783,
      "project": 7784,
      "ide": 7785,
      "appro": 7786,
      "##eng": 7787,
      "pol": 7788,
      "cor": 7789,
      "week": 7790,
      "##ining": 7791,
      "month": 7792,
      "##ness": 7793,
      "##ittle": 7794,
      "experience": 7795,
      "keep": 7796,
      "main": 7797,
      "When": 7798,
      "follow": 7799,
      "organ": 7800,
      "real": 7801,
      "##iel": 7802,
      "water": 7803,
      "small": 7804,
      "Pl": 7805,
      "allow": 7806,
      "poss": 7807,
      "##ten": 7808,
      "hear": 7809,
      "exc": 7810,
      "##ving": 7811,
      "pat": 7812,
      "pay": 7813,
      "number": 7814,
      "including": 7815,
      "feel": 7816,
      "Tr": 7817,
      "fil": 7818,
      "All": 7819,
      "happ": 7820,
      "health": 7821,
      "##iver": 7822,
      "data": 7823,
      "##pos": 7824,
      "##less": 7825,
      "##ology": 7826,
      "##ars": 7827,
      "##ants": 7828,
      "services": 7829,
      "Le": 7830,
      "open": 7831,
      "partic": 7832,
      "result": 7833,
      "ob": 7834,
      "Ex": 7835,
      "##ying": 7836,
      "##over": 7837,
      "frie": 7838,
      "interest": 7839,
      "cost": 7840,
      "school": 7841,
      "##ross": 7842,
      "##ved": 7843,
      "sure": 7844,
      "##bers": 7845,
      "##stand": 7846,
      "##ital": 7847,
      "##atur": 7848,
      "rest": 7849,
      "##ern": 7850,
      "must": 7851,
      "family": 7852,
      "12": 7853,
      "##ired": 7854,
      "provide": 7855,
      "curr": 7856,
      "##ature": 7857,
      "At": 7858,
      "things": 7859,
      "three": 7860,
      "class": 7861,
      "little": 7862,
      "##ah": 7863,
      "fact": 7864,
      "stand": 7865,
      "always": 7866,
      "##thing": 7867,
      "inf": 7868,
      "without": 7869,
      "##orth": 7870,
      "effect": 7871,
      "red": 7872,
      "With": 7873,
      "important": 7874,
      "iss": 7875,
      "##ren": 7876,
      "spec": 7877,
      "Our": 7878,
      "come": 7879,
      "direct": 7880,
      "##ients": 7881,
      "##ention": 7882,
      "during": 7883,
      "##ined": 7884,
      "par": 7885,
      "online": 7886,
      "##ruct": 7887,
      "##ically": 7888,
      "order": 7889,
      "perform": 7890,
      "based": 7891,
      "##ms": 7892,
      "level": 7893,
      "##ton": 7894,
      "pass": 7895,
      "able": 7896,
      "old": 7897,
      "better": 7898,
      "rece": 7899,
      "conc": 7900,
      "##erg": 7901,
      "Te": 7902,
      "##ling": 7903,
      "##ody": 7904,
      "Br": 7905,
      "##ething": 7906,
      "bra": 7907,
      "##ok": 7908,
      "##aut": 7909,
      "say": 7910,
      "conf": 7911,
      "resp": 7912,
      "dist": 7913,
      "proper": 7914,
      "##ished": 7915,
      "state": 7916,
      "book": 7917,
      "##ists": 7918,
      "Sc": 7919,
      "webs": 7920,
      "special": 7921,
      "quality": 7922,
      "area": 7923,
      "contin": 7924,
      "##uss": 7925,
      "Bl": 7926,
      "light": 7927,
      "##red": 7928,
      "##reen": 7929,
      "She": 7930,
      "power": 7931,
      "##ute": 7932,
      "Ind": 7933,
      "Mar": 7934,
      "proble": 7935,
      "##ee": 7936,
      "##par": 7937,
      "let": 7938,
      "##earch": 7939,
      "something": 7940,
      "Is": 7941,
      "##tain": 7942,
      "##ames": 7943,
      "full": 7944,
      "give": 7945,
      "put": 7946,
      "15": 7947,
      "##ug": 7948,
      "site": 7949,
      "next": 7950,
      "##ploy": 7951,
      "30": 7952,
      "cert": 7953,
      "##meric": 7954,
      "##ield": 7955,
      "quest": 7956,
      "eng": 7957,
      "##ccess": 7958,
      "access": 7959,
      "##oney": 7960,
      "might": 7961,
      "est": 7962,
      "group": 7963,
      "report": 7964,
      "##self": 7965,
      "##ware": 7966,
      "big": 7967,
      "##ately": 7968,
      "##ency": 7969,
      "within": 7970,
      "##con": 7971,
      "Americ": 7972,
      "incre": 7973,
      "mus": 7974,
      "soc": 7975,
      "##joy": 7976,
      "hard": 7977,
      "opp": 7978,
      "another": 7979,
      "##ime": 7980,
      "##orn": 7981,
      "##man": 7982,
      "hour": 7983,
      "ref": 7984,
      "invest": 7985,
      "##load": 7986,
      "##duc": 7987,
      "head": 7988,
      "That": 7989,
      "room": 7990,
      "grow": 7991,
      "18": 7992,
      "##nect": 7993,
      "expl": 7994,
      "term": 7995,
      "oper": 7996,
      "##ortun": 7997,
      "##oot": 7998,
      "##ves": 7999,
      "##omm": 8000,
      "##work": 8001,
      "##ium": 8002,
      "##raph": 8003,
      "##ards": 8004,
      "##ustr": 8005,
      "bro": 8006,
      "##ump": 8007,
      "view": 8008,
      "second": 8009,
      "phot": 8010,
      "##aj": 8011,
      "equ": 8012,
      "##ision": 8013,
      "Chr": 8014,
      "less": 8015,
      "since": 8016,
      "##att": 8017,
      "sit": 8018,
      "never": 8019,
      "Con": 8020,
      "##ense": 8021,
      "days": 8022,
      "applic": 8023,
      "addition": 8024,
      "test": 8025,
      "public": 8026,
      "making": 8027,
      "looking": 8028,
      "mov": 8029,
      "##ateg": 8030,
      "today": 8031,
      "My": 8032,
      "el": 8033,
      "consider": 8034,
      "##oh": 8035,
      "working": 8036,
      "##ivid": 8037,
      "bre": 8038,
      "##ooks": 8039,
      "got": 8040,
      "students": 8041,
      "prot": 8042,
      "meet": 8043,
      "##ipp": 8044,
      "activ": 8045,
      "local": 8046,
      "##fect": 8047,
      "pract": 8048,
      "##ident": 8049,
      "understand": 8050,
      "000": 8051,
      "fac": 8052,
      "tre": 8053,
      "##ote": 8054,
      "met": 8055,
      "##iversity": 8056,
      "##oor": 8057,
      "11": 8058,
      "##arr": 8059,
      "needs": 8060,
      "food": 8061,
      "##ted": 8062,
      "Or": 8063,
      "##ems": 8064,
      "website": 8065,
      "game": 8066,
      "##ll": 8067,
      "intern": 8068,
      "control": 8069,
      "products": 8070,
      "prom": 8071,
      "enjoy": 8072,
      "##oss": 8073,
      "unt": 8074,
      "win": 8075,
      "sal": 8076,
      "##ator": 8077,
      "##ope": 8078,
      "##ified": 8079,
      "##atter": 8080,
      "course": 8081,
      "Ph": 8082,
      "##urs": 8083,
      "present": 8084,
      "chang": 8085,
      "pop": 8086,
      "job": 8087,
      "Res": 8088,
      "##ieve": 8089,
      "##iven": 8090,
      "prev": 8091,
      "Col": 8092,
      "ask": 8093,
      "##por": 8094,
      "These": 8095,
      "aff": 8096,
      "##ases": 8097,
      "##ences": 8098,
      "##room": 8099,
      "Sp": 8100,
      "##ats": 8101,
      "##pend": 8102,
      "##agement": 8103,
      "event": 8104,
      "##illion": 8105,
      "##gin": 8106,
      "impro": 8107,
      "law": 8108,
      "cap": 8109,
      "profession": 8110,
      "##ised": 8111,
      "##ived": 8112,
      "##ron": 8113,
      "US": 8114,
      "vide": 8115,
      "##ER": 8116,
      "air": 8117,
      "house": 8118,
      "##ission": 8119,
      "const": 8120,
      "money": 8121,
      "easy": 8122,
      "##lection": 8123,
      "learn": 8124,
      "ca": 8125,
      "success": 8126,
      "near": 8127,
      "##ains": 8128,
      "exp": 8129,
      "ann": 8130,
      "ed": 8131,
      "stor": 8132,
      "##ability": 8133,
      "cover": 8134,
      "visit": 8135,
      "bas": 8136,
      "children": 8137,
      "creat": 8138,
      "##ister": 8139,
      "rep": 8140,
      "large": 8141,
      "##outh": 8142,
      "leg": 8143,
      "No": 8144,
      "cond": 8145,
      "Can": 8146,
      "##ott": 8147,
      "##here": 8148,
      ".\"": 8149,
      "case": 8150,
      "change": 8151,
      "##br": 8152,
      "##ique": 8153,
      "##ably": 8154,
      "##ism": 8155,
      "##ember": 8156,
      "One": 8157,
      "##inal": 8158,
      "##ec": 8159,
      "check": 8160,
      "##ills": 8161,
      "##ocus": 8162,
      "##ird": 8163,
      "Do": 8164,
      "##itions": 8165,
      "employ": 8166,
      "dem": 8167,
      "##ows": 8168,
      "Man": 8169,
      "toget": 8170,
      "together": 8171,
      "##iety": 8172,
      "create": 8173,
      "until": 8174,
      "arr": 8175,
      "detail": 8176,
      "##oint": 8177,
      "sever": 8178,
      "##rap": 8179,
      "##ization": 8180,
      "away": 8181,
      "connect": 8182,
      "##aterial": 8183,
      "trad": 8184,
      "##aster": 8185,
      "past": 8186,
      "##ample": 8187,
      "saf": 8188,
      "turn": 8189,
      "along": 8190,
      "account": 8191,
      "##utes": 8192,
      "##ode": 8193,
      "##esh": 8194,
      "##ger": 8195,
      "##ury": 8196,
      "perfect": 8197,
      "often": 8198,
      "sty": 8199,
      "community": 8200,
      "##itc": 8201,
      "possible": 8202,
      "page": 8203,
      "beaut": 8204,
      "why": 8205,
      "elect": 8206,
      "##iate": 8207,
      "##lish": 8208,
      "kind": 8209,
      "hist": 8210,
      "##ising": 8211,
      "bene": 8212,
      "##ream": 8213,
      "sing": 8214,
      "##ush": 8215,
      "net": 8216,
      "##istr": 8217,
      "##ividual": 8218,
      "name": 8219,
      "##let": 8220,
      "dev": 8221,
      "100": 8222,
      "pa": 8223,
      "Christ": 8224,
      "##olution": 8225,
      "beh": 8226,
      "personal": 8227,
      "review": 8228,
      "##uck": 8229,
      "##icle": 8230,
      "##vern": 8231,
      "Cent": 8232,
      ",”": 8233,
      "hum": 8234,
      "focus": 8235,
      "Comm": 8236,
      "works": 8237,
      "pot": 8238,
      "##tend": 8239,
      "pain": 8240,
      "treat": 8241,
      "sw": 8242,
      "specific": 8243,
      "dra": 8244,
      "Am": 8245,
      "##ively": 8246,
      "times": 8247,
      "##vir": 8248,
      "contact": 8249,
      "##ids": 8250,
      "against": 8251,
      "expect": 8252,
      "include": 8253,
      "having": 8254,
      "Fl": 8255,
      "require": 8256,
      "##hor": 8257,
      "four": 8258,
      "##uro": 8259,
      "research": 8260,
      "##rip": 8261,
      "side": 8262,
      "##vers": 8263,
      "##ret": 8264,
      "material": 8265,
      "soft": 8266,
      "record": 8267,
      "##ney": 8268,
      "God": 8269,
      "es": 8270,
      "benef": 8271,
      "line": 8272,
      "##ina": 8273,
      "##viron": 8274,
      "25": 8275,
      "individual": 8276,
      "la": 8277,
      "##ann": 8278,
      "After": 8279,
      "##be": 8280,
      "price": 8281,
      "means": 8282,
      "done": 8283,
      "govern": 8284,
      "##atures": 8285,
      ".,": 8286,
      "protect": 8287,
      "thing": 8288,
      "Su": 8289,
      "clear": 8290,
      "##ination": 8291,
      "move": 8292,
      "opportun": 8293,
      "short": 8294,
      "##arch": 8295,
      "##med": 8296,
      "##oice": 8297,
      "become": 8298,
      "##cent": 8299,
      "word": 8300,
      "##lement": 8301,
      "Eng": 8302,
      "night": 8303,
      "wom": 8304,
      "##bo": 8305,
      "vers": 8306,
      "non": 8307,
      "members": 8308,
      "mult": 8309,
      "enter": 8310,
      "tem": 8311,
      "##side": 8312,
      "hot": 8313,
      "development": 8314,
      "land": 8315,
      "##aff": 8316,
      "comes": 8317,
      "makes": 8318,
      "social": 8319,
      "Me": 8320,
      "gra": 8321,
      "##ured": 8322,
      "ens": 8323,
      "occ": 8324,
      "buy": 8325,
      "##pecial": 8326,
      "##ional": 8327,
      "certain": 8328,
      "##itive": 8329,
      "##iful": 8330,
      "##oose": 8331,
      "ever": 8332,
      "##oon": 8333,
      "quick": 8334,
      "App": 8335,
      "left": 8336,
      "educ": 8337,
      "14": 8338,
      "##ready": 8339,
      "##ley": 8340,
      "others": 8341,
      "lim": 8342,
      "mind": 8343,
      "##ances": 8344,
      "##anies": 8345,
      "shar": 8346,
      "install": 8347,
      "##iter": 8348,
      "##ips": 8349,
      "body": 8350,
      "##uture": 8351,
      "##rop": 8352,
      "##ustry": 8353,
      "16": 8354,
      "enough": 8355,
      "et": 8356,
      "cou": 8357,
      "University": 8358,
      "However": 8359,
      "music": 8360,
      "country": 8361,
      "##oci": 8362,
      "purch": 8363,
      "several": 8364,
      "##me": 8365,
      "across": 8366,
      "##part": 8367,
      "##ajor": 8368,
      "##ged": 8369,
      "lov": 8370,
      "typ": 8371,
      "##ke": 8372,
      "already": 8373,
      "key": 8374,
      "tool": 8375,
      "##ental": 8376,
      "sol": 8377,
      "low": 8378,
      "##conom": 8379,
      "clean": 8380,
      "try": 8381,
      "##ering": 8382,
      "space": 8383,
      "lik": 8384,
      "enc": 8385,
      "Your": 8386,
      "hours": 8387,
      "getting": 8388,
      "##isc": 8389,
      "50": 8390,
      "##ots": 8391,
      "called": 8392,
      "##min": 8393,
      "##enn": 8394,
      "##cle": 8395,
      "Dr": 8396,
      "##ane": 8397,
      "bit": 8398,
      "2018": 8399,
      "deal": 8400,
      "##vironment": 8401,
      "live": 8402,
      "May": 8403,
      "Ne": 8404,
      "hold": 8405,
      "13": 8406,
      "fav": 8407,
      "below": 8408,
      "##app": 8409,
      "talk": 8410,
      "##orts": 8411,
      "appear": 8412,
      "##ief": 8413,
      "hig": 8414,
      "Co": 8415,
      "##anks": 8416,
      "##fact": 8417,
      "##aces": 8418,
      "##alf": 8419,
      "range": 8420,
      "##ither": 8421,
      "Car": 8422,
      "far": 8423,
      "pack": 8424,
      "doing": 8425,
      "content": 8426,
      "##wards": 8427,
      "anal": 8428,
      "##ify": 8429,
      "future": 8430,
      "share": 8431,
      "bring": 8432,
      "priv": 8433,
      "offers": 8434,
      "##ording": 8435,
      "city": 8436,
      "##aim": 8437,
      "En": 8438,
      "##ones": 8439,
      "particular": 8440,
      "##ribut": 8441,
      "orig": 8442,
      "address": 8443,
      "compet": 8444,
      "tell": 8445,
      "major": 8446,
      "building": 8447,
      "Comp": 8448,
      "redu": 8449,
      "199": 8450,
      "mean": 8451,
      "step": 8452,
      "##ript": 8453,
      "camp": 8454,
      "companies": 8455,
      "Des": 8456,
      "season": 8457,
      "Serv": 8458,
      "actually": 8459,
      "##augh": 8460,
      "##ilt": 8461,
      "##ograph": 8462,
      "video": 8463,
      "##ift": 8464,
      "industry": 8465,
      "Cont": 8466,
      "Intern": 8467,
      "##ethod": 8468,
      "##ancial": 8469,
      "Inst": 8470,
      "ident": 8471,
      "known": 8472,
      "clos": 8473,
      "invol": 8474,
      "##omes": 8475,
      "cred": 8476,
      "example": 8477,
      "once": 8478,
      "##sel": 8479,
      "##urther": 8480,
      "value": 8481,
      "comb": 8482,
      "wa": 8483,
      "story": 8484,
      "pict": 8485,
      "##light": 8486,
      "##une": 8487,
      "Che": 8488,
      "##ape": 8489,
      "started": 8490,
      "wind": 8491,
      "ste": 8492,
      "##osp": 8493,
      "email": 8494,
      "##oud": 8495,
      "ess": 8496,
      "web": 8497,
      "customers": 8498,
      "##atic": 8499,
      "##urity": 8500,
      "##ides": 8501,
      "##ries": 8502,
      "##ster": 8503,
      "##IN": 8504,
      "return": 8505,
      "##inc": 8506,
      "##ilities": 8507,
      "problem": 8508,
      "minutes": 8509,
      "chall": 8510,
      "beautiful": 8511,
      "mom": 8512,
      "vol": 8513,
      "bed": 8514,
      "cut": 8515,
      "17": 8516,
      "offic": 8517,
      "friends": 8518,
      "pie": 8519,
      "download": 8520,
      "least": 8521,
      "sell": 8522,
      "##aps": 8523,
      "##ledge": 8524,
      "##imes": 8525,
      "ris": 8526,
      "##sw": 8527,
      "sum": 8528,
      "port": 8529,
      "##ored": 8530,
      "please": 8531,
      "super": 8532,
      "##ners": 8533,
      "24": 8534,
      "##af": 8535,
      "reason": 8536,
      "strong": 8537,
      "friend": 8538,
      "didn": 8539,
      "amount": 8540,
      "technology": 8541,
      "features": 8542,
      "ce": 8543,
      "recomm": 8544,
      "type": 8545,
      "##atural": 8546,
      "search": 8547,
      "press": 8548,
      "Gu": 8549,
      "##unch": 8550,
      "field": 8551,
      "##ply": 8552,
      "walk": 8553,
      "respons": 8554,
      "men": 8555,
      "American": 8556,
      "Ass": 8557,
      "doesn": 8558,
      "Med": 8559,
      "mil": 8560,
      "##idd": 8561,
      "##ON": 8562,
      "begin": 8563,
      "##opp": 8564,
      "Sy": 8565,
      "##ources": 8566,
      "everything": 8567,
      "Euro": 8568,
      "above": 8569,
      "##ai": 8570,
      "current": 8571,
      "##aby": 8572,
      "##ource": 8573,
      "discuss": 8574,
      "di": 8575,
      "million": 8576,
      "##urance": 8577,
      "##li": 8578,
      "provides": 8579,
      "tot": 8580,
      "early": 8581,
      "charact": 8582,
      "##uff": 8583,
      "blog": 8584,
      "##fort": 8585,
      "property": 8586,
      "government": 8587,
      "##iod": 8588,
      "stay": 8589,
      "##lished": 8590,
      "##ference": 8591,
      "travel": 8592,
      "##ulation": 8593,
      "months": 8594,
      "environment": 8595,
      "##ests": 8596,
      "rele": 8597,
      "Fe": 8598,
      "tax": 8599,
      "##uly": 8600,
      "ant": 8601,
      "sound": 8602,
      "repr": 8603,
      "won": 8604,
      "professional": 8605,
      "center": 8606,
      "##duct": 8607,
      "results": 8608,
      "simple": 8609,
      "method": 8610,
      "complete": 8611,
      "young": 8612,
      "##ians": 8613,
      "##ocu": 8614,
      "thought": 8615,
      "##itor": 8616,
      "##hers": 8617,
      "##ges": 8618,
      "came": 8619,
      "##res": 8620,
      "tour": 8621,
      "ey": 8622,
      "cra": 8623,
      "says": 8624,
      "##ES": 8625,
      "recommend": 8626,
      "given": 8627,
      "improve": 8628,
      "##aken": 8629,
      "cal": 8630,
      "yet": 8631,
      "##crib": 8632,
      "questions": 8633,
      "author": 8634,
      "mot": 8635,
      "Please": 8636,
      "wond": 8637,
      "Wor": 8638,
      "##ural": 8639,
      "##ival": 8640,
      "required": 8641,
      "table": 8642,
      "##most": 8643,
      "econom": 8644,
      "##AT": 8645,
      "##ites": 8646,
      "aud": 8647,
      "Not": 8648,
      "management": 8649,
      "took": 8650,
      "comput": 8651,
      "due": 8652,
      "news": 8653,
      "exam": 8654,
      "##acy": 8655,
      "##iday": 8656,
      "training": 8657,
      "issues": 8658,
      "single": 8659,
      "strateg": 8660,
      "select": 8661,
      "##by": 8662,
      "energ": 8663,
      "fre": 8664,
      "##ibility": 8665,
      "##ino": 8666,
      "Joh": 8667,
      "performance": 8668,
      "card": 8669,
      "manag": 8670,
      "bar": 8671,
      "##aur": 8672,
      "##use": 8673,
      "various": 8674,
      "2017": 8675,
      "cult": 8676,
      "##pecially": 8677,
      "While": 8678,
      "areas": 8679,
      "##fully": 8680,
      "dig": 8681,
      "##obile": 8682,
      "Now": 8683,
      "##ral": 8684,
      "whole": 8685,
      "##ler": 8686,
      "##tt": 8687,
      "following": 8688,
      "repres": 8689,
      "upd": 8690,
      "size": 8691,
      "##ume": 8692,
      "later": 8693,
      "##icult": 8694,
      "break": 8695,
      "happen": 8696,
      "##mber": 8697,
      "style": 8698,
      "Gr": 8699,
      "##ilar": 8700,
      "hope": 8701,
      "Min": 8702,
      "study": 8703,
      "repl": 8704,
      "someone": 8705,
      "##asing": 8706,
      "##lege": 8707,
      "##ogn": 8708,
      "media": 8709,
      "experi": 8710,
      "##idence": 8711,
      "##icy": 8712,
      "##ead": 8713,
      "needed": 8714,
      "designed": 8715,
      "Some": 8716,
      "##itical": 8717,
      "fund": 8718,
      "percent": 8719,
      "##AN": 8720,
      "##ps": 8721,
      "diff": 8722,
      "living": 8723,
      "Im": 8724,
      "Off": 8725,
      "taking": 8726,
      "whether": 8727,
      "By": 8728,
      "##uation": 8729,
      "mach": 8730,
      "financial": 8731,
      "color": 8732,
      "idea": 8733,
      "##illed": 8734,
      "period": 8735,
      "prob": 8736,
      "assist": 8737,
      "pick": 8738,
      "Europe": 8739,
      "##aving": 8740,
      "Count": 8741,
      "common": 8742,
      "five": 8743,
      "##abor": 8744,
      "John": 8745,
      "choose": 8746,
      "text": 8747,
      "##ony": 8748,
      "##AR": 8749,
      "!!": 8750,
      "Bo": 8751,
      "energy": 8752,
      "went": 8753,
      "##sc": 8754,
      "##eral": 8755,
      "##gle": 8756,
      "necess": 8757,
      "front": 8758,
      "##astic": 8759,
      "unique": 8760,
      "relations": 8761,
      "office": 8762,
      "seen": 8763,
      "host": 8764,
      "##reet": 8765,
      "phys": 8766,
      "entire": 8767,
      "##irl": 8768,
      ",\"": 8769,
      "##ruction": 8770,
      "jo": 8771,
      "meas": 8772,
      "##ched": 8773,
      "print": 8774,
      "quite": 8775,
      "##urch": 8776,
      "among": 8777,
      "docu": 8778,
      "customer": 8779,
      "either": 8780,
      "staff": 8781,
      "further": 8782,
      "mar": 8783,
      "simply": 8784,
      "ensure": 8785,
      "provided": 8786,
      "yourself": 8787,
      "2019": 8788,
      "engine": 8789,
      "##hing": 8790,
      "contract": 8791,
      "Cal": 8792,
      "inde": 8793,
      "especially": 8794,
      "natural": 8795,
      "options": 8796,
      "Tra": 8797,
      "women": 8798,
      "##ided": 8799,
      "history": 8800,
      "age": 8801,
      "##ication": 8802,
      "##book": 8803,
      "South": 8804,
      "particip": 8805,
      "sn": 8806,
      "ach": 8807,
      "##ches": 8808,
      "answ": 8809,
      "Just": 8810,
      "mess": 8811,
      "##come": 8812,
      "human": 8813,
      "wall": 8814,
      "potential": 8815,
      "knowledge": 8816,
      "##ufact": 8817,
      "systems": 8818,
      "miss": 8819,
      "##selves": 8820,
      "exist": 8821,
      "series": 8822,
      "##aching": 8823,
      "extra": 8824,
      "##itted": 8825,
      "cook": 8826,
      "foot": 8827,
      "##ained": 8828,
      "##ding": 8829,
      "brand": 8830,
      "##ables": 8831,
      "##cript": 8832,
      "dam": 8833,
      "##irt": 8834,
      "##though": 8835,
      "sugg": 8836,
      "##gest": 8837,
      "##lex": 8838,
      "##azing": 8839,
      "phone": 8840,
      "##ength": 8841,
      "##ories": 8842,
      "##ibr": 8843,
      "software": 8844,
      "baby": 8845,
      "writing": 8846,
      "believe": 8847,
      "##ensive": 8848,
      "##ask": 8849,
      "##itchen": 8850,
      "Rep": 8851,
      "includes": 8852,
      "half": 8853,
      "log": 8854,
      "anything": 8855,
      "21": 8856,
      "Here": 8857,
      "Pre": 8858,
      "mag": 8859,
      "everyone": 8860,
      "white": 8861,
      "##ued": 8862,
      "application": 8863,
      "comfort": 8864,
      "close": 8865,
      "##com": 8866,
      "face": 8867,
      "soon": 8868,
      "self": 8869,
      "##iously": 8870,
      "United": 8871,
      "##imate": 8872,
      "##**": 8873,
      "##obal": 8874,
      "##OR": 8875,
      "signific": 8876,
      "watch": 8877,
      "click": 8878,
      "oil": 8879,
      "##angu": 8880,
      "link": 8881,
      "Gl": 8882,
      "##eter": 8883,
      "events": 8884,
      "spend": 8885,
      "##itional": 8886,
      "..": 8887,
      "popular": 8888,
      "Per": 8889,
      "ways": 8890,
      "clients": 8891,
      "consum": 8892,
      "##ops": 8893,
      "heart": 8894,
      "##ees": 8895,
      "related": 8896,
      "fall": 8897,
      "##iple": 8898,
      "function": 8899,
      "##irc": 8900,
      "collect": 8901,
      "aw": 8902,
      "##ams": 8903,
      "etc": 8904,
      "problems": 8905,
      "##ators": 8906,
      "difficult": 8907,
      "ele": 8908,
      "##rew": 8909,
      "date": 8910,
      "##ux": 8911,
      "##ification": 8912,
      "favor": 8913,
      "Don": 8914,
      "His": 8915,
      "agree": 8916,
      "School": 8917,
      "claim": 8918,
      "##vert": 8919,
      "black": 8920,
      "almost": 8921,
      "created": 8922,
      "cann": 8923,
      "film": 8924,
      "--": 8925,
      "dou": 8926,
      "City": 8927,
      "##err": 8928,
      "regard": 8929,
      "fit": 8930,
      "autom": 8931,
      "Em": 8932,
      "hy": 8933,
      "abs": 8934,
      "accept": 8935,
      "##play": 8936,
      "##ety": 8937,
      "wonder": 8938,
      "State": 8939,
      "##lus": 8940,
      "Sec": 8941,
      "Ke": 8942,
      "deb": 8943,
      "40": 8944,
      "party": 8945,
      "details": 8946,
      "Tw": 8947,
      "question": 8948,
      "paper": 8949,
      "##olutions": 8950,
      "##icro": 8951,
      "##ball": 8952,
      "Inc": 8953,
      "deliver": 8954,
      "Bu": 8955,
      "mor": 8956,
      "road": 8957,
      "box": 8958,
      "init": 8959,
      "00": 8960,
      "##ober": 8961,
      "2016": 8962,
      "Ed": 8963,
      "model": 8964,
      "ideas": 8965,
      "Pe": 8966,
      "##nam": 8967,
      "Par": 8968,
      "represent": 8969,
      "ra": 8970,
      "third": 8971,
      "estab": 8972,
      "##ands": 8973,
      "Qu": 8974,
      "risk": 8975,
      "North": 8976,
      "track": 8977,
      "however": 8978,
      "##ises": 8979,
      "issue": 8980,
      "##elt": 8981,
      "subject": 8982,
      "ful": 8983,
      "games": 8984,
      "##acks": 8985,
      "##itch": 8986,
      "ago": 8987,
      "seem": 8988,
      "credit": 8989,
      "impact": 8990,
      "position": 8991,
      "added": 8992,
      "Pres": 8993,
      "throughout": 8994,
      "Part": 8995,
      "##ctor": 8996,
      "taken": 8997,
      "users": 8998,
      "network": 8999,
      "hon": 9000,
      "sat": 9001,
      "##oid": 9002,
      "##anced": 9003,
      "coll": 9004,
      "opportunity": 9005,
      "##press": 9006,
      "determ": 9007,
      "changes": 9008,
      "From": 9009,
      "fast": 9010,
      "matter": 9011,
      "receive": 9012,
      "security": 9013,
      "##yl": 9014,
      "Ab": 9015,
      "Add": 9016,
      "relationship": 9017,
      "forward": 9018,
      "user": 9019,
      "##for": 9020,
      "sales": 9021,
      "insp": 9022,
      "Apr": 9023,
      "store": 9024,
      ".”": 9025,
      "likely": 9026,
      "bad": 9027,
      "usually": 9028,
      "Fin": 9029,
      "lo": 9030,
      "trying": 9031,
      "rather": 9032,
      "built": 9033,
      "similar": 9034,
      "skills": 9035,
      "National": 9036,
      "compar": 9037,
      "##20": 9038,
      "##ung": 9039,
      "cell": 9040,
      "ready": 9041,
      "Mr": 9042,
      "##ires": 9043,
      "lat": 9044,
      "else": 9045,
      "Sm": 9046,
      "##rect": 9047,
      "activities": 9048,
      "significant": 9049,
      "##istic": 9050,
      "learning": 9051,
      "Bro": 9052,
      "##ED": 9053,
      "wide": 9054,
      "coming": 9055,
      "file": 9056,
      "veh": 9057,
      "##atform": 9058,
      "##ights": 9059,
      "##ging": 9060,
      "inte": 9061,
      "tar": 9062,
      "##uge": 9063,
      "grad": 9064,
      "##rodu": 9065,
      "rate": 9066,
      "pret": 9067,
      "##ipment": 9068,
      "##EN": 9069,
      "##head": 9070,
      "probably": 9071,
      "education": 9072,
      "##etimes": 9073,
      "tou": 9074,
      "##ison": 9075,
      "##ules": 9076,
      "Acc": 9077,
      "##erc": 9078,
      "##uc": 9079,
      "##lt": 9080,
      "manufact": 9081,
      "##ming": 9082,
      "recogn": 9083,
      "increase": 9084,
      "Jan": 9085,
      "currently": 9086,
      "Us": 9087,
      "continue": 9088,
      "ut": 9089,
      "jour": 9090,
      "Reg": 9091,
      "Stud": 9092,
      "##lebr": 9093,
      "image": 9094,
      "Bar": 9095,
      "##aily": 9096,
      "fail": 9097,
      "insurance": 9098,
      "takes": 9099,
      "projects": 9100,
      "##oura": 9101,
      "famil": 9102,
      "##eks": 9103,
      "lay": 9104,
      "prepar": 9105,
      "isn": 9106,
      "practice": 9107,
      "defin": 9108,
      "infl": 9109,
      "version": 9110,
      "wanted": 9111,
      "marketing": 9112,
      "easily": 9113,
      "World": 9114,
      "object": 9115,
      "outside": 9116,
      "happy": 9117,
      "bott": 9118,
      "private": 9119,
      "cop": 9120,
      "sent": 9121,
      "regular": 9122,
      "deg": 9123,
      "base": 9124,
      "Thanks": 9125,
      "exact": 9126,
      "Park": 9127,
      "role": 9128,
      "Aut": 9129,
      "effic": 9130,
      "pan": 9131,
      "High": 9132,
      "send": 9133,
      "##IT": 9134,
      "located": 9135,
      "##cer": 9136,
      "official": 9137,
      "drive": 9138,
      "via": 9139,
      "struct": 9140,
      "general": 9141,
      "##airs": 9142,
      "pretty": 9143,
      "##itut": 9144,
      "respect": 9145,
      "war": 9146,
      "six": 9147,
      "additional": 9148,
      "held": 9149,
      "higher": 9150,
      "##AS": 9151,
      "Af": 9152,
      "##face": 9153,
      "Will": 9154,
      "fu": 9155,
      "worth": 9156,
      "amazing": 9157,
      "effective": 9158,
      "spr": 9159,
      "##itting": 9160,
      "member": 9161,
      "stop": 9162,
      "##hib": 9163,
      "choice": 9164,
      "##go": 9165,
      "York": 9166,
      "running": 9167,
      "treatment": 9168,
      "fire": 9169,
      "maintain": 9170,
      "##where": 9171,
      "modern": 9172,
      "22": 9173,
      "received": 9174,
      "hol": 9175,
      "##irst": 9176,
      "##ada": 9177,
      "true": 9178,
      "mix": 9179,
      "bal": 9180,
      "stat": 9181,
      "2015": 9182,
      "coun": 9183,
      "neg": 9184,
      "character": 9185,
      "according": 9186,
      "langu": 9187,
      "##istration": 9188,
      "##inks": 9189,
      "leave": 9190,
      "original": 9191,
      "standard": 9192,
      "complet": 9193,
      "##idge": 9194,
      "excell": 9195,
      "total": 9196,
      "##itten": 9197,
      "told": 9198,
      "action": 9199,
      "points": 9200,
      "apply": 9201,
      "growth": 9202,
      "##co": 9203,
      "shows": 9204,
      "##izing": 9205,
      "attend": 9206,
      "##ese": 9207,
      "items": 9208,
      "County": 9209,
      "##mb": 9210,
      "screen": 9211,
      "inside": 9212,
      "anim": 9213,
      "floor": 9214,
      "ground": 9215,
      "cool": 9216,
      "suggest": 9217,
      "kids": 9218,
      "stra": 9219,
      "Ag": 9220,
      "town": 9221,
      "weeks": 9222,
      "integr": 9223,
      "round": 9224,
      "Every": 9225,
      "##apt": 9226,
      "announ": 9227,
      "final": 9228,
      "sle": 9229,
      "variety": 9230,
      "##ecut": 9231,
      "speak": 9232,
      "upon": 9233,
      "198": 9234,
      "UK": 9235,
      "##ceed": 9236,
      "Are": 9237,
      "wood": 9238,
      "platform": 9239,
      "##verage": 9240,
      "April": 9241,
      "TH": 9242,
      "cur": 9243,
      "dog": 9244,
      "##enced": 9245,
      "##aining": 9246,
      "cannot": 9247,
      "##oogle": 9248,
      "computer": 9249,
      "programs": 9250,
      "##imum": 9251,
      "sens": 9252,
      "dom": 9253,
      "##ffic": 9254,
      "latest": 9255,
      "behind": 9256,
      "##empt": 9257,
      "purchase": 9258,
      "giving": 9259,
      "costs": 9260,
      "included": 9261,
      "longer": 9262,
      "concern": 9263,
      "Art": 9264,
      "##ama": 9265,
      "prior": 9266,
      "##umb": 9267,
      "anyone": 9268,
      "June": 9269,
      "skin": 9270,
      "article": 9271,
      "Cor": 9272,
      "inn": 9273,
      "allows": 9274,
      "words": 9275,
      "##AL": 9276,
      "Ge": 9277,
      "##used": 9278,
      "Dep": 9279,
      "##ille": 9280,
      "##mit": 9281,
      "production": 9282,
      "park": 9283,
      "##50": 9284,
      "quickly": 9285,
      "providing": 9286,
      "loss": 9287,
      "23": 9288,
      "associ": 9289,
      "bud": 9290,
      "rad": 9291,
      "nothing": 9292,
      "summer": 9293,
      "remember": 9294,
      "books": 9295,
      "Then": 9296,
      "shall": 9297,
      "recent": 9298,
      "##amer": 9299,
      "Of": 9300,
      "request": 9301,
      "##IC": 9302,
      "resid": 9303,
      "necessary": 9304,
      "##aced": 9305,
      "Also": 9306,
      "More": 9307,
      "patients": 9308,
      "save": 9309,
      "Get": 9310,
      "reading": 9311,
      "##IS": 9312,
      "##ole": 9313,
      "tit": 9314,
      "option": 9315,
      "circ": 9316,
      "##ground": 9317,
      "speed": 9318,
      "Austr": 9319,
      "plant": 9320,
      "worked": 9321,
      "celebr": 9322,
      "Cr": 9323,
      "kitchen": 9324,
      "Pol": 9325,
      "Sw": 9326,
      "norm": 9327,
      "Act": 9328,
      "flow": 9329,
      "commer": 9330,
      "affect": 9331,
      "swe": 9332,
      "Center": 9333,
      "##aging": 9334,
      "target": 9335,
      "Let": 9336,
      "mobile": 9337,
      "types": 9338,
      "fresh": 9339,
      "States": 9340,
      "sale": 9341,
      "terms": 9342,
      "approach": 9343,
      "##erson": 9344,
      "fig": 9345,
      "international": 9346,
      "er": 9347,
      "register": 9348,
      "board": 9349,
      "##yc": 9350,
      "sun": 9351,
      "teac": 9352,
      "Most": 9353,
      "##inary": 9354,
      "##uit": 9355,
      "song": 9356,
      "challeng": 9357,
      "materials": 9358,
      "prices": 9359,
      "Wind": 9360,
      "location": 9361,
      "##ox": 9362,
      "##ench": 9363,
      "sche": 9364,
      "moment": 9365,
      "2014": 9366,
      "Day": 9367,
      "seems": 9368,
      "bath": 9369,
      "##oph": 9370,
      "##ana": 9371,
      "admin": 9372,
      "code": 9373,
      "section": 9374,
      "meeting": 9375,
      "##AC": 9376,
      "##iable": 9377,
      "nice": 9378,
      "##iation": 9379,
      "leaders": 9380,
      "conditions": 9381,
      "##oring": 9382,
      "##str": 9383,
      "lower": 9384,
      "ability": 9385,
      "deep": 9386,
      "student": 9387,
      "tools": 9388,
      "equipment": 9389,
      "solution": 9390,
      "Her": 9391,
      "looks": 9392,
      "safe": 9393,
      "door": 9394,
      "##adem": 9395,
      "dest": 9396,
      "##ned": 9397,
      "El": 9398,
      "ball": 9399,
      "describ": 9400,
      "prim": 9401,
      "depend": 9402,
      "htt": 9403,
      "feed": 9404,
      "Oct": 9405,
      "leading": 9406,
      "##ky": 9407,
      "##//": 9408,
      "##osed": 9409,
      "Val": 9410,
      "##cing": 9411,
      "parts": 9412,
      "couple": 9413,
      "heav": 9414,
      "ill": 9415,
      "medical": 9416,
      "sil": 9417,
      "##ples": 9418,
      "##atory": 9419,
      "##icles": 9420,
      "ple": 9421,
      "mount": 9422,
      "##rict": 9423,
      "##ule": 9424,
      "refer": 9425,
      "separ": 9426,
      "\".": 9427,
      "Ste": 9428,
      "://": 9429,
      "##mas": 9430,
      "ones": 9431,
      "resources": 9432,
      "##hel": 9433,
      "solutions": 9434,
      "Ser": 9435,
      "highly": 9436,
      "##ysis": 9437,
      "March": 9438,
      "display": 9439,
      "gen": 9440,
      "hair": 9441,
      "Google": 9442,
      "recently": 9443,
      "##irit": 9444,
      "##pper": 9445,
      "trend": 9446,
      "safety": 9447,
      "trip": 9448,
      "##ww": 9449,
      "mass": 9450,
      "##iring": 9451,
      "cause": 9452,
      "sett": 9453,
      "##izes": 9454,
      "daily": 9455,
      "##pose": 9456,
      "##back": 9457,
      "goal": 9458,
      "##ipe": 9459,
      "answer": 9460,
      "Sim": 9461,
      "Any": 9462,
      "##ters": 9463,
      "26": 9464,
      "##RE": 9465,
      "draw": 9466,
      "lives": 9467,
      "sense": 9468,
      "expert": 9469,
      "legal": 9470,
      "condition": 9471,
      "weight": 9472,
      "##icated": 9473,
      "extre": 9474,
      "policy": 9475,
      "national": 9476,
      "encoura": 9477,
      "##ached": 9478,
      "trust": 9479,
      "Thank": 9480,
      "##oes": 9481,
      "West": 9482,
      "involved": 9483,
      "Once": 9484,
      "imm": 9485,
      "career": 9486,
      "match": 9487,
      "##nes": 9488,
      "emb": 9489,
      "60": 9490,
      "vot": 9491,
      "remov": 9492,
      "asked": 9493,
      "First": 9494,
      "House": 9495,
      "collection": 9496,
      "##vent": 9497,
      "commit": 9498,
      "##son": 9499,
      "##to": 9500,
      "Pa": 9501,
      "fix": 9502,
      "##rug": 9503,
      "itself": 9504,
      "correct": 9505,
      "digital": 9506,
      "gives": 9507,
      "##arden": 9508,
      "countries": 9509,
      "organization": 9510,
      "ded": 9511,
      "requirements": 9512,
      "Health": 9513,
      "discover": 9514,
      "written": 9515,
      "Mc": 9516,
      "##iddle": 9517,
      "dry": 9518,
      "##ublic": 9519,
      "nurs": 9520,
      "International": 9521,
      "##hest": 9522,
      "decision": 9523,
      "global": 9524,
      "Gra": 9525,
      "squ": 9526,
      "Many": 9527,
      "except": 9528,
      "2013": 9529,
      "restaur": 9530,
      "Home": 9531,
      "gar": 9532,
      "arch": 9533,
      "Austral": 9534,
      "inj": 9535,
      "##put": 9536,
      "bank": 9537,
      "wel": 9538,
      "path": 9539,
      "wear": 9540,
      "##aves": 9541,
      "##ram": 9542,
      "##lier": 9543,
      "hands": 9544,
      "levels": 9545,
      "qual": 9546,
      "introdu": 9547,
      "late": 9548,
      "##ondon": 9549,
      "benefits": 9550,
      "excellent": 9551,
      "instead": 9552,
      "Well": 9553,
      "girl": 9554,
      "Mus": 9555,
      "##ipping": 9556,
      "Air": 9557,
      "immed": 9558,
      "Sept": 9559,
      "source": 9560,
      "rout": 9561,
      "plans": 9562,
      "favorite": 9563,
      "lif": 9564,
      "##amed": 9565,
      "morning": 9566,
      "touch": 9567,
      "##irth": 9568,
      "themselves": 9569,
      "##ension": 9570,
      "helps": 9571,
      "directly": 9572,
      "##bor": 9573,
      "attention": 9574,
      "lic": 9575,
      "piece": 9576,
      "Even": 9577,
      "Afric": 9578,
      "write": 9579,
      "##cription": 9580,
      "TV": 9581,
      "Soc": 9582,
      "Bus": 9583,
      "Red": 9584,
      "obs": 9585,
      "adj": 9586,
      "huge": 9587,
      "block": 9588,
      "interesting": 9589,
      "cases": 9590,
      "##oke": 9591,
      "concept": 9592,
      "##aign": 9593,
      "chance": 9594,
      "machine": 9595,
      "www": 9596,
      "green": 9597,
      "##eal": 9598,
      "tast": 9599,
      "roll": 9600,
      "English": 9601,
      "##erve": 9602,
      "language": 9603,
      "bi": 9604,
      "CO": 9605,
      "##ctions": 9606,
      "Rec": 9607,
      "death": 9608,
      "document": 9609,
      "surpr": 9610,
      "##reg": 9611,
      "myself": 9612,
      "essential": 9613,
      "##of": 9614,
      "##nal": 9615,
      "##wood": 9616,
      "saw": 9617,
      "photos": 9618,
      "furn": 9619,
      "##edding": 9620,
      "##ishing": 9621,
      "fully": 9622,
      "implement": 9623,
      "goes": 9624,
      "##arter": 9625,
      "London": 9626,
      "##ades": 9627,
      "sus": 9628,
      "Germ": 9629,
      "Design": 9630,
      "farm": 9631,
      "##ex": 9632,
      "Great": 9633,
      "multiple": 9634,
      "##ri": 9635,
      "27": 9636,
      "##hold": 9637,
      "##cil": 9638,
      "##elling": 9639,
      "planning": 9640,
      "commercial": 9641,
      "ren": 9642,
      "creating": 9643,
      "Har": 9644,
      "##isions": 9645,
      "##ological": 9646,
      "America": 9647,
      "picture": 9648,
      "traditional": 9649,
      "##iol": 9650,
      "##rec": 9651,
      "mention": 9652,
      "##itation": 9653,
      "suit": 9654,
      "hit": 9655,
      "images": 9656,
      "##uary": 9657,
      "decided": 9658,
      "reach": 9659,
      "cas": 9660,
      "sites": 9661,
      "Cons": 9662,
      "Dav": 9663,
      "release": 9664,
      "##lies": 9665,
      "##ivity": 9666,
      "feature": 9667,
      "##oe": 9668,
      "lost": 9669,
      "warm": 9670,
      "##amm": 9671,
      "Mon": 9672,
      "Aug": 9673,
      "gold": 9674,
      "Why": 9675,
      "Black": 9676,
      "31": 9677,
      "##ude": 9678,
      "div": 9679,
      "”.": 9680,
      "storage": 9681,
      "Free": 9682,
      "cand": 9683,
      "##atives": 9684,
      "prem": 9685,
      "thinking": 9686,
      "Service": 9687,
      "Net": 9688,
      "developed": 9689,
      "tal": 9690,
      "##itely": 9691,
      "##erous": 9692,
      "budget": 9693,
      "interact": 9694,
      "successful": 9695,
      "##now": 9696,
      "Bra": 9697,
      "cross": 9698,
      "Feb": 9699,
      "ep": 9700,
      "lab": 9701,
      "fa": 9702,
      "##sy": 9703,
      "2012": 9704,
      "##ought": 9705,
      "achieve": 9706,
      "consult": 9707,
      "stock": 9708,
      "##hood": 9709,
      "##ze": 9710,
      "average": 9711,
      "dise": 9712,
      "complex": 9713,
      "##iff": 9714,
      "##haps": 9715,
      "groups": 9716,
      "prevent": 9717,
      "Whe": 9718,
      "Brit": 9719,
      "28": 9720,
      "##illing": 9721,
      "completely": 9722,
      "##enty": 9723,
      "glass": 9724,
      "500": 9725,
      "India": 9726,
      "##gn": 9727,
      "applications": 9728,
      "client": 9729,
      "##ening": 9730,
      "##asons": 9731,
      "##mission": 9732,
      "device": 9733,
      "##OS": 9734,
      "##enge": 9735,
      "##ieved": 9736,
      "ge": 9737,
      "towards": 9738,
      "Inter": 9739,
      "##board": 9740,
      "##imately": 9741,
      "players": 9742,
      "Since": 9743,
      "nature": 9744,
      "playing": 9745,
      "Rem": 9746,
      "interested": 9747,
      "businesses": 9748,
      "##lim": 9749,
      "##hern": 9750,
      "##opping": 9751,
      "prefer": 9752,
      "born": 9753,
      "consist": 9754,
      "Sal": 9755,
      "##sh": 9756,
      "##igation": 9757,
      "Direct": 9758,
      "##aches": 9759,
      "promot": 9760,
      "Gener": 9761,
      "##ivery": 9762,
      "parents": 9763,
      "##arant": 9764,
      "##urg": 9765,
      "##aged": 9766,
      "Dis": 9767,
      "July": 9768,
      "San": 9769,
      "President": 9770,
      "rev": 9771,
      "carry": 9772,
      "Christmas": 9773,
      "wish": 9774,
      "Up": 9775,
      "##iture": 9776,
      "##uate": 9777,
      "##wise": 9778,
      "began": 9779,
      "depart": 9780,
      "became": 9781,
      "##amb": 9782,
      "##ett": 9783,
      "iP": 9784,
      "seek": 9785,
      "exactly": 9786,
      "innov": 9787,
      "former": 9788,
      "fair": 9789,
      "propos": 9790,
      "cash": 9791,
      "Calif": 9792,
      "Sund": 9793,
      "##ties": 9794,
      "max": 9795,
      "repair": 9796,
      "##artment": 9797,
      "##OT": 9798,
      "individuals": 9799,
      "##rast": 9800,
      "attempt": 9801,
      "limited": 9802,
      "cat": 9803,
      "##vey": 9804,
      "posted": 9805,
      "partners": 9806,
      "considered": 9807,
      "Char": 9808,
      "##iction": 9809,
      "understanding": 9810,
      "Coun": 9811,
      "tick": 9812,
      "##OU": 9813,
      "China": 9814,
      "starting": 9815,
      "emerg": 9816,
      "Ac": 9817,
      "places": 9818,
      "entry": 9819,
      "campaign": 9820,
      "Over": 9821,
      "sometimes": 9822,
      "197": 9823,
      "##ocks": 9824,
      "advant": 9825,
      "load": 9826,
      "mark": 9827,
      "##oom": 9828,
      "##gu": 9829,
      "##oof": 9830,
      "note": 9831,
      "##uses": 9832,
      "regul": 9833,
      "decor": 9834,
      "broad": 9835,
      "Friday": 9836,
      "Face": 9837,
      "##ection": 9838,
      "heat": 9839,
      "wonderful": 9840,
      "bag": 9841,
      "avoid": 9842,
      "situation": 9843,
      "SE": 9844,
      "##ha": 9845,
      "obtain": 9846,
      "##icate": 9847,
      "firm": 9848,
      "court": 9849,
      "##rown": 9850,
      "conduct": 9851,
      "investment": 9852,
      "##iding": 9853,
      "War": 9854,
      "goals": 9855,
      "capt": 9856,
      "##gar": 9857,
      "hor": 9858,
      "##fl": 9859,
      "September": 9860,
      "Each": 9861,
      "analysis": 9862,
      "##na": 9863,
      "attract": 9864,
      "led": 9865,
      "Associ": 9866,
      "wrong": 9867,
      "##ror": 9868,
      "positive": 9869,
      "payment": 9870,
      "aim": 9871,
      "prec": 9872,
      "sold": 9873,
      "##onse": 9874,
      "wait": 9875,
      "pred": 9876,
      "advert": 9877,
      "Trans": 9878,
      "October": 9879,
      "Commun": 9880,
      "##ooth": 9881,
      "purpose": 9882,
      "supply": 9883,
      "##ey": 9884,
      "##bit": 9885,
      "ur": 9886,
      "##iles": 9887,
      "expected": 9888,
      "Out": 9889,
      "##ffee": 9890,
      "##ville": 9891,
      "##ica": 9892,
      "assess": 9893,
      "##uth": 9894,
      "mid": 9895,
      "construction": 9896,
      "growing": 9897,
      "##ipped": 9898,
      "Business": 9899,
      "##ma": 9900,
      "##ellow": 9901,
      "physical": 9902,
      "published": 9903,
      "stress": 9904,
      "##pped": 9905,
      "##ibly": 9906,
      "##vant": 9907,
      "##ester": 9908,
      "Pat": 9909,
      "conv": 9910,
      "organiz": 9911,
      "appropr": 9912,
      "influ": 9913,
      "paid": 9914,
      "##yond": 9915,
      "##dd": 9916,
      "##AM": 9917,
      "##ornia": 9918,
      "friendly": 9919,
      "moving": 9920,
      "dress": 9921,
      "January": 9922,
      "29": 9923,
      "opportunities": 9924,
      "hous": 9925,
      "employees": 9926,
      "eye": 9927,
      "##ration": 9928,
      "guide": 9929,
      "camer": 9930,
      "degree": 9931,
      "##ny": 9932,
      "fine": 9933,
      "subs": 9934,
      "effort": 9935,
      "mail": 9936,
      "surround": 9937,
      "healthy": 9938,
      "##itect": 9939,
      "pages": 9940,
      "##orge": 9941,
      "altern": 9942,
      "##rought": 9943,
      "##10": 9944,
      "shop": 9945,
      "##ington": 9946,
      "vehicle": 9947,
      "active": 9948,
      "Cour": 9949,
      "temper": 9950,
      "80": 9951,
      "eat": 9952,
      "Company": 9953,
      "tele": 9954,
      "Group": 9955,
      "##ederal": 9956,
      "##ography": 9957,
      "mother": 9958,
      "Bel": 9959,
      "Ear": 9960,
      "satis": 9961,
      "Department": 9962,
      "##ham": 9963,
      "slow": 9964,
      "##aly": 9965,
      "internet": 9966,
      "rights": 9967,
      "pictures": 9968,
      "pull": 9969,
      "frame": 9970,
      "Tod": 9971,
      "ten": 9972,
      "##iately": 9973,
      "uses": 9974,
      "2010": 9975,
      "Read": 9976,
      "apart": 9977,
      "dark": 9978,
      "gas": 9979,
      "Web": 9980,
      "##yr": 9981,
      "##iam": 9982,
      "##chan": 9983,
      "California": 9984,
      "charge": 9985,
      "tur": 9986,
      "##itute": 9987,
      "Progr": 9988,
      "##aker": 9989,
      "offering": 9990,
      "Click": 9991,
      "easier": 9992,
      "Services": 9993,
      "smart": 9994,
      "gets": 9995,
      "2011": 9996,
      "colour": 9997,
      "benefit": 9998,
      "##ocol": 9999,
      "##tee": 10000,
      "dream": 10001,
      "ahead": 10002,
      "Jes": 10003,
      "Good": 10004,
      "##iant": 10005,
      "analy": 10006,
      "categ": 10007,
      "pattern": 10008,
      "terr": 10009,
      "plus": 10010,
      "##ores": 10011,
      "##agn": 10012,
      "families": 10013,
      "photo": 10014,
      "King": 10015,
      "Prof": 10016,
      "Sunday": 10017,
      "fab": 10018,
      "##zy": 10019,
      "convers": 10020,
      "sleep": 10021,
      "award": 10022,
      "schools": 10023,
      "Russ": 10024,
      "##iar": 10025,
      "##lied": 10026,
      "##pa": 10027,
      "college": 10028,
      "behav": 10029,
      "mat": 10030,
      "histor": 10031,
      "##ications": 10032,
      "definitely": 10033,
      "35": 10034,
      "##ID": 10035,
      "certainly": 10036,
      "##apan": 10037,
      "previous": 10038,
      "distribut": 10039,
      "execut": 10040,
      "serve": 10041,
      "difference": 10042,
      "felt": 10043,
      "pressure": 10044,
      "birth": 10045,
      "ult": 10046,
      "damage": 10047,
      "allowed": 10048,
      "activity": 10049,
      "sav": 10050,
      "wasn": 10051,
      "proced": 10052,
      "##mm": 10053,
      "Windows": 10054,
      "drug": 10055,
      "interview": 10056,
      "accom": 10057,
      "Dece": 10058,
      "basis": 10059,
      "regarding": 10060,
      "AN": 10061,
      "Port": 10062,
      "##lin": 10063,
      "stage": 10064,
      "advice": 10065,
      "nut": 10066,
      "##sequ": 10067,
      "##val": 10068,
      "##rupt": 10069,
      "##leg": 10070,
      "ideal": 10071,
      "Mor": 10072,
      "##de": 10073,
      "##gy": 10074,
      "Satur": 10075,
      "Other": 10076,
      "Techn": 10077,
      "vac": 10078,
      "political": 10079,
      "demand": 10080,
      "Cle": 10081,
      "moon": 10082,
      "region": 10083,
      "December": 10084,
      "##ovember": 10085,
      "acqu": 10086,
      "reviews": 10087,
      "##60": 10088,
      "frequ": 10089,
      "exerc": 10090,
      "http": 10091,
      "spot": 10092,
      "loved": 10093,
      "Ins": 10094,
      "System": 10095,
      "Post": 10096,
      "lots": 10097,
      "##ET": 10098,
      "##ager": 10099,
      "See": 10100,
      "##ses": 10101,
      "##inter": 10102,
      "delivery": 10103,
      "basic": 10104,
      "rates": 10105,
      "pool": 10106,
      "spent": 10107,
      "##rows": 10108,
      "outd": 10109,
      "##asc": 10110,
      "Mich": 10111,
      "feeling": 10112,
      "November": 10113,
      "guarant": 10114,
      "replace": 10115,
      "hosp": 10116,
      "hop": 10117,
      "owners": 10118,
      "La": 10119,
      "contain": 10120,
      "income": 10121,
      "##formation": 10122,
      "imag": 10123,
      "existing": 10124,
      "extrem": 10125,
      "fight": 10126,
      "blue": 10127,
      "subst": 10128,
      "independ": 10129,
      "Mod": 10130,
      "##iced": 10131,
      "contribut": 10132,
      "blood": 10133,
      "##inner": 10134,
      "##place": 10135,
      "Facebook": 10136,
      "##ford": 10137,
      "August": 10138,
      "##ida": 10139,
      "##sych": 10140,
      "aspect": 10141,
      "released": 10142,
      "hotel": 10143,
      "stuff": 10144,
      "adult": 10145,
      "apprec": 10146,
      "truly": 10147,
      "College": 10148,
      "offered": 10149,
      "##itter": 10150,
      "##het": 10151,
      "90": 10152,
      "IN": 10153,
      "comment": 10154,
      "spirit": 10155,
      "##ios": 10156,
      "Go": 10157,
      "afford": 10158,
      "appoint": 10159,
      "##attle": 10160,
      "##icks": 10161,
      "##ils": 10162,
      "adjust": 10163,
      "##ered": 10164,
      "weather": 10165,
      "enh": 10166,
      "stru": 10167,
      "experienced": 10168,
      "neigh": 10169,
      "response": 10170,
      "32": 10171,
      "Work": 10172,
      "corpor": 10173,
      "tried": 10174,
      "feet": 10175,
      "wedding": 10176,
      "trade": 10177,
      "effects": 10178,
      "message": 10179,
      "reduce": 10180,
      "ord": 10181,
      "transfer": 10182,
      "progress": 10183,
      "setting": 10184,
      "reflect": 10185,
      "heard": 10186,
      "devices": 10187,
      "##ube": 10188,
      "club": 10189,
      "Use": 10190,
      "sort": 10191,
      "European": 10192,
      "Make": 10193,
      "##30": 10194,
      "industr": 10195,
      "reported": 10196,
      "Op": 10197,
      "bur": 10198,
      "boy": 10199,
      "##band": 10200,
      "letter": 10201,
      "##LL": 10202,
      "##unt": 10203,
      "Ret": 10204,
      "useful": 10205,
      "pet": 10206,
      "church": 10207,
      "##antly": 10208,
      "responsible": 10209,
      "##encies": 10210,
      "patient": 10211,
      "liter": 10212,
      "express": 10213,
      "Japan": 10214,
      "files": 10215,
      "##pite": 10216,
      "gave": 10217,
      "meaning": 10218,
      "##ST": 10219,
      "##arily": 10220,
      "thank": 10221,
      "thanks": 10222,
      "gift": 10223,
      "##AP": 10224,
      "increasing": 10225,
      "culture": 10226,
      "Best": 10227,
      "##cks": 10228,
      "Market": 10229,
      "largest": 10230,
      "overall": 10231,
      "comfortable": 10232,
      "##ashion": 10233,
      "##my": 10234,
      "viol": 10235,
      "train": 10236,
      "rock": 10237,
      "numbers": 10238,
      "Saturday": 10239,
      "##cast": 10240,
      "##ara": 10241,
      "45": 10242,
      "Law": 10243,
      "cru": 10244,
      "ver": 10245,
      "##ruary": 10246,
      "highest": 10247,
      "##bon": 10248,
      "##ague": 10249,
      "movie": 10250,
      "##aught": 10251,
      "band": 10252,
      "##umn": 10253,
      "##ibrary": 10254,
      "Jesus": 10255,
      "Internet": 10256,
      "East": 10257,
      "##change": 10258,
      "mill": 10259,
      "stories": 10260,
      "jud": 10261,
      "Del": 10262,
      "Down": 10263,
      "##istry": 10264,
      "##unte": 10265,
      "##ancy": 10266,
      "February": 10267,
      "##oyal": 10268,
      "bottom": 10269,
      "efficient": 10270,
      "IT": 10271,
      "compon": 10272,
      "join": 10273,
      "##olf": 10274,
      "drop": 10275,
      "dep": 10276,
      "Ir": 10277,
      ".)": 10278,
      "Spr": 10279,
      "transport": 10280,
      "##roid": 10281,
      "played": 10282,
      "##oming": 10283,
      "instruct": 10284,
      "optim": 10285,
      "Oh": 10286,
      "shown": 10287,
      "beginning": 10288,
      "##raft": 10289,
      "suff": 10290,
      "Ang": 10291,
      "beyond": 10292,
      "Flor": 10293,
      "##anch": 10294,
      "thous": 10295,
      "##ancing": 10296,
      "Play": 10297,
      "associated": 10298,
      "initial": 10299,
      "##acing": 10300,
      "Although": 10301,
      "economic": 10302,
      "##dule": 10303,
      "##ING": 10304,
      "Sub": 10305,
      "nation": 10306,
      "accur": 10307,
      "sports": 10308,
      "ble": 10309,
      "absolut": 10310,
      "unit": 10311,
      "##hens": 10312,
      "Sl": 10313,
      "challenge": 10314,
      "##oul": 10315,
      "maybe": 10316,
      "produce": 10317,
      "coffee": 10318,
      "Today": 10319,
      "wid": 10320,
      "##ker": 10321,
      "cy": 10322,
      "annual": 10323,
      "craft": 10324,
      "owner": 10325,
      "##rapy": 10326,
      "brought": 10327,
      "##ronic": 10328,
      "item": 10329,
      "demon": 10330,
      "##oles": 10331,
      "Bec": 10332,
      "IS": 10333,
      "cards": 10334,
      "powerful": 10335,
      "White": 10336,
      "homes": 10337,
      "although": 10338,
      "finish": 10339,
      "particularly": 10340,
      "Canada": 10341,
      "emot": 10342,
      "appropriate": 10343,
      "##aint": 10344,
      "70": 10345,
      "son": 10346,
      "finally": 10347,
      "eyes": 10348,
      "double": 10349,
      "studies": 10350,
      "##estern": 10351,
      "##word": 10352,
      "aren": 10353,
      "served": 10354,
      "Board": 10355,
      "completed": 10356,
      "Super": 10357,
      "Find": 10358,
      "##pro": 10359,
      "protection": 10360,
      "thr": 10361,
      "Sch": 10362,
      "helping": 10363,
      "eval": 10364,
      "##iques": 10365,
      "##fr": 10366,
      "Yes": 10367,
      "straight": 10368,
      "THE": 10369,
      "Gold": 10370,
      "##vis": 10371,
      "strategy": 10372,
      "capital": 10373,
      "##dom": 10374,
      "##uk": 10375,
      "Check": 10376,
      "princ": 10377,
      "nearly": 10378,
      "sand": 10379,
      "established": 10380,
      "garden": 10381,
      "surface": 10382,
      "##add": 10383,
      "notice": 10384,
      "science": 10385,
      "Mac": 10386,
      "fore": 10387,
      "weekend": 10388,
      "selection": 10389,
      "immediately": 10390,
      "During": 10391,
      "Street": 10392,
      "reasons": 10393,
      "##vest": 10394,
      "exhib": 10395,
      "Because": 10396,
      "drink": 10397,
      "increased": 10398,
      "turned": 10399,
      "cab": 10400,
      "length": 10401,
      "##ously": 10402,
      "Mond": 10403,
      "doll": 10404,
      "Spe": 10405,
      "util": 10406,
      "electric": 10407,
      "star": 10408,
      "institut": 10409,
      "##zz": 10410,
      "collabor": 10411,
      "extremely": 10412,
      "Supp": 10413,
      "alone": 10414,
      "batter": 10415,
      "Green": 10416,
      "Association": 10417,
      "Sen": 10418,
      "##ban": 10419,
      "partner": 10420,
      "Develop": 10421,
      "disease": 10422,
      "methods": 10423,
      "measure": 10424,
      "knew": 10425,
      "window": 10426,
      "##itary": 10427,
      "sharing": 10428,
      "##imin": 10429,
      "##cl": 10430,
      "nursery": 10431,
      "Have": 10432,
      "##orks": 10433,
      "Hot": 10434,
      "dat": 10435,
      "##unk": 10436,
      "sweet": 10437,
      "##iling": 10438,
      "##undred": 10439,
      "PC": 10440,
      "fant": 10441,
      "dead": 10442,
      "confir": 10443,
      "changed": 10444,
      "und": 10445,
      "##yle": 10446,
      "grand": 10447,
      "lines": 10448,
      "##ologies": 10449,
      "Disc": 10450,
      "reve": 10451,
      "retail": 10452,
      "##atever": 10453,
      "Pal": 10454,
      "flav": 10455,
      "Micro": 10456,
      "##mitted": 10457,
      "Str": 10458,
      "II": 10459,
      "##atically": 10460,
      "models": 10461,
      "pieces": 10462,
      "ID": 10463,
      "estate": 10464,
      "background": 10465,
      "##phone": 10466,
      "##oly": 10467,
      "##ened": 10468,
      "##erved": 10469,
      "##porary": 10470,
      "Int": 10471,
      "rules": 10472,
      "Indian": 10473,
      "respond": 10474,
      "normal": 10475,
      "steps": 10476,
      "##acity": 10477,
      "clin": 10478,
      "furniture": 10479,
      "rent": 10480,
      "##icious": 10481,
      "##etic": 10482,
      "AP": 10483,
      "##che": 10484,
      "relax": 10485,
      "announced": 10486,
      "##oices": 10487,
      "##ault": 10488,
      "stream": 10489,
      "incred": 10490,
      "Wash": 10491,
      "##cul": 10492,
      "##istics": 10493,
      "requires": 10494,
      "Ob": 10495,
      "##pm": 10496,
      "evidence": 10497,
      "title": 10498,
      "Phil": 10499,
      "player": 10500,
      "states": 10501,
      "bedroom": 10502,
      "vote": 10503,
      "##enses": 10504,
      "##oos": 10505,
      "##xic": 10506,
      "saying": 10507,
      "##bum": 10508,
      "Call": 10509,
      "scient": 10510,
      "manage": 10511,
      "##overs": 10512,
[...]
