#version: 0.2
Ġ Ġ
ĠĠ ĠĠ
ĠĠĠĠ ĠĠĠĠ
ĠĠĠĠĠĠĠĠ ĠĠĠĠĠĠĠĠ
ĠĠĠĠĠĠĠĠĠĠĠĠĠĠĠĠ ĠĠĠĠĠĠĠĠĠĠĠĠĠĠĠĠ
e Ġ
ĠĠĠĠĠĠĠĠĠĠĠĠĠĠĠĠĠĠĠĠĠĠĠĠĠĠĠĠĠĠĠĠ ĠĠĠĠĠĠĠĠĠĠĠĠĠĠĠĠĠĠĠĠĠĠĠĠĠĠĠĠĠĠĠĠ
s Ġ
t h
i n
d Ġ
t Ġ
a n
ĠĠĠĠĠĠĠĠĠĠĠĠĠĠĠĠĠĠĠĠĠĠĠĠĠĠĠĠĠĠĠĠĠĠĠĠĠĠĠĠĠĠĠĠĠĠĠĠĠĠĠĠĠĠĠĠĠĠĠĠĠĠĠĠ ĠĠĠĠĠĠĠĠĠĠĠĠĠĠĠĠĠĠĠĠĠĠĠĠĠĠĠĠĠĠĠĠĠĠĠĠĠĠĠĠĠĠĠĠĠĠĠĠĠĠĠĠĠĠĠĠĠĠĠĠĠĠĠĠ
e r
o n
o r
y Ġ
e n
. Ġ
o u
, Ġ
th eĠ
o Ġ
a r
t i
a l
in g
r e
ĠĠĠĠĠĠĠĠĠĠĠĠĠĠĠĠĠĠĠĠĠĠĠĠĠĠĠĠĠĠĠĠĠĠĠĠĠĠĠĠĠĠĠĠĠĠĠĠĠĠĠĠĠĠĠĠĠĠĠĠĠĠĠĠĠĠĠĠĠĠĠĠĠĠĠĠĠĠĠĠĠĠĠĠĠĠĠĠĠĠĠĠĠĠĠĠĠĠĠĠĠĠĠĠĠĠĠĠĠĠĠĠĠĠĠĠĠĠĠĠĠĠĠĠĠĠĠĠ ĠĠĠĠĠĠĠĠĠĠĠĠĠĠĠĠĠĠĠĠĠĠĠĠĠĠĠĠĠĠĠĠĠĠĠĠĠĠĠĠĠĠĠĠĠĠĠĠĠĠĠĠĠĠĠĠĠĠĠĠĠĠĠĠĠĠĠĠĠĠĠĠĠĠĠĠĠĠĠĠĠĠĠĠĠĠĠĠĠĠĠĠĠĠĠĠĠĠĠĠĠĠĠĠĠĠĠĠĠĠĠĠĠĠĠĠĠĠĠĠĠĠĠĠĠĠĠĠ
an dĠ
ing Ġ
f Ġ
t oĠ
a Ġ
e dĠ
o fĠ
s t
o m
er Ġ
on Ġ
e s
a t
i c
or Ġ
i sĠ
in Ġ
e l
i t
i l
e sĠ
r o
a c
y ou
ĠĠĠĠĠĠĠĠĠĠĠĠĠĠĠĠĠĠĠĠĠĠĠĠĠĠĠĠĠĠĠĠĠĠĠĠĠĠĠĠĠĠĠĠĠĠĠĠĠĠĠĠĠĠĠĠĠĠĠĠĠĠĠĠĠĠĠĠĠĠĠĠĠĠĠĠĠĠĠĠĠĠĠĠĠĠĠĠĠĠĠĠĠĠĠĠĠĠĠĠĠĠĠĠĠĠĠĠĠĠĠĠĠĠĠĠĠĠĠĠĠĠĠĠĠĠĠĠĠĠĠĠĠĠĠĠĠĠĠĠĠĠĠĠĠĠĠĠĠĠĠĠĠĠĠĠĠĠĠĠĠĠĠĠĠĠĠĠĠĠĠĠĠĠĠĠĠĠĠĠĠĠĠĠĠĠĠĠĠĠĠĠĠĠĠĠĠĠĠĠĠĠĠĠĠĠĠĠĠĠĠĠĠĠĠĠĠĠĠĠĠĠĠĠĠĠĠĠĠĠĠĠĠĠĠĠĠĠĠĠĠĠĠĠĠĠĠĠĠĠĠĠĠĠĠĠ ĠĠĠĠĠĠĠĠĠĠĠĠĠĠĠĠĠĠĠĠĠĠĠĠĠĠĠĠĠĠĠĠĠĠĠĠĠĠĠĠĠĠĠĠĠĠĠĠĠĠĠĠĠĠĠĠĠĠĠĠĠĠĠĠĠĠĠĠĠĠĠĠĠĠĠĠĠĠĠĠĠĠĠĠĠĠĠĠĠĠĠĠĠĠĠĠĠĠĠĠĠĠĠĠĠĠĠĠĠĠĠĠĠĠĠĠĠĠĠĠĠĠĠĠĠĠĠĠĠĠĠĠĠĠĠĠĠĠĠĠĠĠĠĠĠĠĠĠĠĠĠĠĠĠĠĠĠĠĠĠĠĠĠĠĠĠĠĠĠĠĠĠĠĠĠĠĠĠĠĠĠĠĠĠĠĠĠĠĠĠĠĠĠĠĠĠĠĠĠĠĠĠĠĠĠĠĠĠĠĠĠĠĠĠĠĠĠĠĠĠĠĠĠĠĠĠĠĠĠĠĠĠĠĠĠĠĠĠĠĠĠĠĠĠĠĠĠĠĠĠĠĠĠĠĠĠ
a tĠ
l Ġ
e c
a s
r Ġ
i s
al Ġ
a ti
an Ġ
a sĠ
o w
c h
th Ġ
p l
v eĠ
T h
u s
f orĠ
â Ģ
w i
a m
u r
e m
o l
i g
e t
a d
en Ġ
k Ġ
a b
i d
w h
en t
p ro
u n
l yĠ
you Ġ
wi thĠ
h Ġ
th atĠ
e d
.Ġ Th
a g
o s
e v
c om
en tĠ
h a
o o
ar eĠ
c on
l i
p Ġ
l eĠ
ĠĠĠĠĠĠĠĠĠĠĠĠĠĠĠĠĠĠĠĠĠĠĠĠĠĠĠĠĠĠĠĠĠĠĠĠĠĠĠĠĠĠĠĠĠĠĠĠĠĠĠĠĠĠĠĠĠĠĠĠĠĠĠĠĠĠĠĠĠĠĠĠĠĠĠĠĠĠĠĠĠĠĠĠĠĠĠĠĠĠĠĠĠĠĠĠĠĠĠĠĠĠĠĠĠĠĠĠĠĠĠĠĠĠĠĠĠĠĠĠĠĠĠĠĠĠĠĠĠĠĠĠĠĠĠĠĠĠĠĠĠĠĠĠĠĠĠĠĠĠĠĠĠĠĠĠĠĠĠĠĠĠĠĠĠĠĠĠĠĠĠĠĠĠĠĠĠĠĠĠĠĠĠĠĠĠĠĠĠĠĠĠĠĠĠĠĠĠĠĠĠĠĠĠĠĠĠĠĠĠĠĠĠĠĠĠĠĠĠĠĠĠĠĠĠĠĠĠĠĠĠĠĠĠĠĠĠĠĠĠĠĠĠĠĠĠĠĠĠĠĠĠĠĠĠĠĠĠĠĠĠĠĠĠĠĠĠĠĠĠĠĠĠĠĠĠĠĠĠĠĠĠĠĠĠĠĠĠĠĠĠĠĠĠĠĠĠĠĠĠĠĠĠĠĠĠĠĠĠĠĠĠĠĠĠĠĠĠĠĠĠĠĠĠĠĠĠĠĠĠĠĠĠĠĠĠĠĠĠĠĠĠĠĠĠĠĠĠĠĠĠĠĠĠĠĠĠĠĠĠĠĠĠĠĠĠĠĠĠĠĠĠĠĠĠĠĠĠĠĠĠĠĠĠĠĠĠĠĠĠĠĠĠĠĠĠĠĠĠĠĠĠĠĠĠĠĠĠĠĠĠĠĠĠĠĠĠĠĠĠĠĠĠĠĠĠĠĠĠĠĠĠĠĠĠĠĠĠĠĠĠĠĠĠĠĠĠĠĠĠĠĠĠĠĠĠĠĠĠĠĠĠĠĠĠĠĠĠĠĠĠĠĠĠĠĠĠĠĠĠĠĠĠĠĠĠĠĠĠĠĠĠĠĠĠĠĠĠĠĠĠĠĠĠĠĠĠĠĠĠĠĠ ĠĠĠĠĠĠĠĠĠĠĠĠĠĠĠĠĠĠĠĠĠĠĠĠĠĠĠĠĠĠĠĠĠĠĠĠĠĠĠĠĠĠĠĠĠĠĠĠĠĠĠĠĠĠĠĠĠĠĠĠĠĠĠĠĠĠĠĠĠĠĠĠĠĠĠĠĠĠĠĠĠĠĠĠĠĠĠĠĠĠĠĠĠĠĠĠĠĠĠĠĠĠĠĠĠĠĠĠĠĠĠĠĠĠĠĠĠĠĠĠĠĠĠĠĠĠĠĠĠĠĠĠĠĠĠĠĠĠĠĠĠĠĠĠĠĠĠĠĠĠĠĠĠĠĠĠĠĠĠĠĠĠĠĠĠĠĠĠĠĠĠĠĠĠĠĠĠĠĠĠĠĠĠĠĠĠĠĠĠĠĠĠĠĠĠĠĠĠĠĠĠĠĠĠĠĠĠĠĠĠĠĠĠĠĠĠĠĠĠĠĠĠĠĠĠĠĠĠĠĠĠĠĠĠĠĠĠĠĠĠĠĠĠĠĠĠĠĠĠĠĠĠĠĠĠĠĠĠĠĠĠĠĠĠĠĠĠĠĠĠĠĠĠĠĠĠĠĠĠĠĠĠĠĠĠĠĠĠĠĠĠĠĠĠĠĠĠĠĠĠĠĠĠĠĠĠĠĠĠĠĠĠĠĠĠĠĠĠĠĠĠĠĠĠĠĠĠĠĠĠĠĠĠĠĠĠĠĠĠĠĠĠĠĠĠĠĠĠĠĠĠĠĠĠĠĠĠĠĠĠĠĠĠĠĠĠĠĠĠĠĠĠĠĠĠĠĠĠĠĠĠĠĠĠĠĠĠĠĠĠĠĠĠĠĠĠĠĠĠĠĠĠĠĠĠĠĠĠĠĠĠĠĠĠĠĠĠĠĠĠĠĠĠĠĠĠĠĠĠĠĠĠĠĠĠĠĠĠĠĠĠĠĠĠĠĠĠĠĠĠĠĠĠĠĠĠĠĠĠĠĠĠĠĠĠĠĠĠĠĠĠĠĠĠĠĠĠĠĠĠĠĠĠĠĠĠĠĠĠĠĠĠĠĠĠĠĠĠĠĠĠĠĠĠĠĠĠĠĠĠĠĠ
t r
l e
s u
s ,Ġ
s h
s i
e x
âĢ Ļ
b eĠ
e ,Ġ
i tĠ
.Ġ I
f or
n Ġ
you rĠ
f r
d i
p er
a yĠ
a k
ofĠ theĠ
a p
s p
q u
c eĠ
ati on
i r
u l
om Ġ
ati onĠ
e w
v er
th e
i m
ig h
l o
ou n
a y
b e
.ĠTh eĠ
s .Ġ
" "
e ar
sĠ andĠ
n o
t er
ow Ġ
ti on
e .Ġ
o p
e tĠ
ha veĠ
r i
Ġ <
s >
f f
w or
il lĠ
u m
inĠ theĠ
I Ġ
b yĠ
re s
at eĠ
ou tĠ
er eĠ
al lĠ
b u
c anĠ
c l
w illĠ
s oĠ
fr omĠ
ti onĠ
th isĠ
g r
on eĠ
l dĠ
er sĠ
t sĠ
an d
u c
t o
a in
ch Ġ
ti m
it yĠ
ou rĠ
âĢĻ sĠ
st r
Ġ andĠ
p ar
no tĠ
i rĠ
w asĠ
an yĠ
w e
ou ldĠ
th erĠ
al l
o c
ou r
a v
y ,Ġ
ew Ġ
edĠ toĠ
p or
en d
ab leĠ
for m
ti c
Ġ< /
s e
s> Ġ
c o
2 0
d e
eĠ toĠ
.Ġ A
u d
p r
h asĠ
m o
ou g
es ,Ġ
or eĠ
al lyĠ
u t
ic Ġ
b l
w eĠ
ĠĠĠĠĠĠĠĠĠĠĠĠĠĠĠĠĠĠĠĠĠĠĠĠĠĠĠĠĠĠĠĠĠĠĠĠĠĠĠĠĠĠĠĠĠĠĠĠĠĠĠĠĠĠĠĠĠĠĠĠĠĠĠĠĠĠĠĠĠĠĠĠĠĠĠĠĠĠĠĠĠĠĠĠĠĠĠĠĠĠĠĠĠĠĠĠĠĠĠĠĠĠĠĠĠĠĠĠĠĠĠĠĠĠĠĠĠĠĠĠĠĠĠĠĠĠĠĠĠĠĠĠĠĠĠĠĠĠĠĠĠĠĠĠĠĠĠĠĠĠĠĠĠĠĠĠĠĠĠĠĠĠĠĠĠĠĠĠĠĠĠĠĠĠĠĠĠĠĠĠĠĠĠĠĠĠĠĠĠĠĠĠĠĠĠĠĠĠĠĠĠĠĠĠĠĠĠĠĠĠĠĠĠĠĠĠĠĠĠĠĠĠĠĠĠĠĠĠĠĠĠĠĠĠĠĠĠĠĠĠĠĠĠĠĠĠĠĠĠĠĠĠĠĠĠĠĠĠĠĠĠĠĠĠĠĠĠĠĠĠĠĠĠĠĠĠĠĠĠĠĠĠĠĠĠĠĠĠĠĠĠĠĠĠĠĠĠĠĠĠĠĠĠĠĠĠĠĠĠĠĠĠĠĠĠĠĠĠĠĠĠĠĠĠĠĠĠĠĠĠĠĠĠĠĠĠĠĠĠĠĠĠĠĠĠĠĠĠĠĠĠĠĠĠĠĠĠĠĠĠĠĠĠĠĠĠĠĠĠĠĠĠĠĠĠĠĠĠĠĠĠĠĠĠĠĠĠĠĠĠĠĠĠĠĠĠĠĠĠĠĠĠĠĠĠĠĠĠĠĠĠĠĠĠĠĠĠĠĠĠĠĠĠĠĠĠĠĠĠĠĠĠĠĠĠĠĠĠĠĠĠĠĠĠĠĠĠĠĠĠĠĠĠĠĠĠĠĠĠĠĠĠĠĠĠĠĠĠĠĠĠĠĠĠĠĠĠĠĠĠĠĠĠĠĠĠĠĠĠĠĠĠĠĠĠĠĠĠĠĠĠĠĠĠĠĠĠĠĠĠĠĠĠĠĠĠĠĠĠĠĠĠĠĠĠĠĠĠĠĠĠĠĠĠĠĠĠĠĠĠĠĠĠĠĠĠĠĠĠĠĠĠĠĠĠĠĠĠĠĠĠĠĠĠĠĠĠĠĠĠĠĠĠĠĠĠĠĠĠĠĠĠĠĠĠĠĠĠĠĠĠĠĠĠĠĠĠĠĠĠĠĠĠĠĠĠĠĠĠĠĠĠĠĠĠĠĠĠĠĠĠĠĠĠĠĠĠĠĠĠĠĠĠĠĠĠĠĠĠĠĠĠĠĠĠĠĠĠĠĠĠĠĠĠĠĠĠĠĠĠĠĠĠĠĠĠĠĠĠĠĠĠĠĠĠĠĠĠĠĠĠĠĠĠĠĠĠĠĠĠĠĠĠĠĠĠĠĠĠĠĠĠĠĠĠĠĠĠĠĠĠĠĠĠĠĠĠĠĠĠĠĠĠĠĠĠĠĠĠĠĠĠĠĠĠĠĠĠĠĠĠĠĠĠĠĠĠĠĠĠĠĠĠĠĠĠĠĠĠĠĠĠĠĠĠĠĠĠĠĠĠĠĠĠĠĠĠĠĠĠĠĠĠĠĠĠĠĠĠĠĠĠĠĠĠĠĠĠĠĠĠĠĠĠĠĠĠĠĠĠĠĠĠĠĠĠĠĠĠĠĠĠĠĠĠĠĠĠĠĠĠĠĠĠĠĠĠĠĠĠĠĠĠĠĠĠĠĠĠĠĠĠĠĠĠĠĠĠĠĠĠĠĠĠĠĠĠĠĠĠĠĠĠĠĠĠĠĠĠĠĠĠĠĠĠĠĠĠĠĠĠĠĠĠĠĠĠĠĠĠĠĠĠĠĠĠĠĠĠĠĠĠĠĠĠĠĠĠĠĠĠĠĠĠĠĠĠĠĠĠĠĠĠĠĠĠĠĠĠĠĠĠĠĠĠĠĠĠĠĠĠĠĠĠĠĠĠĠĠĠĠĠĠĠĠĠĠĠĠĠĠĠĠĠĠĠĠĠĠĠĠĠĠĠĠĠĠĠĠĠĠĠĠĠĠĠĠĠĠĠĠĠĠĠĠĠĠĠĠĠĠĠĠĠĠĠĠĠĠĠĠĠĠĠ ĠĠĠĠĠĠĠĠĠĠĠĠĠĠĠĠĠĠĠĠĠĠĠĠĠĠĠĠĠĠĠĠĠĠĠĠĠĠĠĠĠĠĠĠĠĠĠĠĠĠĠĠĠĠĠĠĠĠĠĠĠĠĠĠĠĠĠĠĠĠĠĠĠĠĠĠĠĠĠĠĠĠĠĠĠĠĠĠĠĠĠĠĠĠĠĠĠĠĠĠĠĠĠĠĠĠĠĠĠĠĠĠĠĠĠĠĠĠĠĠĠĠĠĠĠĠĠĠĠĠĠĠĠĠĠĠĠĠĠĠĠĠĠĠĠĠĠĠĠĠĠĠĠĠĠĠĠĠĠĠĠĠĠĠĠĠĠĠĠĠĠĠĠĠĠĠĠĠĠĠĠĠĠĠĠĠĠĠĠĠĠĠĠĠĠĠĠĠĠĠĠĠĠĠĠĠĠĠĠĠĠĠĠĠĠĠĠĠĠĠĠĠĠĠĠĠĠĠĠĠĠĠĠĠĠĠĠĠĠĠĠĠĠĠĠĠĠĠĠĠĠĠĠĠĠĠĠĠĠĠĠĠĠĠĠĠĠĠĠĠĠĠĠĠĠĠĠĠĠĠĠĠĠĠĠĠĠĠĠĠĠĠĠĠĠĠĠĠĠĠĠĠĠĠĠĠĠĠĠĠĠĠĠĠĠĠĠĠĠĠĠĠĠĠĠĠĠĠĠĠĠĠĠĠĠĠĠĠĠĠĠĠĠĠĠĠĠĠĠĠĠĠĠĠĠĠĠĠĠĠĠĠĠĠĠĠĠĠĠĠĠĠĠĠĠĠĠĠĠĠĠĠĠĠĠĠĠĠĠĠĠĠĠĠĠĠĠĠĠĠĠĠĠĠĠĠĠĠĠĠĠĠĠĠĠĠĠĠĠĠĠĠĠĠĠĠĠĠĠĠĠĠĠĠĠĠĠĠĠĠĠĠĠĠĠĠĠĠĠĠĠĠĠĠĠĠĠĠĠĠĠĠĠĠĠĠĠĠĠĠĠĠĠĠĠĠĠĠĠĠĠĠĠĠĠĠĠĠĠĠĠĠĠĠĠĠĠĠĠĠĠĠĠĠĠĠĠĠĠĠĠĠĠĠĠĠĠĠĠĠĠĠĠĠĠĠĠĠĠĠĠĠĠĠĠĠĠĠĠĠĠĠĠĠĠĠĠĠĠĠĠĠĠĠĠĠĠĠĠĠĠĠĠĠĠĠĠĠĠĠĠĠĠĠĠĠĠĠĠĠĠĠĠĠĠĠĠĠĠĠĠĠĠĠĠĠĠĠĠĠĠĠĠĠĠĠĠĠĠĠĠĠĠĠĠĠĠĠĠĠĠĠĠĠĠĠĠĠĠĠĠĠĠĠĠĠĠĠĠĠĠĠĠĠĠĠĠĠĠĠĠĠĠĠĠĠĠĠĠĠĠĠĠĠĠĠĠĠĠĠĠĠĠĠĠĠĠĠĠĠĠĠĠĠĠĠĠĠĠĠĠĠĠĠĠĠĠĠĠĠĠĠĠĠĠĠĠĠĠĠĠĠĠĠĠĠĠĠĠĠĠĠĠĠĠĠĠĠĠĠĠĠĠĠĠĠĠĠĠĠĠĠĠĠĠĠĠĠĠĠĠĠĠĠĠĠĠĠĠĠĠĠĠĠĠĠĠĠĠĠĠĠĠĠĠĠĠĠĠĠĠĠĠĠĠĠĠĠĠĠĠĠĠĠĠĠĠĠĠĠĠĠĠĠĠĠĠĠĠĠĠĠĠĠĠĠĠĠĠĠĠĠĠĠĠĠĠĠĠĠĠĠĠĠĠĠĠĠĠĠĠĠĠĠĠĠĠĠĠĠĠĠĠĠĠĠĠĠĠĠĠĠĠĠĠĠĠĠĠĠĠĠĠĠĠĠĠĠĠĠĠĠĠĠĠĠĠĠĠĠĠĠĠĠĠĠĠĠĠĠĠĠĠĠĠĠĠĠĠĠĠĠĠĠĠĠĠĠĠĠĠĠĠĠĠĠĠĠĠĠĠĠĠĠĠĠĠĠĠĠĠĠĠĠĠĠĠĠĠĠĠĠĠĠĠĠĠĠĠĠĠĠĠĠĠĠĠĠĠĠĠĠĠĠĠĠĠĠĠĠĠĠĠĠĠĠĠĠĠĠĠĠĠĠĠĠĠĠĠĠĠĠĠĠĠĠĠĠĠĠĠĠĠĠĠĠĠĠĠĠĠĠĠĠ
es tĠ
n e
a il
eĠ ofĠ
: Ġ
! Ġ
the irĠ
ak eĠ
es sĠ
re c
' sĠ
v i
an tĠ
h e
v id
.Ġ W
,Ġ andĠ
ar Ġ
igh tĠ
an g
toĠ theĠ
t e
ingĠ theĠ
es s
om eĠ
b o
t erĠ
con t
p e
onĠ theĠ
er v
on g
eĠ andĠ
os tĠ
sĠ ofĠ
ar d
g i
en c
in d
bu tĠ
us tĠ
ic hĠ
? Ġ
ev er
ec t
m oreĠ
c re
m e
ur eĠ
at edĠ
in eĠ
e st
d uc
d is
el l
u pĠ
a dĠ
p os
.Ġ S
a f
ag eĠ
sĠ toĠ
h el
e p
al soĠ
forĠ theĠ
el Ġ
wh ichĠ
com m
p o
) Ġ
I n
a w
b r
u re
am Ġ
th er
li k
p re
the yĠ
un d
p h
g o
ab outĠ
f in
m Ġ
f e
m yĠ
an ceĠ
esĠ andĠ
t ingĠ
oug hĠ
v erĠ
ent sĠ
Y ou
us eĠ
it sĠ
en ceĠ
m entĠ
d o
l lĠ
o f
y ear
k ingĠ
u sĠ
com p
an c
a inĠ
C h
. .
oo dĠ
th em
s tĠ
pl eĠ
as s
it eĠ
el yĠ
a st
i fĠ
edĠ byĠ
i dĠ
k n
in ter
m ar
o therĠ
wh oĠ
ow nĠ
i z
f i
ic eĠ
ac c
isĠ aĠ
g etĠ
a u
s el
s erv
t yĠ
A n
20 1
o ff
Ġ ""
ou sĠ
i p
g re
or d
ig n
ac k
i alĠ
1 9
il l
.ĠI Ġ
en s
You Ġ
m an
f ir
m in
ol l
" <
> "
h eĠ
u p
withĠ theĠ
pro vid
Th eĠ
Ġ< s>Ġ
in cl
am eĠ
por t
e as
A Ġ
s c
tĠ ofĠ
an t
il eĠ
w ouldĠ
oun dĠ
.ĠTh isĠ
ar yĠ
ac t
âĢ ľ
âĢ Ŀ
wor kĠ
be enĠ
h erĠ
ac kĠ
j ustĠ
os eĠ
d es
k sĠ
pro duc
m ayĠ
es eĠ
d r
f l
atĠ theĠ
sp ec
in t
i ti
ingĠ toĠ
.Ġ B
p res
wh enĠ
ro w
,Ġ theĠ
S t
as tĠ
incl ud
o b
o t
s id
lo c
t w
ac h
n ewĠ
u st
ac hĠ
l oo
ar dĠ
d ay
m ostĠ
i st
ou t
d ev
aĠ s
lik eĠ
el lĠ
0 0
m akeĠ
r eĠ
ic alĠ
f ul
g eĠ
ec tĠ
th r
m on
v e
th anĠ
ou s
ex per
tim eĠ
b erĠ
si on
p u
ĠĠĠĠĠĠĠĠĠĠĠĠĠĠĠĠĠĠĠĠĠĠĠĠĠĠĠĠĠĠĠĠĠĠĠĠĠĠĠĠĠĠĠĠĠĠĠĠĠĠĠĠĠĠĠĠĠĠĠĠĠĠĠĠĠĠĠĠĠĠĠĠĠĠĠĠĠĠĠĠĠĠĠĠĠĠĠĠĠĠĠĠĠĠĠĠĠĠĠĠĠĠĠĠĠĠĠĠĠĠĠĠĠĠĠĠĠĠĠĠĠĠĠĠĠĠĠĠĠĠĠĠĠĠĠĠĠĠĠĠĠĠĠĠĠĠĠĠĠĠĠĠĠĠĠĠĠĠĠĠĠĠĠĠĠĠĠĠĠĠĠĠĠĠĠĠĠĠĠĠĠĠĠĠĠĠĠĠĠĠĠĠĠĠĠĠĠĠĠĠĠĠĠĠĠĠĠĠĠĠĠĠĠĠĠĠĠĠĠĠĠĠĠĠĠĠĠĠĠĠĠĠĠĠĠĠĠĠĠĠĠĠĠĠĠĠĠĠĠĠĠĠĠĠĠĠĠĠĠĠĠĠĠĠĠĠĠĠĠĠĠĠĠĠĠĠĠĠĠĠĠĠĠĠĠĠĠĠĠĠĠĠĠĠĠĠĠĠĠĠĠĠĠĠĠĠĠĠĠĠĠĠĠĠĠĠĠĠĠĠĠĠĠĠĠĠĠĠĠĠĠĠĠĠĠĠĠĠĠĠĠĠĠĠĠĠĠĠĠĠĠĠĠĠĠĠĠĠĠĠĠĠĠĠĠĠĠĠĠĠĠĠĠĠĠĠĠĠĠĠĠĠĠĠĠĠĠĠĠĠĠĠĠĠĠĠĠĠĠĠĠĠĠĠĠĠĠĠĠĠĠĠĠĠĠĠĠĠĠĠĠĠĠĠĠĠĠĠĠĠĠĠĠĠĠĠĠĠĠĠĠĠĠĠĠĠĠĠĠĠĠĠĠĠĠĠĠĠĠĠĠĠĠĠĠĠĠĠĠĠĠĠĠĠĠĠĠĠĠĠĠĠĠĠĠĠĠĠĠĠĠĠĠĠĠĠĠĠĠĠĠĠĠĠĠĠĠĠĠĠĠĠĠĠĠĠĠĠĠĠĠĠĠĠĠĠĠĠĠĠĠĠĠĠĠĠĠĠĠĠĠĠĠĠĠĠĠĠĠĠĠĠĠĠĠĠĠĠĠĠĠĠĠĠĠĠĠĠĠĠĠĠĠĠĠĠĠĠĠĠĠĠĠĠĠĠĠĠĠĠĠĠĠĠĠĠĠĠĠĠĠĠĠĠĠĠĠĠĠĠĠĠĠĠĠĠĠĠĠĠĠĠĠĠĠĠĠĠĠĠĠĠĠĠĠĠĠĠĠĠĠĠĠĠĠĠĠĠĠĠĠĠĠĠĠĠĠĠĠĠĠĠĠĠĠĠĠĠĠĠĠĠĠĠĠĠĠĠĠĠĠĠĠĠĠĠĠĠĠĠĠĠĠĠĠĠĠĠĠĠĠĠĠĠĠĠĠĠĠĠĠĠĠĠĠĠĠĠĠĠĠĠĠĠĠĠĠĠĠĠĠĠĠĠĠĠĠĠĠĠĠĠĠĠĠĠĠĠĠĠĠĠĠĠĠĠĠĠĠĠĠĠĠĠĠĠĠĠĠĠĠĠĠĠĠĠĠĠĠĠĠĠĠĠĠĠĠĠĠĠĠĠĠĠĠĠĠĠĠĠĠĠĠĠĠĠĠĠĠĠĠĠĠĠĠĠĠĠĠĠĠĠĠĠĠĠĠĠĠĠĠĠĠĠĠĠĠĠĠĠĠĠĠĠĠĠĠĠĠĠĠĠĠĠĠĠĠĠĠĠĠĠĠĠĠĠĠĠĠĠĠĠĠĠĠĠĠĠĠĠĠĠĠĠĠĠĠĠĠĠĠĠĠĠĠĠĠĠĠĠĠĠĠĠĠĠĠĠĠĠĠĠĠĠĠĠĠĠĠĠĠĠĠĠĠĠĠĠĠĠĠĠĠĠĠĠĠĠĠĠĠĠĠĠĠĠĠĠĠĠĠĠĠĠĠĠĠĠĠĠĠĠĠĠĠĠĠĠĠĠĠĠĠĠĠĠĠĠĠĠĠĠĠĠĠĠĠĠĠĠĠĠĠĠĠĠĠĠĠĠĠĠĠĠĠĠĠĠĠĠĠĠĠĠĠĠĠĠĠĠĠĠĠĠĠĠĠĠĠĠĠĠĠĠĠĠĠĠĠĠĠĠĠĠĠĠĠĠĠĠĠĠĠĠĠĠĠĠĠĠĠĠĠĠĠĠĠĠĠĠĠĠĠĠĠĠĠĠĠĠĠĠĠĠĠĠĠĠĠĠĠĠĠĠĠĠĠĠĠĠĠĠĠĠĠĠĠĠĠĠĠĠĠĠĠĠĠĠĠĠĠĠĠĠĠĠĠĠĠĠĠĠĠĠĠĠĠĠĠĠĠĠĠĠĠĠĠĠĠĠĠĠĠĠĠĠĠĠĠĠĠĠĠĠĠĠĠĠĠĠĠĠĠĠĠĠĠĠĠĠĠĠĠĠĠĠĠĠĠĠĠĠĠĠĠĠĠĠĠĠĠĠĠĠĠĠĠĠĠĠĠĠĠĠĠĠĠĠĠĠĠĠĠĠĠĠĠĠĠĠĠĠĠĠĠĠĠĠĠĠĠĠĠĠĠĠĠĠĠĠĠĠĠĠĠĠĠĠĠĠĠĠĠĠĠĠĠĠĠĠĠĠĠĠĠĠĠĠĠĠĠĠĠĠĠĠĠĠĠĠĠĠĠĠĠĠĠĠĠĠĠĠĠĠĠĠĠĠĠĠĠĠĠĠĠĠĠĠĠĠĠĠĠĠĠĠĠĠĠĠĠĠĠĠĠĠĠĠĠĠĠĠĠĠĠĠĠĠĠĠĠĠĠĠĠĠĠĠĠĠĠĠĠĠĠĠĠĠĠĠĠĠĠĠĠĠĠĠĠĠĠĠĠĠĠĠĠĠĠĠĠĠĠĠĠĠĠĠĠĠĠĠĠĠĠĠĠĠĠĠĠĠĠĠĠĠĠĠĠĠĠĠĠĠĠĠĠĠĠĠĠĠĠĠĠĠĠĠĠĠĠĠĠĠĠĠĠĠĠĠĠĠĠĠĠĠĠĠĠĠĠĠĠĠĠĠĠĠĠĠĠĠĠĠĠĠĠĠĠĠĠĠĠĠĠĠĠĠĠĠĠĠĠĠĠĠĠĠĠĠĠĠĠĠĠĠĠĠĠĠĠĠĠĠĠĠĠĠĠĠĠĠĠĠĠĠĠĠĠĠĠĠĠĠĠĠĠĠĠĠĠĠĠĠĠĠĠĠĠĠĠĠĠĠĠĠĠĠĠĠĠĠĠĠĠĠĠĠĠĠĠĠĠĠĠĠĠĠĠĠĠĠĠĠĠĠĠĠĠĠĠĠĠĠĠĠĠĠĠĠĠĠĠĠĠĠĠĠĠĠĠĠĠĠĠĠĠĠĠĠĠĠĠĠĠĠĠĠĠĠĠĠĠĠĠĠĠĠĠĠĠĠĠĠĠĠĠĠĠĠĠĠĠĠĠĠĠĠĠĠĠĠĠĠĠĠĠĠĠĠĠĠĠĠĠĠĠĠĠĠĠĠĠĠĠĠĠĠĠĠĠĠĠĠĠĠĠĠĠĠĠĠĠĠĠĠĠĠĠĠĠĠĠĠĠĠĠĠĠĠĠĠĠĠĠĠĠĠĠĠĠĠĠĠĠĠĠĠĠĠĠĠĠĠĠĠĠĠĠĠĠĠĠĠĠĠĠĠĠĠĠĠĠĠĠĠĠĠĠĠĠĠĠĠĠĠĠĠĠĠĠĠĠĠĠĠĠĠĠĠĠĠĠĠĠĠĠĠĠĠĠĠĠĠĠĠĠĠĠĠĠĠĠĠĠĠĠĠĠĠĠĠĠĠĠĠĠĠĠĠĠĠĠĠĠĠĠĠĠĠĠĠĠĠĠĠĠĠĠĠĠĠĠĠĠĠĠĠĠĠĠĠĠĠĠĠĠĠĠĠĠĠĠĠĠĠĠĠĠĠĠĠĠĠĠĠĠĠĠĠĠĠĠĠĠĠĠĠĠĠĠĠĠĠĠĠĠĠĠĠĠĠĠĠĠĠĠĠĠĠĠĠĠĠĠĠĠĠĠĠĠĠĠĠĠĠĠĠĠĠĠĠĠĠĠĠĠĠĠĠĠĠĠĠĠĠĠĠĠĠĠĠĠĠĠĠĠĠĠĠĠĠĠĠĠĠĠĠĠĠĠĠĠĠĠĠĠĠĠĠĠĠĠĠĠĠĠĠĠĠĠĠĠĠĠĠĠĠĠĠĠĠĠĠĠĠĠĠĠĠĠĠĠĠĠĠĠĠĠĠĠĠĠĠĠĠĠĠĠĠĠĠĠĠĠĠĠĠ ĠĠĠĠĠĠĠĠĠĠĠĠĠĠĠĠĠĠĠĠĠĠĠĠĠĠĠĠĠĠĠĠĠĠĠĠĠĠĠĠĠĠĠĠĠĠĠĠĠĠĠĠĠĠĠĠĠĠĠĠĠĠĠĠĠĠĠĠĠĠĠĠĠĠĠĠĠĠĠĠĠĠĠĠĠĠĠĠĠĠĠĠĠĠĠĠĠĠĠĠĠĠĠĠĠĠĠĠĠĠĠĠĠĠĠĠĠĠĠĠĠĠĠĠĠĠĠĠĠĠĠĠĠĠĠĠĠĠĠĠĠĠĠĠĠĠĠĠĠĠĠĠĠĠĠĠĠĠĠĠĠĠĠĠĠĠĠĠĠĠĠĠĠĠĠĠĠĠĠĠĠĠĠĠĠĠĠĠĠĠĠĠĠĠĠĠĠĠĠĠĠĠĠĠĠĠĠĠĠĠĠĠĠĠĠĠĠĠĠĠĠĠĠĠĠĠĠĠĠĠĠĠĠĠĠĠĠĠĠĠĠĠĠĠĠĠĠĠĠĠĠĠĠĠĠĠĠĠĠĠĠĠĠĠĠĠĠĠĠĠĠĠĠĠĠĠĠĠĠĠĠĠĠĠĠĠĠĠĠĠĠĠĠĠĠĠĠĠĠĠĠĠĠĠĠĠĠĠĠĠĠĠĠĠĠĠĠĠĠĠĠĠĠĠĠĠĠĠĠĠĠĠĠĠĠĠĠĠĠĠĠĠĠĠĠĠĠĠĠĠĠĠĠĠĠĠĠĠĠĠĠĠĠĠĠĠĠĠĠĠĠĠĠĠĠĠĠĠĠĠĠĠĠĠĠĠĠĠĠĠĠĠĠĠĠĠĠĠĠĠĠĠĠĠĠĠĠĠĠĠĠĠĠĠĠĠĠĠĠĠĠĠĠĠĠĠĠĠĠĠĠĠĠĠĠĠĠĠĠĠĠĠĠĠĠĠĠĠĠĠĠĠĠĠĠĠĠĠĠĠĠĠĠĠĠĠĠĠĠĠĠĠĠĠĠĠĠĠĠĠĠĠĠĠĠĠĠĠĠĠĠĠĠĠĠĠĠĠĠĠĠĠĠĠĠĠĠĠĠĠĠĠĠĠĠĠĠĠĠĠĠĠĠĠĠĠĠĠĠĠĠĠĠĠĠĠĠĠĠĠĠĠĠĠĠĠĠĠĠĠĠĠĠĠĠĠĠĠĠĠĠĠĠĠĠĠĠĠĠĠĠĠĠĠĠĠĠĠĠĠĠĠĠĠĠĠĠĠĠĠĠĠĠĠĠĠĠĠĠĠĠĠĠĠĠĠĠĠĠĠĠĠĠĠĠĠĠĠĠĠĠĠĠĠĠĠĠĠĠĠĠĠĠĠĠĠĠĠĠĠĠĠĠĠĠĠĠĠĠĠĠĠĠĠĠĠĠĠĠĠĠĠĠĠĠĠĠĠĠĠĠĠĠĠĠĠĠĠĠĠĠĠĠĠĠĠĠĠĠĠĠĠĠĠĠĠĠĠĠĠĠĠĠĠĠĠĠĠĠĠĠĠĠĠĠĠĠĠĠĠĠĠĠĠĠĠĠĠĠĠĠĠĠĠĠĠĠĠĠĠĠĠĠĠĠĠĠĠĠĠĠĠĠĠĠĠĠĠĠĠĠĠĠĠĠĠĠĠĠĠĠĠĠĠĠĠĠĠĠĠĠĠĠĠĠĠĠĠĠĠĠĠĠĠĠĠĠĠĠĠĠĠĠĠĠĠĠĠĠĠĠĠĠĠĠĠĠĠĠĠĠĠĠĠĠĠĠĠĠĠĠĠĠĠĠĠĠĠĠĠĠĠĠĠĠĠĠĠĠĠĠĠĠĠĠĠĠĠĠĠĠĠĠĠĠĠĠĠĠĠĠĠĠĠĠĠĠĠĠĠĠĠĠĠĠĠĠĠĠĠĠĠĠĠĠĠĠĠĠĠĠĠĠĠĠĠĠĠĠĠĠĠĠĠĠĠĠĠĠĠĠĠĠĠĠĠĠĠĠĠĠĠĠĠĠĠĠĠĠĠĠĠĠĠĠĠĠĠĠĠĠĠĠĠĠĠĠĠĠĠĠĠĠĠĠĠĠĠĠĠĠĠĠĠĠĠĠĠĠĠĠĠĠĠĠĠĠĠĠĠĠĠĠĠĠĠĠĠĠĠĠĠĠĠĠĠĠĠĠĠĠĠĠĠĠĠĠĠĠĠĠĠĠĠ
su p
pe o
om e
i esĠ
en dĠ
pl ac
ong Ġ
d oĠ
b ec
ation sĠ
g u
h owĠ
igh t
re l
is h
.ĠI fĠ
i f
.Ġ H
ing ,Ġ
) ,
m ent
en ti
; Ġ
w ereĠ
willĠ beĠ
h isĠ
o verĠ
ingĠ aĠ
v is
o g
wh atĠ
withĠ aĠ
.ĠI tĠ
.ĠI nĠ
f u
C om
in form
wi th
- Ġ
i Ġ
s it
.Ġ M
theĠ c
ver yĠ
th ingĠ
si b
e yĠ
d at
ed i
d ayĠ
s omeĠ
W h
s ec
t ur
as eĠ
tion sĠ
i on
âĢĻ tĠ
.Ġ P
er ,Ġ
ar e
d ec
d el
re eĠ
s y
on lyĠ
edĠ inĠ
.Ġ O
S Ġ
ap pl
at t
com pl
fu lĠ
) .
an s
s a
Ġ toĠ
en g
st ar
n ingĠ
ing sĠ
si onĠ
wor k
th ereĠ
n oĠ
ha dĠ
Ġ (
b us
b et
d on
sh ouldĠ
th eseĠ
it t
pro c
ad eĠ
thr oughĠ
w ay
Â Ń
f ac
ar i
b as
en er
oug h
edĠ theĠ
ti veĠ
ow n
m ak
a ,Ġ
aĠ c
C on
b oo
in v
st em
v ingĠ
m is
em entĠ
ev erĠ
fir stĠ
ĠĠĠĠĠĠĠĠĠĠĠĠĠĠĠĠĠĠĠĠĠĠĠĠĠĠĠĠĠĠĠĠĠĠĠĠĠĠĠĠĠĠĠĠĠĠĠĠĠĠĠĠĠĠĠĠĠĠĠĠĠĠĠĠĠĠĠĠĠĠĠĠĠĠĠĠĠĠĠĠĠĠĠĠĠĠĠĠĠĠĠĠĠĠĠĠĠĠĠĠĠĠĠĠĠĠĠĠĠĠĠĠĠĠĠĠĠĠĠĠĠĠĠĠĠĠĠĠĠĠĠĠĠĠĠĠĠĠĠĠĠĠĠĠĠĠĠĠĠĠĠĠĠĠĠĠĠĠĠĠĠĠĠĠĠĠĠĠĠĠĠĠĠĠĠĠĠĠĠĠĠĠĠĠĠĠĠĠĠĠĠĠĠĠĠĠĠĠĠĠĠĠĠĠĠĠĠĠĠĠĠĠĠĠĠĠĠĠĠĠĠĠĠĠĠĠĠĠĠĠĠĠĠĠĠĠĠĠĠĠĠĠĠĠĠĠĠĠĠĠĠĠĠĠĠĠĠĠĠĠĠĠĠĠĠĠĠĠĠĠĠĠĠĠĠĠĠĠĠĠĠĠĠĠĠĠĠĠĠĠĠĠĠĠĠĠĠĠĠĠĠĠĠĠĠĠĠĠĠĠĠĠĠĠĠĠĠĠĠĠĠĠĠĠĠĠĠĠĠĠĠĠĠĠĠĠĠĠĠĠĠĠĠĠĠĠĠĠĠĠĠĠĠĠĠĠĠĠĠĠĠĠĠĠĠĠĠĠĠĠĠĠĠĠĠĠĠĠĠĠĠĠĠĠĠĠĠĠĠĠĠĠĠĠĠĠĠĠĠĠĠĠĠĠĠĠĠĠĠĠĠĠĠĠĠĠĠĠĠĠĠĠĠĠĠĠĠĠĠĠĠĠĠĠĠĠĠĠĠĠĠĠĠĠĠĠĠĠĠĠĠĠĠĠĠĠĠĠĠĠĠĠĠĠĠĠĠĠĠĠĠĠĠĠĠĠĠĠĠĠĠĠĠĠĠĠĠĠĠĠĠĠĠĠĠĠĠĠĠĠĠĠĠĠĠĠĠĠĠĠĠĠĠĠĠĠĠĠĠĠĠĠĠĠĠĠĠĠĠĠĠĠĠĠĠĠĠĠĠĠĠĠĠĠĠĠĠĠĠĠĠĠĠĠĠĠĠĠĠĠĠĠĠĠĠĠĠĠĠĠĠĠĠĠĠĠĠĠĠĠĠĠĠĠĠĠĠĠĠĠĠĠĠĠĠĠĠĠĠĠĠĠĠĠĠĠĠĠĠĠĠĠĠĠĠĠĠĠĠĠĠĠĠĠĠĠĠĠĠĠĠĠĠĠĠĠĠĠĠĠĠĠĠĠĠĠĠĠĠĠĠĠĠĠĠĠĠĠĠĠĠĠĠĠĠĠĠĠĠĠĠĠĠĠĠĠĠĠĠĠĠĠĠĠĠĠĠĠĠĠĠĠĠĠĠĠĠĠĠĠĠĠĠĠĠĠĠĠĠĠĠĠĠĠĠĠĠĠĠĠĠĠĠĠĠĠĠĠĠĠĠĠĠĠĠĠĠĠĠĠĠĠĠĠĠĠĠĠĠĠĠĠĠĠĠĠĠĠĠĠĠĠĠĠĠĠĠĠĠĠĠĠĠĠĠĠĠĠĠĠĠĠĠĠĠĠĠĠĠĠĠĠĠĠĠĠĠĠĠĠĠĠĠĠĠĠĠĠĠĠĠĠĠĠĠĠĠĠĠĠĠĠĠĠĠĠĠĠĠĠĠĠĠĠĠĠĠĠĠĠĠĠĠĠĠĠĠĠĠĠĠĠĠĠĠĠĠĠĠĠĠĠĠĠĠĠĠĠĠĠĠĠĠĠĠĠĠĠĠĠĠĠĠĠĠĠĠĠĠĠĠĠĠĠĠĠĠĠĠĠĠĠĠĠĠĠĠĠĠĠĠĠĠĠĠĠĠĠĠĠĠĠĠĠĠĠĠĠĠĠĠĠĠĠĠĠĠĠĠĠĠĠĠĠĠĠĠĠĠĠĠĠĠĠĠĠĠĠĠĠĠĠĠĠĠĠĠĠĠĠĠĠĠĠĠĠĠĠĠĠĠĠĠĠĠĠĠĠĠĠĠĠĠĠĠĠĠĠĠĠĠĠĠĠĠĠĠĠĠĠĠĠĠĠĠĠĠĠĠĠĠĠĠĠĠĠĠĠĠĠĠĠĠĠĠĠĠĠĠĠĠĠĠĠĠĠĠĠĠĠĠĠĠĠĠĠĠĠĠĠĠĠĠĠĠĠĠĠĠĠĠĠĠĠĠĠĠĠĠĠĠĠĠĠĠĠĠĠĠĠĠĠĠĠĠĠĠĠĠĠĠĠĠĠĠĠĠĠĠĠĠĠĠĠĠĠĠĠĠĠĠĠĠĠĠĠĠĠĠĠĠĠĠĠĠĠĠĠĠĠĠĠĠĠĠĠĠĠĠĠĠĠĠĠĠĠĠĠĠĠĠĠĠĠĠĠĠĠĠĠĠĠĠĠĠĠĠĠĠĠĠĠĠĠĠĠĠĠĠĠĠĠĠĠĠĠĠĠĠĠĠĠĠĠĠĠĠĠĠĠĠĠĠĠĠĠĠĠĠĠĠĠĠĠĠĠĠĠĠĠĠĠĠĠĠĠĠĠĠĠĠĠĠĠĠĠĠĠĠĠĠĠĠĠĠĠĠĠĠĠĠĠĠĠĠĠĠĠĠĠĠĠĠĠĠĠĠĠĠĠĠĠĠĠĠĠĠĠĠĠĠĠĠĠĠĠĠĠĠĠĠĠĠĠĠĠĠĠĠĠĠĠĠĠĠĠĠĠĠĠĠĠĠĠĠĠĠĠĠĠĠĠĠĠĠĠĠĠĠĠĠĠĠĠĠĠĠĠĠĠĠĠĠĠĠĠĠĠĠĠĠĠĠĠĠĠĠĠĠĠĠĠĠĠĠĠĠĠĠĠĠĠĠĠĠĠĠĠĠĠĠĠĠĠĠĠĠĠĠĠĠĠĠĠĠĠĠĠĠĠĠĠĠĠĠĠĠĠĠĠĠĠĠĠĠĠĠĠĠĠĠĠĠĠĠĠĠĠĠĠĠĠĠĠĠĠĠĠĠĠĠĠĠĠĠĠĠĠĠĠĠĠĠĠĠĠĠĠĠĠĠĠĠĠĠĠĠĠĠĠĠĠĠĠĠĠĠĠĠĠĠĠĠĠĠĠĠĠĠĠĠĠĠĠĠĠĠĠĠĠĠĠĠĠĠĠĠĠĠĠĠĠĠĠĠĠĠĠĠĠĠĠĠĠĠĠĠĠĠĠĠĠĠĠĠĠĠĠĠĠĠĠĠĠĠĠĠĠĠĠĠĠĠĠĠĠĠĠĠĠĠĠĠĠĠĠĠĠĠĠĠĠĠĠĠĠĠĠĠĠĠĠĠĠĠĠĠĠĠĠĠĠĠĠĠĠĠĠĠĠĠĠĠĠĠĠĠĠĠĠĠĠĠĠĠĠĠĠĠĠĠĠĠĠĠĠĠĠĠĠĠĠĠĠĠĠĠĠĠĠĠĠĠĠĠĠĠĠĠĠĠĠĠĠĠĠĠĠĠĠĠĠĠĠĠĠĠĠĠĠĠĠĠĠĠĠĠĠĠĠĠĠĠĠĠĠĠĠĠĠĠĠĠĠĠĠĠĠĠĠĠĠĠĠĠĠĠĠĠĠĠĠĠĠĠĠĠĠĠĠĠĠĠĠĠĠĠĠĠĠĠĠĠĠĠĠĠĠĠĠĠĠĠĠĠĠĠĠĠĠĠĠĠĠĠĠĠĠĠĠĠĠĠĠĠĠĠĠĠĠĠĠĠĠĠĠĠĠĠĠĠĠĠĠĠĠĠĠĠĠĠĠĠĠĠĠĠĠĠĠĠĠĠĠĠĠĠĠĠĠĠĠĠĠĠĠĠĠĠĠĠĠĠĠĠĠĠĠĠĠĠĠĠĠĠĠĠĠĠĠĠĠĠĠĠĠĠĠĠĠĠĠĠĠĠĠĠĠĠĠĠĠĠĠĠĠĠĠĠĠĠĠĠĠĠĠĠĠĠĠĠĠĠĠĠĠĠĠĠĠĠĠĠĠĠĠĠĠĠĠĠĠĠĠĠĠĠĠĠĠĠĠĠĠĠĠĠĠĠĠĠĠĠĠĠĠĠĠĠĠĠĠĠĠĠĠĠĠĠĠĠĠĠĠĠĠĠĠĠĠĠĠĠĠĠĠĠĠĠĠĠĠĠĠĠĠĠĠĠĠĠĠĠĠĠĠĠĠĠĠĠĠĠĠĠĠĠĠĠĠĠĠĠĠĠĠĠĠĠĠĠĠĠĠĠĠĠĠĠĠĠĠĠĠĠĠĠĠĠĠĠĠĠĠĠĠĠĠĠĠĠĠĠĠĠĠĠĠĠĠĠĠĠĠĠĠĠĠĠĠĠĠĠĠĠĠĠĠĠĠĠĠĠĠĠĠĠĠĠĠĠĠĠĠĠĠĠĠĠĠĠĠĠĠĠĠĠĠĠĠĠĠĠĠĠĠĠĠĠĠĠĠĠĠĠĠĠĠĠĠĠĠĠĠĠĠĠĠĠĠĠĠĠĠĠĠĠĠĠĠĠĠĠĠĠĠĠĠĠĠĠĠĠĠĠĠĠĠĠĠĠĠĠĠĠĠĠĠĠĠĠĠĠĠĠĠĠĠĠĠĠĠĠĠĠĠĠĠĠĠĠĠĠĠĠĠĠĠĠĠĠĠĠĠĠĠĠĠĠĠĠĠĠĠĠĠĠĠĠĠĠĠĠĠĠĠĠĠĠĠĠĠĠĠĠĠĠĠĠĠĠĠĠĠĠĠĠĠĠĠĠĠĠĠĠĠĠĠĠĠĠĠĠĠĠĠĠĠĠĠĠĠĠĠĠĠĠĠĠĠĠĠĠĠĠĠĠĠĠĠĠĠĠĠĠĠĠĠĠĠĠĠĠĠĠĠĠĠĠĠĠĠĠĠĠĠĠĠĠĠĠĠĠĠĠĠĠĠĠĠĠĠĠĠĠĠĠĠĠĠĠĠĠĠĠĠĠĠĠĠĠĠĠĠĠĠĠĠĠĠĠĠĠĠĠĠĠĠĠĠĠĠĠĠĠĠĠĠĠĠĠĠĠĠĠĠĠĠĠĠĠĠĠĠĠĠĠĠĠĠĠĠĠĠĠĠĠĠĠĠĠĠĠĠĠĠĠĠĠĠĠĠĠĠĠĠĠĠĠĠĠĠĠĠĠĠĠĠĠĠĠĠĠĠĠĠĠĠĠĠĠĠĠĠĠĠĠĠĠĠĠĠĠĠĠĠĠĠĠĠĠĠĠĠĠĠĠĠĠĠĠĠĠĠĠĠĠĠĠĠĠĠĠĠĠĠĠĠĠĠĠĠĠĠĠĠĠĠĠĠĠĠĠĠĠĠĠĠĠĠĠĠĠĠĠĠĠĠĠĠĠĠĠĠĠĠĠĠĠĠĠĠĠĠĠĠĠĠĠĠĠĠĠĠĠĠĠĠĠĠĠĠĠĠĠĠĠĠĠĠĠĠĠĠĠĠĠĠĠĠĠĠĠĠĠĠĠĠĠĠĠĠĠĠĠĠĠĠĠĠĠĠĠĠĠĠĠĠĠĠĠĠĠĠĠĠĠĠĠĠĠĠĠĠĠĠĠĠĠĠĠĠĠĠĠĠĠĠĠĠĠĠĠĠĠĠĠĠĠĠĠĠĠĠĠĠĠĠĠĠĠĠĠĠĠĠĠĠĠĠĠĠĠĠĠĠĠĠĠĠĠĠĠĠĠĠĠĠĠĠĠĠĠĠĠĠĠĠĠĠĠĠĠĠĠĠĠĠĠĠĠĠĠĠĠĠĠĠĠĠĠĠĠĠĠĠĠĠĠĠĠĠĠĠĠĠĠĠĠĠĠĠĠĠĠĠĠĠĠĠĠĠĠĠĠĠĠĠĠĠĠĠĠĠĠĠĠĠĠĠĠĠĠĠĠĠĠĠĠĠĠĠĠĠĠĠĠĠĠĠĠĠĠĠĠĠĠĠĠĠĠĠĠĠĠĠĠĠĠĠĠĠĠĠĠĠĠĠĠĠĠĠĠĠĠĠĠĠĠĠĠĠĠĠĠĠĠĠĠĠĠĠĠĠĠĠĠĠĠĠĠĠĠĠĠĠĠĠĠĠĠĠĠĠĠĠĠĠĠĠĠĠĠĠĠĠĠĠĠĠĠĠĠĠĠĠĠĠĠĠĠĠĠĠĠĠĠĠĠĠĠĠĠĠĠĠĠĠĠĠĠĠĠĠĠĠĠĠĠĠĠĠĠĠĠĠĠĠĠĠĠĠĠĠĠĠĠĠĠĠĠĠĠĠĠĠĠĠĠĠĠĠĠĠĠĠĠĠĠĠĠĠĠĠĠĠĠĠĠĠĠĠĠĠĠĠĠĠĠĠĠĠĠĠĠĠĠĠĠĠĠĠĠĠĠĠĠĠĠĠĠĠĠĠĠĠĠĠĠĠĠĠĠĠĠĠĠĠĠĠĠĠĠĠĠĠĠĠĠĠĠĠĠĠĠĠĠĠĠĠĠĠĠĠĠĠĠĠĠĠĠĠĠĠĠĠĠĠĠĠĠĠĠĠĠĠĠĠĠĠĠĠ ĠĠĠĠĠĠĠĠĠĠĠĠĠĠĠĠĠĠĠĠĠĠĠĠĠĠĠĠĠĠĠĠĠĠĠĠĠĠĠĠĠĠĠĠĠĠĠĠĠĠĠĠĠĠĠĠĠĠĠĠĠĠĠĠĠĠĠĠĠĠĠĠĠĠĠĠĠĠĠĠĠĠĠĠĠĠĠĠĠĠĠĠĠĠĠĠĠĠĠĠĠĠĠĠĠĠĠĠĠĠĠĠĠĠĠĠĠĠĠĠĠĠĠĠĠĠĠĠĠĠĠĠĠĠĠĠĠĠĠĠĠĠĠĠĠĠĠĠĠĠĠĠĠĠĠĠĠĠĠĠĠĠĠĠĠĠĠĠĠĠĠĠĠĠĠĠĠĠĠĠĠĠĠĠĠĠĠĠĠĠĠĠĠĠĠĠĠĠĠĠĠĠĠĠĠĠĠĠĠĠĠĠĠĠĠĠĠĠĠĠĠĠĠĠĠĠĠĠĠĠĠĠĠĠĠĠĠĠĠĠĠĠĠĠĠĠĠĠĠĠĠĠĠĠĠĠ
w ayĠ
.Ġ F
si m
in toĠ
su m
oun d
fromĠ theĠ
.Ġ T
ed ,Ġ
mar k
' tĠ
i onĠ
di ff
is hĠ
l in
exper i
m anyĠ
re qu
at ingĠ
ur r
s ome
ol dĠ
per s
peo pleĠ
c oun
s eĠ
bus in
n i
A u
e g
j o
or sĠ
âĢ ĵ
hel pĠ
t akeĠ
ev enĠ
e pĠ
t y
Ġ m
Ġ S
ec h
ha p
o d
inĠ aĠ
su chĠ
th enĠ
c er
al i
ic k
i re
or g
w ellĠ
toĠ beĠ
wh ereĠ
yĠ andĠ
al sĠ
eĠ theĠ
.Ġ YouĠ
youĠ canĠ
them Ġ
c r
re ad
ingĠ andĠ
esĠ ofĠ
we b
ch o
serv ic
.ĠW eĠ
c ol
m at
ti s
b el
ar g
su l
s,Ġ andĠ
li f
g Ġ
l ineĠ
s ol
st or
ac tĠ
um Ġ
o ver
forĠ aĠ
Ġ A
ol og
ation alĠ
k e
p a
ti v
W eĠ
a useĠ
x Ġ
t t
u alĠ
ch ang
h igh
e -
sĠ areĠ
.Ġ D
b er
m u
asĠ aĠ
inform ationĠ
tw oĠ
C oun
R e
w at
Ġ"" "
ad d
l d
theĠ s
ati veĠ
u eĠ
oo d
c our
h er
p ur
s ti
m em
in kĠ
ow erĠ
ri v
b estĠ
an n
u tĠ
C Ġ
ic kĠ
c ouldĠ
Ġ p
on d
diff er
d et
i pĠ
at esĠ
w antĠ
.Ġ E
sh eĠ
ex p
kn owĠ
1 0
we e
v en
dev el
f un
g l
st ud
youĠ areĠ
canĠ beĠ
c ar
il ityĠ
P ar
m eĠ
tĠ andĠ
ap p
sy stem
edĠ andĠ
y s
isĠ theĠ
be for
g oodĠ
s ur
su b
str uc
âĢĵ Ġ
T r
re sp
af terĠ
an y
edĠ withĠ
pro gr
m er
ic i
m edi
r ightĠ
.Ġ N
re g
m adeĠ
s m
s .ĠTheĠ
sĠ theĠ
itĠ isĠ
20 0
und er
aĠ l
a z
c am
"" "
.ĠW h
appl ic
in c
esĠ toĠ
ne ed
mu chĠ
Ġ C
G r
n owĠ
yĠ ofĠ
oo lĠ
av ail
d u
o y
v al
wh ileĠ
pro f
gre atĠ
A l
u rĠ
M ar
h ic
u allyĠ
.Ġ C
w r
th oseĠ
ation ,Ġ
c le
e achĠ
p ol
ex c
ableĠ toĠ
c c
vi ew
e i
et sĠ
be ingĠ
aĠ f
pl ay
tion alĠ
.. .
s oc
in st
se eĠ
ust om
e f
ro omĠ
s k
ol d
he al
D i
t re
ec tionĠ
em ent
id e
comm un
sĠ thatĠ
li m
ĠĠĠĠĠĠĠĠĠĠĠĠĠĠĠĠĠĠĠĠĠĠĠĠĠĠĠĠĠĠĠĠĠĠĠĠĠĠĠĠĠĠĠĠĠĠĠĠĠĠĠĠĠĠĠĠĠĠĠĠĠĠĠĠĠĠĠĠĠĠĠĠĠĠĠĠĠĠĠĠĠĠĠĠĠĠĠĠĠĠĠĠĠĠĠĠĠĠĠĠĠĠĠĠĠĠĠĠĠĠĠĠĠĠĠĠĠĠĠĠĠĠĠĠĠĠĠĠĠĠĠĠĠĠĠĠĠĠĠĠĠĠĠĠĠĠĠĠĠĠĠĠĠĠĠĠĠĠĠĠĠĠĠĠĠĠĠĠĠĠĠĠĠĠĠĠĠĠĠĠĠĠĠĠĠĠĠĠĠĠĠĠĠĠĠĠĠĠĠĠĠĠĠĠĠĠĠĠĠĠĠĠĠĠĠĠĠĠĠĠĠĠĠĠĠĠĠĠĠĠĠĠĠĠĠĠĠĠĠĠĠĠĠĠĠĠĠĠĠĠĠĠĠĠĠĠĠĠĠĠĠĠĠĠĠĠĠĠĠĠĠĠĠĠĠĠĠĠĠĠĠĠĠĠĠĠĠĠĠĠĠĠĠĠĠĠĠĠĠĠĠĠĠĠĠĠĠĠĠĠĠĠĠĠĠĠĠĠĠĠĠĠĠĠĠĠĠĠĠĠĠĠĠĠĠĠĠĠĠĠĠĠĠĠĠĠĠĠĠĠĠĠĠĠĠĠĠĠĠĠĠĠĠĠĠĠĠĠĠĠĠĠĠĠĠĠĠĠĠĠĠĠĠĠĠĠĠĠĠĠĠĠĠĠĠĠĠĠĠĠĠĠĠĠĠĠĠĠĠĠĠĠĠĠĠĠĠĠĠĠĠĠĠĠĠĠĠĠĠĠĠĠĠĠĠĠĠĠĠĠĠĠĠĠĠĠĠĠĠĠĠĠĠĠĠĠĠĠĠĠĠĠĠĠĠĠĠĠĠĠĠĠĠĠĠĠĠĠĠĠĠĠĠĠĠĠĠĠĠĠĠĠĠĠĠĠĠĠĠĠĠĠĠĠĠĠĠĠĠĠĠĠĠĠĠĠĠĠĠĠĠĠĠĠĠĠĠĠĠĠĠĠĠĠĠĠĠĠĠĠĠĠĠĠĠĠĠĠĠĠĠĠĠĠĠĠĠĠĠĠĠĠĠĠĠĠĠĠĠĠĠĠĠĠĠĠĠĠĠĠĠĠĠĠĠĠĠĠĠĠĠĠĠĠĠĠĠĠĠĠĠĠĠĠĠĠĠĠĠĠĠĠĠĠĠĠĠĠĠĠĠĠĠĠĠĠĠĠĠĠĠĠĠĠĠĠĠĠĠĠĠĠĠĠĠĠĠĠĠĠĠĠĠĠĠĠĠĠĠĠĠĠĠĠĠĠĠĠĠĠĠĠĠĠĠĠĠĠĠĠĠĠĠĠĠĠĠĠĠĠĠĠĠĠĠĠĠĠĠĠĠĠĠĠĠĠĠĠĠĠĠĠĠĠĠĠĠĠĠĠĠĠĠĠĠĠĠĠĠĠĠĠĠĠĠĠĠĠĠĠĠĠĠĠĠĠĠĠĠĠĠĠĠĠĠĠĠĠĠĠĠĠĠĠĠĠĠĠĠĠĠĠĠĠĠĠĠĠĠĠĠĠĠĠĠĠĠĠĠĠĠĠĠĠĠĠĠĠĠĠĠĠĠĠĠĠĠĠĠĠĠĠĠĠĠĠĠĠĠĠĠĠĠĠĠĠĠĠĠĠĠĠĠĠĠĠĠĠĠĠĠĠĠĠĠĠĠĠĠĠĠĠĠĠĠĠĠĠĠĠĠĠĠĠĠĠĠĠĠĠĠĠĠĠĠĠĠĠĠĠĠĠĠĠĠĠĠĠĠĠĠĠĠĠĠĠĠĠĠĠĠĠĠĠĠĠĠĠĠĠĠĠĠĠĠĠĠĠĠĠĠĠĠĠĠĠĠĠĠĠĠĠĠĠĠĠĠĠĠĠĠĠĠĠĠĠĠĠĠĠĠĠĠĠĠĠĠĠĠĠĠĠĠĠĠĠĠĠĠĠĠĠĠĠĠĠĠĠĠĠĠĠĠĠĠĠĠĠĠĠĠĠĠĠĠĠĠĠĠĠĠĠĠĠĠĠĠĠĠĠĠĠĠĠĠĠĠĠĠĠĠĠĠĠĠĠĠĠĠĠĠĠĠĠĠĠĠĠĠĠĠĠĠĠĠĠĠĠĠĠĠĠĠĠĠĠĠĠĠĠĠĠĠĠĠĠĠĠĠĠĠĠĠĠĠĠĠĠĠĠĠĠĠĠĠĠĠĠĠĠĠĠĠĠĠĠĠĠĠĠĠĠĠĠĠĠĠĠĠĠĠĠĠĠĠĠĠĠĠĠĠĠĠĠĠĠĠĠĠĠĠĠĠĠĠĠĠĠĠĠĠĠĠĠĠĠĠĠĠĠĠĠĠĠĠĠĠĠĠĠĠĠĠĠĠĠĠĠĠĠĠĠĠĠĠĠĠĠĠĠĠĠĠĠĠĠĠĠĠĠĠĠĠĠĠĠĠĠĠĠĠĠĠĠĠĠĠĠĠĠĠĠĠĠĠĠĠĠĠĠĠĠĠĠĠĠĠĠĠĠĠĠĠĠĠĠĠĠĠĠĠĠĠĠĠĠĠĠĠĠĠĠĠĠĠĠĠĠĠĠĠĠĠĠĠĠĠĠĠĠĠĠĠĠĠĠĠĠĠĠĠĠĠĠĠĠĠĠĠĠĠĠĠĠĠĠĠĠĠĠĠĠĠĠĠĠĠĠĠĠĠĠĠĠĠĠĠĠĠĠĠĠĠĠĠĠĠĠĠĠĠĠĠĠĠĠĠĠĠĠĠĠĠĠĠĠĠĠĠĠĠĠĠĠĠĠĠĠĠĠĠĠĠĠĠĠĠĠĠĠĠĠĠĠĠĠĠĠĠĠĠĠĠĠĠĠĠĠĠĠĠĠĠĠĠĠĠĠĠĠĠĠĠĠĠĠĠĠĠĠĠĠĠĠĠĠĠĠĠĠĠĠĠĠĠĠĠĠĠĠĠĠĠĠĠĠĠĠĠĠĠĠĠĠĠĠĠĠĠĠĠĠĠĠĠĠĠĠĠĠĠĠĠĠĠĠĠĠĠĠĠĠĠĠĠĠĠĠĠĠĠĠĠĠĠĠĠĠĠĠĠĠĠĠĠĠĠĠĠĠĠĠĠĠĠĠĠĠĠĠĠĠĠĠĠĠĠĠĠĠĠĠĠĠĠĠĠĠĠĠĠĠĠĠĠĠĠĠĠĠĠĠĠĠĠĠĠĠĠĠĠĠĠĠĠĠĠĠĠĠĠĠĠĠĠĠĠĠĠĠĠĠĠĠĠĠĠĠĠĠĠĠĠĠĠĠĠĠĠĠĠĠĠĠĠĠĠĠĠĠĠĠĠĠĠĠĠĠĠĠĠĠĠĠĠĠĠĠĠĠĠĠĠĠĠĠĠĠĠĠĠĠĠĠĠĠĠĠĠĠĠĠĠĠĠĠĠĠĠĠĠĠĠĠĠĠĠĠĠĠĠĠĠĠĠĠĠĠĠĠĠĠĠĠĠĠĠĠĠĠĠĠĠĠĠĠĠĠĠĠĠĠĠĠĠĠĠĠĠĠĠĠĠĠĠĠĠĠĠĠĠĠĠĠĠĠĠĠĠĠĠĠĠĠĠĠĠĠĠĠĠĠĠĠĠĠĠĠĠĠĠĠĠĠĠĠĠĠĠĠĠĠĠĠĠĠĠĠĠĠĠĠĠĠĠĠĠĠĠĠĠĠĠĠĠĠĠĠĠĠĠĠĠĠĠĠĠĠĠĠĠĠĠĠĠĠĠĠĠĠĠĠĠĠĠĠĠĠĠĠĠĠĠĠĠĠĠĠĠĠĠĠĠĠĠĠĠĠĠĠĠĠĠĠĠĠĠĠĠĠĠĠĠĠĠĠĠĠĠĠĠĠĠĠĠĠĠĠĠĠĠĠĠĠĠĠĠĠĠĠĠĠĠĠĠĠĠĠĠĠĠĠĠĠĠĠĠĠĠĠĠĠĠĠĠĠĠĠĠĠĠĠĠĠĠĠĠĠĠĠĠĠĠĠĠĠĠĠĠĠĠĠĠĠĠĠĠĠĠĠĠĠĠĠĠĠĠĠĠĠĠĠĠĠĠĠĠĠĠĠĠĠĠĠĠĠĠĠĠĠĠĠĠĠĠĠĠĠĠĠĠĠĠĠĠĠĠĠĠĠĠĠĠĠĠĠĠĠĠĠĠĠĠĠĠĠĠĠĠĠĠĠĠĠĠĠĠĠĠĠĠĠĠĠĠĠĠĠĠĠĠĠĠĠĠĠĠĠĠĠĠĠĠĠĠĠĠĠĠĠĠĠĠĠĠĠĠĠĠĠĠĠĠĠĠĠĠĠĠĠĠĠĠĠĠĠĠĠĠĠĠĠĠĠĠĠĠĠĠĠĠĠĠĠĠĠĠĠĠĠĠĠĠĠĠĠĠĠĠĠĠĠĠĠĠĠĠĠĠĠĠĠĠĠĠĠĠĠĠĠĠĠĠĠĠĠĠĠĠĠĠĠĠĠĠĠĠĠĠĠĠĠĠĠĠĠĠĠĠĠĠĠĠĠĠĠĠĠĠĠĠĠĠĠĠĠĠĠĠĠĠĠĠĠĠĠĠĠĠĠĠĠĠĠĠĠĠĠĠĠĠĠĠĠĠĠĠĠĠĠĠĠĠĠĠĠĠĠĠĠĠĠĠĠĠĠĠĠĠĠĠĠĠĠĠĠĠĠĠĠĠĠĠĠĠĠĠĠĠĠĠĠĠĠĠĠĠĠĠĠĠĠĠĠĠĠĠĠĠĠĠĠĠĠĠĠĠĠĠĠĠĠĠĠĠĠĠĠĠĠĠĠĠĠĠĠĠĠĠĠĠĠĠĠĠĠĠĠĠĠĠĠĠĠĠĠĠĠĠĠĠĠĠĠĠĠĠĠĠĠĠĠĠĠĠĠĠĠĠĠĠĠĠĠĠĠĠĠĠĠĠĠĠĠĠĠĠĠĠĠĠĠĠĠĠĠĠĠĠĠĠĠĠĠĠĠĠĠĠĠĠĠĠĠĠĠĠĠĠĠĠĠĠĠĠĠĠĠĠĠĠĠĠĠĠĠĠĠĠĠĠĠĠĠĠĠĠĠĠĠĠĠĠĠĠĠĠĠĠĠĠĠĠĠĠĠĠĠĠĠĠĠĠĠĠĠĠĠĠĠĠĠĠĠĠĠĠĠĠĠĠĠĠĠĠĠĠĠĠĠĠĠĠĠĠĠĠĠĠĠĠĠĠĠĠĠĠĠĠĠĠĠĠĠĠĠĠĠĠĠĠĠĠĠĠĠĠĠĠĠĠĠĠĠĠĠĠĠĠĠĠĠĠĠĠĠĠĠĠĠĠĠĠĠĠĠĠĠĠĠĠĠĠĠĠĠĠĠĠĠĠĠĠĠĠĠĠĠĠĠĠĠĠĠĠĠĠĠĠĠĠĠĠĠĠĠĠĠĠĠĠĠĠĠĠĠĠĠĠĠĠĠĠĠĠĠĠĠĠĠĠĠĠĠĠĠĠĠĠĠĠĠĠĠĠĠĠĠĠĠĠĠĠĠĠĠĠĠĠĠĠĠĠĠĠĠĠĠĠĠĠĠĠĠĠĠĠĠĠĠĠĠĠĠĠĠĠĠĠĠĠĠĠĠĠĠĠĠĠĠĠĠĠĠĠĠĠĠĠĠĠĠĠĠĠĠĠĠĠĠĠĠĠĠĠĠĠĠĠĠĠĠĠĠĠĠĠĠĠĠĠĠĠĠĠĠĠĠĠĠĠĠĠĠĠĠĠĠĠĠĠĠĠĠĠĠĠĠĠĠĠĠĠĠĠĠĠĠĠĠĠĠĠĠĠĠĠĠĠĠĠĠĠĠĠĠĠĠĠĠĠĠĠĠĠĠĠĠĠĠĠĠĠĠĠĠĠĠĠĠĠĠĠĠĠĠĠĠĠĠĠĠĠĠĠĠĠĠĠĠĠĠĠĠĠĠĠĠĠĠĠĠĠĠĠĠĠĠĠĠĠĠĠĠĠĠĠĠĠĠĠĠĠĠĠĠĠĠĠĠĠĠĠĠĠĠĠĠĠĠĠĠĠĠĠĠĠĠĠĠĠĠĠĠĠĠĠĠĠĠĠĠĠĠĠĠĠĠĠĠĠĠĠĠĠĠĠĠĠĠĠĠĠĠĠĠĠĠĠĠĠĠĠĠĠĠĠĠĠĠĠĠĠĠĠĠĠĠĠĠĠĠĠĠĠĠĠĠĠĠĠĠĠĠĠĠĠĠĠĠĠĠĠĠĠĠĠĠĠĠĠĠĠĠĠĠĠĠĠĠĠĠĠĠĠĠĠĠĠĠĠĠĠĠĠĠĠĠĠĠĠĠĠĠĠĠĠĠĠĠĠĠĠĠĠĠĠĠĠĠĠĠĠĠĠĠĠĠĠĠĠĠĠĠĠĠĠĠĠĠĠĠĠĠĠĠĠĠĠĠĠĠĠĠĠĠĠĠĠĠĠĠĠĠĠĠĠĠĠĠĠĠĠĠĠĠĠĠĠĠĠĠĠĠĠĠĠĠĠĠĠĠĠĠĠĠĠĠĠĠĠĠĠĠĠĠĠĠĠĠĠĠĠĠĠĠĠĠĠĠĠĠĠĠĠĠĠĠĠĠĠĠĠĠĠĠĠĠĠĠĠĠĠĠĠĠĠĠĠĠĠĠĠĠĠĠĠĠĠĠĠĠĠĠĠĠĠĠĠĠĠĠĠĠĠĠĠĠĠĠĠĠĠĠĠĠĠĠĠĠĠĠĠĠĠĠĠĠĠĠĠĠĠĠĠĠĠĠĠĠĠĠĠĠĠĠĠĠĠĠĠĠĠĠĠĠĠĠĠĠĠĠĠĠĠĠĠĠĠĠĠĠĠĠĠĠĠĠĠĠĠĠĠĠĠĠĠĠĠĠĠĠĠĠĠĠĠĠĠĠĠĠĠĠĠĠĠĠĠĠĠĠĠĠĠĠĠĠĠĠĠĠĠĠĠĠĠĠĠĠĠĠĠĠĠĠĠĠĠĠĠĠĠĠĠĠĠĠĠĠĠĠĠĠĠĠĠĠĠĠĠĠĠĠĠĠĠĠĠĠĠĠĠĠĠĠĠĠ ĠĠĠĠĠĠĠĠĠĠĠĠĠĠĠĠĠĠĠĠĠĠĠĠĠĠĠĠĠĠĠĠĠĠĠĠĠĠĠĠĠĠĠĠĠĠĠĠĠĠĠĠĠĠĠĠĠĠĠĠĠĠĠĠĠĠĠĠĠĠĠĠĠĠĠĠĠĠĠĠĠĠĠĠĠĠĠĠĠĠĠĠĠĠĠĠĠĠĠĠĠĠĠĠĠĠĠĠĠĠĠĠĠĠĠĠĠĠĠĠĠĠĠĠĠĠĠĠ
A r
t ak
it y
as h
pu bl
E Ġ
h and
ro s
ever yĠ
si st
ter n
sib leĠ
andĠ theĠ
ig hĠ
E n
P l
t ain
sĠ inĠ
ad v
ab l
bec auseĠ
% Ġ
il yĠ
bu il
P ro
aĠ b
il li
youĠ haveĠ
tr i
pers on
r un
er i
fin dĠ
b ackĠ
e ff
is tĠ
tr ans
hel p
t ,Ġ
yĠ toĠ
edĠ onĠ
fr i
ationĠ ofĠ
hasĠ beenĠ
ul arĠ
a ff
d eĠ
v esĠ
in dĠ
.Ġ L
org an
Ġ M
f am
h omeĠ
is eĠ
s ch
t ech
in ceĠ
re mo
ic t
per form
des ign
l y
e qu
rec t
a th
c or
c urr
f er
t on
e .ĠTheĠ
our c
dat aĠ
edĠ forĠ
devel op
c ustom
l l
compl et
D Ġ
A d
n um
re gi
pl an
.ĠTh ereĠ
sa idĠ
& Ġ
v ari
re allyĠ
ne edĠtoĠ
differ entĠ
st and
es sion
um p
ever y
N ewĠ
s o
,Ġ butĠ
erĠ andĠ
ig nĠ
ad i
loo kĠ
g oĠ
re sul
man ag
e y
" Ġ
g ener
er ingĠ
er s,Ġ
at ur
cont ro
way sĠ
s al
u b
v edĠ
im port
bo thĠ
a veĠ
le ad
th at
c ap
l essĠ
s etĠ
t em
or yĠ
tic Ġ
1 5
f oll
m ain
n âĢĻtĠ
ro om
com eĠ
itt leĠ
hap p
F r
g e
' Ġ
s l
ar oundĠ
pro j
su cc
cont in
ve hic
ab le
d ig
p ec
ow sĠ
ent lyĠ
li st
le ar
sh ipĠ
e,Ġ andĠ
sp e
qu al
of fĠ
sup por
g row
it ch
ear Ġ
vi ewĠ
sim pl
m a
1 2
d ur
th inkĠ
tĠ toĠ
resp on
E x
e .
t ainĠ
lo veĠ
T Ġ
b re
d ingĠ
d ri
f re
o pĠ
ty p
f il
on -
thatĠ theĠ
ag esĠ
gr ou
par tic
with outĠ
r a
sĠ forĠ
or t
you âĢĻ
ch il
im Ġ
a h
b i
it alĠ
ag ain
c an
g et
h ous
s .
theĠ l
id eĠ
le g
bl em
befor eĠ
fri end
o per
ear chĠ
gr ap
ail Ġ
h ighĠ
to pĠ
r is
t edĠ
st at
erĠ toĠ
requ ire
R es
b ed
r yĠ
r ang
at ure
tion ,Ġ
comp anyĠ
O Ġ
a ir
vid e
wantĠ toĠ
progr am
c all
d ownĠ
i thĠ
n ew
s et
v ol
is su
un i
qu eĠ
haveĠ aĠ
par t
provid eĠ
busin essĠ
' llĠ
b leĠ
i e
s iteĠ
ch ec
.ĠA n
po st
experi enc
Ġ inĠ
asĠ theĠ
er s
P r
n ec
Ġ isĠ
al waysĠ
pro blem
sp ac
ver s
.ĠA Ġ
pr om
bo d
ful lĠ
plac eĠ
c as
f act
pro per
sup pl
bet we
experi enceĠ
y ingĠ
sĠ aĠ
ad di
pu tĠ
wee k
an kĠ
o tĠ
Ġ *
on dĠ
us ingĠ
âĢ Ķ
et workĠ
si z
ationĠ andĠ
oneĠ ofĠtheĠ
sid eĠ
ke epĠ
n eĠ
b ack
k edĠ
in cre
en jo
onĠ aĠ
kn ow
mark et
, âĢĿ
b ro
c oll
l y,Ġ
s ureĠ
t al
youĠ toĠ
me an
19 9
avail ableĠ
U n
c ri
l and
o v
v ir
w w
an ti
.Ġ G
re dĠ
re as
il Ġ
betwe enĠ
n am
u g
on ,Ġ
isĠ notĠ
esĠ inĠ
asĠ wellĠ
sh op
ex tĠ
ap pro
he ad
inter n
sti llĠ
fun c
C o
b ig
c ent
h om
l ev
m or
m us
ĠĠĠĠĠĠĠĠĠĠĠĠĠĠĠĠĠĠĠĠĠĠĠĠĠĠĠĠĠĠĠĠĠĠĠĠĠĠĠĠĠĠĠĠĠĠĠĠĠĠĠĠĠĠĠĠĠĠĠĠĠĠĠĠ ĠĠĠĠĠĠĠĠĠĠĠĠĠĠĠĠĠĠĠĠĠĠĠĠĠĠĠĠĠĠĠĠ
ti lĠ
esĠ theĠ
ec tr
mayĠ beĠ
3 0
u str
ĠĠĠĠĠĠĠĠ ĠĠĠĠ
.Ġ R
edĠ aĠ
esĠ thatĠ
sh ip
res s
includ ingĠ
organ iz
D e
p ut
a ut
w in
en si
it edĠ
year Ġ
k ,Ġ
o dĠ
o ther
t ow
sel fĠ
tĠ ofĠtheĠ
toĠ S
qu es
tech n
e br
t oo
on lineĠ
ar m
un tilĠ
con sid
.ĠI t
wor ld
In c
comp an
âĢĿ Ġ
loc alĠ
loo kingĠ
w as
Th isĠ
1 4
S erv
s w
s ign
it y,Ġ
am p
ab ilityĠ
tionĠ ofĠ
B r
l at
s inceĠ
in toĠtheĠ
er c
di vid
te amĠ
if ic
m ightĠ
,Ġ M
moreĠ thanĠ
includ eĠ
ther e
P Ġ
l a
p end
w ell
or m
esĠ areĠ
us edĠ
em pl
.ĠTh eyĠ
ex am
um anĠ
tur nĠ
pur ch
prof ession
contin u
I C
R Ġ
p ati
t enĠ
ow ever
con n
e.Ġ S
pres ent
del i
mer ic
5 0
d om
be g
res id
mo d
rec ei
ful lyĠ
suchĠ asĠ
import antĠ
' reĠ
i al
p riv
re d
ofĠ aĠ
pl eas
byĠ theĠ
res sĠ
po in
mak ingĠ
B l
m en
n erĠ
er sĠandĠ
wor ldĠ
allĠ theĠ
ph o
F orĠ
thatĠ isĠ
A meric
b ur
d in
f ur
h i
l astĠ
p erĠ
it âĢĻsĠ
is ionĠ
ex t
wor kingĠ
co t
enti alĠ
o ,Ġ
p owerĠ
P h
a x
a irĠ
j ob
l ong
m ustĠ
ar geĠ
st y
it em
ent alĠ
lo b
haveĠ beenĠ
tsĠ ofĠ
co ver
ifĠ youĠ
.ĠIfĠ youĠ
some thingĠ
M Ġ
ĠĠ Ġ
an k
c ul
f ic
s of
esĠ forĠ
ad ver
ect edĠ
proc ess
mis sionĠ
v enĠ
gi veĠ
G re
c al
th ingsĠ
re t
. com
m et
n 'tĠ
r ic
er edĠ
toĠ re
ow ingĠ
sh allĠ
ard sĠ
.ĠB utĠ
star tĠ
1 1
L Ġ
d own
s er
s af
en ,Ġ
âĢ ĺ
num berĠ
L i
1 8
n everĠ
s ameĠ
eĠ isĠ
pl ayĠ
tr y
âĢĻ Ġ
cl os
pos i
und erĠ
fe elĠ
au ti
Com m
f oundĠ
s ens
an al
st ateĠ
di st
s.Ġ S
tic alĠ
cre ateĠ
year sĠ
mon th
bet terĠ
web sit
f oodĠ
l ongĠ
p ingĠ
p ri
al ,Ġ
ic esĠ
inĠ yourĠ
as sĠ
to ge
ne edĠ
wouldĠ beĠ
ough tĠ
qual ityĠ
l et
or dĠ
re al
es .ĠTheĠ
el ectr
fr on
gr ad
to oĠ
es,Ġ andĠ
off erĠ
peo pl
t op
) :
c i
n extĠ
ev entĠ
con di
op en
do esĠ
again stĠ
ie veĠ
b en
b ersĠ
f oc
f reeĠ
l aw
p i
t onĠ
il i
ati c
port un
sc i
.ĠF orĠ
nec ess
o veĠ
A p
Q u
c at
d em
g h
h ear
v o
in divid
or i
ingĠ ofĠ
tr ain
le f
di rect
inter est
are aĠ
asĠwellĠ asĠ
I N
U ni
a us
i et
p ow
Ġ TheĠ
th oughĠ
an otherĠ
al ongĠ
.ĠI n
im pro
op portun
oneĠ ofĠ
shouldĠ beĠ
mark etĠ
Coun tyĠ
ump st
vide oĠ
adver tis
L e
N etworkĠ
c li
m i
m ed
,Ġ S
ac ros
forĠ yourĠ
per f
ir eĠ
str at
me et
aw ayĠ
theyĠ areĠ
fe ature
don 'tĠ
Au toĠS
olog yĠ
owever ,Ġ
o st
th reeĠ
U S
e âĢĻsĠ
f av
w om
ou ld
ent er
le ,Ġ
le aseĠ
pr ac
edĠbyĠ theĠ
serv iceĠ
Con t
lif eĠ
sol u
val u
ourc e,Ġ
' veĠ
no t
p at
st andĠ
ex tr
ri st
ph ys
fi el
gre at
. c
2 5
h our
k eĠ
k ind
er r
er s.Ġ
di dĠ
ind ustr
pos sibleĠ
soc ialĠ
heal thĠ
.ĠAn dĠ
edĠtoĠ theĠ
M an
c el
n essĠ
Ġ T
at elyĠ
ro p
le tĠ
for t
ir dĠ
be auti
notĠ beĠ
sel f
.ĠItĠ isĠ
cour seĠ
person alĠ
) ĠandĠ
C l
d am
f a
h ardĠ
s or
el ev
it ingĠ
lo g
se as
de pend
pos sib
au th
heal th
empl oy
n ow
,Ġ orĠ
ti esĠ
ingĠ inĠ
ch all
e,Ġ theĠ
IĠ amĠ
to day
form Ġ
min ut
.ĠYouĠ canĠ
chil dr
pho to
NetworkĠ AutoĠS
ource,Ġ Inc
NetworkĠAutoĠS ource,ĠInc
' NetworkĠAutoĠSource,ĠInc
1 3
C ol
a kĠ
a im
b ab
i allyĠ
l ed
n atur
u di
in k
it 'sĠ
wh e
thatĠ youĠ
de fin
cont entĠ
An dĠ
produc tsĠ
struc t
Ġ* Ġ
Ġ B
1 6
A N
J o
S cot
f ut
f terĠ
s ay
w a
Ġ G
ofĠ yourĠ
ch ar
ear lyĠ
tionĠ toĠ
go ver
aboutĠ theĠ
acc oun
spec ialĠ
wayĠ toĠ
Coun c
eff ec
succ ess
p ay
Wh enĠ
1 00
R E
d oc
h y
h ereĠ
p ain
r ac
sĠ orĠ
wh yĠ
pro t
oo g
con sum
tr yĠ
ex pl
te gr
kn ownĠ
fi edĠ
don âĢĻtĠ
illi onĠ
I âĢĻ
O urĠ
b or
c areĠ
in alĠ
an tsĠ
on om
re st
con tr
tionĠ andĠ
po t
po int
go ingĠtoĠ
of tenĠ
iti esĠ
thereĠ areĠ
inst all
contro lĠ
youâĢĻ reĠ
l os
an sĠ
boo kĠ
c us
h ist
p ass
Ġ orĠ
.Ġ âĢľ
,Ġ weĠ
,Ġ whichĠ
con f
haveĠ toĠ
ersĠ toĠ
se e
he adĠ
acc essĠ
busin ess
cho ol
lev el
qu iteĠ
2 4
R el
Y or
b in
c oo
l ittleĠ
p t
p ack
u lyĠ
w al
w ed
y erĠ
Ġ theĠ
or tĠ
toĠ aĠ
es .Ġ
e.Ġ A
eĠtoĠ theĠ
enc yĠ
pre par
.ĠO urĠ
proc essĠ
H e
l ight
m y
m ag
m entsĠ
p op
w ar
ic e
inĠ thisĠ
ati v
con cer
.ĠS heĠ
Gr ou
chec kĠ
lob alĠ
ben ef
igh tsĠ
I nĠ
g am
h imĠ
Ġ H
Ġ N
Ġ P
re view
provid esĠ
if icĠ
dig italĠ
ensi veĠ
e eĠ
8 0
O N
c u
d ,Ġ
l esĠ
l ightĠ
n er
t en
sĠ withĠ
or ,Ġ
aĠ andĠ
edĠ inĠtheĠ
sh ar
s.Ġ H
par tĠofĠ
all y,Ġ
cont actĠ
do es
sti t
mem berĠ
vir on
numberĠ ofĠ
. ,
L A
Ġ D
sĠ ofĠtheĠ
,Ġ IĠ
aĠ lo
as hĠ
youĠ willĠ
ha v
con ven
go tĠ
An ton
ens ureĠ
act uallyĠ
mon eyĠ
pers onĠ
R ep
b al
h on
an i
re alĠ
re por
ed uc
op enĠ
to ol
tim esĠ
ityĠ ofĠ
hasĠ aĠ
ever alĠ
Wh atĠ
tur n
det ail
vehic leĠ
get tingĠ
grap h
enjo yĠ
'NetworkĠAutoĠSource,ĠInc .Ġ
gover n
m om
C ent
E u
c ur
f und
h ar
m anĠ
in tegr
an ,Ġ
an im
st e
at ureĠ
ac tiv
is ,Ġ
li vingĠ
co st
pr ic
ord in
aĠf ewĠ
grou pĠ
bod yĠ
toge therĠ
on e
sm allĠ
ma j
M on
T V
h op
i veĠ
sĠ inĠtheĠ
ti ceĠ
es pec
it or
you r
wi deĠ
os p
tr av
sh owĠ
sp r
.ĠA l
cont ain
throughĠ theĠ
tis hĠ
publ icĠ
know led
sĠ (
B Ġ
R o
W ind
s :Ġ
er g
er nĠ
isĠ anĠ
inĠ S
ch arg
sh ow
im pl
se em
pr is
.ĠW ithĠ
upĠ toĠ
iz eĠ
off ersĠ
00 0
howĠ toĠ
ish edĠ
sec ur
pur pos
det er
âĢĶ Ġ
espec iallyĠ
w ard
G oog
N or
W or
d id
i ev
k itch
l andĠ
l arg
t ou
y -
sĠ onĠ
re comm
ro adĠ
ol u
ev ent
e.Ġ YouĠ
pe ti
dr yerĠ
gu id
inv est
chang eĠ
cam er
grou p
cel ebr
A s
c y
3 4
C r
Y ourĠ
n es
en oughĠ
,Ġ aĠ
ic ul
ab il
com ingĠ
tr an
im p
e.Ġ WeĠ
cl ass
tim e,Ġ
oc k
mo v
dis cus
.ĠH eĠ
ough outĠ
mak esĠ
.ĠT oĠ
servic esĠ
wee kĠ
progr amĠ
simpl yĠ
partic ip
was herĠ
pleas eĠ
W e
m erĠ
boo k
! !
D r
E N
M in
M ic
O n
O nĠ
a ur
g ameĠ
h al
h ol
m ind
s un
s ayĠ
s cre
s everalĠ
ou thĠ
ro ll
as k
the y
haveĠ theĠ
co verĠ
do orĠ
Ch rist
iz edĠ
An d
man u
with inĠ
En gl
complet eĠ
dur ingĠ
aut om
compan iesĠ
lef tĠ
ou dĠ
c op
e ?Ġ
i v
r en
s chool
w el
en viron
et c
un te
com esĠ
le as
le adĠ
per i
ation s,Ġ
ear ch
cl ickĠ
tim eĠtoĠ
end ingĠ
me as
In tern
fin anc
theĠs ameĠ
commun ityĠ
develop mentĠ
.ĠThereĠ areĠ
priv ateĠ
chall eng
o th
ul ar
E SĠ
G er
b ar
c ell
f ill
h old
m ul
n on-
w ant
on ceĠ
es .
as kĠ
us h
ag ainĠ
itĠ wasĠ
im ag
gr oundĠ
de f
ure dĠ
off ic
fl u
sec ondĠ
some oneĠ
exp ect
system Ġ
every thingĠ
suppor tĠ
big Ġ
exam pl
whe therĠ
Anton ion
w ardĠ
NewĠ Yor
a thĠ
d umpst
e !Ġ
g ir
l ic
p ict
r at
th ing
ic allyĠ
ec onom
us ,Ġ
qu ick
s.Ġ A
e.Ġ B
weĠ areĠ
tw areĠ
inv ol
read yĠ
stud entsĠ
under standĠ
du ceĠ
fam ilyĠ
profession alĠ
Comm un
beauti fulĠ
' mĠ
C an
G P
I fĠ
a pĠ
b at
c ir
f ar
l argeĠ
v an
w ind
pl at
li veĠ
ir d
s.Ġ M
do ingĠ
des ignĠ
bas edĠ
wat erĠ
app ear
medi aĠ
applic ationĠ
pol ic
run Ġ
sch oolĠ
vari et
spe ak
ww w
Americ anĠ
necess aryĠ
ing leĠ
outĠ ofĠ
1 7
S ch
b Ġ
b row
f ast
g n
g ard
j our
r ight
Ã ©
en i
st re
ur ingĠ
em entsĠ
id enti
un chĠ
.ĠTh eseĠ
li fe
di rec
IĠ wasĠ
af fĠ
acc ord
produc t
spec ificĠ
mat eri
aĠl ittleĠ
cle an
curr entĠ
vari ousĠ
lear nĠ
respon sibleĠ
reas on
natur alĠ
A c
Ġ L
th re
edĠ thatĠ
atĠ aĠ
4 0
S E
T oĠ
a âĢĻsĠ
d oneĠ
e z
f ewĠ
f ound
h im
o sĠ
t or
in ,Ġ
ar tĠ
em berĠ
ag re
lo ad
lo adĠ
e.Ġ H
res hĠ
cl aim
end edĠ
vi aĠ
est abl
au di
ener g
reg ard
equ ip
fur therĠ
hist or
er e
G odĠ
d ateĠ
f lo
i anĠ
s !Ġ
s ?Ġ
u ti
in f
.Ġ K
st affĠ
erĠ ofĠ
onĠ yourĠ
isĠ toĠ
ab oveĠ
le geĠ
s,Ġ theĠ
ex ist
sp ir
ation sĠandĠ
soĠ thatĠ
par tĠofĠtheĠ
all owĠ
pr int
me th
lik eĠtoĠ
ph oneĠ
St ateĠ
thr oughoutĠ
sit u
.ĠO n
wr it
purch as
poin tĠ
'NetworkĠAutoĠSource,ĠInc.Ġ 'Ġ
S u
Ġ W
ĠĠĠĠĠĠĠĠĠĠĠĠĠĠĠĠ ĠĠĠĠĠĠĠĠĠĠĠĠ
N ationalĠ
R em
c are
m il
m ainĠ
s onĠ
t -
w ond
y p
.Ġ J
ar t
inĠ ourĠ
ec tsĠ
as sist
kĠ andĠ
id d
un eĠ
to -
oc i
pr iceĠ
,ĠandĠ theĠ
ure sĠ
pre t
fe el
19 8
min i
produc tĠ
bec omeĠ
rel ation
fac eĠ
boo ksĠ
Au str
helpĠ youĠ
bel ieveĠ
exc ell
tre at
ĠĠĠĠĠĠĠĠĠĠĠĠĠĠĠĠĠĠĠĠĠĠĠĠĠĠĠĠĠĠĠĠĠĠĠĠĠĠĠĠĠĠĠĠĠĠĠĠĠĠĠĠĠĠĠĠĠĠĠĠĠĠĠĠĠĠĠĠĠĠĠĠĠĠĠĠĠĠĠĠĠĠĠĠĠĠĠĠĠĠĠĠĠĠĠĠĠĠĠĠĠĠĠĠĠĠĠĠĠĠĠĠĠĠĠĠĠĠĠĠĠĠĠĠĠĠĠĠĠĠĠĠĠĠĠĠĠĠĠĠĠĠĠĠĠĠĠĠĠĠĠĠĠĠĠĠĠĠĠĠĠĠĠĠĠĠĠĠĠĠĠĠĠĠĠĠĠĠĠĠĠĠĠĠĠĠĠĠĠĠĠĠĠĠĠĠĠĠĠĠĠĠĠĠĠĠĠĠĠĠĠĠĠĠĠĠĠĠĠĠĠĠĠĠĠĠĠĠĠĠĠĠĠĠĠĠĠĠĠĠĠĠĠĠĠĠĠĠĠĠĠĠĠĠĠĠĠĠĠĠĠĠĠĠĠĠĠĠĠĠĠĠĠĠĠĠĠĠĠĠĠĠĠĠĠĠĠĠĠĠĠĠĠĠĠĠĠĠĠĠĠĠĠĠĠĠĠĠĠĠĠĠĠĠĠĠĠĠĠĠĠĠĠĠĠĠĠĠĠĠĠĠĠĠĠĠĠĠĠĠĠĠĠĠĠĠĠĠĠĠĠĠĠĠĠĠĠĠĠĠĠĠĠĠĠĠĠĠĠĠĠĠĠĠĠĠĠĠĠĠĠĠĠĠĠĠĠĠĠĠĠĠĠĠĠĠĠĠĠĠĠĠĠĠĠĠĠĠĠĠĠĠĠĠĠĠĠĠĠĠĠĠĠĠĠĠĠĠĠĠĠĠĠĠĠĠĠĠĠĠĠĠĠĠĠĠĠĠĠĠĠĠĠĠĠĠĠĠĠĠĠĠĠĠĠĠĠĠĠĠĠĠĠĠĠĠĠĠĠĠĠĠĠĠĠĠĠĠĠĠĠĠĠĠĠĠĠĠĠĠĠĠĠĠĠĠĠĠĠĠĠĠĠĠĠĠĠĠĠĠĠĠĠĠĠĠĠĠĠĠĠĠĠĠĠĠĠĠĠĠĠĠĠĠĠĠĠĠĠĠĠĠĠĠĠĠĠĠĠĠĠĠĠĠĠĠĠĠĠĠĠĠĠĠĠĠĠĠĠĠĠĠĠĠĠĠĠĠĠĠĠĠĠĠĠĠĠĠĠĠĠĠĠĠĠĠĠĠĠĠĠĠĠĠĠĠĠĠĠĠĠĠĠĠĠĠĠĠĠĠĠĠĠĠĠĠĠĠĠĠĠĠĠĠĠĠĠĠĠĠĠĠĠĠĠĠĠĠĠĠĠĠĠĠĠĠĠĠĠĠĠĠĠĠĠĠĠĠĠĠĠĠĠĠĠĠĠĠĠĠĠĠĠĠĠĠĠĠĠĠĠĠĠĠĠĠĠĠĠĠĠĠĠĠĠĠĠĠĠĠĠĠĠĠĠĠĠĠĠĠĠĠĠĠĠĠĠĠĠĠĠĠĠĠĠĠĠĠĠĠĠĠĠĠĠĠĠĠĠĠĠĠĠĠĠĠĠĠĠĠĠĠĠĠĠĠĠĠĠĠĠĠĠĠĠĠĠĠĠĠĠĠĠĠĠĠĠĠĠĠĠĠĠĠĠĠĠĠĠĠĠĠĠĠĠĠĠĠĠĠĠĠĠĠĠĠĠĠĠĠĠĠĠĠĠĠĠĠĠĠĠĠĠĠĠĠĠĠĠĠĠĠĠĠĠĠĠĠĠĠĠĠĠĠĠĠĠĠĠĠĠĠĠĠĠĠĠĠĠĠĠĠĠĠĠĠĠĠĠĠĠĠĠĠĠĠĠĠĠĠĠĠĠĠĠĠĠĠĠĠĠĠĠĠĠĠĠĠĠĠĠĠĠĠĠĠĠĠĠĠĠĠĠĠĠĠĠĠĠĠĠĠĠĠĠĠĠĠĠĠĠĠĠĠĠĠĠĠĠĠĠĠĠĠĠĠĠĠĠĠĠĠĠĠĠĠĠĠĠĠĠĠĠĠĠĠĠĠĠĠĠĠĠĠĠĠĠĠĠĠĠĠĠĠĠĠĠĠĠĠĠĠĠĠĠĠĠĠĠĠĠĠĠĠĠĠĠĠĠĠĠĠĠĠĠĠĠĠĠĠĠĠĠĠĠĠĠĠĠĠĠĠĠĠĠĠĠĠĠĠĠĠĠĠĠĠĠĠĠĠĠĠĠĠĠĠĠĠĠĠĠĠĠĠĠĠĠĠĠĠĠĠĠĠĠĠĠĠĠĠĠĠĠĠĠĠĠĠĠĠĠĠĠĠĠĠĠĠĠĠĠĠĠĠĠĠĠĠĠĠĠĠĠĠĠĠĠĠĠĠĠĠĠĠĠĠĠĠĠĠĠĠĠĠĠĠĠĠĠĠĠĠĠĠĠĠĠĠĠĠĠĠĠĠĠĠĠĠĠĠĠĠĠĠĠĠĠĠĠĠĠĠĠĠĠĠĠĠĠĠĠĠĠĠĠĠĠĠĠĠĠĠĠĠĠĠĠĠĠĠĠĠĠĠĠĠĠĠĠĠĠĠĠĠĠĠĠĠĠĠĠĠĠĠĠĠĠĠĠĠĠĠĠĠĠĠĠĠĠĠĠĠĠĠĠĠĠĠĠĠĠĠĠĠĠĠĠĠĠĠĠĠĠĠĠĠĠĠĠĠĠĠĠĠĠĠĠĠĠĠĠĠĠĠĠĠĠĠĠĠĠĠĠĠĠĠĠĠĠĠĠĠĠĠĠĠĠĠĠĠĠĠĠĠĠĠĠĠĠĠĠĠĠĠĠĠĠĠĠĠĠĠĠĠĠĠĠĠĠĠĠĠĠĠĠĠĠĠĠĠĠĠĠĠĠĠĠĠĠĠĠĠĠĠĠĠĠĠĠĠĠĠĠĠĠĠĠĠĠĠĠĠĠĠĠĠĠĠĠĠĠĠĠĠĠĠĠĠĠĠĠĠĠĠĠĠĠĠĠĠĠĠĠĠĠĠĠĠĠĠĠĠĠĠĠĠĠĠĠĠĠĠĠĠĠĠĠĠĠĠĠĠĠĠĠĠĠĠĠĠĠĠĠĠĠĠĠĠĠĠĠĠĠĠĠĠĠĠĠĠĠĠĠĠĠĠĠĠĠĠĠĠĠĠĠĠĠĠĠĠĠĠĠĠĠĠĠĠĠĠĠĠĠĠĠĠĠĠĠĠĠĠĠĠĠĠĠĠĠĠĠĠĠĠĠĠĠĠĠĠĠĠĠĠĠĠĠĠĠĠĠĠĠĠĠĠĠĠĠĠĠĠĠĠĠĠĠĠĠĠĠĠĠĠĠĠĠĠĠĠĠĠĠĠĠĠĠĠĠĠĠĠĠĠĠĠĠĠĠĠĠĠĠĠĠĠĠĠĠĠĠĠĠĠĠĠĠĠĠĠĠĠĠĠĠĠĠĠĠĠĠĠĠĠĠĠĠĠĠĠĠĠĠĠĠĠĠĠĠĠĠĠĠĠĠĠĠĠĠĠĠĠĠĠĠĠĠĠĠĠĠĠĠĠĠĠĠĠĠĠĠĠĠĠĠĠĠĠĠĠĠĠĠĠĠĠĠĠĠĠĠĠĠĠĠĠĠĠĠĠĠĠĠĠĠĠĠĠĠĠĠĠĠĠĠĠĠĠĠĠĠĠĠĠĠĠĠĠĠĠĠĠĠĠĠĠĠĠĠĠĠĠĠĠĠĠĠĠĠĠĠĠĠĠĠĠĠĠĠĠĠĠĠĠĠĠĠĠĠĠĠĠĠĠĠĠĠĠĠĠĠĠĠĠĠĠĠĠĠĠĠĠĠĠĠĠĠĠĠĠĠĠĠĠĠĠĠĠĠĠĠĠĠĠĠĠĠĠĠĠĠĠĠĠĠĠĠĠĠĠĠĠĠĠĠĠĠĠĠĠĠĠĠĠĠĠĠĠĠĠĠĠĠĠĠĠĠĠĠĠĠĠĠĠĠĠĠĠĠĠĠĠĠĠĠĠĠĠĠĠĠĠĠĠĠĠĠĠĠĠĠĠĠĠĠĠĠĠĠĠĠĠĠĠĠĠĠĠĠĠĠĠĠĠĠĠĠĠĠĠĠĠĠĠĠĠĠĠĠĠĠĠĠĠĠĠĠĠĠĠĠĠĠĠĠĠĠĠĠĠĠĠĠĠĠĠĠĠĠĠĠĠĠĠĠĠĠĠĠĠĠĠĠĠĠĠĠĠĠĠĠĠĠĠĠĠĠĠĠĠĠĠĠĠĠĠĠĠĠĠĠĠĠĠĠĠĠĠĠĠĠĠĠĠĠĠĠĠĠĠĠĠĠĠĠĠĠĠĠĠĠĠĠĠĠĠĠĠĠĠĠĠĠĠĠĠĠĠĠĠĠĠĠĠĠĠĠĠĠĠĠĠĠĠĠĠĠĠĠĠĠĠĠĠĠĠĠĠĠĠĠĠĠĠĠĠĠĠĠĠĠĠĠĠĠĠĠĠĠĠĠĠĠĠĠĠĠĠĠĠĠĠĠĠĠĠĠĠĠĠĠĠĠĠĠĠĠĠĠĠĠĠĠĠĠĠĠĠĠĠĠĠĠĠĠĠĠĠĠĠĠĠĠĠĠĠĠĠĠĠĠĠĠĠĠĠĠĠĠĠĠĠĠĠĠĠĠĠĠĠĠĠĠĠĠĠĠĠĠĠĠĠĠĠĠĠĠĠĠĠĠĠĠĠĠĠĠĠĠĠĠĠĠĠĠĠĠĠĠĠĠĠĠĠĠĠĠĠĠĠĠĠĠĠĠĠĠĠĠĠĠĠĠĠĠĠĠĠĠĠĠĠĠĠĠĠĠĠĠĠĠĠĠĠĠĠĠĠĠĠĠĠĠĠĠĠĠĠĠĠĠĠĠĠĠĠĠĠĠĠĠĠĠĠĠĠĠĠĠĠĠĠĠĠĠĠĠĠĠĠĠĠĠĠĠĠĠĠĠĠĠĠĠĠĠĠĠĠĠĠĠĠĠĠĠĠĠĠĠĠĠĠĠĠĠĠĠĠĠĠĠĠĠĠĠĠĠĠĠĠĠĠĠĠĠĠĠĠĠĠĠĠĠĠĠĠĠĠĠĠĠĠĠĠĠĠĠĠĠĠĠĠĠĠĠĠĠĠĠĠĠĠĠĠĠĠĠĠĠĠĠĠĠĠĠĠĠĠĠĠĠĠĠĠĠĠĠĠĠĠĠĠĠĠĠĠĠĠĠĠĠĠĠĠĠĠĠĠĠĠĠĠĠĠĠĠĠĠĠĠĠĠĠĠĠĠĠĠĠĠĠĠĠĠĠĠĠĠĠĠĠĠĠĠĠĠĠĠĠĠĠĠĠĠĠĠĠĠĠĠĠĠĠĠĠĠĠĠĠĠĠĠĠĠĠĠĠĠĠĠĠĠĠĠĠĠĠĠĠĠĠĠĠĠĠĠĠĠĠĠĠĠĠĠĠĠĠĠĠĠĠĠĠĠĠĠĠĠĠĠĠĠĠĠĠĠĠĠĠĠĠĠĠĠĠĠĠĠĠĠĠĠĠĠĠĠĠĠĠĠĠĠĠĠĠĠĠĠĠĠĠĠĠĠĠĠĠĠĠĠĠĠĠĠĠĠĠĠĠĠĠĠĠĠĠĠĠĠĠĠĠĠĠĠĠĠĠĠĠĠĠĠĠĠĠĠĠĠĠĠĠĠĠĠĠĠĠĠĠĠĠĠĠĠĠĠĠĠĠĠĠĠĠĠĠĠĠĠĠĠĠĠĠĠĠĠĠĠĠĠĠĠĠĠĠĠĠĠĠĠĠĠĠĠĠĠĠĠĠĠĠĠĠĠĠĠĠĠĠĠĠĠĠĠĠĠĠĠĠĠĠĠĠĠĠĠĠĠĠĠĠĠĠĠĠĠĠĠĠĠĠĠĠĠĠĠĠĠĠĠĠĠĠĠĠĠĠĠĠĠĠĠĠĠĠĠĠĠĠĠĠĠĠĠĠĠĠĠĠĠĠĠĠĠĠĠĠĠĠĠĠĠĠĠĠĠĠĠĠĠĠĠĠĠĠĠĠĠĠĠĠĠĠĠĠĠĠĠĠĠĠĠĠĠĠĠĠĠĠĠĠĠĠĠĠĠĠĠĠĠĠĠĠĠĠĠĠĠĠĠĠĠĠĠĠĠĠĠĠĠĠĠĠĠĠĠĠĠĠĠĠĠĠĠĠĠĠĠĠĠĠĠĠĠĠĠĠĠĠĠĠĠĠĠĠĠĠĠĠĠĠĠĠĠĠĠĠĠĠĠĠĠĠĠĠĠĠĠĠĠĠĠĠĠĠĠĠĠĠĠĠĠĠĠĠĠĠĠĠĠĠĠĠĠĠĠĠĠĠĠĠĠĠĠĠĠĠĠĠĠĠĠĠĠĠĠĠĠĠĠĠĠĠĠĠĠĠĠĠĠĠĠĠĠĠĠĠĠĠĠĠĠĠĠĠĠĠĠĠĠĠĠĠĠĠĠĠĠĠĠĠĠĠĠĠĠĠĠĠĠĠĠĠĠĠĠĠĠĠĠĠĠĠĠĠĠĠĠĠĠĠĠĠĠĠĠĠĠĠĠĠĠĠĠĠĠĠĠĠĠĠĠĠĠĠĠĠĠĠĠĠĠĠĠĠĠĠĠĠĠĠĠĠĠĠĠĠĠĠĠĠĠĠĠĠĠĠĠĠĠĠĠĠĠĠĠĠĠĠĠĠĠĠĠĠĠĠĠĠĠĠĠĠĠĠĠĠĠĠĠĠĠĠĠĠĠĠĠĠĠĠĠĠĠĠĠĠĠĠĠĠĠĠĠĠĠĠĠĠĠĠĠĠĠĠĠĠĠĠĠĠĠĠĠĠĠĠĠĠĠĠĠĠĠĠĠĠĠĠĠĠĠĠĠĠĠĠĠĠĠĠĠĠĠĠĠĠĠĠĠĠĠĠĠĠĠĠĠĠĠĠĠĠĠĠĠĠĠĠĠĠĠĠĠĠĠĠĠĠĠĠĠĠĠĠĠĠĠĠĠĠĠĠĠĠĠĠĠĠĠĠĠĠĠĠĠĠĠĠĠĠĠĠĠĠĠĠĠĠĠĠĠĠĠĠĠĠĠĠĠĠĠĠĠĠĠĠĠĠĠĠĠĠĠĠĠĠĠĠĠĠĠĠĠĠĠĠĠĠĠĠĠĠĠĠĠĠĠĠĠĠĠĠĠĠĠĠĠĠĠĠĠĠĠĠĠĠĠĠĠĠĠĠĠĠĠĠĠĠĠĠĠĠĠĠĠĠĠĠĠĠĠĠĠĠĠĠĠĠĠĠĠĠĠĠĠĠĠĠĠĠĠĠĠĠĠĠĠĠĠĠĠĠĠĠĠĠĠĠĠĠĠĠĠĠĠĠĠĠĠĠĠĠĠĠĠ ĠĠĠĠĠĠĠĠĠĠĠĠĠĠĠĠĠĠĠĠĠĠĠĠĠĠĠĠĠĠĠĠĠĠĠĠĠĠĠĠĠĠĠĠĠĠĠĠĠĠĠĠĠĠĠĠĠĠĠĠĠĠĠĠĠĠĠĠĠĠĠĠĠĠĠĠĠĠĠĠĠĠĠĠĠĠĠĠĠĠĠĠĠĠĠĠ
manu fact
F or
c arĠ
s ingĠ
in e
ad dĠ
C ali
a ther
c allĠ
c ostĠ
k eyĠ
t eĠ
th ough
.Ġ V
ar ti
re fer
es s.Ġ
ac eĠ
ac ti
ec tion
is ion
et aryĠ
for ni
ver sionĠ
res earchĠ
mo b
In di
loc atedĠ
doĠ notĠ
sa veĠ
star t
jo in
.ĠWh enĠ
tak ingĠ
uni queĠ
strat eg
Austr ali
Cali forni
Ġ F
id ayĠ
go ingĠ
H umanĠ
S te
U .
c lo
d ou
g g
l ow
m ingĠ
m ic
p ag
r u
s -
u bl
x im
th ,Ġ
re adĠ
toĠ yourĠ
pl anĠ
ri p
ityĠ andĠ
par tyĠ
rec entĠ
19 6
pres entĠ
.ĠInĠ theĠ
sim il
ire dĠ
cour s
sk ill
sch ed
perform anceĠ
proj ectĠ
dri veĠ
elev isionĠ
Goog leĠ
variet yĠofĠ
Ġ ...
. ""
A R
E l
T E
c entĠ
f ourĠ
h andĠ
h ard
o k
o z
p as
p ostĠ
s mar
u aryĠ
in iti
al mostĠ
erĠ isĠ
at orĠ
ati s
ch e
us e
ab Ġ
ent ,Ġ
li v
and ,Ġ
y,Ġ andĠ
tic leĠ
bl oodĠ
cre atedĠ
hel dĠ
anc e,Ġ
au gh
spec ial
overĠ theĠ
couldĠ beĠ
ĠĠĠĠĠĠĠĠĠĠĠĠĠĠĠĠĠĠĠĠĠĠĠĠĠĠĠĠĠĠĠĠĠĠĠĠĠĠĠĠĠĠĠĠĠĠĠĠĠĠĠĠĠĠĠĠĠĠĠĠĠĠĠĠĠĠĠĠĠĠĠĠĠĠĠĠĠĠĠĠĠĠĠĠĠĠĠĠĠĠĠĠĠĠĠĠĠĠĠĠĠĠĠĠĠĠĠĠĠĠĠĠĠĠĠĠĠĠĠĠĠĠĠĠĠĠĠĠĠĠĠĠĠĠĠĠĠĠĠĠĠĠĠĠĠĠĠĠĠĠĠĠĠĠĠĠĠĠĠĠĠĠĠĠĠĠĠĠĠĠĠĠĠĠĠĠĠĠĠĠĠĠĠĠĠĠĠĠĠĠĠĠĠĠĠĠĠĠĠĠĠĠĠĠĠĠĠĠĠĠĠĠĠĠĠĠĠĠĠĠĠĠĠĠĠĠĠĠĠĠĠĠĠĠĠĠĠĠĠĠĠĠĠĠĠĠĠĠĠĠĠĠĠĠĠĠĠĠĠĠĠĠĠĠĠĠĠĠĠĠĠĠĠĠĠĠĠĠĠĠĠĠĠĠĠĠĠĠĠĠĠĠĠĠĠĠĠĠĠĠĠĠĠĠĠĠĠĠĠĠĠĠĠĠĠĠĠĠĠĠĠĠĠĠĠĠĠĠĠĠĠĠĠĠĠĠĠĠĠĠĠĠĠĠĠĠĠĠĠĠĠĠĠĠĠĠĠĠĠĠĠĠĠĠĠĠĠĠĠĠĠĠĠĠĠĠĠĠĠĠĠĠĠĠĠĠĠĠĠĠĠĠĠĠĠĠĠĠĠĠĠĠĠĠĠĠĠĠĠĠĠĠĠĠĠĠĠĠĠĠĠĠĠĠĠĠĠĠĠĠĠĠĠĠĠĠĠĠĠĠĠĠĠĠĠĠĠĠĠĠĠĠĠĠĠĠĠĠĠĠĠĠĠĠĠĠĠĠĠĠĠĠĠĠĠĠĠĠĠĠĠĠĠĠĠĠĠĠĠĠĠĠĠĠĠĠĠĠĠĠĠĠĠĠĠĠĠĠĠĠĠĠĠĠĠĠĠĠĠĠĠĠĠĠĠĠĠĠĠĠĠĠĠĠĠĠĠĠĠĠĠĠĠĠĠĠĠĠĠĠĠĠĠĠĠĠĠĠĠĠĠĠĠĠĠĠĠĠĠĠĠĠĠĠĠĠĠĠĠĠĠĠĠĠĠĠĠĠĠĠĠĠĠĠĠĠĠĠĠĠĠĠĠĠĠĠĠĠĠĠĠĠĠĠĠĠĠĠĠĠĠĠĠĠĠĠĠĠĠĠĠĠĠĠĠĠĠĠĠĠĠĠĠĠĠĠĠĠĠĠĠĠĠĠĠĠĠĠĠĠĠĠĠĠĠĠĠĠĠĠĠĠĠĠĠĠĠĠĠĠĠĠĠĠĠĠĠĠĠĠĠĠĠĠĠĠĠĠĠĠĠĠĠĠĠĠĠĠĠĠĠĠĠĠĠĠĠĠĠĠĠĠĠĠĠĠĠĠĠĠĠĠĠĠĠĠĠĠĠĠĠĠĠĠĠĠĠĠĠĠĠĠĠĠĠĠĠĠĠĠĠĠĠĠĠĠĠĠĠĠĠĠĠĠĠĠĠĠĠĠĠĠĠĠĠĠĠĠĠĠĠĠĠĠĠĠĠĠĠĠĠĠĠĠĠĠĠĠĠĠĠĠĠĠĠĠĠĠĠĠĠĠĠĠĠĠĠĠĠĠĠĠĠĠĠĠĠĠĠĠĠĠĠĠĠĠĠĠĠĠĠĠĠĠĠĠĠĠĠĠĠĠĠĠĠĠĠĠĠĠĠĠĠĠĠĠĠĠĠĠĠĠĠĠĠĠĠĠĠĠĠĠĠĠĠĠĠĠĠĠĠĠĠĠĠĠĠĠĠĠĠĠĠĠĠĠĠĠĠĠĠĠĠĠĠĠĠĠĠĠĠĠĠĠĠĠĠĠĠĠĠĠĠĠĠĠĠĠĠĠĠĠĠĠĠĠĠĠĠĠĠĠĠĠĠĠĠĠĠĠĠĠĠĠĠĠĠĠĠĠĠĠĠĠĠĠĠĠĠĠĠĠĠĠĠĠĠĠĠĠĠĠĠĠĠĠĠĠĠĠĠĠĠĠĠĠĠĠĠĠĠĠĠĠĠĠĠĠĠĠĠĠĠĠĠĠĠĠĠĠĠĠĠĠĠĠĠĠĠĠĠĠĠĠĠĠĠĠĠĠĠĠĠĠĠĠĠĠĠĠĠĠĠĠĠĠĠĠĠĠĠĠĠĠĠĠĠĠĠĠĠĠĠĠĠĠĠĠĠĠĠĠĠĠĠĠĠĠĠĠĠĠĠĠĠĠĠĠĠĠĠĠĠĠĠĠĠĠĠĠĠĠĠĠĠĠĠĠĠĠĠĠĠĠĠĠĠĠĠĠĠĠĠĠĠĠĠĠĠĠĠĠĠĠĠĠĠĠĠĠĠĠĠĠĠĠĠĠĠĠĠĠĠĠĠĠĠĠĠĠĠĠĠĠĠĠĠĠĠĠĠĠĠĠĠĠĠĠĠĠĠĠĠĠĠĠĠĠĠĠĠĠĠĠĠĠĠĠĠĠĠĠĠĠĠĠĠĠĠĠĠĠĠĠĠĠĠĠĠĠĠĠĠĠĠĠĠĠĠĠĠĠĠĠĠĠĠĠĠĠĠĠĠĠĠĠĠĠĠĠĠĠĠĠĠĠĠĠĠĠĠĠĠĠĠĠĠĠĠĠĠĠĠĠĠĠĠĠĠĠĠĠĠĠĠĠĠĠĠĠĠĠĠĠĠĠĠĠĠĠĠĠĠĠĠĠĠĠĠĠĠĠĠĠĠĠĠĠĠĠĠĠĠĠĠĠĠĠĠĠĠĠĠĠĠĠĠĠĠĠĠĠĠĠĠĠĠĠĠĠĠĠĠĠĠĠĠĠĠĠĠĠĠĠĠĠĠĠĠĠĠĠĠĠĠĠĠĠĠĠĠĠĠĠĠĠĠĠĠĠĠĠĠĠĠĠĠĠĠĠĠĠĠĠĠĠĠĠĠĠĠĠĠĠĠĠĠĠĠĠĠĠĠĠĠĠĠĠĠĠĠĠĠĠĠĠĠĠĠĠĠĠĠĠĠĠĠĠĠĠĠĠĠĠĠĠĠĠĠĠĠĠĠĠĠĠĠĠĠĠĠĠĠĠĠĠĠĠĠĠĠĠĠĠĠĠĠĠĠĠĠĠĠĠĠĠĠĠĠĠĠĠĠĠĠĠĠĠĠĠĠĠĠĠĠĠĠĠĠĠĠĠĠĠĠĠĠĠĠĠĠĠĠĠĠĠĠĠĠĠĠĠĠĠĠĠĠĠĠĠĠĠĠĠĠĠĠĠĠĠĠĠĠĠĠĠĠĠĠĠĠĠĠĠĠĠĠĠĠĠĠĠĠĠĠĠĠĠĠĠĠĠĠĠĠĠĠĠĠĠĠĠĠĠĠĠĠĠĠĠĠĠĠĠĠĠĠĠĠĠĠĠĠĠĠĠĠĠĠĠĠĠĠĠĠĠĠĠĠĠĠĠĠĠĠĠĠĠĠĠĠĠĠĠĠĠĠĠĠĠĠĠĠĠĠĠĠĠĠĠĠĠĠĠĠĠĠĠĠĠĠĠĠĠĠĠĠĠĠĠĠĠĠĠĠĠĠĠĠĠĠĠĠĠĠĠĠĠĠĠĠĠĠĠĠĠĠĠĠĠĠĠĠĠĠĠĠĠĠĠĠĠĠĠĠĠĠĠĠĠĠĠĠĠĠĠĠĠĠĠĠĠĠĠĠĠĠĠĠĠĠĠĠĠĠĠĠĠĠĠĠĠĠĠĠĠĠĠĠĠĠĠĠĠĠĠĠĠĠĠĠĠĠĠĠĠĠĠĠĠĠĠĠĠĠĠĠĠĠĠĠĠĠĠĠĠĠĠĠĠĠĠĠĠĠĠĠĠĠĠĠĠĠĠĠĠĠĠĠĠĠĠĠĠĠĠĠĠĠĠĠĠĠĠĠĠĠĠĠĠĠĠĠĠĠĠĠĠĠĠĠĠĠĠĠĠĠĠĠĠĠĠĠĠĠĠĠĠĠĠĠĠĠĠĠĠĠĠĠĠĠĠĠĠĠĠĠĠĠĠĠĠĠĠĠĠĠĠĠĠĠĠĠĠĠĠĠĠĠĠĠĠĠĠĠĠĠĠĠĠĠĠĠĠĠĠĠĠĠĠĠĠĠĠĠĠĠĠĠĠĠĠĠĠĠĠĠĠĠĠĠĠĠĠĠĠĠĠĠĠĠĠĠĠĠĠĠĠĠĠĠĠĠĠĠĠĠĠĠĠĠĠĠĠĠĠĠĠĠĠĠĠĠĠĠĠĠĠĠĠĠĠĠĠĠĠĠĠĠĠĠĠĠĠĠĠĠĠĠĠĠĠĠĠĠĠĠĠĠĠĠĠĠĠĠĠĠĠĠĠĠĠĠĠĠĠĠĠĠĠĠĠĠĠĠĠĠĠĠĠĠĠĠĠĠĠĠĠĠĠĠĠĠĠĠĠĠĠĠĠĠĠĠĠĠĠĠĠĠĠĠĠĠĠĠĠĠĠĠĠĠĠĠĠĠĠĠĠĠĠĠĠĠĠĠĠĠĠĠĠĠĠĠĠĠĠĠĠĠĠĠĠĠĠĠĠĠĠĠĠĠĠĠĠĠĠĠĠĠĠĠĠĠĠĠĠĠĠĠĠĠĠĠĠĠĠĠĠĠĠĠĠĠĠĠĠĠĠĠĠĠĠĠĠĠĠĠĠĠĠĠĠĠĠĠĠĠĠĠĠĠĠĠĠĠĠĠĠĠĠĠĠĠĠĠĠĠĠĠĠĠĠĠĠĠĠĠĠĠĠĠĠĠĠĠĠĠĠĠĠĠĠĠĠĠĠĠĠĠĠĠĠĠĠĠĠĠĠĠĠĠĠĠĠĠĠĠĠĠĠĠĠĠĠĠĠĠĠĠĠĠĠĠĠĠĠĠĠĠĠĠĠĠĠĠĠĠĠĠĠĠĠĠĠĠĠĠĠĠĠĠĠĠĠĠĠĠĠĠĠĠĠĠĠĠĠĠĠĠĠĠĠĠĠĠĠĠĠĠĠĠĠĠĠĠĠĠĠĠĠĠĠĠĠĠĠĠĠĠĠĠĠĠĠĠĠĠĠĠĠĠĠĠĠĠĠĠĠĠĠĠĠĠĠĠĠĠĠĠĠĠĠĠĠĠĠĠĠĠĠĠĠĠĠĠĠĠĠĠĠĠĠĠĠĠĠĠĠĠĠĠĠĠĠĠĠĠĠĠĠĠĠĠĠĠĠĠĠĠĠĠĠĠĠĠĠĠĠĠĠĠĠĠĠĠĠĠĠĠĠĠĠĠĠĠĠĠĠĠĠĠĠĠĠĠĠĠĠĠĠĠĠĠĠĠĠĠĠĠĠĠĠĠĠĠĠĠĠĠĠĠĠĠĠĠĠĠĠĠĠĠĠĠĠĠĠĠĠĠĠĠĠĠĠĠĠĠĠĠĠĠĠĠĠĠĠĠĠĠĠĠĠĠĠĠĠĠĠĠĠĠĠĠĠĠĠĠĠĠĠĠĠĠĠĠĠĠĠĠĠĠĠĠĠĠĠĠĠĠĠĠĠĠĠĠĠĠĠĠĠĠĠĠĠĠĠĠĠĠĠĠĠĠĠĠĠĠĠĠĠĠĠĠĠĠĠĠĠĠĠĠĠĠĠĠĠĠĠĠĠĠĠĠĠĠĠĠĠĠĠĠĠĠĠĠĠĠĠĠĠĠĠĠĠĠĠĠĠĠĠĠĠĠĠĠĠĠĠĠĠĠĠĠĠĠĠĠĠĠĠĠĠĠĠĠĠĠĠĠĠĠĠĠĠĠĠĠĠĠĠĠĠĠĠĠĠĠĠĠĠĠĠĠĠĠĠĠĠĠĠĠĠĠĠĠĠĠĠĠĠĠĠĠĠĠĠĠĠĠĠĠĠĠĠĠĠĠĠĠĠĠĠĠĠĠĠĠĠĠĠĠĠĠĠĠĠĠĠĠĠĠĠĠĠĠĠĠĠĠĠĠĠĠĠĠĠĠĠĠĠĠĠĠĠĠĠĠĠĠĠĠĠĠĠĠĠĠĠĠĠĠĠĠĠĠĠĠĠĠĠĠĠĠĠĠĠĠĠĠĠĠĠĠĠĠĠĠĠĠĠĠĠĠĠĠĠĠĠĠĠĠĠĠĠĠĠĠĠĠĠĠĠĠĠĠĠĠĠĠĠĠĠĠĠĠĠĠĠĠĠĠĠĠĠĠĠĠĠĠĠĠĠĠĠĠĠĠĠĠĠĠĠĠĠĠĠĠĠĠĠĠĠĠĠĠĠĠĠĠĠĠĠĠĠĠĠĠĠĠĠĠĠĠĠĠĠĠĠĠĠĠĠĠĠĠĠĠĠĠĠĠĠĠĠĠĠĠĠĠĠĠĠĠĠĠĠĠĠĠĠĠĠĠĠĠĠĠĠĠĠĠĠĠĠĠĠĠĠĠĠĠĠĠĠĠĠĠĠĠĠĠĠĠĠĠĠĠĠĠĠĠĠĠĠĠĠĠĠĠĠĠĠĠĠĠĠĠĠĠĠĠĠĠĠĠĠĠĠĠĠĠĠĠĠĠĠĠĠĠĠĠĠĠĠĠĠĠĠĠĠĠĠĠĠĠĠĠĠĠĠĠĠĠĠĠĠĠĠĠĠĠĠĠĠĠĠĠĠĠĠĠĠĠĠĠĠĠĠĠĠĠĠĠĠĠĠĠĠĠĠĠĠĠĠĠĠĠĠĠĠĠĠĠĠĠĠĠĠĠĠĠĠĠĠĠĠĠĠĠĠĠĠĠĠĠĠĠĠĠĠĠĠĠĠĠĠĠĠĠĠĠĠĠĠĠĠĠĠĠĠĠĠĠĠĠĠĠĠĠĠĠĠĠĠĠĠĠĠĠĠĠĠĠĠĠĠĠĠĠĠĠĠĠĠĠĠĠĠĠĠĠĠĠĠĠĠĠĠĠĠĠĠĠĠĠĠĠĠĠĠĠĠĠĠĠĠĠĠĠĠĠĠĠĠĠĠĠĠĠĠĠĠĠĠĠĠĠĠĠĠĠĠĠĠĠĠĠĠĠĠĠĠĠĠĠĠĠĠĠĠĠĠĠĠĠĠĠĠĠĠĠĠĠĠĠĠĠĠĠĠĠĠĠĠĠĠĠĠĠĠĠĠĠĠĠĠĠĠĠĠĠĠĠĠĠĠĠĠĠĠĠĠĠĠĠĠĠĠĠĠĠĠĠĠĠĠĠĠĠĠĠĠĠĠĠĠĠĠĠĠĠĠĠĠĠĠĠĠĠĠĠĠĠĠĠĠĠĠĠĠĠĠĠĠĠĠĠĠĠĠĠĠĠĠĠĠĠĠĠĠĠĠĠĠĠĠ ĠĠĠĠĠĠĠĠĠĠĠĠĠĠĠĠĠĠĠĠĠĠĠĠĠĠĠĠĠĠĠĠĠĠĠĠĠĠĠĠĠĠĠĠĠĠĠĠĠĠĠĠĠĠĠĠĠĠĠĠĠĠĠĠ
manag ementĠ
vol unte
.ĠIt âĢĻsĠ
.ĠIt 'sĠ
fav or
fiel dĠ
oth ersĠ
N ew
c aseĠ
m ach
B I
C or
D is
J an
T H
d ail
h umanĠ
i x
k id
n u
p s
p en
s earchĠ
y etĠ
Ġ IĠ
th irdĠ
ar y
re port
ic tĠ
ro ad
ac e
you 'llĠ
am oun
wh iteĠ
for c
ateĠ theĠ
fromĠ aĠ
.ĠA llĠ
!Ġ Th
te st
lik elyĠ
day ,Ġ
mon thĠ
mem bersĠ
tak enĠ
foll owingĠ
happ en
proj ect
call edĠ
incre as
purch aseĠ
advertis ingĠ
S h
. """
G u
O r
P e
W ash
a hĠ
h tt
i es
i ousĠ
l or
m as
p an
u k
theĠ bestĠ
erĠ forĠ
em ailĠ
un ch
withĠ yourĠ
ed .ĠTheĠ
le astĠ
itĠ andĠ
qu ar
wor ksĠ
IĠ haveĠ
to dayĠ
wasĠ aĠ
we ightĠ
all ,Ġ
de st
ep tem
whichĠ isĠ
ass oci
dev ic
Ġm illionĠ
Re gi
stud ent
regi on
gener alĠ
addi tionalĠ
Serv ic
auth or
mul ti
www .
excell entĠ
er yĠ
3 2
D es
J ulyĠ
S und
a therĠ
e :Ġ
f le
g ar
n et
p astĠ
t ast
t ownĠ
u x
or ig
re co
re sum
ingĠ yourĠ
it chĠ
esĠ aĠ
anĠ andĠ
us edĠtoĠ
ur yĠ
ab or
un Ġ
com bin
tionĠ ofĠtheĠ
uc k
te am
ep tĠ
inter estĠ
ord erĠtoĠ
des cri
iti veĠ
ot eĠ
.ĠIfĠ youĠareĠ
bel owĠ
high -
dur ingĠtheĠ
too kĠ
sty leĠ
anal ys
individ u
direct lyĠ
CountyĠ Counc
perf ectĠ
wed dingĠ
washerĠ dryerĠ
ĠandĠ theĠ
/ /
: //
L E
S am
T I
c and
f ail
f arĠ
g lobalĠ
m oun
p ayĠ
t ableĠ
w oodĠ
er fulĠ
.Ġ Ch
ti fic
re sist
re leas
ofĠ ourĠ
ic ationsĠ
ro c
you n
am az
em p
ag eĠofĠ
tr adi
ationĠ forĠ
no v
ter sĠ
all owsĠ
our ceĠ
rec ord
anc edĠ
makeĠ sureĠ
ans w
adv ant
plan ningĠ
prac tic
6 0
c aus
g ood
i o
l owerĠ
y m
sĠ isĠ
th is
theĠ mostĠ
aĠ isĠ
ro duc
you 'reĠ
am ongĠ
ev id
com peti
sh areĠ
ex Ġ
tion s,Ġ
gr ound
.ĠA tĠ
.ĠA fterĠ
pr im
mo vi
bo tt
gi venĠ
comm erc
mentĠ ofĠ
off er
ant lyĠ
.ĠThisĠ isĠ
dev iceĠ
sa id
web siteĠ
col orĠ
bel ow
ei therĠ
bre ak
leg alĠ
spac eĠ
proper tyĠ
deli ver
doesĠ notĠ
alongĠ withĠ
gir l
ĠĠĠĠĠĠĠĠĠĠĠĠĠĠĠĠ ĠĠĠĠĠĠĠĠ
ĠĠĠĠĠĠĠĠĠĠĠĠĠĠĠĠĠĠĠĠĠĠĠĠĠĠĠĠĠĠĠĠĠĠĠĠĠĠĠĠĠĠĠĠĠĠĠĠĠĠĠĠĠĠĠĠĠĠĠĠĠĠĠĠĠĠĠĠĠĠĠĠĠĠĠĠĠĠĠĠĠĠĠĠĠĠĠĠĠĠĠĠĠĠĠĠĠĠĠĠĠĠĠĠĠĠĠĠĠĠĠĠĠĠĠĠĠĠĠĠĠĠĠĠĠĠĠĠĠĠĠĠĠĠĠĠĠĠĠĠĠĠĠĠĠĠĠĠĠĠĠĠĠĠĠĠĠĠĠĠĠĠĠĠĠĠĠĠĠĠĠĠĠĠĠĠĠĠĠĠĠĠĠĠĠĠĠĠĠĠĠĠĠĠĠĠĠĠĠĠĠĠĠĠĠĠĠĠĠĠĠĠĠĠĠĠĠĠĠĠĠĠĠĠĠĠĠĠĠĠĠĠĠĠĠĠĠĠĠĠĠĠĠĠĠĠĠĠĠĠĠĠĠĠĠĠĠĠĠĠĠĠĠĠĠĠĠĠĠĠĠĠĠĠĠĠĠĠĠĠĠĠĠĠĠĠĠĠĠĠĠĠĠĠĠĠĠĠĠĠĠĠĠĠĠĠĠĠĠĠĠĠĠĠĠĠĠĠĠĠĠĠĠĠĠĠĠĠĠĠĠĠĠĠĠĠĠĠĠĠĠĠĠĠĠĠĠĠĠĠĠĠĠĠĠĠĠĠĠĠĠĠĠĠĠĠĠĠĠĠĠĠĠĠĠĠĠĠĠĠĠĠĠĠĠĠĠĠĠĠĠĠĠĠĠĠĠĠĠĠĠĠĠĠĠĠĠĠĠĠĠĠĠĠĠĠĠĠĠĠĠĠĠĠĠĠĠĠĠĠĠĠĠĠĠĠĠĠĠĠĠĠĠĠĠĠĠĠĠĠĠĠĠĠĠĠĠĠĠĠĠĠĠĠĠĠĠĠĠĠĠĠĠĠĠĠĠĠĠĠĠĠĠĠĠĠĠĠĠĠĠĠĠĠĠĠĠĠĠĠĠĠĠĠĠĠĠĠĠĠĠĠĠĠĠĠĠĠĠĠĠĠĠĠĠĠĠĠĠĠĠĠĠĠĠĠĠĠĠĠĠĠĠĠĠĠĠĠĠĠĠĠĠĠĠĠĠĠĠĠĠĠĠĠĠĠĠĠĠĠĠĠĠĠĠĠĠĠĠĠĠĠĠĠĠĠĠĠĠĠĠĠĠĠĠĠĠĠĠĠĠĠĠĠĠĠĠĠĠĠĠĠĠĠĠĠĠĠĠĠĠĠĠĠĠĠĠĠĠĠĠĠĠĠĠĠĠĠĠĠĠĠĠĠĠĠĠĠĠĠĠĠĠĠĠĠĠĠĠĠĠĠĠĠĠĠĠĠĠĠĠĠĠĠĠĠĠĠĠĠĠĠĠĠĠĠĠĠĠĠĠĠĠĠĠĠĠĠĠĠĠĠĠĠĠĠĠĠĠĠĠĠĠĠĠĠĠĠĠĠĠĠĠĠĠĠĠĠĠĠĠĠĠĠĠĠĠĠĠĠĠĠĠĠĠĠĠĠĠĠĠĠĠĠĠĠĠĠĠĠĠĠĠĠĠĠĠĠĠĠĠĠĠĠĠĠĠĠĠĠĠĠĠĠĠĠĠĠĠĠĠĠĠĠĠĠĠĠĠĠĠĠĠĠĠĠĠĠĠĠĠĠĠĠĠĠĠĠĠĠĠĠĠĠĠĠĠĠĠĠĠĠĠĠĠĠĠĠĠĠĠĠĠĠĠĠĠĠĠĠĠĠĠĠĠĠĠĠĠĠĠĠĠĠĠĠĠĠĠĠĠĠĠĠĠĠĠĠĠĠĠĠĠĠĠĠĠĠĠĠĠĠĠĠĠĠĠĠĠĠĠĠĠĠĠĠĠĠĠĠĠĠĠĠĠĠĠĠĠĠĠĠĠĠĠĠĠĠĠĠĠĠĠĠĠĠĠĠĠĠĠĠĠĠĠĠĠĠĠĠĠĠĠĠĠĠĠĠĠĠĠĠĠĠĠĠĠĠĠĠĠĠĠĠĠĠĠĠĠĠĠĠĠĠĠĠĠĠĠĠĠĠĠĠĠĠĠĠĠĠĠĠĠĠĠĠĠĠĠĠĠĠĠĠĠĠĠĠĠĠĠĠĠĠĠĠĠĠĠĠĠĠĠĠĠĠĠĠĠĠĠĠĠĠĠĠĠĠĠĠĠĠĠĠĠĠĠĠĠĠĠĠĠĠĠĠĠĠĠĠĠĠĠĠĠĠĠĠĠĠĠĠĠĠĠĠĠĠĠĠĠĠĠĠĠĠĠĠĠĠĠĠĠĠĠĠĠĠĠĠĠĠĠĠĠĠĠĠĠĠĠĠĠĠĠĠĠĠĠĠĠĠĠĠĠĠĠĠĠĠĠĠĠĠĠĠĠĠĠĠĠĠĠĠĠĠĠĠĠĠĠĠĠĠĠĠĠĠĠĠĠĠĠĠĠĠĠĠĠĠĠĠĠĠĠĠĠĠĠĠĠĠĠĠĠĠĠĠĠĠĠĠĠĠĠĠĠĠĠĠĠĠĠĠĠĠĠĠĠĠĠĠĠĠĠĠĠĠĠĠĠĠĠĠĠĠĠĠĠĠĠĠĠĠĠĠĠĠĠĠĠĠĠĠĠĠĠĠĠĠĠĠĠĠĠĠĠĠĠĠĠĠĠĠĠĠĠĠĠĠĠĠĠĠĠĠĠĠĠĠĠĠĠĠĠĠĠĠĠĠĠĠĠĠĠĠĠĠĠĠĠĠĠĠĠĠĠĠĠĠĠĠĠĠĠĠĠĠĠĠĠĠĠĠĠĠĠĠĠĠĠĠĠĠĠĠĠĠĠĠĠĠĠĠĠĠĠĠĠĠĠĠĠĠĠĠĠĠĠĠĠĠĠĠĠĠĠĠĠĠĠĠĠĠĠĠĠĠĠĠĠĠĠĠĠĠĠĠĠĠĠĠĠĠĠĠĠĠĠĠĠĠĠĠĠĠĠĠĠĠĠĠĠĠĠĠĠĠĠĠĠĠĠĠĠĠĠĠĠĠĠĠĠĠĠĠĠĠĠĠĠĠĠĠĠĠĠĠĠĠĠĠĠĠĠĠĠĠĠĠĠĠĠĠĠĠĠĠĠĠĠĠĠĠĠĠĠĠĠĠĠĠĠĠĠĠĠĠĠĠĠĠĠĠĠĠĠĠĠĠĠĠĠĠĠĠĠĠĠĠĠĠĠĠĠĠĠĠĠĠĠĠĠĠĠĠĠĠĠĠĠĠĠĠĠĠĠĠĠĠĠĠĠĠĠĠĠĠĠĠĠĠĠĠĠĠĠĠĠĠĠĠĠĠĠĠĠĠĠĠĠĠĠĠĠĠĠĠĠĠĠĠĠĠĠĠĠĠĠĠĠĠĠĠĠĠĠĠĠĠĠĠĠĠĠĠĠĠĠĠĠĠĠĠĠĠĠĠĠĠĠĠĠĠĠĠĠĠĠĠĠĠĠĠĠĠĠĠĠĠĠĠĠĠĠĠĠĠĠĠĠĠĠĠĠĠĠĠĠĠĠĠĠĠĠĠĠĠĠĠĠĠĠĠĠĠĠĠĠĠĠĠĠĠĠĠĠĠĠĠĠĠĠĠĠĠĠĠĠĠĠĠĠĠĠĠĠĠĠĠĠĠĠĠĠĠĠĠĠĠĠĠĠĠĠĠĠĠĠĠĠĠĠĠĠĠĠĠĠĠĠĠĠĠĠĠĠĠĠĠĠĠĠĠĠĠĠĠĠĠĠĠĠĠĠĠĠĠĠĠĠĠĠĠĠĠĠĠĠĠĠĠĠĠĠĠĠĠĠĠĠĠĠĠĠĠĠĠĠĠĠĠĠĠĠĠĠĠĠĠĠĠĠĠĠĠĠĠĠĠĠĠĠĠĠĠĠĠĠĠĠĠĠĠĠĠĠĠĠĠĠĠĠĠĠĠĠĠĠĠĠĠĠĠĠĠĠĠĠĠĠĠĠĠĠĠĠĠĠĠĠĠĠĠĠĠĠĠĠĠĠĠĠĠĠĠĠĠĠĠĠĠĠĠĠĠĠĠĠĠĠĠĠĠĠĠĠĠĠĠĠĠĠĠĠĠĠĠĠĠĠĠĠĠĠĠĠĠĠĠĠĠĠĠĠĠĠĠĠĠĠĠĠĠĠĠĠĠĠĠĠĠĠĠĠĠĠĠĠĠĠĠĠĠĠĠĠĠĠĠĠĠĠĠĠĠĠĠĠĠĠĠĠĠĠĠĠĠĠĠĠĠĠĠĠĠĠĠĠĠĠĠĠĠĠĠĠĠĠĠĠĠĠĠĠĠĠĠĠĠĠĠĠĠĠĠĠĠĠĠĠĠĠĠĠĠĠĠ ĠĠĠĠĠĠĠĠĠĠĠĠĠĠĠĠĠĠĠĠĠĠĠĠĠĠĠĠĠĠĠĠĠĠĠĠĠĠĠĠĠĠĠĠĠĠĠĠĠĠĠĠĠĠĠĠĠĠĠĠĠĠĠĠĠĠĠĠĠĠĠĠĠĠĠĠĠĠĠĠĠĠĠĠĠĠĠĠĠĠĠĠĠĠĠĠĠĠĠĠĠĠĠĠĠĠĠĠĠĠĠĠĠĠĠĠĠĠĠĠĠĠĠĠĠĠĠĠĠĠĠĠĠĠĠĠĠĠĠĠĠĠĠĠĠĠĠĠĠĠĠĠĠĠĠĠĠĠĠĠĠĠĠĠĠĠĠĠĠĠĠĠĠĠĠĠĠĠĠĠĠĠĠĠĠĠĠĠĠĠĠĠĠĠĠĠĠĠĠĠĠĠĠĠĠĠĠĠĠĠĠĠĠĠĠĠĠĠĠĠĠĠĠĠĠĠĠĠĠĠĠĠĠĠĠĠĠĠĠĠĠĠĠĠĠĠĠĠĠĠĠĠĠĠĠĠĠĠĠĠĠĠĠĠĠĠĠĠĠĠĠĠĠĠĠĠĠĠĠĠĠĠĠĠĠĠĠĠĠĠĠĠĠĠĠĠĠĠĠĠĠĠĠĠĠĠĠĠĠĠĠĠĠĠĠĠĠĠĠĠĠĠĠĠĠĠĠĠĠĠĠĠĠĠĠĠĠĠĠĠĠĠĠĠĠĠĠĠĠĠĠĠĠĠĠĠĠĠĠĠĠĠĠĠĠĠĠĠĠĠĠĠĠĠĠĠĠĠĠĠĠĠĠĠĠĠĠĠĠĠĠĠĠĠĠĠĠĠĠĠĠĠĠĠĠĠĠĠĠĠĠĠĠĠĠĠĠĠĠĠĠĠĠĠĠĠĠĠĠĠĠĠĠĠĠĠĠĠĠĠĠĠĠĠĠĠĠĠĠĠĠĠĠĠĠĠĠĠĠĠĠĠĠĠĠĠĠĠĠĠĠĠĠĠĠĠĠĠĠĠĠĠĠĠĠĠĠĠĠĠĠĠĠĠĠĠĠĠĠĠĠĠĠĠĠĠĠĠĠĠĠĠ
bo ard
A m
B e
H owĠ
I D
N e
U SĠ
c lim
l owĠ
l ess
r id
r ap
s av
Ġ forĠ
ĠĠĠĠĠĠĠĠĠĠĠĠĠĠĠĠ ĠĠĠĠ
ar th
re spec
re main
edĠ asĠ
st ep
erĠ thanĠ
es tim
esĠ onĠ
us eĠofĠ
wi d
con sul
âĢĻ veĠ
im m
lo v
be h
s.Ġ WeĠ
ear n
ateĠ andĠ
ersĠ areĠ
se enĠ
he atĠ
comm onĠ
ph on
fi veĠ
min im
ous lyĠ
vis ionĠ
sim pleĠ
sub j
.ĠWh atĠ
run ningĠ
curr entlyĠ
ra therĠ
hous eĠ
rang eĠofĠ
Un itedĠ
func tion
beg in
din ingĠ
acros sĠ
phys icalĠ
hal fĠ
acti vi
C ar
ar kĠ
A C
B o
M edi
O c
W est
c ut
f yĠ
f ig
h um
h osp
i th
m allĠ
n ameĠ
r ing
w entĠ
on lin
al eĠ
ch atĠ
us uallyĠ
wh at
com fort
con c
le yĠ
su it
itĠ toĠ
wor d
bu t
soĠ muchĠ
tim e.Ġ
de al
.ĠA sĠ
Ch ris
ord erĠ
min dĠ
with inĠtheĠ
inv it
mis sion
cho oseĠ
col or
olog icalĠ
foll ow
siz eĠ
bro ad
intern ationalĠ
pi ec
kind leĠ
Jo h
char ac
maj orĠ
Wind owsĠ
U. S
er y
at e
str ationĠ
b ath
m asĠ
m ad
n ight
s ou
s entĠ
s ell
u Ġ
Ġ year
th in
in j
in s
on icĠ
aĠ greatĠ
ofĠ S
es .ĠS
at or
at tr
it ,Ġ
us erĠ
forĠ anyĠ
ol eĠ
ent r
ter mĠ
av o
mo veĠ
bo x
pre vi
eas yĠ
loc k
sec ond
dec or
cer tainĠ
fam il
resul tsĠ
require dĠ
set t
enjo y
sof twareĠ
Gre enĠ
try ingĠtoĠ
opportun ityĠ
rest aur
simil arĠ
k et
at ed
bu yĠ
- -
A ,Ġ
M e
a -
a ver
c ameĠ
n ationalĠ
p edĠ
p ast
r out
s we
y .ĠTheĠ
y stem
Ġ Th
er -
en ousĠ
ar en
al readyĠ
ingĠ forĠ
ingĠ toĠtheĠ
inĠ myĠ
esĠ inĠtheĠ
ac qu
ec hĠ
is m
youĠ mayĠ
thatĠ weĠ
ag e,Ġ
for wardĠ
im medi
oc kĠ
form erĠ
he av
gre enĠ
up onĠ
mem ber
Ad -
foll owĠ
posi tionĠ
childr enĠ
bab lyĠ
govern mentĠ
kitch enĠ
mob ileĠ
2 2
A S
B i
B ar
C re
I t
I tĠ
O ff
R O
T e
T ri
f fĠ
h o
p ic
s il
t s,Ġ
t our
v ent
w ineĠ
Â ®
Ġ per
Ġ minut
sĠ fromĠ
er n
en n
en sĠ
al u
st ayĠ
st epĠ
onĠ S
inĠ theirĠ
it al
is od
kĠ toĠ
su ff
âĢĻ reĠ
fr am
ap point
sp or
to t
all ow
end oz
mo del
!Ġ IĠ
pre mi
anceĠ ofĠ
comp any
ack erĠ
sc en
fl ow
Com p
.ĠO neĠ
fac tĠ
bas edĠonĠ
wat chĠ
devel opĠ
buil d
Pro gr
remo v
typ eĠofĠ
rang eĠ
ankĠ youĠ
conn ect
recei veĠ
Man ag
dam ag
Grou pĠ
stit ut
Eu ro
TV Ġ
your selfĠ
tou ch
jour ne
dail yĠ
beh indĠ
2 1
; ĠandĠ
D ec
R oy
T o
f ol
g en
g erĠ
i k
v entĠ
Ġ O
in essĠ
er âĢĻsĠ
re f
re li
es sĠandĠ
at edĠtoĠ
el y,Ġ
ac tionĠ
ac tiveĠ
atĠ leastĠ
us hĠ
us ingĠtheĠ
us ionĠ
id entĠ
thatĠ areĠ
le av
ex erc
âĢĻ llĠ
e,Ġ butĠ
qu il
"" .
um eĠ
um pĠ
ersĠ ofĠ
pr inc
.ĠS t
Ch in
fi x
getĠ theĠ
19 7
includ esĠ
ob j
ish ingĠ
vis it
thereĠ isĠ
sum merĠ
web Ġ
ke ep
stud yĠ
reg ul
ectionĠ ofĠ
custom ersĠ
aroundĠ theĠ
partic ularĠ
mean sĠ
ques tionsĠ
Uni vers
industr yĠ
IâĢĻ mĠ
environ ment
GP LA
pret tyĠ
BI OĠ
commerc ialĠ
Chris ti
reg ularĠ
6 5
F il
G e
H omeĠ
I 'mĠ
M ac
O S
b ul
i aĠ
m ineĠ
n ightĠ
p ul
p ageĠ
s endĠ
u sĠtoĠ
w ishĠ
th ous
in -
.Ġ U
theĠ firstĠ
ar r
re present
at e,Ġ
forĠ allĠ
am pĠ
em o
ad vis
ed ic
oo kĠ
su per
su gg
sh ould
ay ,Ġ
wor dĠ
bu tt
se eĠtheĠ
bl ackĠ
weĠ canĠ
.ĠW e
gi vesĠ
In dig
fir m
St udi
ust ri
enti reĠ
.ĠInĠ addi
are a
fac il
diff icul
pa idĠ
high lyĠ
wat ch
any oneĠ
applic ation
pol i
Di rect
buil dĠ
trans form
every oneĠ
market ingĠ
shop pingĠ
techn ologyĠ
consid er
job Ġ
mustĠ beĠ
dist ri
impro veĠ
secur ityĠ
financ ialĠ
lic ens
Ġ R
F in
G ener
I DĠ
P al
W at
b allĠ
c ard
e th
e 'sĠ
f oo
f ood
f reshĠ
g end
l edĠ
m ess
n orm
r adi
s us
t estĠ
ti t
al tern
ingĠ withĠ
st oreĠ
es s,Ġ
at oryĠ
it te
is sion
forĠ anĠ
pro bablyĠ
li z
tr u
tr ou
tr ueĠ
le aveĠ
ap os
sp ort
lo gĠ
s.Ġ B
edĠtoĠ beĠ
de alĠ
weĠ haveĠ
vi ol
enc our
ther ap
fin alĠ
out doorĠ
.ĠH owever,Ġ
sy m
cr im
publ ic
eff ici
bed roomĠ
anti queĠ
lev elĠ
sw itch
saf et
anal y
atic Ġ
med icalĠ
wom enĠ
Scot tishĠ
concer n
deter min
quick lyĠ
Can ad
Sch oolĠ
meth od
dest in
Indig enousĠ
en ingĠ
ĠĠĠĠĠĠĠĠĠĠĠĠĠĠĠĠĠĠĠĠĠĠĠĠĠĠĠĠĠĠĠĠĠĠĠĠĠĠĠĠĠĠĠĠĠĠĠĠĠĠĠĠĠĠĠĠĠĠĠĠĠĠĠĠĠĠĠĠĠĠĠĠĠĠĠĠĠĠĠĠĠĠĠĠĠĠĠĠĠĠĠĠĠĠĠĠĠĠĠĠĠĠĠĠĠĠĠĠĠĠĠĠĠĠĠĠĠĠĠĠĠĠĠĠĠĠĠĠĠĠĠĠĠĠĠĠĠĠĠĠĠĠĠĠĠĠĠĠĠĠĠĠĠĠĠĠĠĠĠĠĠĠĠĠĠĠĠĠĠĠĠĠĠĠĠĠĠĠĠĠĠĠĠĠĠĠĠĠĠĠĠĠĠĠĠĠĠĠĠĠĠĠĠĠĠĠĠĠĠĠĠĠĠĠĠĠĠĠĠĠĠĠĠĠĠĠĠĠĠĠĠĠĠĠĠĠĠĠĠĠĠĠĠĠĠĠĠĠĠĠĠĠĠĠĠĠĠĠĠĠĠĠĠĠĠĠĠĠĠĠĠĠĠĠĠĠĠĠĠĠĠĠĠĠĠĠĠĠĠĠĠĠĠĠĠĠĠĠĠĠĠĠĠĠĠĠĠĠĠĠĠĠĠĠĠĠĠĠĠĠĠĠĠĠĠĠĠĠĠĠĠĠĠĠĠĠĠĠĠĠĠĠĠĠĠĠĠĠĠĠĠĠĠĠĠĠĠĠĠĠĠĠĠĠĠĠĠĠĠĠĠĠĠĠĠĠĠĠĠĠĠĠĠĠĠĠĠĠĠĠĠĠĠĠĠĠĠĠĠĠĠĠĠĠĠĠĠĠĠĠĠĠĠĠĠĠĠĠĠĠĠĠĠĠĠĠĠĠĠĠĠĠĠĠĠĠĠĠĠĠĠĠĠĠĠĠĠĠĠĠĠĠĠĠĠĠĠĠĠĠĠĠĠĠĠĠĠĠĠĠĠĠĠĠĠĠĠĠĠĠĠĠĠĠĠĠĠĠĠĠĠĠĠĠĠĠĠĠĠĠĠĠĠĠĠĠĠĠĠĠĠĠĠĠĠĠĠĠĠĠĠĠĠĠĠĠĠĠĠĠĠĠĠĠĠĠĠĠĠĠĠĠĠĠĠĠĠĠĠĠĠĠĠĠĠĠĠĠĠĠĠĠĠĠĠĠĠĠĠĠĠĠĠĠĠĠĠĠĠĠĠĠĠĠĠĠĠĠĠĠĠĠĠĠĠĠĠĠĠĠĠĠĠĠĠĠĠĠĠĠĠĠĠĠĠĠĠĠĠĠĠĠĠĠĠĠĠĠĠĠĠĠĠĠĠĠĠĠĠĠĠĠĠĠĠĠĠĠĠĠĠĠĠĠĠĠĠĠĠĠĠĠĠĠĠĠĠĠĠĠĠĠĠĠĠĠĠĠĠĠĠĠĠĠĠĠĠĠĠĠĠĠĠĠĠĠĠĠĠĠĠĠĠĠĠĠĠĠĠĠĠĠĠĠĠĠĠĠĠĠĠĠĠĠĠĠĠĠĠĠĠĠĠĠĠĠĠĠĠĠĠĠĠĠĠĠĠĠĠĠĠĠĠĠĠĠĠĠĠĠĠĠĠĠĠĠĠĠĠĠĠĠĠĠĠĠĠĠĠĠĠĠĠĠĠĠĠĠĠĠĠĠĠĠĠĠĠĠĠĠĠĠĠĠĠĠĠĠĠĠĠĠĠĠĠĠĠĠĠĠĠĠĠĠĠĠĠĠĠĠĠĠĠĠĠĠĠĠĠĠĠĠĠĠĠĠĠĠĠĠĠĠĠĠĠĠĠĠĠĠĠĠĠĠĠĠĠĠĠĠĠĠĠĠĠĠĠĠĠĠĠĠĠĠĠĠĠĠĠĠĠĠĠĠĠĠĠĠĠĠĠĠĠĠĠĠĠĠĠĠĠĠĠĠĠĠĠĠĠĠĠĠĠĠĠĠĠĠĠĠĠĠĠĠĠĠĠĠĠĠĠĠĠĠĠĠĠĠĠĠĠĠĠĠĠĠĠĠĠĠĠĠĠĠĠĠĠĠĠĠĠĠĠĠĠĠĠĠĠĠĠĠĠĠĠĠĠĠĠĠĠĠĠĠĠĠĠĠĠĠĠĠĠĠĠĠĠĠĠĠĠĠĠĠĠĠĠĠĠĠĠĠĠĠĠĠĠĠĠĠĠĠĠĠĠĠĠĠĠĠĠĠĠĠĠĠĠĠĠĠĠĠĠĠĠĠĠĠĠĠĠĠĠĠĠĠĠĠĠĠĠĠĠĠĠĠĠĠĠĠĠĠĠĠĠĠĠĠĠĠĠĠĠĠĠĠĠĠĠĠĠĠĠĠĠĠĠĠĠĠĠĠĠĠĠĠĠĠĠĠĠĠĠĠĠĠĠĠĠĠĠĠĠĠĠĠĠĠĠĠĠĠĠĠĠĠĠĠĠĠĠĠĠĠĠĠĠĠĠĠĠĠĠĠĠĠĠĠĠĠĠĠĠĠĠĠĠĠĠĠĠĠĠĠĠĠĠĠĠĠĠĠĠĠĠĠĠĠĠĠĠĠĠĠĠĠĠĠĠĠĠĠĠĠĠĠĠĠĠĠĠĠĠĠĠĠĠĠĠĠĠĠĠĠĠĠĠĠĠĠĠĠĠĠĠĠĠĠĠĠĠĠĠĠĠĠĠĠĠĠĠĠĠĠĠĠĠĠĠĠĠĠĠĠĠĠĠĠĠĠĠĠĠĠĠĠĠĠĠĠĠĠĠĠĠĠĠĠĠĠĠĠĠĠĠĠĠĠĠĠĠĠĠĠĠĠĠĠĠĠĠĠĠĠĠĠĠĠĠĠĠĠĠĠĠĠĠĠĠĠĠĠĠĠĠĠĠĠĠĠĠĠĠĠĠĠĠĠĠĠĠĠĠĠĠĠĠĠĠĠĠĠĠĠĠĠĠĠĠĠĠĠĠĠĠĠĠĠĠĠĠĠĠĠĠĠĠĠĠĠĠĠĠĠĠĠĠĠĠĠĠĠĠĠĠĠĠĠĠĠĠĠĠĠĠĠĠĠĠĠĠĠĠĠĠĠĠĠĠĠĠĠĠĠĠĠĠĠĠĠĠĠĠĠĠĠĠĠĠĠĠĠĠĠĠĠĠĠĠĠĠĠĠĠĠĠĠĠĠĠĠĠĠĠĠĠĠĠĠĠĠĠĠĠĠĠĠĠĠĠĠĠĠĠĠĠĠĠĠĠĠĠĠĠĠĠĠĠĠĠĠĠĠĠĠĠĠĠĠĠĠĠĠĠĠĠĠĠĠĠĠĠĠĠĠĠĠĠĠĠĠĠĠĠĠĠĠĠĠĠĠĠĠĠĠĠĠĠĠĠĠĠĠĠĠĠĠĠĠĠĠĠĠĠĠĠĠĠĠĠĠĠĠĠĠĠĠĠĠĠĠĠĠĠĠĠĠĠĠĠĠĠĠĠĠĠĠĠĠĠĠĠĠĠĠĠĠĠĠĠĠĠĠĠĠĠĠĠĠĠĠĠĠĠĠĠĠĠĠĠĠĠĠĠĠĠĠĠĠĠĠĠĠĠĠĠĠĠĠĠĠĠĠĠĠĠĠĠĠĠĠĠĠĠĠĠĠĠĠĠĠĠĠĠĠĠĠĠĠĠĠĠĠĠĠĠĠĠĠĠĠĠĠĠĠĠĠĠĠĠĠĠĠĠĠĠĠĠĠĠĠĠĠĠĠĠĠĠĠĠĠĠĠĠĠĠĠĠĠĠĠĠĠĠĠĠĠĠĠĠĠĠĠĠĠĠĠĠĠĠĠĠĠĠĠĠĠĠĠĠĠĠĠĠĠĠĠĠĠĠĠĠĠĠĠĠĠĠĠĠĠĠĠĠĠĠĠĠĠĠĠĠĠĠĠĠĠĠĠĠĠĠĠĠĠĠĠĠĠĠĠĠĠĠĠĠĠĠĠĠĠĠĠĠĠĠĠĠĠĠĠĠĠĠĠĠĠĠĠĠĠĠĠĠĠĠĠĠĠĠĠĠĠĠĠĠĠĠĠĠĠĠĠĠĠĠĠĠĠĠĠĠĠĠĠĠĠĠĠĠĠĠĠĠĠĠĠĠĠĠĠĠĠĠĠĠĠĠĠĠĠĠĠĠĠĠĠĠĠĠĠĠĠĠĠĠĠĠĠĠĠĠĠĠĠĠĠĠĠĠĠĠĠĠĠĠĠĠĠĠĠĠĠĠĠĠĠĠĠĠĠĠĠĠĠĠĠĠĠĠĠĠĠĠĠĠĠĠĠĠĠĠĠĠĠĠĠĠĠĠĠĠĠĠĠĠĠĠĠĠĠĠĠĠĠĠĠĠĠĠĠĠĠĠĠĠĠĠĠĠĠĠĠĠĠĠĠĠĠĠĠĠĠĠĠĠĠĠĠĠĠĠĠĠĠĠĠĠĠĠĠĠĠĠĠĠĠĠĠĠĠĠĠĠĠĠĠĠĠĠĠĠĠĠĠĠĠĠĠĠĠĠĠĠĠĠĠĠĠĠĠĠĠĠĠĠĠĠĠĠĠĠĠĠĠĠĠĠĠĠĠĠĠĠĠĠĠĠĠĠĠĠĠĠĠĠĠĠĠĠĠĠĠĠĠĠĠĠĠĠĠĠĠĠĠĠĠĠĠĠĠĠĠĠĠĠĠĠĠĠĠĠĠĠĠĠĠĠĠĠĠĠĠĠĠĠĠĠĠĠĠĠĠĠĠĠĠĠĠĠĠĠĠĠĠĠĠĠĠĠĠĠĠĠĠĠĠĠĠĠĠĠĠĠĠĠĠĠĠĠĠĠĠĠĠĠĠĠĠĠĠĠĠĠĠĠĠĠĠĠĠĠĠĠĠĠĠĠĠĠĠĠĠĠĠĠĠĠĠĠĠĠĠĠĠĠĠĠĠĠĠĠĠĠĠĠĠĠĠĠĠĠĠĠĠĠĠĠĠĠĠĠĠĠĠĠĠĠĠĠĠĠĠĠĠĠĠĠĠĠĠĠĠĠĠĠĠĠĠĠĠĠĠĠĠĠĠĠĠĠĠĠĠĠĠĠĠĠĠĠĠĠĠĠĠĠĠĠĠĠĠĠĠĠĠĠĠĠĠĠĠĠĠĠĠĠĠĠĠĠĠĠĠĠĠĠĠĠĠĠĠĠĠĠĠĠĠĠĠĠĠĠĠĠĠĠĠĠĠĠĠĠĠĠĠĠĠĠĠĠĠĠĠĠĠĠĠĠĠĠĠĠĠĠĠĠĠĠĠĠĠĠĠĠĠĠĠĠĠĠĠĠĠĠĠĠĠĠĠĠĠĠĠĠĠĠĠĠĠĠĠĠĠĠĠĠĠĠĠĠĠĠĠĠĠĠĠĠĠĠĠĠĠĠĠĠĠĠĠĠĠĠĠĠĠĠĠĠĠĠĠĠĠĠĠĠĠĠĠĠĠĠĠĠĠĠĠĠĠĠĠĠĠĠĠĠĠĠĠĠĠĠĠĠĠĠĠĠĠĠĠĠĠĠĠĠĠĠĠĠĠĠĠĠĠĠĠĠĠĠĠĠĠĠĠĠĠĠĠĠĠĠĠĠĠĠĠĠĠĠĠĠĠĠĠĠĠĠĠĠĠĠĠĠĠĠĠĠĠĠĠĠĠĠĠĠĠĠĠĠĠĠĠĠĠĠĠĠĠĠĠĠĠĠĠĠĠĠĠĠĠĠĠĠĠĠĠĠĠĠĠĠĠĠĠĠĠĠĠĠĠĠĠĠĠĠĠĠĠĠĠĠĠĠĠĠĠĠĠĠĠĠĠĠĠĠĠĠĠĠĠĠĠĠĠĠĠĠĠĠĠĠĠĠĠĠĠĠĠĠĠĠĠĠĠĠĠĠĠĠĠĠĠĠĠĠĠĠĠĠĠĠĠĠĠĠĠĠĠĠĠĠĠĠĠĠĠĠĠĠĠĠĠĠĠĠĠĠĠĠĠĠĠĠĠĠĠĠĠĠĠĠĠĠĠĠĠĠĠĠĠĠĠĠĠĠĠĠĠĠĠĠĠĠĠĠĠĠĠĠĠĠĠĠĠĠĠĠĠĠĠĠĠĠĠĠĠĠĠĠĠĠĠĠĠĠĠĠĠĠĠĠĠĠĠĠĠĠĠĠĠĠĠĠĠĠĠĠĠĠĠĠĠĠĠĠĠĠĠĠĠĠĠĠĠĠĠĠĠĠĠĠĠĠĠĠĠĠĠĠĠĠĠĠĠĠĠĠĠĠĠĠĠĠĠĠĠĠĠĠĠĠĠĠĠĠĠĠĠĠĠĠĠĠĠĠĠĠĠĠĠĠĠĠĠĠĠĠĠĠĠĠĠĠĠĠĠĠĠĠĠĠĠĠĠĠĠĠĠĠĠĠĠĠĠĠĠĠĠĠĠĠĠĠĠĠĠĠĠĠĠĠĠĠĠĠĠĠĠĠĠĠĠĠĠĠĠĠĠĠĠĠĠĠĠĠĠĠĠĠĠĠĠĠĠĠĠĠĠĠĠĠĠĠĠĠĠĠĠĠĠĠĠĠĠĠĠĠĠĠĠĠĠĠĠĠĠĠĠĠĠĠĠĠĠĠĠĠĠĠĠĠĠĠĠĠĠĠĠĠĠĠĠĠĠĠĠĠĠĠĠĠ ĠĠĠĠĠĠĠĠĠĠĠĠĠĠĠĠĠĠĠĠĠĠĠĠĠĠĠĠĠĠĠĠĠĠĠĠĠĠĠĠĠĠĠĠĠĠĠĠĠĠĠĠĠĠĠĠĠĠĠĠĠĠĠĠĠĠĠĠĠĠĠĠĠĠĠĠĠĠĠĠĠĠĠĠĠĠĠĠĠĠĠĠĠĠĠĠĠĠĠĠĠĠĠĠĠĠĠĠĠĠĠĠĠĠĠĠĠĠĠĠĠĠĠĠĠĠĠĠ
2 8
4 5
D ev
E R
H ol
L on
O neĠ
P et
T u
V i
Y Ġ
a xĠ
b it
c astĠ
d re
d riv
f ab
f ind
g etsĠ
h ot
k indĠ
l an
o -
p in
u geĠ
,Ġ C
,Ġ itĠ
re turnĠ
aĠ newĠ
aĠ goodĠ
ofĠ theirĠ
onĠ andĠ
es ti
at sĠ
orĠ toĠ
esĠ withĠ
pl ain
forĠ you
youĠ needĠtoĠ
ag reeĠ
s,Ġ butĠ
ex act
ationĠ R
im ageĠ
cl oseĠ
thisĠ isĠ
por ateĠ
pr in
enc e,Ġ
me etĠ
br andĠ
acc ur
eas i
makeĠ aĠ
.ĠM yĠ
tur alĠ
mat ch
du eĠtoĠ
val ueĠ
thoseĠ whoĠ
friend lyĠ
incre aseĠ
well -
shallĠ beĠ
feature sĠ
seas on
success fulĠ
He al
Christ masĠ
Jan uaryĠ
& apos
S e
dom ainĠ
I TĠ
P AĠ
S pec
W ithĠ
d er
i el
l ingĠ
p ap
s om
s )Ġ
y âĢĻsĠ
eĠ forĠ
,Ġ O
al sĠandĠ
ingĠ ofĠtheĠ
edĠ atĠ
isĠ thatĠ
inĠ andĠ
el y
esĠ orĠ
com par
areĠ theĠ
tr ackĠ
tr aff
itĠ ofĠ
fr ic
ul t
ationĠ ofĠtheĠ
s.Ġ AĠ
tion sĠandĠ
e.Ġ M
op tionsĠ
allĠ ofĠ
par tĠ
oc c
co ff
ep t
br ingĠ
useĠ theĠ
ast erĠ
fir st
produc tionĠ
int roduc
ach ieveĠ
sup port
bec om
bec ameĠ
inst e
Di etaryĠ
buil dingĠ
tech ni
remo veĠ
so ,Ġ
"Ġ "
lead ingĠ
suppl i
bro k
Ap pl
.c Ġ(
doc um
conven i
repor tĠ
Commun ityĠ
Roy alĠ
exact lyĠ
A M
el tĠ
bo ardĠ
whenĠ youĠ
. âĢĿ
/ orĠ
2 3
2 6
A P
C N
G od
I S
I m
O R
X Ġ
a per
c ardĠ
h or
i oĠ
p ickĠ
r ent
r ul
r icĠ
s le
s tic
t el
w Ġ
w ood
y eĠ
y sĠ
Ġ atĠ
in flu
er iesĠ
er shipĠ
oĠ andĠ
re ach
re achĠ
aĠ M
edĠ orĠ
st udi
at aĠ
el op
ac tionsĠ
asĠ youĠ
asĠ well
thĠ andĠ
pl ant
pl ann
wh oleĠ
.ĠTh atĠ
oo k
con vers
tr ad
sh opĠ
no tic
res ourc
and /orĠ
str eng
se qu
se par
20 2
rec ordĠ
ang el
cre d
af for
br and
pre -
fe ed
fir mĠ
endĠ ofĠ
ment ,Ġ
sib ilityĠ
are asĠ
dec id
dec isionĠ
bas icĠ
wat er
befor eĠtheĠ
cam p
cam pa
.ĠWh ileĠ
Mar chĠ
Pl usĠ
abl esĠ
custom erĠ
stand ingĠ
so onĠ
contro l
suppl yĠ
reas onĠ
tow ardsĠ
sign ific
pati entsĠ
ser veĠ
individ ualĠ
enter tain
defin it
effec tiveĠ
does nâĢĻtĠ
Nor thĠ
imp actĠ
mic ro
eptem berĠ
I 'veĠ
r an
ure ,Ġ
2 7
C ong
G ard
H ous
I G
I r
T w
V o
a .
c ros
e .ĠThisĠ
f it
h itĠ
h earĠ
h ugeĠ
l istĠ
m id
m itt
s hap
x i
y l
Ġ J
Ġ withĠ
eĠ thatĠ
in depend
on sĠ
yĠ M
ing .ĠTheĠ
st op
st ain
st ack
il d
is edĠ
is mĠ
ch ainĠ
pl usĠ
forĠ thisĠ
am er
ent sĠandĠ
pro pos
ed .Ġ
ev alu
com eĠtoĠ
com pre
con duc
si veĠ
ul tĠ
ter yĠ
bu d
cl in
tim eĠandĠ
wasĠ theĠ
de gre
!Ġ H
te ach
eĠandĠ theĠ
me alĠ
dis eas
aw ay
ther nĠ
theyĠ canĠ
enceĠ andĠ
them sel
getĠ aĠ
provid edĠ
eas ilyĠ
âĢĿ .
int ell
whenĠ theĠ
ach iev
day sĠ
gu est
vis ion
someĠ ofĠtheĠ
eng ag
itt enĠ
intoĠ aĠ
Au g
ech n
pa per
any thingĠ
wr ittenĠ
soc i
ide asĠ
intern etĠ
consid erĠ
Serv iceĠ
lat erĠ
dom in
underĠ theĠ
fron tĠ
foc usĠ
fut ureĠ
pot entialĠ
coo k
trav elĠ
recomm end
exist ingĠ
Californi aĠ
Oc to
Euro pe
compre h
bu y
ĠĠĠĠĠĠĠĠĠĠĠĠĠĠĠĠĠĠĠĠĠĠĠĠĠĠĠĠĠĠĠĠĠĠĠĠĠĠĠĠĠĠĠĠĠĠĠĠĠĠĠĠĠĠĠĠĠĠĠĠĠĠĠĠĠĠĠĠĠĠĠĠĠĠĠĠĠĠĠĠĠĠĠĠĠĠĠĠĠĠĠĠĠĠĠĠĠĠĠĠĠĠĠĠĠĠĠĠĠĠĠĠĠĠĠĠĠĠĠĠĠĠĠĠĠĠĠĠĠĠĠĠĠĠĠĠĠĠĠĠĠĠĠĠĠĠĠĠĠĠĠĠĠĠĠĠĠĠĠĠĠĠĠĠĠĠĠĠĠĠĠĠĠĠĠĠĠĠĠĠĠĠĠĠĠĠĠĠĠĠĠĠĠĠĠĠĠĠĠĠĠĠĠĠĠĠĠĠĠĠĠĠĠĠĠĠĠĠĠĠĠĠĠĠĠĠĠĠĠĠĠĠĠĠĠĠĠĠĠĠĠĠĠĠĠĠĠĠĠĠĠĠĠĠĠĠĠĠĠĠĠĠĠĠĠĠĠĠĠĠĠĠĠĠĠĠĠĠĠĠĠĠĠĠĠĠĠĠĠĠĠĠĠĠĠĠĠĠĠĠĠĠĠĠĠĠĠĠĠĠĠĠĠĠĠĠĠĠĠĠĠĠĠĠĠĠĠĠĠĠĠĠĠĠĠĠĠĠĠĠĠĠĠĠĠĠĠĠĠĠĠĠĠĠĠĠĠĠĠĠĠĠĠĠĠĠĠĠĠĠĠĠĠĠĠĠĠĠĠĠĠĠĠĠĠĠĠĠĠĠĠĠĠĠĠĠĠĠĠĠĠĠĠĠĠĠĠĠĠĠĠĠĠĠĠĠĠĠĠĠĠĠĠĠĠĠĠĠĠĠĠĠĠĠĠĠĠĠĠĠĠĠĠĠĠĠĠĠĠĠĠĠĠĠĠĠĠĠĠĠĠĠĠĠĠĠĠĠĠĠĠĠĠĠĠĠĠĠĠĠĠĠĠĠĠĠĠĠĠĠĠĠĠĠĠĠĠĠĠĠĠĠĠĠĠĠĠĠĠĠĠĠĠĠĠĠĠĠĠĠĠĠĠĠĠĠĠĠĠĠĠĠĠĠĠĠĠĠĠĠĠĠĠĠĠĠĠĠĠĠĠĠĠĠĠĠĠĠĠĠĠĠĠĠĠĠĠĠĠĠĠĠĠĠĠĠĠĠĠĠĠĠĠĠĠĠĠĠĠĠĠĠĠĠĠĠĠĠĠĠĠĠĠĠĠĠĠĠĠĠĠĠĠĠĠĠĠĠĠĠĠĠĠĠĠĠĠĠĠĠĠĠĠĠĠĠĠĠĠĠĠĠĠĠĠĠĠĠĠĠĠĠĠĠĠĠĠĠĠĠĠĠĠĠĠĠĠĠĠĠĠĠĠĠĠĠĠĠĠĠĠĠĠĠĠĠĠĠĠĠĠĠĠĠĠĠĠĠĠĠĠĠĠĠĠĠĠĠĠĠĠĠĠĠĠĠĠĠĠĠĠĠĠĠĠĠĠĠĠĠĠĠĠĠĠĠĠĠĠĠĠĠĠĠĠĠĠĠĠĠĠĠĠĠĠĠĠĠĠĠĠĠĠĠĠĠĠĠĠĠĠĠĠĠĠĠĠĠĠĠĠĠĠĠĠĠĠĠĠĠĠĠĠĠĠĠĠĠĠĠĠĠĠĠĠĠĠĠĠĠĠĠĠĠĠĠĠĠĠĠĠĠĠĠĠĠĠĠĠĠĠĠĠĠĠĠĠĠĠĠĠĠĠĠĠĠĠĠĠĠĠĠĠĠĠĠĠĠĠĠĠĠĠĠĠĠĠĠĠĠĠĠĠĠĠĠĠĠĠĠĠĠĠĠĠĠĠĠĠĠĠĠĠĠĠĠĠĠĠĠĠĠĠĠĠĠĠĠĠĠĠĠĠĠĠĠĠĠĠĠĠĠĠĠĠĠĠĠĠĠĠĠĠĠĠĠĠĠĠĠĠĠĠĠĠĠĠĠĠĠĠĠĠĠĠĠĠĠĠĠĠĠĠĠĠĠĠĠĠĠĠĠĠĠĠĠĠĠĠĠĠĠĠĠĠĠĠĠĠĠĠĠĠĠĠĠĠĠĠĠĠĠĠĠĠĠĠĠĠĠĠĠĠĠĠĠĠĠĠĠĠĠĠĠĠĠĠĠĠĠĠĠĠĠĠĠĠĠĠĠĠĠĠĠĠĠĠĠĠĠĠĠĠĠĠĠĠĠĠĠĠĠĠĠĠĠĠĠĠĠĠĠĠĠĠĠĠĠĠĠĠĠĠĠĠĠĠĠĠĠĠĠĠĠĠĠĠĠĠĠĠĠĠĠĠĠĠĠĠĠĠĠĠĠĠĠĠĠĠĠĠĠĠĠĠĠĠĠĠĠĠĠĠĠĠĠĠĠĠĠĠĠĠĠĠĠĠĠĠĠĠĠĠĠĠĠĠĠĠĠĠĠĠĠĠĠĠĠĠĠĠĠĠĠĠĠĠĠĠĠĠĠĠĠĠĠĠĠĠĠĠĠĠĠĠĠĠĠĠĠĠĠĠĠĠĠĠĠĠĠĠĠĠĠĠĠĠĠĠĠĠĠĠĠĠĠĠĠĠĠĠĠĠĠĠĠĠĠĠĠĠĠĠĠĠĠĠĠĠĠĠĠĠĠĠĠĠĠĠĠĠĠĠĠĠĠĠĠĠĠĠĠĠĠĠĠĠĠĠĠĠĠĠĠĠĠĠĠĠĠĠĠĠĠĠĠĠĠĠĠĠĠĠĠĠĠĠĠĠĠĠĠĠĠĠĠĠĠĠĠĠĠĠĠĠĠĠĠĠĠĠĠĠĠĠĠĠĠĠĠĠĠĠĠĠĠĠĠĠĠĠĠĠĠĠĠĠĠĠĠĠĠĠĠĠĠĠĠĠĠĠĠĠĠĠĠĠĠĠĠĠĠĠĠĠĠĠĠĠĠĠĠĠĠĠĠĠĠĠĠĠĠĠĠĠĠĠĠĠĠĠĠĠĠĠĠĠĠĠĠĠĠĠĠĠĠĠĠĠĠĠĠĠĠĠĠĠĠĠĠĠĠĠĠĠĠĠĠĠĠĠĠĠĠĠĠĠĠĠĠĠĠĠĠĠĠĠĠĠĠĠĠĠĠĠĠĠĠĠĠĠĠĠĠĠĠĠĠĠĠĠĠĠĠĠĠĠĠĠĠĠĠĠĠĠĠĠĠĠĠĠĠĠĠĠĠĠĠĠĠĠĠĠĠĠĠĠĠĠĠĠĠĠĠĠĠĠĠĠĠĠĠĠĠĠĠĠĠĠĠĠĠĠĠĠĠĠĠĠĠĠĠĠĠĠĠĠĠĠĠĠĠĠĠĠĠĠĠĠĠĠĠĠĠĠĠĠĠĠĠĠĠĠĠĠĠĠĠĠĠĠĠĠĠĠĠĠĠĠĠĠĠĠĠĠĠĠĠĠĠĠĠĠĠĠĠĠĠĠĠĠĠĠĠĠĠĠĠĠĠĠĠĠĠĠĠĠĠĠĠĠĠĠĠĠĠĠĠĠĠĠĠĠĠĠĠĠĠĠĠĠĠĠĠĠĠĠĠĠĠĠĠĠĠĠĠĠĠĠĠĠĠĠĠĠĠĠĠĠĠĠĠĠĠĠĠĠĠĠĠĠĠĠĠĠĠĠĠĠĠĠĠĠĠĠĠĠĠĠĠĠĠĠĠĠĠĠĠĠĠĠĠĠĠĠĠĠĠĠĠĠĠĠĠĠĠĠĠĠĠĠĠĠĠĠĠĠĠĠĠĠĠĠĠĠĠĠĠĠĠĠĠĠĠĠĠĠĠĠĠĠĠĠĠĠĠĠĠĠĠĠĠĠĠĠĠĠĠĠĠĠĠĠĠĠĠĠĠĠĠĠĠĠĠĠĠĠĠĠĠĠĠĠĠĠĠĠĠĠĠĠĠĠĠĠĠĠĠĠĠĠĠĠĠĠĠĠĠĠĠĠĠĠĠĠĠĠĠĠĠĠĠĠĠĠĠĠĠĠĠĠĠĠĠĠĠĠĠĠĠĠĠĠĠĠĠĠĠĠĠĠĠĠĠĠĠĠĠĠĠĠĠĠĠĠĠĠĠĠĠĠĠĠĠĠĠĠĠĠĠĠĠĠĠĠĠĠĠĠĠĠĠĠĠĠĠĠĠĠĠĠĠĠĠĠĠĠĠĠĠĠĠĠĠĠĠĠĠĠĠĠĠĠĠĠĠĠĠĠĠĠĠĠĠĠĠĠĠĠĠĠĠĠĠĠĠĠĠĠĠĠĠĠĠĠĠĠĠĠĠĠĠĠĠĠĠĠĠĠĠĠĠĠĠĠĠĠĠĠĠĠĠĠĠĠĠĠĠĠĠĠĠĠĠĠĠĠĠĠĠĠĠĠĠĠĠĠĠĠĠĠĠĠĠĠĠĠĠĠĠĠĠĠĠĠĠĠĠĠĠĠĠĠĠĠĠĠĠĠĠĠĠĠĠĠĠĠĠĠĠĠĠĠĠĠĠĠĠĠĠĠĠĠĠĠĠĠĠĠĠĠĠĠĠĠĠĠĠĠĠĠĠĠĠĠĠĠĠĠĠĠĠĠĠĠĠĠĠĠĠĠĠĠĠĠĠĠĠĠĠĠĠĠĠĠĠĠĠĠĠĠĠĠĠĠĠĠĠĠĠĠĠĠĠĠĠĠĠĠĠĠĠĠĠĠĠĠĠĠĠĠĠĠĠĠĠĠĠĠĠĠĠĠĠĠĠĠĠĠĠĠĠĠĠĠĠĠĠĠĠĠĠĠĠĠĠĠĠĠĠĠĠĠĠĠĠĠĠĠĠĠĠĠĠĠĠĠĠĠĠĠĠĠĠĠĠĠĠĠĠĠĠĠĠĠĠĠĠĠĠĠĠĠĠĠĠĠĠĠĠĠĠĠĠĠĠĠĠĠĠĠĠĠĠĠĠĠĠĠĠĠĠĠĠĠĠĠĠĠĠĠĠĠĠĠĠĠĠĠĠĠĠĠĠĠĠĠĠĠĠĠĠĠĠĠĠĠĠĠĠĠĠĠĠĠĠĠĠĠĠĠĠĠĠĠĠĠĠĠĠĠĠĠĠĠĠĠĠĠĠĠĠĠĠĠĠĠĠĠĠĠĠĠĠĠĠĠĠĠĠĠĠĠĠĠĠĠĠĠĠĠĠĠĠĠĠĠĠĠĠĠĠĠĠĠĠĠĠĠĠĠĠĠĠĠĠĠĠĠĠĠĠĠĠĠĠĠĠĠĠĠĠĠĠĠĠĠĠĠĠĠĠĠĠĠĠĠĠĠĠĠĠĠĠĠĠĠĠĠĠĠĠĠĠĠĠĠĠĠĠĠĠĠĠĠĠĠĠĠĠĠĠĠĠĠĠĠĠĠĠĠĠĠĠĠĠĠĠĠĠĠĠĠĠĠĠĠĠĠĠĠĠĠĠĠĠĠĠĠĠĠĠĠĠĠĠĠĠĠĠĠĠĠĠĠĠĠĠĠĠĠĠĠĠĠĠĠĠĠĠĠĠĠĠĠĠĠĠĠĠĠĠĠĠĠĠĠĠĠĠĠĠĠĠĠĠĠĠĠĠĠĠĠĠĠĠĠĠĠĠĠĠĠĠĠĠĠĠĠĠĠĠĠĠĠĠĠĠĠĠĠĠĠĠĠĠĠĠĠĠĠĠĠĠĠĠĠĠĠĠĠĠĠĠĠĠĠĠĠĠĠĠĠĠĠĠĠĠĠĠĠĠĠĠĠĠĠĠĠĠĠĠĠĠĠĠĠĠĠĠĠĠĠĠĠĠĠĠĠĠĠĠĠĠĠĠĠĠĠĠĠĠĠĠĠĠĠĠĠĠĠĠĠĠĠĠĠĠĠĠĠĠĠĠĠĠĠĠĠĠĠĠĠĠĠĠĠĠĠĠĠĠĠĠĠĠĠĠĠĠĠĠĠĠĠĠĠĠĠĠĠĠĠĠĠĠĠĠĠĠĠĠĠĠĠĠĠĠĠĠĠĠĠĠĠĠĠĠĠĠĠĠĠĠĠĠĠĠĠĠĠĠĠĠĠĠĠĠĠĠĠĠĠĠĠĠĠĠĠĠĠĠĠĠĠĠĠĠĠĠĠĠĠĠĠĠĠĠĠĠĠĠĠĠĠĠĠĠĠĠĠĠĠĠĠĠĠĠĠĠĠĠĠĠĠĠĠĠĠĠĠĠĠĠĠĠĠĠĠĠĠĠĠĠĠĠĠĠĠĠĠĠĠĠĠĠĠĠĠĠĠĠĠĠĠĠĠĠĠĠĠĠĠĠĠĠĠĠĠĠĠĠĠĠĠĠĠĠĠĠĠĠĠĠĠĠĠĠĠĠĠĠĠĠĠĠĠĠĠĠĠĠĠĠĠĠĠĠĠĠĠĠĠĠĠĠĠĠĠĠĠĠĠĠĠĠĠĠĠĠĠĠĠĠĠĠĠĠĠĠĠĠĠĠĠĠĠĠĠĠĠĠĠĠĠĠĠĠĠĠĠĠĠĠĠĠĠĠĠĠĠĠĠĠĠĠĠĠĠĠĠĠĠĠĠĠĠĠĠĠĠĠĠĠĠĠĠĠĠĠĠĠĠĠĠĠĠĠĠĠĠĠĠĠĠĠĠĠĠĠĠĠĠĠĠĠĠĠĠĠĠĠĠĠĠĠĠĠĠĠĠĠĠĠĠĠĠĠĠĠĠĠĠĠĠĠĠĠĠĠĠĠĠĠĠĠĠĠĠĠĠĠĠĠĠĠĠĠĠĠĠĠĠĠĠĠĠĠĠĠĠĠĠĠĠĠĠĠĠĠĠĠĠĠĠĠĠĠĠĠĠĠĠĠĠĠĠĠĠĠĠĠĠĠĠĠĠĠĠĠĠĠĠĠĠĠĠĠĠĠĠĠĠĠĠĠĠĠĠĠĠĠĠĠĠĠĠĠĠĠĠĠĠĠĠĠĠĠĠĠĠĠĠĠĠĠĠĠĠĠĠĠĠĠĠĠĠĠĠĠĠĠĠĠĠĠĠĠĠĠĠĠĠĠĠĠĠĠĠĠĠĠĠĠĠĠĠĠĠĠĠĠĠĠĠĠĠĠĠĠĠĠĠĠĠĠĠĠĠĠĠĠĠĠĠĠĠĠĠĠĠĠĠĠĠĠĠĠĠĠĠĠĠĠĠĠĠĠĠĠĠĠĠĠĠĠĠĠĠĠĠĠĠĠĠĠĠĠĠĠĠĠĠĠĠĠĠĠĠĠĠĠĠĠĠĠĠĠĠĠĠĠĠĠĠĠĠĠĠĠĠĠĠĠĠĠĠĠĠĠĠĠĠĠĠĠĠĠĠĠĠĠĠĠĠĠĠĠĠĠĠĠĠĠĠĠĠĠĠĠĠĠĠĠĠĠĠĠĠĠĠĠĠĠĠĠĠĠĠĠĠĠĠĠĠĠĠĠĠĠĠĠĠĠĠĠ ĠĠĠĠĠĠĠĠĠĠĠĠĠĠĠĠĠĠĠĠĠĠĠĠĠĠĠĠĠĠĠĠ
/ Ġ
A L
C H
D I
E V
E m
I s
M c
P er
S ci
c ou
e u
e .ĠIĠ
f itĠ
f astĠ
f old
n etworkĠ
p rec
s es
s ect
s âĢĻĠ
t ellĠ
t elevisionĠ
w indĠ
erĠ orĠ
onĠ thisĠ
ic h
ic ĠandĠ
esĠ ofĠtheĠ
ch ur
ab lyĠ
.ĠTh at
areĠ notĠ
con struc
tr ipĠ
sp endĠ
ationĠ isĠ
sĠandĠ theĠ
no thingĠ
ter m
ri ti
outĠ ofĠtheĠ
ableĠ andĠ
ect ingĠ
pos itiveĠ
ph as
fe atureĠ
comp ut
ifĠ theĠ
ob ileĠ
.ĠM ostĠ
theĠc oun
dec ision
att en
requ ireĠ
ide alĠ
lim it
regi st
lear n
fre sh
long erĠ
condi tion
iet yĠ
acros sĠtheĠ
extr aĠ
seas onĠ
aĠlo tĠofĠ
did nâĢĻtĠ
ular lyĠ
van ityĠ
eni orĠ
.ĠOn ceĠ
sched u
nu tri
amoun tĠofĠ
htt p
tradi tionalĠ
GPLA CĠ
esti g
s>Ġ TheĠ
Ġ<s>Ġ TheĠ
&apos ;
A fric
D el
I PĠ
M o
O SĠ
S outhĠ
Y uk
b edĠ
b le
e k
f ileĠ
h ome
h oldĠ
i eĠ
i pl
j us
m itĠ
n os
o tsĠ
p ainĠ
t u
w all
y n
Ġ E
in nov
dĠ ofĠ
or s,Ġ
,Ġ withĠ
re -
re pa
ingĠ itĠ
aĠ S
edĠ withĠtheĠ
onĠ ourĠ
orĠ andĠ
esĠ (
ec kĠ
ec tiveĠ
is tĠofĠ
asĠ anĠ
ch ,Ġ
ch em
thĠ ofĠ
ur s
em ail
pro g
youĠ wantĠtoĠ
for ceĠ
s.Ġ L
s.Ġ YouĠ
ri veĠ
IĠ canĠ
str ong
co -
de epĠ
ne igh
:Ġ TheĠ
An g
19 5
provid ingĠ
whenĠ itĠ
.ĠItĠ wasĠ
.ĠP leaseĠ
star tingĠ
bet ter
coun sel
coun tyĠ
cer tain
cho os
mat terĠ
afterĠ theĠ
cle ar
ef for
ide aĠ
help sĠ
fam ili
stand ardĠ
happ yĠ
lear ningĠ
Co ordin
sw itchĠ
lat estĠ
red it
self -
ice Com
Ger man
manufact ur
HumanĠ Rel
distri bu
Lon don
DietaryĠ A
A nĠ
electr icĠ
Sund ayĠ
A g
D P
D oĠ
H igh
J uneĠ
M ayĠ
O U
P ol
R u
T A
b ir
c utĠ
d ang
d ress
h otĠ
m etĠ
p sĠ
r alĠ
s .ĠIĠ
s .ĠThisĠ
Ġ yearsĠ
eĠ inĠ
in sĠ
,Ġ L
ing .Ġ
ing lyĠ
ing s,Ġ
re put
orĠ theĠ
isĠ alsoĠ
ac tion
is ingĠ
is nâĢĻtĠ
pl antĠ
em erg
ed ,ĠandĠ
ha vingĠ
tr ip
sh ortĠ
ex cl
fr a
di ag
op tim
res erv
uc kĠ
.ĠA nĠ
mo vingĠ
!Ġ TheĠ
rec i
me anĠ
dis play
upĠ theĠ
hel angel
enceĠ ofĠ
anc e.Ġ
acc ess
getĠ toĠ
eas yĠtoĠ
sc al
iti es
rel ev
vis itĠ
.ĠO nĠ
sur eĠtoĠ
sur anceĠ
applic ationsĠ
proj ectsĠ
able ,Ġ
dri vingĠ
youâĢĻ llĠ
grap hic
appro pri
mightĠ beĠ
orm oneĠ
meet ingĠ
contr act
impl ement
Antonion i
dumpst erĠ
resist anceĠ
youn gĠ
ĠĠĠĠĠĠĠĠĠĠĠĠĠĠĠĠĠĠĠĠĠĠĠĠĠĠĠĠĠĠĠĠĠĠĠĠĠĠĠĠĠĠĠĠĠĠĠĠĠĠĠĠĠĠĠĠĠĠĠĠĠĠĠĠĠĠĠĠĠĠĠĠĠĠĠĠĠĠĠĠĠĠĠĠĠĠĠĠĠĠĠĠĠĠĠĠĠĠĠĠĠĠĠĠĠĠĠĠĠĠĠĠĠĠĠĠĠĠĠĠĠĠĠĠĠĠĠĠĠĠĠĠĠĠĠĠĠĠĠĠĠĠĠĠĠĠĠĠĠĠĠĠĠĠĠĠĠĠĠĠĠĠĠĠĠĠĠĠĠĠĠĠĠĠĠĠĠĠĠĠĠĠĠĠĠĠĠĠĠĠĠĠĠĠĠĠĠĠĠĠĠĠĠĠĠĠĠĠĠĠĠĠĠĠĠĠĠĠĠĠĠĠĠĠĠĠĠĠĠĠĠĠĠĠĠĠĠĠĠĠĠĠĠĠĠĠĠĠĠĠĠĠĠĠĠĠĠĠĠĠĠĠĠĠĠĠĠĠĠĠĠĠĠĠĠĠĠĠĠĠĠĠĠĠĠĠĠĠĠĠĠĠĠĠĠĠĠĠĠĠĠĠĠĠĠĠĠĠĠĠĠĠĠĠĠĠĠĠĠĠĠĠĠĠĠĠĠĠĠĠĠĠĠĠĠĠĠĠĠĠĠĠĠĠĠĠĠĠĠĠĠĠĠĠĠĠĠĠĠĠĠĠĠĠĠĠĠĠĠĠĠĠĠĠĠĠĠĠĠĠĠĠĠĠĠĠĠĠĠĠĠĠĠĠĠĠĠĠĠĠĠĠĠĠĠĠĠĠĠĠĠĠĠĠĠĠĠĠĠĠĠĠĠĠĠĠĠĠĠĠĠĠĠĠĠĠĠĠĠĠĠĠĠĠĠĠĠĠĠĠĠĠĠĠĠĠĠĠĠĠĠĠĠĠĠĠĠĠĠĠĠĠĠĠĠĠĠĠĠĠĠĠĠĠĠĠĠĠĠĠĠĠĠĠĠĠĠĠĠĠĠĠĠĠĠĠĠĠĠĠĠĠĠĠĠĠĠĠĠĠĠĠĠĠĠĠĠĠĠĠĠĠĠĠĠĠĠĠĠĠĠĠĠĠĠĠĠĠĠĠĠĠĠĠĠĠĠĠĠĠĠĠĠĠĠĠĠĠĠĠĠĠĠĠĠĠĠĠĠĠĠĠĠĠĠĠĠĠĠĠĠĠĠĠĠĠĠĠĠĠĠĠĠĠĠĠĠĠĠĠĠĠĠĠĠĠĠĠĠĠĠĠĠĠĠĠĠĠĠĠĠĠĠĠĠĠĠĠĠĠĠĠĠĠĠĠĠĠĠĠĠĠĠĠĠĠĠĠĠĠĠĠĠĠĠĠĠĠĠĠĠĠĠĠĠĠĠĠĠĠĠĠĠĠĠĠĠĠĠĠĠĠĠĠĠĠĠĠĠĠĠĠĠĠĠĠĠĠĠĠĠĠĠĠĠĠĠĠĠĠĠĠĠĠĠĠĠĠĠĠĠĠĠĠĠĠĠĠĠĠĠĠĠĠĠĠĠĠĠĠĠĠĠĠĠĠĠĠĠĠĠĠĠĠĠĠĠĠĠĠĠĠĠĠĠĠĠĠĠĠĠĠĠĠĠĠĠĠĠĠĠĠĠĠĠĠĠĠĠĠĠĠĠĠĠĠĠĠĠĠĠĠĠĠĠĠĠĠĠĠĠĠĠĠĠĠĠĠĠĠĠĠĠĠĠĠĠĠĠĠĠĠĠĠĠĠĠĠĠĠĠĠĠĠĠĠĠĠĠĠĠĠĠĠĠĠĠĠĠĠĠĠĠĠĠĠĠĠĠĠĠĠĠĠĠĠĠĠĠĠĠĠĠĠĠĠĠĠĠĠĠĠĠĠĠĠĠĠĠĠĠĠĠĠĠĠĠĠĠĠĠĠĠĠĠĠĠĠĠĠĠĠĠĠĠĠĠĠĠĠĠĠĠĠĠĠĠĠĠĠĠĠĠĠĠĠĠĠĠĠĠĠĠĠĠĠĠĠĠĠĠĠĠĠĠĠĠĠĠĠĠĠĠĠĠĠĠĠĠĠĠĠĠĠĠĠĠĠĠĠĠĠĠĠĠĠĠĠĠĠĠĠĠĠĠĠĠĠĠĠĠĠĠĠĠĠĠĠĠĠĠĠĠĠĠĠĠĠĠĠĠĠĠĠĠĠĠĠĠĠĠĠĠĠĠĠĠĠĠĠĠĠĠĠĠĠĠĠĠĠĠĠĠĠĠĠĠĠĠĠĠĠĠĠĠĠĠĠĠĠĠĠĠĠĠĠĠĠĠĠĠĠĠĠĠĠĠĠĠĠĠĠĠĠĠĠĠĠĠĠĠĠĠĠĠĠĠĠĠĠĠĠĠĠĠĠĠĠĠĠĠĠĠĠĠĠĠĠĠĠĠĠĠĠĠĠĠĠĠĠĠĠĠĠĠĠĠĠĠĠĠĠĠĠĠĠĠĠĠĠĠĠĠĠĠĠĠĠĠĠĠĠĠĠĠĠĠĠĠĠĠĠĠĠĠĠĠĠĠĠĠĠĠĠĠĠĠĠĠĠĠĠĠĠĠĠĠĠĠĠĠĠĠĠĠĠĠĠĠĠĠĠĠĠĠĠĠĠĠĠĠĠĠĠĠĠĠĠĠĠĠĠĠĠĠĠĠĠĠĠĠĠĠĠĠĠĠĠĠĠĠĠĠĠĠĠĠĠĠĠĠĠĠĠĠĠĠĠĠĠĠĠĠĠĠĠĠĠĠĠĠĠĠĠĠĠĠĠĠĠĠĠĠĠĠĠĠĠĠĠĠĠĠĠĠĠĠĠĠĠĠĠĠĠĠĠĠĠĠĠĠĠĠĠĠĠĠĠĠĠĠĠĠĠĠĠĠĠĠĠĠĠĠĠĠĠĠĠĠĠĠĠĠĠĠĠĠĠĠĠĠĠĠĠĠĠĠĠĠĠĠĠĠĠĠĠĠĠĠĠĠĠĠĠĠĠĠĠĠĠĠĠĠĠĠĠĠĠĠĠĠĠĠĠĠĠĠĠĠĠĠĠĠĠĠĠĠĠĠĠĠĠĠĠĠĠĠĠĠĠĠĠĠĠĠĠĠĠĠĠĠĠĠĠĠĠĠĠĠĠĠĠĠĠĠĠĠĠĠĠĠĠĠĠĠĠĠĠĠĠĠĠĠĠĠĠĠĠĠĠĠĠĠĠĠĠĠĠĠĠĠĠĠĠĠĠĠĠĠĠĠĠĠĠĠĠĠĠĠĠĠĠĠĠĠĠĠĠĠĠĠĠĠĠĠĠĠĠĠĠĠĠĠĠĠĠĠĠĠĠĠĠĠĠĠĠĠĠĠĠĠĠĠĠĠĠĠĠĠĠĠĠĠĠĠĠĠĠĠĠĠĠĠĠĠĠĠĠĠĠĠĠĠĠĠĠĠĠĠĠĠĠĠĠĠĠĠĠĠĠĠĠĠĠĠĠĠĠĠĠĠĠĠĠĠĠĠĠĠĠĠĠĠĠĠĠĠĠĠĠĠĠĠĠĠĠĠĠĠĠĠĠĠĠĠĠĠĠĠĠĠĠĠĠĠĠĠĠĠĠĠĠĠĠĠĠĠĠĠĠĠĠĠĠĠĠĠĠĠĠĠĠĠĠĠĠĠĠĠĠĠĠĠĠĠĠĠĠĠĠĠĠĠĠĠĠĠĠĠĠĠĠĠĠĠĠĠĠĠĠĠĠĠĠĠĠĠĠĠĠĠĠĠĠĠĠĠĠĠĠĠĠĠĠĠĠĠĠĠĠĠĠĠĠĠĠĠĠĠĠĠĠĠĠĠĠĠĠĠĠĠĠĠĠĠĠĠĠĠĠĠĠĠĠĠĠĠĠĠĠĠĠĠĠĠĠĠĠĠĠĠĠĠĠĠĠĠĠĠĠĠĠĠĠĠĠĠĠĠĠĠĠĠĠĠĠĠĠĠĠĠĠĠĠĠĠĠĠĠĠĠĠĠĠĠĠĠĠĠĠĠĠĠĠĠĠĠĠĠĠĠĠĠĠĠĠĠĠĠĠĠĠĠĠĠĠĠĠĠĠĠĠĠĠĠĠĠĠĠĠĠĠĠĠĠĠĠĠĠĠĠĠĠĠĠĠĠĠĠĠĠĠĠĠĠĠĠĠĠĠĠĠĠĠĠĠĠĠĠĠĠĠĠĠĠĠĠĠĠĠĠĠĠĠĠĠĠĠĠĠĠĠĠĠĠĠĠĠĠĠĠĠĠĠĠĠĠĠĠĠĠĠĠĠĠĠĠĠĠĠĠĠĠĠĠĠĠĠĠĠĠĠĠĠĠĠĠĠĠĠĠĠĠĠĠĠĠĠĠĠĠĠĠĠĠĠĠĠĠĠĠĠĠĠĠĠĠĠĠĠĠĠĠĠĠĠĠĠĠĠĠĠĠĠĠĠĠĠĠĠĠĠĠĠĠĠĠĠĠĠĠĠĠĠĠĠĠĠĠĠĠĠĠĠĠĠĠĠĠĠĠĠĠĠĠĠĠĠĠĠĠĠĠĠĠĠĠĠĠĠĠĠĠĠĠĠĠĠĠĠĠĠĠĠĠĠĠĠĠĠĠĠĠĠĠĠĠĠĠĠĠĠĠĠĠĠĠĠĠĠĠĠĠĠĠĠĠĠĠĠĠĠĠĠĠĠĠĠĠĠĠĠĠĠĠĠĠĠĠĠĠĠĠĠĠĠĠĠĠĠĠĠĠĠĠĠĠĠĠĠĠĠĠĠĠĠĠĠĠĠĠĠĠĠĠĠĠĠĠĠĠĠĠĠĠĠĠĠĠĠĠĠĠĠĠĠĠĠĠĠĠĠĠĠĠĠĠĠĠĠĠĠĠĠĠĠĠĠĠĠĠĠĠĠĠĠĠĠĠĠĠĠĠĠĠĠĠĠĠĠĠĠĠĠĠĠĠĠĠĠĠĠĠĠĠĠĠĠĠĠĠĠĠĠĠĠĠĠĠĠĠĠĠĠĠĠĠĠĠĠĠĠĠĠĠĠĠĠĠĠĠĠĠĠĠĠĠĠĠĠĠĠĠĠĠĠĠĠĠĠĠĠĠĠĠĠĠĠĠĠĠĠĠĠĠĠĠĠĠĠĠĠĠĠĠĠĠĠĠĠĠĠĠĠĠĠĠĠĠĠĠĠĠĠĠĠĠĠĠĠĠĠĠĠĠĠĠĠĠĠĠĠĠĠĠĠĠĠĠĠĠĠĠĠĠĠĠĠĠĠĠĠĠĠĠĠĠĠĠĠĠĠĠĠĠĠĠĠĠĠĠĠĠĠĠĠĠĠĠĠĠĠĠĠĠĠĠĠĠĠĠĠĠĠĠĠĠĠĠĠĠĠĠĠĠĠĠĠĠĠĠĠĠĠĠĠĠĠĠĠĠĠĠĠĠĠĠĠĠĠĠĠĠĠĠĠĠĠĠĠĠĠĠĠĠĠĠĠĠĠĠĠĠĠĠĠĠĠĠĠ ĠĠĠĠĠĠĠĠĠĠĠĠĠĠĠĠĠĠĠĠĠĠĠĠĠĠĠĠĠĠĠĠĠĠĠĠĠĠĠĠĠĠĠĠĠĠĠĠĠĠĠĠĠĠĠĠĠĠĠĠĠĠĠĠĠĠĠĠĠĠĠĠĠĠĠĠĠĠĠĠĠĠĠĠĠĠĠĠĠĠĠĠĠĠĠĠĠĠĠĠĠĠĠĠĠĠĠĠĠĠĠĠĠĠĠĠĠĠĠĠĠĠĠĠĠĠĠĠĠĠĠĠĠĠĠĠĠĠĠĠĠĠĠĠĠĠĠĠĠĠĠĠĠĠĠĠĠĠĠĠĠĠĠĠĠĠĠĠĠĠĠĠĠĠĠĠĠĠĠĠĠĠĠĠĠĠĠĠĠĠĠĠĠĠĠĠĠĠĠĠĠĠĠĠĠĠĠĠĠĠĠĠĠĠĠĠĠĠĠĠĠĠĠĠĠĠĠĠĠĠĠĠĠĠĠĠĠĠĠĠĠĠĠĠĠĠĠĠĠĠĠĠĠĠĠĠ
consul t
ak e
por tĠ
inform ation
can 'tĠ
( andĠ
9 0
C P
F reeĠ
H ar
I I
I sĠ
M us
N o
P at
V ac
b adĠ
b log
c e
j ud
l ateĠ
m al
n earĠ
s ourc
s ourceĠ
w ill
Ġ inĠtheĠ
Ġ byĠ
Ġ --
th oughtĠ
in esĠ
in struc
er alĠ
on âĢĻtĠ
ar ch
ar ilyĠ
es :Ġ
ac tsĠ
ur b
et ,Ġ
ag oĠ
ha vi
con sist
su re
ex tre
yourĠ ownĠ
ationĠ toĠ
outĠ theĠ
str a
notĠ toĠ
bo xĠ
dis coverĠ
.ĠS oĠ
alsoĠ beĠ
whoĠ isĠ
acc es
sc ap
dr aw
dev icesĠ
plac eĠtoĠ
rel atedĠ
hadĠ beenĠ
sol ut
Tr ackerĠ
ĠC redit
commun ic
publ ish
help edĠ
ma xim
can notĠ
mus icĠ
continu eĠtoĠ
recei vedĠ
entalĠ TrackerĠ
pop ularĠ
benef it
knowled g
As soci
Engl ishĠ
exampl e,Ġ
Pe o
associ atedĠ
subj ectĠ
Ġper centĠ
plain ti
ationĠR entalĠTrackerĠ
Vac ationĠRentalĠTrackerĠ
a j
Ġ K
knowled geĠ
3 1
5 00
B u
J es
K Ġ
M E
U N
d oll
f all
f eltĠ
m os
n on
n or
n it
o graph
r it
t oldĠ
w ear
w ash
w iseĠ
in sideĠ
on esĠ
,Ġ soĠ
ar riv
ar ticleĠ
ing sĠandĠ
re duc
andĠ S
aĠ P
edĠ fromĠ
orĠ aĠ
alĠ andĠ
alĠ ofĠ
pl ateĠ
wi m
ad missionĠ
wh il
pro stateĠ
youĠ andĠ
ag g
ag Ġ
ev i
fr ameĠ
di ver
sp ot
qu ickĠ
oun c
be havi
ter ,Ġ
e.Ġ C
and sĠofĠ
av idĠ
tic sĠ
ang u
gi f
ect edĠbyĠ
ell owĠ
upĠ andĠ
sĠtoĠ beĠ
them ĠtoĠ
whoĠ haveĠ
att ackĠ
.ĠF r
stor yĠ
resp ond
.ĠN owĠ
cle anĠ
illi on
complet elyĠ
main tainĠ
vehic l
incre di
item sĠ
foc us
possib le
accoun tĠ
does n'tĠ
Wor ldĠ
camer aĠ
class icĠ
scre enĠ
orig inalĠ
avo idĠ
trou bl
inste adĠ
techni qu
definit elyĠ
helangel oĠ
N oĠ
Th ereĠ
Wh ileĠ
D ,Ġ
E S
F lor
G i
H er
I P
M endoz
O p
R ec
a iĠ
a imĠ
b lyĠ
c anc
c ast
c auseĠ
g aveĠ
h ost
m ap
m ay
o il
r oundĠ
s ingleĠ
t sĠandĠ
t ureĠ
t reeĠ
t ax
v il
w is
Ġ -Ġ
in oĠ
in aryĠ
or e
.Ġ Con
re plac
toĠ makeĠ
edĠ outĠ
st opĠ
ic ,Ġ
inĠ orderĠtoĠ
ro llĠ
ac yĠ
ac kingĠ
you ,Ġ
ati vesĠ
ab solut
ent erĠ
ent s,Ġ
un c
thatĠ wasĠ
ha irĠ
con tri
sh ort
lo tĠofĠ
s.Ġ P
op eĠ
wor thĠ
gr and
ersĠ inĠ
tim e
str ongĠ
co tt
theirĠ ownĠ
?Ġ A
atedĠ byĠ
ep isod
go esĠ
sel ectĠ
sc rip
.ĠB yĠ
loc kĠ
loo ksĠ
mon ey
inform ation,Ġ
att end
whereĠ theĠ
cr af
read yĠtoĠ
col legeĠ
high estĠ
ann ualĠ
.ĠE x
knowĠ thatĠ
tak esĠ
help ingĠ
cor dĠ
contro ll
that 'sĠ
succ essĠ
grow ingĠ
Res umeĠ
appro achĠ
ques tion
deli verĠ
condi tionsĠ
sci enti
vo iceĠ
train ingĠ
fiel d
employ e
pt om
hav ingĠaĠ
meas ure
Intern etĠ
Antonion iĠ
brow s
accord ingĠtoĠ
energ yĠ
descri b
heatĠ s
previ ousĠ
Dev elop
som eĠofĠ
affor d
Europe anĠ
VacationĠRentalĠTrackerĠ PlusĠ
d arkĠ
k etĠ
4 8
A b
B er
C IĠ
D S
E C
H ot
S p
T im
g oldĠ
g ather
h ostĠ
l ab
l ay
m alĠ
m eĠtoĠ
r oughĠ
s en
s qu
s atis
t oneĠ
t y,Ġ
t ell
v ill
w ast
y .
Ġ ThisĠ
sĠ atĠ
sĠ haveĠ
sĠ willĠ
sĠ wereĠ
en h
en z
.Ġ Un
ti l
ti fiedĠ
re fl
toĠ getĠ
toĠ takeĠ
toĠ keepĠ
edĠ onĠtheĠ
st ageĠ
om in
orĠ ofĠ
inĠ anĠ
el seĠ
as kedĠ
us esĠ
am ,Ġ
ol o
ad j
pro duceĠ
youĠ withĠ
thatĠ IĠ
entĠ inĠ
con st
sh e
ap pe
be y
"" ,
ear li
cl assĠ
oc cas
weĠ willĠ
dis playĠ
pre fer
aboutĠ yourĠ
au lĠ
19 1
man ageĠ
heĠ wasĠ
fl owĠ
row Ġ
loo k
loo kedĠ
likeĠ theĠ
inv estig
mis s
servic es,Ġ
mat chĠ
Re ad
her e
exp ensiveĠ
ven u
stud entĠ
app reci
inst allĠ
buil tĠ
tem per
grow thĠ
week end
back groundĠ
win terĠ
techn olog
IC ESĠ
conn ectĠ
resid entsĠ
mod ernĠ
Ph il
down loadĠ
grad u
Cont entĠ
dam ageĠ
stit u
wel comeĠ
pict ure
gard enĠ
yp to
clo th
favor iteĠ
individu alsĠ
CountyĠCounc il
arth riti
Joh nĠ
premi umĠ
kindĠ ofĠ
Octo berĠ
compreh ensiveĠ
aĠ C
thatĠ willĠ
ag e
aw Ġ
int ageĠ
NewĠYor kĠ
- timeĠ
3 5
4 80
? ?
D umpst
E duc
N et
O CĠ
P ati
S anĠ
V ol
a i
b y
b ird
f illĠ
h ou
h us
j ew
l oseĠ
l etsĠ
l ux
r or
s ong
s urr
t om
t ourĠ
t arg
w ick
w antsĠ
Ã ¼
Ġ c
in sp
an ch
er ousĠ
on e,Ġ
or ingĠ
or ne
,Ġ A
al ityĠ
ing ,ĠandĠ
erĠ inĠ
il dĠ
ro b
ro leĠ
ec u
am ar
ig Ġ
ev entsĠ
sh oo
fr om
sp ar
sp entĠ
ew or
ver y
lo tĠ
s.Ġ F
op tionĠ
res ent
cl oudĠ
str ictĠ
par ag
rec tĠ
pe p
gi vingĠ
enc e.Ġ
dis h
comm itt
aw areĠ
br oughtĠ
pre ventĠ
comp et
comp ens
Ch r
Ch ar
ass ign
whoĠ areĠ
An al
ens eĠ
atĠtheĠ sameĠ
sup erĠ
appl i
proc ed
requ estĠ
coun try
cho ic
bel iev
lif e,Ġ
cour tĠ
inc or
lim itedĠ
adv ent
resul tĠ
that âĢĻsĠ
lessĠ thanĠ
Fr en
typ esĠofĠ
ris kĠ
prom o
vir t
deli veryĠ
beg anĠ
resid entĠ
poin tsĠ
dem on
cli entsĠ
perf ect
solu tionĠ
say sĠ
wal kĠ
deter mineĠ
larg estĠ
materi alsĠ
equip mentĠ
relation shipĠ
Wash ing
weddingĠ eventĠ
thin kingĠ
aver ageĠ
traff icĠ
certain lyĠ
R os
R adi
an ksĠ
id ay
high erĠ
7 14
B ro
C ityĠ
F Ġ
G am
G over
I M
J am
L O
R ac
S k
T echn
b andĠ
b logĠ
e kĠ
f our
h owever,Ġ
i tionĠ
i Ph
l it
n earlyĠ
p iteĠ
p ick
r ateĠ
r ail
r atesĠ
s oundĠ
s .ĠInĠ
s ession
s ignĠ
u ff
y .Ġ
z en
Ġ ofĠ
in sid
in spir
on ic
en everĠ
ou sĠandĠ
,Ġ D
,Ġ P
ti p
al dĠ
al s,Ġ
re turn
ingĠ onĠ
toĠ doĠ
aĠ (
edĠ forĠtheĠ
st arĠ
es hĠ
es .ĠA
at ingĠtheĠ
el in
as sum
asĠ theyĠ
ch r
us ersĠ
ig r
et t
ag eĠandĠ
com for
con ver
leĠ andĠ
tr a
per missionĠ
qu ali
ation .ĠTheĠ
ation sĠofĠ
um ,Ġ
res earch
bu yingĠ
willĠ notĠ
gr av
tim ateĠ
we ight
oc ialĠ
por aryĠ
co deĠ
.ĠA d
pr oudĠ
ther malĠ
itsĠ ownĠ
year ,Ġ
anc e
anc esĠ
ass ess
ifĠ youĠareĠ
mar ri
up grad
wouldĠ likeĠtoĠ
aĠs ec
aĠs mallĠ
exper tsĠ
.ĠIfĠ youĠhaveĠ
.ĠM anyĠ
Wh yĠ
lin kĠ
hap sĠ
ali yeĠ
read ingĠ
stor ageĠ
ke y
Re al
differ enceĠ
sur g
backĠ toĠ
lookĠ atĠ
respon s
respon sibilityĠ
chil dĠ
can âĢĻtĠ
chec k
prom is
organiz ationĠ
De part
lookingĠ forĠ
Bl ackĠ
long -
ret ail
Comm itte
toge ther
againstĠ theĠ
Uni ver
aus eĠofĠ
impro v
solu tionsĠ
hour sĠ
wal k
my selfĠ
Eu rop
hop eĠ
recomm endĠ
sun gĠ
e.ĠB utĠ
cir cu
uti liz
wond erfulĠ
relation ship
smar tĠ
mach ineĠ
fle xi
reco gn
TI ON
cand id
hosp ital
comfort ableĠ
U.S .Ġ
journe yĠ
pap erĠ
intell ig
Aug ustĠ
Yuk onĠ
neigh bor
HumanĠRel ationsĠ
olo gi
adj ust
ypto curr
mak e
Christi anĠ
- to-
B aliyeĠ
D ayĠ
I T
I o
I sl
P H
R ob
S el
S ec
S of
T ex
U p
W ord
Y OU
c leĠ
d edic
e ed
f allĠ
h und
l as
l ast
n ,Ġ
n av
n iceĠ
p al
r ichĠ
r entalĠ
s ;Ġ
s eri
t orĠ
u gĠ
Ġ aĠ
Ġ wasĠ
in struct
tĠ theĠ
an e
an s,Ġ
er ,ĠandĠ
theĠ rightĠ
ing -
re viewĠ
re memberĠ
edĠ ofĠ
edĠ herĠ
ofĠ thisĠ
es omeĠ
es .ĠP
at ell
orĠ otherĠ
as ticĠ
ch ann
wi r
id geĠ
un t
un kĠ
youĠ getĠ
ag o
tr ulyĠ
su stain
sh o
sh el
sh if
si x
ex hi
yourĠ homeĠ
ation ,ĠandĠ
ul ationĠ
lo tsĠofĠ
and sĠ
str yĠ
all -
co ol
mo di
ne g
ess entialĠ
ind ustri
cre ativeĠ
comm it
comm ission
comp on
.. ..
fi xĠ
isĠaĠ greatĠ
sel lĠ
ust omĠ
achĠ BaliyeĠ
makeĠ itĠ
howĠ theĠ
rel ig
if yĠ
vis ualĠ
att orne
star tedĠ
hadĠ aĠ
throughĠ aĠ
ĠĠĠĠĠĠĠĠĠĠĠĠĠĠĠĠĠĠĠĠĠĠĠĠĠĠĠĠĠĠĠĠĠĠĠĠĠĠĠĠĠĠĠĠĠĠĠĠĠĠĠĠĠĠĠĠĠĠĠĠĠĠĠĠĠĠĠĠĠĠĠĠĠĠĠĠĠĠĠĠĠĠĠĠĠĠĠĠĠĠĠĠĠĠĠĠĠĠĠĠĠĠĠĠĠĠĠĠĠĠĠĠĠĠĠĠĠĠĠĠĠĠĠĠĠĠĠĠĠĠĠĠĠĠĠĠĠĠĠĠĠĠĠĠĠĠĠĠĠĠĠĠĠĠĠĠĠĠĠĠĠĠĠĠĠĠĠĠĠĠĠĠĠĠĠĠĠĠĠĠĠĠĠĠĠĠĠĠĠĠĠĠĠĠĠĠĠĠĠĠĠĠĠĠĠĠĠĠĠĠĠĠĠĠĠĠĠĠĠĠĠĠĠĠĠĠĠĠĠĠĠĠĠĠĠĠĠĠĠĠĠĠĠĠĠĠĠĠĠĠĠĠĠĠĠĠĠĠĠĠĠĠĠĠĠĠĠĠĠĠĠĠĠĠĠĠĠĠĠĠĠĠĠĠĠĠĠĠĠĠĠĠĠĠĠĠĠĠĠĠĠĠĠĠĠĠĠĠĠĠĠĠĠĠĠĠĠĠĠĠĠĠĠĠĠĠĠĠĠĠĠĠĠĠĠĠĠĠĠĠĠĠĠĠĠĠĠĠĠĠĠĠĠĠĠĠĠĠĠĠĠĠĠĠĠĠĠĠĠĠĠĠĠĠĠĠĠĠĠĠĠĠĠĠĠĠĠĠĠĠĠĠĠĠĠĠĠĠĠĠĠĠĠĠĠĠĠĠĠĠĠĠĠĠĠĠĠĠĠĠĠĠĠĠĠĠĠĠĠĠĠĠĠĠĠĠĠĠĠĠĠĠĠĠĠĠĠĠĠĠĠĠĠĠĠĠĠĠĠĠĠĠĠĠĠĠĠĠĠĠĠĠĠĠĠĠĠĠĠĠĠĠĠĠĠĠĠĠĠĠĠĠĠĠĠĠĠĠĠĠĠĠĠĠĠĠĠĠĠĠĠĠĠĠĠĠĠĠĠĠĠĠĠĠĠĠĠĠĠĠĠĠĠĠĠĠĠĠĠĠĠĠĠĠĠĠĠĠĠĠĠĠĠĠĠĠĠĠĠĠĠĠĠĠĠĠĠĠĠĠĠĠĠĠĠĠĠĠĠĠĠĠĠĠĠĠĠĠĠĠĠĠĠĠĠĠĠĠĠĠĠĠĠĠĠĠĠĠĠĠĠĠĠĠĠĠĠĠĠĠĠĠĠĠĠĠĠĠĠĠĠĠĠĠĠĠĠĠĠĠĠĠĠĠĠĠĠĠĠĠĠĠĠĠĠĠĠĠĠĠĠĠĠĠĠĠĠĠĠĠĠĠĠĠĠĠĠĠĠĠĠĠĠĠĠĠĠĠĠĠĠĠĠĠĠĠĠĠĠĠĠĠĠĠĠĠĠĠĠĠĠĠĠĠĠĠĠĠĠĠĠĠĠĠĠĠĠĠĠĠĠĠĠĠĠĠĠĠĠĠĠĠĠĠĠĠĠĠĠĠĠĠĠĠĠĠĠĠĠĠĠĠĠĠĠĠĠĠĠĠĠĠĠĠĠĠĠĠĠĠĠĠĠĠĠĠĠĠĠĠĠĠĠĠĠĠĠĠĠĠĠĠĠĠĠĠĠĠĠĠĠĠĠĠĠĠĠĠĠĠĠĠĠĠĠĠĠĠĠĠĠĠĠĠĠĠĠĠĠĠĠĠĠĠĠĠĠĠĠĠĠĠĠĠĠĠĠĠĠĠĠĠĠĠĠĠĠĠĠĠĠĠĠĠĠĠĠĠĠĠĠĠĠĠĠĠĠĠĠĠĠĠĠĠĠĠĠĠĠĠĠĠĠĠĠĠĠĠĠĠĠĠĠĠĠĠĠĠĠĠĠĠĠĠĠĠĠĠĠĠĠĠĠĠĠĠĠĠĠĠĠĠĠĠĠĠĠĠĠĠĠĠĠĠĠĠĠĠĠĠĠĠĠĠĠĠĠĠĠĠĠĠĠĠĠĠĠĠĠĠĠĠĠĠĠĠĠĠĠĠĠĠĠĠĠĠĠĠĠĠĠĠĠĠĠĠĠĠĠĠĠĠĠĠĠĠĠĠĠĠĠĠĠĠĠĠĠĠĠĠĠĠĠĠĠĠĠĠĠĠĠĠĠĠĠĠĠĠĠĠĠĠĠĠĠĠĠĠĠĠĠĠĠĠĠĠĠĠĠĠĠĠĠĠĠĠĠĠĠĠĠĠĠĠĠĠĠĠĠĠĠĠĠĠĠĠĠĠĠĠĠĠĠĠĠĠĠĠĠĠĠĠĠĠĠĠĠĠĠĠĠĠĠĠĠĠĠĠĠĠĠĠĠĠĠĠĠĠĠĠĠĠĠĠĠĠĠĠĠĠĠĠĠĠĠĠĠĠĠĠĠĠĠĠĠĠĠĠĠĠĠĠĠĠĠĠĠĠĠĠĠĠĠĠĠĠĠĠĠĠĠĠĠĠĠĠĠĠĠĠĠĠĠĠĠĠĠĠĠĠĠĠĠĠĠĠĠĠĠĠĠĠĠĠĠĠĠĠĠĠĠĠĠĠĠĠĠĠĠĠĠĠĠĠĠĠĠĠĠĠĠĠĠĠĠĠĠĠĠĠĠĠĠĠĠĠĠĠĠĠĠĠĠĠĠĠĠĠĠĠĠĠĠĠĠĠĠĠĠĠĠĠĠĠĠĠĠĠĠĠĠĠĠĠĠĠĠĠĠĠĠĠĠĠĠĠĠĠĠĠĠĠĠĠĠĠĠĠĠĠĠĠĠĠĠĠĠĠĠĠĠĠĠĠĠĠĠĠĠĠĠĠĠĠĠĠĠĠĠĠĠĠĠĠĠĠĠĠĠĠĠĠĠĠĠĠĠĠĠĠĠĠĠĠĠĠĠĠĠĠĠĠĠĠĠĠĠĠĠĠĠĠĠĠĠĠĠĠĠĠĠĠĠĠĠĠĠĠĠĠĠĠĠĠĠĠĠĠĠĠĠĠĠĠĠĠĠĠĠĠĠĠĠĠĠĠĠĠĠĠĠĠĠĠĠĠĠĠĠĠĠĠĠĠĠĠĠĠĠĠĠĠĠĠĠĠĠĠĠĠĠĠĠĠĠĠĠĠĠĠĠĠĠĠĠĠĠĠĠĠĠĠĠĠĠĠĠĠĠĠĠĠĠĠĠĠĠĠĠĠĠĠĠĠĠĠĠĠĠĠĠĠĠĠĠĠĠĠĠĠĠĠĠĠĠĠĠĠĠĠĠĠĠĠĠĠĠĠĠĠĠĠĠĠĠĠĠĠĠĠĠĠĠĠĠĠĠĠĠĠĠĠĠĠĠĠĠĠĠĠĠĠĠĠĠĠĠĠĠĠĠĠĠĠĠĠĠĠĠĠĠĠĠĠĠĠĠĠĠĠĠĠĠĠĠĠĠĠĠĠĠĠĠĠĠĠĠĠĠĠĠĠĠĠĠĠĠĠĠĠĠĠĠĠĠĠĠĠĠĠĠĠĠĠĠĠĠĠĠĠĠĠĠĠĠĠĠĠĠĠĠĠĠĠĠĠĠĠĠĠĠĠĠĠĠĠĠĠĠĠĠĠĠĠĠĠĠĠĠĠĠĠĠĠĠĠĠĠĠĠĠĠĠĠĠĠĠĠĠĠĠĠĠĠĠĠĠĠĠĠĠĠĠĠĠĠĠĠĠĠĠĠĠĠĠĠĠĠĠĠĠĠĠĠĠĠĠĠĠĠĠĠĠĠĠĠĠĠĠĠĠĠĠĠĠĠĠĠĠĠĠĠĠĠĠĠĠĠĠĠĠĠĠĠĠĠĠĠĠĠĠĠĠĠĠĠĠĠĠĠĠĠĠĠĠĠĠĠĠĠĠĠĠĠĠĠĠĠĠĠĠĠĠĠĠĠĠĠĠĠĠĠĠĠĠĠĠĠĠĠĠĠĠĠĠĠĠĠĠĠĠĠĠĠĠĠĠĠĠĠĠĠĠĠĠĠĠĠĠĠĠĠĠĠĠĠĠĠĠĠĠĠĠĠĠĠĠĠĠĠĠĠĠĠĠĠĠĠĠĠĠĠĠĠĠĠĠĠĠĠĠĠĠĠĠĠĠĠĠĠĠĠĠĠĠĠĠĠĠĠĠĠĠĠĠĠĠĠĠĠĠĠĠĠĠĠĠĠĠĠĠĠĠĠĠĠĠĠĠĠĠĠĠĠĠĠĠĠĠĠĠĠĠĠĠĠĠĠĠĠĠĠĠĠĠĠĠĠĠĠĠĠĠĠĠĠĠĠĠĠĠĠĠĠĠĠĠĠĠĠĠĠĠĠĠĠĠĠĠĠĠĠĠĠĠĠĠĠĠĠĠĠĠĠĠĠĠĠĠĠĠĠĠĠĠĠĠĠĠĠĠĠĠĠĠĠĠĠĠĠĠĠĠĠĠĠĠĠĠĠĠĠĠĠĠĠĠĠĠĠĠĠĠĠĠĠĠĠĠĠĠĠĠĠĠĠĠĠĠĠĠĠĠĠĠĠĠĠĠĠĠĠĠĠĠĠĠĠĠĠĠĠĠĠĠĠĠĠĠĠĠĠĠĠĠĠĠĠĠĠĠĠĠĠĠĠĠĠĠĠĠĠĠĠĠĠĠĠĠĠĠĠĠĠĠĠĠĠĠĠĠĠĠĠĠĠĠĠĠĠĠĠĠĠĠĠĠĠĠĠĠĠĠĠĠĠĠĠĠĠĠĠĠĠĠĠĠĠĠĠĠĠĠĠĠĠĠĠĠĠĠĠĠĠĠĠĠĠĠĠĠĠĠĠĠĠĠĠĠĠĠĠĠĠĠĠĠĠĠĠĠĠĠĠĠĠĠĠĠĠĠĠĠĠĠĠĠĠĠĠĠĠĠĠĠĠĠĠĠĠĠĠĠĠĠĠĠĠĠĠĠĠĠĠĠĠĠĠĠĠĠĠĠĠĠĠĠĠĠĠĠĠĠĠĠĠĠĠĠĠĠĠĠĠĠĠĠĠĠĠĠĠĠĠĠĠĠĠĠĠĠĠĠĠĠĠĠĠĠĠĠĠĠĠĠĠĠĠĠĠĠĠĠĠĠĠĠĠĠĠĠĠĠĠĠĠĠĠĠĠĠĠĠĠĠĠĠĠĠĠĠĠĠĠĠĠĠĠĠĠĠĠĠĠĠĠĠĠĠĠĠĠĠĠĠĠĠĠĠĠĠĠĠĠĠĠĠĠĠĠĠĠĠĠĠĠĠĠĠĠĠĠĠĠĠĠĠĠĠĠĠĠĠĠĠĠĠĠĠĠĠĠĠĠĠĠĠĠĠĠĠĠĠĠĠĠĠĠĠĠĠĠĠĠĠĠĠĠĠĠĠĠĠĠĠĠĠĠĠĠĠĠĠĠĠĠĠĠĠĠĠĠĠĠĠĠĠĠĠĠĠĠĠĠĠĠĠĠĠĠĠĠĠĠĠĠĠĠĠĠĠĠĠĠĠĠĠĠĠĠĠĠĠĠĠĠĠĠĠĠĠĠĠĠĠĠĠĠĠĠĠĠĠĠĠĠĠĠĠĠĠĠĠĠĠĠĠĠĠĠĠĠĠĠĠĠĠĠĠĠĠĠĠĠĠĠĠĠĠĠĠĠĠĠĠĠĠĠĠĠĠĠĠĠĠĠĠĠĠĠĠĠĠĠĠĠĠĠĠĠĠĠĠĠĠĠĠĠĠĠĠĠĠĠĠĠĠĠĠĠĠĠĠĠĠĠĠĠĠĠĠĠĠĠĠĠĠĠĠĠĠĠĠĠĠĠĠĠĠĠĠĠĠĠĠĠĠĠĠĠĠĠĠĠĠĠĠĠĠĠĠĠĠĠĠĠĠĠĠĠĠĠĠĠĠĠĠĠĠĠĠĠĠĠĠĠĠĠĠĠĠĠĠĠĠĠĠĠĠĠĠĠĠĠĠĠĠĠĠĠĠĠĠĠĠĠĠĠĠĠĠĠĠĠĠĠĠĠĠĠĠĠĠĠĠĠĠĠĠĠĠĠĠĠĠĠĠĠĠĠĠĠĠĠĠĠĠĠĠĠĠĠĠĠĠĠĠĠĠĠĠĠĠĠĠĠĠĠĠĠĠĠĠĠĠĠĠĠĠĠĠĠĠĠĠĠĠĠĠĠĠĠĠĠĠĠĠĠĠĠĠĠĠĠĠĠĠĠĠĠĠĠĠĠĠĠĠĠĠĠĠĠĠĠĠĠĠĠĠĠĠĠĠĠĠĠĠĠĠĠĠĠĠĠĠĠĠĠĠĠĠĠĠĠĠĠĠĠĠĠĠĠĠĠĠĠĠĠĠĠĠĠĠĠĠĠĠĠĠĠĠĠĠĠĠĠĠĠĠĠĠĠĠĠĠĠĠĠĠĠĠĠĠĠĠĠĠĠĠĠĠĠĠĠĠĠĠĠĠĠĠĠĠĠĠĠĠĠĠĠĠĠĠĠĠĠĠĠĠĠĠĠĠĠĠĠĠĠĠĠĠĠĠĠĠĠĠĠĠĠĠĠĠĠĠĠĠĠĠĠĠĠĠĠĠĠĠĠĠĠĠĠĠĠĠĠĠĠĠĠĠĠĠĠĠĠĠĠĠĠĠĠĠĠĠĠĠĠĠĠĠĠĠĠĠĠĠĠĠĠĠĠĠĠĠĠĠĠĠĠĠĠĠĠĠĠĠĠĠĠĠĠĠĠĠĠĠĠĠĠĠĠĠĠĠĠĠĠĠĠĠĠĠĠĠĠĠĠĠĠĠĠĠĠĠĠĠĠĠĠĠĠĠĠĠĠĠĠĠĠĠĠĠĠĠĠĠĠĠĠĠĠĠĠĠĠĠĠĠĠĠĠĠĠĠĠĠĠĠĠĠĠĠĠĠĠĠĠĠĠĠĠĠĠĠĠĠĠĠĠĠĠĠĠĠĠĠĠĠĠĠĠĠĠĠĠĠĠĠĠĠĠĠĠĠĠĠĠĠĠĠĠĠĠĠĠĠĠĠĠĠĠĠĠĠĠĠĠĠĠĠĠĠĠĠĠĠĠĠĠĠĠĠĠĠĠĠĠĠĠĠĠĠĠĠĠĠĠĠĠĠĠĠĠĠĠĠĠĠĠĠĠĠĠĠĠĠĠĠĠĠĠĠĠĠĠĠĠ ĠĠĠĠĠĠĠĠĠĠĠĠĠĠĠĠĠĠĠĠĠĠĠĠĠĠĠĠĠĠĠĠĠĠĠĠĠĠĠĠĠĠĠĠĠĠĠĠĠĠĠĠĠĠĠĠĠĠĠĠĠĠĠĠĠĠĠĠĠĠĠĠĠĠĠĠĠĠĠĠĠĠĠĠĠĠĠĠĠĠĠĠĠĠĠĠ
requ est
urr entĠ
over allĠ
informationĠ aboutĠ
add res
add ress
car ri
aĠl argeĠ
avail able
plan tsĠ
that ,Ġ
offĠ theĠ
stat ementĠ
bed room
downĠ theĠ
uni qu
post edĠ
problem sĠ
tal kĠ
organiz ation
there 'sĠ
electr onicĠ
med ic
phys ici
personalĠ dataĠ
mom ent
peri odĠ
establ ish
regard ingĠ
throughoutĠ theĠ
dou bleĠ
net work
resum eĠ
clim ateĠ
UnitedĠ St
restaur antĠ
Ad- IDĠ
tot alĠ
princ ipl
thous andsĠofĠ
sym ptom
relev antĠ
.ĠFr omĠ
jew el
A llĠ
ev en
for e
for eĠ
swe etĠ
( S
. h
2 9
C our
H E
H ighĠ
N ov
P ort
S tr
V ir
W ed
a .ĠTheĠ
b ow
b arĠ
b att
c row
e atĠ
h ow
h ourĠ
k in
n tĠ
o x
p il
p tion
r ound
r ightsĠ
s ha
s .ĠItĠ
s evenĠ
s earch
Ġ âĢľ
in i
on e.Ġ
on e-
,Ġ youĠcanĠ
ar y,Ġ
al thoughĠ
re mind
andĠ aĠ
edĠ upĠ
ofĠ theseĠ
st ,Ġ
at estĠ
it selfĠ
ac tingĠ
as p
as ,Ġ
anĠ un
forĠ theirĠ
am ĠandĠ
em on
em bl
em phas
et r
ad em
ad mini
wh oseĠ
youĠ aĠ
youĠ shouldĠ
youĠ couldĠ
ag r
con fer
tr yĠtoĠ
ex pres
itĠ forĠ
fr u
s.Ġ ForĠ
no ticeĠ
tion sĠtoĠ
e.Ġ F
e.Ġ AĠ
outĠ toĠ
fromĠ yourĠ
to il
ourĠ websit
str ic
par ti
notĠ onlyĠ
all y
de athĠ
pr ilĠ
es,Ġ theĠ
bo di
enc esĠ
enc iesĠ
dis cover
theyĠ wereĠ
inter viewĠ
ord er
.ĠIĠ haveĠ
fir eĠ
min ingĠ
sc or
spec ific
pres entsĠ
aĠs ingleĠ
gu eĠ
.ĠH owĠ
ment alĠ
sec ureĠ
del ici
appl yĠ
att endĠ
star tsĠ
inv ent
some timesĠ
cho iceĠ
.ĠWeĠ haveĠ
Ġp erĠ
.ĠE achĠ
Par tyĠ
.ĠN o
under stand
Al tern
%Ġ inĠ
remo del
ict ori
main ten
contin ueĠ
dri ver
on- lineĠ
fullĠ ofĠ
other wiseĠ
abilityĠ toĠ
sty l
cat eg
pat entĠ
err or
sor tĠofĠ
health yĠ
accoun t
prot ectionĠ
expl ain
conf id
see ingĠ
war mĠ
invest mentĠ
Intern ationalĠ
imag in
plat form
gard en
responsibleĠ forĠ
uti l
idd leĠ
ubl ic
El ectr
use fulĠ
Wash o
answ erĠ
ratherĠ thanĠ
activi ti
conc ep
suit ableĠ
immedi atelyĠ
spor tsĠ
Gener alĠ
gend erĠ
safet yĠ
Heal thĠ
Cong ressĠ
Gard enĠ
independ entĠ
iceCom put
excl us
occas ion
hou se
Gover n
B el
ou d
ur eĠofĠ
Medi aĠ
- in
1 20
3 3
4 1
4 9
7 0
8 5
A AĠ
C S
D ur
E M
F ebr
G ar
J on
M at
M ay
a idĠ
c oolĠ
d ro
d rop
e .ĠTh
e tic
f ash
g ain
h ab
m ir
n dĠ
n ation
p ush
r entĠ
s n
s in
s ound
t ure
t own
v in
Ġ :Ġ
Ġ fe
th or
in em
in tr
an eĠ
er oĠ
er ialĠ
.Ġ You
ar ,Ġ
ar rang
al b
al k
toĠ seeĠ
st oneĠ
st ockĠ
at erĠ
el ĠandĠ
ac com
asĠ itĠ
Th urs
wh atĠtheĠ
ent edĠ
ent ly,Ġ
withĠ anĠ
ed eralĠ
ag u
tr end
si xĠ
ex chang
beĠ ableĠtoĠ
ap pĠ
sp otĠ
ir stĠ
ationĠ inĠ
be aut
s.Ġ C
s.Ġ AndĠ
op pos
cl as
tic ip
co d
de part
ud eĠ
hasĠ theĠ
cont em
ind ic
est ateĠ
In d
In stitut
ass istĠ
mar kĠ
An yĠ
heĠ isĠ
ant ,Ġ
whenĠ IĠ
ob tain
reĠ youĠ
gu ar
gu ideĠ
vis itor
theĠc or
dec ideĠ
att emp
compl exĠ
work edĠ
thereĠ isĠaĠ
way ,Ġ
bas isĠ
aĠc ou
coun tr
ech an
.ĠWeĠ areĠ
chang ingĠ
add ressĠ
her e.Ġ
.ĠE venĠ
system ,Ġ
Mar y
wr ong
play ingĠ
Ar tsĠ
ros of
Pro duc
youĠhaveĠ toĠ
eff ect
fri endĠ
num bersĠ
regi onĠ
setĠ upĠ
vehic lesĠ
theĠl atestĠ
oper atingĠ
require sĠ
availableĠ forĠ
big g
hom e,Ġ
la unch
atic allyĠ
Ap pleĠ
interest edĠinĠ
pow erfulĠ
opportun iti
prac ticeĠ
possib lyĠ
childr en
fut ure
prot ectĠ
accessĠ toĠ
did n'tĠ
tou chĠ
hol idayĠ
inf oĠ
CountyĠCounc ilĠ
movi eĠ
Off ic
factĠ thatĠ
Fil mĠ
wishĠ toĠ
butt onĠ
.ĠInĠaddi tion,Ġ
poli ticalĠ
themsel v
schedu leĠ
diag nos
J ustĠ
Ġ second
edĠbyĠ aĠ
Tr ans
mom entĠ
econom icĠ
' dĠ
7 5
8 8
A PĠ
G Ġ
L in
M yĠ
N owĠ
O RĠ
P leaseĠ
R us
S ystem
W Ġ
W in
a is
a ul
b our
f erĠ
f li
f ineĠ
h ireĠ
k ill
l ightsĠ
m enĠ
n ess
r ug
s em
s .ĠTh
s ensi
t s
t end
t oolĠ
t abl
v ac
v intageĠ
w areĠ
w estĠ
w ould
Ġ b
Ġ isĠaĠ
Ġ AndĠ
in suranceĠ
an x
er tĠ
er .ĠTheĠ
on 'tĠ
yĠ inĠ
.Ġ (
,Ġ W
ing .ĠS
re stor
re duceĠ
ingĠ isĠ
ofĠ anyĠ
es h
isĠ veryĠ
inĠ M
inĠ whichĠ
inĠ An
el sĠ
el li
el im
ro t
ro idĠ
as ksĠ
is it
is tic
asĠ weĠ
ch anceĠ
wi re
ur g
ad ap
youĠ knowĠ
youĠ mightĠ
thatĠ canĠ
entĠ andĠ
con sci
e,Ġ orĠ
e,Ġ whichĠ
sp ortĠ
ri tishĠ
allĠ ofĠtheĠ
str ict
anyĠ otherĠ
!Ġ S
!Ġ WeĠ
rec entlyĠ
he âĢĻsĠ
he therĠ
ang eĠ
?Ġ W
af ter
aw ard
aw ardĠ
fin ish
fe atur
anceĠ andĠ
do g
iz z
serv ingĠ
.ĠB eĠ
St ood
ob vi
out ,Ġ
rel ax
.ĠM oreĠ
own edĠ
ĠĠĠĠĠĠĠĠĠĠĠĠĠĠĠĠĠĠĠĠĠĠĠĠĠĠĠĠĠĠĠĠĠĠĠĠĠĠĠĠĠĠĠĠĠĠĠĠĠĠĠĠĠĠĠĠĠĠĠĠĠĠĠĠĠĠĠĠĠĠĠĠĠĠĠĠĠĠĠĠĠĠĠĠĠĠĠĠĠĠĠĠĠĠĠĠĠĠĠĠĠĠĠĠĠĠĠĠĠĠĠĠĠĠĠĠĠĠĠĠĠĠĠĠĠĠĠĠĠĠĠĠĠĠĠĠĠĠĠĠĠĠĠĠĠĠĠĠĠĠĠĠĠĠĠĠĠĠĠĠĠĠĠĠĠĠĠĠĠĠĠĠĠĠĠĠĠĠĠĠĠĠĠĠĠĠĠĠĠĠĠĠĠĠĠĠĠĠĠĠĠĠĠĠĠĠĠĠĠĠĠĠĠĠĠĠĠĠĠĠĠĠĠĠĠĠĠĠĠĠĠĠĠĠĠĠĠĠĠĠĠĠĠĠĠĠĠĠĠĠĠĠĠĠĠĠĠĠĠĠĠĠĠĠĠĠĠĠĠĠĠĠĠĠĠĠĠĠĠĠĠĠĠĠĠĠĠĠĠĠĠĠĠĠĠĠĠĠĠĠĠĠĠĠĠĠĠĠĠĠĠĠĠĠĠĠĠĠĠĠĠĠĠĠĠĠĠĠĠĠĠĠĠĠĠĠĠĠĠĠĠĠĠĠĠĠĠĠĠĠĠĠĠĠĠĠĠĠĠĠĠĠĠĠĠĠĠĠĠĠĠĠĠĠĠĠĠĠĠĠĠĠĠĠĠĠĠĠĠĠĠĠĠĠĠĠĠĠĠĠĠĠĠĠĠĠĠĠĠĠĠĠĠĠĠĠĠĠĠĠĠĠĠĠĠĠĠĠĠĠĠĠĠĠĠĠĠĠĠĠĠĠĠĠĠĠĠĠĠĠĠĠĠĠĠĠĠĠĠĠĠĠĠĠĠĠĠĠĠĠĠĠĠĠĠĠĠĠĠĠĠĠĠĠĠĠĠĠĠĠĠĠĠĠĠĠĠĠĠĠĠĠĠĠĠĠĠĠĠĠĠĠĠĠĠĠĠĠĠĠĠĠĠĠĠĠĠĠĠĠĠĠĠĠĠĠĠĠĠĠĠĠĠĠĠĠĠĠĠĠĠĠĠĠĠĠĠĠĠĠĠĠĠĠĠĠĠĠĠĠĠĠĠĠĠĠĠĠĠĠĠĠĠĠĠĠĠĠĠĠĠĠĠĠĠĠĠĠĠĠĠĠĠĠĠĠĠĠĠĠĠĠĠĠĠĠĠĠĠĠĠĠĠĠĠĠĠĠĠĠĠĠĠĠĠĠĠĠĠĠĠĠĠĠĠĠĠĠĠĠĠĠĠĠĠĠĠĠĠĠĠĠĠĠĠĠĠĠĠĠĠĠĠĠĠĠĠĠĠĠĠĠĠĠĠĠĠĠĠĠĠĠĠĠĠĠĠĠĠĠĠĠĠĠĠĠĠĠĠĠĠĠĠĠĠĠĠĠĠĠĠĠĠĠĠĠĠĠĠĠĠĠĠĠĠĠĠĠĠĠĠĠĠĠĠĠĠĠĠĠĠĠĠĠĠĠĠĠĠĠĠĠĠĠĠĠĠĠĠĠĠĠĠĠĠĠĠĠĠĠĠĠĠĠĠĠĠĠĠĠĠĠĠĠĠĠĠĠĠĠĠĠĠĠĠĠĠĠĠĠĠĠĠĠĠĠĠĠĠĠĠĠĠĠĠĠĠĠĠĠĠĠĠĠĠĠĠĠĠĠĠĠĠĠĠĠĠĠĠĠĠĠĠĠĠĠĠĠĠĠĠĠĠĠĠĠĠĠĠĠĠĠĠĠĠĠĠĠĠĠĠĠĠĠĠĠĠĠĠĠĠĠĠĠĠĠĠĠĠĠĠĠĠĠĠĠĠĠĠĠĠĠĠĠĠĠĠĠĠĠĠĠĠĠĠĠĠĠĠĠĠĠĠĠĠĠĠĠĠĠĠĠĠĠĠĠĠĠĠĠĠĠĠĠĠĠĠĠĠĠĠĠĠĠĠĠĠĠĠĠĠĠĠĠĠĠĠĠĠĠĠĠĠĠĠĠĠĠĠĠĠĠĠĠĠĠĠĠĠĠĠĠĠĠĠĠĠĠĠĠĠĠĠĠĠĠĠĠĠĠĠĠĠĠĠĠĠĠĠĠĠĠĠĠĠĠĠĠĠĠĠĠĠĠĠĠĠĠĠĠĠĠĠĠĠĠĠĠĠĠĠĠĠĠĠĠĠĠĠĠĠĠĠĠĠĠĠĠĠĠĠĠĠĠĠĠĠĠĠĠĠĠĠĠĠĠĠĠĠĠĠĠĠĠĠĠĠĠĠĠĠĠĠĠĠĠĠĠĠĠĠĠĠĠĠĠĠĠĠĠĠĠĠĠĠĠĠĠĠĠĠĠĠĠĠĠĠĠĠĠĠĠĠĠĠĠĠĠĠĠĠĠĠĠĠĠĠĠĠĠĠĠĠĠĠĠĠĠĠĠĠĠĠĠĠĠĠĠĠĠĠĠĠĠĠĠĠĠĠĠĠĠĠĠĠĠĠĠĠĠĠĠĠĠĠĠĠĠĠĠĠĠĠĠĠĠĠĠĠĠĠĠĠĠĠĠĠĠĠĠĠĠĠĠĠĠĠĠĠĠĠĠĠĠĠĠĠĠĠĠĠĠĠĠĠĠĠĠĠĠĠĠĠĠĠĠĠĠĠĠĠĠĠĠĠĠĠĠĠĠĠĠĠĠĠĠĠĠĠĠĠĠĠĠĠĠĠĠĠĠĠĠĠĠĠĠĠĠĠĠĠĠĠĠĠĠĠĠĠĠĠĠĠĠĠĠĠĠĠĠĠĠĠĠĠĠĠĠĠĠĠĠĠĠĠĠĠĠĠĠĠĠĠĠĠĠĠĠĠĠĠĠĠĠĠĠĠĠĠĠĠĠĠĠĠĠĠĠĠĠĠĠĠĠĠĠĠĠĠĠĠĠĠĠĠĠĠĠĠĠĠĠĠĠĠĠĠĠĠĠĠĠĠĠĠĠĠĠĠĠĠĠĠĠĠĠĠĠĠĠĠĠĠĠĠĠĠĠĠĠĠĠĠĠĠĠĠĠĠĠĠĠĠĠĠĠĠĠĠĠĠĠĠĠĠĠĠĠĠĠĠĠĠĠĠĠĠĠĠĠĠĠĠĠĠĠĠĠĠĠĠĠĠĠĠĠĠĠĠĠĠĠĠĠĠĠĠĠĠĠĠĠĠĠĠĠĠĠĠĠĠĠĠĠĠĠĠĠĠĠĠĠĠĠĠĠĠĠĠĠĠĠĠĠĠĠĠĠĠĠĠĠĠĠĠĠĠĠĠĠĠĠĠĠĠĠĠĠĠĠĠĠĠĠĠĠĠĠĠĠĠĠĠĠĠĠĠĠĠĠĠĠĠĠĠĠĠĠĠĠĠĠĠĠĠĠĠĠĠĠĠĠĠĠĠĠĠĠĠĠĠĠĠĠĠĠĠĠĠĠĠĠĠĠĠĠĠĠĠĠĠĠĠĠĠĠĠĠĠĠĠĠĠĠĠĠĠĠĠĠĠĠĠĠĠĠĠĠĠĠĠĠĠĠĠĠĠĠĠĠĠĠĠĠĠĠĠĠĠĠĠĠĠĠĠĠĠĠĠĠĠĠĠĠĠĠĠĠĠĠĠĠĠĠĠĠĠĠĠĠĠĠĠĠĠĠĠĠĠĠĠĠĠĠĠĠĠĠĠĠĠĠĠĠĠĠĠĠĠĠĠĠĠĠĠĠĠĠĠĠĠĠĠĠĠĠĠĠĠĠĠĠĠĠĠĠĠĠĠĠĠĠĠĠĠĠĠĠĠĠĠĠĠĠĠĠĠĠĠĠĠĠĠĠĠĠĠĠĠĠĠĠĠĠĠĠĠĠĠĠĠĠĠĠĠĠĠĠĠĠĠĠĠĠĠĠĠĠĠĠĠĠĠĠĠĠĠĠĠĠĠĠĠĠĠĠĠĠĠĠĠĠĠĠĠĠĠĠĠĠĠĠĠĠĠĠĠĠĠĠĠĠĠĠĠĠĠĠĠĠĠĠĠĠĠĠĠĠĠĠĠĠĠĠĠĠĠĠĠĠĠĠĠĠĠĠĠĠĠĠĠĠĠĠĠĠĠĠĠĠĠĠĠĠĠĠĠĠĠĠĠĠĠĠĠĠĠĠĠĠĠĠĠĠĠĠĠĠĠĠĠĠĠĠĠĠĠĠĠĠĠĠĠĠĠĠĠĠĠĠĠĠĠĠĠĠĠĠĠĠĠĠĠĠĠĠĠĠĠĠĠĠĠĠĠĠĠĠĠĠĠĠĠĠĠĠĠĠĠĠĠĠĠĠĠĠĠĠĠĠĠĠĠĠĠĠĠĠĠĠĠĠĠĠĠĠĠĠĠĠĠĠĠĠĠĠĠĠĠĠĠĠĠĠĠĠĠĠĠĠĠĠĠĠĠĠĠĠĠĠĠĠĠĠĠĠĠĠĠĠĠĠĠĠĠĠĠĠĠĠĠĠĠĠĠĠĠĠĠĠĠĠĠĠĠĠĠĠĠĠĠĠĠĠĠĠĠĠĠĠĠĠĠĠĠĠĠĠĠĠĠĠĠĠĠĠĠĠĠĠĠĠĠĠĠĠĠĠĠĠĠĠĠĠĠĠĠĠĠĠĠĠĠĠĠĠĠĠĠĠĠĠĠĠĠĠĠĠĠĠĠĠĠĠĠĠĠĠĠĠĠĠĠĠĠĠĠĠĠĠĠĠĠĠĠĠĠĠĠĠĠĠĠĠĠĠĠĠĠĠĠĠĠĠĠĠĠĠĠĠĠĠĠĠĠĠĠĠĠĠĠĠĠĠĠĠĠĠĠĠĠĠĠĠĠĠĠĠĠĠĠĠĠĠĠĠĠĠĠĠĠĠĠĠĠĠĠĠĠĠĠĠĠĠĠĠĠĠĠĠĠĠĠĠĠĠĠĠĠĠĠĠĠĠĠĠĠĠĠĠĠĠĠĠĠĠĠĠĠĠĠĠĠĠĠĠĠĠĠĠĠĠĠĠĠĠĠĠĠĠĠĠĠĠĠĠĠĠĠĠĠĠĠĠĠĠĠĠĠĠĠĠĠĠĠĠĠĠĠĠĠĠĠĠĠĠĠĠĠĠĠĠĠĠĠĠĠĠĠĠĠĠĠĠĠĠĠĠĠĠĠĠĠĠĠĠĠĠĠĠĠĠĠĠĠĠĠĠĠĠĠĠĠĠĠĠĠĠĠĠĠĠĠĠĠĠĠĠĠĠĠĠĠĠĠĠĠĠĠĠĠĠĠĠĠĠĠĠĠĠĠĠĠĠĠĠĠĠĠĠĠĠĠĠĠĠĠĠĠĠĠĠĠĠĠĠĠĠĠĠĠĠĠĠĠĠĠĠĠĠĠĠĠĠĠĠĠĠĠĠĠĠĠĠĠĠĠĠĠĠĠĠĠĠĠĠĠĠĠĠĠĠĠĠĠĠĠĠĠĠĠĠĠĠĠĠĠĠĠĠĠĠĠĠĠĠĠĠĠĠĠĠĠĠĠĠĠĠĠĠĠĠĠĠĠĠĠĠĠĠĠĠĠĠĠĠĠĠĠĠĠĠĠĠĠĠĠĠĠĠĠĠĠĠĠĠĠĠĠĠĠĠĠĠĠĠĠĠĠĠĠĠĠĠĠĠĠĠĠĠĠĠĠĠĠĠĠĠĠĠĠĠĠĠĠĠĠĠĠĠĠĠĠĠĠĠĠĠĠĠĠĠĠĠĠĠĠĠĠĠĠĠĠĠĠĠĠĠĠĠĠĠĠĠĠĠĠĠĠĠĠĠĠĠĠĠĠĠĠĠĠĠĠĠĠĠĠĠĠĠĠĠĠĠĠĠĠĠĠĠĠĠĠĠĠĠĠĠĠĠĠĠĠĠĠĠĠĠĠĠĠĠĠĠĠĠĠĠĠĠĠĠĠĠĠĠĠĠĠĠĠĠĠĠĠĠĠĠĠĠĠĠĠĠĠĠĠĠĠĠĠĠĠĠĠĠĠĠĠĠĠĠĠĠĠĠĠĠĠĠĠĠĠĠĠĠĠĠĠĠĠĠĠĠĠĠĠĠĠĠĠĠĠĠĠĠĠĠĠĠĠĠĠĠĠĠĠĠĠĠĠĠĠĠĠĠĠĠĠĠĠĠĠĠĠĠĠĠĠĠĠĠĠĠĠĠĠĠĠĠĠĠĠĠĠĠĠĠĠĠĠĠĠĠĠĠĠĠĠĠĠĠĠĠĠĠĠĠĠĠĠĠĠĠĠĠĠĠĠĠĠĠĠĠĠĠĠĠĠĠĠĠĠĠĠĠĠĠĠĠĠĠĠĠĠĠĠĠĠĠĠĠĠĠĠĠĠĠĠĠĠĠĠĠĠĠĠĠĠĠĠĠĠĠĠĠĠĠĠĠĠĠĠĠĠĠĠĠĠĠĠĠĠĠĠĠĠĠĠĠĠĠĠĠĠĠĠĠĠĠĠĠĠĠĠĠĠĠĠĠĠĠĠĠĠĠĠĠĠĠĠĠĠĠĠĠĠĠĠĠĠĠĠĠĠĠĠĠĠĠĠĠĠĠĠĠĠĠĠĠĠĠĠĠĠĠĠĠĠĠĠĠĠĠĠĠĠĠĠĠĠĠĠĠĠĠĠĠĠĠĠĠĠĠĠĠĠĠĠĠĠĠĠĠĠĠĠĠĠĠĠĠĠĠĠĠĠĠĠĠĠĠĠĠĠĠĠĠĠĠĠĠĠĠĠĠĠĠĠĠĠĠĠĠĠĠĠĠĠĠĠĠĠĠĠĠĠĠĠĠĠĠĠĠĠĠĠĠĠĠĠĠĠĠĠĠĠĠĠĠĠĠĠĠĠĠĠĠĠĠĠĠĠĠĠĠĠĠĠĠĠĠĠĠĠĠĠĠĠĠĠĠĠĠĠĠĠĠĠĠĠĠĠĠĠĠĠĠĠĠĠĠĠĠĠĠĠĠĠĠĠĠĠĠĠĠĠĠĠĠĠĠĠĠĠĠĠĠĠĠĠĠĠĠĠĠĠĠĠĠĠĠĠĠĠĠĠĠĠĠĠĠĠĠĠĠĠĠĠĠĠĠĠĠĠĠĠĠĠĠĠĠĠĠĠĠĠĠĠĠĠĠĠĠĠĠĠĠ ĠĠĠĠĠĠĠĠĠĠĠĠĠĠĠĠĠĠĠĠĠĠĠĠĠĠĠĠĠĠĠĠ
busin ess.Ġ
web Ġp
.ĠE n
sur vi
.ĠN oĠ
sm oo
need sĠ
need edĠ
prof itĠ
wr iteĠ
commun ity
sĠthatĠ areĠ
adv iceĠ
becauseĠ itĠ
aĠb itĠ
aff ectĠ
aff ili
fam ousĠ
perform Ġ
ly m
regi strationĠ
sal esĠ
bre akĠ
require ment
vol um
issu esĠ
bod y
betweenĠ theĠ
mor ningĠ
ques tionĠ
amp ion
.ĠTheyĠ areĠ
importantĠ toĠ
fur nit
workingĠ withĠ
sof tĠ
grad eĠofĠ
great erĠ
didĠ notĠ
industr y
possibleĠ toĠ
formĠ ofĠ
struct ureĠ
pack ageĠ
aĠlo tĠ
olu tionĠ
tran sport
Dr ag
Mic rosof
environ mentĠ
pict ureĠ
invol v
flo orĠ
quar ter
multi pleĠ
analys isĠ
amaz ingĠ
Progr am
should erĠ
encour ag
Spec ial
occ up
campa ignĠ
entertain mentĠ
comput erĠ
appropri ateĠ
extre m
stra ightĠ
targ et
Fren chĠ
demon str
, ""
, """
L if
ofĠ myĠ
ĠĠĠĠĠĠĠĠĠĠĠĠĠĠĠĠĠĠĠĠĠĠĠĠĠĠĠĠĠĠĠĠĠĠĠĠĠĠĠĠĠĠĠĠĠĠĠĠĠĠĠĠĠĠĠĠĠĠĠĠĠĠĠĠĠĠĠĠĠĠĠĠĠĠĠĠĠĠĠĠĠĠĠĠĠĠĠĠĠĠĠĠĠĠĠĠĠĠĠĠĠĠĠĠĠĠĠĠĠĠĠĠĠĠĠĠĠĠĠĠĠĠĠĠĠĠĠĠĠĠĠĠĠĠĠĠĠĠĠĠĠĠĠĠĠĠĠĠĠĠĠĠĠĠĠĠĠĠĠĠĠĠĠĠĠĠĠĠĠĠĠĠĠĠĠĠĠĠĠĠĠĠĠĠĠĠĠĠĠĠĠĠĠĠĠĠĠĠĠĠĠĠĠĠĠĠĠĠĠĠĠĠĠĠĠĠĠĠĠĠĠĠĠĠĠĠĠĠĠĠĠĠĠĠĠĠĠĠĠĠĠĠĠĠĠĠĠĠĠĠĠĠĠĠĠĠĠĠĠĠĠĠĠĠĠĠĠĠĠĠĠĠĠĠĠĠĠĠĠĠĠĠĠĠĠĠĠĠĠĠĠĠĠĠĠĠĠĠĠĠĠĠĠĠĠĠĠĠĠĠĠĠĠĠĠĠĠĠĠĠĠĠĠĠĠĠĠĠĠĠĠĠĠĠĠĠĠĠĠĠĠĠĠĠĠĠĠĠĠĠĠĠĠĠĠĠĠĠĠĠĠĠĠĠĠĠĠĠĠĠĠĠĠĠĠĠĠĠĠĠĠĠĠĠĠĠĠĠĠĠĠĠĠĠĠĠĠĠĠĠĠĠĠĠĠĠĠĠĠĠĠĠĠĠĠĠĠĠĠĠĠĠĠĠĠĠĠĠĠĠĠĠĠĠĠĠĠĠĠĠĠĠĠĠĠĠĠĠĠĠĠĠĠĠĠĠĠĠĠĠĠĠĠĠĠĠĠĠĠĠĠĠĠĠĠĠĠĠĠĠĠĠĠĠĠĠĠĠĠĠĠĠĠĠĠĠĠĠĠĠĠĠĠĠĠĠĠĠĠĠĠĠĠĠĠĠĠĠĠĠĠĠĠĠĠĠĠĠĠĠĠĠĠĠĠĠĠĠĠĠĠĠĠĠĠĠĠĠĠĠĠĠĠĠĠĠĠĠĠĠĠĠĠĠĠĠĠĠĠĠĠĠĠĠĠĠĠĠĠĠĠĠĠĠĠĠĠĠĠĠĠĠĠĠĠĠĠĠĠĠĠĠĠĠĠĠĠĠĠĠĠĠĠĠĠĠĠĠĠĠĠĠĠĠĠĠĠĠĠĠĠĠĠĠĠĠĠĠĠĠĠĠĠĠĠĠĠĠĠĠĠĠĠĠĠĠĠĠĠĠĠĠĠĠĠĠĠĠĠĠĠĠĠĠĠĠĠĠĠĠĠĠĠĠĠĠĠĠĠĠĠĠĠĠĠĠĠĠĠĠĠĠĠĠĠĠĠĠĠĠĠĠĠĠĠĠĠĠĠĠĠĠĠĠĠĠĠĠĠĠĠĠĠĠĠĠĠĠĠĠĠĠĠĠĠĠĠĠĠĠĠĠĠĠĠĠĠĠĠĠĠĠĠĠĠĠĠĠĠĠĠĠĠĠĠĠĠĠĠĠĠĠĠĠĠĠĠĠĠĠĠĠĠĠĠĠĠĠĠĠĠĠĠĠĠĠĠĠĠĠĠĠĠĠĠĠĠĠĠĠĠĠĠĠĠĠĠĠĠĠĠĠĠĠĠĠĠĠĠĠĠĠĠĠĠĠĠĠĠĠĠĠĠĠĠĠĠĠĠĠĠĠĠĠĠĠĠĠĠĠĠĠĠĠĠĠĠĠĠĠĠĠĠĠĠĠĠĠĠĠĠĠĠĠĠĠĠĠĠĠĠĠĠĠĠĠĠĠĠĠĠĠĠĠĠĠĠĠĠĠĠĠĠĠĠĠĠĠĠĠĠĠĠĠĠĠĠĠĠĠĠĠĠĠĠĠĠĠĠĠĠĠĠĠĠĠĠĠĠĠĠĠĠĠĠĠĠĠĠĠĠĠĠĠĠĠĠĠĠĠĠĠĠĠĠĠĠĠĠĠĠĠĠĠĠĠĠĠĠĠĠĠĠĠĠĠĠĠĠĠĠĠĠĠĠĠĠĠĠĠĠĠĠĠĠĠĠĠĠĠĠĠĠĠĠĠĠĠĠĠĠĠĠĠĠĠĠĠĠĠĠĠĠĠĠĠĠĠĠĠĠĠĠĠĠĠĠĠĠĠĠĠĠĠĠĠĠĠĠĠĠĠĠĠĠĠĠĠĠĠĠĠĠĠĠĠĠĠĠĠĠĠĠĠĠĠĠĠĠĠĠĠĠĠĠĠĠĠĠĠĠĠĠĠĠĠĠĠĠĠĠĠĠĠĠĠĠĠĠĠĠĠĠĠĠĠĠĠĠĠĠĠĠĠĠĠĠĠĠĠĠĠĠĠĠĠĠĠĠĠĠĠĠĠĠĠĠĠĠĠĠĠĠĠĠĠĠĠĠĠĠĠĠĠĠĠĠĠĠĠĠĠĠĠĠĠĠĠĠĠĠĠĠĠĠĠĠĠĠĠĠĠĠĠĠĠĠĠĠĠĠĠĠĠĠĠĠĠĠĠĠĠĠĠĠĠĠĠĠĠĠĠĠĠĠĠĠĠĠĠĠĠĠĠĠĠĠĠĠĠĠĠĠĠĠĠĠĠĠĠĠĠĠĠĠĠĠĠĠĠĠĠĠĠĠĠĠĠĠĠĠĠĠĠĠĠĠĠĠĠĠĠĠĠĠĠĠĠĠĠĠĠĠĠĠĠĠĠĠĠĠĠĠĠĠĠĠĠĠĠĠĠĠĠĠĠĠĠĠĠĠĠĠĠĠĠĠĠĠĠĠĠĠĠĠĠĠĠĠĠĠĠĠĠĠĠĠĠĠĠĠĠĠĠĠĠĠĠĠĠĠĠĠĠĠĠĠĠĠĠĠĠĠĠĠĠĠĠĠĠĠĠĠĠĠĠĠĠĠĠĠĠĠĠĠĠĠĠĠĠĠĠĠĠĠĠĠĠĠĠĠĠĠĠĠĠĠĠĠĠĠĠĠĠĠĠĠĠĠĠĠĠĠĠĠĠĠĠĠĠĠĠĠĠĠĠĠĠĠĠĠĠĠĠĠĠĠĠĠĠĠĠĠĠĠĠĠĠĠĠĠĠĠĠĠĠĠĠĠĠĠĠĠĠĠĠĠĠĠĠĠĠĠĠĠĠĠĠĠĠĠĠĠĠĠĠĠĠĠĠĠĠĠĠĠĠĠĠĠĠĠĠĠĠĠĠĠĠĠĠĠĠĠĠĠĠĠĠĠĠĠĠĠĠĠĠĠĠĠĠĠĠĠĠĠĠĠĠĠĠĠĠĠĠĠĠĠĠĠĠĠĠĠĠĠĠĠĠĠĠĠĠĠĠĠĠĠĠĠĠĠĠĠĠĠĠĠĠĠĠĠĠĠĠĠĠĠĠĠĠĠĠĠĠĠĠĠĠĠĠĠĠĠĠĠĠĠĠĠĠĠĠĠĠĠĠĠĠĠĠĠĠĠĠĠĠĠĠĠĠĠĠĠĠĠĠĠĠĠĠĠĠĠĠĠĠĠĠĠĠĠĠĠĠĠĠĠĠĠĠĠĠĠĠĠĠĠĠĠĠĠĠĠĠĠĠĠĠĠĠĠĠĠĠĠĠĠĠĠĠĠĠĠĠĠĠĠĠĠĠĠĠĠĠĠĠĠĠĠĠĠĠĠĠĠĠĠĠĠĠĠĠĠĠĠĠĠĠĠĠĠĠĠĠĠĠĠĠĠĠĠĠĠĠĠĠĠĠĠĠĠĠĠĠĠĠĠĠĠĠĠĠĠĠĠĠĠĠĠĠĠĠĠĠĠĠĠĠĠĠĠĠĠĠĠĠĠĠĠĠĠĠĠĠĠĠĠĠĠĠĠĠĠĠĠĠĠĠĠĠĠĠĠĠĠĠĠĠĠĠĠĠĠĠĠĠĠĠĠĠĠĠĠĠĠĠĠĠĠĠĠĠĠĠĠĠĠĠĠĠĠĠĠĠĠĠĠĠĠĠĠĠĠĠĠĠĠĠĠĠĠĠĠĠĠĠĠĠĠĠĠĠĠĠĠĠĠĠĠĠĠĠĠĠĠĠĠĠĠĠĠĠĠĠĠĠĠĠĠĠĠĠĠĠĠĠĠĠĠĠĠĠĠĠĠĠĠĠĠĠĠĠĠĠĠĠĠĠĠĠĠĠĠĠĠĠĠĠĠĠĠĠĠĠĠĠĠĠĠĠĠĠĠĠĠĠĠĠĠĠĠĠĠĠĠĠĠĠĠĠĠĠĠĠĠĠĠĠĠĠĠĠĠĠĠĠĠĠĠĠĠĠĠĠĠĠĠĠĠĠĠĠĠĠĠĠĠĠĠĠĠĠĠĠĠĠĠĠĠĠĠĠĠĠĠĠĠĠĠĠĠĠĠĠĠĠĠĠĠĠĠĠĠĠĠĠĠĠĠĠĠĠĠĠĠĠĠĠĠĠĠĠĠĠĠĠĠĠĠĠĠĠĠĠĠĠĠĠĠĠĠĠĠĠĠĠĠĠĠĠĠĠĠĠĠĠĠĠĠĠĠĠĠĠĠĠĠĠĠĠĠĠĠĠĠĠĠĠĠĠĠĠĠĠĠĠĠĠĠĠĠĠĠĠĠĠĠĠĠĠĠĠĠĠĠĠĠĠĠĠĠĠĠĠĠĠĠĠĠĠĠĠĠĠĠĠĠĠĠĠĠĠĠĠĠĠĠĠĠĠĠĠĠĠĠĠĠĠĠĠĠĠĠĠĠĠĠĠĠĠĠĠĠĠĠĠĠĠĠĠĠĠĠĠĠĠĠĠĠĠĠĠĠĠĠĠĠĠĠĠĠĠĠĠĠĠĠĠĠĠĠĠĠĠĠĠĠĠĠĠĠĠĠĠĠĠĠĠĠĠĠĠĠĠĠĠĠĠĠĠĠĠĠĠĠĠĠĠĠĠĠĠĠĠĠĠĠĠĠĠĠĠĠĠĠĠĠĠĠĠĠĠĠĠĠĠĠĠĠĠĠĠĠĠĠĠĠĠĠĠĠĠĠĠĠĠĠĠĠĠĠĠĠĠĠĠĠĠĠĠĠĠĠĠĠĠĠĠĠĠĠĠĠĠĠĠĠĠĠĠĠĠĠĠĠĠĠĠĠĠĠĠĠĠĠĠĠĠĠĠĠĠĠĠĠĠĠĠĠĠĠĠĠĠĠĠĠĠĠĠĠĠĠĠĠĠĠĠĠĠĠĠĠĠĠĠĠĠĠĠĠĠĠĠĠĠĠĠĠĠĠĠĠĠĠĠĠĠĠĠĠĠĠĠĠĠĠĠĠĠĠĠĠĠĠĠĠĠĠĠĠĠĠĠĠĠĠĠĠĠĠĠĠĠĠĠĠĠĠĠĠĠĠĠĠĠĠĠĠĠĠĠĠĠĠĠĠĠĠĠĠĠĠĠĠĠĠĠĠĠĠĠĠĠĠĠĠĠĠĠĠĠĠĠĠĠĠĠĠĠĠĠĠĠĠĠĠĠĠĠĠĠĠĠĠĠĠĠĠĠĠĠĠĠĠĠĠĠĠĠĠĠĠĠĠĠĠĠĠĠĠĠĠĠĠĠĠĠĠĠĠĠĠĠĠĠĠĠĠĠĠĠĠĠĠĠĠĠĠĠĠĠĠĠĠĠĠĠĠĠĠĠĠĠĠĠĠĠĠĠĠĠĠĠĠĠĠĠĠĠĠĠĠĠĠĠĠĠĠĠĠĠĠĠĠĠĠĠĠĠĠĠĠĠĠĠĠĠĠĠĠĠĠĠĠĠĠĠĠĠĠĠĠĠĠĠĠĠĠĠĠĠĠĠĠĠĠĠĠĠĠĠĠĠĠĠĠĠĠĠĠĠĠĠĠĠĠĠĠĠĠĠĠĠĠĠĠĠĠĠĠĠĠĠĠĠĠĠĠĠĠĠĠĠĠĠĠĠĠĠĠĠĠĠĠĠĠĠĠĠĠĠĠĠĠĠĠĠĠĠĠĠĠĠĠĠĠĠĠĠĠĠĠĠĠĠĠĠĠĠĠĠĠĠĠĠĠĠĠĠĠĠĠĠĠĠĠĠĠĠĠĠĠĠĠĠĠĠĠĠĠĠĠĠĠĠĠĠĠĠĠĠĠĠĠĠĠĠĠĠĠĠĠĠĠĠĠĠĠĠĠĠĠĠĠĠĠĠĠĠĠĠĠĠĠĠĠĠĠĠĠĠĠĠĠĠĠĠĠĠĠĠĠĠĠĠĠĠĠĠĠĠĠĠĠĠĠĠĠĠĠĠĠĠĠĠĠĠĠĠĠĠĠĠĠĠĠĠĠĠĠĠĠĠĠĠĠĠĠĠĠĠĠĠĠĠĠĠĠĠĠĠĠĠĠĠĠĠĠĠĠĠĠĠĠĠĠĠĠĠĠĠĠĠĠĠĠĠĠĠĠĠĠĠĠĠĠĠĠĠĠĠĠĠĠĠĠĠĠĠĠĠĠĠĠĠĠĠĠĠĠĠĠĠĠĠĠĠĠĠĠĠĠĠĠĠĠĠĠĠĠĠĠĠĠĠĠĠĠĠĠĠĠĠĠĠĠĠĠĠĠĠĠĠĠĠĠĠĠĠĠĠĠĠĠĠĠĠĠĠĠĠĠĠĠĠĠĠĠĠĠĠĠĠĠĠĠĠĠĠĠĠĠĠĠĠĠĠĠĠĠĠĠĠĠĠĠĠĠĠĠĠĠĠĠĠĠĠĠĠĠĠĠĠĠĠĠĠĠĠĠĠĠĠĠĠĠĠĠĠĠĠĠĠĠĠĠĠĠĠĠĠĠĠĠĠĠĠĠĠĠĠĠĠĠĠĠĠĠĠĠĠĠĠĠĠĠĠĠĠĠĠĠĠĠĠĠĠĠĠĠĠĠĠĠĠĠĠĠĠĠĠĠĠĠĠĠĠĠĠĠĠĠĠĠĠĠĠĠĠĠĠĠĠĠĠĠĠĠĠĠĠĠĠĠĠĠĠĠĠĠĠĠĠĠĠĠĠĠĠĠĠĠĠĠĠĠĠĠĠĠĠĠĠĠĠĠĠĠĠĠĠĠĠĠĠĠĠĠĠĠĠĠĠĠĠĠĠ ĠĠĠĠĠĠĠĠĠĠĠĠĠĠĠĠĠĠĠĠĠĠĠĠĠĠĠĠĠĠĠĠĠĠĠĠĠĠĠĠĠĠĠĠĠĠĠĠĠĠĠĠĠĠĠĠĠĠĠĠĠĠĠĠ
"". "
4 3
9 9
A T
B us
C B
C al
C af
D ani
F ace
G en
G lobalĠ
H isĠ
I IĠ
L a
L oc
M P
N A
P residentĠ
R i
R ic
S eptemberĠ
T ur
T elevisionĠ
U P
U seĠ
b ri
b er,Ġ
b irdĠ
c Ġ
c um
d en
e an
e )Ġ
f requ
g an
g ingĠ
h un
h ub
i esĠandĠ
j u
l angu
m m
n ic
n ear
o ilĠ
r aw
t ab
v ot
Ġ k
Ġ âĢĵĠ
sĠ onĠtheĠ
in o
in spec
an te
er eâĢĻsĠ
on toĠtheĠ
or y
en geĠ
,Ġ toĠ
,Ġ thisĠ
al co
re venu
ingĠ thatĠ
st er
st ay
erĠ (
erĠ ofĠtheĠ
esĠ onĠtheĠ
ac compl
lĠ andĠ
as pec
asĠ muchĠ
ch air
pl ug
us ingĠaĠ
am pleĠ
ab aseĠ
wh er
wh it
wh ere
os ,Ġ
com esĠtoĠ
tr ail
tr ack
tr adeĠ
âĢĻ dĠ
e,Ġ itĠ
ak ingĠ
ap art
qu ot
ation sĠtoĠ
ul l
the -
s.Ġ Pr
ear nĠ
ter min
canĠ alsoĠ
canĠ helpĠ
oneĠ toĠ
tsĠ areĠ
tsĠ ofĠtheĠ
oc cur
se atĠ
pr ay
rec ip
terĠ andĠ
cre atingĠ
.ĠS omeĠ
br ightĠ
ph ot
fin allyĠ
comp u
acc ept
sel ectionĠ
off eringĠ
up dateĠ
ist erĠ
out com
out putĠ
endĠ ofĠtheĠ
plac edĠ
bec auseĠofĠ
withĠaĠ gradeĠofĠ
.ĠP l
compl i
noĠ longerĠ
ÂŃ lyĠ
lin k
peopleĠ whoĠ
coun tryĠ
orsĠ inĠ
takeĠ aĠ
cer tific
.ĠD e
Ġp ol
exp ectĠ
exp ectedĠ
Par kĠ
app yĠ
avail ableĠtoĠ
pol ishĠ
exc eptĠ
cc ord
design edĠtoĠ
ath let
regi str
.ĠThereĠ isĠ
15 0
room sĠ
sl ight
e. g
fil m
partic ularlyĠ
part ner
Pr oĠ
proper lyĠ
land scap
world âĢĻsĠ
exam in
pati ent
conn ectedĠ
recei v
cal cul
posi tion
createĠ aĠ
pow er
Le ad
fav our
wom anĠ
.c :Ġ
fort un
struct ure
Scot land
effec tiv
success fullyĠ
consum erĠ
IâĢĻ veĠ
goingĠtoĠ beĠ
ĠN ew
ensureĠ thatĠ
Rep airĠ
Rep resent
contain sĠ
Ro adĠ
they 'llĠ
plat formĠ
speak erĠ
necessaryĠ toĠ
thre e-
establ ishedĠ
treat mentĠ
sched ul
thirdĠ partyĠ
Des ign
ring toneĠ
charac ter
heav yĠ
fram ewor
exerc iseĠ
Univers ityĠ
sugg est
foo t
Tu es
coff eeĠ
cros s-
stack ableĠ
guest sĠ
Is ra
DietaryĠA ideĠ
heatĠs inkĠ
bey ondĠ
surr ound
Univer sit
neg ativeĠ
iceComput erĠ
elim in
B ritishĠ
W ar
b ilityĠ
IĠ wouldĠ
IĠ hadĠ
moreĠ aboutĠ
ys icalĠ
maj or
- basedĠ
. org
3 9
3 00
4 7
C E
C y
C anĠ
D em
D oc
E T
F T
H or
I L
K ar
K itch
L ordĠ
O fĠ
R eg
S O
T M
U Ġ
W estĠ
a headĠ
b ingĠ
b ol
b ill
c ould
d edĠ
e enĠ
e ightĠ
e gi
i es,Ġ
j umpĠ
k l
l id
l ostĠ
l ackĠ
p w
p et
s ex
s etsĠ
s atell
t orsĠ
t ext
u al
w inĠ
w allĠ
w ardsĠ
z z
z eĠ
Ġ hasĠ
Ġ whichĠ
ĠĠĠĠ Ġ
th ingĠtoĠ
th ank
th ird
er equ
on toĠ
or alĠ
.Ġ YourĠ
ou l
,Ġ R
ing .
re ver
re ve
ingĠ anĠ
onĠ theirĠ
es .ĠThisĠ
es tiv
es .ĠD
at o
orĠ inĠ
el i
el er
esĠ fromĠ
you thĠ
as cal
is ticĠ
anĠ excellentĠ
ch and
ch ick
pl o
pl ent
pl oy
Th e
us er
wi rel
am ent
withĠ ourĠ
withĠ noĠ
ed .
ed it
ed icalĠ
ag e.Ġ
con s
con serv
con fl
con nec
li ber
sh iel
for dĠ
per spec
per hapsĠ
ak ist
qu ery
s.Ġ E
s.Ġ W
e.Ġ W
wor th
res tĠ
soĠ manyĠ
notĠ justĠ
por tsĠ
end sĠ
.ĠA m
.ĠA p
pr iseĠ
pr icesĠ
mo st
estĠ andĠ
butĠ theĠ
me antĠ
)Ġ toĠ
fin ishĠ
Ch ic
au toĠ
.ĠIĠ wasĠ
.ĠIĠ amĠ
up dat
mayĠ notĠ
mayĠ notĠbeĠ
int en
ob tainĠ
loc ationĠ
out sideĠ
likeĠ aĠ
makeĠ theĠ
ous eĠ
iesĠ ofĠ
theĠc arĠ
tur eĠandĠ
dec ad
takeĠ theĠ
cr yptocurr
col leg
lif e.Ġ
add edĠ
ann ounc
gl it
gl adĠ
Par k,Ġ
sur pris
sub st
whileĠ theĠ
cle arĠ
play ersĠ
old enĠ
tre atĠ
ement ,Ġ
Ar ch
Ar ticleĠ
tern alĠ
Pl an
.ĠThereĠ isĠaĠ
stand ard
resul t
gener allyĠ
cap ac
cap italĠ
main tain
vehic le
Res earchĠ
vide o
set tingĠ
experienc edĠ
problem Ġ
prom oteĠ
cas hĠ
siz edĠ
coll abor
anti -
func tionĠ
techn icalĠ
beg inĠ
Bl ack
pho toĠ
ret ailĠ
sens orsĠ
month sĠ
peopl eĠtoĠ
sci enceĠ
mi x
strat egi
enter pris
chall engeĠ
hy dr
bor nĠ
los sĠ
see kingĠ
benef itsĠ
detail sĠ
olu tion
discus s
they 'reĠ
And re
fill edĠwithĠ
stre amĠ
direc tĠ
Ste elĠ
low -
smar t
volunte erĠ
mach in
Or gan
amongĠ theĠ
evid enceĠ
minim umĠ
begin ningĠ
opportunityĠ toĠ
forwardĠ toĠ
exerc is
Ge or
prin tĠ
ses sionĠ
acces sibleĠ
maxim umĠ
absolut elyĠ
wast eĠ
Radi oĠ
contem poraryĠ
extrem elyĠ
s ing
on s
ab et
tion allyĠ
to ,Ġ
enc e
sm all
goĠ toĠ
- monthĠ
3 6
= Ġ
A A
A ward
B R
B CĠ
C C
C ap
D A
E ll
F e
G row
H illĠ
I V
I SĠ
O per
O ver
P ubl
S al
S po
T el
V ill
V ictori
a ,ĠandĠ
b itĠ
b ageĠ
b lock
c iti
d ic
e atingĠ
f icĠ
g oneĠ
h es
h am
h ang
h oodĠ
i edĠ
i a,Ġ
i bleĠ
l aĠ
m echan
p add
r areĠ
r im
r ub
s wim
t ar
t ask
Ġ heĠ
Ġ InĠ
th ink
on yĠ
,Ġ thenĠ
ar ound
re arĠ
re fresh
toĠ findĠ
st ressĠ
at om
at ingĠaĠ
ic ens
el ,Ġ
el eg
ac hel
ac knowledg
you 'veĠ
atĠ thisĠ
as kingĠ
alĠ isĠ
pl esĠ
forĠ ourĠ
âĢ ¢
ad op
enĠ toĠ
ab in
ent ryĠ
un n
withĠ thisĠ
thatĠ heĠ
thatĠ wouldĠ
ed ,ĠtheĠ
tr ailĠ
ex pos
itĠ willĠ
di men
ul lĠ
im pres
im agesĠ
igh tingĠ
be st
be ingĠaĠ
s.Ġ D
op h
allĠ yourĠ
se at
se ed
de b
de pos
.ĠA sĠaĠ
ud entsĠ
bl ueĠ
cont ent
cont act
upĠ withĠ
pre p
theyĠ haveĠ
theyĠ willĠ
useĠ aĠ
year -
year s,Ġ
Ch ur
elyĠ andĠ
ast ernĠ
acc id
off iceĠ
ill ustr
workĠ andĠ
produc tiveĠ
.ĠB e
St ar
day sĠofĠ
makeĠ yourĠ
ful l
ful ,Ġ
timeĠ youĠ
gu estĠ
rel atedĠtoĠ
.ĠIfĠ theĠ
whatĠ isĠ
whatĠ weĠ
Wh ichĠ
tur ningĠ
att ach
compl ex
proc ess.Ġ
aĠc er
.ĠT r
servic es
col orsĠ
pa irĠ
atesĠ theĠ
ven ueĠ
Par tĠ
sm anĠ
az z
az onĠ
Al l
exc ep
publ ishedĠ
buil t-
aĠb igĠ
person al
organ is
develop edĠ
bothĠ theĠ
sl owĠ
spe echĠ
bed dingĠ
fact orsĠ
Ġ* Ġm
func tionalĠ
ĠĠĠĠĠĠĠĠĠĠĠĠ Ġ
consid eringĠ
consid eredĠ
Br it
conn ectionĠ
Gre atĠ
pri or
great estĠ
photo graph
Col legeĠ
wa itingĠ
rac eĠ
knownĠ asĠ
Grou p
s.ĠH eĠ
Rep ublic
bal lo
realĠ estateĠ
.ĠAl so,Ġ
mov ementĠ
want edĠ
NewĠYor k,Ġ
polic yĠ
thre at
him ĠtoĠ
audi oĠ
Indi anĠ
initi alĠ
augh tĠ
ix elĠ
orig in
allowsĠ youĠtoĠ
prim aryĠ
remain ingĠ
ring ton
broad castĠ
Me ig
Ad- ID
givesĠ youĠ
altern ativeĠ
fab ric
brok enĠ
separ ateĠ
clin icalĠ
Sci enceĠ
.ĠThat âĢĻsĠ
Ang el
nearĠ theĠ
doll ar
Flor id
vil le,Ġ
cordĠ bloodĠ
earli erĠ
arthriti sĠ
thermalĠ resistanceĠ
make upĠ
commit mentĠ
accom mod
A sĠ
S up
b aseĠ
en edĠ
. C
4 6
A V
A v
A prilĠ
B re
B ig
B ot
C er
C ot
D en
D at
D own
E d
F re
H ome
K e
L aw
N Y
N achĠBaliyeĠ
O rangeĠ
P re
P ur
P owerĠ
R a
V en
V al
V ide
W i
] :
b oughtĠ
c oĠ
c kĠ
c oreĠ
c ustomĠ
d atedĠ
d ens
e al
f ing
f ish
f ishĠ
g in
g org
h idd
h ormoneĠ
i .
i orĠ
k yĠ
l ap
l edĠtoĠ
l eng
l istĠofĠ
m .Ġ
m aĠ
m mĠ
m asterĠ
n al
n ur
o h
o lĠ
o bl
p ed
p oolĠ
p agesĠ
r y
r oĠ
r ain
s .ĠI
s tim
s .ĠTheyĠ
u res
v ict
y aĠ
á »
ð Ł
Ġ [
Ġ areĠ
Ġ saidĠ
sĠ fromĠtheĠ
th ankĠ
an sĠandĠ
an other
yĠ B
yĠ isĠ
en th
en âĢĻsĠ
,Ġ T
,Ġ asĠ
ti llĠ
ti fi
ti gh
al oneĠ
ing :Ġ
ing ?Ġ
andĠ moreĠ
andĠ thenĠ
ingĠ fromĠ
ingĠ thisĠ
toĠ haveĠ
edĠ withĠaĠ
ofĠ allĠ
ofĠ itsĠ
es id
at e.Ġ
at ely,Ġ
ic sĠ
orĠ evenĠ
isĠ justĠ
inĠ B
inĠ L
el ementĠ
ac et
ac id
asĠ soonĠ
ch os
us edĠinĠ
forĠ myĠ
forĠ hisĠ
ol iveĠ
ad aĠ
ad ataĠ
pro venĠ
youĠ willĠbeĠ
hĠ (
ed g
ed lyĠ
ag ar
ag es,Ġ
ha elĠ
li p
sh owsĠ
ex actĠ
ex ternalĠ
beĠ sureĠtoĠ
for e,Ġ
qu i
ation s.Ġ
ationĠ withĠ
tion edĠ
op in
IĠ thinkĠ
cl ick
soĠ IĠ
thisĠ year
uc ialĠ
notĠ theĠ
we 'reĠ
co ach
co ordin
de p
de ad
te :Ġ
dis pos
ell ,Ġ
ell ow
.ĠS inceĠ
aw aren
aw esomeĠ
br ingsĠ
ther ,Ġ
go ti
ast er
acc ep
An n
19 4
ill ingĠ
.ĠIĠ thinkĠ
incl usionĠ
des ir
mayĠ haveĠ
mayĠ alsoĠ
fl av
spec i
St re
includ edĠ
includ ingĠtheĠ
exper im
ĠĠĠĠĠĠĠĠĠĠĠĠĠĠĠĠĠĠĠĠĠĠĠĠĠĠĠĠĠĠĠĠĠĠĠĠĠĠĠĠĠĠĠĠĠĠĠĠĠĠĠĠĠĠĠĠĠĠĠĠĠĠĠĠĠĠĠĠĠĠĠĠĠĠĠĠĠĠĠĠĠĠĠĠĠĠĠĠĠĠĠĠĠĠĠĠĠĠĠĠĠĠĠĠĠĠĠĠĠĠĠĠĠĠĠĠĠĠĠĠĠĠĠĠĠĠĠĠĠĠĠĠĠĠĠĠĠĠĠĠĠĠĠĠĠĠĠĠĠĠĠĠĠĠĠĠĠĠĠĠĠĠĠĠĠĠĠĠĠĠĠĠĠĠĠĠĠĠĠĠĠĠĠĠĠĠĠĠĠĠĠĠĠĠĠĠĠĠĠĠĠĠĠĠĠĠĠĠĠĠĠĠĠĠĠĠĠĠĠĠĠĠĠĠĠĠĠĠĠĠĠĠĠĠĠĠĠĠĠĠĠĠĠĠĠĠĠĠĠĠĠĠĠĠĠĠĠĠĠĠĠĠĠĠĠĠĠĠĠĠĠĠĠĠĠĠĠĠĠĠĠĠĠĠĠĠĠĠĠĠĠĠĠĠĠĠĠĠĠĠĠĠĠĠĠĠĠĠĠĠĠĠĠĠĠĠĠĠĠĠĠĠĠĠĠĠĠĠĠĠĠĠĠĠĠĠĠĠĠĠĠĠĠĠĠĠĠĠĠĠĠĠĠĠĠĠĠĠĠĠĠĠĠĠĠĠĠĠĠĠĠĠĠĠĠĠĠĠĠĠĠĠĠĠĠĠĠĠĠĠĠĠĠĠĠĠĠĠĠĠĠĠĠĠĠĠĠĠĠĠĠĠĠĠĠĠĠĠĠĠĠĠĠĠĠĠĠĠĠĠĠĠĠĠĠĠĠĠĠĠĠĠĠĠĠĠĠĠĠĠĠĠĠĠĠĠĠĠĠĠĠĠĠĠĠĠĠĠĠĠĠĠĠĠĠĠĠĠĠĠĠĠĠĠĠĠĠĠĠĠĠĠĠĠĠĠĠĠĠĠĠĠĠĠĠĠĠĠĠĠĠĠĠĠĠĠĠĠĠĠĠĠĠĠĠĠĠĠĠĠĠĠĠĠĠĠĠĠĠĠĠĠĠĠĠĠĠĠĠĠĠĠĠĠĠĠĠĠĠĠĠĠĠĠĠĠĠĠĠĠĠĠĠĠĠĠĠĠĠĠĠĠĠĠĠĠĠĠĠĠĠĠĠĠĠĠĠĠĠĠĠĠĠĠĠĠĠĠĠĠĠĠĠĠĠĠĠĠĠĠĠĠĠĠĠĠĠĠĠĠĠĠĠĠĠĠĠĠĠĠĠĠĠĠĠĠĠĠĠĠĠĠĠĠĠĠĠĠĠĠĠĠĠĠĠĠĠĠĠĠĠĠĠĠĠĠĠĠĠĠĠĠĠĠĠĠĠĠĠĠĠĠĠĠĠĠĠĠĠĠĠĠĠĠĠĠĠĠĠĠĠĠĠĠĠĠĠĠĠĠĠĠĠĠĠĠĠĠĠĠĠĠĠĠĠĠĠĠĠĠĠĠĠĠĠĠĠĠĠĠĠĠĠĠĠĠĠĠĠĠĠĠĠĠĠĠĠĠĠĠĠĠĠĠĠĠĠĠĠĠĠĠĠĠĠĠĠĠĠĠĠĠĠĠĠĠĠĠĠĠĠĠĠĠĠĠĠĠĠĠĠĠĠĠĠĠĠĠĠĠĠĠĠĠĠĠĠĠĠĠĠĠĠĠĠĠĠĠĠĠĠĠĠĠĠĠĠĠĠĠĠĠĠĠĠĠĠĠĠĠĠĠĠĠĠĠĠĠĠĠĠĠĠĠĠĠĠĠĠĠĠĠĠĠĠĠĠĠĠĠĠĠĠĠĠĠĠĠĠĠĠĠĠĠĠĠĠĠĠĠĠĠĠĠĠĠĠĠĠĠĠĠĠĠĠĠĠĠĠĠĠĠĠĠĠĠĠĠĠĠĠĠĠĠĠĠĠĠĠĠĠĠĠĠĠĠĠĠĠĠĠĠĠĠĠĠĠĠĠĠĠĠĠĠĠĠĠĠĠĠĠĠĠĠĠĠĠĠĠĠĠĠĠĠĠĠĠĠĠĠĠĠĠĠĠĠĠĠĠĠĠĠĠĠĠĠĠĠĠĠĠĠĠĠĠĠĠĠĠĠĠĠĠĠĠĠĠĠĠĠĠĠĠĠĠĠĠĠĠĠĠĠĠĠĠĠĠĠĠĠĠĠĠĠĠĠĠĠĠĠĠĠĠĠĠĠĠĠĠĠĠĠĠĠĠĠĠĠĠĠĠĠĠĠĠĠĠĠĠĠĠĠĠĠĠĠĠĠĠĠĠĠĠĠĠĠĠĠĠĠĠĠĠĠĠĠĠĠĠĠĠĠĠĠĠĠĠĠĠĠĠĠĠĠĠĠĠĠĠĠĠĠĠĠĠĠĠĠĠĠĠĠĠĠĠĠĠĠĠĠĠĠĠĠĠĠĠĠĠĠĠĠĠĠĠĠĠĠĠĠĠĠĠĠĠĠĠĠĠĠĠĠĠĠĠĠĠĠĠĠĠĠĠĠĠĠĠĠĠĠĠĠĠĠĠĠĠĠĠĠĠĠĠĠĠĠĠĠĠĠĠĠĠĠĠĠĠĠĠĠĠĠĠĠĠĠĠĠĠĠĠĠĠĠĠĠĠĠĠĠĠĠĠĠĠĠĠĠĠĠĠĠĠĠĠĠĠĠĠĠĠĠĠĠĠĠĠĠĠĠĠĠĠĠĠĠĠĠĠĠĠĠĠĠĠĠĠĠĠĠĠĠĠĠĠĠĠĠĠĠĠĠĠĠĠĠĠĠĠĠĠĠĠĠĠĠĠĠĠĠĠĠĠĠĠĠĠĠĠĠĠĠĠĠĠĠĠĠĠĠĠĠĠĠĠĠĠĠĠĠĠĠĠĠĠĠĠĠĠĠĠĠĠĠĠĠĠĠĠĠĠĠĠĠĠĠĠĠĠĠĠĠĠĠĠĠĠĠĠĠĠĠĠĠĠĠĠĠĠĠĠĠĠĠĠĠĠĠĠĠĠĠĠĠĠĠĠĠĠĠĠĠĠĠĠĠĠĠĠĠĠĠĠĠĠĠĠĠĠĠĠĠĠĠĠĠĠĠĠĠĠĠĠĠĠĠĠĠĠĠĠĠĠĠĠĠĠĠĠĠĠĠĠĠĠĠĠĠĠĠĠĠĠĠĠĠĠĠĠĠĠĠĠĠĠĠĠĠĠĠĠĠĠĠĠĠĠĠĠĠĠĠĠĠĠĠĠĠĠĠĠĠĠĠĠĠĠĠĠĠĠĠĠĠĠĠĠĠĠĠĠĠĠĠĠĠĠĠĠĠĠĠĠĠĠĠĠĠĠĠĠĠĠĠĠĠĠĠĠĠĠĠĠĠĠĠĠĠĠĠĠĠĠĠĠĠĠĠĠĠĠĠĠĠĠĠĠĠĠĠĠĠĠĠĠĠĠĠĠĠĠĠĠĠĠĠĠĠĠĠĠĠĠĠĠĠĠĠĠĠĠĠĠĠĠĠĠĠĠĠĠĠĠĠĠĠĠĠĠĠĠĠĠĠĠĠĠĠĠĠĠĠĠĠĠĠĠĠĠĠĠĠĠĠĠĠĠĠĠĠĠĠĠĠĠĠĠĠĠĠĠĠĠĠĠĠĠĠĠĠĠĠĠĠĠĠĠĠĠĠĠĠĠĠĠĠĠĠĠĠĠĠĠĠĠĠĠĠĠĠĠĠĠĠĠĠĠĠĠĠĠĠĠĠĠĠĠĠĠĠĠĠĠĠĠĠĠĠĠĠĠĠĠĠĠĠĠĠĠĠĠĠĠĠĠĠĠĠĠĠĠĠĠĠĠĠĠĠĠĠĠĠĠĠĠĠĠĠĠĠĠĠĠĠĠĠĠĠĠĠĠĠĠĠĠĠĠĠĠĠĠĠĠĠĠĠĠĠĠĠĠĠĠĠĠĠĠĠĠĠĠĠĠĠĠĠĠĠĠĠĠĠĠĠĠĠĠĠĠĠĠĠĠĠĠĠĠĠĠĠĠĠĠĠĠĠĠĠĠĠĠĠĠĠĠĠĠĠĠĠĠĠĠĠĠĠĠĠĠĠĠĠĠĠĠĠĠĠĠĠĠĠĠĠĠĠĠĠĠĠĠĠĠĠĠĠĠĠĠĠĠĠĠĠĠĠĠĠĠĠĠĠĠĠĠĠĠĠĠĠĠĠĠĠĠĠĠĠĠĠĠĠĠĠĠĠĠĠĠĠĠĠĠĠĠĠĠĠĠĠĠĠĠĠĠĠĠĠĠĠĠĠĠĠĠĠĠĠĠĠĠĠĠĠĠĠĠĠĠĠĠĠĠĠĠĠĠĠĠĠĠĠĠĠĠĠĠĠĠĠĠĠĠĠĠĠĠĠĠĠĠĠĠĠĠĠĠĠĠĠĠĠĠĠĠĠĠĠĠĠĠĠĠĠĠĠĠĠĠĠĠĠĠĠĠĠĠĠĠĠĠĠĠĠĠĠĠĠĠĠĠĠĠĠĠĠĠĠĠĠĠĠĠĠĠĠĠĠĠĠĠĠĠĠĠĠĠĠĠĠĠĠĠĠĠĠĠĠĠĠĠĠĠĠĠĠĠĠĠĠĠĠĠĠĠĠĠĠĠĠĠĠĠĠĠĠĠĠĠĠĠĠĠĠĠĠĠĠĠĠĠĠĠĠĠĠĠĠĠĠĠĠĠĠĠĠĠĠĠĠĠĠĠĠĠĠĠĠĠĠĠĠĠĠĠĠĠĠĠĠĠĠĠĠĠĠĠĠĠĠĠĠĠĠĠĠĠĠĠĠĠĠĠĠĠĠĠĠĠĠĠĠĠĠĠĠĠĠĠĠĠĠĠĠĠĠĠĠĠĠĠĠĠĠĠĠĠĠĠĠĠĠĠĠĠĠĠĠĠĠĠĠĠĠĠĠĠĠĠĠĠĠĠĠĠĠĠĠĠĠĠĠĠĠĠĠĠĠĠĠĠĠĠĠĠĠĠĠĠĠĠĠĠĠĠĠĠĠĠĠĠĠĠĠĠĠĠĠĠĠĠĠĠĠĠĠĠĠĠĠĠĠĠĠĠĠĠĠĠĠĠĠĠĠĠĠĠĠĠĠĠĠĠĠĠĠĠĠĠĠĠĠĠĠĠĠĠĠĠĠĠĠĠĠĠĠĠĠĠĠĠĠĠĠĠĠĠĠĠĠĠĠĠĠĠĠĠĠĠĠĠĠĠĠĠĠĠĠĠĠĠĠĠĠĠĠĠĠĠĠĠĠĠĠĠĠĠĠĠĠĠĠĠĠĠĠĠĠĠĠĠĠĠĠĠĠĠĠĠĠĠĠĠĠĠĠĠĠĠĠĠĠĠĠĠĠĠĠĠĠĠĠĠĠĠĠĠĠĠĠĠĠĠĠĠĠĠĠĠĠĠĠĠĠĠĠĠĠĠĠĠĠĠĠĠĠĠĠĠĠĠĠĠĠĠĠĠĠĠĠĠĠĠĠĠĠĠĠĠĠĠĠĠĠĠĠĠĠĠĠĠĠĠĠĠĠĠĠĠĠĠĠĠĠĠĠĠĠĠĠĠĠĠĠĠĠĠĠĠĠĠĠĠĠĠĠĠĠĠĠĠĠĠĠĠĠĠĠĠĠĠĠĠĠĠĠĠĠĠĠĠĠĠĠĠĠĠĠĠĠĠĠĠĠĠĠĠĠĠĠĠĠĠĠĠĠĠĠĠĠĠĠĠĠĠĠĠĠĠĠĠĠĠĠĠĠĠĠĠĠĠĠĠĠĠĠĠĠĠĠĠĠĠĠĠĠĠĠĠĠĠĠĠĠĠĠĠĠĠĠĠĠĠĠĠĠĠĠĠĠĠĠĠĠĠĠĠĠĠĠĠĠĠĠĠĠĠĠĠĠĠĠĠĠĠĠĠĠĠĠĠĠĠĠĠĠĠĠĠĠĠĠĠĠĠĠĠĠĠĠĠĠĠĠĠĠĠĠĠĠĠĠĠĠĠĠĠĠĠĠĠĠĠĠĠĠĠĠĠĠĠĠĠĠĠĠĠĠĠĠĠĠĠĠĠĠĠĠĠĠĠĠĠĠĠĠĠĠĠĠĠĠĠĠĠĠĠĠĠĠĠĠĠĠĠĠĠĠĠĠĠĠĠĠĠĠĠĠĠĠĠĠĠĠĠĠĠĠĠĠĠĠĠĠĠĠĠĠĠĠĠĠĠĠĠĠĠĠĠĠĠĠĠĠĠĠĠĠĠĠĠĠĠĠĠĠĠĠĠĠĠĠĠĠĠĠĠĠĠĠĠĠĠĠĠĠĠĠĠĠĠĠĠĠĠĠĠĠĠĠĠĠĠĠĠĠĠĠĠĠĠĠĠĠĠĠĠĠĠĠĠĠĠĠĠĠĠĠĠĠĠĠĠĠĠĠĠĠĠĠĠĠĠĠĠĠĠĠĠĠĠĠĠĠĠĠĠĠĠĠĠĠĠĠĠĠĠĠĠĠĠĠĠĠĠĠĠĠĠĠĠĠĠĠĠĠĠĠĠĠĠĠĠĠĠĠĠĠĠĠĠĠĠĠĠĠĠĠĠĠĠĠ ĠĠĠĠĠĠĠĠĠĠĠĠĠĠĠĠĠĠĠĠĠĠĠĠĠĠĠĠĠĠĠĠĠĠĠĠĠĠĠĠĠĠĠĠĠĠĠĠĠĠĠĠĠĠĠĠĠĠĠĠĠĠĠĠĠĠĠĠĠĠĠĠĠĠĠĠĠĠĠĠĠĠĠĠĠĠĠĠĠĠĠĠĠĠĠĠĠĠĠĠĠĠĠĠĠĠĠĠĠĠĠĠĠĠĠĠĠĠĠĠĠĠĠĠĠĠĠĠĠĠĠĠĠĠĠĠĠĠĠĠĠĠĠĠĠĠĠĠĠĠĠĠĠĠĠĠĠĠĠĠĠĠĠĠĠĠĠĠĠĠĠĠĠĠĠĠĠĠĠĠĠĠĠĠĠĠĠĠĠĠĠĠĠĠĠĠĠĠĠĠĠĠĠĠĠĠĠĠĠĠĠĠĠĠĠĠĠĠĠĠĠĠĠĠĠĠĠĠĠĠĠĠĠĠĠĠĠĠĠĠĠĠĠĠĠĠĠĠĠĠĠĠĠĠĠĠĠĠĠĠĠĠĠĠĠĠĠĠĠĠĠĠĠĠĠĠĠĠĠĠĠĠĠĠĠĠĠĠĠĠĠĠĠĠĠĠĠĠĠĠĠĠĠĠĠĠĠĠĠĠĠĠĠĠĠĠĠĠĠĠĠĠĠĠĠĠĠĠĠĠĠĠĠĠĠĠĠĠĠĠĠĠĠĠĠĠĠĠĠĠĠĠĠĠĠĠĠĠĠĠĠĠĠĠĠĠĠĠĠĠĠĠĠĠĠĠĠĠĠĠĠĠĠĠĠĠĠĠĠĠĠĠĠĠĠĠĠĠĠĠĠĠĠĠĠĠĠĠĠĠĠĠĠĠĠĠĠĠĠĠĠĠĠĠĠĠĠĠĠĠĠĠĠĠĠĠĠĠĠĠĠĠĠĠĠĠĠĠĠĠĠĠĠĠĠĠĠĠĠĠĠĠĠĠĠĠĠĠĠĠĠĠĠĠĠĠĠĠĠĠĠĠĠĠĠĠĠĠĠĠĠĠĠĠĠĠĠĠĠĠĠĠĠĠĠĠĠĠĠĠĠĠ
plac e.Ġ
ationsĠ inĠ
rel ativ
whatĠ youĠ
iĠ AnĠ
sit tingĠ
del et
eng ageĠ
wayĠ ofĠ
suchĠ aĠ
whereĠ youĠ
sol eĠ
olog y,Ġ
informationĠ andĠ
informationĠ onĠ
ann aĠ
car sĠ
Par t
app earĠ
sub scrip
Tr ad
afterĠ aĠ
under st
Gr andĠ
exc itedĠ
sk in
commun iti
becauseĠ IĠ
cor por
develop ment
saidĠ countyĠ
resul tingĠ
atur dayĠ
sal eĠ
lead ershipĠ
tem plateĠ
Fr omĠ
spe edĠ
qual ity,Ġ
fre ed
typ icallyĠ
youâĢĻ veĠ
chil d
new sp
.ĠAn yĠ
cas esĠ
coll ectĠ
mean sĠofĠ
cri ption
shop per
intern alĠ
other s,Ġ
techn ologi
arm ingĠ
untilĠ theĠ
was hĠ
Serv icesĠ
owever ,ĠtheĠ
resid entialĠ
mod elĠ
bur g
din nerĠ
process ingĠ
.com /
.com Ġ
feelĠ likeĠ
law Ġ
hear dĠ
alongĠ theĠ
serviceĠ provid
courseĠ isĠ
Cl ass
hardĠ toĠ
elev ision
Counc il
pain t
expl oreĠ
pot enti
concer ningĠ
review sĠ
Cent erĠ
cy cl
makesĠ itĠ
particip ateĠ
Mic helangeloĠ
cop y
peri od
bat teryĠ
wind ow
meth odĠ
.ĠJ ustĠ
join tĠ
strateg yĠ
cours e,Ġ
pas sion
htt ps
Des cription
bott leĠ
rap hĠ
lov elyĠ
activi tiesĠ
broad cast
It âĢĻsĠ
Te amĠ
company 'sĠ
Comp anyĠ
Progr amĠ
quil tsĠ
visit orsĠ
Fin anc
antiqueĠ vanityĠ
Vi ewĠ
dre am
dre amĠ
coff e
cred itĠ
signific antĠ
yĠM obileĠ
bud getĠ
DP R
emerg encyĠ
ĠCredit s.ĠPr
plainti ffĠ
Jes usĠ
map _
brows erĠ
Pati oĠ
Anal y
intellig entĠ
YukonĠ X
instruct or
Wed nes
fash ion
bigg estĠ
Bus inessĠ
phot os
compu ter
RepairĠ Caf
stackableĠ washerĠdryerĠ
Description :Ġ
ab out
um merĠ
av ingĠ
s>Ġ ThisĠ
Ġ<s>Ġ ThisĠ
thereĠ wasĠ
Li fe
( London
( e.g
- upĠ
5 1
9 5
B achel
C D
C oll
C hap
C ity
D on
D avidĠ
E E
F irstĠ
G H
G al
H on
J ap
L et
M ,Ġ
M arg
N otĠ
O rĠ
O ak
O lym
P o
P ac
P ost
Q :Ġ
R edĠ
R evi
S ar
S ain
T re
W om
W illi
a inĠtheĠ
a 'sĠ
b on
b ound
d y
d erĠ
d os
d ut
e thĠ
f ant
f ederalĠ
g er
g ent
g ni
h an
i keĠ
k el
k s,Ġ
m ail
m ist
p icĠ
p sy
p assĠ
p ock
r am
r ad
s /
s mo
s .ĠIfĠyouĠ
t ail
t ty
t uredĠ
u sĠandĠ
v it
v elyĠ
y r
y :Ġ
Ġ sheĠ
Ġ hour
ĠĠĠĠ ĠĠ
eĠ C
eĠ ofĠtheĠ
th -
th en
an ticip
er t
er veĠ
on alĠ
or iesĠ
.Ġ Y
.Ġ Com
.Ġ Re
,Ġ (
,Ġ B
ar mĠ
ar iesĠ
ti seĠ
ti fyĠ
al o
re leaseĠ
ingĠ ourĠ
ingĠ theirĠ
toĠ helpĠ
aĠ F
aĠ numberĠofĠ
edĠ anĠ
edĠ thisĠ
ofĠ hisĠ
st atis
es ?Ġ
at or,Ġ
orĠ better
isĠ oneĠofĠtheĠ
el essĠ
el ectionĠ
ro of
atĠ yourĠ
ec tiv
as c
is sionĠ
alĠ toĠ
ow er
ch airĠ
pl yĠ
Th atĠ
âĢ ĭ
am bi
em onĠ
et ric
pro v
pro te
pro perĠ
pro vision
un g
thatĠ aĠ
thatĠ youĠareĠ
com b
con firm
con sequ
tr ig
tr ick
tr umĠ
sh ownĠ
si anĠ
itĠ inĠ
for ward
di etĠ
sp otsĠ
ir m
ir ingĠ
ul tsĠ
ul turalĠ
be atĠ
haveĠ toĠbeĠ
um in
ateĠ toĠ
cl ar
cl ust
cl ub
cl aimĠ
willĠ alsoĠ
willĠ notĠbeĠ
ersĠ thatĠ
ersĠ ofĠtheĠ
ersĠ whoĠ
par kingĠ
we al
we âĢĻveĠ
all owingĠ
form ul
hasĠ toĠ
mo tiv
weĠ wereĠ
he apĠ
bo y
cre atesĠ
dis coun
dis abilityĠ
dis ci
forĠtheĠ firstĠ
po d
In t
In ter
go al
tingĠ toĠ
useĠ ofĠtheĠ
them ,Ġ
ifĠ youĠhaveĠ
inter view
mar tĠ
acc eler
off ici
ip p
YouĠ canĠ
up ,Ġ
up comingĠ
sc ri
dr yĠMobileĠ
fl owerĠ
out sid
ve get
plac esĠ
edi tionĠ
.ĠP h
del ay
sy n
att ack
compl ic
eng ine
bus yĠ
fac ilityĠ
own ersĠ
aĠc le
Con sul
peopleĠ areĠ
evenĠ thoughĠ
cr y
ĠA d
pa th
.ĠD oĠ
sheĠ wasĠ
fun Ġ
resp ect
rightĠ toĠ
Gr and
du eĠtoĠtheĠ
Al ask
exc it
soc iet
hand s-
En g
adv ancedĠ
findĠ outĠ
trans fer
design edĠ
cor porateĠ
Ad mini
resul tĠofĠ
cap ableĠ
setĠ ofĠ
Fr idayĠ
sl ic
suppor tsĠ
suppor tĠofĠ
grow Ġ
grow nĠ
fil mĠ
theĠl astĠ
beforeĠ youĠ
program sĠ
vol t
uni orĠ
week endĠ
tal kingĠ
cri ticalĠ
appro v
ĠĠĠĠĠĠĠĠĠĠĠĠ ĠĠĠ
De fi
put eĠ
lookingĠ atĠ
there âĢĻsĠ
there foreĠ
profession al
cul turalĠ
sof tw
month lyĠ
peopl eĠandĠ
open ingĠ
dem andĠ
IN G
solu tion
not eĠ
pat tern
kind sĠofĠ
minut esĠ
conf ig
business esĠ
pack ag
checkĠ outĠ
hav ingĠtoĠ
enjoyĠ theĠ
anim alĠ
kitch en
event uallyĠ
e.ĠYouĠ canĠ
guid anceĠ
camer asĠ
discus sĠ
And roidĠ
autom aticallyĠ
meas ureĠ
expect edĠtoĠ
NewĠYor k
invol vedĠ
bat ter
materi al
care fullyĠ
assist anceĠ
Australi anĠ
Servic e,Ġ
abor atoryĠ
combin ationĠofĠ
Sam sungĠ
moun tain
bott omĠ
ĠĠĠĠĠĠĠĠĠĠĠĠĠĠĠĠĠĠĠĠĠĠĠĠ ĠĠĠ
what everĠ
bath roomĠ
restaur ant
suff ici
scen ari
Dec emberĠ
ref us
HomeĠ Park,Ġ
emo tionalĠ
poli tic
mess ageĠ
radi oĠ
sus p
Canad aĠ
becom esĠ
docum ent
stic k
mid -
.ĠThat 'sĠ
&apos; sĠ
bir th
diver seĠ
illion sĠofĠ
incredi blyĠ
lux uryĠ
insp iredĠ
ecu tiveĠ
parag raphĠ
perfect lyĠ
iPh oneĠ
lit er
Washo eĠ
-in chĠ
dro pĠ
guar ante
countr iesĠ
inĠAn dryĠMobileĠ
Stood ntĠ
ĠNew .Ġ
Dem oc
pw query
erequ isit
Grow thĠ
tar getĠ
dimen sion
built- inĠ
Home P
inĠAndryĠMobileĠ HomeĠPark,Ġ
M ag
h as
s 'Ġ
it ableĠ
Bl ueĠ
ĠĠĠĠĠĠĠĠĠĠĠĠĠĠĠĠĠĠĠĠĠĠĠĠĠĠĠĠ ĠĠ
ĠĠĠĠĠĠĠĠĠĠĠĠĠĠĠĠĠĠĠĠĠĠĠĠĠĠĠĠĠĠĠĠĠĠĠĠĠĠĠĠĠĠĠĠĠĠĠĠĠĠĠĠĠĠĠĠĠĠĠĠĠĠĠĠĠĠĠĠĠĠĠĠĠĠĠĠĠĠĠĠĠĠĠĠĠĠĠĠĠĠĠĠĠĠĠĠĠĠĠĠĠĠĠĠĠĠĠĠĠĠĠĠĠĠĠĠĠĠĠĠĠĠĠĠĠĠĠĠĠĠĠĠĠĠĠĠĠĠĠĠĠĠĠĠĠĠĠĠĠĠĠĠĠĠĠĠĠĠĠĠĠĠĠĠĠĠĠĠĠĠĠĠĠĠĠĠĠĠĠĠĠĠĠĠĠĠĠĠĠĠĠĠĠĠĠĠĠĠĠĠĠĠĠĠĠĠĠĠĠĠĠĠĠĠĠĠĠĠĠĠĠĠĠĠĠĠĠĠĠĠĠĠĠĠĠĠĠĠĠĠĠĠĠĠĠĠĠĠĠĠĠĠĠĠĠĠĠĠĠĠĠĠĠĠĠĠĠĠĠĠĠĠĠĠĠĠĠĠĠĠĠĠĠĠĠĠĠĠĠĠĠĠĠĠĠĠĠĠĠĠĠĠĠĠĠĠĠĠĠĠĠĠĠĠĠĠĠĠĠĠĠĠĠĠĠĠĠĠĠĠĠĠĠĠĠĠĠĠĠĠĠĠĠĠĠĠĠĠĠĠĠĠĠĠĠĠĠĠĠĠĠĠĠĠĠĠĠĠĠĠĠĠĠĠĠĠĠĠĠĠĠĠĠĠĠĠĠĠĠĠĠĠĠĠĠĠĠĠĠĠĠĠĠĠĠĠĠĠĠĠĠĠĠĠĠĠĠĠĠĠĠĠĠĠĠĠĠĠĠĠĠĠĠĠĠĠĠĠĠĠĠĠĠĠĠĠĠĠĠĠĠĠĠĠĠĠĠĠĠĠĠĠĠĠĠĠĠĠĠĠĠĠĠĠĠĠĠĠĠĠĠĠĠĠĠĠĠĠĠĠĠĠĠĠĠĠĠĠĠĠĠĠĠĠĠĠĠĠĠĠĠĠĠĠĠĠĠĠĠĠĠĠĠĠĠĠĠĠĠĠĠĠĠĠĠĠĠĠĠĠĠĠĠĠĠĠĠĠĠĠĠĠĠĠĠĠĠĠĠĠĠĠĠĠĠĠĠĠĠĠĠĠĠĠĠĠĠĠĠĠĠĠĠĠĠĠĠĠĠĠĠĠĠĠĠĠĠĠĠĠĠĠĠĠĠĠĠĠĠĠĠĠĠĠĠĠĠĠĠĠĠĠĠĠĠĠĠĠĠĠĠĠĠĠĠĠĠĠĠĠĠĠĠĠĠĠĠĠĠĠĠĠĠĠĠĠĠĠĠĠĠĠĠĠĠĠĠĠĠĠĠĠĠĠĠĠĠĠĠĠĠĠĠĠĠĠĠĠĠĠĠĠĠĠĠĠĠĠĠĠĠĠĠĠĠĠĠĠĠĠĠĠĠĠĠĠĠĠĠĠĠĠĠĠĠĠĠĠĠĠĠĠĠĠĠĠĠĠĠĠĠĠĠĠĠĠĠĠĠĠĠĠĠĠĠĠĠĠĠĠĠĠĠĠĠĠĠĠĠĠĠĠĠĠĠĠĠĠĠĠĠĠĠĠĠĠĠĠĠĠĠĠĠĠĠĠĠĠĠĠĠĠĠĠĠĠĠĠĠĠĠĠĠĠĠĠĠĠĠĠĠĠĠĠĠĠĠĠĠĠĠĠĠĠĠĠĠĠĠĠĠĠĠĠĠĠĠĠĠĠĠĠĠĠĠĠĠĠĠĠĠĠĠĠĠĠĠĠĠĠĠĠĠĠĠĠĠĠĠĠĠĠĠĠĠĠĠĠĠĠĠĠĠĠĠĠĠĠĠĠĠĠĠĠĠĠĠĠĠĠĠĠĠĠĠĠĠĠĠĠĠĠĠĠĠĠĠĠĠĠĠĠĠĠĠĠĠĠĠĠĠĠĠĠĠĠĠĠĠĠĠĠĠĠĠĠĠĠĠĠĠĠĠĠĠĠĠĠĠĠĠĠĠĠĠĠĠĠĠĠĠĠĠĠĠĠĠĠĠĠĠĠĠĠĠĠĠĠĠĠĠĠĠĠĠĠĠĠĠĠĠĠĠĠĠĠĠĠĠĠĠĠĠĠĠĠĠĠĠĠĠĠĠĠĠĠĠĠĠĠĠĠĠĠĠĠĠĠĠĠĠĠĠĠĠĠĠĠĠĠĠĠĠĠĠĠĠĠĠĠĠĠĠĠĠĠĠĠĠĠĠĠĠĠĠĠĠĠĠĠĠĠĠĠĠĠĠĠĠĠĠĠĠĠĠĠĠĠĠĠĠĠĠĠĠĠĠĠĠĠĠĠĠĠĠĠĠĠĠĠĠĠĠĠĠĠĠĠĠĠĠĠĠĠĠĠĠĠĠĠĠĠĠĠĠĠĠĠĠĠĠĠĠĠĠĠĠĠĠĠĠĠĠĠĠĠĠĠĠĠĠĠĠĠĠĠĠĠĠĠĠĠĠĠĠĠĠĠĠĠĠĠĠĠĠĠĠĠĠĠĠĠĠĠĠĠĠĠĠĠĠĠĠĠĠĠĠĠĠĠĠĠĠĠĠĠĠĠĠĠĠĠĠĠĠĠĠĠĠĠĠĠĠĠĠĠĠĠĠĠĠĠĠĠĠĠĠĠĠĠĠĠĠĠĠĠĠĠĠĠĠĠĠĠĠĠĠĠĠĠĠĠĠĠĠĠĠĠĠĠĠĠĠĠĠĠĠĠĠĠĠĠĠĠĠĠĠĠĠĠĠĠĠĠĠĠĠĠĠĠĠĠĠĠĠĠĠĠĠĠĠĠĠĠĠĠĠĠĠĠĠĠĠĠĠĠĠĠĠĠĠĠĠĠĠĠĠĠĠĠĠĠĠĠĠĠĠĠĠĠĠĠĠĠĠĠĠĠĠĠĠĠĠĠĠĠĠĠĠĠĠĠĠĠĠĠĠĠĠĠĠĠĠĠĠĠĠĠĠĠĠĠĠĠĠĠĠĠĠĠĠĠĠĠĠĠĠĠĠĠĠĠĠĠĠĠĠĠĠĠĠĠĠĠĠĠĠĠĠĠĠĠĠĠĠĠĠĠĠĠĠĠĠĠĠĠĠĠĠĠĠĠĠĠĠĠĠĠĠĠĠĠĠĠĠĠĠĠĠĠĠĠĠĠĠĠĠĠĠĠĠĠĠĠĠĠĠĠĠĠĠĠĠĠĠĠĠĠĠĠĠĠĠĠĠĠĠĠĠĠĠĠĠĠĠĠĠĠĠĠĠĠĠĠĠĠĠĠĠĠĠĠĠĠĠĠĠĠĠĠĠĠĠĠĠĠĠĠĠĠĠĠĠĠĠĠĠĠĠĠĠĠĠĠĠĠĠĠĠĠĠĠĠĠĠĠĠĠĠĠĠĠĠĠĠĠĠĠĠĠĠĠĠĠĠĠĠĠĠĠĠĠĠĠĠĠĠĠĠĠĠĠĠĠĠĠĠĠĠĠĠĠĠĠĠĠĠĠĠĠĠĠĠĠĠĠĠĠĠĠĠĠĠĠĠĠĠĠĠĠĠĠĠĠĠĠĠĠĠĠĠĠĠĠĠĠĠĠĠĠĠĠĠĠĠĠĠĠĠĠĠĠĠĠĠĠĠĠĠĠĠĠĠĠĠĠĠĠĠĠĠĠĠĠĠĠĠĠĠĠĠĠĠĠĠĠĠĠĠĠĠĠĠĠĠĠĠĠĠĠĠĠĠĠĠĠĠĠĠĠĠĠĠĠĠĠĠĠĠĠĠĠĠĠĠĠĠĠĠĠĠĠĠĠĠĠĠĠĠĠĠĠĠĠĠĠĠĠĠĠĠĠĠĠĠĠĠĠĠĠĠĠĠĠĠĠĠĠĠĠĠĠĠĠĠĠĠĠĠĠĠĠĠĠĠĠĠĠĠĠĠĠĠĠĠĠĠĠĠĠĠĠĠĠĠĠĠĠĠĠĠĠĠĠĠĠĠĠĠĠĠĠĠĠĠĠĠĠĠĠĠĠĠĠĠĠĠĠĠĠĠĠĠĠĠĠĠĠĠĠĠĠĠĠĠĠĠĠĠĠĠĠĠĠĠĠĠĠĠĠĠĠĠĠĠĠĠĠĠĠĠĠĠĠĠĠĠĠĠĠĠĠĠĠĠĠĠĠĠĠĠĠĠĠĠĠĠĠĠĠĠĠĠĠĠĠĠĠĠĠĠĠĠĠĠĠĠĠĠĠĠĠĠĠĠĠĠĠĠĠĠĠĠĠĠĠĠĠĠĠĠĠĠĠĠĠĠĠĠĠĠĠĠĠĠĠĠĠĠĠĠĠĠĠĠĠĠĠĠĠĠĠĠĠĠĠĠĠĠĠĠĠĠĠĠĠĠĠĠĠĠĠĠĠĠĠĠĠĠĠĠĠĠĠĠĠĠĠĠĠĠĠĠĠĠĠĠĠĠĠĠĠĠĠĠĠĠĠĠĠĠĠĠĠĠĠĠĠĠĠĠĠĠĠĠĠĠĠĠĠĠĠĠĠĠĠĠĠĠĠĠĠĠĠĠĠĠĠĠĠĠĠĠĠĠĠĠĠĠĠĠĠĠĠĠĠĠĠĠĠĠĠĠĠĠĠĠĠĠĠĠĠĠĠĠĠĠĠĠĠĠĠĠĠĠĠĠĠĠĠĠĠĠĠĠĠĠĠĠĠĠĠĠĠĠĠĠĠĠĠĠĠĠĠĠĠĠĠĠĠĠĠĠĠĠĠĠĠĠĠĠĠĠĠĠĠĠĠĠĠĠĠĠĠĠĠĠĠĠĠĠĠĠĠĠĠĠĠĠĠĠĠĠĠĠĠĠĠĠĠĠĠĠĠĠĠĠĠĠĠĠĠĠĠĠĠĠĠĠĠĠĠĠĠĠĠĠĠĠĠĠĠĠĠĠĠĠĠĠĠĠĠĠĠĠĠĠĠĠĠĠĠĠĠĠĠĠĠĠĠĠĠĠĠĠĠĠĠĠĠĠĠĠĠĠĠĠĠĠĠĠĠĠĠĠĠĠĠĠĠĠĠĠĠĠĠĠĠĠĠĠĠĠĠĠĠĠĠĠĠĠĠĠĠĠĠĠĠĠĠĠĠĠĠĠĠĠĠĠĠĠĠĠĠĠĠĠĠĠĠĠĠĠĠĠĠĠĠĠĠĠĠĠĠĠĠĠĠĠĠĠĠĠĠĠĠĠĠĠĠĠĠĠĠĠĠĠĠĠĠĠĠĠĠĠĠĠĠĠĠĠĠĠĠĠĠĠĠĠĠĠĠĠĠĠĠĠĠĠĠĠĠĠĠĠĠĠĠĠĠĠĠĠĠĠĠĠĠĠĠĠĠĠĠĠĠĠĠĠĠĠĠĠĠĠĠĠĠĠĠĠĠĠĠĠĠĠĠĠĠĠĠĠĠĠĠĠĠĠĠĠĠĠĠĠĠĠĠĠĠĠĠĠĠĠĠĠĠĠĠĠĠĠĠĠĠĠĠĠĠĠĠĠĠĠĠĠĠĠĠĠĠĠĠĠĠĠĠĠĠĠĠĠĠĠĠĠĠĠĠĠĠĠĠĠĠĠĠĠĠĠĠĠĠĠĠĠĠĠĠĠĠĠĠĠĠĠĠĠĠĠĠĠĠĠĠĠĠĠĠĠĠĠĠĠĠĠĠĠĠĠĠĠĠĠĠĠĠĠĠĠĠĠĠĠĠĠĠĠĠĠĠĠĠĠĠĠĠĠĠĠĠĠĠĠĠĠĠĠĠĠĠĠĠĠĠĠĠĠĠĠĠĠĠĠĠĠĠĠĠĠĠĠĠĠĠĠĠĠĠĠĠĠĠĠĠĠĠĠĠĠĠĠĠĠĠĠĠĠĠĠĠĠĠĠĠĠĠĠĠĠĠĠĠĠĠĠĠĠĠĠĠĠĠĠĠĠĠĠĠĠĠĠĠĠĠĠĠĠĠĠĠĠĠĠĠĠĠĠĠĠĠĠĠĠĠĠĠĠĠĠĠĠĠĠĠĠĠĠĠĠĠĠĠĠĠ ĠĠĠĠĠĠĠĠĠĠĠĠĠĠĠĠĠĠĠĠĠĠĠĠĠĠĠĠĠĠĠĠĠĠĠĠĠĠĠĠĠĠĠĠĠĠĠĠĠĠĠĠĠĠĠĠĠĠĠĠĠĠĠĠĠĠĠĠĠĠĠĠĠĠĠĠĠĠĠĠĠĠĠĠĠĠĠĠĠĠĠĠĠĠĠĠĠĠĠĠĠĠĠĠĠĠĠĠĠĠĠĠĠĠĠĠĠĠĠĠĠĠĠĠĠĠĠĠ
( C
( orĠ
. A
3 8
4 00
5 2
A IĠ
B ow
C R
C as
C AĠ
D o
G etĠ
H um
H ill
H ormoneĠ
I tal
I MĠ
K ing
L Y
L oveĠ
M O
M il
M ain
N O
O L
O ut
P A
R en
R ang
S S
T our
V Ġ
V er
] ,
a _
b onĠ
b ad
b all
b ell
c ableĠ
d ueĠ
d augh
e .ĠInĠ
f ightĠ
f arm
g arĠ
g est
g ment
h in
h ur
h et
i a
j unc
k inĠ
l es
l ind
m iddleĠ
n aĠ
n ail
n er,Ġ
r ingĠ
r y,Ġ
r iseĠ
r yingĠ
s on
s ac
s oldĠ
s on,Ġ
s eniorĠ
t m
t echĠ
u li
u chĠ
v el
w arĠ
w onâĢĻtĠ
y og
Ġ thatĠ
Ġ day
Ġ WeĠ
sĠ forĠtheĠ
sĠ likeĠ
th usĠ
in ingĠ
in e,Ġ
er s.ĠTheĠ
on ly
yĠ forĠ
en em
ou st
ar e,Ġ
ti ve
ti esĠofĠ
al -
ing s.Ġ
ing ,ĠtheĠ
ing .ĠD
re di
re pe
re cover
re stric
ingĠ S
ingĠ onĠtheĠ
toĠ provideĠ
aĠ forĠ
aĠ veryĠ
st ri
st uckĠ
om b
erĠ L
onĠ toĠ
onĠ anyĠ
onĠ myĠ
at er
at esĠandĠ
at orsĠ
at mos
inĠ D
el s
el ect
it co
it !Ġ
it ect
it aryĠ
atĠ H
as su
is i
is n'tĠ
pl ic
pl eĠofĠ
us i
am bo
am ilyĠ
ur eĠandĠ
ad oĠ
ad av
wh eneverĠ
pro ofĠ
youĠ doĠ
thatĠ thisĠ
.ĠTh enĠ
os ystem
con cl
tr ust
su itĠ
s,Ġ aĠ
si tĠ
ex ic
âĢĻ .
âĢĻ mĠ
.ĠI 'mĠ
sp in
sp read
qu anti
ation :Ġ
ew ayĠ
ver si
ver sion
lo yĠ
ter edĠ
e.Ġ ForĠ
e.Ġ WhenĠ
ri vingĠ
um n
inĠtheĠ firstĠ
res tĠofĠtheĠ
ateĠ aĠ
willĠ helpĠ
soĠ asĠ
gr andĠ
gr adeĠ
tim eĠofĠ
str ain
anyĠ ofĠtheĠ
we ak
we ap
oc ol
y,Ġ theĠ
form ationĠ
es,Ġ butĠ
bl ightĠ
eĠofĠ aĠ
essĠ ofĠ
rec y
rec ep
.ĠW or
enc y
butĠ itĠ
butĠ IĠ
?Ġ S
atedĠ fromĠ
upĠ aĠ
.ĠS h
whichĠ areĠ
comm and
)Ġ isĠ
pre gn
go v
do or
anc es
them eĠ
ifĠ itĠ
kn ewĠ
fi f
au g
sel ectionĠofĠ
up perĠ
provid eĠtheĠ
eas eĠ
sc oreĠ
.ĠThisĠ isĠaĠ
des piteĠ
pres id
St arĠ
ationsĠ forĠ
gu il
gu essĠ
gu ard
gu az
;Ġ theĠ
willĠbeĠ ableĠtoĠ
sit esĠ
sit e,Ġ
theĠc urrentĠ
edi aĠ
dayĠ toĠ
sec tion
ĠtoĠ beĠ
ingsĠ areĠ
work ,Ġ
work shop
work shopĠ
bas ementĠ
intoĠ yourĠ
coun ter
Ġm em
whereĠ youĠcanĠ
cr is
mat ter
mat erialĠ
ĠA r
Coun sel
Ġp .
exp ens
car ryĠ
sur fac
sub sid
sub mitĠ
Tr ain
aĠl ongĠ
avail abilityĠ
.ĠC l
pol ici
ef fort
sk inĠ
tre atedĠ
En erg
eff ectĠ
help fulĠ
remo teĠ
cor nerĠ
num ber
import anceĠofĠ
happ enĠ
happ yĠtoĠ
Fr anceĠ
spe akĠ
simpl e-
fre eĠtoĠ
bi ologyĠ
hous ingĠ
leg is
require mentsĠ
ie fĠ
prom ot
mean ing
redĠ toĠ
asĠwellĠ asĠtheĠ
cent r
cent ur
esĠthatĠ areĠ
win ningĠ
tow ard
la unchĠ
profession alsĠ
red sĠofĠ
Americ aĠ
somethingĠ thatĠ
ser iesĠ
dist anceĠ
s.ĠS heĠ
betterĠ thanĠ
let tingĠ
cli ent
Cont in
healthĠ andĠ
fa ithĠ
possib il
photo sĠofĠ
Col oringĠ
defin i
pay ingĠ
pay mentĠ
contr actĠ
pass edĠ
processĠ ofĠ
my st
mag az
providesĠ aĠ
Cent ralĠ
integr atedĠ
wideĠ rangeĠofĠ
trav ell
charg ingĠ
guid elin
nes sĠandĠ
enoughĠ toĠ
abil ity
On lineĠ
scre en
ren ew
wel com
Ger manĠ
def end
def ici
far iĠ
stre etĠ
osĠ Angel
e.ĠH eĠ
viaĠ theĠ
histor icĠ
situ ation
Rem ov
TE D,Ġ
hard wareĠ
pas sionĠ
kid sĠ
quar e,Ġ
individu al
LE CĠ
Sam pleĠ
roc kĠ
board ingĠ
diningĠ roomĠ
charac terĠ
inj ur
vent ureĠ
leav esĠ
Univers ityĠofĠ
65 7
eth ic
norm alĠ
agreeĠ thatĠ
campa ign
eu ticĠ
chur chĠ
repa irĠ
chem icalĠ
whenĠitĠ comesĠtoĠ
choos eĠtoĠ
famili arĠ
will ingĠtoĠ
Peo pleĠ
youĠandĠ yourĠ
insteadĠ ofĠ
contri bu
OCĠ HumanĠRelationsĠ
virt ualĠ
Committe eĠ
TION Ġ
relig iousĠ
Nov emberĠ
mir r
Ġfe etĠ
Microsof tĠ
slight lyĠ
plent yĠofĠ
gorg e
ðŁ Ļ
PatioĠ GardenĠ
atmos ph
ambo oĠ
A tt
f t
v e,Ġ
th es
th os
no therĠ
s>Ġ AĠ
Ġ<s>Ġ AĠ
Mar ket
ĠĠĠĠĠĠĠĠĠĠĠĠĠĠĠĠĠĠĠĠ ĠĠĠ
& ĠS
- m
- yearĠ
/ M
6 4
? !
A tĠ
A sh
B oo
B estĠ
C upĠ
C are
C inem
F un
F ound
G B
G l
G o
G oodĠ
G DS
I -
J us
M el
M et
M ill
P aulĠ
P akist
P ixelĠ
R est
R ah
S ur
S pe
U t
V ist
W al
] Ġ
a ud
b un
b ak
b and
c af
d anceĠ
d eri
d ict
e en
f on
f ro
f anĠ
f em
f ear
f air
g ro
g ainĠ
h amĠ
k a
l ect
m un
m e,Ġ
p oll
p isod
r om
r um
s pl
s am
s ess
s .ĠIfĠ
t able
t askĠ
u el
u plo
v ic
v et
v end
v est
v astĠ
w oĠ
w earĠ
w ildĠ
y leĠ
z on
Â Ĺ
Ġ weĠ
Ļ iĠAnĠ
eĠ (
eĠ L
sĠ canĠ
sĠ weĠ
in ar
in âĢĻ
in eĠandĠ
in fra
an atom
er ,ĠtheĠ
.Ġ [
,Ġ inĠ
theĠ wayĠ
ti es
al tyĠ
ing ingĠ
re p
re lyĠ
aĠ L
aĠ inĠ
edĠ theirĠ
ofĠ instructor
st u
st ress
erĠ S
onĠ howĠtoĠ
es the
at 'sĠ
at tit
isĠ inĠ
isĠ nowĠ
inĠ hisĠ
inĠ aĠc
inĠ fron
el ebr
it tingĠ
it self
ro l
ro et
ro bo
ec auseĠ
is c
is s
ati ve
ch esĠ
ch ed
Th eyĠ
us e,Ġ
us ualĠ
us edĠforĠ
forĠ itsĠ
forĠ eachĠ
am in
ur ityĠ
ol ith
pro to
pro xim
un itĠ
un lessĠ
withĠ you
thatĠ theyĠ
ed :Ġ
ed itor
ag ric
com pos
sh or
sh otĠ
sh owingĠ
itĠ aĠ
itĠ isĠaĠ
.ĠI âĢĻmĠ
di eĠ
ap par
qu ir
ir cu
ul ousĠ
ver sĠ
op tion
ff ili
inĠtheĠ sameĠ
bu c
bu ff
cl esĠ
soĠ weĠ
tionĠ inĠ
gr ant
ersĠ haveĠ
ityĠ ofĠtheĠ
par ty
par tiesĠ
anyĠ questionsĠ
se aĠ
co achĠ
de ploy
pr en
hasĠ noĠ
bl u
ne gl
te pĠ
bo ostĠ
gi v
?Ġ TheĠ
est er
upĠ toĠtheĠ
comm ent
In depend
pre meĠ
go tt
aboutĠ thisĠ
You Tu
do gĠ
of -
usĠ atĠ
Ch il
Ch ampion
ifĠ yourĠ
ifĠ theyĠ
getĠ yourĠ
serv esĠ
ign itionĠ
19 0
.ĠIĠ alsoĠ
incl us
sc op
act ualĠ
workĠ withĠ
produc tiv
dr yĠ
dr am
int ableĠ
.ĠB EĠ
pres sureĠ
whenĠ theyĠ
St and
loc ation
tw o-
mon itor
exper tis
vis itingĠ
Wh oĠ
tur eĠofĠ
appl yingĠ
eng ineĠ
Ġ( âĢľ
way sĠtoĠ
bas is
Con ven
Au to
eg oĠ
jo inĠ
cer emon
.ĠYouĠ areĠ
cho icesĠ
servic eĠtoĠ
sol veĠ
WeĠ areĠ
add ingĠ
her e.
pur su
.ĠE very
knowĠ whatĠ
system sĠ
sur ve
need sĠtoĠ
ĠC heapĠ
wr itingĠ
cle anĠandĠ
Ar men
ity .ĠTheĠ
hand madeĠ
adv oc
run n
findĠ theĠ
homeĠ isĠ
cor rect
cor respond
dataĠ andĠ
develop ingĠ
num erousĠ
needĠtoĠ beĠ
NewĠ Rel
list edĠ
thinkĠ ofĠ
Ex p
loveĠ theĠ
new sĠ
Pr inc
proper ty
coll ect
coll ection
mean sĠthatĠ
appro ach
big gerĠ
De gre
localĠ author
ity,Ġ andĠ
men uĠ
hi el
giveĠ usĠ
met alĠ
down load
clos elyĠ
qualityĠ andĠ
let ter
.ĠForĠ moreĠ
dem and
hear t
Uni v
fa therĠ
minut eĠ
bab yĠ
wa itĠ
Counc ilĠ
see k
bin aryĠ
pt roll
Grou psĠ
digitalĠ sign
bal anceĠ
'NetworkĠAutoĠSource,ĠInc.Ġ '
Mon roet
.ĠAl soĠ
tran si
discus sionĠ
EN AC
they âĢĻreĠ
leadĠ toĠ
cir cum
wind owĠ
basedĠ onĠtheĠ
audi enceĠ
ere 'sĠ
situ ationĠ
care erĠ
becomeĠ aĠ
arti st
clo thingĠ
managementĠ andĠ
New townĠ
pen sionĠ
!ĠTh ankĠyouĠ
region alĠ
reco gni
youn g
competi tiveĠ
respec tiveĠ
begin n
West ernĠ
avo id
immedi ateĠ
Off iceĠ
ho lĠ
reli ableĠ
sugg estĠ
transform ationĠ
norm allyĠ
dealĠ withĠ
encour ageĠ
ITĠ ENAC
occ urĠ
aper ror
rul esĠ
influ enc
decid edĠtoĠ
windĠ powerĠ
Coordin atorĠ
High land
Peo pl
associatedĠ withĠ
plainti ff
may beĠ
contri but
episod eĠ
scienti ficĠ
EC TIONĠ
tell sĠ
enh anceĠ
"", "
temper atureĠ
hus bandĠ
Chr isĠ
Washing tonĠ
four thĠ
permissionĠ ofĠinstructor
quali fi
Io TĠ
Sel ectedĠbyĠ
nav ig
wir ing,Ġ
periodĠ ofĠ
jewel ryĠ
specific allyĠ
delici ousĠ
Febr uaryĠ
sensi tiveĠ
Ġb illionĠ
NA FT
raw Ġm
ysicalĠ Description:Ġ
Kitch enĠ
third -
Chic agoĠ
Geor geĠ
prep areĠ
aĠcer tainĠ
Ġ*Ġm aperror
hidd enĠ
stim ul
á» ĻiĠAnĠ
qui etĠ
ĠCredits.ĠPr erequisit
disci pl
suffici entĠ
simple- pwquery
.ĠBEĠ ITĠENAC
M or
S he
d ar
ĠĠĠĠĠĠĠĠ Ġ
is onĠ
IĠ willĠ
Wh ereĠ
Mar ketĠ
Bl u
Rem o
Regi strationĠ
Face bookĠ
0 8
0 9
3 7
4 4
5 7
6 6
7 7
A si
A ud
B A
B as
B AĠ
B ost
B ird
C ha
C lear
E TĠ
F ordĠ
F atherĠ
F ullĠ
H ist
H TM
I d
I ra
I guaz
J er
J ew
K id
L at
L etĠ
L ist
L ond
M C
M exic
N av
O ldĠ
P oll
R A
R C
R he
R oll
R entĠinĠ
S il
S ocialĠ
S quare,Ġ
T F
T akeĠ
T ah
T MĠ
T elevision
U K
U R
V iet
W E
W ood
[ CIĠ
a fĠ
b sĠ
b ankĠ
c a
c ep
c ellĠ
d d
e fĠ
e anĠ
f o
g un
h ass
h ood
i ec
i str
j ump
l ar
l unch
m el
m ol
m and
n yĠ
n ex
n au
n omin
p aĠ
p etĠ
p ump
r us
r up
s ongĠ
s outhĠ
t ingĠtheĠ
t oughĠ
y 'sĠ
z Ġ
Â £
Â ·
Ġ ofĠtheĠ
Ġ AĠ
Ġ timesĠ
ĠĠĠĠ ĠĠĠ
sĠ byĠ
th row
in de
in comeĠ
an -
on c
or sĠandĠ
yĠ ofĠtheĠ
en 'sĠ
,Ġ heĠ
,Ġ pleaseĠ
theĠ otherĠ
oĠ (
ti es,Ġ
ti redĠ
al edĠ
al li
ing redi
re tr
re placeĠ
edĠ itsĠ
edĠ fromĠtheĠ
ofĠ usĠ
ofĠ whatĠ
st res
st aff
st riveĠ
st ake
erĠ wasĠ
onĠ B
onĠ hisĠ
es .ĠB
at ,Ġ
at ing
at tingĠ
ic yĠ
ic al
ic e,Ġ
ic helangeloĠ
isĠ beingĠ
inĠ oneĠ
inĠ itsĠ
inĠ manyĠ
inĠ mindĠ
el âĢĻsĠ
it orĠ
ro ofĠ
atĠ anyĠ
ec om
ec tion,Ġ
ec osystem
as print
is tĠandĠ
ch ain
ch ocol
Th om
forĠ thoseĠ
wi f
am m
ur eĠtoĠ
em br
ol a,Ġ
et sĠandĠ
ad m
ad or
ad ,Ġ
ad justĠ
ad equ
enĠ andĠ
ab ol
id ,Ġ
wh o
pro veĠ
pro spec
pro vedĠ
youĠ wantĠ
youĠ needĠ
thatĠ hasĠ
ag o,Ġ
os sĠ
li br
tr alĠ
tr ainĠ
tr ashĠ
e,Ġ IĠ
.ĠI m
fr ustr
fr agr
di tion
ayĠ OnĠ
ak enĠ
sp on
sp ok
ation .
ul timateĠ
ationĠ thatĠ
ver ticalĠ
im eĠ
s.Ġ WhenĠ
s.Ġ OurĠ
e.Ġ E
ri dĠofĠ
um entĠ
res ol
bu f
soĠ youĠcanĠ
fromĠ thisĠ
tionĠ toĠtheĠ
oneĠ andĠ
oneĠ canĠ
tsĠ toĠ
and -
str ang
we âĢĻreĠ
our sel
s>Ġ S
eĠtoĠ beĠ
hasĠ alsoĠ
ut ter
ne o
ne edĠforĠ
!Ġ ThisĠ
akeĠ sureĠ
rec ru
,ĠandĠ aĠ
,ĠandĠ you'llĠ
te enĠ
pe ace
enc y,Ġ
?Ġ WhatĠ
?Ġ IfĠ
?Ġ HowĠ
?Ġ IsĠ
cre ativ
me al
me alsĠ
est erĠ
dis hĠ
af tĠ
elĠ toĠ
po tĠ
fin estĠ
fin ishedĠ
mentĠ andĠ
Ch o
Ch eckĠ
whoĠ wasĠ
acc eptĠ
acc identĠ
ill edĠ
man ualĠ
man ner
Ġ<s>Ġ S
port ableĠ
port fol
justĠ aĠ
justĠ oneĠ
des ire
dr ug
iti es,Ġ
.ĠB r
pres sĠ
pres cri
includ eĠtheĠ
ist sĠ
exper tiseĠ
plac e,Ġ
doĠ IĠ
howĠ itĠ
howĠ muchĠ
rel ativeĠ
.ĠIfĠ yourĠ
.ĠIfĠ youâĢĻreĠ
.ĠH ereĠ
ment s,Ġ
;Ġ aĠ
.ĠItĠ alsoĠ
fu elĠ
Com ptroll
theĠc our
dayĠ andĠ
Wh iteĠ
ÂŃ enceĠ
ÂŃ fer
aĠc oll
sum mer
.ĠT o
jo yĠ
Ġm et
cr u
cr ucialĠ
servic e,Ġ
tis su
lif est
sol id
pa thĠ
mem or
Ġp m
knowĠ howĠtoĠ
wee ksĠ
canĠbeĠ foundĠ
system s,Ġ
system ĠandĠ
sub mitt
struc tureĠandĠ
inc identĠ
prof ileĠ
Al ber
view edĠbyĠ
play edĠ
sk y
commun icationsĠ
lim itĠ
hand leĠ
Pl ac
backĠ andĠ
sch em
cor rectĠ
curr icul
custom ers.Ġ
manag ement
sal tĠandĠ
list en
ma pĠ
Ex peri
fre ez
typ eĠ
ra isingĠ
friend sĠ
oper ationsĠ
stat ement
program m
program mingĠ
call ingĠ
new lyĠ
uni vers
proper tiesĠ
addi tionĠtoĠ
week lyĠ
siz eĠofĠ
coll ectionĠofĠ
cri tic
.ĠG re
ug g
shop p
Co -
cent ralĠ
mus ic,Ġ
ship pingĠ
tow el
includeĠ aĠ
exam ineĠ
continu esĠtoĠ
e.ĠS oĠ
resid ent
makingĠ itĠ
sty le
met ric
Li br
real -timeĠ
necess ary
ori ent
interest edĠ
oneĠofĠ ourĠ
oneĠofĠ theseĠ
awayĠ fromĠ
Cont actĠ
valu ableĠ
beauti fullyĠ
fa ther
auth en
today âĢĻsĠ
.ĠYouĠcanĠ alsoĠ
Ġ*Ġ simple-pwquery
hy p
consum ersĠ
install ingĠ
hist oryĠ
,ĠwhichĠ isĠ
e.ĠA llĠ
mag n
personĠ orĠ
tool sĠ
graph icĠ
anim alsĠ
ste elĠ
activ ityĠ
groupĠ ofĠ
your self
trav el
.ĠWithĠ theĠ
cy lind
We b
Engl andĠ
ren ov
offic ialĠ
someoneĠ whoĠ
identi fyĠ
direc tionĠ
flo or
.ĠK ind
purchas ingĠ
Su premeĠ
ĠĠĠĠĠĠĠĠĠĠĠĠĠĠĠĠĠĠĠĠĠĠĠĠĠĠĠĠ ĠĠĠ
manufact uringĠ
arti stĠ
Australi aĠ
ru byĠ
che ap
TH E
erĠforĠ RentĠinĠ
multi -
tast eĠ
interestĠ inĠ
.ĠCh eckĠ
roc k
prim arilyĠ
said ,Ġ
ID G
rid geĠ
ĠĠĠĠĠĠĠĠĠĠĠĠĠĠĠĠĠĠĠĠ Ġ
respec tiv
wid elyĠ
Joh n
famil iesĠ
sett l
similarĠ toĠ
aren âĢĻtĠ
Tri fariĠ
.ĠOneĠ ofĠtheĠ
gen etic
obj ectiveĠ
environment alĠ
arr ayĠ
Direct orĠ
crim inalĠ
public lyĠ
effici entĠ
ĠĠĠĠĠĠĠĠĠĠĠĠĠĠĠĠĠĠĠĠĠĠĠĠĠĠĠĠĠĠĠĠĠĠĠĠĠĠĠĠĠĠĠĠĠĠĠĠĠĠĠĠĠĠĠĠĠĠĠĠĠĠĠĠĠĠĠĠĠĠĠĠĠĠĠĠĠĠĠĠĠĠĠĠĠĠĠĠĠĠĠĠĠĠĠĠĠĠĠĠĠĠĠĠĠĠĠĠĠĠĠĠĠĠĠĠĠĠĠĠĠĠĠĠĠĠĠĠĠĠĠĠĠĠĠĠĠĠĠĠĠĠĠĠĠĠĠĠĠĠĠĠĠĠĠĠĠĠĠĠĠĠĠĠĠĠĠĠĠĠĠĠĠĠĠĠĠĠĠĠĠĠĠĠĠĠĠĠĠĠĠĠĠĠĠĠĠĠĠĠĠĠĠĠĠĠĠĠĠĠĠĠĠĠĠĠĠĠĠĠĠĠĠĠĠĠĠĠĠĠĠĠĠĠĠĠĠĠĠĠĠĠĠĠĠĠĠĠĠĠĠĠĠĠĠĠĠĠĠĠĠĠĠĠĠĠĠĠĠĠĠĠĠĠĠĠĠĠĠĠĠĠĠĠĠĠĠĠĠĠĠĠĠĠĠĠĠĠĠĠĠĠĠĠĠĠĠĠĠĠĠĠĠĠĠĠĠĠĠĠĠĠĠĠĠĠĠĠĠĠĠĠĠĠĠĠĠĠĠĠĠĠĠĠĠĠĠĠĠĠĠĠĠĠĠĠĠĠĠĠĠĠĠĠĠĠĠĠĠĠĠĠĠĠĠĠĠĠĠĠĠĠĠĠĠĠĠĠĠĠĠĠĠĠĠĠĠĠĠĠĠĠĠĠĠĠĠĠĠĠĠĠĠĠĠĠĠĠĠĠĠĠĠĠĠĠĠĠĠĠĠĠĠĠĠĠĠĠĠĠĠĠĠĠĠĠĠĠĠĠĠĠĠĠĠĠĠĠĠĠĠĠĠĠĠĠĠĠĠĠĠĠĠĠĠĠĠĠĠĠĠĠĠĠĠĠĠĠĠĠĠĠĠĠĠĠĠĠĠĠĠĠĠĠĠĠĠĠĠĠĠĠĠĠĠĠĠĠĠĠĠĠĠĠĠĠĠĠĠĠĠĠĠĠĠĠĠĠĠĠĠĠĠĠĠĠĠĠĠĠĠĠĠĠĠĠĠĠĠĠĠĠĠĠĠĠĠĠĠĠĠĠĠĠĠĠĠĠĠĠĠĠĠĠĠĠĠĠĠĠĠĠĠĠĠĠĠĠĠĠĠĠĠĠĠĠĠĠĠĠĠĠĠĠĠĠĠĠĠĠĠĠĠĠĠĠĠĠĠĠĠĠĠĠĠĠĠĠĠĠĠĠĠĠĠĠĠĠĠĠĠĠĠĠĠĠĠĠĠĠĠĠĠĠĠĠĠĠĠĠĠĠĠĠĠĠĠĠĠĠĠĠĠĠĠĠĠĠĠĠĠĠĠĠĠĠĠĠĠĠĠĠĠĠĠĠĠĠĠĠĠĠĠĠĠĠĠĠĠĠĠĠĠĠĠĠĠĠĠĠĠĠĠĠĠĠĠĠĠĠĠĠĠĠĠĠĠĠĠĠĠĠĠĠĠĠĠĠĠĠĠĠĠĠĠĠĠĠĠĠĠĠĠĠĠĠĠĠĠĠĠĠĠĠĠĠĠĠĠĠĠĠĠĠĠĠĠĠĠĠĠĠĠĠĠĠĠĠĠĠĠĠĠĠĠĠĠĠĠĠĠĠĠĠĠĠĠĠĠĠĠĠĠĠĠĠĠĠĠĠĠĠĠĠĠĠĠĠĠĠĠĠĠĠĠĠĠĠĠĠĠĠĠĠĠĠĠĠĠĠĠĠĠĠĠĠĠĠĠĠĠĠĠĠĠĠĠĠĠĠĠĠĠĠĠĠĠĠĠĠĠĠĠĠĠĠĠĠĠĠĠĠĠĠĠĠĠĠĠĠĠĠĠĠĠĠĠĠĠĠĠĠĠĠĠĠĠĠĠĠĠĠĠĠĠĠĠĠĠĠĠĠĠĠĠĠĠĠĠĠĠĠĠĠĠĠĠĠĠĠĠĠĠĠĠĠĠĠĠĠĠĠĠĠĠĠĠĠĠĠĠĠĠĠĠĠĠĠĠĠĠĠĠĠĠĠĠĠĠĠĠĠĠĠĠĠĠĠĠĠĠĠĠĠĠĠĠĠĠĠĠĠĠĠĠĠĠĠĠĠĠĠĠĠĠĠĠĠĠĠĠĠĠĠĠĠĠĠĠĠĠĠĠĠĠĠĠĠĠĠĠĠĠĠĠĠĠĠĠĠĠĠĠĠĠĠĠĠĠĠĠĠĠĠĠĠĠĠĠĠĠĠĠĠĠĠĠĠĠĠĠĠĠĠĠĠĠĠĠĠĠĠĠĠĠĠĠĠĠĠĠĠĠĠĠĠĠĠĠĠĠĠĠĠĠĠĠĠĠĠĠĠĠĠĠĠĠĠĠĠĠĠĠĠĠĠĠĠĠĠĠĠĠĠĠĠĠĠĠĠĠĠĠĠĠĠĠĠĠĠĠĠĠĠĠĠĠĠĠĠĠĠĠĠĠĠĠĠĠĠĠĠĠĠĠĠĠĠĠĠĠĠĠĠĠĠĠĠĠĠĠĠĠĠĠĠĠĠĠĠĠĠĠĠĠĠĠĠĠĠĠĠĠĠĠĠĠĠĠĠĠĠĠĠĠĠĠĠĠĠĠĠĠĠĠĠĠĠĠĠĠĠĠĠĠĠĠĠĠĠĠĠĠĠĠĠĠĠĠĠĠĠĠĠĠĠĠĠĠĠĠĠĠĠĠĠĠĠĠĠĠĠĠĠĠĠĠĠĠĠĠĠĠĠĠĠĠĠĠĠĠĠĠĠĠĠĠĠĠĠĠĠĠĠĠĠĠĠĠĠĠĠĠĠĠĠĠĠĠĠĠĠĠĠĠĠĠĠĠĠĠĠĠĠĠĠĠĠĠĠĠĠĠĠĠĠĠĠĠĠĠĠĠĠĠĠĠĠĠĠĠĠĠĠĠĠĠĠĠĠĠĠĠĠĠĠĠĠĠĠĠĠĠĠĠĠĠĠĠĠĠĠĠĠĠĠĠĠĠĠĠĠĠĠĠĠĠĠĠĠĠĠĠĠĠĠĠĠĠĠĠĠĠĠĠĠĠĠĠĠĠĠĠĠĠĠĠĠĠĠĠĠĠĠĠĠĠĠĠĠĠĠĠĠĠĠĠĠĠĠĠĠĠĠĠĠĠĠĠĠĠĠĠĠĠĠĠĠĠĠĠĠĠĠĠĠĠĠĠĠĠĠĠĠĠĠĠĠĠĠĠĠĠĠĠĠĠĠĠĠĠĠĠĠĠĠĠĠĠĠĠĠĠĠĠĠĠĠĠĠĠĠĠĠĠĠĠĠĠĠĠĠĠĠĠĠĠĠĠĠĠĠĠĠĠĠĠĠĠĠĠĠĠĠĠĠĠĠĠĠĠĠĠĠĠĠĠĠĠĠĠĠĠĠĠĠĠĠĠĠĠĠĠĠĠĠĠĠĠĠĠĠĠĠĠĠĠĠĠĠĠĠĠĠĠĠĠĠĠĠĠĠĠĠĠĠĠĠĠĠĠĠĠĠĠĠĠĠĠĠĠĠĠĠĠĠĠĠĠĠĠĠĠĠĠĠĠĠĠĠĠĠĠĠĠĠĠĠĠĠĠĠĠĠĠĠĠĠĠĠĠĠĠĠĠĠĠĠĠĠĠĠĠĠĠĠĠĠĠĠĠĠĠĠĠĠĠĠĠĠĠĠĠĠĠĠĠĠĠĠĠĠĠĠĠĠĠĠĠĠĠĠĠĠĠĠĠĠĠĠĠĠĠĠĠĠĠĠĠĠĠĠĠĠĠĠĠĠĠĠĠĠĠĠĠĠĠĠĠĠĠĠĠĠĠĠĠĠĠĠĠĠĠĠĠĠĠĠĠĠĠĠĠĠĠĠĠĠĠĠĠĠĠĠĠĠĠĠĠĠĠĠĠĠĠĠĠĠĠĠĠĠĠĠĠĠĠĠĠĠĠĠĠĠĠĠĠĠĠĠĠĠĠĠĠĠĠĠĠĠĠĠĠĠĠĠĠĠĠĠĠĠĠĠĠĠĠĠĠĠĠĠĠĠĠĠĠĠĠĠĠĠĠĠĠĠĠĠĠĠĠĠĠĠĠĠĠĠĠĠĠĠĠĠĠĠĠĠĠĠĠĠĠĠĠĠĠĠĠĠĠĠĠĠĠĠĠĠĠĠĠĠĠĠĠĠĠĠĠĠĠĠĠĠĠĠĠĠĠĠĠĠĠĠĠĠĠĠĠĠĠĠĠĠĠĠĠĠĠĠĠĠĠĠĠĠĠĠĠĠĠĠĠĠĠĠĠĠĠĠĠĠĠĠĠĠĠĠĠĠĠĠĠĠĠĠĠĠĠĠĠĠĠĠĠĠĠĠĠĠĠĠĠĠĠĠĠĠĠĠĠĠĠĠĠĠĠĠĠĠĠĠĠĠĠĠĠĠĠĠĠĠĠĠĠĠĠĠĠĠĠĠĠĠĠĠĠĠĠĠĠĠĠĠĠĠĠĠĠĠĠĠĠĠĠĠĠĠĠĠĠĠĠĠĠĠĠĠĠĠĠĠĠĠĠĠĠĠĠĠĠĠĠĠĠĠĠĠĠĠĠĠĠĠĠĠĠĠĠĠĠĠĠĠĠĠĠĠĠĠĠĠĠĠĠĠĠĠĠĠĠĠĠĠĠĠĠĠĠĠĠĠĠĠĠĠĠĠĠĠĠĠĠĠĠĠĠĠĠĠĠĠĠĠĠĠĠĠĠĠĠĠĠĠĠĠĠĠĠĠĠĠĠĠĠĠĠĠĠĠĠĠĠĠĠĠĠĠĠĠĠĠĠĠĠĠĠĠĠĠĠĠĠĠĠĠĠĠĠĠĠĠĠĠĠĠĠĠĠĠĠĠĠĠĠĠĠĠĠĠĠĠĠĠĠĠĠĠĠĠĠĠĠĠĠĠĠĠĠĠĠĠĠĠĠĠĠĠĠĠĠĠĠĠĠĠĠĠĠĠĠĠĠĠĠĠĠĠĠĠĠĠĠĠĠĠĠĠĠĠĠĠĠĠĠĠĠĠĠĠĠĠĠĠĠĠĠĠĠĠĠĠĠĠĠĠĠĠĠĠĠĠĠĠĠĠĠĠĠĠĠĠĠĠĠĠĠĠĠĠĠĠĠĠĠĠĠĠĠĠĠĠĠĠĠĠĠĠĠĠĠĠĠĠĠĠĠĠĠĠĠĠĠĠĠĠĠĠĠĠĠĠĠĠĠĠĠĠĠĠĠĠĠĠĠĠĠĠĠĠĠĠĠĠĠĠĠĠĠĠĠĠĠĠĠĠĠĠĠĠĠĠĠĠĠĠĠĠĠĠĠĠĠĠĠĠĠĠĠĠĠĠĠĠĠĠĠĠĠĠĠĠĠĠĠĠĠĠĠĠĠĠĠĠĠĠĠĠĠĠĠĠĠĠĠĠĠĠĠĠĠĠĠĠĠĠĠĠĠĠĠĠĠĠĠĠĠĠĠĠĠĠĠĠĠĠĠĠĠĠĠĠĠĠĠĠĠĠĠĠĠĠĠĠĠĠĠĠĠĠĠĠĠĠĠĠĠĠĠĠĠĠĠĠĠĠĠĠĠĠĠĠĠĠĠĠĠĠĠĠĠĠĠĠĠĠĠĠĠĠĠĠĠĠĠĠĠĠĠĠĠĠĠĠĠĠĠĠĠĠĠĠĠĠĠĠĠĠĠĠĠĠĠĠĠĠĠĠĠĠĠĠĠĠĠĠĠĠĠĠĠĠĠĠĠĠĠĠĠĠĠĠĠĠĠĠĠĠĠĠĠĠĠĠĠĠĠĠĠĠĠĠĠĠĠĠĠĠĠĠĠĠĠĠĠĠĠĠĠĠĠĠĠĠĠĠĠĠĠĠĠĠĠĠĠĠĠĠĠĠĠĠĠĠĠĠĠĠĠĠĠĠĠĠĠĠĠĠĠĠĠĠĠĠĠĠĠĠĠĠĠĠĠĠĠĠĠĠĠĠĠĠĠĠĠĠĠĠĠĠĠĠĠĠĠĠĠĠĠĠĠĠĠĠĠĠĠĠĠĠĠĠĠĠĠĠĠĠĠĠĠĠĠĠĠĠĠĠĠĠĠĠĠĠĠĠĠĠĠĠĠĠĠĠĠĠĠĠĠĠĠĠĠĠĠĠĠĠĠĠĠĠĠĠĠĠĠĠĠĠĠĠĠĠĠĠĠĠĠĠĠĠĠĠĠĠĠĠĠĠĠĠĠĠĠĠĠĠĠĠĠĠĠĠĠĠĠĠĠĠĠĠĠĠĠĠĠĠĠĠĠĠĠĠĠĠĠĠĠĠĠĠĠĠĠĠĠĠĠĠĠĠĠĠĠĠĠĠĠĠĠĠĠĠĠĠĠĠĠĠĠĠĠĠĠĠĠĠĠĠĠĠĠĠĠĠĠĠĠĠĠĠĠĠĠĠĠĠĠĠĠĠĠĠĠĠĠĠĠĠĠĠĠĠĠĠĠĠĠĠĠĠĠĠĠĠĠĠĠĠĠĠĠĠĠĠĠĠĠĠĠĠĠĠĠĠĠĠĠĠĠĠĠĠĠĠĠĠĠĠĠĠĠĠĠĠĠĠĠĠĠĠĠĠĠĠĠĠĠĠĠĠĠĠĠĠĠĠĠĠĠĠĠĠĠĠĠĠĠĠĠĠĠĠĠĠĠĠĠĠĠĠĠĠĠĠĠĠĠĠĠĠĠĠĠĠĠĠĠĠĠĠĠĠĠĠĠĠĠĠĠĠĠĠĠĠĠĠĠĠĠĠĠĠĠĠĠĠĠĠĠĠĠĠĠĠĠĠĠĠĠĠĠĠĠĠĠĠĠĠ ĠĠĠĠĠĠĠĠĠĠĠĠĠĠĠĠĠĠĠĠĠĠĠĠĠĠĠĠĠĠĠĠĠĠĠĠĠĠĠĠĠĠĠĠĠĠĠĠĠĠĠĠĠĠĠĠĠĠĠĠĠĠĠĠĠĠĠĠĠĠĠĠĠĠĠĠĠĠĠĠĠĠĠĠĠĠĠĠĠĠĠĠĠĠĠĠ
fab ricĠ
sle ep
supplyĠ chainĠ
Hous eĠ
Tw it
stack edĠ
amer aĠ
bud get
themsel vesĠ
Per form
prec ed
chur ch
construc tionĠ
term sĠofĠ
theĠcoun tyĠ
repa ir
prog ress
strong lyĠ
dress ingĠ
benefit sĠofĠ
subjectĠ toĠ
aj unĠ
wear ingĠ
whil stĠ
Mendoz aĠ
cott onĠ
describ esĠ
const antĠ
const antlyĠ
appreci ateĠ
Dumpst erĠforĠRentĠinĠ
Educ ationĠ
Net fli
riskĠ ofĠ
Washing ton
Jam esĠ
seri ousĠ
sustain ableĠ
how everĠ
mainten anceĠ
Dur ation:Ġ
Gar bageĠ
hab it
Ind ustri
aĠcou pleĠofĠ
APĠ F
rug byĠ
webĠp ageĠ
Drag onĠ
frequ entlyĠ
framewor kĠ
ascal eĠ
subst anti
Republic anĠ
obl ig
subscrip tionĠ
Financ ialĠ
RepairĠCaf Ã©
psy ch
orĠbetter ,ĠorĠ
etric ksĠ
legis l
toward sĠtheĠ
Jus ticeĠ
pisod eĠ
stu ffĠ
NewtownĠ Square,Ġ
NAFT AĠ
á»ĻiĠAnĠ S
.ĠBEĠITĠENAC TED,Ġ
Bird C
Ira q
stake hold
ayĠOnĠ Word
DumpsterĠforĠRentĠinĠ Monroet
GarbageĠ DumpsterĠforĠRentĠinĠMonroet
A ir
b il
g asĠ
ĠĠĠĠĠĠĠĠ ĠĠ
os s
ev eningĠ
beĠ aĠ
str ation
s>Ġ H
Ġ<s>Ġ H
pu ter
hadĠ theĠ
ĠĠĠĠĠĠĠĠĠĠĠĠ ĠĠ
ĠĠĠĠĠĠĠĠĠĠĠĠĠĠĠĠĠĠĠĠĠĠĠĠĠĠĠĠ Ġ
ThereĠ areĠ
Florid aĠ
% ),
' .
' s
- F
- ĠandĠ
- year-
. ;
. hĠ(
0 4
0 7
5 4
5 6
5 9
7 1
9 8
B yĠ
B ur
B ook
C -Ġ
D riveĠ
D Ã¼
G A
G ood
H en
H EĠ
I rel
J ul
L C
L D
L im
L osĠAngel
M er
M ach
M other
M edic
M oul
M edicalĠ
N C
O M
P C
P or
P res
P ressĠ
R S
R om
R ag
S .
S ightĠ
S ectionĠ
S ub
S hiel
T or
T EĠ
U L
U m
U KĠ
U IMĠ
V IC
W D
W el
W il
W ineĠ
_ err
a thanĠ
b ac
b anĠ
b athĠ
b itĠofĠ
c os
d omĠ
e _
e b
e ableĠ
e ticĠ
f an
f airĠ
f ansĠ
g all
g lob
h all
i entĠ
i ÂŃ
k no
l amp
l unchĠ
l ightingĠ
m ang
n onĠ
n erv
o yĠ
o ingĠ
o ven
p ac
p ill
p ushĠ
r yĠtoĠ
r yp
t d
t g
t in
t leĠ
t antĠ
t extĠ
t asksĠ
u tion
u sĠofĠ
v s.Ġ
v ardĠ
v oteĠ
w ild
y es,Ġ
z enĠ
z eroĠ
Ã ³
Ã ¶
Ġ onĠ
Ġ asĠ
Ġ In
Ġ yearĠ
Ġ cell
Ġ visitor
Ġ withĠaĠgradeĠofĠ
Ġ paragraphĠ
eĠ withĠ
sĠ thisĠ
sĠ toĠtheĠ
sĠ overĠ
th m
th rowĠ
in str
in fl
in iĠ
an iĠ
er .Ġ
or edĠ
or nam
en abl
ou th
ou ch
,Ġ youĠ
,Ġ theyĠ
,Ġ whoĠ
ar ter
al g
al er
al ingĠ
al ong
al og
ing .ĠThisĠ
re in
re un
re vol
re mainĠ
re presentsĠ
andĠ IĠ
ingĠ upĠ
toĠ workĠ
aĠ fullĠ
edĠ atĠtheĠ
edĠ intoĠ
edĠ thatĠtheĠ
ofĠ anĠ
ofĠ themĠ
st ock
st uff
om et
erĠ withĠ
onĠ topĠ
es .ĠIĠ
es .ĠInĠ
es .ĠM
es .ĠC
es cap
at âĢĻsĠ
at es,Ġ
at edĠtoĠtheĠ
ic kingĠ
isĠ andĠ
inĠ thatĠ
inĠ allĠ
inĠ anyĠ
el se
el ement
it .ĠTheĠ
esĠ willĠ
esĠ toĠtheĠ
ec k
ch argeĠ
Th eseĠ
us ageĠ
forĠ youĠ
forĠ moreĠ
forĠ example,Ġ
am ingĠ
ur alĠ
ur inaryĠ
em anĠ
ol fĠ
ig italĠ
kĠ orĠ
ab sor
un it
thatĠ mayĠbeĠ
.ĠTh ey
.ĠTh roughĠ
.ĠTh ereâĢĻsĠ
ag encyĠ
ev elĠ
ha w
ha ven
oo f
areĠ allĠ
li qu
le agu
s,Ġ orĠ
sh ad
ex ec
itĠ canĠbeĠ
di abet
sp ect
sp endingĠ
ation s.ĠTheĠ
ationĠ inĠtheĠ
ew armingĠ
the at
oun ceĠ
be amĠ
s.Ġ Al
ear th
no tedĠ
ter s,Ġ
ter nĠ
haveĠ anĠ
ri verĠ
wor ryĠ
um -
um ĠandĠ
inĠtheĠ US
IĠ justĠ
outĠ forĠ
canĠ IĠ
willĠ alwaysĠ
ersĠ canĠ
tim es
ityĠ toĠ
we st
we ather
edĠtoĠ aĠ
form atĠ
co veryĠ
de alsĠ
hasĠ anĠ
hasĠ viewedĠbyĠ
mo tor
bl ack
ne goti
rec re
.ĠW hetherĠ
te en
ingĠtheĠ rightĠ
sĠofĠ thisĠ
butĠ notĠ
?Ġ H
ever greenĠ
dis ord
comm itte
po ol
)Ġ orĠ
)Ġ inĠ
)Ġ forĠ
In tel
br ainĠ
br idgeĠ
amĠ (
pre vent
go alĠ
aboutĠ it
ast ,Ġ
inter iorĠ
iz esĠ
sel ectedĠ
serv edĠ
An ti
ip alĠ
ign or
.ĠIĠ wouldĠ
ens uringĠ
up datedĠ
wouldĠ haveĠ
âĢĿ ,
âĢĿ ĠandĠ
des iredĠ
dr inkĠ
dr ugĠ
iti g
iti esĠandĠ
pres sure
whenĠ weĠ
whenĠ heĠ
out standingĠ
ful fill
ous ly,Ġ
exper tĠ
sion ,Ġ
ome timesĠ
iesĠ toĠ
doĠ thisĠ
rel axĠ
.ĠH erĠ
theĠc aseĠ
dat aĠs
del eg
att endingĠ
work edĠwithĠ
ÂŃ ingĠ
ough lyĠ
mis singĠ
sum m
.ĠT woĠ
mark etsĠ
coun tri
Au tis
servic esĠandĠ
bel ong
s,ĠandĠ theĠ
stor edĠ
ĠA N
ĠA p
cour t
det ailĠ
exp and
fun dĠ
Par is
medi umĠ
rightĠ now
.ĠN otĠ
reg ularlyĠ
madeĠ itĠ
sm il
itĠisĠ notĠ
need edĠtoĠ
muchĠ moreĠ
val id
prof il
wr ongĠ
cle ans
aĠf reshĠ
play erĠ
soc ietyĠ
sk illĠ
Di visionĠ
ide a
Pl ay
sĠinĠ yourĠ
adv anceĠ
becauseĠ theĠ
Pro f
aĠb re
tri eĠ
tri edĠtoĠ
trans missionĠ
t,Ġ butĠ
.ĠL etĠ
ath yĠ
custom ers
Ad v
lookĠ forĠ
lookĠ forwardĠtoĠ
goĠ throughĠ
ey eĠ
ey esĠ
lead sĠtoĠ
cap turedĠ
suppor tingĠ
Ex am
fil ingĠ
withoutĠ theĠ
ra iseĠ
bi ologicalĠ
Res id
part n
ers âĢĻĠ
prom in
siz e,Ġ
oneĠofĠtheĠ mostĠ
oneĠofĠtheĠ bestĠ
bro adĠ
appro vedĠ
mor e
put tingĠ
compan y,Ġ
lookingĠ toĠ
was nâĢĻtĠ
la you
la idĠ
exam pleĠ
IC O
priv ac
bur yĠ
lob byĠ
cul tureĠ
giveĠ youĠ
cal end
met adataĠ
dist inc
foodĠ andĠ
foodĠ prepar
pri orĠtoĠ
real izeĠ
electr icalĠ
top icĠ
tonĠ Trad
sci enc
.ĠForĠ theĠ
Ap pĠ
cat chĠ
hear tĠ
interest ingĠ
.ĠIn ter
Cont ent
phys icallyĠ
err orĠ
socialĠ mediaĠ
ĠT oĠ
fa ith
health careĠ
employ mentĠ
photo grap
Ġ*Ġ util
ĠG M
effec tsĠ
pain tĠ
IâĢĻ llĠ
accessĠ toĠtheĠ
He av
light lyĠ
my th
my self
benef itĠ
cu is
repor tsĠ
turn edĠ
har ass
activ elyĠ
livingĠ spac
togetherĠ withĠ
larg erĠ
As sist
34 5
nes s,Ġ
particip atingĠ
On lyĠ
iv elyĠ
challeng ingĠ
want edĠtoĠ
Commun icationsĠ
jour nal
life -
accord ingĠtoĠtheĠ
learnĠ moreĠaboutĠ
agre ementĠ
ere fore,Ġ
spir it
treat ment
though ,Ġ
.ĠV o
locatedĠ inĠ
start edĠtoĠ
dou b
searchĠ forĠ
forc edĠtoĠ
Gu ide
weightĠ lossĠ
moun tainĠ
emp tyĠ
caus edĠbyĠ
.ĠAtĠ theĠ
girl sĠ
sav ingĠ
erĠthanĠ theĠ
estim atedĠ
imm igr
fig ureĠ
invit esĠ
bath room
sou lĠ
Ġyear sĠofĠ
thin ksĠ
GreenĠ PartyĠ
acqu ireĠ
It ali
pic kingĠ
tour nam
remov alĠ
.ĠSt udentsĠ
thous andĠ
difficul tĠtoĠ
Wat chĠ
mess agesĠ
s.ĠB utĠ
crim in
analy z
becameĠ aĠ
CN PAĠ
sle epĠ
wood enĠ
influ enceĠ
signific antlyĠ
Vo iceComputerĠ
propos edĠ
engag ementĠ
buy ingĠaĠ
sect orĠ
atten tionĠtoĠ
clear lyĠ
sourceĠ ofĠ
instruc tionsĠ
urb anĠ
arriv alĠ
admissionĠ counsel
prostateĠ health
incredi bleĠ
focus edĠonĠ
scienti st
appe alĠ
gradu atedĠfromĠ
atĠtheĠsameĠ timeĠ
proced ure
incor por
virt uallyĠ
Ros sĠ
rail roadĠ
quali fiedĠ
long- termĠ
circu it
candid ateĠ
Tex asĠ
hund redsĠofĠ
las erĠ
fore ignĠ
emphas isĠ
confid enceĠ
Electr icĠ
exclus iveĠ
clas si
Mary landĠ
.ĠMoreĠ overĠ
Special ist
Ric hardĠ
compli anceĠ
favour iteĠ
surround ingĠ
Universit y,Ġ
CE OĠ
satell iteĠ
Plan ningĠ
small erĠ
BR IDG
hes it
i. e.Ġ
asĠsoonĠ asĠ
freed omĠ
Pac ificĠ
.ĠPh ysicalĠDescription:Ġ
Eng ine
capableĠ ofĠ
GrowthĠ HormoneĠ
nail Ġpol
ColoringĠ P
ðŁĻ Ĥ
atmosph ereĠ
inâĢĻ ĠC
YouTu beĠ
Chil dr
nau z
ÂŃfer ÂŃenceĠ
-year- oldĠ
Rag inâĢĻĠC
W arĠ
f tĠ
ĠĠĠĠĠĠĠĠĠĠĠĠĠĠĠĠ ĠĠ
,Ġ F
aĠ ofĠ
esĠ isĠ
byĠ aĠ
de ep
informationĠ onĠtheĠ
Yor kĠ
conven tion
Su per
swe et
ce il
% .
( E
( p
- S
/ W
0 1
6 00
A ut
A wardsĠ
B E
B eĠ
B ab
B row
D N
D al
D idĠ
E X
E y
E DĠ
E asternĠ
E pisodeĠ
F ac
G S
G oĠ
G ameĠ
G ablesĠ
G han
H el
H SĠ
H DĠ
H amp
H osp
H all,Ġ
H oust
I mag
L u
L ad
L ab
L iz
L ink
M A
M r
M ast
M ot
M od
M axĠ
N u
N ow
N ok
O F
O b
O l
O x
P as
P RO
R et
R ail
S ab
S un
S oc
S howĠ
S wed
T N
T er
T al
T it
U V
V es
V EĠ
Y adav
a .ĠThisĠ
b ag
b oneĠ
b itsĠ
b ed,Ġ
b ank
c ityĠ
c ity
d elĠ
e etĠ
e hic
e booksĠ
f atĠ
f itt
f ari
g edĠ
g lo
g ear
g iteĠ
g atherĠ
h arm
i -
i therĠ
i xĠ
j ack
k ern
l erĠ
l ad
l gĠ
l augh
m ust
m ouseĠ
m itig
n ineĠ
p m
p ip
p up
p umpĠ
p izz
r aĠ
s an
s ev
s nowĠ
s awĠ
t B
t ari
t axĠ
t amar
u elĠ
w er
w onĠ
w arm
y .ĠThisĠ
y ardĠ
Ġ in
Ġ butĠ
Ġ YouĠ
Ġ ForĠ
Ġ pointsĠ
sĠ withĠtheĠ
sĠ willĠbeĠ
sĠ canĠbeĠ
in com
in putĠ
in stitu
tĠ isĠ
an on
an e,Ġ
er ap
er :Ġ
or ativeĠ
en ch
en ableĠ
.Ġ *
.Ġ -Ġ
.Ġ Qu
,Ġ thatĠ
,Ġ whileĠ
theĠ newĠ
ar lo
ar row
ar gu
ti deĠ
al iĠ
ing .ĠB
re ti
re ward
re presentĠ
andĠ s
andĠ otherĠ
ingĠ myĠ
toĠ andĠ
toĠ ourĠ
edĠ S
edĠ myĠ
ofĠ Meig
st erĠ
st oc
st atesĠ
erĠ ResumeĠ
onĠ thatĠ
onĠ Thurs
es sionĠ
es 'Ġ
at es.
ic y
ic ityĠ
orĠ thatĠ
orĠ notĠ
isĠ ofĠ
isĠ soĠ
inĠ C
el ineĠ
el der
it .
it z
il e.
il dingĠ
esĠ atĠ
ro y
ro log
ac tĠofĠ
ac adem
ec o-
as tic
anĠ ofĠ
anĠ oldĠ
asĠ IĠ
ch a
ch oolĠ
forĠ S
forĠ thatĠ
wi de
ol legeĠ
et s,Ġ
ad ultĠ
ab domin
id g
wh omĠ
ent sĠofĠ
un ableĠtoĠ
withĠ anyĠ
withĠ theirĠ
thatĠ sheĠ
ed -
ed arĠ
ed .ĠThisĠ
ed geĠ
.ĠTh oughĠ
.ĠTh oseĠ
.ĠTh ank
ag es
ag end
ag ueĠ
areĠ alsoĠ
con sentĠ
li eĠ
li ableĠ
li vesĠ
tr aĠ
tr im
le an
le qu
le gi
su sĠ
s,Ġ thisĠ
sh in
itĠ allĠ
itĠ mayĠbeĠ
.ĠI 'veĠ
for umĠ
ak ef
qu ino
ul ti
ul tyĠ
ationĠ orĠ
lo p
lo oseĠ
be ar
be at
s.Ġ -Ġ
sĠandĠ otherĠ
e.Ġ R
e.Ġ OurĠ
e.Ġ WhatĠ
inĠtheĠ worldĠ
byĠ anyĠ
outĠ andĠ
allĠ overĠtheĠ
cl oud
soĠ far
soĠ farĠ
fromĠ anyĠ
fromĠ theirĠ
thisĠ month
oneĠ isĠ
ersĠ orĠ
ersĠ forĠ
par entsĠ
wasĠ postedĠ
we atherĠ
we âĢĻllĠ
edĠtoĠ haveĠ
form alĠ
de oĠ
eĠtoĠ aĠ
mo vedĠ
ne u
ne edĠaĠ
he ightĠ
ard âĢĻsĠ
enc yĠandĠ
enc e.ĠTheĠ
ind ingĠ
?Ġ Th
me etsĠ
atedĠ theĠ
dis abil
upĠ forĠ
.ĠS eeĠ
ep iec
whichĠ wasĠ
po orĠ
po pĠ
In st
In suranceĠ
pre f
ph an
fin ishingĠ
enceĠ onĠ
ass a
ass embl
edĠbyĠ anĠ
inter fac
inter ven
sel ect
off eredĠ
gre en
19 2
19 3
provid edĠbyĠ
sc aleĠ
oundĠ (London
mayĠ includeĠ
int ens
int endedĠ
tw o
mostĠ import
mostĠ likelyĠ
out letĠ
aĠs ign
makeĠ anĠ
ous ly
pu tsĠ
endĠ upĠ
doĠ theĠ
howĠ theyĠ
if yingĠ
willĠbeĠ aĠ
overĠ aĠ
Com mer
Com missionĠ
Com mission
inform Ġ
-Ġ Duration:Ġ
sit e.Ġ
theĠc ap
theĠc ostĠ
veryĠ bestĠ
dat a,Ġ
someĠ sortĠofĠ
sec tionĠ
edĠinĠ aĠ
hadĠ toĠ
Ġ( $
shouldĠ haveĠ
proc uringĠ
fac tsĠ
ough tĠtoĠ
Con f
stem Ġcell
mis sĠ
some thing
peopleĠ haveĠ
coun t
coun terĠ
ni vers
âĢĵ ĠandĠ
evenĠ moreĠ
evenĠ ifĠ
thenĠ theĠ
toĠbeĠ aĠ
whereĠ heĠ
yĠandĠ theĠ
servic esĠthatĠ
col our
sol elyĠ
stor esĠ
over ,Ġ
chang esĠ
sĠareĠ notĠ
her e!Ġ
mem oryĠ
knowĠ theĠ
car bonĠ
Par k
sur faceĠ
Tr ail
medi a
medi ationĠ
.ĠN ow
under standingĠ
.ĠWh yĠ
applic antĠ
inc id
val idĠ
prof it
pol iceĠ
roomĠ andĠ
old erĠ
commun itiesĠ
lim ateĠ
hand sĠ
Pl antĠ
Pl aceĠ
adv anc
becauseĠ theyĠ
%Ġ ofĠ
Pro c
tri but
run sĠ
trans mission
aff ectedĠ
aff ectedĠbyĠ
design edĠforĠ
complet eĠtheĠ
Ad dĠ
saidĠ theĠ
every dayĠ
adi anĠ
lookĠ atĠtheĠ
lookĠ likeĠ
gener ateĠ
gener ousĠ
aveĠ youĠ
cap abil
happ inessĠ
Fr anc
Fr iday
sl ow
suppor tĠandĠ
viewĠ theĠ
viewĠ ofĠ
Ex changeĠ
loveĠ toĠ
dri verĠ
youâĢĻ dĠ
ah ,ĠO
hous ewarmingĠ
theĠl arg
friend s,Ġ
friend sĠandĠ
highĠ schoolĠ
require d
new ĠandĠ
issu eĠ
part nerĠ
provideĠ youĠwithĠ
chec kingĠ
chec ksĠ
Pr inceĠ
putĠ itĠ
ov enĠ
.ĠG oĠ
nam e,Ġ
isĠnotĠ aĠ
head quarter
mus e
mus ic
organiz ationsĠ
tow elĠ
tow ardĠ
world ,Ġ
world wideĠ
Inc .Ġ
abilityĠ andĠ
empl oyĠ
pati entĠ
recei vingĠ
ext en
ext ensiveĠ
item Ġ
cover ageĠ
.ĠIfĠyouĠ wantĠtoĠ
cul tiv
thingsĠ thatĠ
ser ver
Li keĠ
18 5
posi tionĠofĠ
foundĠ thatĠ
sens ors,Ġ
stateĠ ofĠ
pri orĠ
fron t-
tooĠ muchĠ
peopl e,Ġ
top -
top ic
nextĠ year
foc usingĠ
.ĠForĠ example,Ġ
impro vedĠ
opportun itiesĠ
meet ing
enter priseĠ
pat ternĠ
nessĠ ofĠ
letĠ usĠ
Cl ay
'NetworkĠAutoĠSource,ĠInc .
Col or
contentĠ andĠ
AN Y
Scot landĠ
wa it
doc tor
controlĠ ofĠtheĠ
pass eng
pass wordĠ
conf identĠ
pack agesĠ
e.ĠA sĠ
checkĠ theĠ
bal ancedĠ
repor tingĠ
educ ationalĠ
detail edĠ
govern ment
mom entsĠ
atureĠ ofĠtheĠ
ordin aryĠ
showĠ youĠ
spr ingĠ
seem sĠ
Wor kĠ
mov ement
particip antsĠ
!! !
EN T
Min ist
On tari
And ers
autom aticĠ
cop yĠ
againĠ andĠ
quick ly
invol vesĠ
far mĠ
applicationĠ isĠ
brow nĠ
accord anceĠ
product s,Ġ
materi alsĠandĠ
reason sĠ
establ ishĠ
regard lessĠ
equip pedĠ
allowĠ youĠtoĠ
StateĠ ofĠ
mil itaryĠ
wond er
For ceĠ
versionĠ ofĠtheĠ
strateg icĠ
skill s,Ġ
GoogleĠ Analy
handĠ gest
che es
heldĠ atĠ
special istĠ
volunte ersĠ
fieldĠ ofĠ
mas ksĠ
reco veryĠ
analys is
tableĠ andĠ
advant ag
advant ageĠ
break fastĠ
ĠĠĠĠĠĠĠĠĠĠĠĠĠĠĠĠĠĠĠĠĠĠĠĠ Ġ
ĠĠĠĠĠĠĠĠĠĠĠĠĠĠĠĠĠĠĠĠĠĠĠĠĠĠĠĠĠĠĠĠĠĠĠĠĠĠĠĠĠĠĠĠĠĠĠĠĠĠĠĠĠĠĠĠĠĠĠĠĠĠĠĠĠĠĠĠĠĠĠĠĠĠĠĠĠĠĠĠĠĠĠĠĠĠĠĠĠĠĠĠĠĠĠĠĠĠĠĠĠĠĠĠĠĠĠĠĠĠĠĠĠĠĠĠĠĠĠĠĠĠĠĠĠĠĠĠĠĠĠĠĠĠĠĠĠĠĠĠĠĠĠĠĠĠĠĠĠĠĠĠĠĠĠĠĠĠĠĠĠĠĠĠĠĠĠĠĠĠĠĠĠĠĠĠĠĠĠĠĠĠĠĠĠĠĠĠĠĠĠĠĠĠĠĠĠĠĠĠĠĠĠĠĠĠĠĠĠĠĠĠĠĠĠĠĠĠĠĠĠĠĠĠĠĠĠĠĠĠĠĠĠĠĠĠĠĠĠĠĠĠĠĠĠĠĠĠĠĠĠĠĠĠĠĠĠĠĠĠĠĠĠĠĠĠĠĠĠĠĠĠĠĠĠĠĠĠĠĠĠĠĠĠĠĠĠĠĠĠĠĠĠĠĠĠĠĠĠĠĠĠĠĠĠĠĠĠĠĠĠĠĠĠĠĠĠĠĠĠĠĠĠĠĠĠĠĠĠĠĠĠĠĠĠĠĠĠĠĠĠĠĠĠĠĠĠĠĠĠĠĠĠĠĠĠĠĠĠĠĠĠĠĠĠĠĠĠĠĠĠĠĠĠĠĠĠĠĠĠĠĠĠĠĠĠĠĠĠĠĠĠĠĠĠĠĠĠĠĠĠĠĠĠĠĠĠĠĠĠĠĠĠĠĠĠĠĠĠĠĠĠĠĠĠĠĠĠĠĠĠĠĠĠĠĠĠĠĠĠĠĠĠĠĠĠĠĠĠĠĠĠĠĠĠĠĠĠĠĠĠĠĠĠĠĠĠĠĠĠĠĠĠĠĠĠĠĠĠĠĠĠĠĠĠĠĠĠĠĠĠĠĠĠĠĠĠĠĠĠĠĠĠĠĠĠĠĠĠĠĠĠĠĠĠĠĠĠĠĠĠĠĠĠĠĠĠĠĠĠĠĠĠĠĠĠĠĠĠĠĠĠĠĠĠĠĠĠĠĠĠĠĠĠĠĠĠĠĠĠĠĠĠĠĠĠĠĠĠĠĠĠĠĠĠĠĠĠĠĠĠĠĠĠĠĠĠĠĠĠĠĠĠĠĠĠĠĠĠĠĠĠĠĠĠĠĠĠĠĠĠĠĠĠĠĠĠĠĠĠĠĠĠĠĠĠĠĠĠĠĠĠĠĠĠĠĠĠĠĠĠĠĠĠĠĠĠĠĠĠĠĠĠĠĠĠĠĠĠĠĠĠĠĠĠĠĠĠĠĠĠĠĠĠĠĠĠĠĠĠĠĠĠĠĠĠĠĠĠĠĠĠĠĠĠĠĠĠĠĠĠĠĠĠĠĠĠĠĠĠĠĠĠĠĠĠĠĠĠĠĠĠĠĠĠĠĠĠĠĠĠĠĠĠĠĠĠĠĠĠĠĠĠĠĠĠĠĠĠĠĠĠĠĠĠĠĠĠĠĠĠĠĠĠĠĠĠĠĠĠĠĠĠĠĠĠĠĠĠĠĠĠĠĠĠĠĠĠĠĠĠĠĠĠĠĠĠĠĠĠĠĠĠĠĠĠĠĠĠĠĠĠĠĠĠĠĠĠĠĠĠĠĠĠĠĠĠĠĠĠĠĠĠĠĠĠĠĠĠĠĠĠĠĠĠĠĠĠĠĠĠĠĠĠĠĠĠĠĠĠĠĠĠĠĠĠĠĠĠĠĠĠĠĠĠĠĠĠĠĠĠĠĠĠĠĠĠĠĠĠĠĠĠĠĠĠĠĠĠĠĠĠĠĠĠĠĠĠĠĠĠĠĠĠĠĠĠĠĠĠĠĠĠĠĠĠĠĠĠĠĠĠĠĠĠĠĠĠĠĠĠĠĠĠĠĠĠĠĠĠĠĠĠĠĠĠĠĠĠĠĠĠĠĠĠĠĠĠĠĠĠĠĠĠĠĠĠĠĠĠĠĠĠĠĠĠĠĠĠĠĠĠĠĠĠĠĠĠĠĠĠĠĠĠĠĠĠĠĠĠĠĠĠĠĠĠĠĠĠĠĠĠĠĠĠĠĠĠĠĠĠĠĠĠĠĠĠĠĠĠĠĠĠĠĠĠĠĠĠĠĠĠĠĠĠĠĠĠĠĠĠĠĠĠĠĠĠĠĠĠĠĠĠĠĠĠĠĠĠĠĠĠĠĠĠĠĠĠĠĠĠĠĠĠĠĠĠĠĠĠĠĠĠĠĠĠĠĠĠĠĠĠĠĠĠĠĠĠĠĠĠĠĠĠĠĠĠĠĠĠĠĠĠĠĠĠĠĠĠĠĠĠĠĠĠĠĠĠĠĠĠĠĠĠĠĠĠĠĠĠĠĠĠĠĠĠĠĠĠĠĠĠĠĠĠĠĠĠĠĠĠĠĠĠĠĠĠĠĠĠĠĠĠĠĠĠĠĠĠĠĠĠĠĠĠĠĠĠĠĠĠĠĠĠĠĠĠĠĠĠĠĠĠĠĠĠĠĠĠĠĠĠĠĠĠĠĠĠĠĠĠĠĠĠĠĠĠĠĠĠĠĠĠĠĠĠĠĠĠĠĠĠĠĠĠĠĠĠĠĠĠĠĠĠĠĠĠĠĠĠĠĠĠĠĠĠĠĠĠĠĠĠĠĠĠĠĠĠĠĠĠĠĠĠĠĠĠĠĠĠĠĠĠĠĠĠĠĠĠĠĠĠĠĠĠĠĠĠĠĠĠĠĠĠĠĠĠĠĠĠĠĠĠĠĠĠĠĠĠĠĠĠĠĠĠĠĠĠĠĠĠĠĠĠĠĠĠĠĠĠĠĠĠĠĠĠĠĠĠĠĠĠĠĠĠĠĠĠĠĠĠĠĠĠĠĠĠĠĠĠĠĠĠĠĠĠĠĠĠĠĠĠĠĠĠĠĠĠĠĠĠĠĠĠĠĠĠĠĠĠĠĠĠĠĠĠĠĠĠĠĠĠĠĠĠĠĠĠĠĠĠĠĠĠĠĠĠĠĠĠĠĠĠĠĠĠĠĠĠĠĠĠĠĠĠĠĠĠĠĠĠĠĠĠĠĠĠĠĠĠĠĠĠĠĠĠĠĠĠĠĠĠĠĠĠĠĠĠĠĠĠĠĠĠĠĠĠĠĠĠĠĠĠĠĠĠĠĠĠĠĠĠĠĠĠĠĠĠĠĠĠĠĠĠĠĠĠĠĠĠĠĠĠĠĠĠĠĠĠĠĠĠĠĠĠĠĠĠĠĠĠĠĠĠĠĠĠĠĠĠĠĠĠĠĠĠĠĠĠĠĠĠĠĠĠĠĠĠĠĠĠĠĠĠĠĠĠĠĠĠĠĠĠĠĠĠĠĠĠĠĠĠĠĠĠĠĠĠĠĠĠĠĠĠĠĠĠĠĠĠĠĠĠĠĠĠĠĠĠĠĠĠĠĠĠĠĠĠĠĠĠĠĠĠĠĠĠĠĠĠĠĠĠĠĠĠĠĠĠĠĠĠĠĠĠĠĠĠĠĠĠĠĠĠĠĠĠĠĠĠĠĠĠĠĠĠĠĠĠĠĠĠĠĠĠĠĠĠĠĠĠĠĠĠĠĠĠĠĠĠĠĠĠĠĠĠĠĠĠĠĠĠĠĠĠĠĠĠĠĠĠĠĠĠĠĠĠĠĠĠĠĠĠĠĠĠĠĠĠĠĠĠĠĠĠĠĠĠĠĠĠĠĠĠĠĠĠĠĠĠĠĠĠĠĠĠĠĠĠĠĠĠĠĠĠĠĠĠĠĠĠĠĠĠĠĠĠĠĠĠĠĠĠĠĠĠĠĠĠĠĠĠĠĠĠĠĠĠĠĠĠĠĠĠĠĠĠĠĠĠĠĠĠĠĠĠĠĠĠĠĠĠĠĠĠĠĠĠĠĠĠĠĠĠĠĠĠĠĠĠĠĠĠĠĠĠĠĠĠĠĠĠĠĠĠĠĠĠĠĠĠĠĠĠĠĠĠĠĠĠĠĠĠĠĠĠĠĠĠĠĠĠĠĠĠĠĠĠĠĠĠĠĠĠĠĠĠĠĠĠĠĠĠĠĠĠĠĠĠĠĠĠĠĠĠĠĠĠĠĠĠĠĠĠĠĠĠĠĠĠĠĠĠĠĠĠĠĠĠĠĠĠĠĠĠĠĠĠĠĠĠĠĠĠĠĠĠĠĠĠĠĠĠĠĠĠĠĠĠĠĠĠĠĠĠĠĠĠĠĠĠĠĠĠĠĠĠĠĠĠĠĠĠĠĠĠĠĠĠĠĠĠĠĠĠĠĠĠĠĠĠĠĠĠĠĠĠĠĠĠĠĠĠĠĠĠĠĠĠĠĠĠĠĠĠĠĠĠĠĠĠĠĠĠĠĠĠĠĠĠĠĠĠĠĠĠĠĠĠĠĠĠĠĠĠĠĠĠĠĠĠĠĠĠĠĠĠĠĠĠĠĠĠĠĠĠĠĠĠĠĠĠĠĠĠĠĠĠĠĠĠĠĠĠĠĠĠĠĠĠĠĠĠĠĠĠĠĠĠĠĠĠĠĠĠĠĠĠĠĠĠĠĠĠĠĠĠĠĠĠĠĠĠĠĠĠĠĠĠĠĠĠĠĠĠĠĠĠĠĠĠĠĠĠĠĠĠĠĠĠĠĠĠĠĠĠĠĠĠĠĠĠĠĠĠĠĠĠĠĠĠĠĠĠĠĠĠĠĠĠĠĠĠĠĠĠĠĠĠĠĠĠĠĠĠĠĠĠĠĠĠĠĠĠĠĠĠĠĠĠĠĠĠĠĠĠĠĠĠĠĠĠĠĠĠĠĠĠĠĠĠĠĠĠĠĠĠĠĠĠĠĠĠĠĠĠĠĠĠĠĠĠĠĠĠĠĠĠĠĠĠĠĠĠĠĠĠĠĠĠĠĠĠĠĠĠĠĠĠĠĠĠĠĠĠĠĠĠĠĠĠĠĠĠĠĠĠĠĠĠĠĠĠĠĠĠĠĠĠĠĠĠĠĠĠĠĠĠĠĠĠĠĠĠĠĠĠĠĠĠĠĠĠĠĠĠĠĠĠĠĠĠĠĠĠĠĠĠĠĠĠĠĠĠĠĠĠĠĠĠĠĠĠĠĠĠĠĠĠĠĠĠĠĠĠĠĠĠĠĠĠĠĠĠĠĠĠĠĠĠĠĠĠĠĠĠĠĠĠĠĠĠĠĠĠĠĠĠĠĠĠĠĠĠĠĠĠĠĠĠĠĠĠĠĠĠĠĠĠĠĠĠĠĠĠĠĠĠĠĠĠĠĠĠĠĠĠĠĠĠĠĠĠĠĠĠĠĠĠĠĠĠĠĠĠĠĠĠĠĠĠĠĠĠĠĠĠĠĠĠĠĠĠĠĠĠĠĠĠĠĠĠĠĠĠĠĠĠĠĠ ĠĠĠĠĠĠĠĠĠĠĠĠĠĠĠĠĠĠĠĠĠĠĠĠĠĠĠĠĠĠĠĠĠĠĠĠĠĠĠĠĠĠĠĠĠĠĠĠĠĠĠĠĠĠĠĠĠĠĠĠĠĠĠĠĠĠĠĠĠĠĠĠĠĠĠĠĠĠĠĠĠĠĠĠĠĠĠĠĠĠĠĠĠĠĠĠĠĠĠĠĠĠĠĠĠĠĠĠĠĠĠĠĠĠĠĠĠĠĠĠĠĠĠĠĠĠĠĠ
rid getĠ
remain edĠ
imm uneĠ
phon e,Ġ
UnitedĠ King
halfĠ ofĠtheĠ
West ville,Ġ
hum an
inj uryĠ
rout ineĠ
er- Pet
ism ĠandĠ
It 'sĠ
Tri fari
appoint mentĠ
tot allyĠ
company âĢĻsĠ
developĠ aĠ
behindĠ theĠ
fol ksĠ
Chin eseĠ
thereĠisĠ noĠ
Fil m
.ĠU seĠ
butt on
blackĠ andĠ
facil it
Pal mĠ
levelĠ ofĠ
ScottishĠ TelevisionĠ
IndigenousĠ Chap
ĠĠĠĠĠĠĠĠĠĠĠĠĠĠĠĠĠĠĠĠĠĠĠĠĠĠĠĠĠĠĠĠĠĠĠĠĠĠĠĠĠĠĠĠĠĠĠĠĠĠĠĠĠĠĠĠĠĠĠĠĠĠĠĠĠĠĠĠĠĠĠĠĠĠĠĠĠĠĠĠĠĠĠĠĠĠĠĠĠĠĠĠĠĠĠĠĠĠĠĠĠĠĠĠĠĠĠĠĠĠĠĠĠĠĠĠĠĠĠĠĠĠĠĠĠĠĠĠĠĠĠĠĠĠĠĠĠĠĠĠĠĠĠĠĠĠĠĠĠĠĠĠĠĠĠĠĠĠĠĠĠĠĠĠĠĠĠĠĠĠĠĠĠĠĠĠĠĠĠĠĠĠĠĠĠĠĠĠĠĠĠĠĠĠĠĠĠĠĠĠĠĠĠĠĠĠĠĠĠĠĠĠĠĠĠĠĠĠĠĠĠĠĠĠĠĠĠĠĠĠĠĠĠĠĠĠĠĠĠĠĠĠĠĠĠĠĠĠĠĠĠĠĠĠĠĠĠĠĠĠĠĠĠĠĠĠĠĠĠĠĠĠĠĠĠĠĠĠĠĠĠĠĠĠĠĠĠĠĠĠĠĠĠĠĠĠĠĠĠĠĠĠĠĠĠĠĠĠĠĠĠĠĠĠĠĠĠĠĠĠĠĠĠĠĠĠĠĠĠĠĠĠĠĠĠĠĠĠĠĠĠĠĠĠĠĠĠĠĠĠĠĠĠĠĠĠĠĠĠĠĠĠĠĠĠĠĠĠĠĠĠĠĠĠĠĠĠĠĠĠĠĠĠĠĠĠĠĠĠĠĠĠĠĠĠĠĠĠĠĠĠĠĠĠĠĠĠĠĠĠĠĠĠĠĠĠĠĠĠĠĠĠĠĠĠĠĠĠĠĠĠĠĠĠĠĠĠĠĠĠĠĠĠĠĠĠĠĠĠĠĠĠĠĠĠĠĠĠĠĠĠĠĠĠĠĠĠĠĠĠĠĠĠĠĠĠĠĠĠĠĠĠĠĠĠĠĠĠĠĠĠĠĠĠĠĠĠĠĠĠĠĠĠĠĠĠĠĠĠĠĠĠĠĠĠĠĠĠĠĠĠĠĠĠĠĠĠĠĠĠĠĠĠĠĠĠĠĠĠĠĠĠĠĠĠĠĠĠĠĠĠĠĠĠĠĠĠĠĠĠĠĠĠĠĠĠĠĠĠĠĠĠĠĠĠĠĠĠĠĠĠĠĠĠĠĠĠĠĠĠĠĠĠĠĠĠĠĠĠĠĠĠĠĠĠĠĠĠĠĠĠĠĠĠĠĠĠĠĠĠĠĠĠĠĠĠĠĠĠĠĠĠĠĠĠĠĠĠĠĠĠĠĠĠĠĠĠĠĠĠĠĠĠĠĠĠĠĠĠĠĠĠĠĠĠĠĠĠĠĠĠĠĠĠĠĠĠĠĠĠĠĠĠĠĠĠĠĠĠĠĠĠĠĠĠĠĠĠĠĠĠĠĠĠĠĠĠĠĠĠĠĠĠĠĠĠĠĠĠĠĠĠĠĠĠĠĠĠĠĠĠĠĠĠĠĠĠĠĠĠĠĠĠĠĠĠĠĠĠĠĠĠĠĠĠĠĠĠĠĠĠĠĠĠĠĠĠĠĠĠĠĠĠĠĠĠĠĠĠĠĠĠĠĠĠĠĠĠĠĠĠĠĠĠĠĠĠĠĠĠĠĠĠĠĠĠĠĠĠĠĠĠĠĠĠĠĠĠĠĠĠĠĠĠĠĠĠĠĠĠĠĠĠĠĠĠĠĠĠĠĠĠĠĠĠĠĠĠĠĠĠĠĠĠĠĠĠĠĠĠĠĠĠĠĠĠĠĠĠĠĠĠĠĠĠĠĠĠĠĠĠĠĠĠĠĠĠĠĠĠĠĠĠĠĠĠĠĠĠĠĠĠĠĠĠĠĠĠĠĠĠĠĠĠĠĠĠĠĠĠĠĠĠĠĠĠĠĠĠĠĠĠĠĠĠĠĠĠĠĠĠĠĠĠĠĠĠĠĠĠĠĠĠĠĠĠĠĠĠĠĠĠĠĠĠĠĠĠĠĠĠĠĠĠĠĠĠĠĠĠĠĠĠĠĠĠĠĠĠĠĠĠĠĠĠĠĠĠĠĠĠĠĠĠĠĠĠĠĠĠĠĠĠĠĠĠĠĠĠĠĠĠĠĠĠĠĠĠĠĠĠĠĠĠĠĠĠĠĠĠĠĠĠĠĠĠĠĠĠĠĠĠĠĠĠĠĠĠĠĠĠĠĠĠĠĠĠĠĠĠĠĠĠĠĠĠĠĠĠĠĠĠĠĠĠĠĠĠĠĠĠĠĠĠĠĠĠĠĠĠĠĠĠĠĠĠĠĠĠĠĠĠĠĠĠĠĠĠĠĠĠĠĠĠĠĠĠĠĠĠĠĠĠĠĠĠĠĠĠĠĠĠĠĠĠĠĠĠĠĠĠĠĠĠĠĠĠĠĠĠĠĠĠĠĠĠĠĠĠĠĠĠĠĠĠĠĠĠĠĠĠĠĠĠĠĠĠĠĠĠĠĠĠĠĠĠĠĠĠĠĠĠĠĠĠĠĠĠĠĠĠĠĠĠĠĠĠĠĠĠĠĠĠĠĠĠĠĠĠĠĠĠĠĠĠĠĠĠĠĠĠĠĠĠĠĠĠĠĠĠĠĠĠĠĠĠĠĠĠĠĠĠĠĠĠĠĠĠĠĠĠĠĠĠĠĠĠĠĠĠĠĠĠĠĠĠĠĠĠĠĠĠĠĠĠĠĠĠĠĠĠĠĠĠĠĠĠĠĠĠĠĠĠĠĠĠĠĠĠĠĠĠĠĠĠĠĠĠĠĠĠĠĠĠĠĠĠĠĠĠĠĠĠĠĠĠĠĠĠĠĠĠĠĠĠĠĠĠĠĠĠĠĠĠĠĠĠĠĠĠĠĠĠĠĠĠĠĠĠĠĠĠĠĠĠĠĠĠĠĠĠĠĠĠĠĠĠĠĠĠĠĠĠĠĠĠĠĠĠĠĠĠĠĠĠĠĠĠĠĠĠĠĠĠĠĠĠĠĠĠĠĠĠĠĠĠĠĠĠĠĠĠĠĠĠĠĠĠĠĠĠĠĠĠĠĠĠĠĠĠĠĠĠĠĠĠĠĠĠĠĠĠĠĠĠĠĠĠĠĠĠĠĠĠĠĠĠĠĠĠĠĠĠĠĠĠĠĠĠĠĠĠĠĠĠĠĠĠĠĠĠĠĠĠĠĠĠĠĠĠĠĠĠĠĠĠĠĠĠĠĠĠĠĠĠĠĠĠĠĠĠĠĠĠĠĠĠĠĠĠĠĠĠĠĠĠĠĠĠĠĠĠĠĠĠĠĠĠĠĠĠĠĠĠĠĠĠĠĠĠĠĠĠĠĠĠĠĠĠĠĠĠĠĠĠĠĠĠĠĠĠĠĠĠĠĠĠĠĠĠĠĠĠĠĠĠĠĠĠĠĠĠĠĠĠĠĠĠĠĠĠĠĠĠĠĠĠĠĠĠĠĠĠĠĠĠĠĠĠĠĠĠĠĠĠĠĠĠĠĠĠĠĠĠĠĠĠĠĠĠĠĠĠĠĠĠĠĠĠĠĠĠĠĠĠĠĠĠĠĠĠĠĠĠĠĠĠĠĠĠĠĠĠĠĠĠĠĠĠĠĠĠĠĠĠĠĠĠĠĠĠĠĠĠĠĠĠĠĠĠĠĠĠĠĠĠĠĠĠĠĠĠĠĠĠĠĠĠĠĠĠĠĠĠĠĠĠĠĠĠĠĠĠĠĠĠĠĠĠĠĠĠĠĠĠĠĠĠĠĠĠĠĠĠĠĠĠĠĠĠĠĠĠĠĠĠĠĠĠĠĠĠĠĠĠĠĠĠĠĠĠĠĠĠĠĠĠĠĠĠĠĠĠĠĠĠĠĠĠĠĠĠĠĠĠĠĠĠĠĠĠĠĠĠĠĠĠĠĠĠĠĠĠĠĠĠĠĠĠĠĠĠĠĠĠĠĠĠĠĠĠĠĠĠĠĠĠĠĠĠĠĠĠĠĠĠĠĠĠĠĠĠĠĠĠĠĠĠĠĠĠĠĠĠĠĠĠĠĠĠĠĠĠĠĠĠĠĠĠĠĠĠĠĠĠĠĠĠĠĠĠĠĠĠĠĠĠĠĠĠĠĠĠĠĠĠĠĠĠĠĠĠĠĠĠĠĠĠĠĠĠĠĠĠĠĠĠĠĠĠĠĠĠĠĠĠĠĠĠĠĠĠĠĠĠĠĠĠĠĠĠĠĠĠĠĠĠĠĠĠĠĠĠĠĠĠĠĠĠĠĠĠĠĠĠĠĠĠĠĠĠĠĠĠĠĠĠĠĠĠĠĠĠĠĠĠĠĠĠĠĠĠĠĠĠĠĠĠĠĠĠĠĠĠĠĠĠĠĠĠĠĠĠĠĠĠĠĠĠĠĠĠĠĠĠĠĠĠĠĠĠĠĠĠĠĠĠĠĠĠĠĠĠĠĠĠĠĠĠĠĠĠĠĠĠĠĠĠĠĠĠĠĠĠĠĠĠĠĠĠĠĠĠĠĠĠĠĠĠĠĠĠĠĠĠĠĠĠĠĠĠĠĠĠĠĠĠĠĠĠĠĠĠĠĠĠĠĠĠĠĠĠĠĠĠĠĠĠĠĠĠĠĠĠĠĠĠĠĠĠĠĠĠĠĠĠĠĠĠĠĠĠĠĠĠĠĠĠĠĠĠĠĠĠĠĠĠĠĠĠĠĠĠĠĠĠĠĠĠĠĠĠĠĠĠĠĠĠĠĠĠĠĠĠĠĠĠĠĠĠĠĠĠĠĠĠĠĠĠĠĠĠĠĠĠĠĠĠĠĠĠĠĠĠĠĠĠĠĠĠĠĠĠĠĠĠĠĠĠĠĠĠĠĠĠĠĠĠĠĠĠĠĠĠĠĠĠĠĠĠĠĠĠĠĠĠĠĠĠĠĠĠĠĠĠĠĠĠĠĠĠĠĠĠĠĠĠĠĠĠĠĠĠĠĠĠĠĠĠĠĠĠĠĠĠĠĠĠĠĠĠĠĠĠĠĠĠĠĠĠĠĠĠĠĠĠĠĠĠĠĠĠĠĠĠĠĠĠĠĠĠĠĠĠĠĠĠĠĠĠĠĠĠĠĠĠĠĠĠĠĠĠĠĠĠĠĠĠĠĠĠĠĠĠĠĠĠĠĠĠĠĠĠĠĠĠĠĠĠĠĠĠĠĠĠĠĠĠĠĠĠĠĠĠĠĠĠĠĠĠĠĠĠĠĠĠĠĠĠĠĠĠĠĠĠĠĠĠĠĠĠĠĠĠĠĠĠĠĠĠĠĠĠĠĠĠĠĠĠĠĠĠĠĠĠĠĠĠĠĠĠĠĠĠĠĠĠĠĠĠĠĠĠĠĠĠĠĠĠĠĠĠĠĠĠĠĠĠĠĠĠĠĠĠĠĠĠĠĠĠĠĠĠĠĠĠĠĠĠĠĠĠĠĠĠĠĠĠĠĠĠĠĠĠĠĠĠĠĠĠĠĠĠĠĠĠĠĠĠĠĠĠĠĠĠĠĠĠĠĠĠĠĠĠĠĠĠĠĠĠĠĠĠĠĠĠĠĠĠĠĠĠĠĠĠĠĠĠĠĠĠĠĠĠĠĠĠĠĠĠĠĠĠĠĠĠĠĠĠĠĠĠĠĠĠĠĠĠĠĠĠĠĠĠĠĠĠĠĠĠĠĠĠĠĠĠĠĠĠĠĠĠĠĠĠĠĠĠĠĠĠĠĠĠĠĠĠĠĠĠĠĠĠĠĠĠĠĠĠĠĠĠĠĠĠĠĠĠĠĠĠĠĠĠĠĠĠĠĠĠĠĠĠĠĠĠĠĠĠĠĠĠĠĠĠĠĠĠĠĠĠĠĠĠĠĠĠĠĠĠĠĠĠĠĠĠĠĠĠĠĠĠĠĠĠĠĠĠĠĠĠĠĠĠĠĠĠĠĠĠĠĠĠĠĠĠĠĠĠĠĠĠĠĠĠĠĠĠĠĠĠĠĠĠĠĠĠĠĠĠĠĠĠĠĠĠĠĠĠĠĠĠĠĠĠĠĠĠĠĠĠĠĠĠĠĠĠĠĠĠĠĠĠĠĠĠĠĠĠĠĠĠĠĠĠĠĠĠĠĠĠĠĠĠĠĠĠĠĠĠĠĠĠĠĠĠĠĠĠĠĠĠĠĠĠĠĠĠĠĠĠĠĠĠĠĠĠĠĠĠĠĠĠĠĠĠĠĠĠĠĠĠĠĠĠĠĠĠĠĠĠĠĠĠĠĠĠĠĠĠĠĠĠĠĠĠĠĠĠĠĠĠĠĠĠĠĠĠĠĠĠĠĠĠĠĠĠĠĠĠĠĠĠĠĠĠĠĠĠĠĠĠĠĠĠĠĠĠĠĠĠĠĠĠĠĠĠĠĠĠĠĠĠĠĠĠĠĠĠĠĠĠĠĠĠĠĠĠĠĠĠĠĠĠĠĠĠĠĠĠĠĠĠĠĠĠĠĠĠĠĠĠĠĠĠĠĠĠĠĠĠĠĠĠĠĠĠĠĠĠĠĠĠĠĠĠĠĠĠĠĠĠĠĠĠĠĠĠĠĠĠĠĠĠĠĠĠĠĠĠĠĠĠĠĠĠĠĠĠĠĠĠĠĠĠĠĠĠĠĠĠĠĠĠĠĠĠĠĠĠĠĠĠĠĠĠĠĠĠĠĠĠĠĠĠĠĠĠĠĠĠĠĠĠĠĠĠĠĠĠĠĠĠĠĠĠĠĠĠĠĠĠĠĠĠĠĠĠĠĠĠĠĠĠĠĠĠĠĠĠĠĠĠĠĠĠĠĠĠĠĠĠĠĠĠĠĠĠĠĠĠĠĠĠĠĠĠĠĠĠ ĠĠĠĠĠĠĠĠĠĠĠĠĠĠĠĠĠĠĠĠĠĠĠĠĠĠĠĠĠĠĠĠ
driv enĠ
hot elĠ
meetĠ theĠ
compar edĠtoĠ
Appl ic
.cĠ( map_
RoyalĠ Clay
eriesĠ ofĠ
streng th
IG H
fit nessĠ
stop pedĠ
conduc t
conduc tĠ
sect or
tripĠ toĠ
Del ph
innov ativeĠ
prog res
famili ar
manufactur erĠ
bir thĠ
dang erousĠ
Associ ateĠ
doll arĠ
fall enĠ
nor thernĠ
andĠS oundĠ(London
frameĠ Develop
Op enĠ
Develop mentĠ
Ab b
gradu ateĠ
Dumpst ersĠ
letsĠ youĠ
lux ur
tom or
committ edĠtoĠ
Bro k
aldĠ andĠ
conver tĠ
Depart mentĠofĠ
flexi bleĠ
flexi bilityĠ
neighbor hood
dedic atedĠtoĠ
UnitedĠSt atesĠ
bow l
batt leĠ
etr ick
remodel ingĠ
styl ishĠ
exclus ivelyĠ
Jon athanĠ
would nâĢĻtĠ
anx ietyĠ
chanceĠ toĠ
wirel essĠ
smart phon
padd ock
eleg antĠ
Chur chĠ
accid ent
Cot tonĠTrad
Dat abaseĠ
Ra un
enth usi
experim entsĠ
relativ elyĠ
GrandĠ GablesĠ
fant asticĠ
pock etĠ
forward -
volt ageĠ
Democ rat
HomeP odĠ
inĠAndryĠMobileĠHomeĠPark,Ġ CaliforniaĠ
pregn anc
.ĠCl ickĠ
meaning fulĠ
boardingĠ school
infra structureĠ
.Ġ[ SelectedĠbyĠ
inĠfron tĠofĠ
NewĠRel icĠ
digitalĠsign ageĠ
plaintiff âĢĻsĠ
Ġ*Ġmaperror .cĠ(map_
HTM L
Tah lequ
nex tĠtoĠ
portableĠ toil
saltĠandĠ pep
Moul trieĠ
BRIDG ESĠ
RaginâĢĻĠC ajunĠ
Ves ali
ehic leĠ
akef ile.
er-Pet ro
Tahlequ ah,ĠO
( P
h oo
m illionsĠofĠ
Ġ "
ĠĠĠĠĠĠĠĠ ĠĠĠ
ĠĠĠĠĠĠĠĠĠĠĠĠĠĠĠĠ Ġ
,Ġ K
IĠ don'tĠ
end erĠ
aboutĠ howĠ
fund ingĠ
To dayĠ
Hol idayĠ
Altern ateĠ
Lif eĠ
( F
( H
( NewĠYork
+ Ġ
- classĠ
. )
0 3
0 5
3 34
4 2
5 5
7 8
7 00
A G
A t
B eachĠ
B PH
C at
C la
C ircu
C ICO
D R
D ar
D ay
D IĠ
D AĠ
D rop
D ataĠ
E L
E v
F it
F und
F arm
F ortĠ
F ORĠ
G if
H eĠ
H om
H im
I F
I R
I l
I de
I TVĠ
J os
J our
J ord
J ackĠ
J Ã¼
K ,Ġ
K el
K av
K ore
L owĠ
M X
M al
M ak
M ir
M erc
M use
M OS
N P
N ur
O K
O sl
O CH
P i
P ower
S c
S er
S ol
S chool
S eriesĠ
S eniorĠ
S aturdayĠ
V eg
W oo
W illĠ
W ild
X -
Y earĠ
a fra
b e,Ġ
b lo
b oundĠ
c k
c av
c amĠ
c oldĠ
c ularĠ
c abin
d ressĠ
e o
e ur
e ksĠ
e ;Ġ
f ellĠ
g ri
g oldenĠ
h ad
h ook
k i
k e,Ġ
k illĠ
l on
l ayĠ
l edĠbyĠ
l uck
m ort
n orĠ
o thĠ
o graphic
p ir
p ackĠ
p actĠ
p erĠandĠ
r isĠ
r as
r anĠ
r icalĠ
s ar
s ent
s .ĠItĠisĠ
s endingĠ
t ac
t un
t ex
t rop
u lĠ
u de
u eĠtoĠ
v ul
w inter
y si
y ard
y ?Ġ
y .ĠIĠ
y ce
y ellowĠ
Ã ł
Ġ forĠtheĠ
Ġ amĠ
Ġ ..
Ġ atĠtheĠ
Ġ peopleĠ
Ġ inĠaĠ
Ġ xĠ
Ġ JulyĠ
eĠ S
sĠ anĠ
sĠ butĠ
sĠ suchĠasĠ
sĠ haveĠbeenĠ
th yĠ
th el
th is,Ġ
in av
in nerĠ
dĠ toĠ
an z
an to
an âĢĻsĠ
an nivers
er s,ĠandĠ
or âĢĻsĠ
or yĠofĠ
en ablesĠ
ou b
,Ġ onĠ
,Ġ isĠ
,Ġ NewĠYork,Ġ
theĠ âĢľ
theĠ onlyĠ
theĠ worldĠ
ar rangeĠ
ti alĠ
ti leĠ
ti ll
al .ĠTheĠ
al ign
al leg
al ym
ing ly,Ġ
ing tonĠ
re v
re w
re sĠ
re am
re fin
andĠ allĠ
andĠ mostĠ
ingĠ themĠ
toĠ createĠ
toĠ shareĠ
aĠ G
edĠ aboutĠ
ofĠ T
ofĠ course,Ġ
st on
st un
st atedĠ
onĠ orĠ
onĠ allĠ
onĠ Remov
at ed,Ġ
at eri
at ely
ic eĠandĠ
ic kn
orĠ in
orĠ sheĠ
isĠ madeĠ
isĠ availableĠ
isĠ locatedĠ
isĠ currentlyĠ
isĠ fullĠofĠ
inĠ aĠs
it aĠ
it .ĠIĠ
esĠ forĠtheĠ
esĠ suchĠasĠ
ac herĠ
atĠ anĠ
atĠ ourĠ
atĠ all
atĠ itsĠ
lĠ ofĠ
as ingĠ
as e,Ġ
as qu
is ab
is ationĠ
is land
asĠ andĠ
asĠ longĠ
asĠ partĠofĠ
asĠ partĠofĠtheĠ
ch or
pl et
pl atesĠ
pl ugĠ
Th erap
us eĠtoĠ
us eĠandĠ
us ersĠtoĠ
wi reĠ
am edĠ
am et
ur nĠ
ur ingĠtheĠ
et ryĠ
ad ol
ab o
ab ak
ab and
ab ideĠ
ab ethĠ
id eas
ent eringĠ
ent eredĠ
un itsĠ
un expectedĠ
youĠ wouldĠ
youĠ findĠ
withĠ youĠ
withĠ itsĠ
withĠ them
withĠ aĠs
withĠ someĠ
thatĠ itĠ
thatĠ yourĠ
ed !Ġ
ed .ĠP
.ĠTh e
.ĠTh ankĠ
.ĠTh ankĠyouĠ
com pris
entĠ ofĠ
oo t
areĠ nowĠ
con om
con centr
li esĠ
tr ialĠ
tr unkĠ
for em
yourĠ need
di r
ap ol
qu iet
ation ,ĠtheĠ
ver b
lo vedĠ
s.Ġ K
s.Ġ R
s.Ġ WithĠ
sĠandĠ theirĠ
op positionĠ
um nĠ
um berĠ
inĠtheĠ lobbyĠ
canĠ makeĠ
canĠ takeĠ
willĠ continueĠtoĠ
fromĠ anĠ
fromĠ ourĠ
gr at
gr antĠ
tsĠ forĠ
uc ksĠ
ĠandĠ S
ĠandĠ aĠ
wasĠ toĠ
we 'llĠ
we 'veĠ
oc alĠ
av oc
form at
form atsĠ
se atsĠ
co .
co z
co in
co gn
co onĠRemov
de fe
eĠtoĠ yourĠ
ud yĠ
pr ingĠ
hasĠ toĠbeĠ
es,Ġ includingĠ
ut ,Ġ
bl ind
!Ġ A
akeĠ aĠ
'sĠ mostĠ
vi e
vi v
he 'sĠ
he ight
te acherĠ
cont ainĠ
pe ac
onĠtheĠ otherĠ
ong oingĠ
gi ven
enc oun
enc ryp
?Ġ YouĠ
?Ġ WeĠ
ever ageĠ
me at
atedĠ andĠ
dis cre
dis clos
ell ingĠ
upĠ ofĠ
upĠ onĠ
pos iti
.ĠS e
.ĠS tepĠ
forĠtheĠ purpos
whichĠ theĠ
comm onlyĠ
comm andsĠ
aw nĠ
pre ferĠ
ph aseĠ
ph arm
ph ysi
aboutĠ aĠ
aboutĠ whatĠ
fin anceĠ
mentĠ ofĠtheĠ
do ingĠtheĠ
do orsĠ
year sĠofĠ
year s.ĠTheĠ
usĠ onĠ
comp il
comp as
comp ress
Ch em
Ch ev
ifĠ IĠ
ifĠ youâĢĻreĠ
inter faceĠ
mar t
getĠ ridĠofĠ
serv erĠ
man uallyĠ
man nerĠ
min orĠ
sc ar
âĢĿ )
âĢĿ Ġ(
workĠ ofĠ
justĠ asĠ
dr y
fl ictĠ
atĠtheĠ endĠofĠ
int end
.ĠB ridgetĠ
whenĠ youĠareĠ
St an
sid ew
aĠs ol
aĠs ens
ful ly,Ġ
ĠĠĠĠĠĠĠĠĠĠĠĠĠĠĠĠĠĠĠĠĠĠĠĠĠĠĠĠĠĠĠĠĠĠĠĠĠĠĠĠĠĠĠĠĠĠĠĠĠĠĠĠĠĠĠĠĠĠĠĠĠĠĠĠĠĠĠĠĠĠĠĠĠĠĠĠĠĠĠĠĠĠĠĠĠĠĠĠĠĠĠĠĠĠĠĠĠĠĠĠĠĠĠĠĠĠĠĠĠĠĠĠĠĠĠĠĠĠĠĠĠĠĠĠĠĠĠĠĠĠĠĠĠĠĠĠĠĠĠĠĠĠĠĠĠĠĠĠĠĠĠĠĠĠĠĠĠĠĠĠĠĠĠĠĠĠĠĠĠĠĠĠĠĠĠĠĠĠĠĠĠĠĠĠĠĠĠĠĠĠĠĠĠĠĠĠĠĠĠĠĠĠĠĠĠĠĠĠĠĠĠĠĠĠĠĠĠĠĠĠĠĠĠĠĠĠĠĠĠĠĠĠĠĠĠĠĠĠĠĠĠĠĠĠĠĠĠĠĠĠĠĠĠĠĠĠĠĠĠĠĠĠĠĠĠĠĠĠĠĠĠĠĠĠĠĠĠĠĠĠĠĠĠĠĠĠĠĠĠĠĠĠĠĠĠĠĠĠĠĠĠĠĠĠĠĠĠĠĠĠĠĠĠĠĠĠĠĠĠĠĠĠĠĠĠĠĠĠĠĠĠĠĠĠĠĠĠĠĠĠĠĠĠĠĠĠĠĠĠĠĠĠĠĠĠĠĠĠĠĠĠĠĠĠĠĠĠĠĠĠĠĠĠĠĠĠĠĠĠĠĠĠĠĠĠĠĠĠĠĠĠĠĠĠĠĠĠĠĠĠĠĠĠĠĠĠĠĠĠĠĠĠĠĠĠĠĠĠĠĠĠĠĠĠĠĠĠĠĠĠĠĠĠĠĠĠĠĠĠĠĠĠĠĠĠĠĠĠĠĠĠĠĠĠĠĠĠĠĠĠĠĠĠĠĠĠĠĠĠĠĠĠĠĠĠĠĠĠĠĠĠĠĠĠĠĠĠĠĠĠĠĠĠĠĠĠĠĠĠĠĠĠĠĠĠĠĠĠĠĠĠĠĠĠĠĠĠĠĠĠĠĠĠĠĠĠĠĠĠĠĠĠĠĠĠĠĠĠĠĠĠĠĠĠĠĠĠĠĠĠĠĠĠĠĠĠĠĠĠĠĠĠĠĠĠĠĠĠĠĠĠĠĠĠĠĠĠĠĠĠĠĠĠĠĠĠĠĠĠĠĠĠĠĠĠĠĠĠĠĠĠĠĠĠĠĠĠĠĠĠĠĠĠĠĠĠĠĠĠĠĠĠĠĠĠĠĠĠĠĠĠĠĠĠĠĠĠĠĠĠĠĠĠĠĠĠĠĠĠĠĠĠĠĠĠĠĠĠĠĠĠĠĠĠĠĠĠĠĠĠĠĠĠĠĠĠĠĠĠĠĠĠĠĠĠĠĠĠĠĠĠĠĠĠĠĠĠĠĠĠĠĠĠĠĠĠĠĠĠĠĠĠĠĠĠĠĠĠĠĠĠĠĠĠĠĠĠĠĠĠĠĠĠĠĠĠĠĠĠĠĠĠĠĠĠĠĠĠĠĠĠĠĠĠĠĠĠĠĠĠĠĠĠĠĠĠĠĠĠĠĠĠĠĠĠĠĠĠĠĠĠĠĠĠĠĠĠĠĠĠĠĠĠĠĠĠĠĠĠĠĠĠĠĠĠĠĠĠĠĠĠĠĠĠĠĠĠĠĠĠĠĠĠĠĠĠĠĠĠĠĠĠĠĠĠĠĠĠĠĠĠĠĠĠĠĠĠĠĠĠĠĠĠĠĠĠĠĠĠĠĠĠĠĠĠĠĠĠĠĠĠĠĠĠĠĠĠĠĠĠĠĠĠĠĠĠĠĠĠĠĠĠĠĠĠĠĠĠĠĠĠĠĠĠĠĠĠĠĠĠĠĠĠĠĠĠĠĠĠĠĠĠĠĠĠĠĠĠĠĠĠĠĠĠĠĠĠĠĠĠĠĠĠĠĠĠĠĠĠĠĠĠĠĠĠĠĠĠĠĠĠĠĠĠĠĠĠĠĠĠĠĠĠĠĠĠĠĠĠĠĠĠĠĠĠĠĠĠĠĠĠĠĠĠĠĠĠĠĠĠĠĠĠĠĠĠĠĠĠĠĠĠĠĠĠĠĠĠĠĠĠĠĠĠĠĠĠĠĠĠĠĠĠĠĠĠĠĠĠĠĠĠĠĠĠĠĠĠĠĠĠĠĠĠĠĠĠĠĠĠĠĠĠĠĠĠĠĠĠĠĠĠĠĠĠĠĠĠĠĠĠĠĠĠĠĠĠĠĠĠĠĠĠĠĠĠĠĠĠĠĠĠĠĠĠĠĠĠĠĠĠĠĠĠĠĠĠĠĠĠĠĠĠĠĠĠĠĠĠĠĠĠĠĠĠĠĠĠĠĠĠĠĠĠĠĠĠĠĠĠĠĠĠĠĠĠĠĠĠĠĠĠĠĠĠĠĠĠĠĠĠĠĠĠĠĠĠĠĠĠĠĠĠĠĠĠĠĠĠĠĠĠĠĠĠĠĠĠĠĠĠĠĠĠĠĠĠĠĠĠĠĠĠĠĠĠĠĠĠĠĠĠĠĠĠĠĠĠĠĠĠĠĠĠĠĠĠĠĠĠĠĠĠĠĠĠĠĠĠĠĠĠĠĠĠĠĠĠĠĠĠĠĠĠĠĠĠĠĠĠĠĠĠĠĠĠĠĠĠĠĠĠĠĠĠĠĠĠĠĠĠĠĠĠĠĠĠĠĠĠĠĠĠĠĠĠĠĠĠĠĠĠĠĠĠĠĠĠĠĠĠĠĠĠĠĠĠĠĠĠĠĠĠĠĠĠĠĠĠĠĠĠĠĠĠĠĠĠĠĠĠĠĠĠĠĠĠĠĠĠĠĠĠĠĠĠĠĠĠĠĠĠĠĠĠĠĠĠĠĠĠĠĠĠĠĠĠĠĠĠĠĠĠĠĠĠĠĠĠĠĠĠĠĠĠĠĠĠĠĠĠĠĠĠĠĠĠĠĠĠĠĠĠĠĠĠĠĠĠĠĠĠĠĠĠĠĠĠĠĠĠĠĠĠĠĠĠĠĠĠĠĠĠĠĠĠĠĠĠĠĠĠĠĠĠĠĠĠĠĠĠĠĠĠĠĠĠĠĠĠĠĠĠĠĠĠĠĠĠĠĠĠĠĠĠĠĠĠĠĠĠĠĠĠĠĠĠĠĠĠĠĠĠĠĠĠĠĠĠĠĠĠĠĠĠĠĠĠĠĠĠĠĠĠĠĠĠĠĠĠĠĠĠĠĠĠĠĠĠĠĠĠĠĠĠĠĠĠĠĠĠĠĠĠĠĠĠĠĠĠĠĠĠĠĠĠĠĠĠĠĠĠĠĠĠĠĠĠĠĠĠĠĠĠĠĠĠĠĠĠĠĠĠĠĠĠĠĠĠĠĠĠĠĠĠĠĠĠĠĠĠĠĠĠĠĠĠĠĠĠĠĠĠĠĠĠĠĠĠĠĠĠĠĠĠĠĠĠĠĠĠĠĠĠĠĠĠĠĠĠĠĠĠĠĠĠĠĠĠĠĠĠĠĠĠĠĠĠĠĠĠĠĠĠĠĠĠĠĠĠĠĠĠĠĠĠĠĠĠĠĠĠĠĠĠĠĠĠĠĠĠĠĠĠĠĠĠĠĠĠĠĠĠĠĠĠĠĠĠĠĠĠĠĠĠĠĠĠĠĠĠĠĠĠĠĠĠĠĠĠĠĠĠĠĠĠĠĠĠĠĠĠĠĠĠĠĠĠĠĠĠĠĠĠĠĠĠĠĠĠĠĠĠĠĠĠĠĠĠĠĠĠĠĠĠĠĠĠĠĠĠĠĠĠĠĠĠĠĠĠĠĠĠĠĠĠĠĠĠĠĠĠĠĠĠĠĠĠĠĠĠĠĠĠĠĠĠĠĠĠĠĠĠĠĠĠĠĠĠĠĠĠĠĠĠĠĠĠĠĠĠĠĠĠĠĠĠĠĠĠĠĠĠĠĠĠĠĠĠĠĠĠĠĠĠĠĠĠĠĠĠĠĠĠĠĠĠĠĠĠĠĠĠĠĠĠĠĠĠĠĠĠĠĠĠĠĠĠĠĠĠĠĠĠĠĠĠĠĠĠĠĠĠĠĠĠĠĠĠĠĠĠĠĠĠĠĠĠĠĠĠĠĠĠĠĠĠĠĠĠĠĠĠĠĠĠĠĠĠĠĠĠĠĠĠĠĠĠĠĠĠĠĠĠĠĠĠĠĠĠĠĠĠĠĠĠĠĠĠĠĠĠĠĠĠĠĠĠĠĠĠĠĠĠĠĠĠĠĠĠĠĠĠĠĠĠĠĠĠĠĠĠĠĠĠĠĠĠĠĠĠĠĠĠĠĠĠĠĠĠĠĠĠĠĠĠĠĠĠĠĠĠĠĠĠĠĠĠĠĠĠĠĠĠĠĠĠĠĠĠĠĠĠĠĠĠĠĠĠĠĠĠĠĠĠĠĠĠĠĠĠĠĠĠĠĠĠĠĠĠĠĠĠĠĠĠĠĠĠĠĠĠĠĠĠĠĠĠĠĠĠĠĠĠĠĠĠĠĠĠĠĠĠĠĠĠĠĠĠĠĠĠĠĠĠĠĠĠĠĠĠĠĠĠĠĠĠĠĠĠĠĠĠĠĠĠĠĠĠĠĠĠĠĠĠĠĠĠĠĠĠĠĠĠĠĠĠĠĠĠĠĠĠĠĠĠĠĠĠĠĠĠĠĠĠĠĠĠĠĠĠĠĠĠĠĠĠĠĠĠĠĠĠĠĠĠĠĠĠĠĠĠĠĠĠĠĠĠĠĠĠĠĠĠĠĠĠĠĠĠĠĠĠĠĠĠĠĠĠĠĠĠĠĠĠĠĠĠĠĠĠĠĠĠĠĠĠĠĠĠĠĠĠĠĠĠĠĠĠĠĠĠĠĠĠĠĠĠĠĠĠĠĠĠĠĠĠĠĠĠĠĠĠĠĠĠĠĠĠĠĠĠĠĠĠĠĠĠĠĠĠĠĠĠĠĠĠĠĠĠĠĠĠĠĠĠĠĠĠĠĠĠĠĠĠĠĠĠĠĠĠĠĠĠĠĠĠĠĠĠĠĠĠĠĠĠĠĠĠĠĠĠĠĠĠĠĠĠĠĠĠĠĠĠĠĠĠĠĠĠĠĠĠĠĠĠĠĠĠĠĠĠĠĠĠĠĠĠĠĠĠĠĠĠĠĠĠĠĠĠĠĠĠĠĠĠĠĠĠĠĠĠĠĠĠĠĠĠĠĠĠĠĠĠĠĠĠĠĠĠĠĠĠĠĠĠĠĠĠĠĠĠĠĠĠĠĠĠĠĠĠĠĠĠĠĠĠĠĠĠĠĠĠĠĠĠĠĠĠĠĠĠĠĠĠĠĠĠĠĠĠĠĠĠĠĠĠĠĠĠĠĠĠĠĠĠĠĠĠĠĠĠĠĠĠĠĠĠĠĠĠĠĠĠĠĠĠĠĠĠĠĠĠĠĠĠĠĠĠĠĠĠĠĠĠĠĠĠĠĠĠĠĠĠĠĠĠĠĠĠĠĠĠĠĠĠĠĠĠĠĠĠĠĠĠĠĠĠĠĠĠĠĠĠĠĠĠĠĠĠĠĠĠĠĠĠĠĠĠĠĠĠĠĠĠĠĠĠĠĠĠĠĠĠĠĠĠĠĠĠĠĠĠĠĠĠĠĠĠĠĠĠĠĠĠĠĠĠĠĠĠĠĠĠĠĠĠĠĠĠĠĠĠĠĠĠĠĠĠĠĠĠĠĠĠĠĠĠĠĠĠĠĠĠĠĠĠĠĠĠĠĠĠĠĠĠĠĠĠĠĠĠĠĠĠĠĠĠĠĠĠĠĠĠĠĠĠĠĠĠĠĠĠĠĠĠĠĠĠĠĠĠĠĠĠĠĠĠĠĠĠĠĠĠĠĠĠĠĠĠĠĠĠĠĠĠĠĠĠĠĠĠĠĠĠĠĠĠĠĠĠĠĠĠĠĠĠĠĠĠĠĠĠĠĠĠĠĠĠĠĠĠĠĠĠĠĠĠĠĠĠĠĠĠĠĠĠĠĠĠĠĠĠĠĠĠĠĠĠĠĠĠĠĠĠĠĠĠĠĠĠĠĠĠĠĠĠĠĠĠĠĠĠĠĠĠĠĠĠĠĠĠĠĠĠĠĠĠĠĠĠĠĠĠĠĠĠĠĠĠĠĠĠĠĠĠĠĠĠĠĠĠĠĠĠĠĠĠĠĠĠĠĠĠĠĠĠĠĠĠĠĠĠĠĠĠĠĠĠĠĠĠĠĠĠĠĠĠĠĠĠĠĠĠĠĠĠĠĠĠĠĠĠĠĠĠĠĠĠĠĠĠĠĠĠĠĠĠĠĠĠĠĠĠĠĠĠĠĠĠĠĠĠĠĠĠĠĠĠĠĠĠĠĠĠĠĠĠĠĠĠĠĠĠĠĠĠĠĠĠĠĠĠĠĠĠĠĠĠĠĠĠĠĠĠĠĠĠĠĠĠĠĠĠĠĠĠĠĠĠĠĠĠĠĠĠĠĠĠĠĠĠĠĠĠĠĠĠĠĠĠĠĠĠĠĠĠĠĠĠĠĠ ĠĠĠĠĠĠĠĠĠĠĠĠĠĠĠĠĠĠĠĠĠĠĠĠĠĠĠĠĠĠĠĠĠĠĠĠĠĠĠĠĠĠĠĠĠĠĠĠĠĠĠĠĠĠĠĠĠĠĠĠĠĠĠĠ
endĠ toĠ
plac e
doĠ youĠ
howĠ youĠ
rel atedĠtoĠtheĠ
.ĠInĠ thisĠ
inform edĠ
.ĠM r
theĠc amer
dat a
dat abaseĠ
sec tionsĠ
.ĠP ar
dec kĠ
.ĠO therĠ
appl y
compl e
sa uc
eng in
thereĠ wereĠ
shouldĠ notĠbeĠ
theseĠ areĠ
proc eed
ari anĠ
bas icallyĠ
own erĠ
aĠc allĠ
Con sum
.ĠF ur
sum mar
ound proofĠ
lin o
lin e,Ġ
some whatĠ
some whereĠ
peopleĠ withĠ
coun tĠ
ni eĠL
eg g
jo int
orsĠ areĠ
helpĠ toĠ
suchĠ asĠtheĠ
suchĠ ContentĠ
.ĠYouĠ willĠ
.ĠYouĠ mayĠ
cr ush
.ĠWeĠ willĠ
.ĠWeĠ alsoĠ
col nĠ
tis ticĠ
sol idĠ
over e
.ĠD es
mu ch
Coun tryĠ
wat erĠandĠ
add sĠ
add ic
cour tĠofĠ
her e,Ġ
Ġp mĠ
exp an
car di
car ryingĠ
sub scri
âĢĵĠ theĠ
mer chand
ici ousĠ
ici ansĠ
aĠl istĠofĠ
cam pĠ
cam eĠtoĠ
Mar kĠ
eachĠ other
exc essĠ
sk ir
Di et
Di strictĠ
publ ishingĠ
En viron
%Ġ onĠ
Pro j
Pro t
Pro per
trans ferĠ
ĠM akefile.
remo vedĠ
perform ingĠ
perform edĠbyĠ
design ,Ġ
custom iz
saidĠ commission
,ĠbutĠ theĠ
lead ersĠ
room ,Ġ
sl et
spe ed
suppor ter
Ex ecutiveĠ
bre ed
ra is
oper ateĠ
ris k
Res earch
program sĠinĠ
new slet
vol unt
uni versi
.ĠAn y
post ingĠ
ĠinĠ FilmĠ
Pr im
Pr intableĠ
problem ĠisĠ
spac iousĠ
fact oryĠ
experienceĠ withĠ
Ġ* ĠMakefile.
keepĠ yourĠ
tal entĠ
Un der
nam edĠ
appro xim
func tionĠofĠ
cent er
mus icĠandĠ
De ann
tow ingĠ
compan ies
teamĠ ofĠ
,ĠM ayĠ
there umĠ
well ,Ġ
IC OĠ
poin tĠofĠ
men tionedĠ
process ingĠofĠ
giveĠ youĠaĠ
cal yce
ret ro
.com .
shallĠ notĠbeĠ
startĠ yourĠ
down townĠ
saf eĠ
Li veĠ
try ps
feelĠ freeĠtoĠ
websit eĠandĠ
qualityĠ ofĠ
real iz
fron t
peopl eĠofĠ
necess arilyĠ
Qu arter
vo ter
Le ah
awayĠ fromĠtheĠ
prac ticalĠ
valu e
extr actĠ
great lyĠ
possibleĠ forĠ
Cl ub
sor ryĠtoĠ
possib ilityĠ
IĠamĠ soĠ
childr en,Ġ
AN D
ĠG DPR
consum p
controlĠ andĠ
see kĠ
headĠ andĠ
business esĠandĠ
wed d
pop ulationĠ
ativ e,Ġ
InĠ theĠ
s.ĠH owĠ
contactĠ usĠ
memberĠ ofĠtheĠ
ensureĠ theĠ
hon est
hon eyĠ
tool s,Ġ
tool sĠandĠ
osp elĠ
show sĠthatĠ
offersĠ aĠ
Nor thernĠ
Wor k
group sĠ
celebr ateĠ
celebr ateĠtheĠ
cy c
tran spar
washerĠ andĠ
Mic haelĠ
hal f
hol eĠ
hol iday
roll ingĠ
supportĠ theĠ
gir lĠ
s.ĠA tĠ
Can adianĠ
speak ingĠ
Sch nauz
identi fic
product sĠandĠ
reason ableĠ
Ac adem
load sĠ
e.ĠH owever,Ġ
equip ment
histor yĠofĠ
NationalĠ ParkĠ
assist antĠ
feel ingĠ
believeĠ thatĠ
For estĠ
refer enc
refer redĠtoĠ
Californi a,Ġ
dou ble
mic roĠ
ru leĠ
cours esĠ
skill sĠ
AR T
special ist
Cor por
likelyĠ toĠ
mas co
eptem ber
descri p
styleĠ andĠ
cand inav
advant ageĠofĠ
below .
Am and
Be ach
Ne olith
ĠĠĠĠĠĠĠĠĠĠĠĠĠĠĠĠĠĠĠĠ ĠĠ
estim ateĠ
acrossĠ theĠcoun
Bo ardĠ
hosp it
hosp italĠ
onlin e,Ġ
onlin e.Ġ
what âĢĻsĠ
word sĠ
deal erĠ
mad eĠofĠ
sell ingĠ
attr activeĠ
previ ouslyĠ
resultsĠ inĠ
sett ingsĠ
opportunityĠ forĠ
rout in
Bar wellĠ
ItĠ isĠ
Â® Ġ
Ġper cent
spor tingĠ
Manag erĠ
studyĠ ofĠtheĠ
aroundĠtheĠ world
Mac Ġ
theĠfirstĠ timeĠ
difficul tĠ
mess ag
sus pend
liz abethĠ
tru thĠ
therap euticĠ
Vi ew
easi erĠtoĠ
Heal th
docum entsĠ
Im port
feed back
areasĠ ofĠ
reasonĠ whyĠ
ran kedĠ
degre eĠ
teach ingĠ
mealĠ plan
focusĠ onĠ
CaliforniaĠ StateĠ
tellĠ youĠ
decision sĠ
atten tion
regist erĠ
nutri tionĠ
Afric anĠ
prog ressĠ
Ang usĠ
effor tĠ
distribu tionĠ
reput ationĠ
Antonioni :Ġ
stra ight
draw nĠ
Bu ildingĠ
wim mingĠ
whil e,Ġ
behavi orĠ
gif tĠ
troubl edĠ
absolut eĠ
approachĠ toĠ
someĠofĠ ourĠ
Ab outĠ
sen tim
satis fac
refl ectĠ
temper ature
Phil ip
Vol unte
wick etsĠ
wantsĠ toĠ
spar k
preventĠ theĠ
Anal ys
incor porateĠ
advent ureĠ
LO VEĠ
Rac coonĠRemov
inspir ingĠ
eshĠ Yadav
utiliz eĠ
recogn iz
Isl am
Isl and
PH SĠ
Sof twareĠ
hund redĠ
chann elĠ
six thĠ
attorne ysĠ
UnitedĠSt at
.h :Ġ
fru itĠ
interviewĠ withĠ
.ĠNo thingĠ
house holdĠ
Ġ:Ġ Abb
alb um
oppos iteĠ
theĠcor rectĠ
themselv es
featur ingĠ
alco holĠ
accompl ishĠ
aspec tsĠofĠ
apart mentĠ
ccord ingĠtoĠ
Cy ber
Kar abak
could n'tĠ
lackĠ ofĠ
thank sĠtoĠ
estiv alĠ
chick enĠ
confl ictĠ
perspec tiveĠ
perspec tiv
.ĠAm azonĠ
most lyĠ
citi zen
pairĠ ofĠ
threat en
commitmentĠ toĠ
opin ion
awaren essĠ
Part n
underst andĠtheĠ
Class icĠ
potenti allyĠ
Revi ewĠ
dy nam
mist ak
prote inĠ
consequ enc
engine eringĠ
Consul tantĠ
config uredĠ
assu an
recy cl
fif tyĠ
gorge ousĠ
Ut ahĠ
bak edĠ
attit udeĠ
circum st
ĠCredits.ĠPrerequisit e:Ġ
Lond onĠ
asprint f
spon sor
oursel vesĠ
neo conserv
recru it
substanti alĠ
á»ĻiĠAnĠS ens
Shiel dĠ
ĠwithĠaĠgradeĠofĠ C-Ġ
Autis mĠ
Prof ession
Ġ*Ġutil .hĠ(
sev ereĠ
eco- friendlyĠ
aĠsign ific
Il lino
alym picĠ
oundproofĠ Wind
candinav ianĠ
RaccoonĠRemov alĠ
D av
E veryĠ
I "Ġ
M ostĠ
youĠ don'tĠ
dom ain
major ityĠofĠ
% )
& ĠC
& ĠM
' ,
' sĠandĠ
( G
( M
- P
- b
- onĠ
- inĠ
- the-
. infoĠ
. gov
0 2
2 50
3 50
6 2
7 20
8 00
; sĠ
? âĢĿ
A li
A irĠ
B C
B ayĠ
B ear
B itco
C he
C enter
C ityĠofĠ
C limateĠ
D V
D un
E D
E thereumĠ
F ab
F oodĠ
F amilyĠ
G M
G ir
G iv
H am
H ateĠ
I v
K X
K en
K rist
K BĠ
L ,Ġ
L as
L ongĠ
L eg
L ov
M i
M oreĠ
M SĠ
N ightĠ
N atur
N orm
O '
O s
P E
P L
P S
P un
P ay
P TF
R un
R ome
R AN
S ing
S us
S af
S OĠ
S mallĠ
S cou
S aulĠ
T y
T on
T ro
T op
T ech
T OĠ
T yl
T amar
U pĠ
U MO
W a
W ing
W ad
W oodĠ
W IL
Z y
Z eal
a id
a )Ġ
a .ĠP
b es
b id
b lockĠ
c ro
c ardsĠ
c aughtĠ
d or
d il
d enĠ
d educ
e /
e .ĠItĠ
e epĠ
f c
f y
f al
f ad
f lyĠ
f igh
f y,Ġ
f adeĠ
g y
g on
g um
i P
i ,Ġ
i erĠ
i av
i ef
j an
j uniorĠ
k eg
k ickĠ
l ing
l inĠ
l es,Ġ
m it
m ac
m e.Ġ
m illĠ
m end
m app
n ap
n ut
o kĠ
o tiveĠ
p eĠ
p yĠ
p ,Ġ
p onĠ
p inĠ
p hĠ
p mĠ
p ens
p inkĠ
p ackingĠ
r dĠ
r ig
r and
r ideĠ
r ank
r oughoutĠ
s esĠ
s essĠ
s oughtĠ
s .ĠIn
t an
t ap
t .ĠTheĠ
t ativeĠ
t ub
t ainĠtheĠ
v italĠ
w o
w an
w ro
w etĠ
w on'tĠ
x -
y st
y es
y am
y ri
z ip
Ġ h
Ġ n
Ġ onĠtheĠ
Ġ afterĠ
Ġ OurĠ
Ġ IfĠ
ĠĠĠĠĠĠĠĠĠĠĠĠĠĠĠĠ ĠĠĠ
eĠ forĠtheĠ
sĠ yourĠ
sĠ withĠaĠ
sĠ BarwellĠ
th en,Ġ
th ankĠyouĠ
th anksĠ
in es
in atedĠ
in kingĠ
in sul
in her
in ser
tĠ B
an aĠ
or -
or ialĠ
or yĠandĠ
en se
en grav
.Ġ .Ġ
.Ġ Q:Ġ
ou s,Ġ
ou chĠ
,Ġ E
,Ġ G
,Ġ atĠ
,Ġ anĠ
,Ġ myĠ
,Ġ âĢľ
,Ġ mostĠ
,Ġ itĠisĠ
,Ġ it'sĠ
,Ġ especiallyĠ
oĠ isĠ
oĠ Al
ar lyĠ
ti tion
ti esĠandĠ
al .
al d
al lo
al sĠofĠ
ing s
ing u
re member
re action
ingĠ P
ingĠ &Ġ
toĠ ensureĠ
aĠ betterĠ
edĠ themĠ
edĠ asĠaĠ
ofĠ herĠ
st ationĠ
st ableĠ
st ret
st abil
st ampĠ
om eĠofĠ
om bi
erĠ forĠtheĠ
onĠ ofĠ
onĠ anĠ
onĠ be
es isĠ
es .ĠAĠ
es .ĠG
es .ĠToĠ
at ach
at ricĠ
at ewayĠ
ic ally,Ġ
orĠ isĠ
orĠ anyĠ
orĠ justĠ
isĠ moreĠ
isĠ goingĠ
inĠ N
inĠ someĠ
inĠ differentĠ
el et
el sĠandĠ
it ,ĠandĠ
esĠ haveĠ
esĠ thanĠ
ro g
ro seĠ
ro duceĠ
ac yĠandĠ
atĠ M
atĠ S
ec ologicalĠ
anĠ eventĠ
anĠ idealĠ
asĠ yourĠ
ch er
pl e
pl asticĠ
Th ingsĠ
us icĠ
forĠ youĠtoĠ
âĢ ²
am b
am entalĠ
ol ar
ig inalĠ
ig rap
et .ĠTheĠ
ad erĠ
ad at
ad ultsĠ
ab und
ent aĠ
pro stat
pro pri
withĠ myĠ
withĠ herĠ
withĠ hisĠ
thatĠ theirĠ
thatĠ youĠcanĠ
thatĠ hasĠbeenĠ
ed yĠ
ed .ĠS
ed .ĠIĠ
ed ;Ġ
.ĠTh en,Ġ
ag ent
ag arĠ
ev olution
ha ir
ha ve
oo kingĠ
areĠ youĠ
con qu
con form
con test
li pĠ
li ve
le ak
le atherĠ
su mo
s,Ġ thenĠ
sh ir
sh ot
sh owerĠ
sh eâĢĻsĠ
sh ookĠ
sh e'sĠ
itĠ atĠ
itĠ wouldĠbeĠ
.ĠI tsĠ
.ĠI âĢĻveĠ
for ,Ġ
for est
yourĠ personalĠ
di str
di vers
di etaryĠ
ap pointĠ
sp o
sp readĠ
ation .Ġ
ul uĠ
lo tsĠ
lo vesĠ
be am
.ĠTheĠ firstĠ
s.Ġ âĢľ
s.Ġ OnĠ
sĠandĠ aĠ
no tific
e.Ġ D
e.Ġ N
e.Ġ ToĠ
op y
ri esĠ
IĠ loveĠ
byĠ ourĠ
byĠ meansĠofĠ
byĠ arlo
res or
res tĠofĠ
res olu
res olutionĠ
allĠ ourĠ
allĠ myĠ
allĠ overĠ
bu sĠ
canĠ helpĠyouĠ
cl er
willĠ haveĠ
willĠ takeĠ
willĠ neverĠ
willĠ alsoĠbeĠ
soĠ theĠ
thisĠ act
thisĠ timeĠ
thisĠ week
thisĠ yearĠ
gr ate
oneĠ orĠ
oneĠ dayĠ
ersĠ (
ersĠ withĠ
tim e-
tim e.
tim atelyĠ
ĠandĠ otherĠ
par k
par all
par tsĠofĠ
par amet
wasĠ notĠ
all eng
all y-
oc o
oc r
tic s,Ġ
tic ket
tic elli
se yĠ
de em
de adĠ
de fic
.ĠA sĠtheĠ
.ĠA ll
mo therĠ
mo ther
mo du
mo vesĠ
ut eĠ
ut ureĠ
bl add
weĠ allĠ
weĠ needĠtoĠ
ne itherĠ
!Ġ F
!Ġ YouĠ
!Ġ IâĢĻmĠ
,ĠandĠ weĠ
ang Ġ
ang al
pe aceĠ
sĠofĠ yourĠ
gi antĠ
enc esĠandĠ
ind exĠ
butĠ alsoĠ
ever lyĠ
cre di
cre atingĠaĠ
dis charg
upĠ inĠtheĠ
.ĠS o,Ġ
ep h
whichĠ canĠ
comm andĠ
)Ġ WhatĠ
aw a
aw ardsĠ
br id
br ingĠtheĠ
br ight
ure s,Ġ
amĠ HillĠ
pre mis
theyĠ couldĠ
go tĠtoĠ
fe eĠ
myĠ favoriteĠ
esĠandĠ otherĠ
do zen
anc ientĠ
Ch ang
ass em
ass essĠ
ifĠ heĠ
ifĠ sheĠ
ifĠ itĠisĠ
inter pret
mar ksĠ
whoĠ willĠ
whoĠ wouldĠ
whoĠ hadĠ
iz ationĠ
fi re
An sel
gre wĠ
min ionĠ
oll owĠ
heĠ hasĠ
provid ed
incl ude
eas tĠ
eas onĠ
.ĠThisĠ isĠtheĠ
ackĠ ofĠ
des k
des erv
produc edĠ
produc edĠbyĠ
dr ag
fl ight
atĠtheĠ topĠ
spec trumĠ
int roduceĠ
iti ousĠ
.ĠB u
.ĠB as
pres erv
St or
St at
St oneĠ
St ut
includ esĠaĠ
newĠ youthĠ
loo k,Ġ
day s,Ġ
aĠs m
aĠs etĠ
exper t
sup pos
endĠ theĠ
gu y
wereĠ alsoĠ
overĠ toĠ
vis i
og e
whatĠ itĠ
.ĠItĠ hasĠ
.ĠInĠ fact
.ĠInĠ orderĠtoĠ
with inĠaĠ
with inĠyourĠ
theĠc ar
dat aĠcoll
someĠ otherĠ
sec u
.ĠP r
.ĠP ro
dec lar
del ayĠ
del ight
onlyĠ beĠ
.ĠO verĠ
compl ain
star tĠtoĠ
sionĠ ofĠ
work flowĠ
thereĠ wasĠaĠ
noĠ matterĠ
bet tingĠ
proc e
proc es
ÂŃ n
ÂŃ iÂŃ
bas ket
mak ingĠaĠ
Con fer
boo kingĠ
boo k,Ġ
inv as
inv iteĠ
.ĠF e
.ĠF in
.ĠT op
lin kĠtoĠ
atingĠ andĠ
oldĠ andĠ
coun s
coun tsĠ
busin essĠandĠ
Au di
ĠS oĠ
ĠS te
od d
toĠbeĠ theĠ
youĠcanĠ alsoĠ
youĠcanĠ useĠ
read er
read ersĠ
servic eĠandĠ
servic esĠtoĠ
col leagu
mat tersĠ
tis anĠ
lif eĠisĠ
stor y
ĠA ffili
high lightsĠ
e- of-
.ĠD i
.ĠD onâĢĻtĠ
ber ryĠ
Coun ty,Ġ
Re por
Re adĠ
her selfĠ
bestĠ toĠ
bestĠ wayĠtoĠ
ann ounceĠ
ickĠ andĠ
.ĠE LECĠ
knowĠ aboutĠ
fun ĠandĠ
gl as
Par alympicĠ
tĠandĠ theĠ
any timeĠ
rightĠ nowĠ
az yĠ
.ĠWh ereĠ
applic ation,Ġ
inc ur
inc enti
du tiesĠ
val entĠ
Mar c
Mar t
wr ap
view ,Ġ
view ingĠ
play ers,Ġ
soc ial
ustom erĠ
roomĠ isĠ
old ,Ġ
Di egoĠ
Ar tĠ
ros sĠ
everyĠ dayĠ
sist erĠ
En ter
becauseĠ ofĠtheĠ
becauseĠ theyĠareĠ
Pro vid
aĠb ig
youĠhaveĠ aĠ
tri edĠ
eri ousĠ
trans actionsĠ
trans mitt
help sĠtoĠ
edĠonĠ yourĠ
ationĠofĠ yourĠ
hasĠbeenĠ aĠ
aff ect
deĠ K
.ĠL ookĠ
remo val
perform sĠ
ly -
custom ersĠandĠ
saidĠ thatĠ
vari edĠ
so on
lead erĠ
setĠ outĠ
tem p
15 6
viewĠ ofĠtheĠ
dur ingĠaĠ
e. com
bre adĠ
fil esĠ
ah om
ah am
bi o
can notĠbeĠ
hous eĠandĠ
friend s!Ġ
oper atesĠ
stat e
stat usĠ
vide osĠ
program ,Ġ
new ,Ġ
issu es
issu es,Ġ
issu esĠandĠ
provideĠ aĠ
experienc e,Ġ
ĠinĠ SightĠ
bod yĠtoĠ
experienceĠ theĠ
Ġ* *
back ground
coll ectingĠ
anti tryps
.ĠG etĠ
reas on,Ġ
Co astĠ
cent erĠ
hom eĠtoĠ
mor e,Ġ
organiz ation,Ġ
win etricksĠ
win etrick
compan i
14 5
ific ationĠofĠ
there of
present ationĠ
present ationsĠ
dom es
mod er
men u
men tionĠ
worldĠ andĠ
fur n
hi b
ext entĠ
ext endedĠ
cot tishĠ
Ph o
airĠ condition
cul ture
Gre en
met abol
saf eĠandĠ
posi tionĠandĠ
sens or
tooĠ manyĠ
ci v
condi tionĠ
open edĠ
foc usedĠ
tonĠ Cre
Qu es
vo idĠ
direct orĠ
areaĠ andĠ
areaĠ ofĠtheĠ
IN ĠT
pow eredĠ
impro vingĠ
Le anĠ
Le agueĠ
cli entĠ
cli pĠ
mi xĠ
meet ing,Ġ
extr a
extr act
.c ,Ġ
healthĠ careĠ
Cl ickĠ
fa ultĠ
sor ryĠ
auth orĠofĠ
employ eeĠ
13 3
natur allyĠ
whe el
fut ureĠofĠ
wa itĠforĠ
expl or
contr actsĠ
controlĠ theĠ
,ĠweĠ areĠ
coo per
coo kingĠ
e.ĠA fterĠ
ĠH owĠ
bal anc
educ ationĠ
educ ateĠ
vehicleĠ advertisingĠ
fund amentalĠ
anim eĠ
.ĠAl thoughĠ
BĠ ofĠ
Ro deoĠ
impl ementĠ
seem sĠtoĠ
seem edĠtoĠbeĠ
izeĠ yourĠ
Goog le
Nor th
celebr atedĠ
imp act
e.ĠWeĠ areĠ
discus sion
duringĠ thisĠ
clickĠ onĠtheĠ
theĠsameĠ time,Ġ
.ĠThereĠareĠ manyĠ
non- profitĠ
onceĠ againĠ
flu idĠ
dumpst er
s.ĠA sĠ
understandĠ thatĠ
GP CAĠ
IfĠ youĠareĠ
designĠ andĠ
brow seĠ
right sĠandĠ
Ã© Ġ
identi tyĠ
life timeĠ
direc tion
clean ingĠandĠ
ez Ġ
ez uel
agre ement
agre ementsĠ
claim sĠ
energ yĠandĠ
aboveĠ theĠ
.ĠOn lyĠ
.ĠOn lineĠ
Su z
wond erĠ
art workĠ
refer r
refer enceĠ
refer encesĠ
versionĠ ofĠ
join edĠtheĠ
.ĠWhenĠ IĠ
HumanĠ GrowthĠHormoneĠ
dou bl
El isab
createdĠ byĠ
volunte er
New s
Cor p
Dis orderĠ
Dis puteĠ
ix edĠ
happen ingĠ
increas inglyĠ
Gu ardâĢĻsĠ
Regi onalĠ
fle x
team sĠ
belowĠ andĠ
belowĠ toĠ
LE D
LE DĠ
advant agesĠ
io buf
break ingĠ
remain sĠ
s.ĠWeĠ haveĠ
physicalĠ andĠ
halfĠ ofĠ
fig uredĠ
fig uresĠ
ith outĠ
invit ationĠ
entr alĠ
famil y,Ġ
rout eĠ
acqu isi
childrenĠ andĠ
Bi bl
Bi bleĠ
Te am
pic ksĠ
Ġminut esĠ
suff erĠ
suff eringĠ
flow ers,Ġ
Comp any
watchĠ theĠ
connect edĠtoĠ
Manag ementĠ
fol k
quil tĠ
webĠ siteĠ
keep ingĠ
.ĠU s
arr nam
super vis
super bĠ
.ĠWe âĢĻveĠ
.ĠInĠaddi tionĠtoĠ
facil itiesĠ
difficul tyĠ
watch ingĠ
licens edĠ
foo tĠ
tru e,Ġ
therap yĠ
analy ticsĠ
destin ationĠ
IndigenousĠ Peopl
ĠĠĠĠĠĠĠĠĠĠĠĠĠĠĠĠĠĠĠĠĠĠĠĠĠĠĠĠĠĠĠĠĠĠĠĠĠĠĠĠĠĠĠĠĠĠĠĠĠĠĠĠĠĠĠĠĠĠĠĠĠĠĠĠĠĠĠĠĠĠĠĠĠĠĠĠĠĠĠĠĠĠĠĠĠĠĠĠĠĠĠĠĠĠĠĠĠĠĠĠĠĠĠĠĠĠĠĠĠĠĠĠĠĠĠĠĠĠĠĠĠĠĠĠĠĠĠĠĠĠĠĠĠĠĠĠĠĠĠĠĠĠĠĠĠĠĠĠĠĠĠĠĠĠĠĠĠĠĠĠĠĠĠĠĠĠĠĠĠĠĠĠĠĠĠĠĠĠĠĠĠĠĠĠĠĠĠĠĠĠĠĠĠĠĠĠĠĠĠĠĠĠĠĠĠĠĠĠĠĠĠĠĠĠĠĠĠĠĠĠĠĠĠĠĠĠĠĠĠĠĠĠĠĠĠĠĠĠĠĠĠĠĠĠĠĠĠĠĠĠĠĠĠĠĠĠĠĠĠĠĠĠĠĠĠĠĠĠĠĠĠĠĠĠĠĠĠĠĠĠĠĠĠĠĠĠĠĠĠĠĠĠĠĠĠĠĠĠĠĠĠĠĠĠĠĠĠĠĠĠĠĠĠĠĠĠĠĠĠĠĠĠĠĠĠĠĠĠĠĠĠĠĠĠĠĠĠĠĠĠĠĠĠĠĠĠĠĠĠĠĠĠĠĠĠĠĠĠĠĠĠĠĠĠĠĠĠĠĠĠĠĠĠĠĠĠĠĠĠĠĠĠĠĠĠĠĠĠĠĠĠĠĠĠĠĠĠĠĠĠĠĠĠĠĠĠĠĠĠĠĠĠĠĠĠĠĠĠĠĠĠĠĠĠĠĠĠĠĠĠĠĠĠĠĠĠĠĠĠĠĠĠĠĠĠĠĠĠĠĠĠĠĠĠĠĠĠĠĠĠĠĠĠĠĠĠĠĠĠĠĠĠĠĠĠĠĠĠĠĠĠĠĠĠĠĠĠĠĠĠĠĠĠĠĠĠĠĠĠĠĠĠĠĠĠĠĠĠĠĠĠĠĠĠĠĠĠĠĠĠĠĠĠĠĠĠĠĠĠĠĠĠĠĠĠĠĠĠĠĠĠĠĠĠĠĠĠĠĠĠĠĠĠĠĠĠĠĠĠĠĠĠĠĠĠĠĠĠĠĠĠĠĠĠĠĠĠĠĠĠĠĠĠĠĠĠĠĠĠĠĠĠĠĠĠĠĠĠĠĠĠĠĠĠĠĠĠĠĠĠĠĠĠĠĠĠĠĠĠĠĠĠĠĠĠĠĠĠĠĠĠĠĠĠĠĠĠĠĠĠĠĠĠĠĠĠĠĠĠĠĠĠĠĠĠĠĠĠĠĠĠĠĠĠĠĠĠĠĠĠĠĠĠĠĠĠĠĠĠĠĠĠĠĠĠĠĠĠĠĠĠĠĠĠĠĠĠĠĠĠĠĠĠĠĠĠĠĠĠĠĠĠĠĠĠĠĠĠĠĠĠĠĠĠĠĠĠĠĠĠĠĠĠĠĠĠĠĠĠĠĠĠĠĠĠĠĠĠĠĠĠĠĠĠĠĠĠĠĠĠĠĠĠĠĠĠĠĠĠĠĠĠĠĠĠĠĠĠĠĠĠĠĠĠĠĠĠĠĠĠĠĠĠĠĠĠĠĠĠĠĠĠĠĠĠĠĠĠĠĠĠĠĠĠĠĠĠĠĠĠĠĠĠĠĠĠĠĠĠĠĠĠĠĠĠĠĠĠĠĠĠĠĠĠĠĠĠĠĠĠĠĠĠĠĠĠĠĠĠĠĠĠĠĠĠĠĠĠĠĠĠĠĠĠĠĠĠĠĠĠĠĠĠĠĠĠĠĠĠĠĠĠĠĠĠĠĠĠĠĠĠĠĠĠĠĠĠĠĠĠĠĠĠĠĠĠĠĠĠĠĠĠĠĠĠĠĠĠĠĠĠĠĠĠĠĠĠĠĠĠĠĠĠĠĠĠĠĠĠĠĠĠĠĠĠĠĠĠĠĠĠĠĠĠĠĠĠĠĠĠĠĠĠĠĠĠĠĠĠĠĠĠĠĠĠĠĠĠĠĠĠĠĠĠĠĠĠĠĠĠĠĠĠĠĠĠĠĠĠĠĠĠĠĠĠĠĠĠĠĠĠĠĠĠĠĠĠĠĠĠĠĠĠĠĠĠĠĠĠĠĠĠĠĠĠĠĠĠĠĠĠĠĠĠĠĠĠĠĠĠĠĠĠĠĠĠĠĠĠĠĠĠĠĠĠĠĠĠĠĠĠĠĠĠĠĠĠĠĠĠĠĠĠĠĠĠĠĠĠĠĠĠĠĠĠĠĠĠĠĠĠĠĠĠĠĠĠĠĠĠĠĠĠĠĠĠĠĠĠĠĠĠĠĠĠĠĠĠĠĠĠĠĠĠĠĠĠĠĠĠĠĠĠĠĠĠĠĠĠĠĠĠĠĠĠĠĠĠĠĠĠĠĠĠĠĠĠĠĠĠĠĠĠĠĠĠĠĠĠĠĠĠĠĠĠĠĠĠĠĠĠĠĠĠĠĠĠĠĠĠĠĠĠĠĠĠĠĠĠĠĠĠĠĠĠĠĠĠĠĠĠĠĠĠĠĠĠĠĠĠĠĠĠĠĠĠĠĠĠĠĠĠĠĠĠĠĠĠĠĠĠĠĠĠĠĠĠĠĠĠĠĠĠĠĠĠĠĠĠĠĠĠĠĠĠĠĠĠĠĠĠĠĠĠĠĠĠĠĠĠĠĠĠĠĠĠĠĠĠĠĠĠĠĠĠĠĠĠĠĠĠĠĠĠĠĠĠĠĠĠĠĠĠĠĠĠĠĠĠĠĠĠĠĠĠĠĠĠĠĠĠĠĠĠĠĠĠĠĠĠĠĠĠĠĠĠĠĠĠĠĠĠĠĠĠĠĠĠĠĠĠĠĠĠĠĠĠĠĠĠĠĠĠĠĠĠĠĠĠĠĠĠĠĠĠĠĠĠĠĠĠĠĠĠĠĠĠĠĠĠĠĠĠĠĠĠĠĠĠĠĠĠĠĠĠĠĠĠĠĠĠĠĠĠĠĠĠĠĠĠĠĠĠĠĠĠĠĠĠĠĠĠĠĠĠĠĠĠĠĠĠĠĠĠĠĠĠĠĠĠĠĠĠĠĠĠĠĠĠĠĠĠĠĠĠĠĠĠĠĠĠĠĠĠĠĠĠĠĠĠĠĠĠĠĠĠĠĠĠĠĠĠĠĠĠĠĠĠĠĠĠĠĠĠĠĠĠĠĠĠĠĠĠĠĠĠĠĠĠĠĠĠĠĠĠĠĠĠĠĠĠĠĠĠĠĠĠĠĠĠĠĠĠĠĠĠĠĠĠĠĠĠĠĠĠĠĠĠĠĠĠĠĠĠĠĠĠĠĠĠĠĠĠĠĠĠĠĠĠĠĠĠĠĠĠĠĠĠĠĠĠĠĠĠĠĠĠĠĠĠĠĠĠĠĠĠĠĠĠĠĠĠĠĠĠĠĠĠĠĠĠĠĠĠĠĠĠĠĠĠĠĠĠĠĠĠĠĠĠĠĠĠĠĠĠĠĠĠĠĠĠĠĠĠĠĠĠĠĠĠĠĠĠĠĠĠĠĠĠĠĠĠĠĠĠĠĠĠĠĠĠĠĠĠĠĠĠĠĠĠĠĠĠĠĠĠĠĠĠĠĠĠĠĠĠĠĠĠĠĠĠĠĠĠĠĠĠĠĠĠĠĠĠĠĠĠĠĠĠĠĠĠĠĠĠĠĠĠĠĠĠĠĠĠĠĠĠĠĠĠĠĠĠĠĠĠĠĠĠĠĠĠĠĠĠĠĠĠĠĠĠĠĠĠĠĠĠĠĠĠĠĠĠĠĠĠĠĠĠĠĠĠĠĠĠĠĠĠĠĠĠĠĠĠĠĠĠĠĠĠĠĠĠĠĠĠĠĠĠĠĠĠĠĠĠĠĠĠĠĠĠĠĠĠĠĠĠĠĠĠĠĠĠĠĠĠĠĠĠĠĠĠĠĠĠĠĠĠĠĠĠĠĠĠĠĠĠĠĠĠĠĠĠĠĠĠĠĠĠĠĠĠĠĠĠĠĠĠĠĠĠĠĠĠĠĠĠĠĠĠĠĠĠĠĠĠĠĠĠĠĠĠĠĠĠĠĠĠĠĠĠĠĠĠĠĠĠĠĠĠĠĠĠĠĠĠĠĠĠĠĠĠĠĠĠĠĠĠĠĠĠĠĠĠĠĠĠĠĠĠĠĠĠĠĠĠĠĠĠĠĠĠĠĠĠĠĠĠĠĠĠĠĠĠĠĠĠĠĠĠĠĠĠĠĠĠĠĠĠĠĠĠĠĠĠĠĠĠĠĠĠĠĠĠĠĠĠĠĠĠĠĠĠĠĠĠĠĠĠĠĠĠĠĠĠĠĠĠĠĠĠĠĠĠĠĠĠĠĠĠĠĠĠĠĠĠĠĠĠĠĠĠĠĠĠĠĠĠĠĠĠĠĠĠĠĠĠĠĠĠĠĠĠĠĠĠĠĠĠĠĠĠĠĠĠĠĠĠĠĠĠĠĠĠĠĠĠĠĠĠĠĠĠĠĠĠĠĠĠĠĠĠĠĠĠĠĠĠĠĠĠĠĠĠĠĠĠĠĠĠĠĠĠĠĠĠĠĠĠĠĠĠĠĠĠĠĠĠĠĠĠĠĠĠĠĠĠĠĠĠĠĠĠĠĠĠĠĠĠĠĠĠĠĠĠĠĠĠĠĠĠĠĠĠĠĠĠĠĠĠĠĠĠĠĠĠĠĠĠĠĠĠĠĠĠĠĠĠĠĠĠĠĠĠĠĠĠĠĠĠĠĠĠĠĠĠĠĠĠĠĠĠĠĠĠĠĠĠĠĠĠĠĠĠĠĠĠĠĠĠĠĠĠĠĠĠĠĠĠĠĠĠĠĠĠĠĠĠĠĠĠĠĠĠĠĠĠĠĠĠĠĠĠĠĠĠĠĠĠĠĠĠĠĠĠĠĠĠĠĠĠĠĠĠĠĠĠĠĠĠĠĠĠĠĠĠĠĠĠĠĠĠĠĠĠĠĠĠĠĠĠĠĠĠĠĠĠĠĠĠĠĠĠĠĠĠĠĠĠĠĠĠĠĠĠĠĠĠĠĠĠĠĠĠĠĠĠĠĠĠĠĠĠĠĠĠĠĠĠĠĠĠĠĠĠĠĠĠĠĠĠĠĠĠĠĠĠĠĠĠĠĠĠĠĠĠĠĠĠĠĠĠĠĠĠĠĠĠĠĠĠĠĠĠĠĠĠĠĠĠĠĠĠĠĠĠĠĠĠĠĠĠĠĠĠĠĠĠĠĠĠĠĠĠĠĠĠĠĠĠĠĠĠĠĠĠĠĠĠĠĠĠĠĠĠĠĠĠĠĠĠĠĠĠĠĠĠĠĠĠĠĠĠĠĠĠĠĠĠĠĠĠĠĠĠĠĠĠĠĠĠĠĠĠĠĠĠĠĠĠĠĠĠĠĠĠĠĠĠĠĠĠĠĠĠĠĠĠĠĠĠĠĠĠĠĠĠĠĠĠĠĠĠĠĠĠĠĠĠĠĠĠĠĠĠĠĠĠĠĠĠĠĠĠĠĠĠĠĠĠĠĠĠĠĠĠĠĠĠĠĠĠĠĠĠĠĠĠĠĠĠĠĠĠĠĠĠĠĠĠĠĠĠĠĠĠĠĠĠĠĠĠĠĠĠĠĠĠĠĠĠĠĠĠĠĠĠĠĠĠĠĠĠĠĠĠĠĠĠĠĠĠĠĠĠĠĠĠĠĠĠĠĠĠĠĠĠĠĠĠĠĠĠĠĠĠĠĠĠĠĠĠĠĠĠĠĠĠĠĠĠĠĠĠĠĠĠĠĠĠĠĠĠĠĠĠĠĠĠĠĠĠĠĠĠĠĠĠĠĠĠĠĠĠĠĠĠĠĠĠĠĠĠĠĠĠĠĠĠĠĠĠĠĠĠĠĠĠĠĠĠĠĠĠĠĠĠĠĠĠĠĠĠĠĠĠĠĠĠĠĠĠĠĠĠĠĠĠĠĠĠĠĠĠĠĠĠĠĠĠĠĠĠĠĠĠĠĠĠĠĠĠĠĠĠĠĠĠĠĠĠĠĠĠĠĠĠĠĠĠĠĠĠĠĠĠĠĠĠĠĠĠĠĠĠĠĠĠĠĠĠĠĠĠĠĠĠĠĠĠĠĠĠĠĠĠĠĠĠĠĠĠĠĠĠĠĠĠĠĠĠĠĠĠĠĠĠĠĠĠĠĠĠĠĠĠĠĠĠĠĠĠĠĠĠĠĠĠĠĠĠĠĠĠĠĠĠĠĠĠĠĠĠĠĠĠĠĠĠĠĠĠĠĠĠĠĠĠĠĠĠĠĠĠĠĠĠĠĠĠĠĠĠĠĠĠĠĠĠĠĠĠĠĠĠĠĠĠĠĠĠĠĠĠĠĠĠĠĠĠĠĠĠĠĠĠĠĠĠĠĠĠĠĠĠĠĠĠĠĠĠĠĠĠĠĠĠĠĠĠĠĠĠĠĠĠĠĠĠĠĠĠĠĠĠĠĠĠĠĠĠĠĠĠĠĠĠĠĠĠĠĠĠĠĠĠĠĠĠĠĠĠĠĠĠĠĠĠĠĠĠĠĠĠĠĠĠĠĠĠĠĠĠĠĠĠĠĠĠĠĠĠĠĠĠĠĠĠĠĠĠĠĠĠĠĠĠĠĠĠĠĠĠĠĠĠĠĠĠĠĠĠĠĠĠĠĠĠĠĠĠĠĠĠĠĠĠĠĠĠĠĠĠĠĠĠĠĠĠĠĠĠĠĠĠĠĠĠĠĠĠĠĠĠĠĠĠĠĠĠĠĠĠĠĠĠĠĠĠĠ ĠĠĠĠĠĠĠĠĠĠĠĠĠĠĠĠĠĠĠĠĠĠĠĠĠĠĠĠĠĠĠĠĠĠĠĠĠĠĠĠĠĠĠĠĠĠĠĠĠĠĠĠĠĠĠĠĠĠĠĠĠĠĠĠ
ER VIC
find ingĠ
accur ateĠ
valueĠ forĠ
iel dĠ
support ,Ġ
docum entĠ
conveni entĠ
RoyalĠ GuardâĢĻsĠ
OR I
hor iz
studi oĠ
convers ation
convers ationĠ
trad ingĠ
feed backĠ
camp us
camp usĠ
I'veĠ beenĠ
Cong res
Hous eĠofĠ
shap edĠ
CH EĠ
cou pl
fold ingĠ
.ĠMostĠ ofĠtheĠ
regist er
schedu le
IPĠ addres
jus ticeĠ
chem ic
s.ĠYouĠ canĠ
Coordin ator
DietaryĠA id
DP RĠ
No .Ġ
arch itect
sure lyĠ
extre meĠ
discoverĠ thatĠ
Associ ationĠofĠ
subjectĠ toĠtheĠ
mos het
agg res
gif t
focus esĠonĠ
WorldĠ CupĠ
troubl esh
craf t
measure mentĠ
afford ableĠ
Ber kel
Hot elĠ
technolog y
technolog yĠandĠ
Phil ist
SanĠ Ansel
Vol k
rob ustĠ
roleĠ inĠ
shoo tingĠ
pep tideĠ
beganĠ toĠ
Gam esĠ
Techn ologyĠ
research ,Ġ
marri ageĠ
aĠsec ondĠ
improv ementĠ
circu itĠ
candid atesĠ
Io T
Rob ertĠ
dedic atedĠ
last ingĠ
chann el
shif tĠ
exhi bit
Cour tĠ
HighĠ SchoolĠ
crow nĠ
kin 'Ġ
ox y
asp ir
understand ingĠofĠ
categ oryĠ
Bel gi
Febr u
thor oughlyĠ
intr ud
alb umĠ
beaut yĠ
depart mentĠ
aĠcou pleĠ
Produc tĠ
Trans ÂŃferÂŃenceĠ
Rus si
restor ativeĠ
smoo th
affili ates.
Loc alĠ
Ri verĠ
langu ageĠ
accompl ish
.ĠPl ayĠOnĠWord
.ĠDe annaĠ
ccord ingĠtoĠtheĠ
Tues day
Tues dayĠ
Isra elĠ
kl ahom
chand eli
liber alĠ
glit teryĠ
capac ityĠ
SteelĠ Pl
Vill ageĠ
swim mingĠ
excep tionalĠ
Brit ain
Brit ainĠ
origin allyĠ
Den aliĠ
Ven ezuel
leng thĠ
chos enĠ
dispos alĠ
ellow shipĠ
Stre etĠ
newsp ap
technologi esĠandĠ
YukonĠX LĠ
Gal ax
forĠtheĠfirstĠ timeĠ
Int elĠ
complic atedĠ
aĠcle arĠ
ĠAd dĠ
Defi anceĠ
dimension alĠ
Main frameĠDevelop
daugh terĠ
junc tionĠ
atĠH atach
expens esĠ
subsid i
Energ yĠ
defend antĠ
SampleĠ ResumeĠ
mirr orĠ
Spe ak
uplo ad
vic tim
proto typ
agric ulturalĠ
Independ enceĠ
Champion ship
.ĠEvery oneĠ
binaryĠ optionsĠ
KitchenĠ Remo
Viet nam
tiredĠ ofĠ
dition ally,Ġ
peace fulĠ
arrayĠ ofĠ
Netfli xĠ
orĠbetter,ĠorĠ permissionĠofĠinstructor
NewtownĠSquare,Ġ PAĠ
BirdC amĠ
LosĠAngel esĠ
Um eshĠYadav
bac ter
zeroĠ em
alg ori
spirit ualĠ
.ĠVo iceComputerĠ
Specialist ,Ġ(
nailĠpol ishĠ
ColoringĠP agesĠ
Houst onĠ
Nok iaĠ
legi timateĠ
housewarmingĠ partyĠ
front- endĠ
tomor row
CottonĠTrad ersĠ
Fund ament
Ide asĠ
MOS F
Osl oĠ
eo pleĠ
aband on
Quarter lyĠ
Leah yĠ
washerĠandĠ dryerĠ
straight forwardĠ
Cyber S
Karabak hĠ
aĠsignific antĠ
.infoĠ .ĠMoreĠoverĠ
Giv atĠHatach
PTF EĠ
UMO ĠAffili
iav elli
keg onĠ
sumo affiliates.
uluĠ wat
byĠarlo .infoĠ.ĠMoreĠoverĠ
ĠinĠSightĠ andĠSoundĠ(London
antitryps inĠ
KitchenĠRemo del
GivatĠHatach moshet
B utĠ
E very
g as
ac knowledgeĠ
makeĠ youĠ
ĠA llĠ
ThisĠ isĠ
knowled ge
On ceĠ
ĠĠĠĠĠĠĠĠĠĠĠĠĠĠĠĠĠĠĠĠĠĠĠĠ ĠĠ
Se a
Jew ishĠ
& #
) ;
- B
- likeĠ
- dayĠ
- freeĠ
- termĠ
- minuteĠ
- value
. M
. blog
/ .
0 6
6 1
6 8
8 1
9 1
? )
A re
A qu
A )Ġ
A gre
A venueĠ
B M
B en
B ,Ġ
B ed
B ul
B ay
B IC
B log
B ons
C A
C ,Ġ
C ro
C ad
C and
C ast
C urr
C iv
D om
D ail
E P
E r
E ure
E din
E arth
E conom
E lizabethĠ
F MĠ
G ĠM
G oldenĠ
H G
H O
H u
H op
H oll
I 'dĠ
J e
J oy
J uli
K ur
K enn
K ET
L ak
L inkĠ
L ossĠ
M obileĠ
M BAĠ
N Ġ
N ature
N LĠ
N AS
N apol
O T
O ,Ġ
O therĠ
P M
P in
P op
P etĠ
P av
P ick
P ink
R ul
R ay
R av
R ock
R oof
S M
S T
S a
S ant
S ection
S onyĠ
S martĠ
S anto
S candinavianĠ
T ag
T ay
T OS
T OSĠ
U l
U r
U CĠ
V oo
V ari
V illi
W S
W ol
W rit
Y u
Y ear
[ W
_ _
a e
a uc
a ,ĠtheĠ
a head
a esthe
b a
b owĠ
b ind
b idĠ
b ah
b ondĠ
b unchĠ
c it
c adeĠ
c ityĠofĠ
c abĠ
d ump
e veĠ
e ach
e .ĠTheyĠ
f at
f yingĠ
f ellowĠ
g earĠ
g amp
g cry
h id
h ir
h enceĠ
h ill
i OSĠ
i stryĠ
j ur
k is
k ick
k eptĠ
l av
l ampĠ
l aboratoryĠ
m oĠ
m eĠandĠ
m ass
m ailĠ
n icĠ
n ature
n atureĠofĠtheĠ
o âĢĻsĠ
p p
p tĠ
p el
p ad
p un
p ureĠ
p gĠ
r ag
r igh
r atingĠ
s s
s z
s wi
s kĠ
s hĠ
s end
s aw
s ight
s now
s .ĠThisĠisĠ
s overe
t oryĠ
t roll
t abĠ
t aughtĠ
t edlyĠ
v ap
v aryĠ
v a_
w ing
w onĠtheĠ
w ish
w oolĠ
x elĠ
y le
y .ĠS
y âĢĿĠ
y ester
z ipĠ
© Ġ
Ã ¡
â Ĩ
Ġ y
Ġ fromĠ
Ġ withĠaĠ
Ġ forĠaĠ
Ġ NewĠ
Ġ WhenĠ
Ġ OnĠ
Ġ a.
sĠ asĠ
sĠ atĠtheĠ
sĠ -Ġ
sĠ inĠaĠ
th inĠ
th ing,Ġ
th read
in n
in aĠ
in su
in terĠ
in osĠ
tĠ (
an no
an eseĠ
er ship
on i
on es,Ġ
on struc
on eâĢĻsĠ
on ianĠ
or y,Ġ
en ic
en ough
en 'tĠ
en orm
en quir
ou si
ou sĠtoĠ
ou thernĠ
,Ġ whenĠ
,Ġ youĠwillĠ
,Ġ soĠthatĠ
theĠ informationĠ
theĠ companyĠ
ar -
ar om
ar eas
ar isingĠ
ar rivingĠ
ti sĠ
ti esĠinĠ
al t
al ter
al s,ĠandĠ
al istĠ
al umn
ing /
ing sĠtoĠ
ing .ĠIĠ
ing ;Ġ
re pl
re form
re tain
re tri
re fund
ĠĠĠĠĠĠĠĠĠĠĠĠĠĠĠĠĠĠĠĠĠĠĠĠĠĠĠĠĠĠĠĠĠĠĠĠĠĠĠĠĠĠĠĠĠĠĠĠĠĠĠĠĠĠĠĠĠĠĠĠĠĠĠĠĠĠĠĠĠĠĠĠĠĠĠĠĠĠĠĠĠĠĠĠĠĠĠĠĠĠĠĠĠĠĠĠĠĠĠĠĠĠĠĠĠĠĠĠĠĠĠĠĠĠĠĠĠĠĠĠĠĠĠĠĠĠĠĠĠĠĠĠĠĠĠĠĠĠĠĠĠĠĠĠĠĠĠĠĠĠĠĠĠĠĠĠĠĠĠĠĠĠĠĠĠĠĠĠĠĠĠĠĠĠĠĠĠĠĠĠĠĠĠĠĠĠĠĠĠĠĠĠĠĠĠĠĠĠĠĠĠĠĠĠĠĠĠĠĠĠĠĠĠĠĠĠĠĠĠĠĠĠĠĠĠĠĠĠĠĠĠĠĠĠĠĠĠĠĠĠĠĠĠĠĠĠĠĠĠĠĠĠĠĠĠĠ ĠĠĠĠĠĠĠĠĠĠĠĠĠĠĠĠĠĠĠĠĠĠĠĠĠĠĠĠĠĠĠĠĠĠĠĠĠĠĠĠĠĠĠĠĠĠĠĠĠĠĠĠĠĠĠĠĠĠĠĠĠĠĠĠĠĠĠĠĠĠĠĠĠĠĠĠĠĠĠĠĠĠĠĠĠĠĠĠĠĠĠĠĠĠĠĠĠĠĠĠĠĠĠĠĠĠĠĠĠĠĠĠĠĠĠĠĠĠĠĠĠĠĠĠĠĠĠĠ
andĠ areĠ
andĠ beĠ
andĠ ourĠ
ingĠ anyĠ
ingĠ up
toĠ itsĠ
toĠ makeĠsureĠ
aĠ H
aĠ g
aĠ m
aĠ con
aĠ varietyĠofĠ
aĠ hugeĠ
aĠ Nu
edĠ hisĠ
ofĠ thatĠ
ofĠ whichĠ
st er,Ġ
om er
om en
erĠ inĠtheĠ
onĠ everyĠ
es /
es )Ġ
es .ĠWeĠ
es .com
es âĢĻĠ
es Bons
at s,Ġ
at ter
at everĠ
at eg
at tooĠ
at yam
ic onĠ
ic ksĠ
ic al,Ġ
ic haelĠ
orĠ orĠ
isĠ yourĠ
isĠ tooĠ
inĠ Europ
inĠ touchĠ
inĠ termsĠofĠ
el veĠ
el ig
el iteĠ
el ementsĠ
it er
il ,Ġ
il enceĠ
il eg
esĠ C
esĠ asĠ
esĠ yourĠ
esĠ withĠtheĠ
esĠ canĠbeĠ
ro lĠ
ro otsĠ
ac ingĠ
ac idĠ
you !Ġ
atĠ myĠ
atĠ everyĠ
atĠ homeĠ
ec ti
ec tĠofĠ
is kĠ
is e,Ġ
alĠ ofĠtheĠ
anĠ over
anĠ areaĠ
anĠ Bar
asĠ toĠ
asĠ heĠ
asĠ manyĠ
asĠ sheĠ
ch ampion
thĠ toĠ
us edĠbyĠ
us edĠbyĠtheĠ
forĠ theseĠ
forĠ manyĠ
forĠ every
forĠ fre
am en
am end
ur yaĠ
em in
em powerĠ
em ber,Ġ
em ittingĠ
ol k
ig enceĠ
et er
et ti
et tingĠ
ad optionĠ
ab dom
ab roadĠ
id lyĠ
id ay,Ġ
wh el
ent ang
pro por
pro of
un fortun
un wantedĠ
un ola,Ġ
un installingĠ
youĠ useĠ
youĠ mayĠbeĠ
youĠ feelĠ
youĠ donâĢĻtĠ
withĠ theseĠ
withĠ greatĠ
thatĠ haveĠ
thatĠ willĠbeĠ
thatĠ 'NetworkĠAutoĠSource,ĠInc.Ġ'Ġ
ed .ĠâĢľ
.ĠTh anksĠ
.ĠTh roughoutĠ
ag ingĠ
ag enc
ag entsĠ
os h
os herĠ
ev ĠS
com promis
oo thĠ
con v
con firmĠ
con stitu
li abilityĠ
tr imĠ
tr uck
tr uckĠ
le x
le y
le af
le ticĠ
su peri
su garĠ
s,Ġ etc
ex istĠ
ex t,Ġ
ex plan
ex portĠ
ex ecu
âĢĻ ,
âĢĻ sĠandĠ
e,Ġ suchĠasĠ
itĠ withĠ
itĠ hasĠbeenĠ
itĠ seem
for given
yourĠ newĠ
yourĠ businessĠ
fr anch
di es
di am
di et
di alo
sp inĠ
sp end
sp oil
qu itĠ
qu estĠ
ation s
ul ateĠ
ew erĠ
lo t,Ġ
be yĠ
be ach
.ĠTheĠ companyĠ
s.Ġ YourĠ
ear ningĠ
no .Ġ
ter ri
ter rit
e.Ġ L
op tionsĠandĠ
etĠ andĠ
haveĠ youĠ
ri f
ri end
um b
um bersĠ
inĠtheĠ spr
IĠ haveĠaĠ
IĠ didĠ
res ourceĠ
res erveĠ
ereĠ areĠ
allĠ ofĠyourĠ
bu g
cl ud
cl ickingĠ
fromĠ myĠ
fromĠ itsĠ
thisĠ isĠaĠ
thisĠ weekĠ
gr ac
gr af
gr aveĠ
ersĠ inĠtheĠ
ersĠ onĠtheĠ
uc c
uc le
to ckĠ
chĠ ofĠ
tim e.ĠTheĠ
ityĠ isĠ
par ent
par ents,Ġ
notĠ aĠ
notĠ haveĠ
we etĠ
por tra
se gment
s>Ġ F
co ast
20 3
de ath
.ĠA mĠ
.ĠA notherĠ
hasĠ notĠ
mo deĠ
es,Ġ aĠ
allyĠ andĠ
ut ÂŃ
bl ood
weĠ haveĠaĠ
eĠofĠ $
!Ġ W
akeĠ [CIĠ
rec all
vi br
antĠ andĠ
he pati
,ĠandĠ thenĠ
ang .blog
erv iceĠ
enc amp
ind uc
?Ġ +
moreĠ lik
moreĠ andĠmoreĠ
cre am
dis abl
dis put
dis puteĠ
ell aĠ
pos sessĠ
forĠtheĠ bestĠ
comm entsĠ
)Ġ hasĠbeenĠ
In formationĠ
In vest
aw ai
br ingĠinĠ
br anch
br ingingĠ
ther fordĠ
lik e,Ġ
und oub
ph il
ph one
go alsĠ
aboutĠ $
esĠandĠ theĠ
useĠ inĠ
do oĠ
do esĠtheĠ
of twareĠ
Ch alleng
them ĠandĠ
ast sĠ
ifĠ aĠ
ifĠ weĠ
inter pre
iz ingĠ
acc essĠandĠ
isĠaĠ majorĠ
An sw
off lineĠ
off setĠ
gre g
.ĠIĠ loveĠ
Ġ<s>Ġ F
ant s,Ġ
workĠ onĠ
workĠ inĠ
justĠ likeĠ
des kĠ
produc erĠ
produc esĠ
produc tion
produc t,Ġ
dr ink
fl atĠ
fl ag
fl yingĠ
fl eshĠ
ingĠtoĠ aĠ
ingĠtoĠ beĠ
.ĠB el
pres ti
St yleĠ
loc ationsĠ
loc ationĠforĠ
tw ent
tw iceĠ
tw elveĠ
day s.Ġ
mostĠ ofĠtheĠ
aĠs af
likeĠ thisĠ
ellĠ usĠ
ful fillĠ
ve g
thanĠ everĠ
doĠ aĠ
doĠ itĠ
doĠ weĠ
gu ardĠ
howĠ manyĠ
ish edĠinĠ
.ĠH isĠ
.ĠH el
.ĠH eĠisĠ
wereĠ notĠ
overĠ andĠ
vis ibleĠ
og Ġ
whatĠ toĠ
whatĠ happen
.ĠItĠ wasĠaĠ
.ĠM endoz
.ĠM ean
theĠc ol
dat ab
edi tion
sec re
ion e
.ĠP er
.ĠP eopleĠ
dec oĠ
onlyĠ theĠ
onlyĠ aĠ
edĠinĠ thisĠ
ingsĠ ofĠtheĠ
bet er
bet a-
shouldĠ notĠ
proc essĠandĠ
fac e-
mak ingĠtheĠ
aĠc r
Con stitu
Con flictĠ
boo tĠ
boo st
boo kedĠ
ementĠ ofĠtheĠ
.ĠF indĠ
sim ult
.ĠT akenĠ
ionĠ andĠ
lin esĠ
lin eĠofĠ
lin ksĠ
requ ir
urr ic
busin es
Au thor
eg gĠ
jo inĠtheĠ
helpĠ theĠ
helpĠ ofĠ
takeĠ onĠtheĠ
ĠS O
ĠS ERVIC
suchĠ anĠ
cer tifiedĠ
cer tifi
ire d
whereĠ weĠ
.ĠYouĠ willĠbeĠ
themĠ inĠ
cr ash
read ingsĠ
lif eĠofĠ
ĠA cur
chang edĠ
chang eĠofĠ
.ĠD is
ber g
mu ch,Ġ
asĠaĠ resultĠofĠ
Coun ty
theĠs al
theĠs oc
couldĠ haveĠ
Ġp ound
differ ent
wantĠ aĠ
.ĠE m
knowĠ howĠ
isĠtheĠ onlyĠ
sub sequ
âĢĵĠ aĠ
Tr ash
any way
any whereĠ
medi ateĠ
.ĠN ewĠ
reg ardĠ
madeĠ aĠ
sm ellĠ
itĠisĠ possibleĠtoĠ
aĠl ong
applic ationsĠandĠ
need ed
need sĠofĠ
whileĠ inĠ
whileĠ youĠ
Al loyĠ
wr app
cle an,Ġ
eachĠ otherĠ
exc itingĠ
sk et
tre meĠ
commun ity,Ġ
sĠthatĠ theĠ
Ar ti
hand -
En h
En joyĠ
Pl anĠ
%Ġ ofĠtheĠ
aĠb ack
backĠ onĠ
trans formĠ
edĠonĠ aĠ
deĠ Villi
.ĠL i
.ĠL et
.ĠL ikeĠ
organ icĠ
design edĠforĠtheĠ
equ i
cor rec
develop mentsĠ
custom ers,Ġ
Ad ventĠ
Ad ultĠ
Ad dedĠ
.ĠThereĠ wereĠ
.ĠThereĠ willĠbeĠ
.ĠThereĠ isĠalsoĠ
stand ardsĠ
so ak
so akĠ
goĠ toĠtheĠ
manag ingĠ
manag edĠtoĠ
ey es,Ġ
gener atedĠ
ub aiĠ
lead sĠ
cap tur
cap tureĠ
tem platesĠ
15 5
main lyĠ
comeĠ inĠ
Fr ank
list enĠ
list eningĠ
list enĠtoĠ
qual ity
grow th
grow th,Ġ
simpl i
simpl e_
12 8
respon seĠ
Ex ascaleĠ
fre ightĠ
on- siteĠ
agesĠ areĠ
partic ular
chil d,Ġ
hous e,Ġ
hous e.Ġ
leg end
beforeĠ theyĠ
highĠ qualityĠ
stat us
Res p
Res erv
Res ortĠ
Res olutionĠ
bed d
air port
new estĠ
set ,Ġ
haveĠaĠ goodĠ
part mentĠ
experienc e.Ġ
ers on
Pr om
spac e.Ġ
prom pt
bod y,Ġ
suppl ementĠ
experienceĠ inĠ
experienceĠ inĠtheĠ
putĠ onĠ
coll ectedĠ
tal k
mean ingĠ
availableĠ inĠ
.ĠG i
asĠwellĠ asĠaĠ
head ingĠ
intern et
stillĠ beĠ
hom es
mor e.Ġ
mor mon
mus h
mus icalĠ
mus cleĠ
.ĠR em
ship sĠareĠ
ress orĠ
ques tionsĠandĠ
untilĠ youĠ
compan ion
lookingĠ forĠaĠ
was n'tĠ
14 7
Serv ice
sign edĠ
abilityĠ ofĠ
Br idgeĠ
sinceĠ theĠ
teamĠ inĠ
,ĠM ichelangeloĠ
moreĠthanĠ oneĠ
la hĠ
usedĠ inĠtheĠ
turnĠ leftĠ
continu edĠ
IC KET
priv acyĠ
men tion
bur n
bur stĠ
hi oĠ
itâĢĻsĠ aĠ
workingĠ onĠ
workingĠ hour
ax k
ric h
toĠre achĠ
.ĠButĠ IĠ
11 7
Li ens
18 0
clos eĠtoĠ
sens eĠofĠ
s.ĠS oĠ
websit esĠ
let âĢĻsĠ
real -
real ityĠ
electr icityĠ
fron t,Ġ
open edĠtheĠ
cat eringĠ
train ing,Ġ
pow ersĠ
oneĠofĠ thoseĠ
videoĠ contentĠ
cli entsĠandĠ
don'tĠ haveĠtoĠ
US $
US BĠ
prac tition
pat ch
Man ch
Man ualĠ
letĠ theĠ
)ĠandĠ theĠ
Cl ar
possib le,Ġ
now ,Ġ
,ĠorĠ dataĠ
childr ensĠ
13 2
Col leg
whe elĠ
Ġ*Ġ tty
Jo inĠ
say ,Ġ
doc torsĠ
hy per
hereĠ toĠ
oog leĠ
expl o
expl ainĠ
rest oreĠ
contr astĠ
pot ato
thereĠareĠ someĠ
thereĠareĠ manyĠ
install edĠ
controlĠ ofĠ
los ingĠ
headĠ toĠ
level sĠ
level sĠofĠ
quiteĠ aĠ
24 0
Rel easeĠ
coo kĠ
wal kingĠ
e.ĠA tĠ
prepar edĠ
prepar edĠtoĠ
mag icalĠ
mag uluĠwat
pop ul
pop ular
gam esĠ
shar pĠ
hon our
ani umĠ
educ atedĠ
openĠ toĠ
tool sĠtoĠ
har mĠ
har mon
integr alĠ
ste ad
ste epĠ
cost sĠ
cost s,Ġ
one 'sĠ
Mon dayĠ
impl yĠ
pris on
purpos eĠ
roadĠ tripĠ
peti tionĠ
invest ment
celebr ityĠ
cy cleĠ
Cr ushĠ
Cr imeĠ
imp actĠofĠ
mov e,Ġ
Dr aw
Min isterĠ
Christ mas
Engl and
Engl and,Ġ
autom atedĠ
autom otiveĠ
ren ownedĠ
wel comeĠtoĠ
communityĠ andĠ
developmentĠ ofĠ
developmentĠ ofĠtheĠ
challeng esĠ
cell ularĠ
fill edĠ
expect ationsĠ
pict uresĠ
econom yĠ
econom iesĠ
s.ĠA fterĠ
invol vingĠ
cir cul
doingĠ thisĠ
appear sĠ
polic iesĠ
www .c
right s,Ġ
stre am
.ĠTheseĠ areĠ
aĠlittleĠ moreĠ
clean ingĠ
learnĠ toĠ
responsibleĠ forĠtheĠ
ĠL akeĠ[CIĠ
SE CĠ
agre eĠtoĠ
load ingĠ
histor y
inf o
spir itĠ
situ ationsĠ
Rem overĠ
care fulĠ
to- faceĠ
feel sĠ
feel ingsĠ
For sch
though tsĠ
researchĠ andĠ
mob il
strateg y
U. K
readĠ theĠ
projectĠ isĠ
TE DĠ
initi ativesĠ
use ful
special iz
.ĠIt'sĠ aĠ
favor ableĠ
Cor porateĠ
pan el
pan ishĠ
emailĠ address
quar terĠ
ĠmillionĠ inĠ
student s,Ġ
student sĠandĠ
Servic e.ĠYouĠ
fail edĠtoĠ
fail ureĠtoĠ
amaz ing
planningĠ applicationsĠ
io âĢĻsĠ
ym ousĠ
legalĠ basisĠ
Be aut
wid e,Ġ
imm un
earn ingsĠ
subj ect
diningĠ room
Bo omer
Medi ationĠ
cut tingĠ
chatĠ roomĠ
chatĠ roomsĠ
conc ept
word s,Ġ
kindleĠ booksĠ
charac tersĠ
sou thernĠ
attr actĠ
attr activ
famil y
requiredĠ toĠ
enjoy edĠ
ĠTh ereĠ
member shipĠ
Cre ativeĠ
Te ach
Â® .
Ġminut eĠ
onĠS atur
allow edĠ
Comp actĠ
connect edĠtoĠtheĠ
gen u
leav ingĠ
obj ect
obj ectiv
keep sĠ
65 8
bul b
represent ingĠ
should nâĢĻtĠ
firm sĠ
Studi oĠ
improveĠ theĠ
ĠR edĠ
food ,Ġ
radi o
sus pensionĠ
outdoorĠ livingĠ
effici entlyĠ
safet yĠandĠ
destin ation
Hol yĠ
hot el
lan ag
prin tingĠ
makeĠaĠ differenceĠ
thoseĠwhoĠ areĠ
increaseĠ theĠ
support edĠ
becom ingĠ
Appl icationsĠ
conveni enceĠ
CommunityĠ RadioĠ
stic kĠ
reach ingĠ
streng thenĠ
.ĠWhileĠ theĠ
reasonĠ toĠ
ran kingĠ
Vo iceCom
hitĠ theĠ
hearĠ aboutĠyourĠ
evalu ateĠ
clin ic
degre eĠinĠ
intell ect
someĠofĠtheĠ mostĠ
domin antĠ
cook ieĠ
recommend ationsĠ
AL LĠ
AL DIĠ
Em ail
networkĠ ofĠ
prec iseĠ
televisionĠ andĠ
limit edĠtoĠ
learn edĠ
seasonĠ ofĠ
&apos; tĠ
jus tic
tu beĠ
innov ationĠ
dĠofĠ Canad
ideaĠ toĠ
FreeĠ Down
Har di
jud g
consist entlyĠ
communic ationĠ
communic ateĠ
Bu ild
ograph ersĠ
wash ingĠ
vehicl es,Ġ
cameraĠ withĠ
Gi adaĠ
canc er
time /
looksĠ likeĠ
attend e
collegeĠ admissionĠcounsel
lab el
vill ageĠ
enh anc
miss edĠ
here byĠ
CountyĠCouncil Ġmem
OCĠ HumanĠRel
fillĠ theĠ
wick etĠ
shoo tĠ
committ edĠ
compet eĠ
proced uresĠ
deliveryĠ ofĠ
Techn olog
signĠ upĠ
insid eĠtheĠ
tra um
.ĠAd ditionally,Ġ
Rob ert
Sec ondĠ
Sof tB
Tex as
Word PressĠ
ing- gamp
youĠgetĠ yourĠ
modi fic
industri alĠ
compon entsĠ
carri edĠoutĠ
HE RE
Vir g
admini str
confer enceĠ
expres s
account antĠ
suitableĠ forĠ
MediaĠ GroupĠ
Jon ath
ndĠ phaseĠ
.ĠYou 'reĠ
Ind ex
attemp tĠtoĠ
Mary land
numbersĠ ofĠ
opportuniti esĠforĠ
88 8
hireĠ aĠ
after no
.ĠBeĠ sureĠtoĠ
obvi ousĠ
survi v
smoo thĠ
furnit ureĠ
Dani elâĢĻsĠ
Ri ver
bri ef
alco hol
.ĠThereĠisĠ noĠ
partner shipĠ
.c:Ġ New
three- dimensionalĠ
ringtoneĠ mak
CanĠ IĠ
Hor iz
sex ualĠ
satell it
shiel d
cryptocurr encyĠ
low- costĠ
Ell isĠ
Victori anĠ
block chainĠ
mechan icalĠ
ĠheĠ said
impres siveĠ
oph istic
deb tĠ
full -
speechĠ recogni
Bot ticelli
Cer tific
Val leyĠ
Wi fi
fish ,Ġ
lap top
oh li
vict oryĠ
accep tingĠ
Ann ualĠ
speci fiedĠ
saidĠcountyĠ ofĠMeig
newsp aper
MichelangeloĠ Antonioni
passion ateĠ
creditĠ cardĠ
Wednes dayĠ
Coll in
Hon eyĠ
ambi entĠ
irm ing
hasĠtoĠ offer
outsid eĠtheĠ
societ y
hands- freeĠ
Admini strat
susp ectĠ
birth dayĠ
sac redĠ
tm l
vel oc
concl ud
presid entialĠ
Ġp. m.Ġ
Fun dĠofĠCanad
GDS MĠ
I- War
Rest orativeĠ
deri vedĠ
fair lyĠ
editor ialĠ
Stand ardĠ
Armen ianĠ
localĠauthor ityĠ
giveĠusĠ aĠcallĠ
seek sĠtoĠ
Aud itorĠ
FullĠ EpisodeĠ
Nav yĠ
ca usingĠ
mol ec
ecom mun
chocol ateĠ
resol veĠ
portfol ioĠ
cru iseĠ
Plac entaĠ
.ĠGre atĠ
Co- Coordinator
metric sĠ
authen tic
Ġ*Ġsimple-pwquery .cĠ(
GarbageĠDumpsterĠforĠRentĠinĠMonroet onĠ
UIMĠ domainĠ
along sideĠ
revol ution
liqu id
deleg atesĠ
summ er,Ġ
ĠAN DĠ
Itali anĠ
classi fic
ðŁĻĤ ĠH
Hamp tonĠCre
Link ed
kern elĠ
tamar indĠ
onĠThurs dayĠ
elder lyĠ
neu tralĠ
ANY OĠ
GoogleĠAnaly tic
DatabaseĠ CoordinatorĠ
HTML .
Vesali usĠ
er-Petro sianĠ
Kav ousi
afra idĠ
trop icalĠ
ĠinĠaĠ minionĠ
thel ess,Ġ
annivers aryĠ
stun ningĠ
Chem icalĠ
aĠsol idĠ
colnĠ Industri
merchand iseĠ
approxim atelyĠ
Deann aâĢĻsĠ
calyce alĠ
sorryĠtoĠ hearĠaboutĠyourĠ
possibilityĠ ofĠ
double -
CaliforniaĠStateĠ University,Ġ
Dun kin'Ġ
Pun j
Zy decoĠ
gy mĠ
gon naĠ
wro teĠ
opy rightĠ
dozen sĠofĠ
inviteĠ youĠtoĠ
extra ordinaryĠ
Elisab etĠ
SanĠAnsel moĠ
Galax yĠ
zeroĠem issionĠ
algori thm
CyberS ourceĠ
antitrypsinĠ defici
Voo dooĠ
enorm ousĠ
esBons Liens
atyam evĠS
elig ibleĠ
entang yĠ
ang.blog spot
undoub tedlyĠ
face- to-faceĠ
simult ane
ICKET !Ġ
childrensĠ quiltĠ
CrushĠ ProĠ
CommunityĠRadioĠ FundĠofĠCanad
ing-gamp ang.blogspot
ĠinĠaĠminionĠ childrensĠquiltĠ
atyamevĠS uryaĠ
F is
M ass
R oseĠ
V eryĠ
Z Ġ
qu it
Com put
Re port
reg ular
Rem oveĠ
Sund ay
OneĠ ofĠtheĠ
vac ationĠ
weap on
% Ġ(
% CIĠ
' ĠandĠ
( D
( b
( c
( seeĠ
( includingĠ
( a)Ġ
* Ġ
- f
- w
- nightĠ
- Up
- and-
- emittingĠ
. '
. J
9 3
9 00
@ Ġ
A Y
A th
A ff
A ach
A ust
A reĠ
A cc
A LĠ
A BĠ
A gar
A AS
A reĠyouĠ
B ookĠ
B BCĠ
B omb
B angal
B unola,Ġ
C F
C ou
C ow
C am
C up
C AN
C ESĠ
C ampĠ
C amer
D H
D U
D et
D ellĠ
D SĠ
D CĠ
D uck
D igitalĠ
D axk
E th
E as
E li
E qu
E achĠ
E RĠ
F a
F ur
F act
F ather
F IG
F ull
G un
G ha
G all
G AĠ
G rip
G ospelĠ
H D
H U
H o
H al
H ond
I )Ġ
I 'llĠ
J as
J ack
J uniorĠ
K itĠ
K ast
K ohli
L S
L ou
L aĠ
L uc
L ord
L td
L evelĠ
M H
M M
M a
M os
M ess
M otherĠ
M A,Ġ
M iddleĠ
N ic
N ev
O O
O ax
O EM
P ass
P riv
P ict
P ump
P ret
P assĠ
P ok
P CN
P opeĠ
Q Ġ
R ,Ġ
R ing
R ev
R and
R ight
R ug
S C
S ex
S print
S cĠ
S CC
S oundproofĠWind
T R
T un
T ownĠ
T ĠC
U sĠ
V I
V icĠ
V IT
W o
W is
W ant
W ordĠ
W IM
W arrnam
X IĠ
X iv
Z ak
\ /
a /
a er
a .Ġ
a ic
a qu
a str
a ;Ġ
a .ĠInĠ
b an
b areĠ
b y,Ġ
b ass
b urr
b oldĠ
b ond
b esid
b ambooĠ
c up
c Ġ(
c ementĠ
c ueĠ
c ity,Ġ
c ityĠandĠ
c inem
d s,Ġ
d ear
d eni
e !
e at
e igh
e fullyĠ
e asternĠ
g al
g enĠ
g ersĠ
g old
g entlyĠ
g olfĠ
h os
h ip
i i
i er
i ent
i ersĠ
i ĠandĠ
i ticalĠ
i ousĠandĠ
i Lead
i Tun
j ail
j iĠ
j ackerĠ
j azz
k erĠ
k enĠ
k idĠ
k etsĠ
k manĠ
k aĠS
l u
l sĠ
l en
l oĠ
l akeĠ
l esĠandĠ
l abĠ
m g
m k
m onĠ
m ut
m ill
m assĠ
m outhĠ
m aster
m outh
n e,Ġ
n ativeĠ
o orĠ
o esĠ
o :Ġ
o vedĠ
o grap
o akĠ
o beyĠ
p av
p act
p iesĠ
p unchĠ
p unch
r ou
r ainĠ
r ingsĠ
r itor
r ush
s edĠ
s atĠ
s e,Ġ
s âĢĻsĠ
s add
s inc
s lotĠ
s .ĠInĠaddition,Ġ
s lip
s ophistic
t ing
t ol
t we
t ut
t ough
t apĠ
t estim
t attooĠ
u h
u umĠ
u lĠandĠ
v ed
v ath
v estig
w /
w it
w alĠ
w av
w aveĠ
y th
y an
y lĠ
y s,Ġ
y !Ġ
y ing,Ġ
Ã ±
Ã Ń
â Ĥ
ë ĭ
ì Ŀ
Ġ $
Ġ :
Ġ re
Ġ and
Ġ wereĠ
Ġ high
Ġ &Ġ
Ġ month
Ġ ItĠ
Ġ MarchĠ
Ġ degre
Ġ hourĠ
Ġ monthsĠ
Ġ ',
eĠ onĠtheĠ
sĠ alsoĠ
sĠ whoĠ
sĠ throughĠ
sĠ &Ġ
th i
th ickĠ
in tĠ
in sur
in put
in boundĠ
an tim
er as
er ?Ġ
on t
on neĠ
or aĠ
or tĠofĠ
or angeĠ
or phan
yĠ orĠ
yĠ isĠaĠ
en sure
.Ġ andĠ
.Ġ toĠ
.Ġ âĢ¢
.Ġ âĢĭ
ou ti
ou s,ĠandĠ
,Ġ re
,Ġ forĠ
,Ġ areĠ
,Ġ inĠtheĠ
,Ġ hasĠ
,Ġ asĠwellĠasĠ
,Ġ US
,Ġ accordingĠtoĠ
theĠ oneĠ
theĠ oldĠ
ar etĠ
ar tsĠ
ar tic
ar tingĠ
ar t,Ġ
ar Xiv
al p
al con
al iz
al arm
al ity,Ġ
al izedĠ
al umin
ing .ĠH
ing .ĠWeĠ
ing .ĠItĠisĠ
re j
re m
re par
re vis
re wardĠ
re mindĠ
re treatĠ
andĠ evenĠ
ingĠ orĠ
toĠ seeĠtheĠ
toĠ achieveĠ
toĠ avoidĠ
aĠ v
aĠ be
edĠ ourĠ
edĠ uponĠ
ofĠ thoseĠ
ofĠ courseĠ
st a
st ro
st ac
st ainĠ
st onesĠ
erĠ theĠ
erĠ thatĠ
onĠ H
onĠ P
onĠ whichĠ
onĠ herĠ
onĠ aĠc
es !Ġ
es ;Ġ
es .ĠYouĠ
es .ĠOurĠ
es .ĠSheĠ
at ch
at ingĠtoĠ
ic on
ic ialĠ
ic acyĠandĠ
orĠ inĠtheĠ
orĠ willĠ
orĠ betterĠ
orĠ otherwiseĠ
isĠ atĠ
isĠ thisĠ
isĠ onĠtheĠ
isĠ provid
isĠ reallyĠ
isĠ alwaysĠ
isĠ knownĠ
inĠ T
inĠ toĠ
inĠ con
inĠ timeĠ
inĠ everyĠ
inĠ placeĠ
inĠ turnĠ
inĠ Im
it .Ġ
it ud
it ,ĠbutĠ
esĠ anĠ
esĠ canĠ
esĠ wereĠ
esĠ asĠaĠ
ro yĠ
ro le
ro pe
ac cred
you ,ĠandĠ
atĠ B
atĠ allĠ
atĠ oneĠ
atĠ theirĠ
atĠ www.
ec Ġ
ec tionsĠ
ec emberĠ
is o
is ti
is ol
alĠ orĠ
anĠ (
anĠ IĠ
anĠ easyĠ
asĠ theirĠ
asĠ aĠs
asĠ theyĠareĠ
asĠ possible
ch am
ch ap
ch ipĠ
ch attingĠ
ch asingĠ
pl ex
Th atĠtheĠ
us ,ĠweĠ
us erâĢĻsĠ
forĠ someĠ
forĠ severalĠ
am inĠ
am entĠ
am iĠ
am lessĠ
ur in
ur oĠ
ur pris
em ber
em bar
em ission
em orialĠ
ol anĠ
ig u
ig ne
et terĠ
ad lyĠ
ad ult
enĠ (
ab us
ab ov
ab road
id em
ent re
pro b
pro dig
un ĠtoĠ
un favor
youĠ allĠ
youĠ seeĠ
youĠ mustĠ
withĠ L
withĠ thatĠ
withĠ itĠ
withĠ otherĠ
withĠ manyĠ
withĠ AutismĠ
thatĠ IĠamĠ
thatĠ requireĠ
ed sĠ
ed ?Ġ
ed .ĠInĠ
ed onianĠ
.ĠTh us,Ġ
.ĠTh ere'sĠ
.ĠTh erefore,Ġ
entĠ Cla
ha z
areĠ aĠ
areĠ goingĠtoĠ
con eĠ
con stitut
li b
li mĠ
pĠ forĠ
leĠ isĠ
tr ag
tr ay
le is
s,Ġ anĠ
s,Ġ asĠwellĠasĠ
sh am
sh otsĠ
si velyĠ
ex ha
ex ter
ex emp
âĢĻ s,Ġ
e,Ġ toĠ
e,Ġ andĠtheĠ
itĠ theĠ
itĠ is
itĠ fromĠ
itĠ toĠtheĠ
itĠ wouldĠ
itĠ makesĠ
.ĠI sĠ
.ĠI CESĠ
for d
for um
for ever
for everĠ
yourĠ companyĠ
yourĠ applicationĠ
di veĠ
di od
di strictĠ
per man
per mission
per mitt
ak esĠ
ak ridgeĠ
ofĠtheĠ C
sp arkĠ
sp icyĠ
qu ic
qu eenĠ
ul s
ul tr
ationĠ willĠ
ationĠ fromĠ
ationĠ toĠtheĠ
ver ifyĠ
ver susĠ
the ticĠ
im pos
lo y
lo os
lo ver
ay beĠ
be achĠ
s.Ġ N
s.Ġ Par
s.Ġ WhatĠ
s.Ġ WhileĠ
sĠandĠ conditionsĠ
no t,Ġ
ter sĠandĠ
ter lingĠ
ter ror
ter ritor
tion sĠofĠ
ri ver
ri zon
Ġ< s>
wor ri
wor stĠ
inĠtheĠ world
inĠtheĠ future
byĠ itsĠ
byĠ usingĠ
res ili
ateĠ forĠ
outĠ onĠ
outĠ ther
outĠ thereĠ
outĠ GroupsĠ
bu gĠ
canĠ haveĠ
canĠ doĠ
soĠ on
soĠ itĠ
soĠ thatĠyouĠ
fromĠ L
fromĠ timeĠtoĠ
thisĠ informationĠ
gr an
oneĠ another
ersĠ forĠtheĠ
tsĠ (
to tal
ain tĠ
tim es,Ġ
ourĠ ownĠ
str ugg
par kĠ
par tsĠofĠtheĠ
wasĠ ableĠtoĠ
wasĠ post
wasĠ lastĠ
we aveĠ
we âĢĻdĠ
oc eanĠ
oc usĠonĠ
av at
y,Ġ butĠ
form ĠandĠ
tic ĠandĠ
tic ketĠ
se g
se atingĠ
se amlessĠ
co ali
de struc
.ĠA c
.ĠA r
.ĠA longĠ
.ĠA ccordingĠtoĠtheĠ
ud ingĠ
pr ingsĠ
pr ais
hasĠ alwaysĠ
hasĠ longĠ
hasĠ severalĠ
mo tionĠ
es,Ġ andĠtheĠ
bl ess
bl ownĠ
bl ank
bl endĠofĠ
weĠ wouldĠ
weĠ haveĠtoĠ
ne ak
eĠofĠ thisĠ
:Ġ S
!Ġ M
!Ġ YourĠ
he atedĠ
.ĠW ellĠ
.ĠW ICKET!Ġ
ess enti
cont ex
cont entsĠ
cont empl
cont ent,Ġ
cont actingĠ
eĠandĠ IĠ
gi eĠ
enc edĠ
ind ex
ind ul
butĠ itĠisĠ
?Ġ Y
?Ġ WhyĠ
moreĠ aboutĠtheĠ
cre w
cre amĠandĠ
cre ative
me .
me atĠ
atedĠ inĠtheĠ
est ream
dis kĠ
dis rup
dis coveryĠ
upĠ yourĠ
upĠ withĠtheĠ
adĠ andĠ
.ĠS im
sĠtoĠ yourĠ
ep age,Ġ
forĠtheĠ mostĠ
elĠ theĠ
whichĠ willĠ
whichĠ wouldĠ
whichĠ canĠbeĠ
comm entĠ
)Ġ withĠ
In -
aw k
br ain
br assĠ
theyĠ doĠnotĠ
und ryĠ
go -
go d
myĠ firstĠ
anceĠ onĠ
anceĠ isĠ
anceĠ ofĠtheĠ
esĠandĠ aĠ
You thĠ
You 'llĠ
useĠ ourĠ
itsĠ areĠ
itsĠ firstĠ
enceĠ inĠ
of tĠ
year s.Ġ
year ĠinĠ
usĠ abdomin
comp ass
comp troll
anc yĠ
anc es,Ġ
Ch lor
them atic
ast rolog
ifĠ youĠcanĠ
ifĠ theyĠwereĠ
kn owsĠ
inter actionĠ
inter activeĠ
inter actionsĠ
fi berĠ
fi ber
fi redĠ
au to
au xĠ
sel ection
tyĠ ofĠ
An x
An nieĠL
ip ul
ord eredĠ
ill umin
.ĠIĠ justĠ
.ĠIĠ don'tĠ
ens embl
min isterĠ
oll ow
heĠ wouldĠ
up -to-
up gradeĠ
up tialĠ
withĠtheĠ Ad-IDĠ
withĠtheĠ generousĠ
provid ersĠ
provid esĠtheĠ
eas y
eas il
eas yĠandĠ
AĠ toĠ
sc rap
tĠofĠ aĠ
wouldĠ youĠ
.ĠThisĠ programĠ
âĢľ Forsch
âĢĿ ĠinĠ
workĠ isĠ
workĠ togetherĠ
herĠ toĠ
justĠ thatĠ
des per
produc e,Ġ
dr aftĠ
fl ash
fl ashĠ
fl oralĠ
spec iesĠ
spec iallyĠ
iti esĠtoĠ
iti esĠforĠ
pres enceĠofĠ
whenĠ yourĠ
row dĠ
,ĠtheĠ companyĠ
St ev
includ ingĠaĠ
ob serv
ob serveĠ
ob stac
sid e,Ġ
loc kedĠ
tw inĠ
day âĢĻsĠ
day !Ġ
mostĠ importantĠ
out comesĠ
dev ot
dev ice
aĠs ing
aĠs ystem
likeĠ this
makeĠ thisĠ
makeĠ themĠ
ful ly
ve -
thanĠ theĠ
ous ineĠ
timeĠ IĠ
plac eĠandĠ
plac eĠtheĠ
ationsĠ ofĠtheĠ
gu it
gu ess
howĠ IĠ
.ĠIfĠ aĠ
ment sĠandĠ
enti t
wereĠ toĠ
willĠbeĠ heldĠ
hisĠ ownĠ
overĠ timeĠ
vis ual
.ĠItĠ wouldĠ
with in
iĠ isĠ
theĠc ityĠ
dat ingĠ
dat esĠ
dat es,Ġ
Wh it
Wh eneverĠ
sec ure
sec ret
sec tionĠofĠtheĠ
.ĠP at
.ĠP ubl
are a,Ġ
dec k
onlyĠ aĠfewĠ
.ĠO rĠ
.ĠO ver
att leĠ
att ain
fulĠ ofĠ
ĠtoĠ $
ingsĠ XIĠ
hadĠ noĠ
don es
theseĠ twoĠ
proc ess,Ġ
fac ingĠ
fac ultyĠ
own ershipĠ
aĠc or
aĠc ap
Con duc
inv estĠ
mis sil
ound ingĠ
.ĠT akeĠ
.ĠT oge
ed,Ġ butĠ
ed,Ġ itĠisĠ
ionĠ ofĠ
manyĠ peopleĠ
peopleĠ inĠ
Au ĠP
takeĠ placeĠ
evenĠ aĠ
evenĠ whenĠ
ty .
Ġm il
Ġm illion
ĠS erviceĠ
od dĠ
od yĠ
inĠaĠ newĠ
thenĠ beĠ
wellĠ knownĠ
whereĠ yourĠ
whereĠ theyĠ
whereĠ sheĠ
alsĠ areĠ
themĠ areĠ
cr azyĠ
read er,Ġ
servic es,ĠandĠ
mat ureĠ
lif tsĠ
ĠA fterĠ
tiv ityĠ
high light
e- interestedĠ
.ĠD uringĠtheĠ
asĠaĠ resul
informationĠ isĠ
informationĠ youĠ
twoĠ ofĠ
add -onĠ
theĠs am
theĠs ign
her b
her o
sti ll
ann eĠC
couldĠ alsoĠ
Ġp ati
Ġp ass
det ect
.ĠE veryĠ
exp end
exp andĠtheĠ
10 1
gl assĠ
canĠbeĠ aĠ
canĠbeĠ doneĠ
car e,Ġ
Par is,Ġ
isĠtheĠ mostĠ
isĠtheĠ firstĠ
befor e,Ġ
goodĠ new
sub stitut
Tr u
Tr an
Tr yĠ
Tr ashĠ
medi um-
rightĠ andĠ
.ĠN ew
reg im
madeĠ inĠ
madeĠ withĠ
madeĠ possibleĠ
under groundĠ
applic ableĠ
applic ationĠandĠ
applic ations,Ġ
need sĠtoĠbeĠ
Gr an
Gr adeĠ
Gr amp
nowĠ andĠ
du plic
oy ot
Al thoughĠ
.ĠC re
.ĠC omeĠ
thoseĠ withĠ
pol ish
exc es
aĠf utureĠ
Di strict
Di abet
tre mend
lim itĠofĠ
Ar en
Ar abĠ
Ar cadeĠ
ity .
hand l
hand gun
En d
Pl ayĠ
%Ġ familiar
%Ġ favorableĠ
%Ġ unfavor
aĠb roadĠ
person n
findĠ aĠ
trans f
help ,Ġ
help ingĠtoĠ
ationĠofĠ aĠ
aff irm
organ ism
tech softĠ
perform anc
design sĠ
design erĠ
design atedĠ
ly ric
equ alĠ
equ allyĠ
rect usĠabdomin
ton ight
custom izedĠ
complet edĠ
saidĠ coun
stand sĠ
NewĠ Zeal
,ĠbutĠ alsoĠ
lookĠ toĠ
sal tĠ
sal eĠofĠ
sal esĠofĠ
bothĠ ofĠ
tem por
tem poraryĠ
15 1
main tainĠtheĠ
comeĠ fromĠ
Fr iday,Ġ
ge ograph
succ es
succ eed
contin entalĠ
list ingĠofĠ
qual ific
viewĠ Horiz
12 5
thinkĠ thatĠ
thinkĠ aboutĠ
respon siveĠ
Ex tremeĠ
loveĠ andĠ
dri ve
typ esĠ
typ icalĠ
fil edĠ
fil ter
withoutĠ havingĠtoĠ
ah ,Ġ
s. com
theĠl owĠ
theĠl ongĠ
oper ation
oper ationalĠ
highĠ school
ris ksĠ
tedĠ inĠtheĠ
require mentĠ
companyĠ toĠ
air n
air sĠ
air yĠ
air portĠ
program s,Ġ
call sĠ
call ed
downĠ toĠ
downĠ onĠ
vol umeĠ
chec kedĠ
ĠinĠ Cinem
ĠinĠ Film
ers !Ġ
ers onalĠ
prom isedĠ
bod yĠandĠ
cas e,Ġ
proper ly
proper ty,Ġ
suppl iesĠ
suppl yĠandĠ
suppl ement
suppl yingĠ
suppl ementsĠ
putĠ theĠ
usingĠ thisĠ
siz eĠandĠ
keepĠ youĠ
keepĠ theirĠ
onĠaĠ dailyĠ
know ,Ġ
know ingĠ
ly,Ġ andĠ
tal ent
tal kĠtoĠ
availableĠ forĠtheĠ
.ĠG oodĠ
ug lyĠ
on,Ġ AnnieĠL
isĠnotĠ onlyĠ
shop s,Ġ
func tionĠandĠ
cent re
cent reĠ
cent uryĠ
hom el
hom et
mus cl
.ĠR ec
organiz ationalĠ
De annaĠ
aut inoĠ
win n
win nerĠ
ensi v
ques tions,Ġ
too thĠ
too !Ġ
compan ies,Ġ
sw ab
sw ag
sign al
sign ature
Br id
Br az
lat er
teamĠ willĠbeĠ
ific ationĠ
moreĠthanĠ theĠ
moreĠthanĠ aĠ
esĠareĠ notĠ
usedĠ asĠaĠ
.ĠTheyĠ haveĠ
mod ern
priv ileg
pleas antĠ
worldĠ ofĠ
din ner,Ġ
fur ther
hi jackerĠ
lastĠ yearĠ
lastĠ weekĠ
itâĢĻsĠ theĠ
itâĢĻsĠ notĠ
cover ingĠ
ifĠyouĠ needĠ
cal mĠ
thingsĠ likeĠ
toĠre adĠ
.ĠButĠ theĠ
LĠ Rah
saf e
saf elyĠ
âĢĺ sĠ
Li k
Li ber
18 6
eĠisĠ performedĠbyĠ
clos ingĠ
clos estĠ
websit e,Ġ
pri z
wouldĠbeĠ theĠ
fron tĠofĠtheĠ
offerĠ aĠ
nextĠ toĠtheĠ
condi tionalĠ
condi tions,Ġ
open -
open sĠ
ben chĠ
pi xelĠ
tonĠ andĠ
Qu int
Qu een
dem ographic
hear tĠandĠ
vo ic
ori es
lef t
interest edĠinĠtheĠ
areaĠ ofĠ
pow er,Ġ
alongĠ withĠtheĠ
shouldĠbeĠ aĠ
videoĠ andĠ
meet ingsĠ
feature sĠaĠ
AutoĠS al
solu tions,Ġ
not e,Ġ
pat r
extr aĠs
hour sĠofĠ
beauti ful
hardĠ work
seas on,Ġ
health yĠandĠ
today .
.ĠYouĠcanĠ findĠ
photo sĠandĠ
aim sĠtoĠ
aim ĠtoĠ
defin edĠ
ĠB utĠ
say ingĠ
ĠG BĠofĠ
accoun tingĠ
effec tsĠofĠ
pay ingĠtheĠ
pay ment
WhenĠ youĠ
RE EĠ
doc t
pain ,Ġ
pain tedĠ
rac ialĠ
rac istĠ
whyĠ notĠ
prot ectingĠ
consum ingĠ
knownĠ asĠtheĠ
donâĢĻtĠ wantĠtoĠ
bor row
point ,Ġ
pass ingĠ
.ĠâĢľ TheĠ
.ĠâĢľ TheyĠ
,ĠwhichĠ wasĠ
conf ession
accessĠ theĠ
quiteĠ aĠfewĠ
wal ksĠ
pop -upĠ
war r
war ningĠ
inĠthisĠ episod
.ĠSheĠ wasĠ
checkĠ outĠtheĠ
gam e
ten anceĠ
shar ingĠ
shar edĠ
s.ĠH owever,ĠtheĠ
memberĠ ofĠ
ĠD oĠ
aĠlo t
hav e,Ġ
conven tionĠ
conven tionsĠ
conven tionalĠ
moneyĠ onĠ
bal lotĠ
hon ey
educ ationĠandĠ
fund raisingĠ
ste eringĠ
hop eĠtoĠ
spr ing
spr ing,Ġ
contain erĠ
seem sĠtoĠbeĠ
secur ityĠofĠ
purpos eĠandĠ
larg elyĠ
guid edĠ
camer as
Cr yst
We 'veĠ
book s,Ġ
Min istr
aur ici
sun Ġ
roll edĠ
And yĠ
Engl ish
comesĠ withĠ
comesĠ fromĠ
meas uringĠ
.ĠThereĠareĠ twoĠ
privateĠ cloudĠ
Ger manyĠ
cell sĠ
hold ingĠ
hold erĠ
imag e,Ġ
imag ineĠ
def enseĠ
someoneĠ elseĠ
whetherĠ orĠ
lic h
s.ĠA llĠ
invol veĠ
professionalĠ andĠ
Commun ic
bat smanĠ
van itiesĠ
s.ĠM usicĠ
appear anceĠ
polic y
17 7
fast ingĠ
gn up
right ,Ġ
identi fiedĠ
IĠwasĠ ableĠtoĠ
thre sh
40 6
found erĠ
him selfĠ
him self
e.ĠH owĠ
claim ingĠ
energ y
regard ingĠtheĠ
histor icalĠ
writ esĠ
mil dĠ
ectsĠ theĠ
feel ingĠofĠ
helpĠyouĠ saveĠ
though t
arti clesĠ
Indi aĠ
Indi a,Ġ
.ĠWhenĠ theĠ
strateg yĠtoĠ
goingĠ onĠ
Ste veĠ
pag e
ru gĠ
pas sportĠ
initi allyĠ
liv es,Ġ
liv esĠofĠ
createdĠ theĠ
volunte eringĠ
Cor n
TH EĠ
TH ISĠ
pen altyĠ
ary /
report edĠ
report edĠthatĠ
ace u
you'llĠ beĠableĠtoĠ
forc edĠ
forc esĠ
membersĠ ofĠtheĠ
takenĠ byĠ
Sh ow
Or iginalĠ
pan ish
devic e,Ġ
ĠmillionĠ andĠ
Regi str
Servic e.Ġ
author itiesĠ
author izedĠ
gar ageĠ
tast yĠ
ux uryĠ
high- endĠ
high- qualityĠ
tookĠ theĠ
analys is,Ġ
perfectĠ forĠ
resist antĠ
releas edĠ
releas eĠofĠ
record sĠ
answ er
practic esĠ
lowerĠ thanĠ
evid enc
evid enceĠofĠ
competi tionĠ
competi tor
.ĠAfterĠ theĠ
bott lesĠ
colorĠ schem
deliver y
Am azonĠ
clim b
less on
respec tĠ
step sĠtoĠ
estim atesĠ
consul tingĠ
earn edĠherĠ
Bo ard
hum m
onlin eĠandĠ
what 'sĠ
suit edĠforĠ
soĠmuchĠ forĠ
follow ingĠtheĠ
piec eĠofĠ
Ġyear s,Ġ
ins ightĠ
ins ect
ofĠS UMOĠAffili
attr act
entr um
second aryĠ
decor atedĠ
buyĠ aĠ
cameĠ inĠ
past aĠ
ĠTh atĠ
ĠTh eyĠ
heav ilyĠ
followĠ theĠ
mobileĠ devic
sil verĠ
Â® ,
Ġminut es,Ġ
onĠS aturdayĠ
appoint ment
model sĠ
premi erĠ
scen eĠ
build ingĠandĠ
âĢĻllĠ beĠ
GPLA C
regularĠ workingĠhour
pul lĠ
.ĠWe âĢĻreĠ
firm lyĠ
area .ĠTheĠ
distri but
licens eĠ
Pal oĠAl
Pal lot,Ġ
Wat erĠ
tit leĠ
altern ateĠ
leaveĠ yourĠ
viol entĠ
sym bol
analy zeĠ
medicalĠ mal
concern ingĠtheĠ
method sĠofĠ
Vi ol
fab ulousĠ
find sĠ
pin nerĠ
easi er
easi erĠ
Spec trumĠ
,ĠO akridgeĠ
isĠthatĠ itĠ
trackĠ andĠ
introduc edĠ
introduc toryĠ
exactlyĠ whatĠ
boardĠ andĠ
God d
IS P
stic kĠtoĠ
reach esĠ
plann edĠ
plann ingĠtoĠ
plann ing,Ġ
.ĠThatĠ isĠ
resourc esĠ
streng thĠ
streng thĠandĠ
decisionĠ toĠ
customerĠ serviceĠ
control ,Ġ
supplyĠ chain
patientsĠ withĠ
NorthĠ PalmĠ
Tw oĠ
hearĠ theĠ
mid stĠ
stop p
evalu ationĠ
achiev ementĠ
echn ologyĠ
ideasĠ andĠ
domin ion
ich ,Ġ
ich atĠ
positiveĠ andĠ
regist eredĠ
.ĠOnceĠ theĠ
Mo vie
ipl esĠofĠ
jus tifi
painĠ andĠ
wall paper
chem istryĠ
email ,Ġ
switchĠ toĠtheĠ
German y,Ġ
German watchĠ
Ru thĠandĠ
TA IN
emerg ingĠ
reserv esĠtheĠ
access oriesĠ
.ĠOnĠ theĠ
CP U
CP IĠ
Mus ic
Mus kegonĠ
Pat r
jud gment
arch iv
consist sĠofĠ
acces sib
helpedĠ meĠ
Associ ationĠ
Jes us
UN Ġ
behavi or
Mendoz aâĢĻsĠ
canc ell
vil leĠ
wis sĠ
wis eĠtoĠ
rollĠ offĠ
s.ĠP leaseĠ
selectĠ theĠ
.ĠByĠ theĠ
information,Ġ photos
heatĠs ink
gather ingĠ
lab orĠ
lay erĠ
satis fi
.ĠUn der
orĠofĠ ArtsĠ
bey ond
connectĠ withĠ
?? ?
SanĠ DiegoĠ
hus band
dish esĠ
compens ableĠ
Char ter
Char lesĠ
appli edĠtoĠ
advent ur
advent ure
promo tionĠ
determineĠ theĠ
Sk yĠ
onic sĠ
chr omeĠ
chr onic
proudĠ ofĠ
upgrad edĠ
aĠsec ond
Real tor
Real torsĠ
surg eryĠ
respons eĠtoĠ
Depart mentĠ
retail ĠandĠ
Sec ret
YOU RĠ
pal ett
ane ousĠ
wir ingĠ
sustain abilityĠ
shel fĠ
isĠaĠgreatĠ wayĠtoĠ
attorne yĠ
talkĠ aboutĠ
physici ansĠ
even thĠ
Vir gin
Wed dingĠ
sha k
admini strationĠ
bodi esĠ
discover edĠ
PartyĠ Design
.ĠNo te:Ġ
explain sĠ
activiti esĠandĠ
concep tĠofĠ
Govern mentĠ
Govern mentĠofĠ
push ingĠ
guar di
attemp tingĠtoĠ
workedĠ asĠaĠ
.ĠEvenĠ thoughĠ
ArtsĠ Council
setĠupĠ aĠ
Offic eĠofĠ
vintageĠ makeupĠ
adap tiveĠ
!ĠS oĠ
obvi ouslyĠ
volum e,Ġ
Drag on
involv edĠinĠ
Special istĠ
Cal edonianĠ
Dani elĠ
UP DAĠ
tab ĠandĠ
Ġk mĠ
wher e,Ġ
trail erĠ
pray erĠ
withĠaĠgradeĠofĠ CĠ
athlet eĠ
registr ation
Lead ershipĠ
Represent ativeĠ
foot ballĠ
DietaryĠAideĠ resumeĠ
beyondĠ theĠ
elimin ateĠ
Hor vath
aheadĠ ofĠ
bill board
reve aledĠ
The at
confl ic
connec tionsĠ
shiel dĠ
.ĠAm ongĠ
meantĠ toĠ
inten tionallyĠ
cryptocurr enciesĠ
glit terĠ
sensorsĠ (e.g
Andre w
Organ iz
-monthĠ low
Publ icĠ
Tel e
Victori aĠ
rim pĠ
refresh ingĠ
adop tedĠ
entryĠ wasĠpost
.ĠBe foreĠ
Star burstĠ
Group ,Ġ
ballo on
accommod ateĠ
Cer tifiedĠ
OrangeĠ CountyĠ
Pre mi
nur singĠ
yĠB ambooĠ
agar woodĠ
opin ionĠ
click ,Ġ
dep thĠ
dead lin
desir eĠtoĠ
engageĠ inĠ
corpor ationsĠ
YukonĠX L
Wednes day,Ġ
stackableĠwasherĠdryerĠ reviewsĠ
Life RE
Bachel orĠofĠArtsĠ
Jap anĠ
Let âĢĻsĠ
Marg eryĠ
Oak landĠ
Olym pic
Revi ew
Tre at
dut yĠ
smo keĠ
vit amin
yr t
statis ticsĠ
ung sz
trig gerĠ
weal thĠofĠ
offici allyĠ
veget abl
cry st
softw are
involvedĠ inĠtheĠ
liter allyĠ
.A .Ġ
Main tenanceĠ
middleĠ ofĠtheĠ
restric tionĠ
quanti tativeĠ
version sĠofĠ
.ĠSh ouldĠ
despiteĠ theĠ
Contin ueĠ
magaz in
magaz ineĠ
renew edĠ
agreeĠthatĠ 'NetworkĠAutoĠSource,ĠInc.Ġ'Ġ
Att ackĠ
Boo tĠ
Pakist aniĠ
PixelĠ PartyĠDesign
fem aleĠ
gro cer
ÂĹ Ġ
erĠS w
isc alĠ
ched u
compos edĠofĠ
appar entlyĠ
pren eur
pren uptialĠ
gott enĠ
ignitionĠ switch
inclus iveĠ
correspond entĠ
Degre eĠinĠ
Univ .Ġ
navig ationĠ
rawĠm ateri
third- partyĠ
She etĠ
FatherĠ LeahyĠ
Hist or
Id enti
Iguaz ioĠ
Mexic anĠ
Rhe aĠ
Roll edĠ
bsĠ FinancialĠ
nomin atedĠ
rus ticĠ
ingredi ent
atĠanyĠ timeĠ
adequ ateĠ
?ĠIsĠ itĠ
Comptroll erĠ
theĠcour tĠ
Alber gueĠ
curricul umĠ
freez erĠ
Libr aryĠ
cylind ricalĠ
.ĠKind leĠ
rock hamĠ
respectiv ely
Twit terĠ
Perform anceĠ
APĠF ICOĠ
psych ologicalĠ
.ĠBEĠITĠENACTED,Ġ ThatĠ
.ĠBEĠITĠENACTED,Ġ ThatĠtheĠ
Book caseĠ
Hen anĠ
Mach iavelli
Por sch
RS SĠ
wild lifeĠ
Ã³ nĠ
omet ricĠ
escap eĠ
absor b
haven âĢĻtĠ
diabet esĠ
notedĠ thatĠ
evergreenĠ contentĠ
ĠAp rĠ
aĠbre akĠ
Adv ancedĠ
Exam plesĠ
Resid entialĠ
promin entĠ
layou tĠ
calend arĠ
foodĠprepar ationĠ
scienc e-interestedĠ
photograp herĠ
participatingĠ inĠ
Guide bookĠ
immigr ationĠ
incorpor atedĠ
emphasisĠ onĠ
Aut om
Hosp ital
Imag ineĠ
MaxĠ Collin
Ob j
Ol entangyĠ
Sab bathĠ
UV 'sĠ
eetĠ inĠtheĠlobbyĠ
erĠResumeĠ ExamplesĠ
academ icĠ
.ĠThank fully,Ġ
liableĠ forĠanyĠ
ulti pleĠ
pref erĠtoĠ
intens ityĠ
mostĠimport antlyĠ
theĠcostĠ ofĠ
Trail ĠC
Proc ess
Franc isĠ
theĠlarg estĠ
muse umĠ
letĠusĠ knowĠ
Anders onĠ
regardlessĠ ofĠ
handĠgest uresĠ
IndigenousĠChap terĠ
pocketĠ watchĠ
ehicleĠ advertisingĠ
Tahlequah,ĠO klahom
Drop boxĠ
Jord anĠBar
JÃ¼ lich
Merc ed
OCH R
Veg et
Ġ.. /
rew ĠM
ickn essĠ
adol es
forem ostĠ
grat ul
avoc adoĠ
pharm aceu
Proj ectĠ
universi tiesĠ
Ġ*ĠMakefile. amĠ(
retro spec
Neolith icĠ
hospit al,Ġ
dealerĠ marketingĠ
configuredĠ toĠ
ĠCredits.ĠPrerequisite:Ġ BIOĠ
á»ĻiĠAnĠSens eĠisĠ
Profession alĠ
HateĠ CrimeĠ
Ty pe
Tyl erĠSw
Tamar ind
WIL LĠ
fal seĠ
jan .
rand omĠ
shookĠ herĠ
grate fulĠ
include :Ġ
desk topĠ
producedĠbyĠ ArcadeĠ
Stut tg
couns elĠ
Audi ĠA
domes ticĠ
airĠcondition ingĠ
civ ilĠ
mixĠ ofĠ
Suz anneĠC
DisputeĠ ResolutionĠ
iobuf _
chemic alsĠ
Volk swag
Febru ary,Ġ
.ĠPlayĠOnĠWord sĠisĠ
glitteryĠ wineĠ
newspap erĠ
Vietnam eseĠ
MOSF ETĠ
-value =
BIC ScĠ
Cad fa
Eure kaĠS
Pink freshĠ
Sa ig
Wol f
ss enti
onstruc tion
retri ev
abdom inalĠ
whel m
superi orĠ
moreĠlik esĠthanĠ
phil os
.ĠBel owĠ
beter reĠ
.ĠTakenĠ fromĠ
ĠSERVIC EĠ
ĠAcur asĠ
regardĠ toĠ
equi valentĠ
Frank fur
Ġ*Ġtty io
maguluĠwat ahĠ
intellect ualĠ
FreeĠDown loadsĠ
Robert sonĠ
veloc ityĠ
ðŁĻĤĠH opeĠ
ing-gampang.blogspot .com
%CIĠ =Ġ
(b )Ġ
Full er
Gha zz
Grip perĠ
Oax ac
Rug byĠ
VicĠ Horvath
Zak yn
burr it
up-to- dateĠ
âĢľForsch ungsz
ingsĠXIĠ Punj
ĠServiceĠ MaintenanceĠ
Gramp ianĠ
%ĠfavorableĠ vs.Ġ
%Ġunfavor able
on,ĠAnnieĠL epage,Ġ
eĠisĠperformedĠbyĠ VicĠHorvath
inĠthisĠepisod eĠisĠperformedĠbyĠVicĠHorvath
Ministr yĠofĠ
s.ĠMusicĠ inĠthisĠepisodeĠisĠperformedĠbyĠVicĠHorvath
Pallot,Ġ JordanĠBar
medicalĠmal practiceĠ
information,Ġphotos ,ĠorĠdataĠ
science-interestedĠ student
MaxĠCollin s.ĠMusicĠinĠthisĠepisodeĠisĠperformedĠbyĠVicĠHorvath
producedĠbyĠArcadeĠ Pallot,ĠJordanĠBar
SuzanneĠC he
EurekaĠS pringsĠ
âĢľForschungsz entrum
producedĠbyĠArcadeĠPallot,ĠJordanĠBar on,ĠAnnieĠLepage,Ġ
S ummerĠ
V intageĠ
isĠ stillĠ
atĠ aĠl
is on
s>Ġ OurĠ
de e
ĠĠĠĠĠĠĠĠĠĠĠĠĠĠĠĠĠĠĠĠĠĠĠĠĠĠĠĠĠĠĠĠĠĠĠĠĠĠĠĠĠĠĠĠĠĠĠĠĠĠĠĠĠĠĠĠĠĠĠĠĠĠĠĠĠĠĠĠĠĠĠĠĠĠĠĠĠĠĠĠĠĠĠĠĠĠĠĠĠĠĠĠĠĠĠĠĠĠĠĠĠĠĠĠĠĠĠĠĠĠĠĠĠĠĠĠĠĠĠĠĠĠĠĠĠĠĠĠĠĠĠĠĠĠĠĠĠĠĠĠĠĠĠĠĠĠĠĠĠĠĠĠĠĠĠĠĠĠĠĠĠĠĠĠĠĠĠĠĠĠĠĠĠĠĠĠĠĠĠĠĠĠĠĠĠĠĠĠĠĠĠĠĠĠĠĠĠĠĠĠĠĠĠĠĠĠĠĠĠĠĠĠĠĠĠĠĠĠĠĠĠĠĠĠĠĠĠĠĠĠĠĠĠĠĠĠĠĠĠĠĠĠĠĠĠĠĠĠĠĠĠĠĠĠĠĠĠĠĠĠĠĠĠĠĠĠĠĠĠĠĠĠĠĠĠĠĠĠĠĠĠĠĠĠĠĠĠĠĠĠĠĠĠĠĠĠĠĠĠĠĠĠĠĠĠĠĠĠĠĠĠĠĠĠĠĠĠĠĠĠĠĠĠĠĠĠĠĠĠĠĠĠĠĠĠĠĠĠĠĠĠĠĠĠĠĠĠĠĠĠĠĠĠĠĠĠĠĠĠĠĠĠĠĠĠĠĠĠĠĠĠĠĠĠĠĠĠĠĠĠĠĠĠĠĠĠĠĠĠĠĠĠĠĠĠĠĠĠĠĠĠĠĠĠĠĠĠĠĠĠĠĠĠĠĠĠĠĠĠĠĠĠĠĠĠĠĠĠĠĠĠĠĠĠĠĠĠĠĠĠĠĠĠĠĠĠĠĠĠĠĠĠĠĠĠĠĠĠĠĠĠĠĠĠĠĠĠĠĠĠĠĠĠĠĠĠĠĠĠĠĠĠĠĠĠĠĠĠĠĠĠĠĠĠĠĠĠĠĠĠĠĠĠĠĠĠĠĠĠĠĠĠĠĠĠĠĠĠĠĠĠĠĠĠĠĠĠĠĠĠĠĠĠĠĠĠĠĠĠĠĠĠĠĠĠĠĠĠĠĠĠĠĠĠĠĠĠĠĠĠĠĠĠĠĠĠĠĠĠĠĠĠĠĠĠĠĠĠĠĠĠĠĠĠĠĠĠĠĠĠĠĠĠĠĠĠĠĠĠĠĠĠĠĠĠĠĠĠĠĠĠĠĠĠĠĠĠĠĠĠĠĠĠĠĠĠĠĠĠĠĠĠĠĠĠĠĠĠĠĠĠĠĠĠĠĠĠĠĠĠĠĠĠĠĠĠĠĠĠĠĠĠĠĠĠĠĠĠĠĠĠĠĠĠĠĠĠĠĠĠĠĠĠĠĠĠĠĠĠĠĠĠĠĠĠĠĠĠĠĠĠĠĠĠĠĠĠĠĠĠĠĠĠĠĠĠĠĠĠĠĠĠĠĠĠĠĠĠĠĠĠĠĠĠĠĠĠĠĠĠĠĠĠĠĠĠĠĠĠĠĠĠĠĠĠĠĠĠĠĠĠĠĠĠĠĠĠĠĠĠĠĠĠĠĠĠĠĠĠĠĠĠĠĠĠĠĠĠĠĠĠĠĠĠĠĠĠĠĠĠĠĠĠĠĠĠĠĠĠĠĠĠĠĠĠĠĠĠĠĠĠĠĠĠĠĠĠĠĠĠĠĠĠĠĠĠĠĠĠĠĠĠĠĠĠĠĠĠĠĠĠĠĠĠĠĠĠĠĠĠĠĠĠĠĠĠĠĠĠĠĠĠĠĠĠĠĠĠĠĠĠĠĠĠĠĠĠĠĠĠĠĠĠĠĠĠĠĠĠĠĠĠĠĠĠĠĠĠĠĠĠĠĠĠĠĠĠĠĠĠĠĠĠĠĠĠĠĠĠĠĠĠĠĠĠĠĠĠĠĠĠĠĠĠĠĠĠĠĠĠĠĠĠĠĠĠĠĠĠĠĠĠĠĠĠĠĠĠĠĠĠĠĠĠĠĠĠĠĠĠĠĠĠĠĠĠĠĠĠĠĠĠĠĠĠĠĠĠĠĠĠĠĠĠĠĠĠĠĠĠĠĠĠĠĠĠĠĠĠĠĠĠĠĠĠĠĠĠĠĠĠĠĠĠĠĠĠĠĠĠĠĠĠĠĠĠĠĠĠĠĠĠĠĠĠĠĠĠĠĠĠĠĠĠĠĠĠĠĠĠĠĠĠĠĠĠĠĠĠĠĠĠĠĠĠĠĠĠĠĠĠĠĠĠĠĠĠĠĠĠĠĠĠĠĠĠĠĠĠĠĠĠĠĠĠĠĠĠĠĠĠĠĠĠĠĠĠĠĠĠĠĠĠĠĠĠĠĠĠĠĠĠĠĠĠĠĠĠĠĠĠĠĠĠĠĠĠĠĠĠĠĠĠĠĠĠĠĠĠĠĠĠĠĠĠĠĠĠĠĠĠĠĠĠĠĠĠĠĠĠĠĠĠĠĠĠĠĠĠĠĠĠĠĠĠĠĠĠĠĠĠĠĠĠĠĠĠĠĠĠĠĠĠĠĠĠĠĠĠĠĠĠĠĠĠĠĠĠĠĠĠĠĠĠĠĠĠĠĠĠĠĠĠĠĠĠĠĠĠĠĠĠĠĠĠĠĠĠĠĠĠĠĠĠĠĠĠĠĠĠĠĠĠĠĠĠĠĠĠĠĠĠĠĠĠĠĠĠĠĠĠĠĠĠĠĠĠĠĠĠĠĠĠĠĠĠĠĠĠĠĠĠĠĠĠĠĠĠĠĠĠĠĠĠĠĠĠĠĠĠĠĠĠĠĠĠĠĠĠĠĠĠĠĠĠĠĠĠĠĠĠĠĠĠĠĠĠĠĠĠĠĠĠĠĠĠĠĠĠĠĠĠĠĠĠĠĠĠĠĠĠĠĠĠĠĠĠĠĠĠĠĠĠĠĠĠĠĠĠĠĠĠĠĠĠĠĠĠĠĠĠĠĠĠĠĠĠĠĠĠĠĠĠĠĠĠĠĠĠĠĠĠĠĠĠĠĠĠĠĠĠĠĠĠĠĠĠĠĠĠĠĠĠĠĠĠĠĠĠĠĠĠĠĠĠĠĠĠĠĠĠĠĠĠĠĠĠĠĠĠĠĠĠĠĠĠĠĠĠĠĠĠĠĠĠĠĠĠĠĠĠĠĠĠĠĠĠĠĠĠĠĠĠĠĠĠĠĠĠĠĠĠĠĠĠĠĠĠĠĠĠĠĠĠĠĠĠĠĠĠĠĠĠĠĠĠĠĠĠĠĠĠĠĠĠĠĠĠĠĠĠĠĠĠĠĠĠĠĠĠĠĠĠĠĠĠĠĠĠĠĠĠĠĠĠĠĠĠĠĠĠĠĠĠĠĠĠĠĠĠĠĠĠĠĠĠĠĠĠĠĠĠĠĠĠĠĠĠĠĠĠĠĠĠĠĠĠĠĠĠĠĠĠĠĠĠĠĠĠĠĠĠĠĠĠĠĠĠĠĠĠĠĠĠĠĠĠĠĠĠĠĠĠĠĠĠĠĠĠĠĠĠĠĠĠĠĠĠĠĠĠĠĠĠĠĠĠĠĠĠĠĠĠĠĠĠĠĠĠĠĠĠĠĠĠĠĠĠĠĠĠĠĠĠĠĠĠĠĠĠĠĠĠĠĠĠĠĠĠĠĠĠĠĠĠĠĠĠĠĠĠĠĠĠĠĠĠĠĠĠĠĠĠĠĠĠĠĠĠĠĠĠĠĠĠĠĠĠĠĠĠĠĠĠĠĠĠĠĠĠĠĠĠĠĠĠĠĠĠĠĠĠĠĠĠĠĠĠĠĠĠĠĠĠĠĠĠĠĠĠĠĠĠĠĠĠĠĠĠĠĠĠĠĠĠĠĠĠĠĠĠĠĠĠĠĠĠĠĠĠĠĠĠĠĠĠĠĠĠĠĠĠĠĠĠĠĠĠĠĠĠĠĠĠĠĠĠĠĠĠĠĠĠĠĠĠĠĠĠĠĠĠĠĠĠĠĠĠĠĠĠĠĠĠĠĠĠĠĠĠĠĠĠĠĠĠĠĠĠĠĠĠĠĠĠĠĠĠĠĠĠĠĠĠĠĠĠĠĠĠĠĠĠĠĠĠĠĠĠĠĠĠĠĠĠĠĠĠĠĠĠĠĠĠĠĠĠĠĠĠĠĠĠĠĠĠĠĠĠĠĠĠĠĠĠĠĠĠĠĠĠĠĠĠĠĠĠĠĠĠĠĠĠĠĠĠĠĠĠĠĠĠĠĠĠĠĠĠĠĠĠĠĠĠĠĠĠĠĠĠĠĠĠĠĠĠĠĠĠĠĠĠĠĠĠĠĠĠ ĠĠĠĠĠĠĠĠĠĠĠĠĠĠĠĠĠĠĠĠĠĠĠĠĠĠĠĠĠĠĠĠĠĠĠĠĠĠĠĠĠĠĠĠĠĠĠĠĠĠĠĠĠĠĠĠĠĠĠĠĠĠĠĠĠĠĠĠĠĠĠĠĠĠĠĠĠĠĠĠĠĠĠĠĠĠĠĠĠĠĠĠĠĠĠĠĠĠĠĠĠĠĠĠĠĠĠĠĠĠĠĠĠĠĠĠĠĠĠĠĠĠĠĠĠĠĠĠ
TheĠ C
Ġ<s>Ġ OurĠ
ach tĠ
high er
inst antĠ
Cl oudĠ
Hol iday
ran ksĠ
ThereĠ isĠaĠ
Volunte erĠ
Bibl icalĠ
Fis hel
! ),
( K
( N
( s
( inĠ
( II
( ICESĠ
( Berkel
* .
, '
- fi
- wideĠ
- styleĠ
- relatedĠ
. D
. K
. ).
1 30
5 25
6 7
7 2
7 3
7 85
8 34
; ;
A f
A w
A y
A pr
A CĠ
A TĠ
A post
A ,ĠM
A then
A ffili
A rizon
B H
B U
B y
B il
B enĠ
B ap
B eg
B ath
B ask
B ush
B road
B irming
C L
C M
C a
C areĠ
C all
C ard
C anc
C row
C ari
C od
C EĠ
C ON
C ult
C edarĠ
D C
D or
D onĠ
D ir
D ash
D ay,Ġ
E t
E ,Ġ
E ar
E lĠ
E le
E ast
E tow
F F
F i
F ed
F ix
F ake
F armĠ
F estivalĠ
F lanag
F alcon
F UV'sĠ
G -
G R
G oldĠ
G ov
G ate
H Ġ
H ad
H ear
H and
H appyĠ
H IV
H IGH
H awai
I B
I RĠ
I TH
I AP
J Ġ
J un
J ob
J azz
K B
K n
K o
K ingĠ
K ĠA
K athyĠ
K ingsĠXIĠPunj
L astĠ
L istĠ
L TĠ
L UN
L GB
M G
M ari
M ath
M emberĠ
M UP
M ENT
M emorialĠ
N E
N L
N i
N ig
N ord
N ot
N everĠ
N ath
N OĠ
N ik
N ES
O k
O ri
O verĠ
O pen
P I
P os
P A,Ġ
P enn
P OL
P yth
P ersonalĠ
Q U
R ot
R og
R SĠ
S w
S on
S en
S ha
S ign
S SĠ
S eng
S hop
S olu
S portsĠ
S GĠM
S atyamevĠSuryaĠ
S wissĠ
T P
T S
T ic
T own
T owerĠ
T reas
T empl
T ank
U ti
U CS
U bsĠFinancialĠ
V is
V isionĠ
V ER
W C
W ay
W AR
X M
Y e
Y el
Y oun
Y ah
Y ellowĠ
Z e
Z ep
a a
a toĠ
a icĠ
a .ĠHeĠ
b orĠ
b be
b akeĠ
b und
b read
b edĠandĠ
b itingĠ
b and,Ġ
b icy
b everageĠ
c m
c onĠ
c atĠ
c ab
c owĠ
c ure
c eas
c ust
c ann
c upĠofĠ
d aĠ
d ad
d ab
d arĠ
d aleĠ
d temp
e or
e esĠ
e av
e urĠ
e Rul
f earĠ
f tenĠ
f oughtĠ
f asc
f ewerĠ
f iscalĠ
g inĠ
g ad
g res
g our
g rip
g fc
g rossĠ
g utÂŃ
h yĠ
h aĠ
h il
h ob
h er,Ġ
h att
h opĠ
h ug
h iredĠ
i b
i tion
i ff
i pleĠ
i es.ĠTheĠ
i aĠandĠ
j c
j i
j ar
j Ã¶
k anĠ
k itĠ
k ne
k ip
l ak
l oun
l ant
l ishĠ
l edĠwithĠ
l adi
l abor
l ay,Ġ
l emonĠ
l aug
m sĠ
m ,Ġ
m es
m ur
m eĠofĠ
m ast
m idĠ
m ous
m illionĠ
m illingĠ
n alĠ
n etĠ
n ishĠ
n ailĠ
n one
n ucle
o oĠ
o omĠ
o sĠandĠ
o chĠ
p .
p it
p ig
p enĠ
p edĠwithĠ
p pingĠ
p itchĠ
r ati
r ay
r av
r yĠandĠ
r hy
r awĠ
s '
s yĠ
s âĢĿĠ
s .ĠTheseĠ
s .ĠIt'sĠ
s ;ĠandĠ
s ampleĠ
s oughtĠtoĠ
t wi
t lyĠ
t ed
t ag
t omĠ
t ,ĠandĠ
t ailĠ
t agĠ
u ousĠ
v Ġ
v or
v anĠ
w et
x m
x x
y o
y et
y ingĠaĠ
y .ĠC
y woodĠ
| Ġ
¿ ½
Â »
Â ©Ġ
í ķ
ï ¿½
Ġ I
Ġ l
Ġ s
Ġ v
Ġ alsoĠ
Ġ An
Ġ thenĠ
Ġ byĠtheĠ
Ġ runĠ
Ġ whichĠisĠ
Ġ daysĠ
Ġ http
Ġ WhileĠ
Ġ hoursĠ
Ġ UseĠ
eĠ B
eĠ orĠ
sĠ allĠ
sĠ aboutĠ
sĠ Com
sĠ onlyĠ
sĠ betweenĠ
sĠ behindĠ
th enceĠ
th riv
in et
in ev
in s,Ġ
in di
in xĠ
in e-
in habit
tĠ aĠ
an a
an or
an oĠ
an s.Ġ
an ,ĠandĠ
er /
er o
er lyĠ
er ceĠ
er y,Ġ
er yĠandĠ
er .ĠD
er s.
er tific
on .
on zeĠ
or .
or e,Ġ
or 'sĠ
or ousĠ
or ill
or enz
en eĠ
en ni
en larg
en nes
en omen
en compass
.Ġ Z
.Ġ 'NetworkĠAutoĠSource,ĠInc.Ġ'Ġ
ou redĠ
,Ġ H
,Ġ J
,Ġ V
,Ġ etĠ
,Ġ ourĠ
,Ġ notĠ
,Ġ sheĠ
,Ġ Di
,Ġ itâĢĻsĠ
,Ġ clickĠ
,Ġ itĠwasĠ
theĠ B
theĠ per
theĠ fullĠ
theĠ endĠofĠ
theĠ abilityĠtoĠ
ar onĠ
ar et
ar li
ar tĠandĠ
ar rest
ar riveĠ
ti erĠ
al on
al is
al ur
al kĠ
al tim
al ,ĠandĠ
al way
al so
al izeĠ
ing sĠofĠ
ing er,Ġ
ing .ĠSheĠ
re yĠ
re fr
re mark
re actionĠ
re turningĠ
re venueĠ
re plic
re ar-
andĠ isĠ
andĠ canĠ
andĠ weĠ
andĠ itsĠ
andĠ whatĠ
ingĠ herĠ
ingĠ throughĠ
ingĠ inĠaĠ
ingĠ forĠaĠ
ingĠ system
toĠ theirĠ
toĠ learnĠ
toĠ allowĠ
toĠ driveĠ
toĠ buildĠ
toĠ attendĠ
toĠ collectĠ
aĠ -Ġ
aĠ highĠ
aĠ partĠofĠ
aĠ personĠ
aĠ commonĠ
aĠ particularĠ
edĠ meĠ
edĠ himĠ
ofĠ suchĠ
ofĠ twoĠ
ofĠ GodĠ
ofĠ stageĠ
st om
st ati
st ol
st ag
st ak
st ation
st ownĠ
st ump
st amp
st ere
st agĠ
st unn
om e,Ġ
erĠ whoĠ
onĠ T
onĠ howĠ
onĠ sal
onĠ JanuaryĠ
onĠ SundayĠ
onĠ Friday
onĠ deĠK
es _
es k
es .ĠH
es .ĠE
es .ĠL
es .ĠR
es .ĠButĠ
es .ĠItĠisĠ
es .ĠWhatĠ
at .Ġ
at al
at tribut
ic oĠ
ic ro
ic ha
ic y,Ġ
ic hel
ic onicĠ
ic rob
orĠ (
orĠ forĠ
orĠ yourĠ
orĠ herĠ
orĠ anyĠotherĠ
isĠ oneĠ
isĠ noĠ
isĠ setĠ
isĠ great
isĠ goingĠtoĠ
isĠ designedĠtoĠ
inĠ otherĠ
inĠ noĠ
inĠ fullĠ
inĠ mind
inĠ variousĠ
inĠ NorthĠ
inĠ Port
inĠ additionĠtoĠ
inĠ Ken
el edĠ
el ph
el y.ĠTheĠ
el comeĠtoĠ
el inesĠ
el graveĠ
it ationĠ
it sĠandĠ
it ageĠ
it orsĠ
it ation,Ġ
it eri
il verĠ
il legalĠ
ro li
ro pol
ac he
ac redĠ
you 'dĠ
atĠ thatĠ
atĠ hisĠ
atĠ whatĠ
atĠ Read
atĠ Kohli
ec id
ec astĠ
ec auseĠofĠ
as ail
as ideĠ
as ci
as parag
is /
is sĠ
alĠ sar
alĠ Partn
ati bleĠ
anĠ e
anĠ im
anĠ end
anĠ importantĠ
anĠ orderĠ
anĠ increaseĠ
anĠ individualĠ
asĠ itĠisĠ
ow -
ow sĠandĠ
ow sĠinĠ
ch .ĠTheĠ
ch op
ch ip
pl c
pl as
pl us
pl ashĠ
Th ail
Th ankĠyouĠ
us anĠ
us ion
us ers
us esĠtheĠ
forĠ whichĠ
forĠ herĠ
forĠ meĠ
forĠ everyĠ
forĠ moreĠthanĠ
wi peĠ
am o
am ityĠ
am endedĠ
am aĠG
ur n
em power
ol lyĠ
et yĠ
et edĠ
et ri
et sĠareĠ
et teĠ
ad e
ad s,Ġ
ad a,Ġ
ad o,Ġ
ad eckĠ
ab ri
ab useĠ
ab ulousĠ
id en
ent on
pro p
pro s
pro beĠ
un toĠ
un necessaryĠ
un installĠ
lyĠ afterĠ
youĠ wereĠ
youĠ hadĠ
youĠ takeĠ
youĠ want
youĠ knowĠthatĠ
withĠ S
withĠ overĠ
withĠ everythingĠ
thatĠ ourĠ
thatĠ couldĠ
thatĠ itĠisĠ
thatĠ haveĠbeenĠ
thatĠ you'reĠ
thatĠ mustĠbeĠ
ed oĠ
ed .ĠIfĠ
ed .ĠO
ed .ĠAĠ
ed ingsĠofĠtheĠ
ag e.ĠTheĠ
ag lid
os cop
ev ol
ev elop
oo th
areĠ ourĠ
areĠ availableĠ
con ve
con solid
li dĠ
leĠ ofĠ
tr um
tr uc
tr y,Ġ
tr act
tr endĠ
tr yĠandĠ
tr ickĠ
tr endĠofĠ
tr ackingĠ
le -
le .
le yĠandĠ
le afĠ
su gar
s,Ġ suchĠasĠ
sh r
sh ut
sh ell
sh are
sh rimpĠ
ex ecutiveĠ
âĢĻ ĠtoĠ
e,Ġ youĠ
e,Ġ thisĠ
itĠ asĠ
itĠ inĠtheĠ
itĠ willĠbeĠ
itĠ toĠyourĠ
for thĠ
for giveĠ
yourĠ timeĠ
yourĠ firstĠ
yourĠ application
di min
di visionĠ
di strict
per m
per mitĠ
ofĠtheĠ GPLACĠ
ap pleĠ
sp id
sp areĠ
sp res
sp ons
sp awnĠ
ir atesĠ
ir cularĠ
ul timatelyĠ
im ent
im possible
ay si
be arĠ
.ĠTheĠ newĠ
s.Ġ T
s.Ġ ToĠ
s.Ġ DoĠ
no is
tion ,ĠtheĠ
tion s:Ġ
e.Ġ AndĠ
e.Ġ OnĠ
e.Ġ NowĠ
e.Ġ PleaseĠ
op tionalĠ
op tionĠtoĠ
op io
haveĠ itĠ
ri orĠtoĠ
wor shipĠ
um bingĠ
inĠtheĠ eventĠ
inĠtheĠ marketĠ
inĠtheĠ country
inĠtheĠ midstĠ
IĠ couldĠ
IĠ knowĠ
IĠ findĠ
IĠ reallyĠ
IĠ believeĠ
IĠ wentĠ
byĠ herĠ
byĠ simplyĠ
byĠ email
res centĠ
res embl
res isti
outĠ aĠ
outĠ ourĠ
outĠ onĠtheĠ
allĠ aboutĠ
allĠ ofĠourĠ
bu b
canĠ onlyĠ
canĠ nowĠ
canĠ createĠ
canĠ alsoĠbeĠ
canĠ causeĠ
cl ari
cl unkĠ
willĠ makeĠ
willĠ includeĠ
willĠ startĠ
willĠ createĠ
soĠ makeĠsureĠ
fromĠ oneĠ
tionĠ isĠ
thisĠ weekend
gr as
gr ain
gr amĠ
gr ass
gr abĠ
oneĠ inĠ
oneĠ thatĠ
oneĠ whoĠ
ersĠ theĠ
ersĠ isĠ
ersĠ fromĠ
tsĠ theĠ
tsĠ thatĠ
and w
and erĠ
and id
and roidĠ
and hin
to k
to astĠ
to tem
ain tain
tim e,ĠandĠ
tim e.ĠYouĠ
ourĠ sit
ourĠ customersĠ
âĢĻsĠ mostĠ
ĠandĠ isĠ
ĠandĠ itsĠ
par ad
par entĠ
wasĠ alsoĠ
wasĠ noĠ
wasĠ createdĠ
wasĠ producedĠbyĠArcadeĠPallot,ĠJordanĠBaron,ĠAnnieĠLepage,Ġ
we irdĠ
all icĠ
all erg
all y.ĠTheĠ
oc curr
oc k,Ġ
our sĠofĠ
our ish
edĠtoĠ seeĠ
por tionĠ
end -to-
form sĠofĠ
form erlyĠ
se en
se esĠ
s>Ġ IfĠ
co inĠ
co insĠ
co vet
de pres
de ed,Ġ
de bat
eĠtoĠ getĠ
.ĠA b
.ĠA reĠyouĠ
.ĠA skĠ
ud eĠandĠ
ud geĠ
pr ayĠ
pr ideĠ
pr ice
hasĠ someĠ
hasĠ alreadyĠ
mo torĠ
es,Ġ whichĠ
es,Ġ itĠisĠ
ut tingĠ
weĠ mayĠ
ne y
ne yĠ
ne edĠtheĠ
eĠofĠ ourĠ
:Ġ theĠ
:Ġ AĠ
:Ġ AddedĠ
!Ġ C
!Ġ WhatĠ
!Ġ ItâĢĻsĠ
!Ġ YouĠcanĠ
theirĠ job
theirĠ productsĠ
rec k
'sĠ ownĠ
.ĠW ouldĠ
.ĠW indĠ
.ĠW ell,Ġ
,ĠandĠ ourĠ
,ĠandĠ MaxĠCollins.ĠMusicĠinĠthisĠepisodeĠisĠperformedĠbyĠVicĠHorvath
toĠtheĠ US
te achĠ
ess ay
bo ol
bo ardsĠ
bo lĠofĠ
terĠ S
cont actsĠ
onĠtheĠ rightĠ
onĠtheĠ sameĠ
eĠandĠ aĠ
sĠofĠ ourĠ
gi anĠ
gi ousĠ
enc ies
butĠ aĠ
butĠ youĠ
ustĠ andĠ
?Ġ M
?Ġ ItĠ
moreĠ andĠ
moreĠ inĠ
moreĠ information,Ġ
cre ep
cre teĠ
cre atorĠ
ureĠ isĠ
atedĠ byĠtheĠ
est ri
ell Re
upĠ withĠaĠ
pos sessionĠ
.ĠS ec
.ĠS ome
.ĠS till
ep endingĠ
forĠtheĠ nextĠ
comm on
comm issionĠ
)Ġ wasĠ
)Ġ hasĠ
In nĠ
In du
In vestig
aw n
br ak
br illi
ure enĠ
ure lyĠ
amĠ IĠ
ther e.Ġ
pre adĠ
pre domin
pre jud
pre dic
theyĠ wouldĠ
theyĠ reallyĠ
und oĠ
ph enomen
go sĠ
go ing,Ġ
go alĠofĠ
mĠ (
fe etĠ
myĠ lifeĠ
entsĠ areĠ
entsĠ inĠtheĠ
do ingĠaĠ
usĠ isĠ
usĠ forĠ
comp atibleĠ
Ch atĠ
Ch angeĠ
Ch eck
ass et
ass etĠ
ifĠ theyĠcanĠ
ifĠ there'sĠ
edĠbyĠ ourĠ
edĠbyĠ theirĠ
kn if
inter -
inter i
mar gin
otherĠ words,Ġ
iz ingĠtheĠ
fi esĠ
acc um
getĠ myĠ
au x
tyĠ Group,Ġ
off ,Ġ
off ice
gre yĠ
ord er,Ġ
ord eringĠ
.ĠIĠ canĠ
.ĠIĠ stillĠ
ens .
man ipul
withĠtheĠ mostĠ
provid erĠ
provid ingĠtheĠ
Ġ<s>Ġ IfĠ
eas eĠofĠ
eas elgraveĠ
AĠ isĠ
sc rat
ant ly
ant ly,Ġ
oundĠ ofĠ
workĠ withĠaĠ
workĠ dayĠ
ackĠ toĠ
justĠ theĠ
justĠ forĠ
justĠ needĠtoĠ
des ireĠ
produc tionĠandĠ
dr ill
fl or
int endĠtoĠ
iti esĠofĠ
iti es,ĠandĠ
.ĠB othĠ
pres singĠ
pres erveĠ
St ationĠR
St udentsĠ
includ edĠinĠ
ob sess
sid e
loc ateĠ
loc ksĠ
ust ,Ġ
day .ĠTheĠ
day ,ĠtheĠ
mostĠ peopleĠ
out put
out let
out fit
out skir
aĠs adĠ
aĠs eriesĠofĠ
ful fil
mon iesĠ
ve il
timeĠ withĠ
timeĠ inĠtheĠ
ĠĠĠĠĠĠĠĠĠĠĠĠĠĠĠĠĠĠĠĠĠĠĠĠĠĠĠĠĠĠĠĠĠĠĠĠĠĠĠĠĠĠĠĠĠĠĠĠĠĠĠĠĠĠĠĠĠĠĠĠĠĠĠĠĠĠĠĠĠĠĠĠĠĠĠĠĠĠĠĠĠĠĠĠĠĠĠĠĠĠĠĠĠĠĠĠĠĠĠĠĠĠĠĠĠĠĠĠĠĠĠĠĠĠĠĠĠĠĠĠĠĠĠĠĠĠĠĠĠĠĠĠĠĠĠĠĠĠĠĠĠĠĠĠĠĠĠĠĠĠĠĠĠĠĠĠĠĠĠĠĠĠĠĠĠĠĠĠĠĠĠĠĠĠĠĠĠĠĠĠĠĠĠĠĠĠĠĠĠĠĠĠĠĠĠĠĠĠĠĠĠĠĠĠĠĠĠĠĠĠĠĠĠĠĠĠĠĠĠĠĠĠĠĠĠĠĠĠĠĠĠĠĠĠĠĠĠĠĠĠĠĠĠĠĠĠĠĠĠĠĠĠĠĠĠĠĠĠĠĠĠĠĠĠĠĠĠĠĠĠĠĠĠĠĠĠĠĠĠĠĠĠĠĠĠĠĠĠĠĠĠĠĠĠĠĠĠĠĠĠĠĠĠĠĠĠĠĠĠĠĠĠĠĠĠĠĠĠĠĠĠĠĠĠĠĠĠĠĠĠĠĠĠĠĠĠĠĠĠĠĠĠĠĠĠĠĠĠĠĠĠĠĠĠĠĠĠĠĠĠĠĠĠĠĠĠĠĠĠĠĠĠĠĠĠĠĠĠĠĠĠĠĠĠĠĠĠĠĠĠĠĠĠĠĠĠĠĠĠĠĠĠĠĠĠĠĠĠĠĠĠĠĠĠĠĠĠĠĠĠĠĠĠĠĠĠĠĠĠĠĠĠĠĠĠĠĠĠĠĠĠĠĠĠĠĠĠĠĠĠĠĠĠĠĠĠĠĠĠĠĠĠĠĠĠĠĠĠĠĠĠĠĠĠĠĠĠĠĠĠĠĠĠĠĠĠĠĠĠĠĠĠĠĠĠĠĠĠĠĠĠĠĠĠĠĠĠĠĠĠĠĠĠĠĠĠĠĠĠĠĠĠĠĠĠĠĠĠĠĠĠĠĠĠĠĠĠĠĠĠĠĠĠĠĠĠĠĠĠĠĠĠĠĠĠĠĠĠĠĠĠĠĠĠĠĠĠĠĠĠĠĠĠĠĠĠĠĠĠĠĠĠĠĠĠĠĠĠĠĠĠĠĠĠĠĠĠĠĠĠĠĠĠĠĠĠĠĠĠĠĠĠĠĠĠĠĠĠĠĠĠĠĠĠĠĠĠĠĠĠĠĠĠĠĠĠĠĠĠĠĠĠĠĠĠĠĠĠĠĠĠĠĠĠĠĠĠĠĠĠĠĠĠĠĠĠĠĠĠĠĠĠĠĠĠĠĠĠĠĠĠĠĠĠĠĠĠĠĠĠĠĠĠĠĠĠĠĠĠĠĠĠĠĠĠĠĠĠĠĠĠĠĠĠĠĠĠĠĠĠĠĠĠĠĠĠĠĠĠĠĠĠĠĠĠĠĠĠĠĠĠĠĠĠĠĠĠĠĠĠĠĠĠĠĠĠĠĠĠĠĠĠĠĠĠĠĠĠĠĠĠĠĠĠĠĠĠĠĠĠĠĠĠĠĠĠĠĠĠĠĠĠĠĠĠĠĠĠĠĠĠĠĠĠĠĠĠĠĠĠĠĠĠĠĠĠĠĠĠĠĠĠĠĠĠĠĠĠĠĠĠĠĠĠĠĠĠĠĠĠĠĠĠĠĠĠĠĠĠĠĠĠĠĠĠĠĠĠĠĠĠĠĠĠĠĠĠĠĠĠĠĠĠĠĠĠĠĠĠĠĠĠĠĠĠĠĠĠĠĠĠĠĠĠĠĠĠĠĠĠĠĠĠĠĠĠĠĠĠĠĠĠĠĠĠĠĠĠĠĠĠĠĠĠĠĠĠĠĠĠĠĠĠĠĠĠĠĠĠĠĠĠĠĠĠĠĠĠĠĠĠĠĠĠĠĠĠĠĠĠĠĠĠĠĠĠĠĠĠĠĠĠĠĠĠĠĠĠĠĠĠĠĠĠĠĠĠĠĠĠĠĠĠĠĠĠĠĠĠĠĠĠĠĠĠĠĠĠĠĠĠĠĠĠĠĠĠĠĠĠĠĠĠĠĠĠĠĠĠĠĠĠĠĠĠĠĠĠĠĠĠĠĠĠĠĠĠĠĠĠĠĠĠĠĠĠĠĠĠĠĠĠĠĠĠĠĠĠĠĠĠĠĠĠĠĠĠĠĠĠĠĠĠĠĠĠĠĠĠĠĠĠĠĠĠĠĠĠĠĠĠĠĠĠĠĠĠĠĠĠĠĠĠĠĠĠĠĠĠĠĠĠĠĠĠĠĠĠĠĠĠĠĠĠĠĠĠĠĠĠĠĠĠĠĠĠĠĠĠĠĠĠĠĠĠĠĠĠĠĠĠĠĠĠĠĠĠĠĠĠĠĠĠĠĠĠĠĠĠĠĠĠĠĠĠĠĠĠĠĠĠĠĠĠĠĠĠĠĠĠĠĠĠĠĠĠĠĠĠĠĠĠĠĠĠĠĠĠĠĠĠĠĠĠĠĠĠĠĠĠĠĠĠĠĠĠĠĠĠĠĠĠĠĠĠĠĠĠĠĠĠĠĠĠĠĠĠĠĠĠĠĠĠĠĠĠĠĠĠĠĠĠĠĠĠĠĠĠĠĠĠĠĠĠĠĠĠĠĠĠĠĠĠĠĠĠĠĠĠĠĠĠĠĠĠĠĠĠĠĠĠĠĠĠĠĠĠĠĠĠĠĠĠĠĠĠĠĠĠĠĠĠĠĠĠĠĠĠĠĠĠĠĠĠĠĠĠĠĠĠĠĠĠĠĠĠĠĠĠĠĠĠĠĠĠĠĠĠĠĠĠĠĠĠĠĠĠĠĠĠĠĠĠĠĠĠĠĠĠĠĠĠĠĠĠĠĠĠĠĠĠĠĠĠĠĠĠĠĠĠĠĠĠĠĠĠĠĠĠĠĠĠĠĠĠĠĠĠĠĠĠĠĠĠĠĠĠĠĠĠĠĠĠĠĠĠĠĠĠĠĠĠĠĠĠĠĠĠĠĠĠĠĠĠĠĠĠĠĠĠĠĠĠĠĠĠĠĠĠĠĠĠĠĠĠĠĠĠĠĠĠĠĠĠĠĠĠĠĠĠĠĠĠĠĠĠĠĠĠĠĠĠĠĠĠĠĠĠĠĠĠĠĠĠĠĠĠĠĠĠĠĠĠĠĠĠĠĠĠĠĠĠĠĠĠĠĠĠĠĠĠĠĠĠĠĠĠĠĠĠĠĠĠĠĠĠĠĠĠĠĠĠĠĠĠĠĠĠĠĠĠĠĠĠĠĠĠĠĠĠĠĠĠĠĠĠĠĠĠĠĠĠĠĠĠĠĠĠĠĠĠĠĠĠĠĠĠĠĠĠĠĠĠĠĠĠĠĠĠĠĠĠĠĠĠĠĠĠĠĠĠĠĠĠĠĠĠĠĠĠĠĠĠĠĠĠĠĠĠĠĠĠĠĠĠĠĠĠĠĠĠĠĠĠĠĠĠĠĠĠĠĠĠĠĠĠĠĠĠĠĠĠĠĠĠĠĠĠĠĠĠĠĠĠĠĠĠĠĠĠĠĠĠĠĠĠĠĠĠĠĠĠĠĠĠĠĠĠĠĠĠĠĠĠĠĠĠĠĠĠĠĠĠĠĠĠĠĠĠĠĠĠĠĠĠĠĠĠĠĠĠĠĠĠĠĠĠĠĠĠĠĠĠĠĠĠĠĠĠĠĠĠĠĠĠĠĠĠĠĠĠĠĠĠĠĠĠĠĠĠĠĠĠĠĠĠĠĠĠĠĠĠĠĠĠĠĠĠĠĠĠĠĠĠĠĠĠĠĠĠĠĠĠĠĠĠĠĠĠĠĠĠĠĠĠĠĠĠĠĠĠĠĠĠĠĠĠĠĠĠĠĠĠĠĠĠĠĠĠĠĠĠĠĠĠĠĠĠĠĠĠĠĠĠĠĠĠĠĠĠĠĠĠĠĠĠĠĠĠĠĠĠĠĠĠĠĠĠĠĠĠĠĠĠĠĠĠĠĠĠĠĠĠĠĠĠĠĠĠĠĠĠĠĠĠĠĠĠĠĠĠĠĠĠĠĠĠĠĠĠĠĠĠĠĠĠĠĠĠĠĠĠĠĠĠĠĠĠĠĠĠĠĠĠĠĠĠĠĠĠĠĠĠĠĠĠĠĠĠĠĠĠĠĠĠĠĠĠĠĠĠĠĠĠĠĠĠĠĠĠĠĠĠĠĠĠĠĠĠĠĠĠĠĠĠĠĠĠĠĠĠĠĠĠĠĠĠĠĠĠĠĠĠĠĠĠĠĠĠĠĠĠĠĠĠĠĠĠĠĠĠĠĠĠĠĠĠĠĠĠĠĠĠĠĠĠĠĠĠĠĠĠĠĠĠĠĠĠĠĠĠĠĠĠĠĠĠĠĠĠĠĠĠĠĠĠĠĠĠĠĠĠĠĠĠĠĠĠĠĠĠĠĠĠĠĠĠĠĠĠĠĠĠĠĠĠĠĠĠĠĠĠĠĠĠĠĠĠĠĠĠĠĠĠĠĠĠĠĠĠĠĠĠĠĠĠĠĠĠĠĠĠĠĠĠĠĠĠĠĠĠĠĠĠĠĠĠĠĠĠĠĠĠĠĠĠĠĠĠĠĠĠĠĠĠĠĠĠĠĠĠĠĠĠĠĠĠĠĠĠĠĠĠĠĠĠĠĠĠĠĠĠĠĠĠĠĠĠĠĠĠĠĠĠĠĠĠĠĠĠĠĠĠĠĠĠĠĠĠĠĠĠĠĠĠĠĠĠĠĠĠĠĠĠĠĠĠĠĠĠĠĠĠĠĠĠĠĠĠĠĠĠĠĠĠĠĠĠĠĠĠĠĠĠĠĠĠĠĠĠĠĠĠĠĠĠĠĠĠĠĠĠĠĠĠĠĠĠĠĠĠĠĠĠĠĠĠĠĠĠĠĠĠĠĠĠĠĠĠĠĠĠĠĠĠĠĠĠĠĠĠĠĠĠĠĠĠĠĠĠĠĠĠĠĠĠĠĠĠĠĠĠĠĠĠĠĠĠĠĠĠĠĠĠĠĠĠĠĠĠĠĠĠĠĠĠĠĠĠĠĠĠĠĠĠĠĠĠĠĠĠĠĠĠĠĠĠĠĠĠĠĠĠĠĠĠĠĠĠĠĠĠĠĠĠĠĠĠĠĠĠĠĠĠĠĠĠĠĠĠĠĠĠĠĠĠĠĠĠĠĠĠĠĠĠĠĠĠĠĠĠĠĠĠĠĠĠĠĠĠĠĠĠĠĠĠĠĠĠĠĠĠĠĠĠĠĠĠĠĠĠĠĠĠĠĠĠĠĠĠĠĠĠĠĠĠĠĠĠĠĠĠĠĠĠĠĠĠĠĠĠĠĠĠĠĠĠĠĠĠĠĠĠĠĠĠĠĠĠĠĠĠĠĠĠĠĠĠĠĠĠĠĠĠĠĠĠĠĠĠĠĠĠĠĠĠĠĠĠĠĠĠĠĠĠĠĠĠĠĠĠĠĠĠĠĠĠĠĠĠĠĠĠĠĠĠĠĠĠĠĠĠĠĠĠĠĠĠĠĠĠĠĠĠĠĠĠĠĠĠĠĠĠĠĠĠĠĠĠĠĠĠĠĠĠĠĠĠĠĠĠĠĠĠĠĠĠĠĠĠĠĠĠĠĠĠĠĠĠĠĠĠĠĠĠĠĠĠĠĠĠĠĠĠĠĠĠĠĠĠĠĠĠĠĠĠĠĠĠĠĠĠĠĠĠĠĠĠĠĠĠĠĠĠĠĠĠĠĠĠĠĠĠĠĠĠĠĠĠĠĠĠĠĠĠĠĠĠĠĠĠĠĠĠĠĠĠĠĠĠĠĠĠĠĠĠĠĠĠĠĠĠĠĠĠĠĠĠĠĠĠĠĠĠĠĠĠĠĠĠĠĠĠĠĠĠĠĠĠĠĠĠĠĠĠĠĠĠĠĠĠĠĠĠĠĠĠĠĠĠĠĠĠĠĠĠĠĠĠĠĠĠĠĠĠĠĠĠĠĠĠĠĠĠĠĠĠĠĠĠĠĠĠĠĠĠĠĠĠĠĠĠĠĠĠĠĠĠĠĠĠĠĠĠĠĠĠĠĠĠĠĠĠĠĠĠĠĠĠĠĠĠĠĠĠĠĠĠĠĠĠĠĠĠĠĠĠĠĠĠĠĠĠĠĠĠĠĠĠĠĠĠĠĠĠĠĠĠĠĠĠĠĠĠĠĠĠĠĠĠĠĠĠĠĠĠĠĠĠĠĠĠĠĠĠĠĠĠĠĠĠĠĠĠĠĠĠĠĠĠĠĠĠĠĠĠĠĠĠĠĠĠĠĠĠĠĠĠĠĠĠĠĠĠĠĠĠĠĠĠĠĠĠĠĠĠĠĠĠĠĠĠĠĠĠĠĠĠĠĠĠĠĠĠĠĠĠĠĠĠĠĠĠĠĠĠĠĠĠĠĠĠĠĠĠĠĠĠĠĠĠĠĠĠĠĠĠĠĠĠĠĠĠĠĠĠĠĠĠĠĠĠ ĠĠĠĠĠĠĠĠĠĠĠĠĠĠĠĠĠĠĠĠĠĠĠĠĠĠĠĠĠĠĠĠĠĠĠĠĠĠĠĠĠĠĠĠĠĠĠĠĠĠĠĠĠĠĠĠĠĠĠĠĠĠĠĠĠĠĠĠĠĠĠĠĠĠĠĠĠĠĠĠĠĠĠĠĠĠĠĠĠĠĠĠĠĠĠĠ
plac edĠonĠ
doĠ toĠ
doĠ isĠ
bec u
ationsĠ thatĠ
gu ysĠ
howĠ longĠ
ish ing.
if y
.ĠH igh
.ĠH iĠ
.ĠH owever,ĠtheĠ
ment ,ĠandĠ
hisĠ firstĠ
whatĠ IĠ
withĠaĠ largeĠ
.ĠItĠ canĠbeĠ
.ĠInĠ otherĠwords,Ġ
Com mon
Com plet
-Ġ justĠ
.ĠM akeĠ
theĠc as
theĠc ir
thingĠ thatĠ
dayĠ withĠ
Wh at'sĠ
sec tion,Ġ
tionsĠ forĠ
.ĠP ho
dec orĠ
dec kingĠ
dec reas
del ic
onlyĠ oneĠ
edĠinĠ hisĠ
.ĠO fĠ
work erĠ
work .ĠTheĠ
work ersĠ
work edĠonĠ
work flow
thereĠ willĠbeĠ
thereĠ mayĠbeĠ
[...]
