#version: 0.2
t h
i n
a n
e r
o n
r e
th e
a t
o u
o r
e n
e s
a l
i s
t o
in g
an d
e d
i t
a r
o f
a s
l e
i c
i on
s t
r o
e l
en t
i l
a c
y ou
o m
f or
s e
v e
b e
h e
a d
c h
o w
i d
l y
e t
i th
a m
a y
o l
i g
at ion
i m
c t
v er
w ith
a re
u s
a b
o t
u n
w h
th at
p ro
u r
c e
u t
a g
i r
c om
c on
er s
s u
l o
t er
t r
il l
al l
n e
a p
T he
e m
i f
ou r
m o
p l
d e
o p
re s
u l
es s
you r
k e
w e
h a
e x
p e
es t
ig h
s h
ou t
th er
s o
at e
q u
a in
on e
ou n
an t
ar t
c an
p er
l d
it y
ha ve
w or
i ve
b y
o d
T h
u m
i v
ro m
i es
m ent
is t
ac t
er e
c l
w ill
an y
th is
f rom
igh t
en d
p r
n ot
t e
p o
w as
g r
in d
ar d
or t
om e
I n
u p
u st
ou ld
ab le
m e
f e
id e
c o
i al
el l
i e
d o
i p
g e
ic e
in e
ac k
h as
g h
wor k
o k
ag e
m a
2 0
for m
< /
g o
a v
t im
u d
com p
p ort
i b
ion s
ou gh
u re
e ar
al ly
ac h
d u
the ir
ic h
it e
u se
b o
as t
l i
is h
ou s
n ow
a il
at ed
s p
ver y
a f
d ay
i re
w ay
t s
en ce
d er
e v
g et
mo re
i z
b ut
A n
c k
an ce
con t
it s
oun d
f o
c ess
tim e
e p
s er
c re
as s
f er
ation s
on g
an s
t y
a k
ac e
m y
ct ion
the y
d is
ig n
ic k
i a
ent s
W e
am e
s ome
p re
al so
i le
o ther
re n
b l
f ul
ow n
wh ich
pro v
p art
el y
ab out
r y
wh o
ne w
l l
en s
ar y
st r
I t
ar k
com m
o ver
as e
Th is
b r
in t
m an
th ing
b er
re e
W h
c ial
f r
it ion
p le
Y ou
n o
ic al
in ter
y ear
po s
h el
s pe
. .
1 9
p h
ne ed
or s
h er
c r
l ow
j ust
a ke
c or
C h
the m
re at
li ke
c ol
c ur
w ould
ser v
o g
in k
th an
ther e
m ay
pro du
in cl
0 0
t ing
hel p
u e
a w
ad e
h ow
f ir
be en
of f
th r
ic es
wh en
S t
d es
n ing
an g
I f
c i
k now
mo st
20 1
ma ke
c us
m in
res s
c oun
ch o
in to
ie w
ro w
w o
ad d
op le
c a
wh at
re g
d r
en c
to m
de v
s a
lo ok
b u
h igh
v is
ol d
w ell
le ct
j o
ex per
at er
i o
pe ople
il d
f in
o se
s y
ap p
thr ough
at es
at ing
e f
t ain
l ine
m ed
ver s
e very
v iew
h is
ro om
w ere
al s
) ,
sh ould
form ation
su p
C om
at t
is s
on ly
c ent
N e
se e
be t
fo re
c al
j e
ib le
in ess
re ad
m er
fir st
a u
w ant
y s
b ack
t on
or y
i ous
g u
c er
re d
i ed
s s
h ad
m ark
p ers
d on
if ic
) .
to p
se t
b us
R e
b s
is e
it ies
l if
p res
r ight
the se
d el
the n
a ir
at a
en er
ct s
in formation
ing s
pl ay
i an
re l
un der
wh ere
e ver
g reat
on s
su re
d if
h o
t ed
com e
f un
p ut
s el
c ar
l es
m any
in v
st em
k ing
u al
in s
k s
s he
h ome
prov id
s im
ca use
C on
il ity
i ence
ic t
t ur
T r
pl ic
An d
m on
u res
re qu
t ake
an ge
b as
c he
f l
al th
st art
ev en
A l
st and
gr am
F or
of t
A s
incl ud
bus iness
s m
go od
su ch
tr y
t wo
le t
l ess
at ive
el op
c le
ic s
st ud
a th
l and
p t
am p
fe ct
H e
ar ch
con d
Ne w
c our
i et
ol og
pl ace
b el
m em
m ade
u ch
su l
en g
ul ar
c ould
u bl
ation al
Th ere
at ch
ow er
us ed
pers on
d own
g an
ter n
b est
ment s
h and
i x
bo ok
em ent
pe ct
mark et
b le
des ign
sy stem
c es
e as
l ong
ou p
tr ans
af ter
lif e
l ight
n er
con s
d ata
m iss
v al
il y
pro cess
wor ld
ard s
C oun
d ing
year s
ag es
p ur
c all
o b
o s
ur ing
f ol
le ad
dif fer
1 0
e ach
l ist
em p
c ed
d et
e k
m uch
p ol
to w
U n
h ere
A d
f ind
m ain
be ing
wh ile
ren t
O n
l ar
t le
as h
dev elop
sa id
c lo
v en
ul t
iv ing
c ap
d s
u ally
th ink
G r
P l
i qu
be fore
way s
A r
l ed
ch n
ag ain
s ol
th ose
in st
be cause
he ad
id ent
pro gram
iz e
l it
it ch
f act
P ro
un ity
ap plic
u g
av ail
exper ience
pr of
cus tom
je ct
T o
p at
pos s
w r
cho ol
b ed
it ed
sh ip
um p
comp any
s k
ow s
pl an
h ic
us ing
str u
.. .
S e
it al
qu al
po st
a ve
v ent
er v
iv es
do es
f ic
ou se
ion al
H ow
o c
ex t
E n
a ther
ar r
of fer
sup port
p ubl
s ur
in ce
ro ad
res p
we ek
tur n
u de
de c
n ess
p ar
B ut
E x
d in
v ed
le v
20 0
avail able
i el
r un
ent er
he alth
su m
differ ent
R o
a z
f am
s ame
re al
or gan
le g
ire ct
serv ices
G o
c are
i or
i end
m s
t ak
v ing
a h
s to
b lo
comp le
f il
to o
et work
lo c
an n
ar ound
ut ion
ke ep
per form
te am
f ree
l ot
o st
r ic
pres ent
an k
as on
go ing
p ower
s al
v ar
on line
se arch
fr iend
i ent
re ally
ex p
s ite
el s
op en
sh op
B r
O ur
n um
bo th
prov ide
1 5
i ver
su b
c y
i vers
s ign
sel f
iqu e
A u
P r
ac cess
im port
lo ve
fe at
ire d
olog y
C o
D e
b al
p ly
re sul
te chn
a ut
g ener
cont ro
fol low
d id
p ass
s ay
ar m
tr act
g y
m et
th ough
un t
Wh en
mon th
includ ing
S c
l ast
B e
h app
in es
le ar
are a
The y
po int
b ig
s ing
re st
as k
ve hic
ad v
su c
we bs
cont in
ful l
serv ice
lit tle
a x
c ell
d ig
o th
iz ed
S o
b od
g row
t al
re mo
is su
ro ss
ch ar
pro per
our ce
spe cial
1 2
s ide
or der
co ver
man ag
b re
id er
with out
fe el
inter est
f ound
is ing
op er
ev ent
part ic
m one
co st
Ch r
g l
i er
ab ility
gr oup
me et
Wh at
g er
s w
gr ap
fo od
produ ct
c ut
with in
fe w
3 0
C l
S he
U S
b ers
t en
is tr
lo y
incl ude
jo y
A ll
R es
T e
s it
al ways
to day
op t
h im
o ve
u b
it ing
st ate
ch ild
ant s
m ot
s chool
v ide
ver t
lo ad
um an
suc cess
i ents
p ay
v ol
de p
miss ion
we en
ma king
bet ter
che ck
cour se
o to
ust r
sm all
pro ble
con ne
thing s
i um
st ill
ish ed
bet ween
e lect
m it
com es
sh ow
cur rent
cle an
import ant
d uring
k ind
al i
ic ally
s oft
t em
in cre
re ce
some thing
poss ible
, ”
a im
w ater
en se
se cond
lo cal
19 9
ph oto
S erv
v es
v ir
w w
ir d
so ci
qu est
spe c
stru ct
a way
l im
m as
w are
at ely
for t
ch ange
inter n
qual ity
bod y
1 4
5 0
A p
d om
p ing
s ince
on t
re port
at ur
st er
add ition
look ing
webs ite
m ill
m ight
m ust
p or
le ase
ie ve
A t
F r
I C
W or
W ith
h ard
m us
o re
on d
le ction
un d
day s
bu ild
iel d
g ot
h ouse
th ree
iv id
cl ass
bas ed
L e
our s
Th at
In c
contro l
unt il
b ur
d irect
f t
p ain
ma k
produ cts
bu y
Chr ist
I s
c am
h y
re t
ed u
un ch
prof ess
g est
p are
x t
ex am
person al
cons ider
Au to
A f
f ac
m ind
en joy
es e
pl ac
gr ound
publ ic
resp ons
vide o
A C
pr iv
ful ly
vis ion
pur ch
num ber
A mer
u es
re en
st at
be aut
em s
Amer ic
C ol
e qu
f ur
l a
an other
tr a
all ow
ne xt
work ing
cont ent
Coun ty
conne ct
O r
P h
at s
st y
cor d
inst all
E S
M an
g ive
g ame
i enc
r a
ap pe
if ied
res h
so cial
end ed
under stand
stud ents
. "
p ot
w in
w ard
ce pt
tr ain
ge ther
cre ate
coun t
C an
c ase
n ed
s ens
ex pect
sh all
ist s
cont act
applic ation
mone y
n on
p age
al ong
ne ver
pe cial
act iv
comp an
1 1
D r
p ack
s c
w on
and s
us h
if y
end ing
inv est
lar ge
organ iz
O ne
c ame
w ide
it ions
ch ang
im p
op e
eas y
8 0
u ck
w el
an al
re view
at ter
ent ial
ot t
comm unity
need s
fam ily
Serv ice
G od
N o
d am
fun ction
bel ow
g in
l aw
ut e
ph ys
read y
A N
B o
d ry
f ace
at or
to gether
ad vert
com ing
if ul
mo ve
oth ers
I T
N etwork
b en
c amp
w ind
on es
mem ber
mem bers
again st
) :
J o
M ed
f f
h ip
is m
ro ll
ne cess
pr int
vis it
vehic le
2 5
B l
I N
M y
M ay
f low
m p
u ly
w al
re f
to ol
sh are
cl ick
pr ice
sp ace
ater ial
cer tain
custom ers
1 8
I O
S E
S te
S ource
n am
n ight
er r
ar s
ar ing
le ft
we b
qu ick
ind ivid
ust ry
fo cus
M e
m al
it ive
ap pro
op port
fr ont
sim ple
Con t
emp loy
c as
u ro
ou ch
st ep
ac ross
et y
pro te
ist ance
med ia
provid ed
issu es
compan ies
d em
f ut
f ill
f av
s ize
w om
id ay
pr act
tow n
N or
P art
p op
p ast
th or
et s
tr ib
iv ely
comm un
wo od
ef fect
med i
iet y
book s
I D
a ud
c il
m en
m ing
n or
re am
ou th
is ion
is ter
wh y
ind ustry
comple te
D o
d ate
e y
h old
m aterial
t est
in al
im e
af f
ph one
develop ment
beaut iful
1 6
S h
h ol
p ed
v an
w ed
it es
ic ro
he ther
pro ject
em ail
iv en
In d
ure d
ens ive
pos ition
jo b
requ ire
L o
h ist
p ick
w a
as ed
le br
se ver
ch all
ab ly
ha ving
me ans
str ate
provid es
oft en
det ail
child ren
spec ific
cam er
C he
g ing
w atch
lo bal
pl ain
ard en
ough t
li k
know n
call ed
Af ter
1 00
E D
R ep
f it
f ar
l iving
o ice
re search
ou d
or k
le y
ic y
us er
de al
de fin
go ver
br ing
Coun cil
3 4
f our
n ame
re ach
re cent
il t
ill s
te gr
do ing
cont ain
cur ity
How ever
feat ures
istr ation
necess ary
2 4
b it
g n
r ound
is ed
su per
ke y
we ight
qu ite
og le
itch en
W ind
in ation
at ure
ent al
ap er
pl es
per fect
Th ese
iv ed
201 8
bre ak
mill ion
ben ef
M ar
N ow
Y ork
a id
d one
f ield
h ours
con f
An ton
dig ital
fut ure
R E
b or
c u
c ul
f ast
l ab
n atur
an ces
ro p
il ities
us es
ur y
con cer
ne ar
act ually
do or
ib ility
bo x
ty pe
spe ak
cor ding
off ers
det er
dep end
O S
c ast
n ment
r ange
s un
on ce
re ason
en sure
st or
se ason
im ate
ot s
cl aim
comp et
du e
ple ase
00 0
dev ice
val ue
Gr oup
lev el
ivers ity
1 3
Q u
b i
c ard
h ot
l ive
m om
m ag
s ch
t able
en ough
st e
id s
id ence
un e
tr ip
get ting
part y
col or
sw itch
vir on
. ,
H E
b all
c ir
i ans
r is
s ell
s cre
t ion
v i
ab l
un ique
wh ite
pro ve
ut es
ut ions
ag o
ma j
bo ard
enc y
room s
sim ply
Go ogle
mak es
priv ate
E uro
H igh
P at
S p
s on
s ci
t reat
ad a
ce lebr
ir l
con om
tr av
ap s
add ress
every thing
Re g
lear n
manag ement
mus ic
profess ional
A c
H ome
M on
R el
b ar
d i
l ink
p ict
v ious
in ed
in tegr
or din
le ge
le vision
se curity
am es
tr ad
was her
In tern
co ok
some one
St ud
ump ster
proble m
viron ment
G er
M in
P A
l at
l ic
r on
z a
an e
er y
re comm
re turn
es pecial
ab ove
sh ort
me an
tim es
cr ip
dr ive
plan ning
does n
perform ance
resul ts
proper ty
partic ular
grap h
advert ising
especial ly
n etwork
th ird
st aff
el f
ac y
lo ss
ne y
coun try
enc es
land s
design ed
techn ology
partic ip
sty le
dry er
maj or
J uly
b ro
c um
h t
h uman
i ke
s at
u ary
ot e
gr ad
work s
comm it
need ed
Com m
je cts
Americ an
fur ther
C or
Y our
b road
f resh
h al
m atch
p s
t ell
re co
it ems
ith er
ab les
ir ing
mo b
sh o
dis cus
Wh ile
201 7
fl u
friend s
follow ing
soft ware
quest ions
natur al
! !
D es
F e
S am
f ix
g ar
i res
o id
in c
as ter
pl ant
res pect
po se
ty p
fr ame
exper ienc
ific ation
system s
tak ing
sever al
Anton ion
A m
G P
H uman
I P
P lease
R em
c op
d ed
g ed
s af
et c
un te
com b
tr ack
me as
fe e
col lect
cho ose
stud y
applic ations
photo s
exam ple
1 7
4 0
O R
P ar
S u
S un
b row
l ater
r ing
s top
t ic
t our
t ouch
w hether
y et
th od
in o
re main
st ay
um e
ail y
low er
reg ard
au thor
sing le
Antonion i
S ep
e conom
f lo
f all
i k
l ing
s pr
in ts
er ing
as ing
il ar
im es
com fort
con tract
tr ue
str ong
cor por
dev ices
inv ol
cour t
led ge
sum mer
resul t
edu c
respons ible
discus s
B ar
E N
J ust
a ur
b ath
k itchen
t ty
an cial
re fer
en vironment
ac count
ers hip
port s
du ct
ish ing
off ic
St ate
del iver
rel ation
rel ated
ho st
cle ar
market ing
blo od
var iety
gener al
contin ue
opt ions
ww w
B y
C r
D is
P e
T A
T V
d en
j our
m ult
n t
u fact
re ct
it or
for ward
se lect
be gin
us ers
pro mot
su me
mo del
act ion
end er
ear ly
dis play
reg ular
sa ve
vers ion
bel ieve
loc ated
var ious
did n
meet ing
purch ase
camer a
Euro pe
A ustr
G u
I S
N ational
P ark
g irl
s ent
v ia
w ent
an im
im age
im prove
pro jects
ex c
est abl
Th ank
min utes
ener gy
requ ired
clo se
program s
pat ients
run ning
equ ip
organiz ation
tool s
fav or
C ar
b ir
g ress
g iven
o od
p ie
t ar
or d
en e
is es
be come
id ents
all ows
up on
af fect
br and
produ ction
app ly
through out
gu id
includ es
Un iversity
tak en
say s
happ y
sit u
proble ms
build ing
train ing
wom en
wed ding
Austr al
A P
D on
f ive
f ail
f ile
m id
n ia
p aper
w all
er t
re cord
en ing
for d
ch at
ur ch
ap e
our ces
ul l
ex cell
ex tra
wor th
act ions
me thod
pre pare
man ufact
main tain
Sc ott
imp act
gover nment
Wind ows
hal f
mob ile
C ity
C ali
J an
S chool
m ach
r al
u k
re p
for nia
de f
your self
ex ist
ex act
ip s
work ed
get s
cre ated
new s
ple ment
fir m
coun ty
din ing
sto re
quick ly
lat est
Cali fornia
G reen
M ost
P et
c ity
d ou
g lobal
h om
n ut
u x
w ish
re present
en ed
al most
st it
se ct
de cor
sp ot
An y
ass ist
hel d
19 6
au tom
gu est
sim ilar
business es
wr it
won der
material s
A S
I m
b ot
d est
d umpster
g re
g reen
s we
s ound
w ine
w ise
in it
re du
at ic
or g
le x
le ast
ac c
om et
se en
ad io
im um
ap point
if t
ul ation
20 19
av ing
pre m
comm er
every one
sup ply
ins ide
start ed
iet ary
month s
vol unte
addition al
lik ely
A M
I M
L on
O f
S ome
b ad
e ither
g en
s l
t re
er al
ent ly
se ts
am oun
am ong
ag ree
if e
wor d
iv al
comp ut
dis cover
bl ack
comm on
ition al
pos ed
cr ib
201 5
ys is
sm art
hand s
bed room
sk ills
leg al
blo g
sal es
shop ping
vehic les
direct ly
opport unity
detail s
relation ship
excell ent
A R
F ree
P R
d aily
m ap
m icro
p en
t as
in a
an ks
to ok
it is
ar ter
as soci
ent ion
he at
he art
su it
ter m
if f
mo v
ul es
co ol
ach ieve
ck s
spe ct
bu ilt
Com p
au gh
requ est
tow ards
sol utions
pot ential
expect ed
commun ic
trav el
ht t
Sep tem
H ere
L L
M o
a ul
c ry
g arden
h ar
h ind
i ate
m ar
m ess
m ber
n g
r id
w ards
at ors
or ig
st ant
st ory
ac ter
us ion
ight s
te ach
form er
av y
av es
prov ed
stru ction
dec ision
grow th
kind le
phys ical
wal k
chall eng
benef its
Scott ish
/ /
3 2
: //
I I
L AC
M ore
S outh
a i
c ing
h or
l or
m ine
r out
y al
is n
el se
ac cording
se ction
am az
un k
con sum
ide a
comp let
ans w
no v
cor rect
sel ves
cond itions
Pl us
sol ution
sk in
lev els
loc ation
sal e
adv ant
contin u
opt ion
plac ed
hist ory
mom ent
Lon don
Septem ber
2 1
6 0
7 0
F in
L et
M ake
P er
W est
c ure
m oun
r ather
t ies
re as
at ory
at ives
ch ain
im m
ag ed
res ident
so on
art ic
cl ients
end o
fe ed
int ro
19 8
help s
201 6
sup pl
iss ion
cer t
right s
try ing
sul t
long er
pur pose
pol icy
though t
current ly
connect ed
Bl ack
individ ual
recomm end
commer cial
C enter
G e
G ener
M ark
S an
S to
f ig
h on
s end
s ong
s ix
in sp
on to
at form
en n
en ous
al e
al y
al ready
se m
ol ution
us ually
pro m
ut il
ag r
any one
spe ed
cr u
aw are
cal e
ho sp
Un ited
Ad d
custom er
En g
rece ive
dom ain
appe ar
dam age
Nor th
Sun day
2 2
C am
D ev
D irect
L a
g ain
h n
m il
n ational
s us
t ers
it ical
be hind
pro b
com pl
mo d
was h
gr ade
co re
ib ly
ev ents
sa fe
exper t
Com put
att ack
set ting
fam il
friend ly
sub ject
ask ed
success ful
incre ase
quest ion
intern ational
lab or
crip tion
B u
B IO
G D
P ol
S y
W ill
c and
e le
f ab
f ire
g old
h ope
i od
p aid
s es
s le
w ar
w arm
y e
in ary
in struct
an ced
er c
on y
st ress
ent ire
ag re
ag ing
su bs
pl atform
qu e
art ment
per cent
ide as
ell ow
cre d
pre vious
pre tty
how ever
post ed
week end
sign ific
rest aur
interest ed
elect ric
Christ mas
ret ail
scre en
- -
E R
E very
M us
c up
f a
g s
h ous
s en
u als
at tract
as es
le ave
el t
for ce
im medi
are d
are as
res idents
ie f
ack er
iz es
pre fer
fin ancial
ef fic
read ing
au to
provid ing
bas is
includ ed
pt ion
lead ing
fil es
Br it
lear ning
school s
intern et
review s
Cont ent
prote ct
saf ety
6 5
A A
D ay
F rom
H ol
M ac
M arch
M endo
N ot
b and
c ou
h it
h am
l ay
p m
p an
s il
re sume
ou l
es ter
ar i
ac qu
you ng
id es
ce ed
em ents
mo der
de ep
act ive
any thing
pr ior
gr and
ip le
av oid
Wh y
no thing
col lege
ang er
coun sel
high ly
Al so
ob tain
On ce
Pro gram
feat ure
issu e
sit es
rece ived
Med ia
appro ach
strate gy
GP LAC
jour ney
Jan uary
Mendo za
" .
, "
D an
F il
M ary
O N
b ill
d ish
f re
g ives
m or
m is
m atter
o de
r i
r ate
r ough
r ates
s mo
u ge
z e
is ode
it ation
of fee
st ain
st ack
se lection
he ar
tr u
pl us
ex erc
per iod
ev idence
ser ve
pre vent
col ors
cur ren
know ledge
201 1
reg ion
dr iving
car s
down load
eas ily
process ing
tak es
lim ited
Ap ple
buy ing
chang es
anal y
Jo hn
stor age
Comm unity
typ es
cop y
flo or
amoun t
signific ant
4 5
A T
A re
D ep
L E
M ich
O ver
b an
b ud
e ks
g ree
g gest
i am
j un
o il
s ource
t one
w ire
th ous
er g
or ge
ac ation
ad vis
id ed
are n
su f
su ggest
pl ate
pl ants
ant ique
can not
pr ices
In dig
go es
but ton
fo ot
ak ing
ren g
fin al
med ical
want ed
dif fic
eng ine
light s
Ro yal
comple x
tal k
edu le
activ ities
wel come
err or
pop ular
reco gn
Austral ia
Indig enous
2 8
A pr
B ro
C P
J une
M c
O C
P re
S M
S ci
T HE
a ign
d y
s or
s ort
t ax
v ot
in ing
re h
re member
al u
al tern
im plement
ver age
lo g
ap os
mo ving
out door
te e
co de
ma x
ear ch
af fic
iz ation
dis trib
who le
inter view
col lection
cho ice
enc our
He alth
cell s
profess ion
Can ada
anal ysis
camp aign
effect ive
vi ol
pict ure
spr ing
amaz ing
prob ably
2 3
2 6
D el
D ietary
O c
S O
S w
T od
V oice
b on
c ult
d rop
e e
e ad
g ather
g ender
i very
i ance
k en
l ives
m m
r um
t ext
v oice
is ions
st ick
el o
ac cur
ad just
un ities
pro state
con vers
con ven
tr ail
res istance
ha ir
Th en
ist ic
not e
me al
do cum
ib er
An g
reg istration
high er
back ground
olog ical
pol ish
En gl
enter tain
Sc ot
grow ing
cost s
IC ES
la unch
Man ag
van ity
deter min
sch edule
ron ic
equip ment
exact ly
nut r
swe et
omet imes
comput er
answ er
intro du
Comput er
Engl ish
C N
E ach
E ven
J es
R ental
S m
U p
b ab
b ul
b ase
d ol
h uge
i ar
k er
k ids
l ate
s ess
t ren
t ree
z er
an a
it em
it ely
ic a
be came
ig r
ce p
ag on
tr ies
ap pl
ex cept
sh ows
iv ity
pr im
te levision
po ints
sp end
its elf
my self
pos itive
help ed
aw ard
add ed
cent er
Re ad
play ers
stand ard
cond ition
ash ing
publ ished
remo ve
char acter
group s
opport unities
treat ment
Intern et
. ”
A fr
B er
C red
F o
H er
H is
M any
S er
Y O
b atter
c ross
c offee
d ist
d ark
l ack
n s
n ers
n ice
p ark
p ages
u ff
y l
in form
in flu
re et
re lease
to ber
ic an
st age
st reng
se qu
se par
ch air
et r
tr ou
ther n
one y
cl imate
not ice
ib r
pre par
help ing
gu ide
del ivery
bas ic
stud ent
emp or
clo s
inst ead
resp on
individ uals
depend ent
sci ence
Rel ations
meas ure
girl s
mach ine
hosp ital
Mich el
A ug
B C
C A
C T
C ong
D av
E T
I G
d ress
g iving
p et
r ac
s ense
u el
w inter
” .
re w
the me
or ing
en ge
to tal
le ts
il ing
be y
ay s
con sult
su mer
lo se
lo ck
tr ade
tr affic
ill age
out side
qu il
wor ds
cl in
ide al
comp reh
sp ac
ev alu
iz ing
man age
them selves
produ ce
off ice
reg ul
fin ish
play ing
det e
lar gest
develop ed
think ing
Se e
oc cur
lot s
exp lo
adv ice
dom in
Fr iday
Wor ld
sens ors
wa it
defin itely
regard ing
establ ished
exist ing
dou ble
writ ten
Dev elop
Oc tober
Scot land
Cong ress
H or
H ot
L ife
M P
P al
P ost
d ream
e cut
f lex
g ave
h ib
h aps
k y
n d
n it
p ress
p ush
r u
r ace
in fo
re le
or ies
is on
ic ed
ic ious
st ar
se em
se ems
id ge
im in
ir it
con vent
em ot
cre ative
ass ess
des crib
exper ts
io s
att end
Gr and
wr ong
wr iting
health y
Go od
sub mit
stat ement
Americ a
pract ices
trad itional
Ger man
comfort able
htt p
complet ely
reas ons
artic le
moder n
2 7
A ide
C ent
H ouse
I r
P ort
S pecial
T M
U se
W ar
Y uk
d iet
f air
g ers
h our
p to
r ich
s ink
in j
in nov
ar ily
st ream
ro le
id ing
are s
us s
pro gress
lo v
ne igh
res ources
end s
pr ise
fe cts
du c
li able
pre ci
ren ch
bl es
serv ed
than k
coun ter
look s
rel ax
tur al
start ing
stand ing
eas ier
val u
vent ure
offer ed
sto res
ann ual
Co ordin
Te levision
plac es
pack age
invest ment
commun ities
hol iday
require ments
chall enge
Che ck
cu it
tar get
method s
rep air
prem ium
associ ated
Voice Computer
Jes us
3 1
9 0
A b
C I
E l
P ubl
P ower
S al
U N
W as
c row
d le
f ine
f elt
h um
n a
r adio
r ules
s low
t iff
w est
in ch
re put
re lev
re mind
the s
il le
se cure
be ha
ad min
im ag
ot ton
ur s
con duct
ap t
pl ans
op tim
ex cl
ex plain
so le
cl oud
po ol
co ach
ser ies
fer ence
str a
19 7
thr itis
ang elo
201 2
high est
ho od
ins ur
As soci
rent al
prof it
sto ck
open ing
second s
soci ety
IO N
appro pr
strate g
ris k
invol ved
pie ce
situ ation
advant age
diffic ult
Tod ay
Michel angelo
Yuk on
D A
E V
G en
G arden
H o
L in
M er
O ff
R u
S up
S oft
S ince
S atur
V acation
W ashing
b ow
f ish
j ud
m ical
m ix
p ath
s light
t ics
an ch
al ed
ed s
ic ated
st ers
ch urch
am a
ot ing
con struction
ne g
de ath
res erv
ess ential
pe ace
per mission
use ful
li er
ck et
cre ating
ick s
ens ion
str ict
reg ister
dr aw
att ention
Re al
Tr ans
Tr acker
ob ject
lead s
cap t
Pl ay
wr ite
ship s
ext re
exp ensive
shop s
cy cl
pass ion
proper ly
Res ume
Te chn
incre d
struct ure
class ic
cas es
fill ed
ey e
plain tiff
broad cast
Des ign
corpor ate
educ ation
orig inal
cand id
cou ple
stra ight
Washing ton
4 9
A ct
E d
E duc
F ind
G reat
J e
M E
M ic
M ob
V iew
d ut
d ie
d ire
d ates
e ch
e ase
f an
j ump
l ux
n y
n es
r ail
t it
at o
at ab
al one
to ld
ad es
ad mission
ct ure
ab sol
ter r
pl ug
ment ion
In t
do ct
comm ission
ang u
look ed
Com mit
att le
want s
requ ires
cons ist
differ ence
Ar t
Ar ts
pat ent
care er
ann a
pass ed
oper ation
ten ance
Te am
pay ing
vir t
mas ter
Christ ian
pare n
move ment
Part y
ey es
pict ures
mean ing
sat is
favor ite
bir th
prepare d
guest s
volunte er
Gener al
sus p
restaur ant
Sci ence
batter y
Dav id
compreh ensive
relev ant
" ,
4 8
A L
B el
C a
G et
H app
L ike
N O
S tr
S pe
S pr
T op
T ake
V ol
W ell
c at
f ight
i ers
m es
n al
n ation
p ul
s av
y es
in de
al d
it ors
ar thritis
ic ians
ac cept
se ven
ad s
ch ance
con trib
ers on
su stain
ill ed
de part
we eks
Th rough
pr oud
fe et
ast ic
af ford
other wise
own ers
br ight
br ought
int age
cr af
serv ing
St ar
St ates
min imum
vis ual
sy mp
car ry
design s
trans fer
On line
ven ue
Pl an
iqu es
din ner
blo ck
contro ll
remo del
char ge
Res earch
tem per
consider ed
Ph il
chang ed
Bo ok
step s
dem and
wom an
Ind ia
speak er
sci ent
lic ense
experienc ed
ring tone
model s
Europe an
tas te
mov ie
Direct or
immedi ately
bud get
Apr il
dol lar
empor ary
Aug ust
Satur day
3 3
3 5
4 80
B us
C B
C ur
C our
E ar
F ir
H S
H ill
K e
L ove
M icro
P o
R ed
R ich
S S
S ound
a verage
c ab
l as
l ines
o red
r ug
s qu
w ick
on a
ro b
ro of
ent ry
se at
be gan
he avy
am ar
ig ation
ab ilities
ag ar
ap y
ap preci
we ar
ex as
ate g
ie ved
go al
ep isode
ass ign
bl ue
own ed
part ies
min ing
coun tries
tom s
ef fects
med ic
alth ough
market s
trans form
trans port
cap e
pat tern
oc cas
dec ide
Ro ad
fil i
loc ations
ann oun
open ed
num bers
remo val
remo ved
ger y
clean ing
lim it
und red
Col lege
chang ing
function al
visit ors
certain ly
pract ice
deter mine
sun g
grad u
experienc es
brow ser
econom ic
offic ial
Pe ople
begin ning
manufact ur
wonder ful
acc ident
cry pto
moun tain
Eng land
fa ith
hous ing
Fil m
Dep artment
thous ands
Cred its
nit ure
Mob ile
dire ction
atab ase
paren ts
2 9
5 00
? ?
A g
A wards
D I
E lect
F lor
F rench
G ar
G over
K o
M C
N et
P resident
R O
U R
V ir
W ed
a head
b ol
b um
c el
d iver
d anger
e th
e at
f ather
h us
h ire
k a
l in
l unch
o v
r ical
r ics
s n
t ab
y a
th us
in dependent
re ar
en h
as p
ic ip
you th
for ts
ad y
ly ing
ig ious
im ages
ct ions
us ive
pro ced
ce mber
con stant
ter ms
ap ers
est im
sh aring
out put
ant i
Th anks
te ch
me als
ack now
comp ens
ear ning
sp ent
ak es
Wh ere
ph ones
Ch ina
produ ced
201 3
ef fort
see ing
gu ard
provid er
fl ict
Al tern
pol ic
cap ital
sur round
dec ided
sto red
fil m
De cember
oper ations
elect ronic
report ed
Fr ance
install ed
understand ing
roll er
Ste el
contain s
near ly
affect ed
stit ute
Comp any
challeng es
Mark et
expert ise
fab ric
effic ient
exerc ise
profession als
bab y
bey ond
reput ation
Off ice
7 14
B A
B E
C are
D ef
E M
F ace
G B
M r
M ain
N ach
T H
T wo
b a
b ound
c ards
c ash
d ict
e es
f arm
g un
i Ph
k in
l er
m ir
m arr
p a
p ite
s port
s ometimes
u it
w ild
y ing
th reat
is try
to s
le aves
ro id
ro ck
om b
se x
be at
ad o
ad ata
im ming
con sumer
tr uly
if ari
de ad
de gree
res ent
ther mal
was te
In ter
me ant
co hol
ell ig
20 00
sp irit
An n
int ellig
cor ds
ci ples
coun ts
cho ices
jo in
je wel
sim pl
Tr ifari
start s
ix el
pol itical
Ar tic
pat ient
resp ond
turn ed
200 3
ric ul
present ed
15 0
De anna
webs ites
proper ties
meet ings
grap hic
respons ibility
Bl ue
prote ction
dem on
aud io
hist or
recent ly
claim s
cir cuit
di ag
Intern ational
lic ens
graph ics
commit ted
exc ited
dest ination
init ial
redu ce
communic ations
consum ers
famil iar
Bu ild
GD PR
sle ep
cred it
curren cy
entertain ment
insur ance
appropr iate
4 1
B ali
C E
C R
C in
D ur
G i
G lobal
H all
L ist
M A
N A
N ext
O ther
O ak
P od
R ev
S il
S ur
S um
S how
U K
b ird
c able
d istance
e ight
e lection
f old
f aster
g i
h undred
i ation
l angu
p ump
s ha
s po
s cale
u be
th row
in come
in ner
at ically
or al
es ome
ed eral
ar ies
st one
st uff
el ines
he ard
ch ann
lo st
ul ts
ex hib
pe cts
est ate
sh ot
art s
per haps
ist an
cl ar
ind ustr
up date
comp on
use um
ous ly
ser ious
bl ed
over all
Wh o
pos es
.. ..
19 5
min ute
dr ink
dr ug
att or
pres sure
great er
inv ent
eng th
lead er
list ed
fact ors
bed ding
power ful
access ible
cover ed
product ive
US A
report s
fac ilities
stat us
appe al
organiz ations
nor mal
Lo ok
concer ning
reco very
anim al
sect or
suit able
ele ment
mor ning
suf fer
cult ure
docum ent
streng th
prepar ation
rele ased
lov ely
neigh bor
Was ho
Mic ha
Commit tee
Happ y
Fir st
fili ates
Bali ye
4 4
A v
A ma
B en
B ig
B est
C D
C y
D own
E as
H D
H ar
H ave
I o
K ing
L O
L ord
M il
M other
N ove
O ut
P M
R a
S im
S pot
T E
T er
T ur
T our
T exas
W ater
W ood
Y es
b ing
c ular
c ateg
e co
g al
g as
n et
o cr
r an
r ise
s outh
v s
v ior
v ille
w it
z y
in put
in ciples
is ation
to ile
it ude
ic on
il ed
for ced
ad em
ch an
im ent
pro of
ag ement
de b
de fic
ul tim
ate ver
qu iet
um n
gr ant
form s
ear ned
part s
part ner
who se
br uary
man ner
pos al
201 0
jo int
should er
cent ral
pres ents
del icious
play ed
ict or
tur ning
che mical
stand ards
list en
emp has
main tenance
cap ac
Ar ch
sol id
offer ing
fam ous
comple ted
keep ing
sal t
exp ress
techn iques
grap hy
Wor k
purch asing
sc en
ify ing
AN D
men u
camer as
Fe bruary
Par is
mult iple
bir ds
hom es
init i
Dan iel
accur ate
convers ation
Manag er
separ ate
Educ ation
polic ies
Artic le
diag no
Micha el
Ama z
Io T
Nove mber
3 9
7 5
A ir
A ud
B ow
D istr
H el
J ames
L Y
L ab
N ote
P aul
R ac
S en
S ain
S AP
U P
b ank
d im
f ans
f ash
g g
g ames
g ift
h op
k id
l ap
n ail
s old
s ports
t ask
v intage
x iety
in i
re cords
es tern
al bum
ic o
ro t
il es
ac com
ad er
am ent
ay er
tr ied
tr uck
ap ter
ap proved
em erg
de ck
we ather
od es
od nt
Th ose
Th urs
pr inc
co in
go als
ear n
ear lier
sp read
cre am
ass istance
ak ed
cr it
Ch ar
jo ined
med ium
gu ess
play er
car r
provid ers
val id
call s
lead ers
clo thing
ident ial
poss ibly
Se ction
adv ance
contin ues
tal ent
oper ating
Chr is
Cl ass
vol ume
Serv ices
consider ing
beaut y
allow ed
Ph ys
ienc y
activ ity
Dr agon
wind ow
flow ers
focus ed
Rep ubl
bor n
sch ed
Pat io
Sam sung
bath room
deliver ed
promot e
anim als
Sto odnt
Sy stem
Brit ish
smo oth
nutr ition
Afr ica
etr icks
respon se
quil ts
slight ly
Techn ology
symp toms
Bus iness
iPh one
jewel ry
langu age
Thurs day
2 nd
8 5
8 8
9 9
A I
D em
D iv
F ull
G old
I V
L ink
M O
O s
P ress
R adio
S at
S ub
V al
W ine
W hether
b ought
c it
c ers
d ated
e ating
f requ
g es
g ent
g one
g ins
h ab
h ur
i age
j u
l ength
m att
n el
p al
p ad
p ow
r or
r are
r aw
s oul
t ick
t ips
w iring
x im
an cing
at ively
le te
ac cep
se a
he el
am b
am bo
ur al
ut ed
ut ely
ag s
con cept
lo b
tr ust
ill ing
pl ent
sh ape
ther apy
qu arter
ment al
ist ics
cl im
will ing
not iced
In de
up per
bo ost
cre ation
ak er
comm ands
Wh ich
ple as
spe ech
cor ner
col d
there fore
incl usion
help ful
make up
add ing
fin ally
ef forts
Com mission
att ach
see king
cal cul
read er
ific ate
bus y
pres ence
amp ion
olog ies
eas es
cons ci
process es
ob vious
Pl ace
oc cup
arr ang
sur v
200 8
200 9
perform ed
present ation
exp and
import ance
bal ance
So cial
char ging
manag ed
gl ad
Cl ick
vide os
success fully
IC O
bur y
mak ers
fac ility
fur niture
camp us
flow er
ref lect
wa iting
Rep resent
sell ing
celebr ate
Reg istration
particular ly
guid ance
bot tom
stack able
altern ative
conven ience
Ang el
ibr ary
lux ury
Cour t
Micro soft
amar ind
hus band
Face book
1 20
B R
C up
C ert
D ata
E m
E ll
F und
G ames
H ope
L A
L aw
M id
M et
M ag
O h
S ing
T ues
V e
W o
W al
X L
b es
b age
c in
f at
f ant
m ass
m ely
n ur
n one
n ature
s now
s core
t w
t end
t ough
t ast
t ail
v it
v est
w id
in tr
er ve
re ve
re mot
al cohol
ed ge
ed ition
ar ant
ic ing
st reet
ro l
ac compl
be am
be comes
id a
ig s
un ic
ag ue
com ment
ter y
ter min
em on
em pt
ul ous
ex cess
ex tract
out comes
qu is
qu ery
um ent
te en
te le
In stitute
work shop
ma il
comp ass
ach el
af é
cont emporary
ser ver
cre t
dis eases
int ended
ber t
pos it
col labor
than ks
aw esome
reg ions
And roid
even ing
let ter
cour ses
eng er
trans formation
lead ership
On ly
lar ger
program ming
lit er
ump sters
sur pr
dec isions
Ex am
200 2
techn ical
met adata
Sc out
Be cause
big ger
interest s
gl ass
tem plate
Ap plic
Is ra
fac es
priv acy
Or gan
expect ations
advert is
IN G
ref resh
Ste p
aud ience
Rep air
benef it
bi ology
Ac cording
Stud ies
Stud ents
Ger many
recomm ended
bro ken
sat ell
commit ment
ded icated
comb ination
collect ed
author ity
econom y
establ ish
def end
tas ks
augh ter
mess age
rout e
feed back
Ge orge
famil ies
Will iam
instruct ions
Mus ic
sen ior
sor ry
max imum
spac es
neg ative
Int el
diver se
intellig ent
Washo e
fash ion
Isra el
3 6
3 00
5 1
6 4
A V
A ss
B i
B each
C H
C all
C ap
C reat
C lear
F ur
F ort
F ather
F ood
G A
K ar
K ind
L u
M a
M ot
M ill
O per
O ld
R un
S A
S U
S ign
T ED
U t
V ide
V ictor
a e
b our
b one
c atch
g lit
h i
h ub
k o
l an
l amp
m ist
p w
p in
r ain
s in
s ac
s am
s pl
s cr
s aw
s ized
s ources
v el
in ct
er a
re new
or ative
st on
st ation
el imin
se ats
ve y
ch and
ch ick
ol f
us age
un its
ur ies
com plic
con serv
ne ys
mo de
res ist
ex ecut
sh ap
oun der
ant a
ant ly
wor ry
Th ough
cl ient
not ed
was n
gr av
up grad
ell i
do g
do ck
has e
20 20
form at
sp ark
sp ots
ak istan
dis ability
ful fill
own er
ens ity
str ain
ber ry
fr uit
inter face
cr is
Ch o
col og
produ cers
ang ers
201 4
dr ivers
enc ies
jo bs
ton es
pers pect
rel igious
great est
put e
Tr ad
tern al
trans mission
val ues
pur poses
call ing
pol it
find ing
develop ing
clo thes
cap able
avail ability
prof ile
poss ess
arr ival
Ex per
enter prise
real ity
gener ally
though ts
happ en
manag er
feel ing
interest ing
conne ction
hard ware
mak er
hy dr
allow ing
Or ange
sens itive
Me igs
employ ees
Ind ian
conf idence
mom ents
Mon day
Cor por
Sam ple
Rem o
Su per
remain ing
ord ers
guid elines
appoint ment
relationship s
mov ies
hor mone
suppl ies
insp ired
instruct or
Hol iday
Mary land
wire less
gather ing
determin ed
sess ion
prim ary
dete ct
seem ed
Coordin ator
beha vior
Associ ation
strateg ies
EV s
extre mely
candid ate
nes day
absol utely
mention ed
las er
appreci ate
Wed nesday
capac ity
Amaz on
Distr ict
Phys ical
plent y
7 7
B ay
B ack
C le
D en
F ol
F all
G M
G row
J ap
J ona
K itchen
L D
L ake
L ED
M s
M aster
O F
O K
R est
S ch
S us
T O
T y
V er
W om
W atch
W estern
b attle
c ip
d a
d ur
d iv
d ance
f ounder
g on
h id
m l
m ouse
n av
p y
p as
p od
r ad
s cal
t ure
v ict
v illage
z z
an cy
re place
re liable
at in
at om
at ures
or ter
is a
ed om
ed itor
it ary
as king
ic ago
st im
st uck
ro s
el ess
ac id
ac et
ad apt
ol ive
im prov
pro ceed
con ference
lo ved
tr ie
ill ustr
ap h
em a
em ber
mo ther
mo ved
de als
ul ty
we aring
pe p
so ver
ere quis
ind ic
In formation
me chan
fe es
do ors
ack s
sp here
sp ending
An aly
cre ates
ia bet
We b
prov en
ens es
br ain
br ings
br ands
Ch urch
Ch icago
serv es
fir ms
St and
St art
des k
des ire
min or
min im
ca used
dr iver
bu f
vis iting
sy n
cent ury
fun ctions
bas ement
Al though
mem ory
Un der
Ad min
head s
ident ify
sk y
sk ill
Se lect
qual ified
sur face
az z
real ize
leg es
shop pers
Pr int
feat uring
follow ed
Be aut
big gest
tal king
kind s
incre asing
199 7
fort un
intern al
Wor ds
purch ased
install ing
pack ages
sc ene
invest ig
imp ress
uck y
visit or
share d
employ ee
fav our
cul tural
box es
Comm unic
frame work
offic ers
mult i
situ ations
bot tle
appoint ed
mess ages
challeng ing
continu ed
setting s
GD SM
agre ement
Brit ain
bill ion
tru cture
distrib ution
CN PA
sess ions
Ser ies
trou bles
clin ical
explo re
Hot el
emot ional
temper ature
manufactur er
Flor ida
Gover nment
Rev iew
Sum mer
emerg ency
sched ul
ambo o
remot e
Jap an
Jona than
iabet es
1 st
5 2
5 4
6 6
9 5
A ut
B re
C C
C as
D id
D uring
D umpster
H i
I R
J ack
K r
L t
L it
L os
M ach
N Y
O M
O ly
O pen
P ac
P ass
R ah
S et
S wed
T S
V illage
W r
Y ear
] :
b ly
d ial
e leg
e colog
f ederal
g ue
g orge
h un
i us
k ick
l am
l ind
l ish
m ally
m ph
n ic
n om
o bl
o ples
p sy
p air
p unch
r ub
t i
t or
v ie
v ote
z en
in fr
re strict
the tic
is l
as sem
as pects
as tructure
st al
st ake
st ates
el er
el ine
ent r
for um
be coming
ad venture
id get
am ing
ol a
im inal
are nt
us ual
un it
un ivers
ce an
ag ency
con tr
tr im
mo dif
pl ates
op in
res olution
ha w
ex change
ex ternal
sh own
qu art
ant it
art ist
iv il
ist a
cl es
end ar
po or
co s
co ordin
ell ing
av en
comp ared
bo ards
li x
my ster
dis tr
ign ition
bl ight
new sp
man ual
ree k
19 1
Ch apter
view ed
mark s
fun d
fun ds
fl av
Al ask
For d
good s
New s
eng age
eng agement
hand made
cons ent
fol k
list ing
emp ower
pol l
ven ues
Se a
post s
sur gery
200 7
run s
az io
ah am
team s
var i
Br idget
Pr erequis
resul ting
techn ologies
met al
happ ening
happ ened
grow n
sit ting
pay ment
mit ted
199 9
Ap p
Wor d
class es
pain t
enjoy ed
win ning
win etricks
Dr ive
nam ent
Me et
hold ers
compet ition
cir cum
particip ate
major ity
tell s
Des cription
typ ically
meas ures
environment al
Gu ide
apply ing
manufact uring
autom atically
map _
htt ps
orig in
Fin ancial
cert ificate
cru cial
aware ness
attract ive
fre edom
igr ation
appl ied
park ing
describ es
describ ed
Cent ral
Soft ware
afford able
remodel ing
Rich ard
proced ures
ricul um
Gi ada
Dem ocr
Tues day
hid den
pep per
Lt d
Oly mp
A B
B row
B achel
C S
C e
C al
C us
C otton
C afé
D om
E p
E ner
F arm
F OR
H ader
L ast
M el
M od
P ur
P ho
P ixel
R uss
S uch
S ky
T ry
T ube
U s
W E
W I
W el
b id
c ies
c otton
e ast
f ing
h es
h arm
h oney
i at
k new
l ib
m ers
o bs
p atch
r ank
r iver
s an
s ou
s co
t ight
v ast
w ing
y n
y ard
z ip
th ick
an xiety
er ous
on om
re pe
re cip
or ient
ar io
as su
ic ian
ve get
he ight
ad or
ad ults
et ics
im ents
ver se
ab use
ab led
wh atever
ut ic
ag ent
con sequ
tr ig
tr ick
ne o
res to
we alth
est y
sh el
ant icip
od y
Th om
Th ings
act ual
cl ust
pr ises
pr inciples
po cket
up s
up coming
do gs
go v
port ion
ear th
br idge
Wh ite
You Tube
inter pre
pos ite
cr itical
ang ing
know ing
add s
ca uses
fin ished
app ed
every day
view s
je ction
gu ys
gu arant
ific ations
Re port
del ay
ho ok
inv ites
And ry
stud ies
ath let
light ing
miss ions
world wide
os ing
emp ty
pol ice
inst it
fic ient
support s
publ ish
par agr
iel ds
organ ized
care fully
too th
cy cle
sign age
gener ation
month ly
adv anced
manag ing
event ually
cut ting
dep loy
small er
show ing
199 8
IC E
sty les
phys icians
Bo ard
pop ulation
medi ation
specific ally
Che ap
watch ing
fit ness
gover n
four th
perfect ly
conf ig
concer ned
depend ence
Group s
mag az
ris ks
board ing
address es
Home Pod
integr ation
integr ated
inc ident
brow n
equip ped
pie ces
Austral ian
fail ure
mid dle
sect ions
acc eler
volunte ers
discover ed
rout ine
advant ages
resident ial
cert ified
song s
prom ise
Eng ine
appear ance
compl iance
subs cription
dish es
suf ficient
influ ence
clos ed
dress ing
Develop er
Hor mone
Special ist
valu able
incred ibly
rail road
tit le
commission ers
satis f
Spr ing
Phil ip
scient ific
dollar s
Vir gin
surround ing
Def iance
demon str
licens ed
compon ents
attor neys
neighbor hood
Down load
categ ory
Lab or
dim ens
cit iz
matt ers
pw query
perspect ive
Grow th
acet one
Pac ific
paragr aph
* *
0 8
3 7
3 8
4 6
4 00
7 1
A sh
B as
B ur
B ost
B ird
C ir
C ome
D ig
E li
E LE
F E
F am
F un
F ish
F ound
F TA
G H
I gu
K en
K ath
L ive
L ight
L oc
M D
M or
M ex
N ur
P ay
P akistan
R en
R ent
R ol
R iver
S a
S k
S ol
S qu
S ight
S ho
S pect
S aul
T OS
V E
W in
W il
W 32
] ,
a ult
b old
c ats
d atabase
d aughter
f if
g ate
i be
i est
l augh
m at
m and
m ous
n ership
o ven
p it
p apers
p hase
r d
r ap
s is
s izes
u c
w heel
’ .
in ations
er ed
re me
at mo
en em
al k
as sum
as cale
om a
for get
for ces
se g
be ach
ch er
et on
pro posed
con cl
con flict
su res
lo ons
tr an
tr ial
if i
de cl
ul ate
we ap
we ak
sh ift
out let
out standing
Th us
um in
rom e
cl ip
In vest
co ins
co gn
work ers
work flow
form ats
bo y
ast s
sp in
af t
af filiates
An t
An other
dis ease
pre gn
ens uring
str ive
It aly
br ief
inter ior
cr iminal
just ice
Ch at
col ate
when ever
St reet
des ired
des pite
row s
reg ional
sa u
fin est
app ing
sup ple
att ending
Ne ver
see k
fore ign
ever green
Tr ain
mon itor
let ting
New town
bel ie
hand le
Coun sel
fol ks
tow el
Pl ant
fact ory
plan ned
support ed
week ly
Ex ecut
200 5
Ro ss
leg isl
fil ed
search ing
sub stant
cy lind
sign s
Pr of
gener ated
happ ens
manag ers
bre ed
found ed
load ing
vol t
incre ases
199 6
mas c
ond a
direct or
pain ting
exam ine
ground s
Col or
Col oring
sens or
No thing
Med ic
Med ical
err ors
Me an
Cont in
Cont act
nor mally
Ind ustr
speak ing
compet itive
ste el
trip s
switch es
lands cape
particip ants
flu id
remain ed
discuss ion
Just ice
jour nal
fail ed
ape utic
autom atic
micro phone
teach er
restaur ants
immedi ate
counsel ing
significant ly
jun ction
vot ers
encour age
Del ph
conven ient
Sm art
tren d
tren ds
zer o
cep ts
YO U
CT ION
regul ations
convent ion
conduct ed
Ru th
bow l
object ive
cycl ing
virt ual
Ca jun
sav ed
inde x
depart ment
cab in
occas ion
Elect ric
estim ated
marr iage
histor ic
Build ing
CE O
NA FTA
hundred s
Cy ber
Sen ior
Sain t
accom mod
consci ous
Angel es
accompl ish
satell ite
Kind le
Vide o
chick en
Analy tics
Communic ations
gorge ous
191 AA
Ener gy
Bost on
ELE C
Igu azio
atmo sphere
( “
4 3
? !
A D
B ed
B it
B ill
C F
C ry
F ac
G al
G ame
H R
H ộ
H ist
H TM
I ts
I ll
K B
K el
K now
L ow
L im
L iz
L ibrary
M ax
M useum
N E
N L
O b
O k
O p
O x
P I
P O
P s
P HS
R V
R he
R et
R ome
R ose
S T
S ar
S ave
S anta
T R
T ime
T enn
W D
W a
W ild
Z e
_ err
b ell
b read
b inary
c m
c is
d ies
f le
f ro
f em
f est
f lix
g ro
h all
k ill
l ies
m outh
m bol
p ies
p ound
p ink
r up
r ating
s ins
s che
s ister
s ought
t ack
t ors
t ired
v a
v y
v in
v end
v ard
w i
w et
y ce
y og
in spe
an ish
an atom
re y
re tain
re vol
the less
at ers
en able
al ign
is k
to t
and a
it a
it ate
it able
ic ted
st un
st amp
ro y
ro eton
el ing
ac he
ac cord
se y
se as
se eds
be es
he av
et ime
ith ic
am ed
ab road
ot a
un less
pro to
ir ation
lo ose
ne got
ap artment
if ies
res ol
est imate
sh er
sh ine
sh ower
sh ield
qu ir
can cer
any time
not es
up dated
me at
fe ction
comp ress
port able
ib ilities
ach ieved
bo ot
iz za
ak en
dis orders
prov isions
int ention
ition ally
Ch ild
Ch ines
Ch ampion
cur riculum
would n
may be
produ cer
aw ards
fir med
St ill
St one
ci ent
fin ance
Com pt
att emp
top ic
then tic
ian ces
rel ative
fun ding
fun dam
inv itation
ict ion
Tr ash
bas k
bel ong
could n
design er
miss ing
miss ed
list s
list ening
tow els
Un iv
ult ure
think s
Pl ate
Ar men
sol ve
head ing
ident ity
fact ion
ug g
ship ping
vent ion
ext ent
arr ay
support ing
Ex ascale
200 4
fil ing
exp enses
num erous
Co ast
De gree
techn ique
pass ing
pass word
adv oc
char gers
special ist
cover ing
oper ate
meet s
food s
dep ending
elect rical
struct ures
ret ro
AC TED
train ed
sc ope
dam aged
members hip
print f
wal king
SE CTION
night s
dem ands
thor ough
nor th
hold ing
Sh ield
Lo cal
deal er
reach ed
contain ed
break ing
break fast
concer ns
claim ed
High lands
Sp anish
Mon roeton
Rel ic
cook ie
graph ers
network s
particip ating
sho ot
respect ive
stop ped
ino a
discuss ed
EN ACTED
refer ences
select ed
improve ment
favor able
stit ution
tre ated
map error
communic ation
rid ge
suppl ied
recommend ations
fig ure
insp iring
util ize
mil itary
ele ments
warm ing
subs id
previous ly
sil ver
stack ed
recogn ition
implement ation
docum ents
introdu ced
Sm all
Afr ican
Fo rest
inform ed
clos ely
consult ation
flex ibility
ru by
inj uries
innov ation
Ab out
Sal es
crow d
register ed
incred ible
dut y
dut ies
doct or
meaning ful
Plan ning
Ke ep
rug by
announ ce
gradu ated
crypto currency
Net flix
enh ance
acknow ledge
mir ror
chann el
industr ial
princ iple
frequ ently
pow ers
fant astic
Fur ther
improv ing
Select ed
Print able
schedul ed
Swed en
psy ch
infr astructure
contr ast
Bachel or
Cus tom
Ep isode
Squ are
Execut ive
Prof ess
Mean while
Hộ i
HTM L
Chines e
Compt roller
0 4
4 7
4 th
5 6
A part
B ear
B ever
B ank
C ut
C amp
C AN
C reek
D ie
D oc
D atabase
F ellow
G l
G ate
G ES
H ou
H im
H ost
I ra
J er
J un
L ong
M 4
M al
M ass
M OS
M oul
N ap
P C
P as
P ages
Q ue
R T
S ty
S ense
S pain
S AN
S print
S ometimes
T or
T ell
T own
T wit
V o
V iet
V ista
b unch
c ott
d or
d ess
f on
f ell
f uel
g or
g lo
h an
j i
j an
k m
k es
k it
k ins
l ips
m art
o o
p il
p up
s ad
s crip
in y
in ated
in fl
an ium
re li
re ward
re cru
re venue
re venues
at re
en de
ing red
as printf
le af
st ated
il st
be half
ad ian
et er
et ic
ol es
ol der
ol ithic
im proved
are t
ab s
ab ol
un ion
wh ilst
pro xim
ur inary
ur ban
ir t
ir ts
com ments
con vert
con struct
con cepts
su gar
tr ash
tr unk
em br
our selves
de o
de posit
op posite
qu ot
cl ub
pr a
pr ayer
ard ens
In cl
up grade
fe els
co al
co vers
ud es
port fol
bo ys
iz on
cont est
my th
dis posal
pre ced
pre dict
ren ov
bl ind
new ly
comm and
fr ustr
fr agr
pos itions
col leges
cur ing
ade qu
ci pl
cho sen
cho colate
dr iven
enc ed
fin ishing
app s
att itude
cent re
fore ver
cal endar
au thentic
top s
set tle
lif esty
lif etime
put ting
Con sult
And rew
stand s
For ce
As k
As ia
sm ell
eng ers
There fore
book ing
trans ition
list ings
clo sure
Ar ab
fact s
Pro v
Pro duct
poss ibility
Se cond
post ing
Ex change
enter ing
health care
Ro of
perform s
perform ing
power ed
Pr ince
bal anced
gener ate
met rics
cover age
sw im
sw imming
grap her
Cl ub
Res olution
him self
mot or
mot iv
vert ical
check ing
check ed
rece iving
mas ks
mill ions
At l
und ers
house hold
Le an
Le ad
bur g
Christ ians
pare nt
public ly
la id
connect ing
connect ions
install ation
sc roll
law s
phys ically
wind ows
wal ks
employ ment
past a
beautiful ly
Sh op
require ment
Lo ss
detail ed
lik es
contain er
Mar g
bi ological
scre ens
High way
link s
ordin ary
cook ing
Min ister
ane ous
match es
sho es
respect ively
comb ined
remain s
strong ly
Bar well
EN T
regular ly
exc iting
assist ant
Im port
sound s
gen etics
har ass
Fin ally
fig ures
pan el
tru th
analy tics
thous and
foot ball
launch ed
Manag ement
prim arily
spac ious
Develop ment
ru le
convent ions
submit ted
innov ative
Publ ished
crow n
admin istration
Lin ares
Sup reme
doct ors
mes h
sustain able
controll er
Cur rent
Ear th
transport ation
pattern s
mountain s
Gar bage
danger ous
constant ly
acknow led
compens ation
Altern ate
Dur ation
invent ory
ultim ate
Republ ican
Div ision
Os lo
accep ted
vit am
wid ely
defend ant
Ut ah
sac red
Cle an
Fol low
vict ory
eleg ant
quart ers
Alask a
Prerequis ite
circum st
trig ger
Bird Cam
Found ation
Kath y
Train ing
substant ial
volt age
Bit coin
Hou ston
Ira q
Viet nam
% ),
' .
. ;
0 2
0 3
0 9
4 2
5 5
5 7
5 9
6 00
A LL
B P
B al
B oth
C and
D C
D ü
D ar
D ash
D ub
D rop
D umpsters
E X
E mp
F it
F ix
G ree
G ables
H O
H en
H am
H amp
H aving
H oney
I F
I rel
L ev
L atin
M S
M ars
N um
N ight
O B
P S
P T
P op
P ick
R om
R ag
R ight
R ail
R ob
R CB
S enger
T it
T yl
U T
U sing
U IM
V an
W ay
W ould
Y ad
b ag
b ind
c ater
d ating
d ivid
d iabetes
e per
f iber
g a
g all
g od
g ite
h ers
k ers
l g
l on
l ake
l ane
n u
n ine
p ill
r ust
s ed
s our
s ending
s aving
t ag
t act
t ens
t ables
v ac
v oid
w ro
w arr
w ife
y er
y ellow
z o
” ,
th s
th in
in n
in cur
in cent
in sul
in corpor
in spect
er ies
on ic
re in
re plac
re placed
re presents
at ics
al er
al ing
it als
ar ian
ar ms
le aving
st ones
el der
ent a
ac coun
ac adem
be ar
ad ult
ad option
et te
et ry
im possible
us ively
ab il
ab sor
un expected
pro min
ce iling
ag l
ag end
ag ents
ag ues
ag gress
com ed
con sul
con firmed
ill a
if ts
mo le
de leg
op s
res ort
res ource
ul u
ke ys
we et
ha ven
ex po
est ic
sh r
sh y
sh ut
qu ilt
art ists
Th er
Th ink
um es
ist ers
act s
any where
gr ass
up load
up dates
co very
ip al
ip ped
ge ar
li qu
sp el
ck ed
some what
some where
bl end
part nership
It al
man ually
ph an
cr ash
col n
og ue
aw n
min i
ca u
dr am
bu g
high light
exper iments
vers ions
view ers
should n
Com mer
cent r
read ers
au x
pers ons
lif t
air port
rel atively
car bon
inv ited
Con flict
bas ically
che ap
che ese
fl at
sm ile
let ters
less ons
stud io
trans actions
process or
pur su
fol der
Ad ded
clo ck
Pl ac
chn au
Pro te
applic able
prof its
pat ience
poss ibilities
bed s
bed rooms
ext ensive
publ ishing
dec ades
enter ed
Ro deo
keep s
access ories
De c
bal loons
gy m
last ing
happ iness
lear ned
bod ies
feel ings
US B
mot ion
check s
199 0
199 4
199 5
spec ies
report ing
Fr an
Fr ank
Wor ks
respons es
stat ements
Col l
la you
ES S
appe ars
appe aring
Can adian
activ ely
pack ing
pack ed
ush ing
dam ages
ben ch
Jo in
nam ed
focus ing
prote in
pract ical
wood en
effect ively
ID GES
Do es
hol der
pick s
pick ing
defin ed
defin ition
bring ing
34 5
conf ident
cu is
reason able
stor ies
Qu arter
mag n
trav ell
link ed
trad ing
particip ation
sho oting
fix ed
Rem ember
saf ely
touch es
refer ence
refer red
offic er
clear ly
Pe oples
promot ion
display ed
wall s
mach ines
Pet er
writ er
redu ced
Of fic
pen al
cool ing
spect rum
teach ing
consum ing
consum ption
correct ly
West ville
imm une
artic les
hon est
labor atory
gold en
agre ements
hous es
lay er
acqu ire
curren cies
introdu ction
evalu ate
occur s
assess ment
Publ ic
excl usive
explain s
sole ly
strateg ic
Lin coln
Sup port
Real tors
capt ured
Design s
ato es
virt ually
inde ed
carry ing
wick et
announ ced
earning s
Care er
EM R
Cin ema
Oak ridge
Eas y
Eas tern
LO VE
toile t
deb t
emphas is
Rac ing
Val ley
lob by
Inde ed
pleas ure
attach ed
Represent ative
BR IDGES
Ell is
surpr ised
refresh ing
Ass ist
Mot or
Victor ia
complic ated
upgrad ed
Trad ers
Den ali
Stand ard
favour ite
opin ion
distr ict
newsp aper
Democr ats
Ce lebr
Wel come
interpre t
guarant ee
Virgin ia
citiz ens
Dig ital
rap id
masc ot
Industr ies
Rhe a
revol ution
Child ren
Bever ly
Moul trie
ingred ients
portfol io
circumst ances
Dub ai
Irel and
Rag in
Yad av
hers elf
wro te
% .
( $
0 5
7 3
7 8
8 9
9 8
9 th
B es
B un
B lo
B ush
C re
C at
C ross
C HE
D O
D S
D iet
D ining
E r
E le
F i
F ab
F est
F air
F ICO
G S
G h
G irl
H on
H al
H and
H ard
I de
I mag
J our
K it
L i
L es
L ar
L as
L ady
L earn
M W
M X
M un
M ir
M art
N ok
N ations
N ature
P rom
P ink
P erson
R S
R AM
S l
S ou
S ab
S po
S eas
S ports
T ro
T im
T ha
T reat
T each
T ah
T amarind
V en
V es
V ery
b ay
b ite
b ass
b io
b ond
c ivil
e qual
f ade
f ellow
f lying
i i
j ack
k no
l ah
m el
m ort
m useum
o cean
p un
p act
p ure
p ile
r if
r ide
s cent
t a
t u
t ent
t une
t amarind
v o
v ic
v ine
v ary
v ital
w ires
x y
y o
in struction
on going
re ly
re now
re action
re union
ou ds
or ial
or row
en jo
en ables
en thus
al ter
al ysis
and on
and om
ed ited
it ting
le qu
st able
st ations
st ars
ro les
ro ots
il s
se cret
be gins
he t
ad vent
ch ip
ch ester
ch ronic
ow ing
et ch
ay ing
ay more
ver b
us al
ab domin
un er
un able
wh om
pro curing
ut s
ut ral
ag encies
lo sing
ter re
ill ness
ap art
em er
mo ves
op y
op position
your s
ke pt
sh ell
sh ots
out come
ther apeutic
qu it
qu inoa
ant ic
um b
act ing
any way
pr ints
pr icing
te a
gr at
In st
In sur
fe ar
co ast
ell a
has n
form al
form ing
form ed
go s
ib l
du cts
sp ons
cre tion
ak h
dis abilities
dis pute
dis cipl
ren ting
bl ing
bl ess
bl ank
comm only
br id
int el
ple ased
her o
off line
ang al
most ly
cho osing
dr a
enc ry
tom orrow
jo ining
sy mbol
app arent
tain s
view er
sup plement
att empt
Ne ed
Ne olithic
fore st
back yard
ton ight
pres crib
play s
great ly
ho le
fun ded
Con f
Tr ust
Tr ail
And erson
ath lete
arch ite
bel ief
bel ieved
down town
hand y
design ing
process ed
os es
tow ing
tow ard
Ad ult
Ad van
main ly
On tar
clo sing
cap ability
head ed
applic ant
wr ites
hic le
En ter
En joy
arr ange
support ers
sur vey
road s
200 1
enter prises
Ro om
az a
organ isation
leg it
present ations
sign ed
gener ous
pass port
say ing
When ever
suc ceed
So ci
char ged
Cl aim
Cl aymore
All ah
Te le
important ly
ali us
incre ased
rece ption
spec ified
lim its
mus cles
build ings
got ten
house warming
pain ted
buy ers
hy per
exam ples
fac ing
fac il
stat istics
sty lish
invest ing
review ed
IT V
roll ed
print ing
print ed
print able
SE C
employ er
employ ed
nor thern
test s
test ed
Sh ould
concer ts
depend s
compet e
Qu est
hot el
table ts
ball ot
celebr ity
celebr ated
Ac adem
Stud ios
ron ics
bro ker
commit tee
!! !
Des pite
Am anda
collect ing
regard less
author ities
fall en
contract s
invol ve
invol ves
educ ational
bath rooms
host s
Gu ard
tar gets
record ed
Pet ros
dou b
represent ing
sl ices
tre es
amoun ts
smart phones
augh t
Mo vie
continu ing
Make file
198 9
insp iration
Add itionally
La ure
fab ulous
Every one
prefer red
sil ence
prior ity
obtain ed
suggest ed
engine ering
CP U
vot es
implement ed
max im
cult iv
convers ations
Ang us
award ed
Ber lin
dist inct
streng then
trou bled
prepar ing
measure ment
IG H
evalu ation
dete ction
Pal m
flex ible
push ed
inj ury
Ab b
inch es
beha vi
admin istr
excl usively
Associ ate
Gen pact
Ho sp
Soft Bank
reserv ation
satis faction
AL DI
Top ics
Vol unte
scient ists
wick ets
assign ed
occas ions
gradu ate
Main frame
chann els
industr ies
suffer ing
King dom
Ra uner
eco system
toile ts
defic iency
grant ed
express ion
initi atives
tick ets
clim b
Cert ified
Mid dle
Ve hicle
tw ice
Applic ations
mist ake
Wom en
scal lo
fortun ately
Aut ism
entr ance
myster y
Pho to
Russ ia
obs ess
repe at
consequ ences
Thom as
Fam ily
fif ty
tran sp
monitor ing
vend or
inspe ction
tot ally
stun ning
accord ance
Die go
Fellow ship
Sty le
SAN YO
Twit ter
lifesty le
Marg aret
warr ant
expo sure
Ital ian
cuis ine
Gh ana
Nok ia
Tah lequ
Ves alius
renow ned
enjo ys
enthus i
Insur ance
Advan ced
Ontar io
Petros ian
Tahlequ ah
* .
. )
0 7
3 34
3 rd
6 2
7 s
9 4
A gre
B ot
B ir
B ul
B ath
B ott
B ased
B BC
C ed
C ow
C ha
C ast
C over
C ON
C rew
C ICO
D i
D ue
D aily
D unk
E E
E L
E ast
E there
E din
E conom
F M
F re
F ast
F resh
G E
G O
G or
H u
H at
H aw
H eral
H onda
J ü
J ul
J ord
K X
K av
K ore
K ids
L ou
M M
M em
N C
N u
O l
P L
P en
P ack
P air
P ict
P ret
P ope
R ay
R angers
S H
S on
S or
S and
S em
S ite
S TA
S earch
S chnau
T X
T on
T el
U C
U V
U mesh
V is
W A
W S
W i
W all
W ant
W inter
W arr
b in
b are
b aked
b amboo
c ents
c ue
c ities
c odes
d ied
d ietary
e z
e en
e ign
e books
f ly
f its
f les
g ently
h in
h ang
i en
i ant
l ad
l ich
l iber
m n
m all
m ile
m ons
n ish
n ative
p ha
p itch
r ings
s ar
s of
s id
s op
s ights
s ides
t ill
t ip
v acation
w s
w er
z an
” )
in ar
in av
in tim
in corporate
an ime
er o
er ia
re fin
re sum
ou b
or nam
en ess
es cape
es thetic
is ition
to ck
ing er
and er
and inav
ar g
ar p
ar gu
ar rows
as ks
as sume
le c
le mon
le ather
ion e
st ability
ac ing
om er
se es
se ating
se cut
be th
be an
ad i
ad ly
ab ide
ab andon
ab akh
un a
un al
un to
pro spect
ur n
ur ious
ut ing
ut ter
con e
con firm
con centr
ap hy
em an
de le
de gre
ul ations
ex ists
sh ed
qu ant
qu ote
pr ison
gr ain
gr ip
In tegr
co on
ip ed
ip per
ge o
has sle
gh t
work shops
av oc
comp aring
ach ie
bo ol
ast ro
sp icy
af ra
ev in
ev olution
An alysis
cont ext
ep ie
ans ion
part ners
ry ps
br anch
int on
ber ts
pos als
19 70
cr ime
cr ibe
cor respond
Ch all
col l
aw a
St an
St ation
know s
wo ol
ca using
enc ing
high way
vis ible
fin ancing
view ing
Com ing
att ende
cal m
cal yce
mer chand
mark ed
don ations
top ics
set t
Re cent
sure ly
ho o
fun dra
tur ing
Tr ish
fl ash
Al lec
ath ers
pt ions
He aven
bel ly
eng aged
Coun try
Un ivers
develop ments
ident ification
itch ens
fact or
Pro per
custom ize
pat io
Se attle
ext ended
En d
En vironment
sur prise
dec ade
Ro ck
Ro bert
Ro berts
organ ic
ah y
ann ivers
sal ad
var ied
Br ing
Br idge
sign al
sign als
follow s
Sc andinav
bre ach
bre ath
oper a
cut s
Res ort
Te ch
pay ments
vol unt
dep th
mit ig
tem plates
Ap ply
Wor king
und ry
Le ague
Le ahy
control s
bur st
bur gh
Is lam
ret ch
ret reat
gest ures
consider ation
Af filiates
AC M
equ ation
Man chester
ra ise
count ies
sens es
11 th
invest igation
phys i
necess arily
May be
mp ic
ref use
share s
click s
Ste ve
Ste fon
nam bool
focus es
Cont rol
fill ing
Nor thern
Part ners
medi ate
hold s
test ing
van ities
pick ed
sever e
fit ted
reach ing
break s
Mar gery
conf ess
RE E
fast ing
lab el
natur ally
Qu ick
hot els
cir cul
Pat el
cook ed
Stud io
Ger ald
za beth
return s
ht ml
gar age
plant ed
GP CA
track s
Par aly
ring tones
tour nament
ino is
flo ors
contract or
corpor ations
Dis order
worth y
represent ed
AS C
gre w
prem ier
Of ten
potential ly
complet ion
Per form
Per haps
fig ured
hon or
six th
agr am
Cam era
mil k
mil es
sus pect
wash ing
war ning
que z
que en
effic iency
protect ed
acqu isition
mis try
analy ze
jun ior
Mc Lean
OC HR
SM G
dy nam
encour aged
trail er
ker nel
appl ies
condition ing
YO UR
sequ ence
chair s
respon ding
push ing
emot ions
El isa
imag in
imag ine
Ho ly
peace ful
draw n
capt ure
passion ate
candid ates
absol ute
plug in
birth day
susp end
susp ension
pul led
contrib ute
Sound proof
squ are
rob ust
medic ine
transform ed
manufactur ers
Ko ck
gun s
sex ual
Ann ual
gi ant
Har vard
ran king
scen ario
Rac coon
carr ied
Class ic
Republ ic
Inde x
obvious ly
expand ed
Fund ament
reve aled
collabor ation
advertis ers
Creat ive
Clear view
Kar abakh
Mill er
Oper a
SU MO
glit ter
glit tery
sam ple
polit ics
Exper ience
Remo val
Remo ved
detect ed
editor ial
stim ul
sover eign
increasing ly
obl ig
univers ities
modif y
flav or
Word Press
WI LL
rank ed
assu an
neo conserv
clust er
athlet es
config ured
magaz ine
Eli zabeth
pregn ancy
supple ments
belie ves
Ill inois
sche me
anatom y
fundam ental
thorough ly
Profess ional
Que en
glo be
settle ment
Consult ant
harass ment
acknowled ged
BP H
Drop box
insul in
elder ly
agend a
cau ght
layou t
Bes ides
Imag ine
Jour nal
Person al
Spo on
intel lect
Quest ions
doub t
scallo ps
Ced ar
CICO A
Dunk in
Ethere um
Heral d
Jü lich
Jord an
KX IP
resum es
degre es
avoc ado
afra id
ryps in
calyce al
Scandinav ian
Paraly mpic
Elisa bet
% )
' ,
0 1
7 2
7 6
7 20
7 00
8 1
? ”
A ward
A venue
B et
B ab
B ible
B amboo
B ibl
B angal
C ab
C row
C ons
D R
D al
D ell
E t
E th
F L
F a
F l
F ET
G re
G iv
H y
H ate
H um
H ills
I d
J S
K ris
L y
L ic
L ind
L og
L ux
L earning
L ucky
M en
M and
M ess
M oun
M ix
M ont
M AR
M ission
N atur
N avy
O EM
P an
P ad
P res
P os
P ump
P CP
P CN
S top
S ix
S ug
S ony
T I
T ay
T ower
U l
V as
V ill
V ene
Y u
Z y
a a
b its
b arr
b ott
b acter
b omb
c ro
c ad
c ant
c ise
c ables
d ab
d edu
d umpsters
d ensity
e lev
e uro
e gg
f as
f ers
f ake
f ishing
f ields
g art
g olf
g ardens
h ike
i av
i ary
i OS
k n
l s
l uck
m k
m un
m ut
p el
p ine
p ixel
p izza
r iv
r ice
r tle
r anks
r andom
s lot
t es
t ap
t ier
t ours
t rop
t went
u um
v ill
v ul
v ous
w is
w ag
w ata
z one
z uel
ó n
th ers
in ser
in str
in her
in os
an ony
an cient
er n
er as
re ci
re vis
re call
the atre
at tain
at ivity
or a
or ation
or ange
al t
al and
al le
al og
al leg
al ert
al gor
is an
to l
it z
it er
ar on
ar lo
ar ising
as sets
le agues
ic elli
st ro
st retch
ro se
ro bot
ro cks
el ig
el ier
il and
ac counts
for th
for ter
se ed
be terre
he ated
ad m
ad op
ad der
ch a
ch op
ch arts
id ers
et ers
et ball
ol i
ol ar
ig ence
ig inal
ct or
ver ify
ab und
ot ed
ot ive
un iversity
un gs
un wanted
pro pr
pro posal
pro posals
ag an
ag ricul
ir a
com bo
com plain
con ver
su mo
su red
su ited
lo ves
all ot
ne ck
ne ither
ne utral
ap ple
The ir
em ission
em ony
mo du
mo she
pl astic
de ar
de co
res erve
ke ley
ke gon
we igh
ha ul
ex pl
ex ceed
pe pt
est ream
sh elf
sh arp
so cket
art work
per mit
wor r
wor st
od eling
ist ines
act ers
cl er
pr ide
po ly
gr ab
gr ate
In n
In nov
In dependence
ust in
co zy
ip ping
work er
ma iling
comp ar
ach moshe
du ve
du ction
ich at
li ability
ish es
An sel
cont ents
dis k
dis cretion
pre st
pre cise
bl adder
own ership
new est
str ing
str ange
over looking
br ass
br ush
int ent
int ensity
man n
ber g
no on
inter action
19 50
19 80
ph en
cr imes
cr imin
them es
col our
there of
produ ces
incl usive
off ices
off set
St ut
des ir
des erv
min ion
reg ards
dr ag
dr aft
bu ff
high lights
vis ited
io buf
vers us
Com ple
iss ions
bet ting
au th
want ing
back s
Re lease
lif ts
del ight
del ays
inv as
inv ite
ins ights
Con ne
Con sumer
Con ference
che aper
che mistry
fl ag
fl our
fl ight
fl ights
Al to
Al ber
Al ways
Al loy
sm ith
He ad
eng aging
person ally
book ed
light ly
differ ences
Un like
here by
find s
lar g
clo ser
cap abilities
inst ance
head quarters
ident ified
Pro cess
Pro ject
To gether
sk irts
plan et
Se curity
Se cret
En h
sur faces
par am
par alle
Ex p
Ex tre
az y
care ful
ah n
comple ting
free zer
sal mon
15 6
Au beterre
Pr im
Pr iv
Pr inc
Co de
met res
met abol
Be ing
Be fore
rest orative
issu ed
char acters
order ed
found ation
oper ates
product ivity
cut e
Cl in
Cl oud
Cl imate
ali ke
second ary
199 3
photo graph
photo grapher
dom estic
por ter
At tack
Fr iend
IC K
With out
mus h
mus ical
Is lands
exam ined
personal ity
fac ed
enjoy ing
public ation
equ ity
Man ual
ra ised
along side
activ ate
Dr aw
anal ys
God dess
function ing
phys ician
Bo ot
Med iation
roll ing
My rtle
ref used
ref lection
click ing
SE RV
nam es
appro xim
dem o
hol es
lik ed
super b
super vis
Anton io
cu its
near by
stor ing
compet itors
13 3
mag ical
ste ad
ste ep
HE RE
Pat ent
Sp irit
celebr ation
Reg ional
integr ity
trad ition
ane ously
crip t
graph ical
loss es
lands cap
Cor p
tell ing
sho ok
Fe el
experienc ing
Am ong
Rem ove
Rem odeling
OR I
brow se
contract ors
strong er
corpor ation
invol ving
educ ate
educ ated
Dis pute
promot ing
Car ol
affect ing
guid ed
maintain ing
def ense
dest roy
PR O
Comp act
teach ers
answ ers
21 st
moun ted
Ge org
San tos
sem ester
prom ising
prom ises
cru ise
hosp itals
La ver
Pol icy
agre ed
Mus kegon
ON E
exerc ises
analy z
suggest s
diffic ulty
recogn ized
CP I
tax es
altern ate
viol ation
viol ence
SO D
Sw imming
bon us
drop ped
accur acy
determin ation
introdu ce
Up on
igr aphy
appl iances
except ion
except ional
Read y
Ber keley
Pal o
dream s
Grand ma
Good en
Cent re
Port able
fair ly
valu ed
remind ed
thes is
jud g
jud ge
mix ed
mix ture
reserv es
extre me
straight forward
Je wish
lux urious
Bel g
NO T
fight ers
sustain ability
Through out
craf t
controll ed
Phil istines
assign ments
DI Y
eth ical
estim ates
efficient ly
sport ing
spirit ual
circuit ry
Sil ver
fold ing
compon ent
drug s
attor ney
Mil k
Spot ify
chemical s
Arch ite
diagno sed
Air port
Hel p
spread s
Link ed
gent le
hab it
ju ice
pad dock
calcul ation
occup ied
Represent atives
Oh io
tast es
beam s
compass ion
liter ally
Applic ation
Cap ital
bour ne
lamp s
chand elier
resist ant
shap ed
cris is
Corpor ation
Corpor ate
Rest orative
Sus an
Ty pe
nav igation
Start ing
desk top
minim al
Admin istr
Beaut y
Beaut iful
impress ive
troubles ho
Mach iav
Rah ul
ecolog ical
stake holders
antit ative
antit rypsin
Guide book
origin ally
Mel bourne
iat ric
lib eral
sou thern
veget ables
resto re
shel ter
satisf ied
dimens ional
Mex ico
Sho re
enem ies
seg ment
weap ons
Counsel ors
Color ado
Contin ue
Cyber Source
Gal ax
Hist or
Kel ly
Ok lah
Ze aland
fem ale
pound s
proto type
Champion ships
attemp ting
Armen ian
Jun ior
MOS FET
proxim ity
embr ace
renov ation
frustr ating
Fit ness
Hamp ton
PT FE
Rail road
Tyl er
incur red
accoun ting
promin ent
deleg ates
liqu id
Plac enta
Fran cis
345 b
Quarter ly
travell ers
Fest ival
Ide as
Sab bath
vic tim
spons or
legit imate
Academ y
Hosp ital
Bot tom
Bott icelli
Edin burgh
Hat achmoshe
Pret ty
Schnau zer
Warr nambool
fles h
merchand ise
Recent ly
fundra ising
annivers ary
Perform ance
Fundament als
Bibl ical
Bangal ore
Giv at
Lic ens
PCN L
Vas quez
Vene zuel
bott les
wata h
reci pe
algor ith
agricul tural
sumo affiliates
modu le
pept ide
Ansel mo
Oklah oma
Hatachmoshe t
! "
& #
) ;
/ .
2 50
3 50
6 9
8 00
8 50
? )
A 3
A w
A x
A qu
A ach
A li
A ren
A cur
A AS
A lex
A ustin
B S
B T
B ent
B right
B ons
B IC
C O
C ad
C ul
C ass
C opy
D U
D V
D et
D ax
E C
E v
E qu
E co
E ure
E sp
E ss
F I
F lo
F ive
F act
F ors
F IG
F ederal
F lan
H G
H IV
I L
K ings
L ol
L ib
L ep
L ane
L ayer
L emon
M at
M ind
M att
M iss
M ult
M arr
M aterial
M ental
M iam
M BA
N T
O il
P un
P ut
P av
P urch
P orter
R ing
R av
R ef
R ug
R AN
R ene
R ules
R ights
S L
S ter
S ex
S her
S hip
S ury
S TV
S haw
T w
T al
T ar
T om
T imes
T aken
U F
U L
U r
V 8
V ood
W ing
W IM
W ifi
W PI
W ICK
Z one
_ _
_ copy
a is
b at
b ors
b att
b atch
b ats
b ars
b ags
b ahn
c ow
c ake
c col
c ade
c ured
c rop
d ar
d ro
d ad
d ough
d well
d ump
d ivers
d den
e c
f u
f al
f ad
f are
f ci
f ax
f ought
f usion
g ut
g amp
g cry
g fci
h ill
h li
h ence
h iring
i ated
i ator
j ar
j ab
k illed
l il
l id
l ip
l ined
l ady
l ucky
m i
m ic
m ac
m end
m ild
m ium
n up
n ie
n ations
n ick
o h
o y
o bey
p c
p on
p ac
p ig
p our
p ip
p ace
p ull
r at
r ig
r ag
s ion
s ight
s cor
s add
t at
t il
t un
t all
t ial
t ures
t emp
t ub
t win
t wel
t emporary
t ube
t aught
t gart
u ed
u ate
u bs
v 2
v as
v ibr
w ave
y am
y ester
z ens
® .
’ ,
th ir
th read
an no
on ian
re tr
re form
re turning
the ory
at ar
or age
or mous
en grav
en quir
en ormous
es is
al o
al arm
al umn
al umin
is ian
to y
to ast
to ss
it age
it ory
ar rest
as ide
as pect
le man
st ag
st air
st ages
el p
ent ang
il ly
il der
il ton
ac a
ac s
ac es
ac le
for given
be gun
he pat
he els
he aring
ch es
ch art
ch ampion
ch rome
id em
ly n
et al
am en
am ber
am ple
ol an
ol id
ab r
ab dom
ot ic
un iqu
un install
un installing
wh el
pro s
ce ment
ag er
com pr
com posed
con qu
con gress
su ite
su dden
lo p
ap prov
em pl
em itting
if ting
mo od
mo date
pl ed
de em
de cre
de lete
de eper
op ens
res idence
ul a
ess ay
we ird
ex it
ex port
ex plan
pe er
pe ers
est ones
out fits
ther ford
so il
so ak
oun ce
ant ib
per man
wor ship
od ing
um my
um bing
ment ary
cl unk
cl ouds
end less
pr ime
gr af
gr ave
ind u
do zens
form ulation
tim ing
ud ed
comp iled
bo ots
ous i
ail ing
af for
der ed
der ived
get ic
An sw
ser vers
cre w
ass ault
ak s
dis abled
We ight
pre view
ren al
bl own
prov ince
str ugg
over view
Wh atever
fr anch
no od
inter actions
inter active
spe cts
.. /
ph il
ph arm
need ing
low est
may or
produ cing
fir ing
St at
St ay
des cription
min er
ca fe
enc amp
lect ure
jo ints
fin ances
sy s
every body
Com es
att ended
see ks
bet a
read ings
ious ly
gu ilt
cer emony
set up
pres idential
pres erve
rel ations
rel atives
where in
ted ly
put s
car ved
ins ight
sim ult
Tr av
Tr ib
Tr ump
And y
Al ong
Al ert
sm ash
eng ines
hand ling
market place
design ated
long est
trans mitted
after noon
ner vous
Ad am
Ad vent
cap es
cap tain
cap turing
Gr an
inst ant
inst antly
Pro tech
ug ly
custom ized
To sh
pat ents
sk etch
qual ify
vent ions
ext ens
ext ension
arr iving
offer ings
dec iding
200 6
run ner
sum mar
real ized
organ is
leg end
fil iate
loc ally
perform ances
exp ansion
Br ant
Br anch
15 5
sub sequ
cy ber
Au tom
Au thor
Pr ice
Pr ior
Pr inciples
access ing
access ed
met ers
cell ular
bod ied
tal ents
tal ks
remo ving
special ly
special ized
found ations
load ed
success ors
elect ed
show ed
ense m
199 1
14 70
por tra
hard er
mus cle
und oub
Le gal
bur n
bur ri
direct ory
hy p
pare d
respons ive
priv ately
Americ ans
equ ival
la undry
tra um
ienc ies
appe ared
pot atoes
win ner
train er
contact s
non work
11 7
invest ors
organiz ing
uck er
wel coming
review ing
dam aging
Bo omer
SE O
individ ually
simple _
employ ers
pract ition
ming ham
iven ess
Ind ivid
children s
Che mical
watch ed
fit ting
reach es
contain ing
contain ers
24 0
round ed
super ior
benef ic
conf used
conf idential
RE style
RE Congress
fast est
speak s
claim ing
13 2
mag ulu
ball s
cir cle
sell er
abl ing
Sp inner
celebr ating
Reg ion
Reg ister
music ians
Ac cess
Mon th
integr al
integr ating
cook ies
Min istry
bro ke
Cor d
respect ed
Rem over
comb ining
meas uring
touch ed
stay ed
author ized
econom ies
ik es
discuss ions
account ant
Cr ush
Cr ime
TA IN
display s
sent iment
anim ation
Car l
fail ing
chat ting
extra ordinary
def ault
exist ence
news letter
represent ation
sect ors
decor ation
decor ated
decor ating
assist ed
196 1
196 3
autom ated
autom otive
Im age
dest inations
gre y
supply ing
volunte ering
gen u
blog spot
achieve ment
request s
request ed
communic ate
har mon
More over
imm igration
intro duct
suppl ier
suppl iers
Sto ck
hon our
enn a
prom ised
gain s
gain ed
Pol lack
Sy r
cand les
electric ity
retail ers
Every thing
Mus lim
prefer ences
auto mobile
protect ing
Mac Remover
pan ic
pan els
counsel ors
obtain ing
Fil ms
fre ight
mor mons
smo ke
smo king
advis e
advis or
distrib uted
Health Bridge
campaign s
Sw iss
Sw itch
adjust ments
Read ing
dress ed
rac ing
rac ist
occur red
domin ant
Life REstyle
German watch
repair s
hum id
hum ans
pool s
coach es
Ru therford
neg lect
draw ing
terr itor
Int ro
consist ently
Spr ings
pul se
sav ings
accept able
craf ts
craf ted
block chain
Po int
functional ity
crypto currencies
faith ful
Wed ding
eth ics
enh anced
proced ure
compens able
TH IS
bound aries
marr ied
Inter est
demon strate
licens ing
initial ly
Sil ence
Sur v
pump kin
exhib its
195 7
strength s
Aud i
Aud itor
Bow l
UP DA
hop es
lap top
accom modate
Char les
System s
88 8
Gold en
Sat yam
tick et
accep ting
amb ient
pleas ant
arrang ed
surv ive
Ell en
Sing h
Wal mart
bes ide
intr ud
surpr ising
Exam ples
Victor ian
vel oc
renew ed
GM T
dur able
gon na
pod cast
mechan ical
Admin istration
Japan ese
Bre ak
Lit tle
ecolog y
restrict ion
restrict ions
assem bly
Brow n
Brow se
WE P
sco red
recip es
orient ed
ador able
govern ance
Labor atory
dimens ions
Ken ya
Loc ation
Mor ris
Rol led
Spect rum
assum ing
sau ce
sau ces
legisl ation
cylind rical
painting s
CF UV
va _copy
resol ve
Apart ment
Pas sover
Tor onto
infl ation
quot es
fragr ance
adequ ate
Lead ership
vitam in
Dü ren
cater ing
incorpor ated
academ ic
Commer ce
Coll ins
penal ty
Assist ant
Bun ola
Hard ik
Li ens
Les Bons
Seas on
Tro jan
Tha iland
Ven us
kno ck
Soci ety
Movie Pass
Volunte er
warrant y
Agre ement
Bir mingham
Haw ai
Kav ousi
Ol entang
sop hist
wer en
ornam ents
dele ted
Stan ley
attende es
Roberts on
intellect ual
Natur al
Vill iers
Zy deco
trop ical
twent y
elig ible
adop ted
grate ful
Stut tgart
Secret ary
param eters
Extre me
SERV ICE
approxim ately
Laver ne
Linked In
troublesho oting
Machiav elli
Galax y
Venezuel a
Aach en
Acur as
AAS M
BIC Sc
Copy right
DV D
Dax ko
Eure ka
Fors ch
Flan agan
Miam i
Pun jab
Sury a
Vood oo
WICK ET
bats man
gamp ang
nup tial
twel ve
engrav ed
simult aneously
Protech soft
undoub tedly
Boomer ang
Satyam ev
LesBons Liens
Olentang y
. '
0 6
1 F
1 L
1 80
5 th
6 1
8 6
8 7
8 th
9 3
9 6
9 00
A h
A then
A SE
A gar
A gain
A aron
B L
B a
B ing
B io
B ob
B road
B log
B omb
B ody
B MW
C L
C er
C ou
C ro
C hair
C aled
C ivil
C ulture
D E
D ou
D ark
D ave
D rew
D iabetes
E G
E U
E y
E ver
E ric
E ye
F O
F ed
F our
F MC
G a
G un
G all
G ha
G als
G MC
H A
H B
H as
H op
H old
I B
I mp
I ron
J ar
J am
J ose
J ones
K E
K L
K a
K ur
K ast
L P
L ine
L iving
L akes
M ade
M aut
M aur
M AT
M ember
N P
N ig
N ation
N one
N olan
O ax
O cean
P ap
P ie
P ok
P age
P ors
P allot
Q ual
R C
R and
R id
R ot
R ain
R io
R SS
R 1L
S C
S in
S om
S ever
S even
S team
S und
S tra
S IG
S CC
S adly
T P
T re
T un
T ick
T ouch
T aking
T ags
T alk
T NT
U I
U bs
V A
V ar
V ic
V IT
V intage
W H
W is
W olf
X I
X iv
Y N
Y oun
Y ellow
Z ak
\ /
a ways
b ent
b ish
b ree
b ian
b order
b und
b ands
c av
c af
c ope
d ive
d ust
d ale
d irt
e g
f fect
f ired
f ont
f ond
f folk
g am
g ap
g um
g reg
g lob
g aming
h en
h its
h att
i 8
i ating
i Le
i Tun
j et
j am
j ail
j acker
j azz
k g
k itchens
l ag
l oun
l ibrary
m g
m u
m ad
m ates
m aps
m igration
n an
n is
n ell
n avy
o ak
p ines
p ond
p ension
r am
r im
r us
r als
r anging
s and
s ne
s ke
s can
s ick
s car
s cam
s isters
t issues
t ender
t issue
t roller
u an
u ity
u ous
v able
v ely
v ath
w ider
w aters
x asprintf
y r
y ards
y ota
z ent
® ,
th on
th al
th os
th resh
in f
in ely
in bound
in hab
in jection
in fection
an ies
er on
er ation
er ton
on ne
on ze
re cre
re fr
re vers
re cycl
re trie
re fund
the ast
the ater
at al
at meal
ou x
ou red
or ous
en a
en ic
en force
en counter
en compass
al ity
is ol
is cal
is land
to e
to od
and al
ed e
ed ges
it ar
it ure
it ivity
ar ios
ar Xiv
as set
le is
le ton
ic ate
ic ts
ic io
ic ulous
st re
st ad
st ap
st ere
st ump
st abil
ro pe
ent re
ent it
il legal
ac ids
ac cred
you n
se am
be e
be er
be verage
he ights
ad oles
ch ed
ch ill
ly wood
ly rics
am m
am ity
am ended
ig e
ig on
ig ne
im plant
ot er
un g
un likely
un favorable
pro p
pro dig
pro spects
ur ge
ur anium
ce ase
ut or
ut ility
ir ty
con junction
con forming
lo re
lo vers
lo ys
lo ving
lo gin
ter ior
tr ay
tr ys
ne gl
em o
em issions
if ier
our met
mo on
pl ied
op hy
op posed
res il
res cent
ul ated
we ave
ha ust
ex haust
pe ak
sh ire
sh ade
sh ore
out s
out ique
so cks
qu ic
qu antitative
ant im
can o
can cell
can cel
per mitted
wor se
iv als
ment or
act ed
act ress
any more
not ch
gr id
ind ul
In fo
In don
In dependent
In stead
up g
fe ars
co operation
ial s
do s
do sha
work place
ok es
ok ing
ok ay
20 30
20 mm
av atar
comp troller
ure au
du plic
bo at
ast y
ast ers
li ament
ous ine
ail s
sp am
sp ir
sp awn
ev es
ev ident
iz z
An xiety
ck ham
cre ativity
fer ences
ak a
ace ut
dis c
dis miss
dis tract
dis counts
dis rup
dis closure
dis covery
ia h
pre ne
pre fix
pre nuptial
bl ink
over whel
br ill
br ave
int end
man ip
ber line
fr ied
fr aud
fr idge
You th
no ise
inter vention
pos ing
ph r
ph y
cr aw
cr ushing
cr azy
just ified
cor responding
Ch ange
Ch arter
Ch lor
Ch ester
col ours
col umn
col leagues
cur ities
ink le
ade ck
thr iving
St orage
des per
des ires
des tru
cus es
min ister
min istry
coun ted
add ict
reg ain
reg ulation
dr ied
dev oted
bu cks
old s
io ch
every where
sup posed
cent ers
fore most
cal ming
gu itar
cer emon
don ald
Re construction
pres erv
del ivers
air y
air ports
under ground
where as
fun ny
car ing
stem s
she ets
home town
home owners
Con stitution
And re
mon t
requ iring
che er
fl oral
For m
less er
cle ans
amp ian
cond itional
cour age
cour ts
iet ies
mem ories
person nel
hand ed
hand led
hand guns
ble m
design ers
eas tern
oup on
trans action
cons in
cons ists
cons olid
miss iles
val ley
ob st
ob serve
ob served
10 1
ced es
Un ion
Un less
main stream
develop er
cap s
Gr ab
Gr ace
Gr ade
Gr ange
Gr aham
Gr ipper
Gr ampian
Ar cade
head er
ug s
To ol
To yota
wr ap
post ers
arr ived
support ive
turn s
Ex ped
Ro y
az il
real istic
leg ally
Go v
Go spel
care d
sto cks
blo cks
fil ms
loc ate
ann ed
ann el
ric ane
Br azil
15 1
sub ur
sign ing
sign atures
Pr act
access ibility
Co x
Co ach
Co leman
De ep
follow ers
pass engers
contin ental
special ists
12 5
12 8
bre a
oper ated
oper ational
gl ing
gl am
She et
US E
loy al
Res erv
Res idential
opt ional
pay s
ium ph
clean se
aim s
photo graphy
vir us
14 5
por k
Le aves
bur ied
direct ions
hy th
fac ulty
enjoy able
ground ed
video graphers
AC K
priv ile
purch ases
number ed
stat ist
stat ue
equ ally
fur t
Or iginal
install ment
ienc es
ra ising
understand s
contact ing
invest ed
organiz ational
uck s
atter ed
law suit
AN L
AN Y
Bo x
Bo y
May ank
ref usal
18 5
mal e
mal practice
cas ter
town s
Part icip
Do ctor
email s
Lo vely
research ers
deal ership
defin ite
24 4
gn upg
round about
super vision
Wind blight
Mar ia
bor row
concer n
speak ers
stor m
bi ke
card io
mag net
ste ering
ste ady
switch ed
sell s
Sp in
celebr ations
integr ate
integr ates
cook s
Stud y
Min ing
return ed
short ly
broad caster
fix ing
fix tures
gar bage
typ ical
comb ine
study ing
40 6
Su zan
Su ffolk
brow s
stop s
regard ed
spr ay
Bar on
tty io
refer rals
host ing
host ed
Cr af
Pe ace
den ied
rect us
promot ions
Thank fully
Don ald
mid st
prepare s
maintain ed
School s
rep et
firm ly
Pet ers
nut s
ux e
stit utes
Any one
assist ing
196 9
Im ages
redu ction
prem ises
Of fer
tre mend
smart phone
blog s
associ ations
heart s
achieve ments
LL C
har sh
according ly
198 2
198 5
198 6
cert ification
Black berry
Gener ally
Sto re
fig ur
enn el
sem i
prom pt
util ized
Comput ing
Bu y
Pol ice
stress ed
subs crib
platform s
ER Y
fa el
fa ult
attract ed
prefer ence
AA AA
Mac donald
lay ers
sil k
acqu ired
grand ma
bill boards
knowledge able
download ing
Are a
Over all
ban king
advis ed
aren cy
button s
Bro ok
Bro kers
Bro ckham
Pre mium
Sci ences
implement ing
encour aging
viol ent
Sw agar
Tod d
gather ed
stick ers
adjust ment
determin ing
answer ed
Sm ith
bab ies
Cred it
Fo x
Fo ot
Fo cus
batter ies
trou ble
clos est
rac ial
consult ant
quil a
domin ion
Hor izon
Hor vath
convent ional
emot ion
Ir vine
diet s
inj ured
uss man
Coordin ators
target ed
slow ly
remind ers
optim ize
explain ed
coach ing
197 3
197 4
Mer cedes
reserv ations
Real ty
Design ed
terr or
terr itory
Art ist
Bel ow
Str ong
Vol ks
cat alog
accept ance
Star burst
transfer red
Book case
agar wood
medic ation
official s
official ly
?? ?
Elect ronics
Gover nor
Ko hli
lin en
sn ap
Altern ates
Main tain
Main tenance
wild life
threat ened
omb ie
dead line
Ann ie
simpl er
histor ical
Oak land
Sil berline
fold ers
spo ken
throw ing
serious ly
drink ing
Sim ple
Sim ply
Tour ism
wit ness
icon ic
ultim ately
emphas izes
Arch adeck
scen arios
initi ative
diagno sis
hop ing
crit ic
crit eria
carr ies
carr ier
Full erton
hur t
calcul ated
arrang ement
Em ily
Ve get
nur sing
tw ist
tast y
termin ate
Scout s
advertis ements
establish ment
Creat ing
Oper ations
hi jacker
spl it
elimin ate
elimin ated
shap es
spark le
strain s
cris p
Cho ose
possess ion
hydr ation
Wom an
dur ation
div ision
pas te
pas try
zz ah
adapt ive
minim ize
fortun ate
Kr ist
Kr ussman
Mach ine
Pass ion
Set ting
dial ogue
nom inated
forum s
univers al
empower ing
vari ations
Olymp ics
CS R
Cal amity
Dom in
Farm house
Pur pose
fing er
yn thos
orient ation
anticip ated
deploy ed
magaz ines
Download s
Ash win
Bas ic
Fish el
Mex ican
Nur sing
Pakistan i
Sa igon
Sol utions
Wil son
enem y
decl ared
weap on
Ant ioch
Medic ine
accommod ations
Cry stal
Lim ited
NE W
Ob ject
Ret urn
dies el
fro zen
gro cer
vin yl
heav ily
compress ed
intention ally
belong ings
retro spect
subsid iary
psych ological
Bear s
Gate house
Nap oli
cott age
reli ance
Roof ing
Atl antic
unders tood
Current ly
Vietnam ese
Gree ks
Hen an
Lev el
Num bers
Tit ans
divid ed
lon ely
pill ows
rust ic
rein force
replac ing
consul ting
shr imp
Prote ction
Frank furt
interpret ation
rapid ly
Diet etic
Pink fresh
Sou thern
advent ur
emer ging
grat ulations
encry ption
apparent ly
prescrib ed
archite ct
facil it
Di Napoli
Econom ic
Kore a
MM UP
Mem orial
Sor ry
hin agar
lad ies
arg ument
abandon ed
achie ving
epie ce
correspond ent
sett led
volunt ary
physi ology
dynam ic
imagin ative
Republic ans
oblig ations
Bet ter
Fa ith
Id ent
Lux ury
OEM s
Pump kin
Sug ar
Tay lor
instr ument
ungs zent
desir able
deserv es
iobuf _
Conne ct
Alber gue
larg ely
paralle l
Princ ipal
SOD IM
Belg ium
Milk man
Licens ed
Aren a
Cad fael
Ess ential
Lep age
Purch asing
Rug by
Ster ling
fal se
tat too
yester day
alumin um
hepat itis
amen ities
abdom inal
uniqu ely
approv al
strugg le
phil os
pharm aceut
subsequ ent
ensem bles
equival ent
benefic ial
introduct ory
veloc ity
Hawai i
Forsch ungszent
Caled onian
Gha zzah
Kast ner
Maut ino
Maur icio
Oax aca
Pors che
Sever al
Sund ar
Wis consin
Zak ynthos
iLe ads
iTun es
recre ational
seam less
trys ide
Indon es
Chlor is
Exped ition
Suzan ne
Forschungszent rum
! ),
, '
. ).
1 B
1 30
1 34
3 D
7 4
7 85
8 4
8 34
; ;
A J
A Z
A th
A do
A 80
B Y
B an
B on
B all
B art
B ud
B ry
B low
B run
B ask
B apt
B ACK
B ucks
C art
C ard
C air
C olog
C ream
C OS
C offee
C rescent
D er
D or
D ut
D ance
D io
D NA
D ucker
E P
E mer
E tow
E vent
E AS
E AR
E valu
F al
F ig
F ire
F low
F ake
F ore
F lex
F REE
G C
G an
G ive
G iven
G ED
G ift
H K
H P
H z
H ear
H GH
H IGH
I l
I ce
I IT
I AP
I dol
J P
J r
J ed
J ud
J SE
J ama
J azz
K um
K ick
K err
K ey
K nights
K han
K evin
L or
L ed
L ater
L iqu
L UN
L GB
L CD
L una
M K
M b
M u
M ap
M os
M organ
M ED
M ike
M ME
N on
N ear
N ep
N air
N ike
N HS
N BA
N Ps
O D
O G
O W
O ption
O atmeal
P a
P y
P ow
P um
P As
P ek
P ier
P uro
P aren
P ET
P izza
Q 345b
R A
R th
R ud
R og
R ise
R os
R WD
R isk
R adi
S Q
S n
S el
S ac
S ud
S now
S af
S hel
S low
S cho
S ize
S ets
S elf
S olution
S oul
S TE
S weet
T em
T est
T ich
T ree
T ank
T IN
T ai
T reas
U CS
V i
V ision
W R
W W
W ad
W ire
W ins
W ave
W IT
W AR
W inner
W AV
X MP
Y a
Y e
Z A
Z o
Z ep
Z 80
a er
b ial
b ark
b ake
b icy
b ull
b anks
b aking
c d
c art
c ific
d at
d il
d io
d iversity
d imin
d temp
e u
e ed
e book
e Rules
f i
f rench
f athers
f iscal
g p
g le
g ad
g ay
g ren
g ross
g ency
h ate
h ired
h unt
h iding
i as
i ón
j c
j ö
j as
j ury
j unk
k ne
k its
k iss
k ings
k ale
l en
l ol
l ie
l iness
l ived
m W
m d
m am
m ur
m our
m ant
m ature
m apping
n m
n ar
o x
o or
o ved
o Commerce
p i
p p
p am
p ir
p end
p add
p ted
p ants
p ets
r ally
r ick
r ame
r ising
r ush
r ification
r ival
r hyth
s om
s tom
s print
t we
t art
t ive
t um
t ie
t ile
t ured
t ape
t ends
t iny
u th
u ing
u ble
v ig
v ap
v ivid
v ouch
w an
w re
w ages
w ired
x ic
x ml
y ur
y ers
y ield
z h
in et
in ity
in fect
in dependence
in definite
an x
an z
an ie
on ing
on ice
re ver
re str
re med
re mark
re plic
re start
re cording
re actions
re wards
re sem
re charge
re verse
re cycle
at ible
at trib
or phan
en ers
en ity
en abled
en sures
en abling
es _
es y
es tr
al a
al ur
al together
al pha
is lands
to tem
to dy
ing ly
and roid
and hinagar
ed o
ed itions
ar ro
as el
as se
as par
le verage
ic ation
ic ide
ic ting
ic ular
st ip
st ance
ro ot
ro ts
el k
el and
el lo
el ite
el iness
il a
il ty
ac on
ac res
ac les
ac compan
ac cum
om en
for k
for give
se ated
se cular
ve ys
ve gg
be ans
he aling
ch ic
ch est
ch ase
ch arm
ch apter
id is
ly ph
et ary
et ti
am an
am end
am bit
ay a
ol ine
ig an
ig ate
ation ally
im on
un ting
un necessary
un usual
un fortunately
pro be
pro stat
pro mp
pro ps
ut ional
ag us
ag ric
ir ations
com promise
con ce
con version
con stitution
lo an
lo go
lo ans
tr i
all ic
all erg
ne at
em in
em bed
mo sa
pl c
pl ing
pl as
de but
de pos
de cent
de feat
op io
res so
res ser
ul ing
ul tra
ke e
ex tr
ex posed
ex empt
pe oples
est one
sh am
sh red
sh ades
sh ifts
out look
out fit
out skirts
ther ap
so ever
qu o
can e
per ative
wor n
by e
od ies
Th riv
um s
um ber
act us
ere ct
pr ay
pr ize
pr iced
pr iest
not able
po ke
gr an
gr ac
gr ind
gr ants
gr illed
gr asp
In tell
up side
me ats
co a
co at
co il
co ve
co coa
ial ly
ell Re
do cks
ine vit
gh ost
20 s
20 th
go ogle
go spel
av o
av ed
av ender
tim ed
tim ore
ud ing
comp are
comp atible
port al
port ions
ib bean
ure en
ear s
ear li
ear rings
ach ing
du b
du o
bo ther
bo oth
bo asts
sp an
sp on
sp are
ev a
ev ol
iz ona
An a
An cient
ck er
cont empl
fo ol
ep t
ser enity
cre te
cre ep
cre ator
ass aul
ans as
dis count
dis section
dis charge
ign ored
pre ad
pre domin
pre jud
ile t
ren der
ren ted
ren zo
bl ended
bl owing
ful fil
own s
ll a
str ip
str ike
over s
over head
br onze
int act
int ense
man ic
no sis
inter act
19 30
cr ack
Ch i
Ch ang
Ch ief
col ored
cur ve
serv icing
aw k
off ense
des cribe
ress ion
coun tryside
cho se
cho res
add itions
add iction
ca ution
reg istry
dr ives
dr illing
bu ck
lect ures
io let
med als
vers ial
Com mon
cent res
fore cast
au g
au er
gu y
gu ards
gu ilty
don ate
ific ial
bus h
Re ed
Re ally
Re comm
Re cord
pres ident
del iber
then ce
rel ig
rel ating
under graduate
where ver
ho b
car go
car pet
car rots
she et
she ep
Con sul
Con vention
Tr i
Tr ack
Tr iumph
Tr uth
mon ies
mon itors
fl ick
Al cohol
sm arter
less ly
amp s
He y
He asel
arch ae
olog ic
mem or
eng lish
hand ful
eas iest
trans l
trans gender
trans continental
after wards
pur ple
call igraphy
ob jects
find ings
clo th
clo ths
Gr ass
Pl aza
Ar gent
Ar izona
sol ving
head lights
head ache
Pro ceed
Pro duction
ug al
custom ization
wr aps
... "
erv ille
ext end
arr is
arr ive
sur ge
par agl
Ex press
Ex tens
sum mit
organ ised
blo ging
fil ters
ric a
ank o
var ieties
exp end
exp ense
Br ad
sub tle
sub mission
cy cad
feat ured
De an
De cor
De ath
aut umn
aut onom
gener ic
contro versial
pass es
pass enger
met ro
last s
happ ier
point ed
sing er
contin ually
cell aneous
dig it
dig est
dig ging
So on
remo ves
char ity
char ges
12 th
side wall
oper ator
gl or
gl ory
gl imp
sw abs
few er
30 5
30 8
Cl a
Cl ark
US _
ten nis
istr ies
child hood
pay able
pay roll
check list
show case
clean ed
clean liness
kind ly
struct ured
struct ural
lim e
intern ationally
14 8
50 1
addition ally
mill ing
might y
hard ly
ond y
class room
Le af
bur se
direct ed
Is su
Is land
cam s
ret ire
exam ination
consider ations
Auto bahn
Af gh
mind ed
plac ing
AC C
Col our
equ ations
fur n
Or der
Or ient
Ph ishing
Man hatt
social ly
social izing
sens ations
expect ing
contact ed
non conforming
Dr onne
pack s
wel comed
Bo edo
Jo el
Med iator
May or
ref ers
SE TI
Ste vie
nam ely
ars on
Me thod
appro x
cas inos
fut ures
fill s
aud iences
icro bial
Ind ustry
Ind ians
Lo renzo
pick up
wa ited
Che vy
watch es
Rep orter
deal ing
defin itions
Council member
34 8
24 th
bit coins
key board
Wind ow
cul inary
deter ior
compet ing
compet ent
Qu inton
ste al
ste am
trip le
sell ers
Pat ient
treat ments
celebr ates
address ed
Reg ard
Reg ulation
Ac rob
Rel ation
Rel ated
bar rel
di odes
trad es
PA RT
lat ency
bro ther
bro kers
ht m
grad ually
fresh ly
match ing
match ed
mob ility
flu ent
Fe b
inc idents
plant ing
Am bass
IP s
track ing
Par agl
tour ism
fall s
fall ing
comfort ably
strong est
tty name
account able
Dis ability
den ial
select ing
begin ners
model ing
display ing
Gu y
Gu ys
IS H
IS P
Park s
exc av
exc use
Car ibbean
guid es
wall paper
ert ips
manufact ure
manufact ured
maintain s
hom eland
196 0
196 4
196 7
writ ers
wonder ing
Im lay
gre et
redu ces
org ans
omet ric
commer ce
sl ate
sl ice
comput ers
black ened
associ ation
Comp et
Comp anies
Mo on
cry stal
garden ing
mar sh
mar gin
mar gins
rid ing
rid ers
teach es
former ly
II I
hor izon
else where
section al
amaz on
continu ation
continu ous
continu ously
Fin ch
Let ter
West on
imm un
imm ort
198 3
hon ors
hon ored
Cam eron
La unch
La Grange
mod ules
fab rics
sle ek
effic acy
65 70
Hol lywood
hit ting
grand father
counsel or
mis cellaneous
ri be
period s
prevent ing
analy st
John son
Dep ending
advis er
popular ity
recogn ize
tax i
tax pay
vot ing
vot ed
altern atives
distrib ute
encour agement
viol ates
23 5
Del uxe
text ure
text ures
stick ing
accur ately
entertain ing
launch ing
nutr ients
sweet ness
bul k
center piece
Read er
character istics
Ber n
dist ur
influ ential
influ ences
separ ately
ibr aries
pet ition
ays ia
lock er
lock ed
regul ated
dete cts
MP 3
MP a
press ing
rele ases
attend ance
Ir an
Port al
stream ing
progress es
preci ous
relax ing
Coordin ating
imag ined
optim ization
197 1
church es
essential ly
Trans fer
object ives
Je b
commission er
consist ent
consist ency
Like wise
Spe aker
Spe cific
nation wide
yes ichat
contrib ution
temper atures
Book s
Cour se
Ear ly
Ear lier
rob ots
appreci ated
assign ment
medic inal
accident ally
Flor a
MC C
RO M
RO OM
Vir at
eth nic
ka al
ov o
asp irations
output s
Thanks giving
guard ing
guard ian
Altern atively
Market ing
bound s
farm ers
sex ually
meant ime
intellig ence
simpl est
simpl ified
CR P
Other wise
spo il
spo kes
exhib itors
clar ify
Look ing
Ben z
Har a
Out door
PM I
Sim ilar
Ter ms
Tur n
Tur in
categ ories
express ed
scen es
Hel ios
Sain ts
album s
truck s
deck ing
princ ipal
hab its
ju ven
matt ress
pal ette
concept ion
trust ed
willing ness
arrang ements
surv ived
LA GS
Met adata
Mag az
Wo oCommerce
mass ive
tail ored
wid th
reve al
termin ation
tele phone
tele communications
letter ing
liter acy
Scout ing
Organ iz
satell ites
William s
Bi ology
Clear wire
Fur niture
Lu ke
Ma ureen
spl ash
scr ap
scr atch
resist ible
execut ive
upgrad es
fulfill ment
Sus ana
Ver de
Ver mont
stim ulation
illustr ated
mechan ic
buf fer
Under stand
investig ations
impress ed
Review s
66 9
Cas ino
Wr it
rub ber
opin ions
cos play
newsp apers
map_ assuan
Olymp ic
Olymp ia
Mod ern
Pur ple
Russ ian
fing ertips
hes it
hes itate
san itation
thick ness
repe ated
recip ient
assu red
anticip ate
earth qu
delay ed
athlet ic
publish er
Engine ers
Engine ering
demonstr ated
neighborhood s
Cir cuit
Loc ated
Pay ment
Win etricks
Invest ment
cogn ition
cogn itive
workflow s
Never theless
legisl ative
cylind ers
journal ist
Delph ic
Delph ine
occasion ally
Video graphers
Cry pto
Hist ory
Ox ford
Wild cats
fle et
fest ival
wi pe
yog as
seas ons
resol ved
Armen ia
advoc ated
Custom er
Doc ument
Gl ama
M4 R
Mal aysia
Vo cal
dor f
infl amm
recru iting
pra ised
myth ology
preced ent
fragr ances
Roof s
motor way
Atl anta
Import ant
vitam ins
Follow ing
trigger ed
Bal timore
Emp loy
Gree ce
Ham ilton
Latin x
tact ics
vac uum
incent ives
aler ts
aggress ively
comed y
mole cular
Ther apy
dram atic
dram atically
pursu e
Offic ers
Las er
Mart in
RS G
Treat y
Tamarind us
mort g
rif ice
apart ments
Inst agram
blank et
cultiv ated
IGH T
behavi ors
administr ative
transp arent
Bul lets
Cast le
Gor don
Hu ellRe
NC AA
Nu ovo
Pict ures
SH U
Want Do
sar pa
secut ive
quant ity
branch es
1970 s
Chall engers
Univers al
Proper ty
Environment al
mitig ating
label ed
Crow d
Dal ey
MAR TIN
fas cin
mk dtemp
vill ages
vul ner
wag en
inher ent
propr ietary
prest igious
phen omen
buff et
Comple te
auth ors
invas ion
flag staff
Priv ate
mush rooms
Draw ers
analys es
ORI A
analyz ing
compassion ate
Administr ator
Histor ic
victim s
Bent on
Cul tural
Esp resso
SL T
Sex y
WIM Boot
pac er
sadd le
vibr ant
anno ying
alumn i
compr ising
explan ation
encamp ments
Trib unal
organis ms
Author ity
burri tos
genu ine
Syr ia
territor ies
intrud ers
sophist icated
Agar wal
Cer tain
Imp act
Nig el
Pok emon
Stra uss
VIT ORIA
Youn g
bree ze
eg gs
ffect ive
glob ally
retrie val
leis ure
stre ets
stap le
entre prene
entit led
youn ger
negl igence
emo ji
resil ient
desper ately
subur bs
statist ical
Particip ants
Foot ball
Volks wagen
Object ive
grocer y
retrospect ive
Essential s
philos ophy
pharmaceut ical
Indones ia
Ado be
Cart ier
Colog ne
Etow ah
EAS Y
Fal cons
IIT IO
IAP WS
Liqu id
LUN s
LGB T
Nep tune
Py thon
Pek o
Paren ts
Scho en
Tich onice
UCS F
WIT H
stom ach
totem s
aspar agus
accompan ied
agric ulture
Thriv ent
earli est
assaul ted
predomin antly
Heasel grave
Proceed ings
Manhatt an
Acrob at
map_assuan _err
HuellRe eds
MARTIN VITORIA
! ”
! ).
% ,
) !
. -
4 G
4 20
4 10
4 WD
5 3
5 25
7 9
8 A
8 44
8 64
9 7
: -
A 1
A E
A id
A me
A ction
A br
A post
A ging
A 406
B B
B O
B ol
B ren
B ose
B ond
B ret
B atter
B lower
B inary
B HD
B ella
B UF
B outique
B auer
C 1
C lo
C ase
C her
C old
C arr
C ub
C IT
C ape
C ull
C lock
C CPI
C IPs
D H
D u
D est
D ive
D um
D ick
D ry
D og
D os
D ental
D AM
D Net
D oral
D GA
D anko
E st
E ve
E ld
E aster
E mir
E mail
E mailing
F S
F U
F ar
F ill
F ail
F ield
F la
F inal
F usion
F ER
F LO
F ico
F iction
G L
G in
G ay
G ust
G ang
G ather
G olf
G reek
G ardens
G abr
H an
H it
H om
H ous
H air
H ours
H ott
I an
I vy
J on
J ac
J et
J ay
J os
J ump
J ason
J acqu
K u
K le
K id
K ass
K rum
L I
L S
L en
L and
L ay
L ot
L ite
L ef
L ives
L und
L aud
L ift
L angu
L acs
M B
M V
M Y
M ol
M ul
M ight
M ust
M atch
M ON
M aking
M oney
M aker
M oses
M Hz
N S
N V
N a
N om
N av
N ame
N AS
N agar
N ico
N evin
O P
O t
O ct
O pt
O WE
O ptions
O thers
P E
P N
P or
P is
P ot
P ers
P ain
P io
P oc
P interest
P enn
P LE
P CI
P UR
P apers
P ius
P references
Q U
R are
R us
R ES
R anger
R etr
R ita
S K
S as
S ne
S ul
S ha
S ide
S ong
S ark
S mas
S LE
S UN
T a
T en
T es
T ed
T ent
T ot
T ag
T ap
T ys
T err
T etr
T PO
T US_
U ribe
U AE
V EN
V cure
V ari
V oting
V iolet
W G
W ow
W ear
W ade
W ings
W ishing
W MA
W heel
X X
Y et
Y ur
Y elp
Z DNet
_ f
_ is
_ CF
a esthetic
b ust
b ang
b ours
b ably
b ills
b unk
b ureau
c s
c ig
c add
c ouch
c afé
d é
d row
d read
d resser
e b
e ous
e ep
e ath
e bay
f y
f ts
f aux
g ig
g ant
g own
g man
g au
g love
g ene
g istry
g ifts
g lyph
h art
h ors
h itch
h ills
h anging
i j
i ations
i Pod
i Pad
j ac
j ur
j um
j aw
j ug
k i
k ý
k an
k ow
k ok
k ob
l c
l u
l ers
l est
l van
l ord
l ene
l ibraries
m ere
m ma
m ary
m int
m ater
m elt
m ultim
n at
n ab
n un
n est
n ate
n od
o a
o z
o ir
o tom
o que
o graphy
o xy
p ic
p ens
p ian
p akistan
r it
r he
r ay
r ist
r age
r ated
r ors
r ural
r ipped
s i
s q
s are
s ip
s aves
s que
s ided
s nood
t in
t an
t ro
t ut
t by
t ire
t ical
t ied
t ank
t uck
t ires
t anks
t empor
t ags
u ish
v on
v id
v oc
v ra
v ictor
v asprintf
w u
w at
w and
w ip
w ich
w ake
w ins
w estern
w ifi
w heels
x x
x ide
y ond
z ard
z ek
z ones
Č es
” ),
” ).
th y
th ic
th ol
th ia
in is
in as
in cess
in sure
in complete
in ery
in sect
in expensive
in accurate
in sured
in aug
an i
an or
an gr
er field
on ion
on der
re im
re ne
re min
re ject
re ply
re cover
re ps
re produce
re calls
re verb
re mn
re porter
re bounds
the w
the ft
the son
at ig
or ce
or als
or ms
en ix
en rich
es the
es see
es pres
al ive
al lev
al loy
is dict
is bury
to es
to ys
to vi
to ler
ing e
ing ing
and iam
and ran
ed it
ed ia
ed iting
it ic
it ations
it ious
it ative
it arian
ar om
ar ma
ar ise
ar bit
ar gue
of uel
as ci
as shel
as ailing
le e
le ep
le ash
le ases
ic ately
st ic
st ell
ro d
ro gen
ro yal
el le
el ic
el ly
el dorf
ent ers
ent ity
il ion
il age
il ance
il ater
ac o
ac ement
om s
om ing
om ed
for gotten
se min
se cts
se wing
se cured
se curities
ve ter
be ck
be ating
be ings
be ats
he im
ad opt
ad ays
ad verse
ch en
ch il
ch ard
ch unk
ch ief
ch illing
ch amber
ch rist
ow e
ow ed
id ol
id ation
id ency
ly mph
am id
am ish
ol m
ig ent
ig enous
im s
im posed
ct ive
ver ification
are st
us a
us eless
ab bre
ab sent
ab normal
ot es
un is
un ve
un ited
un ately
un law
un fair
un authorized
pro mo
pro cure
ur t
ur er
ut ilities
ag ers
ag ility
com forter
com fy
con v
con ve
con fin
con fl
con sume
con serve
con firms
con ferences
con crete
su ck
su its
su med
lo gy
lo gos
tr out
tr ike
tr aged
tr ibe
ill es
ill um
all ies
all iances
ap ore
The atre
The End
em bark
if er
if est
if ted
mo ver
mo ist
pl ies
de er
de fe
de let
res pects
ul tr
ul sa
ess ence
ke eper
ha zard
ex plic
ex changes
ex changed
ex terior
pe an
pe as
igh ter
sh i
sh ad
sh ame
sh orter
sh ields
sh irts
so ar
so red
so aked
ate ur
ate gy
qu ire
qu eries
ain t
ain ted
oun ces
ant age
art istic
can vas
can nab
per ks
per fection
od d
Th in
Th ree
Th under
um ents
iv or
iv is
iv able
rom ance
ist le
act or
cl ips
will ow
any body
end um
not ing
not ified
not ify
not ification
not ifications
te ens
po le
po et
po em
po cr
po ison
gr ing
gr ill
gr avy
ind is
ind irect
ind oor
ind igenous
ort ed
ome w
In fin
In flu
In stant
up scale
ide ally
ell ed
do se
ip ment
ge aring
ine ffective
work around
ok s
ma them
20 25
20 21
20 22
form ula
tim ber
tim eline
ud er
ud as
ud ge
comp ly
ib a
ach t
ach al
ach ed
du al
ich andran
bo il
ast ing
ast ed
ast ically
li ed
li ver
ish olm
ail able
sp y
sp ell
sp ine
sp ite
sp ouse
sp ider
sp illed
af fl
af firm
der iv
get time
get away
iz er
An ne
An na
fo ster
fo scam
ep is
ep ic
ep idem
cre en
ass ing
ass ort
ass ists
ty ard
dis put
dis card
dis aster
dis appoint
dis appointment
dis missed
dis counted
We gman
some body
pre val
bl ow
bl ur
bl ame
part ial
ens ely
str aw
str ang
str angers
br u
br ick
br ake
br aking
man ship
man gal
man ifest
fr on
fr action
ple ments
no ble
inter mediate
inter ventions
hel met
19 0
19 th
19 49
her bs
cr ust
cr ine
cr unch
cr aving
cor n
cor relation
cor ners
Ch an
Ch ip
Ch amp
Ch rome
Ch annel
Ch isholm
them ed
cur y
cur ated
cur tain
cur ious
cur sor
cur tains
og enic
aw ed
off ensive
thr ive
St reng
St uc
des c
ang le
ang el
ang ular
ci er
cus tody
min ers
cho oses
wo ven
what soever
dr agon
enc er
tom etry
sa usage
bu b
bu ilder
vis or
vis ibility
exper iment
fin als
sy lvan
app et
tain ing
line ar
sup porter
Com ed
Com ment
Com forter
cent uries
Ne gre
read s
mer it
mer ely
mer cy
back up
back bone
ton s
ss eldorf
ific ent
ific ates
top ple
top ping
Re pe
lif ting
lif ted
pres sures
right eous
ener getic
rel ay
rel ate
under take
under went
under taken
car ri
inv iting
inv itations
she er
Con sum
Con tract
Con struction
ict ly
Tr an
Tr ou
Tr affic
plic ity
mon es
mon etary
requ is
bas ics
start up
Al z
Al ice
Al most
Al ison
Al bert
Al pha
Al mighty
As ide
As sem
As bury
good ness
less Wave
stud ied
stud ios
land ing
He zek
arch ive
cond em
cour tyard
bel t
bel oved
mem buf
trans mit
trans plant
miss es
ards town
pur suit
ob ed
ob jection
os is
os ate
det ain
tow er
Un ique
Un ified
Un fortunately
Ad mission
Ad venture
Ad ults
develop s
clo set
Gr ill
Pl umbing
Ar gos
chn ology
sol o
sol ic
inst ances
head phone
head shot
ident ical
program me
Pro p
Pro ducts
Pro blem
Pro bably
prof iles
To ilet
wr apping
bed spreads
ship ment
sk i
sk ip
plan e
stru ck
Se an
Se bring
Se quo
qual ifications
qual ifies
vent ures
oc curren
ext ending
En compass
arr ivals
sur plus
sur veys
par ad
Ex t
Ex po
Ex cell
Ex plain
ved a
sum ably
different ly
real m
organ ise
leg s
leg acy
Go al
care s
comple ment
fil ter
fil med
loc ating
ann ah
free ze
ost er
present ing
friend ship
exp ired
els ius
open ings
Br as
Br uder
15 th
sub stance
cy tometry
Pr ices
Pr ades
De fin
De erfield
bal aya
resul ted
aut istic
gener ations
gener ating
pass ports
met allic
Be th
Be gins
Be yond
happ ily
adv ances
dig its
bod ily
grow s
char itable
special s
special ty
12 2
order ing
found ing
gl iding
ger anium
cut ter
cut aneous
30 1
30 am
Cl are
ten ant
Res idents
Res ults
Te ague
Te quila
state wide
load s
vol umes
dep ot
dep ression
elect ro
elect ive
elect ions
elect ronics
elect rification
clean er
kind a
aim ing
aim ed
water color
photo graphic
vir uses
lim iting
lim itation
ware s
Ap pe
Ap proxim
ster ling
por ch
At tend
IC T
IC WG
class ified
class ification
Le g
bur ner
bur ned
bur nt
bur gring
direct ors
buy er
Is n
hy gi
hy brid
hy rus
personal ized
Af fair
Af filiate
mind s
mind ful
plac ement
public ations
Col labor
equ itable
allow ance
Ph D
Ph ill
Ph ones
install s
Man tra
Man aging
ienc ed
win ners
Can field
ned y
sens ory
sens itivity
expect ation
activ ated
activ ists
compan ions
11 34
pack aging
invest ments
imp ed
anal og
No v
law n
law yers
Bo ost
dry ing
IT Y
ben eath
Jo h
Jo yo
25 3
25 6
May a
flow ing
mp g
wal let
night ly
web inar
quick er
Me gan
Me chan
Me yer
mal icious
cas ual
cas ino
prote cts
prote ins
dem ocr
fut ur
fav ours
Nor d
Part s
trib unal
medi ator
aud its
test imon
Sh are
ped estr
email ing
wa ive
sever ance
specific ations
100 0
Rep ulsa
far az
icy andiam
deal ers
defin ing
gover ning
Council members
24 3
key less
weight s
weight ed
break er
Mar co
Mar cus
Mar cos
cul es
cul ature
ances co
OS T
cast ing
sun ny
reason ing
reason ably
season al
compet itor
Qu it
HE LL
cir cuits
scre ening
vi be
vi ated
High ly
Sp ace
treat s
treat y
Reg ul
learn t
Mon ique
bar be
bar oque
di am
ordin ance
trad itions
problem atic
Min i
Min n
Min er
Min istries
short cut
network ing
particip ant
bro ccol
human ity
ote chnology
grad es
Cor respond
Cor nell
hal e
sho e
sho ck
discus sing
Fe ed
Fe atures
Sam berg
fix ture
gar lic
respect ful
cop per
cop ies
cop ied
saf ari
comb at
comb ines
comb inations
Par tovi
Su c
Su bs
Su ave
brow sing
later al
touch ing
stay s
econom ically
ik a
ik ato
ik iped
contract ed
contract ion
discuss es
Bar thol
EN TS
refer endum
deliver ing
clear ance
Cr aft
Dis cover
Dis covery
promot ed
sent enced
exc el
Car ter
Car la
Car bon
gress or
brand ed
situ ated
AP T
paper work
wall papers
ull s
excell ence
worth while
impact s
rep ent
def ensive
Pet ra
dou bles
dou bled
hom me
hom eless
represent ative
represent atives
decor ative
spot ted
Any thing
196 2
196 8
similar ly
Im plement
bot an
swe at
init iate
redu cing
IM E
IM O
Some thing
gen kernel
among st
comput ing
AR D
pen ny
associ ates
cool er
travel ing
travel ed
Mo bl
Mo ham
cry ing
ng orms
rid iculous
walk ers
32 KB
hor se
hor os
rout inely
skin care
skin ned
Fin ance
chain s
imm igr
endo crine
198 7
recommend ation
Ge o
Ge Force
Gener ations
Mark ets
send _
enn ium
util s
speed s
Add itional
North west
Cam bridge
Dev ices
Direct X
Direct ors
compl iment
mod ular
mod ification
wash es
ses ame
entire ly
percent age
cred ibility
Every body
hous ed
attract ions
Hol tby
cou ver
cou pled
ham per
acqu iring
acqu ainted
moder ation
deep ly
grand parents
grand mother
avoid ing
avoid ed
Program ming
Media ocean
bill ions
bill board
fre ely
stack ing
analy se
AT E
Over Drive
advis ors
engine er
complex ity
talk ed
recogn ised
recogn izes
CP SC
Mc Nevin
Mc Minn
Pre pared
THE R
sort s
tax is
profession ally
Del ivers
adjust ed
adjust able
nutr ient
nutr itious
bul bs
bul lying
tren dy
center ed
condition ed
Her itage
Ser ver
dist ing
dist ances
lack ing
park s
yl on
inform ative
influ enced
chair man
measure ments
hospital ity
IG N
rac ism
consult ations
clin ically
compreh end
evalu ated
regul ate
regul atory
finish es
See ger
explo itation
MP EG
assess ing
assess ed
assess able
Ir ma
Ir ish
Ir well
Port ugal
innov ations
neigh bors
thank ful
counter act
relax ed
holiday s
target ing
repair ing
Publ ishing
Power ed
Sal t
Sal isbury
hum ming
imag ination
optim al
optim istic
explain ing
DA Y
Gen esis
Ho i
Mer ry
Ru by
strict ly
broadcast ers
49 8
49 er
Act iv
Act ually
Educ ational
Find ing
Je an
Je eves
ME O
ME TA
fan cy
rail s
tit les
Art isan
Christian ity
pictures que
birth days
volunteer ed
susp ended
Bel le
Get ting
NO TE
Str ick
Str ategy
Str ictly
Spe ed
Vol vo
fight ing
pul p
seven th
contrib utions
contrib uted
depart ure
transfer ring
controll ing
remodel ed
taste fully
Micro insurance
SS L
squ ad
medic ations
transform ing
limit ations
accident al
Ag grav
Ag gressor
RO I
bol t
cel lo
cel ain
lunch box
sn acks
surround ings
Def ine
Mr s
ba be
threat s
threat en
Inter view
Inter active
Blue tooth
Cin é
Cin em
List ening
Sur rey
fold ed
sha ke
sha fts
exhib iting
clar ity
clar ifying
195 8
appeal ing
Look s
suffer ed
document ation
neighbor ing
Washo es
44 7
Av ailable
Mil ford
Out side
Spot s
Tour nament
gas oline
deb ate
defic it
defic its
partner ed
diagno stic
Amaz ing
Bow en
lap se
lap tops
nail s
crit ically
valid ity
valid ated
Class mates
sched ules
IV E
frequ ent
hur ricane
pad docks
pow der
boost ing
consci ence
surv ival
Cert ificate
Em my
Met al
Sing apore
Wo ol
Wo akes
Wo oster
Wal ker
mass age
nur tured
none theless
tend encies
tail or
intr ig
accompl ished
extract s
extract ed
teen age
posit ively
Organ ic
51 30
Ass ess
Fort unately
GA ICWG
Ma theson
Old er
ko sher
sin cer
sam ples
elimin ating
complic ations
execut e
execut ives
shap ing
worry ing
Though ts
fulfill ing
strain ts
Cho osing
Trad itional
Exper ienced
Super View
LD P
LD S
Sch uble
div orce
nav igate
rad ical
atin um
illustr ate
indic ation
indic ates
syn thetic
syn thesis
Under wood
schedul ing
Bre vard
CC TV
Cas a
Lit er
NY SE
Rah m
dial og
hun g
hun ger
punch ing
rub bed
assem bl
assem ble
stake holder
modif ied
haw ks
coordin ators
vari able
Prerequis ites
Meet ing
map_ gcry
Cal endar
Dom ain
Sky pe
Us ers
fing ers
hes ive
patch es
sou theast
sco res
onom ic
agent _
resto red
wealth y
instit ution
publish ers
acceler ation
acceler ated
Philip pines
citiz en
Cir cular
Cir cuits
Fish eries
Ken nedy
Nur burgring
Sa fe
Wil de
fif th
gate way
seg ments
cher ry
concl ude
concl uded
Invest ig
spin ach
pregn ant
Chat ting
journal ists
Delph i
bowl ers
accommod ation
Bed spreads
Fac il
Ill ness
Know ledge
Op ener
PI co
Ret ail
Sar ah
Sar faraz
Tenn essee
Wa ikato
bell s
fem in
gro ve
hall way
kill ings
rating s
yog urt
negot iation
negot iations
fundam ent
bask etball
advoc acy
Keep ing
Custom ers
Gate way
Him achal
Jer ry
Jer sey
M4 A
PC s
Town send
cott ages
pil ot
pil gr
sad ness
scrip t
leaf lets
construct ed
embr acing
quot ation
Incl usion
Incl udes
coal ition
preced ing
motiv ated
scroll ing
Import ance
Dü sseldorf
Dar lene
IF A
Num ber
Van couver
bind ing
gall ery
sour ced
tag ged
replac ement
consul ted
resort s
shy ness
shut down
Ther apeutic
Think ing
crash es
highlight ed
Commer cial
cheap est
Prote ct
penal ties
Motor world
Celebr ating
Cre ations
Ele mentary
Girl s
Hal f
Hal sey
Hand made
Lar ge
Las ers
Mun ger
Mir amar
Mir ror
Nature view
jack pot
mel an
mel ted
scent ed
instruction al
abdomin us
Inst all
encry pted
prescrib ing
archite cture
succeed ed
Claim s
Tele graph
facil itate
involve ment
Laure l
maxim ize
distinct ive
administr ators
obsess ed
transp arency
enthusi asts
Cow ley
Cow cadd
Gor illa
Lou ise
STA TUS_
Wall paper
liber ty
liber als
sof a
refin ement
ione er
prison ers
geo graphical
coll ision
awa it
Islam ic
confess ion
circul ation
suspend 2
neoconserv ative
neoconserv atives
720 p
Cab ins
Cons ider
Et ters
Fl ash
Gre ens
Gre ivis
Kris tol
Mand eep
Mess age
Moun tain
Mix ed
Pos ada
Ul tim
bacter ia
kn ife
mut ual
wis dom
anony mous
revis ed
alleg ed
seed ed
olar ships
abund ant
conver ting
expl oring
expl oration
worr ies
worr ied
poly ester
Innov ation
compar ison
duve t
duve ts
brush es
1950 s
crimin als
delight ed
smith s
Enh anced
metabol ic
metabol ism
photograph s
landscap ed
Carol ina
destroy ed
Georg ia
judg ments
Archite cture
paddock plants
minimal ist
algorith ms
Aw esome
Ax ar
Aqu atics
BT C
Ev ents
Equ ipment
Fact ors
HG TV
Mult iple
Marr iage
Pav ilion
Rav ichandran
Rene w
Tar get
crop ping
dro ve
dump ing
lil ies
pour ing
tub es
retr acement
enquir y
arrest ed
stair s
champion ship
pros per
congress man
deem ed
perman ent
graf ting
affor ds
Answ er
franch ise
miner als
Trav el
Tosh iba
summar ized
legend ary
Autom ation
hyp nosis
traum atic
practition er
Individ ual
Surv ivor
Athen s
Again st
Bob cats
DE I
Ey epiece
Gall ery
HB V
Jam mers
Pap in
RC X
Tick ets
Var ious
cav iar
thresh old
refr ig
revers ible
enforce ment
stere o
prodig al
antim icrobial
overwhel ming
brill iant
manip ulation
craw fish
destru ction
ceremon ies
Andre a
obst acles
brea the
borrow ing
brows ers
Craf ts
Offer ing
tremend ous
subscrib ers
terror ist
Veget able
834 3
Ath let
Bask etball
Cair ngorms
Emer gency
EAR S
HGH 191AA
Jama ica
Kum ar
OG G
Pow ell
Rud y
Saf ety
Tem plate
Tank ardstown
Wad ell
WAR RAN
Ya hoo
ZA YN
Zep hyrus
cart ilage
gp g
pam per
rame kins
vap or
anx ious
restr icted
recharge able
orphan age
vegg ies
charm ing
amend ments
ambit ious
prostat itis
depos its
exempt ions
inevit able
spon sored
relig ion
memor able
Argent ina
paragl iding
glimp se
Clark son
Afgh an
Regard less
Ambass ador
Paragl ider
Compet ition
immort al
Crowd Rise
Benton ville
entreprene urs
LGBT Q
Ame wu
Abr aham
Batter y
Dos ha
Emir ates
Fail ure
Gust avo
Gabr iel
Hom es
Krum lov
Lund gren
Laud er
Nico le
Ot t
Pis ces
Penn sylvan
Sul ky
Sark isian
Smas her
Tes la
Tys ons
Tetr ick
Vcure gistry
Wings capes
_CF LAGS
bureau cr
glyph osate
jur isdict
multim edia
nod ded
rit ual
sare e
Čes ký
reim burse
remin is
espres so
asci i
asshel p
abbre viated
illum ination
TheEnd lessWave
explic it
indirect ly
Stuc co
Negre ira
Consum ers
Assem bly
Hezek iah
Sequo ia
Prades h
Approxim ately
Affair s
Joyo share
icyandiam ide
HELL OWE
ikiped ia
Barthol omew
immigr ant
Aggrav ated
map_gcry _err
Cowcadd en
Pennsylvan ia
" )
" -
" ;
' '
( "
( ~
) ?
- >
. ),
1 A
1 14
2 K
2 S
2 10
2 16
3 20
3 60
3 pm
4 Z
5 8
5 x
5 12
5 000
6 7
6 8
6 50
7 D
9 1
9 20
: ).
= "
> >
? "
A F
A G
A ve
A im
A ne
A ld
A gr
A ge
A bs
A broad
A AP
A gave
A BA
A UT
A ero
A yur
B G
B n
B our
B ant
B ip
B ok
B ach
B ound
B ian
B order
B IN
B ison
B DI
B illing
B aham
B Sky
B UT
B HK
B locker
C V
C it
C ay
C have
C od
C ould
C atch
C ards
C ash
C ah
C ost
C level
C ris
C lose
C ares
C ald
C AND
C 400
C MOS
C oupon
C arson
C udas
C elsius
C APT
D D
D F
D W
D am
D ate
D ire
D ong
D ix
D IT
D IS
D ale
D iam
D uff
D inner
D eter
D irty
E f
E k
E ile
E del
E state
E mot
E CP
E CN
E bol
E Bay
E specially
F 1
F K
F R
F ro
F el
F ay
F ut
F em
F ul
F ell
F AM
F alk
F inger
F ROM
G F
G R
G b
G s
G ro
G ig
G ide
G ary
G reg
G ender
G IS
G lor
G mail
G rey
G RAM
G inger
G ourmet
G andhinagar
H T
H U
H a
H ur
H art
H od
H ong
H add
H itch
H arm
H IC
H iring
H anger
H uge
H undred
H arris
H annah
I X
I g
I ow
I cel
I LY
I rene
J E
J T
J a
J im
J ade
J ob
J ane
J uan
J lc
K S
K h
K er
K at
K ent
K ay
K im
K ul
K ong
K ry
K ors
K ob
K aren
K itchens
L C
L il
L am
L ang
L au
L ax
L ES
L uck
L ights
L lan
L ANL
L avender
L ISH
M N
M t
M ad
M am
M ur
M ort
M ail
M over
M ang
M ouse
M ove
M atter
M inal
M aps
M elf
M acy
M ood
M ER
M RS
M asks
M ENTS
N I
N J
N K
N i
N at
N ad
N iel
N ik
N CT
N CB
N ESS
N ero
N ASC
N FL
O V
O w
O reg
O TA
O TE
P i
P el
P il
P ag
P up
P ure
P ep
P aw
P ath
P IC
P unch
P ush
P OR
P LAC
P ioneer
P DF
Q 4
R F
R y
R on
R ic
R am
R im
R od
R ust
R ice
R ace
R ick
R uch
R asp
R achel
R onda
R AD
R IGHT
S D
S F
S I
S P
S z
S es
S it
S mo
S ke
S ust
S ure
S cal
S had
S ID
S aud
S ork
S aving
S word
S ale
S cale
S late
S lots
S NL
S aying
S capes
S leep
T B
T Y
T i
T ex
T able
T ip
T av
T ext
T win
T ye
T ER
T error
T ION
T aled
T RO
U D
U E
U G
U b
U su
U ser
U ber
V M
V N
V od
V IO
V ote
V inn
V incent
V ERY
V ICT
W C
W an
W es
W ol
W are
W ake
W att
W HE
W MD
W onder
X D
X ak
X 4Z
Y ere
Y og
Y ES
Z h
Z or
Z acks
Z ombie
Z anz
] .
_ a
_ t
_ get
_ file
_ secure
_ write
_ status
_ assuan
_ string
a el
a be
a ver
a ide
a ired
a esthe
b ou
b is
b oun
b ach
b sp
b ins
b ump
b ending
b ids
c c
c est
c od
c ere
c ence
c ia
c cr
c app
c cer
c ub
c iting
c ada
c agre
c ads
c oupon
c actus
d l
d al
d are
d un
d ers
d um
d ine
d ich
d ile
d amp
d ense
d ental
d ots
d ling
d ull
d rew
d angers
d elling
d airy
d icyandiamide
e ing
e igh
e ther
e go
e cho
e ze
e ager
f c
f ed
f id
f ate
f fe
f ib
f see
f ave
f ume
f ik
f iat
f etal
f ennel
g el
g ust
g ical
g ang
g ian
g plac
g ae
g ourmet
h d
h p
h ion
h ap
h ort
h ide
h ell
h ens
h ug
h ats
h ra
h ints
i ac
i ors
i ages
i hood
i Link
i tol
j a
j s
j ro
j ah
j elly
k on
k il
k ton
k tra
k nit
k ansas
l b
l iv
l ak
l ace
l ors
l oft
l ately
l ugg
m v
m ity
m ish
m its
m ound
m ens
m old
m app
m ash
m met
m ask
m allows
m igr
m oles
m inton
n ity
n arr
n load
n asty
n bsp
o le
o ch
o ce
o ke
p u
p x
p es
p ap
p has
p aw
p ins
p ub
p uff
p ads
p aved
q 345b
r t
r il
r ab
r ie
r ack
r av
r af
r ink
r ays
r hin
r oux
r uling
s ap
s igh
s ive
s ard
s ions
s ail
s way
s ake
s ings
s oup
s lim
s ley
s lic
s lop
s cared
t el
t id
t ul
t ort
t ions
t ts
t xt
t ilt
t ension
t iles
t weet
u ct
u pl
u co
u gu
v ro
v om
v ation
v ess
v ans
v log
v andal
w am
w ir
w art
w age
w ines
w ished
w aves
w ides
w inkle
w 447
w ikipedia
x ia
x try
x tract
y on
y pe
y ang
y gen
y ummy
z ombie
′ ′
th ou
th yo
in th
in ate
in cial
in fin
in ating
in ational
in ject
in stru
in depend
in hot
in correct
in definitely
in hib
in appropriate
in quir
in visible
an o
an em
an not
an go
an ax
an abol
er ie
er ra
on ies
on ia
re v
re el
re per
re bo
re cess
re ction
re think
re tract
re count
re designed
re built
re active
re productive
re creation
re vel
re funds
re cycling
re boot
re plied
re CAPT
the dr
at ro
at us
at ile
at oid
ou tr
or te
or ph
or ating
en z
en ch
en lar
en count
en viron
en zy
en rolled
es p
es are
es cop
al es
al ab
al arms
is y
is al
is ive
is ional
is ky
is ascii
to d
to g
to re
to ire
to ll
to ff
to _assuan
and ers
ed ging
it i
it in
it to
it ures
ar n
ar ia
ar oma
of ix
as i
as m
as y
as is
as ser
as bes
le an
le bo
le aked
le ague
le mn
ic ion
ic um
ic ating
ion a
ion ism
st in
st rom
st itch
st ately
st arter
st aking
st ares
ro cket
ro gue
ro asted
el ong
el astic
el ihood
ent e
ent ities
il z
il ical
ac re
ac al
ac ity
ac cent
ac ular
ac custom
ac ulate
om la
for got
for ged
for cing
se c
se al
se ize
se vent
se ized
se aled
ve t
ve x
be ef
be aring
be ets
be hold
be xtract
he x
he al
he ct
he ap
he ating
ad ing
ad ap
ad her
ad oc
ad ium
ad mitted
ad missions
ch in
ch ur
ch ut
ch ap
ch rom
ch ances
ch ron
ow itz
id en
id ar
id as
id isation
et sy
et tes
am ic
am ph
am ina
am bul
am ateur
ol s
ol as
ol ia
ig i
im a
im en
im ination
im ental
im plants
im balance
im possibility
im perative
im plies
im plements
ver te
ver bs
with stand
are l
us ation
us cript
ab o
ab ur
ab used
ot on
ot ers
un i
un do
un like
un del
un ted
un available
un clean
un certain
un successful
un limited
un published
un fold
un belie
un signed
un pleasant
un matched
un leash
un ilater
wh ine
wh isk
pro t
pro hib
pro portion
pro jection
pro claimed
pro secut
pro portions
ur ation
ur ance
ur ged
ur gent
ur gently
ce ments
ce ased
ut y
ut ers
ag y
ag ile
ag het
ir r
ir s
ir on
ir resistible
ir reversible
com ic
com for
con y
con stru
con stit
con stitute
con vey
con vict
con ducts
con gratulations
con fron
con straints
su icide
lo d
lo s
lo id
lo ver
lo op
lo os
lo ger
lo ses
tr am
tr ous
tr ace
tr icks
ill ion
all as
ne on
ne um
ne ath
ne arest
em e
em ia
em bodied
mo il
mo ck
pl en
pl om
pl un
pl ating
pl umber
de br
de put
de priv
de cept
de cks
op press
op pon
res in
res id
res ign
res ides
ul ates
ess ays
we iss
we aving
we gg
we gian
ha i
ha th
ha us
ex cur
ex ech
ex otic
pe onies
est amp
sh u
sh ing
sh out
sh ug
sh ines
sh allow
sh irt
sh ifting
out line
out doors
so re
so ap
so br
so aking
so da
so ccer
qu é
qu en
qu et
qu aint
ain able
art ing
art ificial
can s
can al
can yon
per ce
per cept
per mal
per pet
per severance
per mits
by te
od or
od ds
Th an
Th ing
Th row
um atoid
rom antic
ment ally
cl ing
cl am
cl ay
cl ash
cl iff
cl usive
cl utter
cl ubs
end ors
end ured
pr on
pr incess
te es
po ser
po graphy
gr ay
gr out
gr aham
ind er
ind ia
ind ices
ind ica
In fr
In ject
In struct
In Tags
In spir
up heav
up draft
ust ion
co c
co ck
ell er
ell ite
ie th
do ony
do zen
ip h
ip pa
ack ing
ok ed
ma ar
ma iled
20 2
20 6
20 7
go ose
av a
av id
av our
tim ely
comp act
comp artment
port als
ib ar
ib les
ach use
du es
du cer
du ced
ich thyo
ast ound
li o
li ya
ish ment
ish ments
ish nan
sp a
sp at
sp as
sp ins
sp ont
sp ike
sp aghet
af ore
af ood
af fects
af fili
af filiate
ev il
ev iew
ev angel
more over
iz able
iz ons
but ter
but tery
An th
An im
ck winkle
fo cal
fo ss
fo xy
ser t
cre ts
cre ations
ty re
ak ers
ace e
dis position
dis close
dis posed
dis connected
dis patch
dis solve
dis charged
dis asters
ign or
ign ore
ign oring
ick ness
We im
We bs
We ek
some how
pre d
pre p
pre print
pre paid
pre fers
pre sumably
ile e
ren s
ren to
ren ce
ren ter
ren amed
bl ondy
ful ness
prov ing
prov incial
new er
str act
str asse
ark s
comm em
comm ute
over time
over come
over taken
over looks
over seas
over ride
br ack
br ace
int u
int ers
int ens
int ake
man eu
ber gh
Wh it
fr an
fr ames
fr amed
fr uity
fr ancesco
no aa
inter mit
inter rup
pos to
spe ar
.. ...
19 14
19 17
19 40
19 20s
ph er
ph ant
ph ere
ph agy
her ed
her itage
cr ied
cr oft
cr ush
cr ouch
cr acker
just ification
Ch ap
Ch oice
col oured
col lateral
col lapse
serv ation
there by
may oral
ting ly
aw ful
aw ns
off end
thr ust
thr illing
St age
St adium
des cript
des igne
ang a
ang i
ang les
ang hai
ci ation
cus hion
min es
ress es
row ave
ca ve
ca ut
ca thedr
ca bextract
reg ime
dr ain
dr illed
dr astically
enc lo
tom atoes
dev ast
bu ro
bu gs
bu zz
high ways
old est
well s
well ing
well ness
jo ke
sy nd
sy mmet
app end
app arel
tain ment
vers atile
Com pared
cent ric
Ne ut
Ne got
Ne wegg
fore going
cal f
cal iber
cal abur
je eb
read ily
back ing
cer pt
red irect
red und
ss on
had n
mark ing
mark ers
pers ist
don ation
don ated
don ors
don ating
ific ence
top ical
top ples
Re ce
Re ach
Re ich
Re ason
Re gin
Re creation
Re yn
Re verse
Re cognition
lif elong
pres idency
del ve
del icate
air s
air play
air craft
play lists
rel ies
rel aps
rel ief
rel uct
under way
under represented
under neath
where by
dif f
dif fers
ho re
ho ly
ho ard
ho ret
ted dy
fun c
sel s
inv ention
inv ari
inv alu
stem ming
ins ic
ks ha
ks ba
Con cer
Con ven
Con struct
Con duct
Con firm
Con stant
Con sole
Con ducts
Con ventions
Con gratulations
Con secutive
tur ally
tur bul
tur moil
Tr ue
Tr ader
Tr acee
mon d
mon o
mon ds
bas in
che f
che ering
fl ed
fl ashing
fl orals
Al ps
stand by
stand alone
gram s
For mat
As sume
sm elling
less ness
cle ic
cle ared
ath row
land ed
land marks
land lord
amp ing
He i
He athrow
arch ives
arch ived
cond ens
cour ier
place holder
eng ages
eng zh
ix x
trans missions
trans ducer
light ning
light weight
light ened
miss ile
world s
ards on
ob serving
list ened
emp loys
det ached
pol es
tow ering
Un til
here in
Ad v
Ad vert
Ad apt
rent als
On ions
develop ers
clo ister
ven ant
cap su
Gr ad
Gr ay
Ar thritis
Ar rows
Ar kansas
Ar undel
sol ar
sol ved
sol ves
inst inct
head lines
head shots
program mer
Pro duc
applic ants
prof ound
To o
pat ron
bed side
sk a
sk illed
plan es
plan kton
... ”
Se ema
qual ities
post al
post age
post ure
vent less
fic ially
ext inct
En t
ather ine
arr a
sur gical
week day
dec isive
par ap
par able
par liament
par asailing
par sley
Ex tra
Ex erc
Ex calabur
health ier
sum mers
az e
az or
real time
real ised
real izes
Go a
Go og
Go als
care ers
ah u
sto od
sto len
blo ss
fil ings
ann on
ann ually
lot te
ason ic
sal on
var ies
friend ships
els jö
Br is
Br and
Br ain
Br ass
15 3
15 850
sub stitute
sign ature
Pr ime
Pr imes
Co in
Co con
Co co
Co ok
Co venant
De b
De al
De clar
bal ancing
bal cony
techn ically
techn ological
aut ism
arm or
met er
met re
met ast
Sc am
Sc ots
Be am
Be anie
Be ij
sing ers
sing les
ax e
So lemn
remo ver
remo vable
remo delling
12 1
bre ast
bre wed
bre eds
bre asts
ider down
found ers
cost ly
cost ume
cost umes
Chr onic
gl ued
gl uco
ger ies
sw apped
Cl ouds
ten se
ten ants
istr ar
istr ate
Res pect
Res ources
Res pir
Te en
opt ical
ub ilee
mot ives
success ion
vol cano
check out
small est
elect oral
ali k
water ing
199 2
vir al
soci etal
spec s
spec ulation
lim ated
lim bs
lim ousine
fort une
intern ship
14 4
Ap parent
por tray
por celain
At t
Fr ame
Fr anks
Fr agr
mus culature
und y
class y
class ical
class ifications
Le e
Le go
Le ader
Le wis
Inc as
bur ning
bur ger
bur gers
direct ing
ft ello
pain s
pain ful
pain fully
Christ church
hy alur
hy pocr
ret ired
exam ining
personal ised
consider able
Auto stad
fac et
mind set
AC H
Col lect
Col lection
Col leges
Col umb
Col limated
fur nish
tra ject
allow ances
content ion
connect ivity
Ph ish
sty led
install ers
ES T
Man ufact
Man uscript
pot tery
count less
Can c
Can cer
Can cell
sens ing
activ ist
activ ating
compan ion
Dr ake
Dr iving
Dr ug
pack aged
sc ul
sc ary
sc andal
sc attered
invest or
imp ending
80 2
80 s
wel ding
wel fare
anal ogue
law makers
law yer
dry ers
move ments
camp s
camp uses
Jo e
Jo y
Jo yce
Jo omla
hip s
roll s
necess ity
25 9
25 th
Bl ake
Bl ond
IN K
IN R
flow s
mp toms
ref ine
tool bar
share holders
18 K
18 th
18 69
Ste ps
Ste fan
Ste phen
web page
cas ing
dem os
fav ors
town house
Nor ma
Nor mand
Nor wegian
Part ies
Part nership
pop pies
past ing
trib ut
trib ute
wood s
effect iveness
medi ated
medi ately
medi ators
ID A
ID E
men us
Do ing
ey epie
aff airs
16 KB
Sh i
Sh ire
Sh anghai
Ind ies
position ed
Lo ck
wa iver
specific s
Che vro
plain s
lik elihood
far mer
user name
deal ings
defin es
34 0
bit coin
super ficially
Wind s
Mar c
Mar in
Mar sh
Mar ine
Now adays
aid es
conf usion
cu ed
cu ff
lab our
rop es
concer t
door way
stor ied
stor ms
compet ence
compet itions
13 th
13 amp
Qu iet
Qu ote
Qu inoa
bi as
bi omed
card board
mag ic
mag istrate
sch ol
sch olarships
table t
color ing
switch ing
cir cular
scre w
Euro s
Pat Com
Sp a
Sp ins
Sp ending
sci ences
trav elling
Reg ular
Reg istrar
Ac count
Ac idisation
Mon itor
di agram
di plom
link ing
vious ly
Intern ship
cook er
Min or
Min imum
PA AS
lat inhot
short age
particip ated
broad er
broad en
sho cked
Fe at
Sam uel
Sam ba
Sam oa
gar nish
aster y
respect able
Am i
Am or
Am ad
IP C
IP L
IP O
ded ication
saf er
comb ustion
meas ured
collect ors
17 77
40 1
OR K
Par liament
Su pra
Su ede
stop ping
tour ist
touch screen
stay ing
Sep t
flo at
flo ating
spr it
spr ink
spr aw
comfort ers
court esy
Just in
aur a
refer ring
environment ally
deliver ies
By laws
Cr u
Cr of
Cr us
Cr ites
Cr ushing
Dis ney
Dis agree
Pe an
Pe ak
TA B
den y
mult itude
rect angular
select ions
promot es
Europe ans
Gu arant
Gu erra
IS Ps
IS wi
improve ments
exc els
establ ishing
AP Is
Don uts
mid wife
impact ed
Jan et
mach inery
rep aired
def ine
def ence
store y
Pet e
nut shell
wish es
represent ations
decor ate
196 5
196 6
autom ation
wonder ed
wonder fully
AS IS
Im prove
Im mediately
dest iny
gre ens
acc idents
omet ers
appoint ments
AM E
IM S
bad ly
bad minton
gen es
gen ic
gen etic
sl ide
sl aughter
tre as
discover ing
blog ger
PR OM
PR ESS
micro biology
micro scope
micro organisms
pen et
mov able
spect acular
Comp ton
LL NL
Mo z
aul ic
har bor
har vest
mar ine
rid es
challeng ed
South gate
hor mones
rout es
rout ines
amaz ed
complet eness
continu ance
moment um
moment ous
Per ry
Per fect
Per iod
Per forms
moun t
moun ts
moun ting
imm ers
imm ense
imm ensely
imm aculate
feed er
feed ers
198 4
198 8
Ge off
Sto res
Sto inis
fig uring
enn ifer
util izing
cru el
Add ress
appear ances
Dev ilz
Direct ly
gain ing
mil estone
compl iant
mod y
mod ifications
wash ers
wash able
wash cloth
safe guards
attack ed
Bu ying
Pol and
Pol itical
Sy mbol
Sy mptoms
cand le
hope fully
warm th
instruct ors
stress es
agre es
subs cribe
cred ible
weekend s
signific ance
auto immune
protect ive
Hol ton
Not able
cou ples
ham mer
pan cre
sil ent
sil ly
prior ities
avoid able
obtain s
approach es
approach ed
Fil ming
dish on
dish washer
ri pe
stain s
stain less
exerc ising
exerc ised
period ic
prevent ion
copy right
AT O
Dep uty
Mich igan
Over come
oil s
erg art
advis ory
aren a
suggest ive
foot print
foot wear
Bro lo
Bro ken
Bro ccol
Bro oke
Pre ckwinkle
Sci ent
dy nload
vot er
remember ing
log ic
log ged
tee th
distrib utions
distrib utor
interview s
encour ages
viol ate
viol ated
spring board
amazing ly
23 rd
26 6
bon ds
drop ping
stick er
trail s
Ang ie
sweet eners
introdu cing
CN A
Up date
Up dated
bul b
bul let
bul lets
iar ies
condition er
character ized
Ber tram
Ser bin
cross ing
dist ant
park ed
uff le
yl ene
influ encing
separ ation
separ ated
notice able
Michel le
CT N
Dav is
pet rol
rac es
iling ual
consult ants
clin ic
clin ics
clin icians
evalu ates
evalu ating
finish ers
explo sion
World wide
Hot Av
MP 4
Pal a
Pal est
dream ing
flex ion
rele asing
seem ingly
Grand pa
submit ter
27 3
Cent ury
Special ists
TM Z
sink s
stream s
neigh bour
counter top
annual ized
31 st
El ite
crow ds
remind s
remind er
admin ister
conduct ing
optim um
197 5
197 7
197 9
profit able
profit ability
stock ed
appropr iated
EV ERY
Mer cy
Mer cury
bow led
bow ling
jud ging
path s
reserv ed
register ing
Real tor
Trans port
capt iv
capt ures
Play er
Play off
cycl ists
Act or
Ed ge
Find er
ME P
View port
die cut
jump ed
ny mph
tit led
ato graphy
terr ible
plug s
doct oral
consist ing
consist ed
patent ed
satis factory
susp icious
Ca fe
Spe ar
Spe aking
Spe ech
Vol kow
cat fish
nation ally
sav vy
sustain ed
depart ing
bright en
craf ty
Star bucks
symp tom
Plan et
block ed
Book mark
33 6
35 1
35 7
Bus y
CB D
CB O
CB S
Cur ry
Cur riculum
Fir m
Ke to
Ke ith
Po or
Po ss
Po etry
Rich ardson
las ers
rug s
rob bed
exas cale
transport ed
removal ists
Ag ent
Ag ency
Ag greg
Flor al
Gar lic
Ko sher
bum per
hus bands
lin i
lunch time
ov ens
ya hoo
enh ances
compens atory
decided ly
TH C
TH AT
ba ie
cards tock
dict ate
farm land
iPh ones
mir rors
marr iages
threat ening
patient ly
respond ed
Cin thia
Gi ant
List ings
MA Y
Oak hill
Pod horet
Sum mit
eight ies
spo ke
clar ifies
195 9
invent or
invent ories
document ary
44 3
Av on
Av ant
Av oid
Ben jam
Big foot
Out standing
Ra j
Ter min
Tur ning
Water blight
Wood all
Yes ichat
vior ment
icon duct
defic iencies
central ized
listen ers
capac itive
Work ers
initi ated
diagno se
Aud rey
Bow ie
Distr ib
Hel lo
Sen ate
Sen ator
rot ate
rot ator
rot ini
princ ip
cream y
Char acter
Char lotte
talent ed
Chris sy
Phys ically
99 9
Div X
Div ine
Gold ar
Os car
Sat ellite
Sub urban
Val ue
frequ ency
ju icy
length y
pal ettes
rare ly
trust worthy
clim bing
Commission ers
attach ment
calcul ations
Cert ificates
Mag n
Mag ic
Mag nes
Sing le
Sing ers
Tues days
Wal es
cin em
cin ema
fat ig
mass es
nur se
tast ed
reve als
termin al
termin als
excess ive
collabor ating
collabor ative
glass es
Organ ized
refresh ed
establish ments
Music Reporter
fashion ed
fashion able
36 m
AV I
AV EN
Bi ofuel
CH A
CH AN
CH AR
Call igraphy
Cap itol
Kar l
Kar un
Lu c
Lu igi
Mot iv
SU V
Ut il
Vide os
catch ing
hi king
hub by
lan tern
mist akes
pin n
rain ed
rain bow
sin us
sac rifice
sam sung
spl end
renew able
chick ens
complic ation
conserv ation
conserv ative
execut ed
cris py
Cho ir
perspect ives
polit icians
hydr ated
hydr aulic
detect ing
detect ors
77 49
GM VN
OF F
dur ability
div ine
scal able
ros ion
adapt ation
improv es
proceed ings
illustr ates
indic ate
indic ators
mechan ics
brain s
