{"<UNK>":0,"<PAD>":1,"<s>":2,"<s/>":3,"!":4,"\"":5,"#":6,"$":7,"%":8,"&":9,"'":10,"(":11,")":12,"*":13,"+":14,",":15,"-":16,".":17,"/":18,"0":19,"1":20,"2":21,"3":22,"4":23,"5":24,"6":25,"7":26,"8":27,"9":28,":":29,";":30,"<":31,"=":32,">":33,"?":34,"@":35,"A":36,"B":37,"C":38,"D":39,"E":40,"F":41,"G":42,"H":43,"I":44,"J":45,"K":46,"L":47,"M":48,"N":49,"O":50,"P":51,"Q":52,"R":53,"S":54,"T":55,"U":56,"V":57,"W":58,"X":59,"Y":60,"Z":61,"[":62,"\\":63,"]":64,"_":65,"`":66,"a":67,"b":68,"c":69,"d":70,"e":71,"f":72,"g":73,"h":74,"i":75,"j":76,"k":77,"l":78,"m":79,"n":80,"o":81,"p":82,"q":83,"r":84,"s":85,"t":86,"u":87,"v":88,"w":89,"x":90,"y":91,"z":92,"|":93,"~":94,"":95,"¢":96,"£":97,"©":98,"«":99,"­":100,"®":101,"°":102,"±":103,"·":104,"»":105,"¿":106,"É":107,"×":108,"à":109,"á":110,"â":111,"ã":112,"ä":113,"å":114,"æ":115,"ç":116,"è":117,"é":118,"ê":119,"ë":120,"í":121,"ñ":122,"ò":123,"ó":124,"ô":125,"ö":126,"ú":127,"û":128,"ü":129,"ý":130,"ć":131,"Č":132,"Đ":133,"đ":134,"ų":135,"ȏ":136,"́":137,"̈":138,"Ι":139,"Ω":140,"α":141,"ạ":142,"ế":143,"ệ":144,"ố":145,"ộ":146,"ờ":147,"​":148,"‐":149,"–":150,"—":151,"‘":152,"’":153,"“":154,"”":155,"„":156,"†":157,"•":158,"′":159,"€":160,"₹":161,"←":162,"↑":163,"中":164,"他":165,"以":166,"假":167,"到":168,"勇":169,"吒":170,"哪":171,"囉":172,"國":173,"夏":174,"夷":175,"威":176,"己":177,"希":178,"心":179,"我":180,"所":181,"敢":182,"是":183,"望":184,"渡":185,"玩":186,"的":187,"神":188,"童":189,"耍":190,"能":191,"自":192,"話":193,"讓":194,"贈":195,"走":196,"路":197,"開":198,"가":199,"계":200,"국":201,"글":202,"급":203,"내":204,"는":205,"니":206,"다":207,"단":208,"데":209,"드":210,"랜":211,"로":212,"모":213,"벌":214,"브":215,"서":216,"션":217,"수":218,"쉐":219,"에":220,"외":221,"요":222,"용":223,"운":224,"위":225,"을":226,"이":227,"인":228,"장":229,"좌":230,"지":231,"집":232,"출":233,"크":234,"파":235,"페":236,"평":237,"품":238,"필":239,"한":240,"합":241,"해":242,"화":243,"�":244,"😉":245,"🙁":246,"🙂":247,"th":248,"in":249,"an":250,"er":251,"on":252,"re":253,"the":254,"at":255,"ou":256,"or":257,"en":258,"es":259,"al":260,"is":261,"to":262,"ing":263,"and":264,"ed":265,"it":266,"ar":267,"of":268,"as":269,"le":270,"ic":271,"ion":272,"st":273,"ro":274,"el":275,"ent":276,"il":277,"ac":278,"you":279,"om":280,"for":281,"se":282,"ve":283,"be":284,"he":285,"ad":286,"ch":287,"ow":288,"id":289,"ly":290,"et":291,"ith":292,"am":293,"ay":294,"ol":295,"ig":296,"ation":297,"im":298,"ct":299,"ver":300,"with":301,"are":302,"us":303,"ab":304,"ot":305,"un":306,"wh":307,"that":308,"pro":309,"ur":310,"ce":311,"ut":312,"ag":313,"ir":314,"com":315,"con":316,"ers":317,"su":318,"lo":319,"ter":320,"tr":321,"ill":322,"all":323,"ne":324,"ap":325,"The":326,"em":327,"if":328,"our":329,"mo":330,"pl":331,"de":332,"op":333,"res":334,"ul":335,"ess":336,"your":337,"ke":338,"we":339,"ha":340,"ex":341,"pe":342,"est":343,"igh":344,"sh":345,"out":346,"ther":347,"so":348,"ate":349,"qu":350,"ain":351,"one":352,"oun":353,"ant":354,"art":355,"can":356,"per":357,"ld":358,"ity":359,"have":360,"wor":361,"ive":362,"by":363,"od":364,"Th":365,"um":366,"iv":367,"rom":368,"ies":369,"ment":370,"ist":371,"act":372,"ere":373,"cl":374,"will":375,"any":376,"this":377,"from":378,"ight":379,"end":380,"pr":381,"not":382,"te":383,"po":384,"was":385,"gr":386,"ind":387,"ard":388,"ort":389,"ome":390,"In":391,"up":392,"ust":393,"ould":394,"able":395,"me":396,"fe":397,"ide":398,"co":399,"ial":400,"ell":401,"ie":402,"do":403,"ip":404,"ge":405,"ice":406,"ine":407,"ack":408,"has":409,"gh":410,"work":411,"ok":412,"age":413,"ma":414,"20":415,"form":416,"</":417,"go":418,"av":419,"tim":420,"ud":421,"comp":422,"port":423,"ib":424,"ions":425,"ough":426,"ure":427,"ear":428,"ally":429,"ach":430,"du":431,"their":432,"ich":433,"ite":434,"use":435,"bo":436,"ast":437,"li":438,"ish":439,"ous":440,"now":441,"ail":442,"ated":443,"sp":444,"very":445,"af":446,"day":447,"ire":448,"way":449,"ts":450,"ence":451,"der":452,"ev":453,"get":454,"more":455,"iz":456,"but":457,"An":458,"ck":459,"ance":460,"cont":461,"its":462,"ound":463,"fo":464,"cess":465,"time":466,"ep":467,"ser":468,"cre":469,"ass":470,"fer":471,"ations":472,"ong":473,"ans":474,"ty":475,"ak":476,"ace":477,"my":478,"ction":479,"they":480,"dis":481,"ign":482,"ick":483,"ia":484,"ents":485,"We":486,"ame":487,"some":488,"pre":489,"also":490,"ile":491,"other":492,"ren":493,"bl":494,"ful":495,"own":496,"which":497,"prov":498,"part":499,"ely":500,"about":501,"ry":502,"who":503,"new":504,"ll":505,"ens":506,"ary":507,"str":508,"It":509,"ark":510,"comm":511,"over":512,"ase":513,"This":514,"br":515,"int":516,"man":517,"thing":518,"ber":519,"ree":520,"Wh":521,"cial":522,"fr":523,"ition":524,"ple":525,"You":526,"no":527,"ical":528,"inter":529,"year":530,"pos":531,"hel":532,"spe":533,"..":534,"19":535,"ph":536,"need":537,"ors":538,"her":539,"cr":540,"low":541,"just":542,"ake":543,"cor":544,"Ch":545,"them":546,"reat":547,"like":548,"col":549,"cur":550,"would":551,"serv":552,"og":553,"ink":554,"than":555,"there":556,"may":557,"produ":558,"incl":559,"00":560,"ting":561,"help":562,"ue":563,"aw":564,"ade":565,"how":566,"fir":567,"been":568,"off":569,"thr":570,"ices":571,"when":572,"St":573,"des":574,"ning":575,"ang":576,"If":577,"ci":578,"know":579,"most":580,"201":581,"make":582,"cus":583,"min":584,"ress":585,"coun":586,"cho":587,"into":588,"iew":589,"row":590,"wo":591,"add":592,"ople":593,"ca":594,"what":595,"reg":596,"dr":597,"enc":598,"tom":599,"dev":600,"sa":601,"look":602,"bu":603,"high":604,"vis":605,"old":606,"well":607,"lect":608,"jo":609,"exper":610,"ater":611,"io":612,"people":613,"ild":614,"fin":615,"ose":616,"sy":617,"app":618,"through":619,"ates":620,"ating":621,"ef":622,"tain":623,"line":624,"med":625,"vers":626,"every":627,"view":628,"his":629,"room":630,"were":631,"als":632,"),":633,"should":634,"formation":635,"sup":636,"Com":637,"att":638,"iss":639,"only":640,"cent":641,"Ne":642,"see":643,"bet":644,"fore":645,"cal":646,"je":647,"ible":648,"iness":649,"read":650,"mer":651,"first":652,"au":653,"want":654,"ys":655,"back":656,"ton":657,"ory":658,"ious":659,"gu":660,"cer":661,"red":662,"ied":663,"ss":664,"had":665,"mark":666,"pers":667,"don":668,"ific":669,").":670,"top":671,"set":672,"bus":673,"Re":674,"bs":675,"ise":676,"ities":677,"lif":678,"pres":679,"right":680,"these":681,"del":682,"then":683,"air":684,"ata":685,"ener":686,"cts":687,"information":688,"ings":689,"play":690,"ian":691,"rel":692,"under":693,"where":694,"ever":695,"great":696,"ons":697,"sure":698,"dif":699,"ho":700,"ted":701,"come":702,"fun":703,"put":704,"sel":705,"car":706,"les":707,"many":708,"inv":709,"stem":710,"king":711,"ual":712,"ins":713,"ks":714,"she":715,"home":716,"provid":717,"sim":718,"cause":719,"Con":720,"ility":721,"ience":722,"ict":723,"tur":724,"Tr":725,"plic":726,"And":727,"mon":728,"ures":729,"requ":730,"take":731,"ange":732,"bas":733,"che":734,"fl":735,"alth":736,"start":737,"even":738,"Al":739,"stand":740,"gram":741,"For":742,"oft":743,"As":744,"includ":745,"business":746,"sm":747,"good":748,"such":749,"try":750,"two":751,"let":752,"less":753,"ative":754,"elop":755,"cle":756,"ics":757,"stud":758,"ath":759,"land":760,"pt":761,"amp":762,"fect":763,"He":764,"arch":765,"cond":766,"New":767,"cour":768,"iet":769,"olog":770,"place":771,"bel":772,"mem":773,"made":774,"uch":775,"sul":776,"eng":777,"ular":778,"could":779,"ubl":780,"ational":781,"There":782,"atch":783,"ower":784,"used":785,"person":786,"down":787,"gan":788,"tern":789,"best":790,"ments":791,"hand":792,"ix":793,"book":794,"ement":795,"pect":796,"market":797,"ble":798,"design":799,"system":800,"ces":801,"eas":802,"long":803,"oup":804,"trans":805,"after":806,"life":807,"light":808,"ner":809,"cons":810,"data":811,"miss":812,"val":813,"ily":814,"process":815,"world":816,"ards":817,"Coun":818,"ding":819,"years":820,"ages":821,"pur":822,"call":823,"ob":824,"os":825,"uring":826,"fol":827,"lead":828,"differ":829,"10":830,"each":831,"list":832,"emp":833,"ced":834,"det":835,"ek":836,"much":837,"pol":838,"tow":839,"Un":840,"here":841,"Ad":842,"find":843,"main":844,"being":845,"while":846,"rent":847,"On":848,"lar":849,"tle":850,"ash":851,"develop":852,"said":853,"clo":854,"ven":855,"ult":856,"iving":857,"cap":858,"ds":859,"ually":860,"think":861,"Gr":862,"Pl":863,"iqu":864,"before":865,"ways":866,"Ar":867,"led":868,"chn":869,"again":870,"sol":871,"those":872,"inst":873,"because":874,"head":875,"ident":876,"program":877,"ize":878,"lit":879,"itch":880,"fact":881,"Pro":882,"unity":883,"applic":884,"ug":885,"avail":886,"experience":887,"prof":888,"custom":889,"ject":890,"To":891,"pat":892,"poss":893,"wr":894,"chool":895,"bed":896,"ited":897,"ship":898,"ump":899,"company":900,"sk":901,"ows":902,"plan":903,"hic":904,"using":905,"stru":906,"...":907,"Se":908,"ital":909,"qual":910,"post":911,"ave":912,"vent":913,"erv":914,"ives":915,"does":916,"fic":917,"ouse":918,"ional":919,"How":920,"oc":921,"ext":922,"En":923,"ather":924,"arr":925,"offer":926,"support":927,"publ":928,"sur":929,"ince":930,"road":931,"resp":932,"week":933,"turn":934,"ude":935,"dec":936,"ness":937,"par":938,"But":939,"Ex":940,"din":941,"ved":942,"lev":943,"200":944,"available":945,"iel":946,"run":947,"enter":948,"health":949,"sum":950,"different":951,"Ro":952,"az":953,"fam":954,"same":955,"real":956,"organ":957,"leg":958,"irect":959,"services":960,"Go":961,"care":962,"ior":963,"iend":964,"ms":965,"tak":966,"ving":967,"ah":968,"sto":969,"blo":970,"comple":971,"fil":972,"too":973,"etwork":974,"loc":975,"ann":976,"around":977,"ution":978,"keep":979,"perform":980,"team":981,"free":982,"lot":983,"ost":984,"ric":985,"present":986,"ank":987,"ason":988,"going":989,"power":990,"sal":991,"var":992,"online":993,"search":994,"friend":995,"ient":996,"really":997,"exp":998,"site":999,"els":1000,"open":1001,"shop":1002,"Br":1003,"Our":1004,"num":1005,"both":1006,"provide":1007,"15":1008,"iver":1009,"sub":1010,"cy":1011,"ivers":1012,"sign":1013,"self":1014,"ique":1015,"Au":1016,"Pr":1017,"access":1018,"import":1019,"love":1020,"feat":1021,"ired":1022,"ology":1023,"Co":1024,"De":1025,"bal":1026,"ply":1027,"resul":1028,"techn":1029,"aut":1030,"gener":1031,"contro":1032,"follow":1033,"did":1034,"pass":1035,"say":1036,"arm":1037,"tract":1038,"gy":1039,"met":1040,"though":1041,"unt":1042,"When":1043,"month":1044,"including":1045,"Sc":1046,"last":1047,"Be":1048,"happ":1049,"ines":1050,"lear":1051,"area":1052,"They":1053,"point":1054,"big":1055,"sing":1056,"rest":1057,"ask":1058,"vehic":1059,"adv":1060,"suc":1061,"webs":1062,"contin":1063,"full":1064,"service":1065,"little":1066,"ax":1067,"cell":1068,"dig":1069,"oth":1070,"ized":1071,"So":1072,"bod":1073,"grow":1074,"tal":1075,"remo":1076,"issu":1077,"ross":1078,"char":1079,"proper":1080,"ource":1081,"special":1082,"12":1083,"side":1084,"order":1085,"cover":1086,"manag":1087,"bre":1088,"ider":1089,"without":1090,"feel":1091,"interest":1092,"found":1093,"ising":1094,"oper":1095,"event":1096,"partic":1097,"mone":1098,"cost":1099,"Chr":1100,"gl":1101,"ier":1102,"ability":1103,"group":1104,"meet":1105,"What":1106,"ger":1107,"sw":1108,"grap":1109,"food":1110,"product":1111,"cut":1112,"within":1113,"few":1114,"30":1115,"Cl":1116,"She":1117,"US":1118,"bers":1119,"ten":1120,"istr":1121,"loy":1122,"include":1123,"joy":1124,"All":1125,"Res":1126,"Te":1127,"sit":1128,"always":1129,"today":1130,"opt":1131,"him":1132,"ove":1133,"ub":1134,"iting":1135,"state":1136,"child":1137,"ants":1138,"mot":1139,"school":1140,"vide":1141,"vert":1142,"load":1143,"uman":1144,"success":1145,"ients":1146,"pay":1147,"vol":1148,"dep":1149,"mission":1150,"ween":1151,"making":1152,"better":1153,"check":1154,"course":1155,"oto":1156,"ustr":1157,"small":1158,"proble":1159,"conne":1160,"things":1161,"ium":1162,"still":1163,"ished":1164,"between":1165,"elect":1166,"mit":1167,"comes":1168,"show":1169,"current":1170,"clean":1171,"important":1172,"during":1173,"kind":1174,"ali":1175,"ically":1176,"soft":1177,"tem":1178,"incre":1179,"rece":1180,"something":1181,"possible":1182,",”":1183,"aim":1184,"water":1185,"ense":1186,"second":1187,"local":1188,"199":1189,"photo":1190,"Serv":1191,"ves":1192,"vir":1193,"ww":1194,"ird":1195,"soci":1196,"quest":1197,"spec":1198,"struct":1199,"away":1200,"lim":1201,"mas":1202,"ware":1203,"ately":1204,"fort":1205,"change":1206,"intern":1207,"quality":1208,"body":1209,"14":1210,"50":1211,"Ap":1212,"dom":1213,"ping":1214,"since":1215,"ont":1216,"report":1217,"atur":1218,"ster":1219,"addition":1220,"looking":1221,"website":1222,"mill":1223,"might":1224,"must":1225,"por":1226,"lease":1227,"ieve":1228,"At":1229,"Fr":1230,"IC":1231,"Wor":1232,"With":1233,"hard":1234,"mus":1235,"ore":1236,"ond":1237,"lection":1238,"und":1239,"days":1240,"build":1241,"ield":1242,"got":1243,"house":1244,"three":1245,"ivid":1246,"class":1247,"based":1248,"Le":1249,"ours":1250,"That":1251,"Inc":1252,"control":1253,"until":1254,"bur":1255,"direct":1256,"ft":1257,"pain":1258,"mak":1259,"products":1260,"buy":1261,"Christ":1262,"Is":1263,"cam":1264,"hy":1265,"ret":1266,"edu":1267,"unch":1268,"profess":1269,"gest":1270,"pare":1271,"xt":1272,"exam":1273,"personal":1274,"consider":1275,"Auto":1276,"Af":1277,"fac":1278,"mind":1279,"enjoy":1280,"ese":1281,"plac":1282,"ground":1283,"public":1284,"respons":1285,"video":1286,"AC":1287,"priv":1288,"fully":1289,"vision":1290,"purch":1291,"number":1292,"Amer":1293,"ues":1294,"reen":1295,"stat":1296,"beaut":1297,"ems":1298,"Americ":1299,"Col":1300,"equ":1301,"fur":1302,"la":1303,"another":1304,"tra":1305,"allow":1306,"next":1307,"working":1308,"content":1309,"County":1310,"connect":1311,"Or":1312,"Ph":1313,"ats":1314,"sty":1315,"cord":1316,"install":1317,"ES":1318,"Man":1319,"give":1320,"game":1321,"ienc":1322,"ra":1323,"appe":1324,"ified":1325,"resh":1326,"social":1327,"ended":1328,"understand":1329,"students":1330,".\"":1331,"pot":1332,"win":1333,"ward":1334,"cept":1335,"train":1336,"gether":1337,"create":1338,"count":1339,"Can":1340,"case":1341,"ned":1342,"sens":1343,"expect":1344,"shall":1345,"ists":1346,"contact":1347,"application":1348,"money":1349,"non":1350,"page":1351,"along":1352,"never":1353,"pecial":1354,"activ":1355,"compan":1356,"11":1357,"Dr":1358,"pack":1359,"sc":1360,"won":1361,"ands":1362,"ush":1363,"ify":1364,"ending":1365,"invest":1366,"large":1367,"organiz":1368,"One":1369,"came":1370,"wide":1371,"itions":1372,"chang":1373,"imp":1374,"ope":1375,"easy":1376,"80":1377,"uck":1378,"wel":1379,"anal":1380,"review":1381,"atter":1382,"ential":1383,"ott":1384,"community":1385,"needs":1386,"family":1387,"Service":1388,"God":1389,"No":1390,"dam":1391,"function":1392,"below":1393,"gin":1394,"law":1395,"ute":1396,"phys":1397,"ready":1398,"AN":1399,"Bo":1400,"dry":1401,"face":1402,"ator":1403,"together":1404,"advert":1405,"coming":1406,"iful":1407,"move":1408,"others":1409,"IT":1410,"Network":1411,"ben":1412,"camp":1413,"wind":1414,"ones":1415,"member":1416,"members":1417,"against":1418,"):":1419,"Jo":1420,"Med":1421,"ff":1422,"hip":1423,"ism":1424,"roll":1425,"necess":1426,"print":1427,"visit":1428,"vehicle":1429,"25":1430,"Bl":1431,"IN":1432,"My":1433,"May":1434,"flow":1435,"mp":1436,"uly":1437,"wal":1438,"ref":1439,"tool":1440,"share":1441,"click":1442,"price":1443,"space":1444,"aterial":1445,"certain":1446,"customers":1447,"18":1448,"IO":1449,"SE":1450,"Ste":1451,"Source":1452,"nam":1453,"night":1454,"err":1455,"ars":1456,"aring":1457,"left":1458,"web":1459,"quick":1460,"individ":1461,"ustry":1462,"focus":1463,"Me":1464,"mal":1465,"itive":1466,"appro":1467,"opport":1468,"front":1469,"simple":1470,"Cont":1471,"employ":1472,"cas":1473,"uro":1474,"ouch":1475,"step":1476,"across":1477,"ety":1478,"prote":1479,"istance":1480,"media":1481,"provided":1482,"issues":1483,"companies":1484,"dem":1485,"fut":1486,"fill":1487,"fav":1488,"size":1489,"wom":1490,"iday":1491,"pract":1492,"town":1493,"Nor":1494,"Part":1495,"pop":1496,"past":1497,"thor":1498,"ets":1499,"trib":1500,"ively":1501,"commun":1502,"wood":1503,"effect":1504,"medi":1505,"iety":1506,"books":1507,"ID":1508,"aud":1509,"cil":1510,"men":1511,"ming":1512,"nor":1513,"ream":1514,"outh":1515,"ision":1516,"ister":1517,"why":1518,"industry":1519,"complete":1520,"Do":1521,"date":1522,"ey":1523,"hold":1524,"material":1525,"test":1526,"inal":1527,"ime":1528,"aff":1529,"phone":1530,"development":1531,"beautiful":1532,"16":1533,"Sh":1534,"hol":1535,"ped":1536,"van":1537,"wed":1538,"ites":1539,"icro":1540,"hether":1541,"project":1542,"email":1543,"iven":1544,"Ind":1545,"ured":1546,"ensive":1547,"position":1548,"job":1549,"require":1550,"Lo":1551,"hist":1552,"pick":1553,"wa":1554,"ased":1555,"lebr":1556,"sever":1557,"chall":1558,"ably":1559,"having":1560,"means":1561,"strate":1562,"provides":1563,"often":1564,"detail":1565,"children":1566,"specific":1567,"camer":1568,"Che":1569,"ging":1570,"watch":1571,"lobal":1572,"plain":1573,"arden":1574,"ought":1575,"lik":1576,"known":1577,"called":1578,"After":1579,"100":1580,"ED":1581,"Rep":1582,"fit":1583,"far":1584,"living":1585,"oice":1586,"research":1587,"oud":1588,"ork":1589,"ley":1590,"icy":1591,"user":1592,"deal":1593,"defin":1594,"gover":1595,"bring":1596,"Council":1597,"34":1598,"four":1599,"name":1600,"reach":1601,"recent":1602,"ilt":1603,"ills":1604,"tegr":1605,"doing":1606,"contain":1607,"curity":1608,"However":1609,"features":1610,"istration":1611,"necessary":1612,"24":1613,"bit":1614,"gn":1615,"round":1616,"ised":1617,"super":1618,"key":1619,"weight":1620,"quite":1621,"ogle":1622,"itchen":1623,"Wind":1624,"ination":1625,"ature":1626,"ental":1627,"aper":1628,"ples":1629,"perfect":1630,"These":1631,"ived":1632,"2018":1633,"break":1634,"million":1635,"benef":1636,"Mar":1637,"Now":1638,"York":1639,"aid":1640,"done":1641,"field":1642,"hours":1643,"conf":1644,"Anton":1645,"digital":1646,"future":1647,"RE":1648,"bor":1649,"cu":1650,"cul":1651,"fast":1652,"lab":1653,"natur":1654,"ances":1655,"rop":1656,"ilities":1657,"uses":1658,"ury":1659,"concer":1660,"near":1661,"actually":1662,"door":1663,"ibility":1664,"box":1665,"type":1666,"speak":1667,"cording":1668,"offers":1669,"deter":1670,"depend":1671,"OS":1672,"cast":1673,"nment":1674,"range":1675,"sun":1676,"once":1677,"reason":1678,"ensure":1679,"stor":1680,"season":1681,"imate":1682,"ots":1683,"claim":1684,"compet":1685,"due":1686,"please":1687,"000":1688,"device":1689,"value":1690,"Group":1691,"level":1692,"iversity":1693,"13":1694,"Qu":1695,"bi":1696,"card":1697,"hot":1698,"live":1699,"mom":1700,"mag":1701,"sch":1702,"table":1703,"enough":1704,"ste":1705,"ids":1706,"idence":1707,"une":1708,"trip":1709,"getting":1710,"party":1711,"color":1712,"switch":1713,"viron":1714,".,":1715,"HE":1716,"ball":1717,"cir":1718,"ians":1719,"ris":1720,"sell":1721,"scre":1722,"tion":1723,"vi":1724,"abl":1725,"unique":1726,"white":1727,"prove":1728,"utes":1729,"utions":1730,"ago":1731,"maj":1732,"board":1733,"ency":1734,"rooms":1735,"simply":1736,"Google":1737,"makes":1738,"private":1739,"Euro":1740,"High":1741,"Pat":1742,"Sp":1743,"son":1744,"sci":1745,"treat":1746,"ada":1747,"celebr":1748,"irl":1749,"conom":1750,"trav":1751,"aps":1752,"address":1753,"everything":1754,"Reg":1755,"learn":1756,"management":1757,"music":1758,"professional":1759,"Ac":1760,"Home":1761,"Mon":1762,"Rel":1763,"bar":1764,"di":1765,"link":1766,"pict":1767,"vious":1768,"ined":1769,"integr":1770,"ordin":1771,"lege":1772,"levision":1773,"security":1774,"ames":1775,"trad":1776,"washer":1777,"Intern":1778,"cook":1779,"someone":1780,"Stud":1781,"umpster":1782,"problem":1783,"vironment":1784,"Ger":1785,"Min":1786,"PA":1787,"lat":1788,"lic":1789,"ron":1790,"za":1791,"ane":1792,"ery":1793,"recomm":1794,"return":1795,"especial":1796,"above":1797,"short":1798,"mean":1799,"times":1800,"crip":1801,"drive":1802,"planning":1803,"doesn":1804,"performance":1805,"results":1806,"property":1807,"particular":1808,"graph":1809,"advertising":1810,"especially":1811,"network":1812,"third":1813,"staff":1814,"elf":1815,"acy":1816,"loss":1817,"ney":1818,"country":1819,"ences":1820,"lands":1821,"designed":1822,"technology":1823,"particip":1824,"style":1825,"dryer":1826,"major":1827,"July":1828,"bro":1829,"cum":1830,"ht":1831,"human":1832,"ike":1833,"sat":1834,"uary":1835,"ote":1836,"grad":1837,"works":1838,"commit":1839,"needed":1840,"Comm":1841,"jects":1842,"American":1843,"further":1844,"Cor":1845,"Your":1846,"broad":1847,"fresh":1848,"hal":1849,"match":1850,"ps":1851,"tell":1852,"reco":1853,"items":1854,"ither":1855,"ables":1856,"iring":1857,"mob":1858,"sho":1859,"discus":1860,"While":1861,"2017":1862,"flu":1863,"friends":1864,"following":1865,"software":1866,"questions":1867,"natural":1868,"!!":1869,"Des":1870,"Fe":1871,"Sam":1872,"fix":1873,"gar":1874,"ires":1875,"oid":1876,"inc":1877,"aster":1878,"plant":1879,"respect":1880,"pose":1881,"typ":1882,"frame":1883,"experienc":1884,"ification":1885,"systems":1886,"taking":1887,"several":1888,"Antonion":1889,"Am":1890,"GP":1891,"Human":1892,"IP":1893,"Please":1894,"Rem":1895,"cop":1896,"ded":1897,"ged":1898,"saf":1899,"etc":1900,"unte":1901,"comb":1902,"track":1903,"meas":1904,"fee":1905,"collect":1906,"choose":1907,"study":1908,"applications":1909,"photos":1910,"example":1911,"17":1912,"40":1913,"OR":1914,"Par":1915,"Su":1916,"Sun":1917,"brow":1918,"later":1919,"ring":1920,"stop":1921,"tic":1922,"tour":1923,"touch":1924,"whether":1925,"yet":1926,"thod":1927,"ino":1928,"remain":1929,"stay":1930,"ume":1931,"aily":1932,"lower":1933,"regard":1934,"author":1935,"single":1936,"Antonioni":1937,"Sep":1938,"econom":1939,"flo":1940,"fall":1941,"ik":1942,"ling":1943,"spr":1944,"ints":1945,"ering":1946,"asing":1947,"ilar":1948,"imes":1949,"comfort":1950,"contract":1951,"true":1952,"strong":1953,"corpor":1954,"devices":1955,"invol":1956,"court":1957,"ledge":1958,"summer":1959,"result":1960,"educ":1961,"responsible":1962,"discuss":1963,"Bar":1964,"EN":1965,"Just":1966,"aur":1967,"bath":1968,"kitchen":1969,"tty":1970,"ancial":1971,"refer":1972,"environment":1973,"account":1974,"ership":1975,"ports":1976,"duct":1977,"ishing":1978,"offic":1979,"State":1980,"deliver":1981,"relation":1982,"related":1983,"host":1984,"clear":1985,"marketing":1986,"blood":1987,"variety":1988,"general":1989,"continue":1990,"options":1991,"www":1992,"By":1993,"Cr":1994,"Dis":1995,"Pe":1996,"TA":1997,"TV":1998,"den":1999,"jour":2000,"mult":2001,"nt":2002,"ufact":2003,"rect":2004,"itor":2005,"forward":2006,"select":2007,"begin":2008,"users":2009,"promot":2010,"sume":2011,"model":2012,"action":2013,"ender":2014,"early":2015,"display":2016,"regular":2017,"save":2018,"version":2019,"believe":2020,"located":2021,"various":2022,"didn":2023,"meeting":2024,"purchase":2025,"camera":2026,"Europe":2027,"Austr":2028,"Gu":2029,"IS":2030,"National":2031,"Park":2032,"girl":2033,"sent":2034,"via":2035,"went":2036,"anim":2037,"image":2038,"improve":2039,"projects":2040,"exc":2041,"establ":2042,"Thank":2043,"minutes":2044,"energy":2045,"required":2046,"close":2047,"programs":2048,"patients":2049,"running":2050,"equip":2051,"organization":2052,"tools":2053,"favor":2054,"Car":2055,"bir":2056,"gress":2057,"given":2058,"ood":2059,"pie":2060,"tar":2061,"ord":2062,"ene":2063,"ises":2064,"become":2065,"idents":2066,"allows":2067,"upon":2068,"affect":2069,"brand":2070,"production":2071,"apply":2072,"throughout":2073,"guid":2074,"includes":2075,"University":2076,"taken":2077,"says":2078,"happy":2079,"situ":2080,"problems":2081,"building":2082,"training":2083,"women":2084,"wedding":2085,"Austral":2086,"AP":2087,"Don":2088,"five":2089,"fail":2090,"file":2091,"mid":2092,"nia":2093,"paper":2094,"wall":2095,"ert":2096,"record":2097,"ening":2098,"ford":2099,"chat":2100,"urch":2101,"ape":2102,"ources":2103,"ull":2104,"excell":2105,"extra":2106,"worth":2107,"actions":2108,"method":2109,"prepare":2110,"manufact":2111,"maintain":2112,"Scott":2113,"impact":2114,"government":2115,"Windows":2116,"half":2117,"mobile":2118,"City":2119,"Cali":2120,"Jan":2121,"School":2122,"mach":2123,"ral":2124,"uk":2125,"rep":2126,"fornia":2127,"def":2128,"yourself":2129,"exist":2130,"exact":2131,"ips":2132,"worked":2133,"gets":2134,"created":2135,"news":2136,"plement":2137,"firm":2138,"county":2139,"dining":2140,"store":2141,"quickly":2142,"latest":2143,"California":2144,"Green":2145,"Most":2146,"Pet":2147,"city":2148,"dou":2149,"global":2150,"hom":2151,"nut":2152,"ux":2153,"wish":2154,"represent":2155,"ened":2156,"almost":2157,"stit":2158,"sect":2159,"decor":2160,"spot":2161,"Any":2162,"assist":2163,"held":2164,"196":2165,"autom":2166,"guest":2167,"similar":2168,"businesses":2169,"writ":2170,"wonder":2171,"materials":2172,"AS":2173,"Im":2174,"bot":2175,"dest":2176,"dumpster":2177,"gre":2178,"green":2179,"swe":2180,"sound":2181,"wine":2182,"wise":2183,"init":2184,"redu":2185,"atic":2186,"org":2187,"lex":2188,"least":2189,"acc":2190,"omet":2191,"seen":2192,"adio":2193,"imum":2194,"appoint":2195,"ift":2196,"ulation":2197,"2019":2198,"aving":2199,"prem":2200,"commer":2201,"everyone":2202,"supply":2203,"inside":2204,"started":2205,"ietary":2206,"months":2207,"volunte":2208,"additional":2209,"likely":2210,"AM":2211,"IM":2212,"Lon":2213,"Of":2214,"Some":2215,"bad":2216,"either":2217,"gen":2218,"sl":2219,"tre":2220,"eral":2221,"ently":2222,"sets":2223,"amoun":2224,"among":2225,"agree":2226,"ife":2227,"word":2228,"ival":2229,"comput":2230,"discover":2231,"black":2232,"common":2233,"itional":2234,"posed":2235,"crib":2236,"2015":2237,"ysis":2238,"smart":2239,"hands":2240,"bedroom":2241,"skills":2242,"legal":2243,"blog":2244,"sales":2245,"shopping":2246,"vehicles":2247,"directly":2248,"opportunity":2249,"details":2250,"relationship":2251,"excellent":2252,"AR":2253,"Free":2254,"PR":2255,"daily":2256,"map":2257,"micro":2258,"pen":2259,"tas":2260,"ina":2261,"anks":2262,"took":2263,"itis":2264,"arter":2265,"associ":2266,"ention":2267,"heat":2268,"heart":2269,"suit":2270,"term":2271,"iff":2272,"mov":2273,"ules":2274,"cool":2275,"achieve":2276,"cks":2277,"spect":2278,"built":2279,"Comp":2280,"augh":2281,"request":2282,"towards":2283,"solutions":2284,"potential":2285,"expected":2286,"communic":2287,"travel":2288,"htt":2289,"Septem":2290,"Here":2291,"LL":2292,"Mo":2293,"aul":2294,"cry":2295,"garden":2296,"har":2297,"hind":2298,"iate":2299,"mar":2300,"mess":2301,"mber":2302,"ng":2303,"rid":2304,"wards":2305,"ators":2306,"orig":2307,"stant":2308,"story":2309,"acter":2310,"usion":2311,"ights":2312,"teach":2313,"former":2314,"avy":2315,"aves":2316,"proved":2317,"struction":2318,"decision":2319,"growth":2320,"kindle":2321,"physical":2322,"walk":2323,"challeng":2324,"benefits":2325,"Scottish":2326,"//":2327,"32":2328,"://":2329,"II":2330,"LAC":2331,"More":2332,"South":2333,"ai":2334,"cing":2335,"hor":2336,"lor":2337,"mine":2338,"rout":2339,"yal":2340,"isn":2341,"else":2342,"according":2343,"section":2344,"amaz":2345,"unk":2346,"consum":2347,"idea":2348,"complet":2349,"answ":2350,"nov":2351,"correct":2352,"selves":2353,"conditions":2354,"Plus":2355,"solution":2356,"skin":2357,"levels":2358,"location":2359,"sale":2360,"advant":2361,"continu":2362,"option":2363,"placed":2364,"history":2365,"moment":2366,"London":2367,"September":2368,"21":2369,"60":2370,"70":2371,"Fin":2372,"Let":2373,"Make":2374,"Per":2375,"West":2376,"cure":2377,"moun":2378,"rather":2379,"ties":2380,"reas":2381,"atory":2382,"atives":2383,"chain":2384,"imm":2385,"aged":2386,"resident":2387,"soon":2388,"artic":2389,"clients":2390,"endo":2391,"feed":2392,"intro":2393,"198":2394,"helps":2395,"2016":2396,"suppl":2397,"ission":2398,"cert":2399,"rights":2400,"trying":2401,"sult":2402,"longer":2403,"purpose":2404,"policy":2405,"thought":2406,"currently":2407,"connected":2408,"Black":2409,"individual":2410,"recommend":2411,"commercial":2412,"Center":2413,"Ge":2414,"Gener":2415,"Mark":2416,"San":2417,"Sto":2418,"fig":2419,"hon":2420,"send":2421,"song":2422,"six":2423,"insp":2424,"onto":2425,"atform":2426,"enn":2427,"enous":2428,"ale":2429,"aly":2430,"already":2431,"sem":2432,"olution":2433,"usually":2434,"prom":2435,"util":2436,"agr":2437,"anyone":2438,"speed":2439,"cru":2440,"aware":2441,"cale":2442,"hosp":2443,"United":2444,"Add":2445,"customer":2446,"Eng":2447,"receive":2448,"domain":2449,"appear":2450,"damage":2451,"North":2452,"Sunday":2453,"22":2454,"Cam":2455,"Dev":2456,"Direct":2457,"La":2458,"gain":2459,"hn":2460,"mil":2461,"national":2462,"sus":2463,"ters":2464,"itical":2465,"behind":2466,"prob":2467,"compl":2468,"mod":2469,"wash":2470,"grade":2471,"core":2472,"ibly":2473,"events":2474,"safe":2475,"expert":2476,"Comput":2477,"attack":2478,"setting":2479,"famil":2480,"friendly":2481,"subject":2482,"asked":2483,"successful":2484,"increase":2485,"question":2486,"international":2487,"labor":2488,"cription":2489,"Bu":2490,"BIO":2491,"GD":2492,"Pol":2493,"Sy":2494,"Will":2495,"cand":2496,"ele":2497,"fab":2498,"fire":2499,"gold":2500,"hope":2501,"iod":2502,"paid":2503,"ses":2504,"sle":2505,"war":2506,"warm":2507,"ye":2508,"inary":2509,"instruct":2510,"anced":2511,"erc":2512,"ony":2513,"stress":2514,"entire":2515,"agre":2516,"aging":2517,"subs":2518,"platform":2519,"que":2520,"artment":2521,"percent":2522,"ideas":2523,"ellow":2524,"cred":2525,"previous":2526,"pretty":2527,"however":2528,"posted":2529,"weekend":2530,"signific":2531,"restaur":2532,"interested":2533,"electric":2534,"Christmas":2535,"retail":2536,"screen":2537,"--":2538,"ER":2539,"Every":2540,"Mus":2541,"cup":2542,"fa":2543,"gs":2544,"hous":2545,"sen":2546,"uals":2547,"attract":2548,"ases":2549,"leave":2550,"elt":2551,"force":2552,"immedi":2553,"ared":2554,"areas":2555,"residents":2556,"ief":2557,"acker":2558,"izes":2559,"prefer":2560,"financial":2561,"effic":2562,"reading":2563,"auto":2564,"providing":2565,"basis":2566,"included":2567,"ption":2568,"leading":2569,"files":2570,"Brit":2571,"learning":2572,"schools":2573,"internet":2574,"reviews":2575,"Content":2576,"protect":2577,"safety":2578,"65":2579,"AA":2580,"Day":2581,"From":2582,"Hol":2583,"Mac":2584,"March":2585,"Mendo":2586,"Not":2587,"band":2588,"cou":2589,"hit":2590,"ham":2591,"lay":2592,"pm":2593,"pan":2594,"sil":2595,"resume":2596,"oul":2597,"ester":2598,"ari":2599,"acqu":2600,"young":2601,"ides":2602,"ceed":2603,"ements":2604,"moder":2605,"deep":2606,"active":2607,"anything":2608,"prior":2609,"grand":2610,"iple":2611,"avoid":2612,"Why":2613,"nothing":2614,"college":2615,"anger":2616,"counsel":2617,"highly":2618,"Also":2619,"obtain":2620,"Once":2621,"Program":2622,"feature":2623,"issue":2624,"sites":2625,"received":2626,"Media":2627,"approach":2628,"strategy":2629,"GPLAC":2630,"journey":2631,"January":2632,"Mendoza":2633,"\".":2634,",\"":2635,"Dan":2636,"Fil":2637,"Mary":2638,"ON":2639,"bill":2640,"dish":2641,"fre":2642,"gives":2643,"mor":2644,"mis":2645,"matter":2646,"ode":2647,"ri":2648,"rate":2649,"rough":2650,"rates":2651,"smo":2652,"uge":2653,"ze":2654,"isode":2655,"itation":2656,"offee":2657,"stain":2658,"stack":2659,"selection":2660,"hear":2661,"tru":2662,"plus":2663,"exerc":2664,"period":2665,"evidence":2666,"serve":2667,"prevent":2668,"colors":2669,"curren":2670,"knowledge":2671,"2011":2672,"region":2673,"driving":2674,"cars":2675,"download":2676,"easily":2677,"processing":2678,"takes":2679,"limited":2680,"Apple":2681,"buying":2682,"changes":2683,"analy":2684,"John":2685,"storage":2686,"Community":2687,"types":2688,"copy":2689,"floor":2690,"amount":2691,"significant":2692,"45":2693,"AT":2694,"Are":2695,"Dep":2696,"LE":2697,"Mich":2698,"Over":2699,"ban":2700,"bud":2701,"eks":2702,"gree":2703,"ggest":2704,"iam":2705,"jun":2706,"oil":2707,"source":2708,"tone":2709,"wire":2710,"thous":2711,"erg":2712,"orge":2713,"acation":2714,"advis":2715,"ided":2716,"aren":2717,"suf":2718,"suggest":2719,"plate":2720,"plants":2721,"antique":2722,"cannot":2723,"prices":2724,"Indig":2725,"goes":2726,"button":2727,"foot":2728,"aking":2729,"reng":2730,"final":2731,"medical":2732,"wanted":2733,"diffic":2734,"engine":2735,"lights":2736,"Royal":2737,"complex":2738,"talk":2739,"edule":2740,"activities":2741,"welcome":2742,"error":2743,"popular":2744,"recogn":2745,"Australia":2746,"Indigenous":2747,"28":2748,"Apr":2749,"Bro":2750,"CP":2751,"June":2752,"Mc":2753,"OC":2754,"Pre":2755,"SM":2756,"Sci":2757,"THE":2758,"aign":2759,"dy":2760,"sor":2761,"sort":2762,"tax":2763,"vot":2764,"ining":2765,"reh":2766,"remember":2767,"alu":2768,"altern":2769,"implement":2770,"verage":2771,"log":2772,"apos":2773,"moving":2774,"outdoor":2775,"tee":2776,"code":2777,"max":2778,"earch":2779,"affic":2780,"ization":2781,"distrib":2782,"whole":2783,"interview":2784,"collection":2785,"choice":2786,"encour":2787,"Health":2788,"cells":2789,"profession":2790,"Canada":2791,"analysis":2792,"campaign":2793,"effective":2794,"viol":2795,"picture":2796,"spring":2797,"amazing":2798,"probably":2799,"23":2800,"26":2801,"Del":2802,"Dietary":2803,"Oc":2804,"SO":2805,"Sw":2806,"Tod":2807,"Voice":2808,"bon":2809,"cult":2810,"drop":2811,"ee":2812,"ead":2813,"gather":2814,"gender":2815,"ivery":2816,"iance":2817,"ken":2818,"lives":2819,"mm":2820,"rum":2821,"text":2822,"voice":2823,"isions":2824,"stick":2825,"elo":2826,"accur":2827,"adjust":2828,"unities":2829,"prostate":2830,"convers":2831,"conven":2832,"trail":2833,"resistance":2834,"hair":2835,"Then":2836,"istic":2837,"note":2838,"meal":2839,"docum":2840,"iber":2841,"Ang":2842,"registration":2843,"higher":2844,"background":2845,"ological":2846,"polish":2847,"Engl":2848,"entertain":2849,"Scot":2850,"growing":2851,"costs":2852,"ICES":2853,"launch":2854,"Manag":2855,"vanity":2856,"determin":2857,"schedule":2858,"ronic":2859,"equipment":2860,"exactly":2861,"nutr":2862,"sweet":2863,"ometimes":2864,"computer":2865,"answer":2866,"introdu":2867,"Computer":2868,"English":2869,"CN":2870,"Each":2871,"Even":2872,"Jes":2873,"Rental":2874,"Sm":2875,"Up":2876,"bab":2877,"bul":2878,"base":2879,"dol":2880,"huge":2881,"iar":2882,"ker":2883,"kids":2884,"late":2885,"sess":2886,"tren":2887,"tree":2888,"zer":2889,"ana":2890,"item":2891,"itely":2892,"ica":2893,"became":2894,"igr":2895,"cep":2896,"agon":2897,"tries":2898,"appl":2899,"except":2900,"shows":2901,"ivity":2902,"prim":2903,"television":2904,"points":2905,"spend":2906,"itself":2907,"myself":2908,"positive":2909,"helped":2910,"award":2911,"added":2912,"center":2913,"Read":2914,"players":2915,"standard":2916,"condition":2917,"ashing":2918,"published":2919,"remove":2920,"character":2921,"groups":2922,"opportunities":2923,"treatment":2924,"Internet":2925,".”":2926,"Afr":2927,"Ber":2928,"Cred":2929,"Fo":2930,"Her":2931,"His":2932,"Many":2933,"Ser":2934,"YO":2935,"batter":2936,"cross":2937,"coffee":2938,"dist":2939,"dark":2940,"lack":2941,"ns":2942,"ners":2943,"nice":2944,"park":2945,"pages":2946,"uff":2947,"yl":2948,"inform":2949,"influ":2950,"reet":2951,"release":2952,"tober":2953,"ican":2954,"stage":2955,"streng":2956,"sequ":2957,"separ":2958,"chair":2959,"etr":2960,"trou":2961,"thern":2962,"oney":2963,"climate":2964,"notice":2965,"ibr":2966,"prepar":2967,"helping":2968,"guide":2969,"delivery":2970,"basic":2971,"student":2972,"empor":2973,"clos":2974,"instead":2975,"respon":2976,"individuals":2977,"dependent":2978,"science":2979,"Relations":2980,"measure":2981,"girls":2982,"machine":2983,"hospital":2984,"Michel":2985,"Aug":2986,"BC":2987,"CA":2988,"CT":2989,"Cong":2990,"Dav":2991,"ET":2992,"IG":2993,"dress":2994,"giving":2995,"pet":2996,"rac":2997,"sense":2998,"uel":2999,"winter":3000,"”.":3001,"rew":3002,"theme":3003,"oring":3004,"enge":3005,"total":3006,"lets":3007,"iling":3008,"bey":3009,"ays":3010,"consult":3011,"sumer":3012,"lose":3013,"lock":3014,"trade":3015,"traffic":3016,"illage":3017,"outside":3018,"quil":3019,"words":3020,"clin":3021,"ideal":3022,"compreh":3023,"spac":3024,"evalu":3025,"izing":3026,"manage":3027,"themselves":3028,"produce":3029,"office":3030,"regul":3031,"finish":3032,"playing":3033,"dete":3034,"largest":3035,"developed":3036,"thinking":3037,"See":3038,"occur":3039,"lots":3040,"explo":3041,"advice":3042,"domin":3043,"Friday":3044,"World":3045,"sensors":3046,"wait":3047,"definitely":3048,"regarding":3049,"established":3050,"existing":3051,"double":3052,"written":3053,"Develop":3054,"October":3055,"Scotland":3056,"Congress":3057,"Hor":3058,"Hot":3059,"Life":3060,"MP":3061,"Pal":3062,"Post":3063,"dream":3064,"ecut":3065,"flex":3066,"gave":3067,"hib":3068,"haps":3069,"ky":3070,"nd":3071,"nit":3072,"press":3073,"push":3074,"ru":3075,"race":3076,"info":3077,"rele":3078,"ories":3079,"ison":3080,"iced":3081,"icious":3082,"star":3083,"seem":3084,"seems":3085,"idge":3086,"imin":3087,"irit":3088,"convent":3089,"emot":3090,"creative":3091,"assess":3092,"describ":3093,"experts":3094,"ios":3095,"attend":3096,"Grand":3097,"wrong":3098,"writing":3099,"healthy":3100,"Good":3101,"submit":3102,"statement":3103,"America":3104,"practices":3105,"traditional":3106,"German":3107,"comfortable":3108,"http":3109,"completely":3110,"reasons":3111,"article":3112,"modern":3113,"27":3114,"Aide":3115,"Cent":3116,"House":3117,"Ir":3118,"Port":3119,"Special":3120,"TM":3121,"Use":3122,"War":3123,"Yuk":3124,"diet":3125,"fair":3126,"gers":3127,"hour":3128,"pto":3129,"rich":3130,"sink":3131,"inj":3132,"innov":3133,"arily":3134,"stream":3135,"role":3136,"iding":3137,"ares":3138,"uss":3139,"progress":3140,"lov":3141,"neigh":3142,"resources":3143,"ends":3144,"prise":3145,"fects":3146,"duc":3147,"liable":3148,"preci":3149,"rench":3150,"bles":3151,"served":3152,"thank":3153,"counter":3154,"looks":3155,"relax":3156,"tural":3157,"starting":3158,"standing":3159,"easier":3160,"valu":3161,"venture":3162,"offered":3163,"stores":3164,"annual":3165,"Coordin":3166,"Television":3167,"places":3168,"package":3169,"investment":3170,"communities":3171,"holiday":3172,"requirements":3173,"challenge":3174,"Check":3175,"cuit":3176,"target":3177,"methods":3178,"repair":3179,"premium":3180,"associated":3181,"VoiceComputer":3182,"Jesus":3183,"31":3184,"90":3185,"Ab":3186,"CI":3187,"El":3188,"Publ":3189,"Power":3190,"Sal":3191,"UN":3192,"Was":3193,"crow":3194,"dle":3195,"fine":3196,"felt":3197,"hum":3198,"na":3199,"radio":3200,"rules":3201,"slow":3202,"tiff":3203,"west":3204,"inch":3205,"reput":3206,"relev":3207,"remind":3208,"thes":3209,"ille":3210,"secure":3211,"beha":3212,"admin":3213,"imag":3214,"otton":3215,"urs":3216,"conduct":3217,"apt":3218,"plans":3219,"optim":3220,"excl":3221,"explain":3222,"sole":3223,"cloud":3224,"pool":3225,"coach":3226,"series":3227,"ference":3228,"stra":3229,"197":3230,"thritis":3231,"angelo":3232,"2012":3233,"highest":3234,"hood":3235,"insur":3236,"Associ":3237,"rental":3238,"profit":3239,"stock":3240,"opening":3241,"seconds":3242,"society":3243,"ION":3244,"appropr":3245,"strateg":3246,"risk":3247,"involved":3248,"piece":3249,"situation":3250,"advantage":3251,"difficult":3252,"Today":3253,"Michelangelo":3254,"Yukon":3255,"DA":3256,"EV":3257,"Gen":3258,"Garden":3259,"Ho":3260,"Lin":3261,"Mer":3262,"Off":3263,"Ru":3264,"Sup":3265,"Soft":3266,"Since":3267,"Satur":3268,"Vacation":3269,"Washing":3270,"bow":3271,"fish":3272,"jud":3273,"mical":3274,"mix":3275,"path":3276,"slight":3277,"tics":3278,"anch":3279,"aled":3280,"eds":3281,"icated":3282,"sters":3283,"church":3284,"ama":3285,"oting":3286,"construction":3287,"neg":3288,"death":3289,"reserv":3290,"essential":3291,"peace":3292,"permission":3293,"useful":3294,"lier":3295,"cket":3296,"creating":3297,"icks":3298,"ension":3299,"strict":3300,"register":3301,"draw":3302,"attention":3303,"Real":3304,"Trans":3305,"Tracker":3306,"object":3307,"leads":3308,"capt":3309,"Play":3310,"write":3311,"ships":3312,"extre":3313,"expensive":3314,"shops":3315,"cycl":3316,"passion":3317,"properly":3318,"Resume":3319,"Techn":3320,"incred":3321,"structure":3322,"classic":3323,"cases":3324,"filled":3325,"eye":3326,"plaintiff":3327,"broadcast":3328,"Design":3329,"corporate":3330,"education":3331,"original":3332,"candid":3333,"couple":3334,"straight":3335,"Washington":3336,"49":3337,"Act":3338,"Ed":3339,"Educ":3340,"Find":3341,"Great":3342,"Je":3343,"ME":3344,"Mic":3345,"Mob":3346,"View":3347,"dut":3348,"die":3349,"dire":3350,"dates":3351,"ech":3352,"ease":3353,"fan":3354,"jump":3355,"lux":3356,"ny":3357,"nes":3358,"rail":3359,"tit":3360,"ato":3361,"atab":3362,"alone":3363,"told":3364,"ades":3365,"admission":3366,"cture":3367,"absol":3368,"terr":3369,"plug":3370,"mention":3371,"Int":3372,"doct":3373,"commission":3374,"angu":3375,"looked":3376,"Commit":3377,"attle":3378,"wants":3379,"requires":3380,"consist":3381,"difference":3382,"Art":3383,"Arts":3384,"patent":3385,"career":3386,"anna":3387,"passed":3388,"operation":3389,"tenance":3390,"Team":3391,"paying":3392,"virt":3393,"master":3394,"Christian":3395,"paren":3396,"movement":3397,"Party":3398,"eyes":3399,"pictures":3400,"meaning":3401,"satis":3402,"favorite":3403,"birth":3404,"prepared":3405,"guests":3406,"volunteer":3407,"General":3408,"susp":3409,"restaurant":3410,"Science":3411,"battery":3412,"David":3413,"comprehensive":3414,"relevant":3415,"\",":3416,"48":3417,"AL":3418,"Bel":3419,"Ca":3420,"Get":3421,"Happ":3422,"Like":3423,"NO":3424,"Str":3425,"Spe":3426,"Spr":3427,"Top":3428,"Take":3429,"Vol":3430,"Well":3431,"cat":3432,"fight":3433,"iers":3434,"mes":3435,"nal":3436,"nation":3437,"pul":3438,"sav":3439,"yes":3440,"inde":3441,"ald":3442,"itors":3443,"arthritis":3444,"icians":3445,"accept":3446,"seven":3447,"ads":3448,"chance":3449,"contrib":3450,"erson":3451,"sustain":3452,"illed":3453,"depart":3454,"weeks":3455,"Through":3456,"proud":3457,"feet":3458,"astic":3459,"afford":3460,"otherwise":3461,"owners":3462,"bright":3463,"brought":3464,"intage":3465,"craf":3466,"serving":3467,"Star":3468,"States":3469,"minimum":3470,"visual":3471,"symp":3472,"carry":3473,"designs":3474,"transfer":3475,"Online":3476,"venue":3477,"Plan":3478,"iques":3479,"dinner":3480,"block":3481,"controll":3482,"remodel":3483,"charge":3484,"Research":3485,"temper":3486,"considered":3487,"Phil":3488,"changed":3489,"Book":3490,"steps":3491,"demand":3492,"woman":3493,"India":3494,"speaker":3495,"scient":3496,"license":3497,"experienced":3498,"ringtone":3499,"models":3500,"European":3501,"taste":3502,"movie":3503,"Director":3504,"immediately":3505,"budget":3506,"April":3507,"dollar":3508,"emporary":3509,"August":3510,"Saturday":3511,"33":3512,"35":3513,"480":3514,"Bus":3515,"CB":3516,"Cur":3517,"Cour":3518,"Ear":3519,"Fir":3520,"HS":3521,"Hill":3522,"Ke":3523,"Love":3524,"Micro":3525,"Po":3526,"Red":3527,"Rich":3528,"SS":3529,"Sound":3530,"average":3531,"cab":3532,"las":3533,"lines":3534,"ored":3535,"rug":3536,"squ":3537,"wick":3538,"ona":3539,"rob":3540,"roof":3541,"entry":3542,"seat":3543,"began":3544,"heavy":3545,"amar":3546,"igation":3547,"abilities":3548,"agar":3549,"apy":3550,"appreci":3551,"wear":3552,"exas":3553,"ateg":3554,"ieved":3555,"goal":3556,"episode":3557,"assign":3558,"blue":3559,"owned":3560,"parties":3561,"mining":3562,"countries":3563,"toms":3564,"effects":3565,"medic":3566,"although":3567,"markets":3568,"transform":3569,"transport":3570,"cape":3571,"pattern":3572,"occas":3573,"decide":3574,"Road":3575,"fili":3576,"locations":3577,"announ":3578,"opened":3579,"numbers":3580,"removal":3581,"removed":3582,"gery":3583,"cleaning":3584,"limit":3585,"undred":3586,"College":3587,"changing":3588,"functional":3589,"visitors":3590,"certainly":3591,"practice":3592,"determine":3593,"sung":3594,"gradu":3595,"experiences":3596,"browser":3597,"economic":3598,"official":3599,"People":3600,"beginning":3601,"manufactur":3602,"wonderful":3603,"accident":3604,"crypto":3605,"mountain":3606,"England":3607,"faith":3608,"housing":3609,"Film":3610,"Department":3611,"thousands":3612,"Credits":3613,"niture":3614,"Mobile":3615,"direction":3616,"atabase":3617,"parents":3618,"29":3619,"500":3620,"??":3621,"Ag":3622,"Awards":3623,"DI":3624,"Elect":3625,"Flor":3626,"French":3627,"Gar":3628,"Gover":3629,"Ko":3630,"MC":3631,"Net":3632,"President":3633,"RO":3634,"UR":3635,"Vir":3636,"Wed":3637,"ahead":3638,"bol":3639,"bum":3640,"cel":3641,"diver":3642,"danger":3643,"eth":3644,"eat":3645,"father":3646,"hus":3647,"hire":3648,"ka":3649,"lin":3650,"lunch":3651,"ov":3652,"rical":3653,"rics":3654,"sn":3655,"tab":3656,"ya":3657,"thus":3658,"independent":3659,"rear":3660,"enh":3661,"asp":3662,"icip":3663,"youth":3664,"forts":3665,"ady":3666,"lying":3667,"igious":3668,"images":3669,"ctions":3670,"usive":3671,"proced":3672,"cember":3673,"constant":3674,"terms":3675,"apers":3676,"estim":3677,"sharing":3678,"output":3679,"anti":3680,"Thanks":3681,"tech":3682,"meals":3683,"acknow":3684,"compens":3685,"earning":3686,"spent":3687,"akes":3688,"Where":3689,"phones":3690,"China":3691,"produced":3692,"2013":3693,"effort":3694,"seeing":3695,"guard":3696,"provider":3697,"flict":3698,"Altern":3699,"polic":3700,"capital":3701,"surround":3702,"decided":3703,"stored":3704,"film":3705,"December":3706,"operations":3707,"electronic":3708,"reported":3709,"France":3710,"installed":3711,"understanding":3712,"roller":3713,"Steel":3714,"contains":3715,"nearly":3716,"affected":3717,"stitute":3718,"Company":3719,"challenges":3720,"Market":3721,"expertise":3722,"fabric":3723,"efficient":3724,"exercise":3725,"professionals":3726,"baby":3727,"beyond":3728,"reputation":3729,"Office":3730,"714":3731,"BA":3732,"BE":3733,"Care":3734,"Def":3735,"EM":3736,"Face":3737,"GB":3738,"Mr":3739,"Main":3740,"Nach":3741,"TH":3742,"Two":3743,"ba":3744,"bound":3745,"cards":3746,"cash":3747,"dict":3748,"ees":3749,"farm":3750,"gun":3751,"iPh":3752,"kin":3753,"ler":3754,"mir":3755,"marr":3756,"pa":3757,"pite":3758,"sport":3759,"sometimes":3760,"uit":3761,"wild":3762,"ying":3763,"threat":3764,"istry":3765,"tos":3766,"leaves":3767,"roid":3768,"rock":3769,"omb":3770,"sex":3771,"beat":3772,"ado":3773,"adata":3774,"imming":3775,"consumer":3776,"truly":3777,"ifari":3778,"dead":3779,"degree":3780,"resent":3781,"thermal":3782,"waste":3783,"Inter":3784,"meant":3785,"cohol":3786,"ellig":3787,"2000":3788,"spirit":3789,"Ann":3790,"intellig":3791,"cords":3792,"ciples":3793,"counts":3794,"choices":3795,"join":3796,"jewel":3797,"simpl":3798,"Trifari":3799,"starts":3800,"ixel":3801,"political":3802,"Artic":3803,"patient":3804,"respond":3805,"turned":3806,"2003":3807,"ricul":3808,"presented":3809,"150":3810,"Deanna":3811,"websites":3812,"properties":3813,"meetings":3814,"graphic":3815,"responsibility":3816,"Blue":3817,"protection":3818,"demon":3819,"audio":3820,"histor":3821,"recently":3822,"claims":3823,"circuit":3824,"diag":3825,"International":3826,"licens":3827,"graphics":3828,"committed":3829,"excited":3830,"destination":3831,"initial":3832,"reduce":3833,"communications":3834,"consumers":3835,"familiar":3836,"Build":3837,"GDPR":3838,"sleep":3839,"credit":3840,"currency":3841,"entertainment":3842,"insurance":3843,"appropriate":3844,"41":3845,"Bali":3846,"CE":3847,"CR":3848,"Cin":3849,"Dur":3850,"Gi":3851,"Global":3852,"Hall":3853,"List":3854,"MA":3855,"NA":3856,"Next":3857,"Other":3858,"Oak":3859,"Pod":3860,"Rev":3861,"Sil":3862,"Sur":3863,"Sum":3864,"Show":3865,"UK":3866,"bird":3867,"cable":3868,"distance":3869,"eight":3870,"election":3871,"fold":3872,"faster":3873,"gi":3874,"hundred":3875,"iation":3876,"langu":3877,"pump":3878,"sha":3879,"spo":3880,"scale":3881,"ube":3882,"throw":3883,"income":3884,"inner":3885,"atically":3886,"oral":3887,"esome":3888,"ederal":3889,"aries":3890,"stone":3891,"stuff":3892,"elines":3893,"heard":3894,"chann":3895,"lost":3896,"ults":3897,"exhib":3898,"pects":3899,"estate":3900,"shot":3901,"arts":3902,"perhaps":3903,"istan":3904,"clar":3905,"industr":3906,"update":3907,"compon":3908,"useum":3909,"ously":3910,"serious":3911,"bled":3912,"overall":3913,"Who":3914,"poses":3915,"....":3916,"195":3917,"minute":3918,"drink":3919,"drug":3920,"attor":3921,"pressure":3922,"greater":3923,"invent":3924,"ength":3925,"leader":3926,"listed":3927,"factors":3928,"bedding":3929,"powerful":3930,"accessible":3931,"covered":3932,"productive":3933,"USA":3934,"reports":3935,"facilities":3936,"status":3937,"appeal":3938,"organizations":3939,"normal":3940,"Look":3941,"concerning":3942,"recovery":3943,"animal":3944,"sector":3945,"suitable":3946,"element":3947,"morning":3948,"suffer":3949,"culture":3950,"document":3951,"strength":3952,"preparation":3953,"released":3954,"lovely":3955,"neighbor":3956,"Washo":3957,"Micha":3958,"Committee":3959,"Happy":3960,"First":3961,"filiates":3962,"Baliye":3963,"44":3964,"Av":3965,"Ama":3966,"Ben":3967,"Big":3968,"Best":3969,"CD":3970,"Cy":3971,"Down":3972,"Eas":3973,"HD":3974,"Har":3975,"Have":3976,"Io":3977,"King":3978,"LO":3979,"Lord":3980,"Mil":3981,"Mother":3982,"Nove":3983,"Out":3984,"PM":3985,"Ra":3986,"Sim":3987,"Spot":3988,"TE":3989,"Ter":3990,"Tur":3991,"Tour":3992,"Texas":3993,"Water":3994,"Wood":3995,"Yes":3996,"bing":3997,"cular":3998,"categ":3999,"eco":4000,"gal":4001,"gas":4002,"net":4003,"ocr":4004,"ran":4005,"rise":4006,"south":4007,"vs":4008,"vior":4009,"ville":4010,"wit":4011,"zy":4012,"input":4013,"inciples":4014,"isation":4015,"toile":4016,"itude":4017,"icon":4018,"iled":4019,"forced":4020,"adem":4021,"chan":4022,"iment":4023,"proof":4024,"agement":4025,"deb":4026,"defic":4027,"ultim":4028,"atever":4029,"quiet":4030,"umn":4031,"grant":4032,"forms":4033,"earned":4034,"parts":4035,"partner":4036,"whose":4037,"bruary":4038,"manner":4039,"posal":4040,"2010":4041,"joint":4042,"shoulder":4043,"central":4044,"presents":4045,"delicious":4046,"played":4047,"ictor":4048,"turning":4049,"chemical":4050,"standards":4051,"listen":4052,"emphas":4053,"maintenance":4054,"capac":4055,"Arch":4056,"solid":4057,"offering":4058,"famous":4059,"completed":4060,"keeping":4061,"salt":4062,"express":4063,"techniques":4064,"graphy":4065,"Work":4066,"purchasing":4067,"scen":4068,"ifying":4069,"AND":4070,"menu":4071,"cameras":4072,"February":4073,"Paris":4074,"multiple":4075,"birds":4076,"homes":4077,"initi":4078,"Daniel":4079,"accurate":4080,"conversation":4081,"Manager":4082,"separate":4083,"Education":4084,"policies":4085,"Article":4086,"diagno":4087,"Michael":4088,"Amaz":4089,"IoT":4090,"November":4091,"39":4092,"75":4093,"Air":4094,"Aud":4095,"Bow":4096,"Distr":4097,"Hel":4098,"James":4099,"LY":4100,"Lab":4101,"Note":4102,"Paul":4103,"Rac":4104,"Sen":4105,"Sain":4106,"SAP":4107,"UP":4108,"bank":4109,"dim":4110,"fans":4111,"fash":4112,"gg":4113,"games":4114,"gift":4115,"hop":4116,"kid":4117,"lap":4118,"nail":4119,"sold":4120,"sports":4121,"task":4122,"vintage":4123,"xiety":4124,"ini":4125,"records":4126,"estern":4127,"album":4128,"ico":4129,"rot":4130,"iles":4131,"accom":4132,"ader":4133,"ament":4134,"ayer":4135,"tried":4136,"truck":4137,"apter":4138,"approved":4139,"emerg":4140,"deck":4141,"weather":4142,"odes":4143,"odnt":4144,"Those":4145,"Thurs":4146,"princ":4147,"coin":4148,"goals":4149,"earn":4150,"earlier":4151,"spread":4152,"cream":4153,"assistance":4154,"aked":4155,"crit":4156,"Char":4157,"joined":4158,"medium":4159,"guess":4160,"player":4161,"carr":4162,"providers":4163,"valid":4164,"calls":4165,"leaders":4166,"clothing":4167,"idential":4168,"possibly":4169,"Section":4170,"advance":4171,"continues":4172,"talent":4173,"operating":4174,"Chris":4175,"Class":4176,"volume":4177,"Services":4178,"considering":4179,"beauty":4180,"allowed":4181,"Phys":4182,"iency":4183,"activity":4184,"Dragon":4185,"window":4186,"flowers":4187,"focused":4188,"Republ":4189,"born":4190,"sched":4191,"Patio":4192,"Samsung":4193,"bathroom":4194,"delivered":4195,"promote":4196,"animals":4197,"Stoodnt":4198,"System":4199,"British":4200,"smooth":4201,"nutrition":4202,"Africa":4203,"etricks":4204,"response":4205,"quilts":4206,"slightly":4207,"Technology":4208,"symptoms":4209,"Business":4210,"iPhone":4211,"jewelry":4212,"language":4213,"Thursday":4214,"2nd":4215,"85":4216,"88":4217,"99":4218,"AI":4219,"Dem":4220,"Div":4221,"Full":4222,"Gold":4223,"IV":4224,"Link":4225,"MO":4226,"Os":4227,"Press":4228,"Radio":4229,"Sat":4230,"Sub":4231,"Val":4232,"Wine":4233,"Whether":4234,"bought":4235,"cit":4236,"cers":4237,"dated":4238,"eating":4239,"frequ":4240,"ges":4241,"gent":4242,"gone":4243,"gins":4244,"hab":4245,"hur":4246,"iage":4247,"ju":4248,"length":4249,"matt":4250,"nel":4251,"pal":4252,"pad":4253,"pow":4254,"ror":4255,"rare":4256,"raw":4257,"soul":4258,"tick":4259,"tips":4260,"wiring":4261,"xim":4262,"ancing":4263,"atively":4264,"lete":4265,"accep":4266,"sea":4267,"heel":4268,"amb":4269,"ambo":4270,"ural":4271,"uted":4272,"utely":4273,"ags":4274,"concept":4275,"lob":4276,"trust":4277,"illing":4278,"plent":4279,"shape":4280,"therapy":4281,"quarter":4282,"mental":4283,"istics":4284,"clim":4285,"willing":4286,"noticed":4287,"Inde":4288,"upper":4289,"boost":4290,"creation":4291,"aker":4292,"commands":4293,"Which":4294,"pleas":4295,"speech":4296,"corner":4297,"cold":4298,"therefore":4299,"inclusion":4300,"helpful":4301,"makeup":4302,"adding":4303,"finally":4304,"efforts":4305,"Commission":4306,"attach":4307,"seeking":4308,"calcul":4309,"reader":4310,"ificate":4311,"busy":4312,"presence":4313,"ampion":4314,"ologies":4315,"eases":4316,"consci":4317,"processes":4318,"obvious":4319,"Place":4320,"occup":4321,"arrang":4322,"surv":4323,"2008":4324,"2009":4325,"performed":4326,"presentation":4327,"expand":4328,"importance":4329,"balance":4330,"Social":4331,"charging":4332,"managed":4333,"glad":4334,"Click":4335,"videos":4336,"successfully":4337,"ICO":4338,"bury":4339,"makers":4340,"facility":4341,"furniture":4342,"campus":4343,"flower":4344,"reflect":4345,"waiting":4346,"Represent":4347,"selling":4348,"celebrate":4349,"Registration":4350,"particularly":4351,"guidance":4352,"bottom":4353,"stackable":4354,"alternative":4355,"convenience":4356,"Angel":4357,"ibrary":4358,"luxury":4359,"Court":4360,"Microsoft":4361,"amarind":4362,"husband":4363,"Facebook":4364,"120":4365,"BR":4366,"Cup":4367,"Cert":4368,"Data":4369,"Em":4370,"Ell":4371,"Fund":4372,"Games":4373,"Hope":4374,"LA":4375,"Law":4376,"Mid":4377,"Met":4378,"Mag":4379,"Oh":4380,"Sing":4381,"Tues":4382,"Ve":4383,"Wo":4384,"Wal":4385,"XL":4386,"bes":4387,"bage":4388,"cin":4389,"fat":4390,"fant":4391,"mass":4392,"mely":4393,"nur":4394,"none":4395,"nature":4396,"snow":4397,"score":4398,"tw":4399,"tend":4400,"tough":4401,"tast":4402,"tail":4403,"vit":4404,"vest":4405,"wid":4406,"intr":4407,"erve":4408,"reve":4409,"remot":4410,"alcohol":4411,"edge":4412,"edition":4413,"arant":4414,"icing":4415,"street":4416,"rol":4417,"accompl":4418,"beam":4419,"becomes":4420,"ida":4421,"igs":4422,"unic":4423,"ague":4424,"comment":4425,"tery":4426,"termin":4427,"emon":4428,"empt":4429,"ulous":4430,"excess":4431,"extract":4432,"outcomes":4433,"quis":4434,"query":4435,"ument":4436,"teen":4437,"tele":4438,"Institute":4439,"workshop":4440,"mail":4441,"compass":4442,"achel":4443,"afé":4444,"contemporary":4445,"server":4446,"cret":4447,"diseases":4448,"intended":4449,"bert":4450,"posit":4451,"collabor":4452,"thanks":4453,"awesome":4454,"regions":4455,"Android":4456,"evening":4457,"letter":4458,"courses":4459,"enger":4460,"transformation":4461,"leadership":4462,"Only":4463,"larger":4464,"programming":4465,"liter":4466,"umpsters":4467,"surpr":4468,"decisions":4469,"Exam":4470,"2002":4471,"technical":4472,"metadata":4473,"Scout":4474,"Because":4475,"bigger":4476,"interests":4477,"glass":4478,"template":4479,"Applic":4480,"Isra":4481,"faces":4482,"privacy":4483,"Organ":4484,"expectations":4485,"advertis":4486,"ING":4487,"refresh":4488,"Step":4489,"audience":4490,"Repair":4491,"benefit":4492,"biology":4493,"According":4494,"Studies":4495,"Students":4496,"Germany":4497,"recommended":4498,"broken":4499,"satell":4500,"commitment":4501,"dedicated":4502,"combination":4503,"collected":4504,"authority":4505,"economy":4506,"establish":4507,"defend":4508,"tasks":4509,"aughter":4510,"message":4511,"route":4512,"feedback":4513,"George":4514,"families":4515,"William":4516,"instructions":4517,"Music":4518,"senior":4519,"sorry":4520,"maximum":4521,"spaces":4522,"negative":4523,"Intel":4524,"diverse":4525,"intelligent":4526,"Washoe":4527,"fashion":4528,"Israel":4529,"36":4530,"300":4531,"51":4532,"64":4533,"AV":4534,"Ass":4535,"Bi":4536,"Beach":4537,"CH":4538,"Call":4539,"Cap":4540,"Creat":4541,"Clear":4542,"Fur":4543,"Fort":4544,"Father":4545,"Food":4546,"GA":4547,"Kar":4548,"Kind":4549,"Lu":4550,"Ma":4551,"Mot":4552,"Mill":4553,"Oper":4554,"Old":4555,"Run":4556,"SA":4557,"SU":4558,"Sign":4559,"TED":4560,"Ut":4561,"Vide":4562,"Victor":4563,"ae":4564,"bour":4565,"bone":4566,"catch":4567,"glit":4568,"hi":4569,"hub":4570,"ko":4571,"lan":4572,"lamp":4573,"mist":4574,"pw":4575,"pin":4576,"rain":4577,"sin":4578,"sac":4579,"sam":4580,"spl":4581,"scr":4582,"saw":4583,"sized":4584,"sources":4585,"vel":4586,"inct":4587,"era":4588,"renew":4589,"orative":4590,"ston":4591,"station":4592,"elimin":4593,"seats":4594,"vey":4595,"chand":4596,"chick":4597,"olf":4598,"usage":4599,"units":4600,"uries":4601,"complic":4602,"conserv":4603,"neys":4604,"mode":4605,"resist":4606,"execut":4607,"shap":4608,"ounder":4609,"anta":4610,"antly":4611,"worry":4612,"Though":4613,"client":4614,"noted":4615,"wasn":4616,"grav":4617,"upgrad":4618,"elli":4619,"dog":4620,"dock":4621,"hase":4622,"2020":4623,"format":4624,"spark":4625,"spots":4626,"akistan":4627,"disability":4628,"fulfill":4629,"owner":4630,"ensity":4631,"strain":4632,"berry":4633,"fruit":4634,"interface":4635,"cris":4636,"Cho":4637,"colog":4638,"producers":4639,"angers":4640,"2014":4641,"drivers":4642,"encies":4643,"jobs":4644,"tones":4645,"perspect":4646,"religious":4647,"greatest":4648,"pute":4649,"Trad":4650,"ternal":4651,"transmission":4652,"values":4653,"purposes":4654,"calling":4655,"polit":4656,"finding":4657,"developing":4658,"clothes":4659,"capable":4660,"availability":4661,"profile":4662,"possess":4663,"arrival":4664,"Exper":4665,"enterprise":4666,"reality":4667,"generally":4668,"thoughts":4669,"happen":4670,"manager":4671,"feeling":4672,"interesting":4673,"connection":4674,"hardware":4675,"maker":4676,"hydr":4677,"allowing":4678,"Orange":4679,"sensitive":4680,"Meigs":4681,"employees":4682,"Indian":4683,"confidence":4684,"moments":4685,"Monday":4686,"Corpor":4687,"Sample":4688,"Remo":4689,"Super":4690,"remaining":4691,"orders":4692,"guidelines":4693,"appointment":4694,"relationships":4695,"movies":4696,"hormone":4697,"supplies":4698,"inspired":4699,"instructor":4700,"Holiday":4701,"Maryland":4702,"wireless":4703,"gathering":4704,"determined":4705,"session":4706,"primary":4707,"detect":4708,"seemed":4709,"Coordinator":4710,"behavior":4711,"Association":4712,"strategies":4713,"EVs":4714,"extremely":4715,"candidate":4716,"nesday":4717,"absolutely":4718,"mentioned":4719,"laser":4720,"appreciate":4721,"Wednesday":4722,"capacity":4723,"Amazon":4724,"District":4725,"Physical":4726,"plenty":4727,"77":4728,"Bay":4729,"Back":4730,"Cle":4731,"Den":4732,"Fol":4733,"Fall":4734,"GM":4735,"Grow":4736,"Jap":4737,"Jona":4738,"Kitchen":4739,"LD":4740,"Lake":4741,"LED":4742,"Ms":4743,"Master":4744,"OF":4745,"OK":4746,"Rest":4747,"Sch":4748,"Sus":4749,"TO":4750,"Ty":4751,"Ver":4752,"Wom":4753,"Watch":4754,"Western":4755,"battle":4756,"cip":4757,"da":4758,"dur":4759,"div":4760,"dance":4761,"founder":4762,"gon":4763,"hid":4764,"ml":4765,"mouse":4766,"nav":4767,"py":4768,"pas":4769,"pod":4770,"rad":4771,"scal":4772,"ture":4773,"vict":4774,"village":4775,"zz":4776,"ancy":4777,"replace":4778,"reliable":4779,"atin":4780,"atom":4781,"atures":4782,"orter":4783,"isa":4784,"edom":4785,"editor":4786,"itary":4787,"asking":4788,"icago":4789,"stim":4790,"stuck":4791,"ros":4792,"eless":4793,"acid":4794,"acet":4795,"adapt":4796,"olive":4797,"improv":4798,"proceed":4799,"conference":4800,"loved":4801,"trie":4802,"illustr":4803,"aph":4804,"ema":4805,"ember":4806,"mother":4807,"moved":4808,"deals":4809,"ulty":4810,"wearing":4811,"pep":4812,"sover":4813,"erequis":4814,"indic":4815,"Information":4816,"mechan":4817,"fees":4818,"doors":4819,"acks":4820,"sphere":4821,"spending":4822,"Analy":4823,"creates":4824,"iabet":4825,"Web":4826,"proven":4827,"enses":4828,"brain":4829,"brings":4830,"brands":4831,"Church":4832,"Chicago":4833,"serves":4834,"firms":4835,"Stand":4836,"Start":4837,"desk":4838,"desire":4839,"minor":4840,"minim":4841,"caused":4842,"driver":4843,"buf":4844,"visiting":4845,"syn":4846,"century":4847,"functions":4848,"basement":4849,"Although":4850,"memory":4851,"Under":4852,"Admin":4853,"heads":4854,"identify":4855,"sky":4856,"skill":4857,"Select":4858,"qualified":4859,"surface":4860,"azz":4861,"realize":4862,"leges":4863,"shoppers":4864,"Print":4865,"featuring":4866,"followed":4867,"Beaut":4868,"biggest":4869,"talking":4870,"kinds":4871,"increasing":4872,"1997":4873,"fortun":4874,"internal":4875,"Words":4876,"purchased":4877,"installing":4878,"packages":4879,"scene":4880,"investig":4881,"impress":4882,"ucky":4883,"visitor":4884,"shared":4885,"employee":4886,"favour":4887,"cultural":4888,"boxes":4889,"Communic":4890,"framework":4891,"officers":4892,"multi":4893,"situations":4894,"bottle":4895,"appointed":4896,"messages":4897,"challenging":4898,"continued":4899,"settings":4900,"GDSM":4901,"agreement":4902,"Britain":4903,"billion":4904,"tructure":4905,"distribution":4906,"CNPA":4907,"sessions":4908,"Series":4909,"troubles":4910,"clinical":4911,"explore":4912,"Hotel":4913,"emotional":4914,"temperature":4915,"manufacturer":4916,"Florida":4917,"Government":4918,"Review":4919,"Summer":4920,"emergency":4921,"schedul":4922,"amboo":4923,"remote":4924,"Japan":4925,"Jonathan":4926,"iabetes":4927,"1st":4928,"52":4929,"54":4930,"66":4931,"95":4932,"Aut":4933,"Bre":4934,"CC":4935,"Cas":4936,"Did":4937,"During":4938,"Dumpster":4939,"Hi":4940,"IR":4941,"Jack":4942,"Kr":4943,"Lt":4944,"Lit":4945,"Los":4946,"Mach":4947,"NY":4948,"OM":4949,"Oly":4950,"Open":4951,"Pac":4952,"Pass":4953,"Rah":4954,"Set":4955,"Swed":4956,"TS":4957,"Village":4958,"Wr":4959,"Year":4960,"]:":4961,"bly":4962,"dial":4963,"eleg":4964,"ecolog":4965,"federal":4966,"gue":4967,"gorge":4968,"hun":4969,"ius":4970,"kick":4971,"lam":4972,"lind":4973,"lish":4974,"mally":4975,"mph":4976,"nic":4977,"nom":4978,"obl":4979,"oples":4980,"psy":4981,"pair":4982,"punch":4983,"rub":4984,"ti":4985,"tor":4986,"vie":4987,"vote":4988,"zen":4989,"infr":4990,"restrict":4991,"thetic":4992,"isl":4993,"assem":4994,"aspects":4995,"astructure":4996,"stal":4997,"stake":4998,"states":4999,"eler":5000,"eline":5001,"entr":5002,"forum":5003,"becoming":5004,"adventure":5005,"idget":5006,"aming":5007,"ola":5008,"iminal":5009,"arent":5010,"usual":5011,"unit":5012,"univers":5013,"cean":5014,"agency":5015,"contr":5016,"trim":5017,"modif":5018,"plates":5019,"opin":5020,"resolution":5021,"haw":5022,"exchange":5023,"external":5024,"shown":5025,"quart":5026,"antit":5027,"artist":5028,"ivil":5029,"ista":5030,"cles":5031,"endar":5032,"poor":5033,"cos":5034,"coordin":5035,"elling":5036,"aven":5037,"compared":5038,"boards":5039,"lix":5040,"myster":5041,"distr":5042,"ignition":5043,"blight":5044,"newsp":5045,"manual":5046,"reek":5047,"191":5048,"Chapter":5049,"viewed":5050,"marks":5051,"fund":5052,"funds":5053,"flav":5054,"Alask":5055,"Ford":5056,"goods":5057,"News":5058,"engage":5059,"engagement":5060,"handmade":5061,"consent":5062,"folk":5063,"listing":5064,"empower":5065,"poll":5066,"venues":5067,"Sea":5068,"posts":5069,"surgery":5070,"2007":5071,"runs":5072,"azio":5073,"aham":5074,"teams":5075,"vari":5076,"Bridget":5077,"Prerequis":5078,"resulting":5079,"technologies":5080,"metal":5081,"happening":5082,"happened":5083,"grown":5084,"sitting":5085,"payment":5086,"mitted":5087,"1999":5088,"App":5089,"Word":5090,"classes":5091,"paint":5092,"enjoyed":5093,"winning":5094,"winetricks":5095,"Drive":5096,"nament":5097,"Meet":5098,"holders":5099,"competition":5100,"circum":5101,"participate":5102,"majority":5103,"tells":5104,"Description":5105,"typically":5106,"measures":5107,"environmental":5108,"Guide":5109,"applying":5110,"manufacturing":5111,"automatically":5112,"map_":5113,"https":5114,"origin":5115,"Financial":5116,"certificate":5117,"crucial":5118,"awareness":5119,"attractive":5120,"freedom":5121,"igration":5122,"applied":5123,"parking":5124,"describes":5125,"described":5126,"Central":5127,"Software":5128,"affordable":5129,"remodeling":5130,"Richard":5131,"procedures":5132,"riculum":5133,"Giada":5134,"Democr":5135,"Tuesday":5136,"hidden":5137,"pepper":5138,"Ltd":5139,"Olymp":5140,"AB":5141,"Brow":5142,"Bachel":5143,"CS":5144,"Ce":5145,"Cal":5146,"Cus":5147,"Cotton":5148,"Café":5149,"Dom":5150,"Ep":5151,"Ener":5152,"Farm":5153,"FOR":5154,"Hader":5155,"Last":5156,"Mel":5157,"Mod":5158,"Pur":5159,"Pho":5160,"Pixel":5161,"Russ":5162,"Such":5163,"Sky":5164,"Try":5165,"Tube":5166,"Us":5167,"WE":5168,"WI":5169,"Wel":5170,"bid":5171,"cies":5172,"cotton":5173,"east":5174,"fing":5175,"hes":5176,"harm":5177,"honey":5178,"iat":5179,"knew":5180,"lib":5181,"mers":5182,"obs":5183,"patch":5184,"rank":5185,"river":5186,"san":5187,"sou":5188,"sco":5189,"tight":5190,"vast":5191,"wing":5192,"yn":5193,"yard":5194,"zip":5195,"thick":5196,"anxiety":5197,"erous":5198,"onom":5199,"repe":5200,"recip":5201,"orient":5202,"ario":5203,"assu":5204,"ician":5205,"veget":5206,"height":5207,"ador":5208,"adults":5209,"etics":5210,"iments":5211,"verse":5212,"abuse":5213,"abled":5214,"whatever":5215,"utic":5216,"agent":5217,"consequ":5218,"trig":5219,"trick":5220,"neo":5221,"resto":5222,"wealth":5223,"esty":5224,"shel":5225,"anticip":5226,"ody":5227,"Thom":5228,"Things":5229,"actual":5230,"clust":5231,"prises":5232,"principles":5233,"pocket":5234,"ups":5235,"upcoming":5236,"dogs":5237,"gov":5238,"portion":5239,"earth":5240,"bridge":5241,"White":5242,"YouTube":5243,"interpre":5244,"posite":5245,"critical":5246,"anging":5247,"knowing":5248,"adds":5249,"causes":5250,"finished":5251,"apped":5252,"everyday":5253,"views":5254,"jection":5255,"guys":5256,"guarant":5257,"ifications":5258,"Report":5259,"delay":5260,"hook":5261,"invites":5262,"Andry":5263,"studies":5264,"athlet":5265,"lighting":5266,"missions":5267,"worldwide":5268,"osing":5269,"empty":5270,"police":5271,"instit":5272,"ficient":5273,"supports":5274,"publish":5275,"paragr":5276,"ields":5277,"organized":5278,"carefully":5279,"tooth":5280,"cycle":5281,"signage":5282,"generation":5283,"monthly":5284,"advanced":5285,"managing":5286,"eventually":5287,"cutting":5288,"deploy":5289,"smaller":5290,"showing":5291,"1998":5292,"ICE":5293,"styles":5294,"physicians":5295,"Board":5296,"population":5297,"mediation":5298,"specifically":5299,"Cheap":5300,"watching":5301,"fitness":5302,"govern":5303,"fourth":5304,"perfectly":5305,"config":5306,"concerned":5307,"dependence":5308,"Groups":5309,"magaz":5310,"risks":5311,"boarding":5312,"addresses":5313,"HomePod":5314,"integration":5315,"integrated":5316,"incident":5317,"brown":5318,"equipped":5319,"pieces":5320,"Australian":5321,"failure":5322,"middle":5323,"sections":5324,"acceler":5325,"volunteers":5326,"discovered":5327,"routine":5328,"advantages":5329,"residential":5330,"certified":5331,"songs":5332,"promise":5333,"Engine":5334,"appearance":5335,"compliance":5336,"subscription":5337,"dishes":5338,"sufficient":5339,"influence":5340,"closed":5341,"dressing":5342,"Developer":5343,"Hormone":5344,"Specialist":5345,"valuable":5346,"incredibly":5347,"railroad":5348,"title":5349,"commissioners":5350,"satisf":5351,"Spring":5352,"Philip":5353,"scientific":5354,"dollars":5355,"Virgin":5356,"surrounding":5357,"Defiance":5358,"demonstr":5359,"licensed":5360,"components":5361,"attorneys":5362,"neighborhood":5363,"Download":5364,"category":5365,"Labor":5366,"dimens":5367,"citiz":5368,"matters":5369,"pwquery":5370,"perspective":5371,"Growth":5372,"acetone":5373,"Pacific":5374,"paragraph":5375,"**":5376,"08":5377,"37":5378,"38":5379,"46":5380,"400":5381,"71":5382,"Ash":5383,"Bas":5384,"Bur":5385,"Bost":5386,"Bird":5387,"Cir":5388,"Come":5389,"Dig":5390,"Eli":5391,"ELE":5392,"FE":5393,"Fam":5394,"Fun":5395,"Fish":5396,"Found":5397,"FTA":5398,"GH":5399,"Igu":5400,"Ken":5401,"Kath":5402,"Live":5403,"Light":5404,"Loc":5405,"MD":5406,"Mor":5407,"Mex":5408,"Nur":5409,"Pay":5410,"Pakistan":5411,"Ren":5412,"Rent":5413,"Rol":5414,"River":5415,"Sa":5416,"Sk":5417,"Sol":5418,"Squ":5419,"Sight":5420,"Sho":5421,"Spect":5422,"Saul":5423,"TOS":5424,"VE":5425,"Win":5426,"Wil":5427,"W32":5428,"],":5429,"ault":5430,"bold":5431,"cats":5432,"database":5433,"daughter":5434,"fif":5435,"gate":5436,"ibe":5437,"iest":5438,"laugh":5439,"mat":5440,"mand":5441,"mous":5442,"nership":5443,"oven":5444,"pit":5445,"papers":5446,"phase":5447,"rd":5448,"rap":5449,"sis":5450,"sizes":5451,"uc":5452,"wheel":5453,"’.":5454,"inations":5455,"ered":5456,"reme":5457,"atmo":5458,"enem":5459,"alk":5460,"assum":5461,"ascale":5462,"oma":5463,"forget":5464,"forces":5465,"seg":5466,"beach":5467,"cher":5468,"eton":5469,"proposed":5470,"concl":5471,"conflict":5472,"sures":5473,"loons":5474,"tran":5475,"trial":5476,"ifi":5477,"decl":5478,"ulate":5479,"weap":5480,"weak":5481,"shift":5482,"outlet":5483,"outstanding":5484,"Thus":5485,"umin":5486,"rome":5487,"clip":5488,"Invest":5489,"coins":5490,"cogn":5491,"workers":5492,"workflow":5493,"formats":5494,"boy":5495,"asts":5496,"spin":5497,"aft":5498,"affiliates":5499,"Ant":5500,"Another":5501,"disease":5502,"pregn":5503,"ensuring":5504,"strive":5505,"Italy":5506,"brief":5507,"interior":5508,"criminal":5509,"justice":5510,"Chat":5511,"colate":5512,"whenever":5513,"Street":5514,"desired":5515,"despite":5516,"rows":5517,"regional":5518,"sau":5519,"finest":5520,"apping":5521,"supple":5522,"attending":5523,"Never":5524,"seek":5525,"foreign":5526,"evergreen":5527,"Train":5528,"monitor":5529,"letting":5530,"Newtown":5531,"belie":5532,"handle":5533,"Counsel":5534,"folks":5535,"towel":5536,"Plant":5537,"factory":5538,"planned":5539,"supported":5540,"weekly":5541,"Execut":5542,"2005":5543,"Ross":5544,"legisl":5545,"filed":5546,"searching":5547,"substant":5548,"cylind":5549,"signs":5550,"Prof":5551,"generated":5552,"happens":5553,"managers":5554,"breed":5555,"founded":5556,"loading":5557,"volt":5558,"increases":5559,"1996":5560,"masc":5561,"onda":5562,"director":5563,"painting":5564,"examine":5565,"grounds":5566,"Color":5567,"Coloring":5568,"sensor":5569,"Nothing":5570,"Medic":5571,"Medical":5572,"errors":5573,"Mean":5574,"Contin":5575,"Contact":5576,"normally":5577,"Industr":5578,"speaking":5579,"competitive":5580,"steel":5581,"trips":5582,"switches":5583,"landscape":5584,"participants":5585,"fluid":5586,"remained":5587,"discussion":5588,"Justice":5589,"journal":5590,"failed":5591,"apeutic":5592,"automatic":5593,"microphone":5594,"teacher":5595,"restaurants":5596,"immediate":5597,"counseling":5598,"significantly":5599,"junction":5600,"voters":5601,"encourage":5602,"Delph":5603,"convenient":5604,"Smart":5605,"trend":5606,"trends":5607,"zero":5608,"cepts":5609,"YOU":5610,"CTION":5611,"regulations":5612,"convention":5613,"conducted":5614,"Ruth":5615,"bowl":5616,"objective":5617,"cycling":5618,"virtual":5619,"Cajun":5620,"saved":5621,"index":5622,"department":5623,"cabin":5624,"occasion":5625,"Electric":5626,"estimated":5627,"marriage":5628,"historic":5629,"Building":5630,"CEO":5631,"NAFTA":5632,"hundreds":5633,"Cyber":5634,"Senior":5635,"Saint":5636,"accommod":5637,"conscious":5638,"Angeles":5639,"accomplish":5640,"satellite":5641,"Kindle":5642,"Video":5643,"chicken":5644,"Analytics":5645,"Communications":5646,"gorgeous":5647,"191AA":5648,"Energy":5649,"Boston":5650,"ELEC":5651,"Iguazio":5652,"atmosphere":5653,"(“":5654,"43":5655,"?!":5656,"AD":5657,"Bed":5658,"Bit":5659,"Bill":5660,"CF":5661,"Cry":5662,"Fac":5663,"Gal":5664,"Game":5665,"HR":5666,"Hộ":5667,"Hist":5668,"HTM":5669,"Its":5670,"Ill":5671,"KB":5672,"Kel":5673,"Know":5674,"Low":5675,"Lim":5676,"Liz":5677,"Library":5678,"Max":5679,"Museum":5680,"NE":5681,"NL":5682,"Ob":5683,"Ok":5684,"Op":5685,"Ox":5686,"PI":5687,"PO":5688,"Ps":5689,"PHS":5690,"RV":5691,"Rhe":5692,"Ret":5693,"Rome":5694,"Rose":5695,"ST":5696,"Sar":5697,"Save":5698,"Santa":5699,"TR":5700,"Time":5701,"Tenn":5702,"WD":5703,"Wa":5704,"Wild":5705,"Ze":5706,"_err":5707,"bell":5708,"bread":5709,"binary":5710,"cm":5711,"cis":5712,"dies":5713,"fle":5714,"fro":5715,"fem":5716,"fest":5717,"flix":5718,"gro":5719,"hall":5720,"kill":5721,"lies":5722,"mouth":5723,"mbol":5724,"pies":5725,"pound":5726,"pink":5727,"rup":5728,"rating":5729,"sins":5730,"sche":5731,"sister":5732,"sought":5733,"tack":5734,"tors":5735,"tired":5736,"va":5737,"vy":5738,"vin":5739,"vend":5740,"vard":5741,"wi":5742,"wet":5743,"yce":5744,"yog":5745,"inspe":5746,"anish":5747,"anatom":5748,"rey":5749,"retain":5750,"revol":5751,"theless":5752,"aters":5753,"enable":5754,"align":5755,"isk":5756,"tot":5757,"anda":5758,"ita":5759,"itate":5760,"itable":5761,"icted":5762,"stun":5763,"stamp":5764,"roy":5765,"roeton":5766,"eling":5767,"ache":5768,"accord":5769,"sey":5770,"seas":5771,"seeds":5772,"bees":5773,"heav":5774,"etime":5775,"ithic":5776,"amed":5777,"abroad":5778,"ota":5779,"unless":5780,"proto":5781,"iration":5782,"loose":5783,"negot":5784,"apartment":5785,"ifies":5786,"resol":5787,"estimate":5788,"sher":5789,"shine":5790,"shower":5791,"shield":5792,"quir":5793,"cancer":5794,"anytime":5795,"notes":5796,"updated":5797,"meat":5798,"fection":5799,"compress":5800,"portable":5801,"ibilities":5802,"achieved":5803,"boot":5804,"izza":5805,"aken":5806,"disorders":5807,"provisions":5808,"intention":5809,"itionally":5810,"Child":5811,"Chines":5812,"Champion":5813,"curriculum":5814,"wouldn":5815,"maybe":5816,"producer":5817,"awards":5818,"firmed":5819,"Still":5820,"Stone":5821,"cient":5822,"finance":5823,"Compt":5824,"attemp":5825,"topic":5826,"thentic":5827,"iances":5828,"relative":5829,"funding":5830,"fundam":5831,"invitation":5832,"iction":5833,"Trash":5834,"bask":5835,"belong":5836,"couldn":5837,"designer":5838,"missing":5839,"missed":5840,"lists":5841,"listening":5842,"towels":5843,"Univ":5844,"ulture":5845,"thinks":5846,"Plate":5847,"Armen":5848,"solve":5849,"heading":5850,"identity":5851,"faction":5852,"ugg":5853,"shipping":5854,"vention":5855,"extent":5856,"array":5857,"supporting":5858,"Exascale":5859,"2004":5860,"filing":5861,"expenses":5862,"numerous":5863,"Coast":5864,"Degree":5865,"technique":5866,"passing":5867,"password":5868,"advoc":5869,"chargers":5870,"specialist":5871,"covering":5872,"operate":5873,"meets":5874,"foods":5875,"depending":5876,"electrical":5877,"structures":5878,"retro":5879,"ACTED":5880,"trained":5881,"scope":5882,"damaged":5883,"membership":5884,"printf":5885,"walking":5886,"SECTION":5887,"nights":5888,"demands":5889,"thorough":5890,"north":5891,"holding":5892,"Shield":5893,"Local":5894,"dealer":5895,"reached":5896,"contained":5897,"breaking":5898,"breakfast":5899,"concerns":5900,"claimed":5901,"Highlands":5902,"Spanish":5903,"Monroeton":5904,"Relic":5905,"cookie":5906,"graphers":5907,"networks":5908,"participating":5909,"shoot":5910,"respective":5911,"stopped":5912,"inoa":5913,"discussed":5914,"ENACTED":5915,"references":5916,"selected":5917,"improvement":5918,"favorable":5919,"stitution":5920,"treated":5921,"maperror":5922,"communication":5923,"ridge":5924,"supplied":5925,"recommendations":5926,"figure":5927,"inspiring":5928,"utilize":5929,"military":5930,"elements":5931,"warming":5932,"subsid":5933,"previously":5934,"silver":5935,"stacked":5936,"recognition":5937,"implementation":5938,"documents":5939,"introduced":5940,"Small":5941,"African":5942,"Forest":5943,"informed":5944,"closely":5945,"consultation":5946,"flexibility":5947,"ruby":5948,"injuries":5949,"innovation":5950,"About":5951,"Sales":5952,"crowd":5953,"registered":5954,"incredible":5955,"duty":5956,"duties":5957,"doctor":5958,"meaningful":5959,"Planning":5960,"Keep":5961,"rugby":5962,"announce":5963,"graduated":5964,"cryptocurrency":5965,"Netflix":5966,"enhance":5967,"acknowledge":5968,"mirror":5969,"channel":5970,"industrial":5971,"principle":5972,"frequently":5973,"powers":5974,"fantastic":5975,"Further":5976,"improving":5977,"Selected":5978,"Printable":5979,"scheduled":5980,"Sweden":5981,"psych":5982,"infrastructure":5983,"contrast":5984,"Bachelor":5985,"Custom":5986,"Episode":5987,"Square":5988,"Executive":5989,"Profess":5990,"Meanwhile":5991,"Hội":5992,"HTML":5993,"Chinese":5994,"Comptroller":5995,"04":5996,"47":5997,"4th":5998,"56":5999,"Apart":6000,"Bear":6001,"Bever":6002,"Bank":6003,"Cut":6004,"Camp":6005,"CAN":6006,"Creek":6007,"Die":6008,"Doc":6009,"Database":6010,"Fellow":6011,"Gl":6012,"Gate":6013,"GES":6014,"Hou":6015,"Him":6016,"Host":6017,"Ira":6018,"Jer":6019,"Jun":6020,"Long":6021,"M4":6022,"Mal":6023,"Mass":6024,"MOS":6025,"Moul":6026,"Nap":6027,"PC":6028,"Pas":6029,"Pages":6030,"Que":6031,"RT":6032,"Sty":6033,"Sense":6034,"Spain":6035,"SAN":6036,"Sprint":6037,"Sometimes":6038,"Tor":6039,"Tell":6040,"Town":6041,"Twit":6042,"Vo":6043,"Viet":6044,"Vista":6045,"bunch":6046,"cott":6047,"dor":6048,"dess":6049,"fon":6050,"fell":6051,"fuel":6052,"gor":6053,"glo":6054,"han":6055,"ji":6056,"jan":6057,"km":6058,"kes":6059,"kit":6060,"kins":6061,"lips":6062,"mart":6063,"oo":6064,"pil":6065,"pup":6066,"sad":6067,"scrip":6068,"iny":6069,"inated":6070,"infl":6071,"anium":6072,"reli":6073,"reward":6074,"recru":6075,"revenue":6076,"revenues":6077,"atre":6078,"ende":6079,"ingred":6080,"asprintf":6081,"leaf":6082,"stated":6083,"ilst":6084,"behalf":6085,"adian":6086,"eter":6087,"etic":6088,"oles":6089,"older":6090,"olithic":6091,"improved":6092,"aret":6093,"abs":6094,"abol":6095,"union":6096,"whilst":6097,"proxim":6098,"urinary":6099,"urban":6100,"irt":6101,"irts":6102,"comments":6103,"convert":6104,"construct":6105,"concepts":6106,"sugar":6107,"trash":6108,"trunk":6109,"embr":6110,"ourselves":6111,"deo":6112,"deposit":6113,"opposite":6114,"quot":6115,"club":6116,"pra":6117,"prayer":6118,"ardens":6119,"Incl":6120,"upgrade":6121,"feels":6122,"coal":6123,"covers":6124,"udes":6125,"portfol":6126,"boys":6127,"izon":6128,"contest":6129,"myth":6130,"disposal":6131,"preced":6132,"predict":6133,"renov":6134,"blind":6135,"newly":6136,"command":6137,"frustr":6138,"fragr":6139,"positions":6140,"colleges":6141,"curing":6142,"adequ":6143,"cipl":6144,"chosen":6145,"chocolate":6146,"driven":6147,"enced":6148,"finishing":6149,"apps":6150,"attitude":6151,"centre":6152,"forever":6153,"calendar":6154,"authentic":6155,"tops":6156,"settle":6157,"lifesty":6158,"lifetime":6159,"putting":6160,"Consult":6161,"Andrew":6162,"stands":6163,"Force":6164,"Ask":6165,"Asia":6166,"smell":6167,"engers":6168,"Therefore":6169,"booking":6170,"transition":6171,"listings":6172,"closure":6173,"Arab":6174,"facts":6175,"Prov":6176,"Product":6177,"possibility":6178,"Second":6179,"posting":6180,"Exchange":6181,"entering":6182,"healthcare":6183,"Roof":6184,"performs":6185,"performing":6186,"powered":6187,"Prince":6188,"balanced":6189,"generate":6190,"metrics":6191,"coverage":6192,"swim":6193,"swimming":6194,"grapher":6195,"Club":6196,"Resolution":6197,"himself":6198,"motor":6199,"motiv":6200,"vertical":6201,"checking":6202,"checked":6203,"receiving":6204,"masks":6205,"millions":6206,"Atl":6207,"unders":6208,"household":6209,"Lean":6210,"Lead":6211,"burg":6212,"Christians":6213,"parent":6214,"publicly":6215,"laid":6216,"connecting":6217,"connections":6218,"installation":6219,"scroll":6220,"laws":6221,"physically":6222,"windows":6223,"walks":6224,"employment":6225,"pasta":6226,"beautifully":6227,"Shop":6228,"requirement":6229,"Loss":6230,"detailed":6231,"likes":6232,"container":6233,"Marg":6234,"biological":6235,"screens":6236,"Highway":6237,"links":6238,"ordinary":6239,"cooking":6240,"Minister":6241,"aneous":6242,"matches":6243,"shoes":6244,"respectively":6245,"combined":6246,"remains":6247,"strongly":6248,"Barwell":6249,"ENT":6250,"regularly":6251,"exciting":6252,"assistant":6253,"Import":6254,"sounds":6255,"genetics":6256,"harass":6257,"Finally":6258,"figures":6259,"panel":6260,"truth":6261,"analytics":6262,"thousand":6263,"football":6264,"launched":6265,"Management":6266,"primarily":6267,"spacious":6268,"Development":6269,"rule":6270,"conventions":6271,"submitted":6272,"innovative":6273,"Published":6274,"crown":6275,"administration":6276,"Linares":6277,"Supreme":6278,"doctors":6279,"mesh":6280,"sustainable":6281,"controller":6282,"Current":6283,"Earth":6284,"transportation":6285,"patterns":6286,"mountains":6287,"Garbage":6288,"dangerous":6289,"constantly":6290,"acknowled":6291,"compensation":6292,"Alternate":6293,"Duration":6294,"inventory":6295,"ultimate":6296,"Republican":6297,"Division":6298,"Oslo":6299,"accepted":6300,"vitam":6301,"widely":6302,"defendant":6303,"Utah":6304,"sacred":6305,"Clean":6306,"Follow":6307,"victory":6308,"elegant":6309,"quarters":6310,"Alaska":6311,"Prerequisite":6312,"circumst":6313,"trigger":6314,"BirdCam":6315,"Foundation":6316,"Kathy":6317,"Training":6318,"substantial":6319,"voltage":6320,"Bitcoin":6321,"Houston":6322,"Iraq":6323,"Vietnam":6324,"%),":6325,"'.":6326,".;":6327,"02":6328,"03":6329,"09":6330,"42":6331,"55":6332,"57":6333,"59":6334,"600":6335,"ALL":6336,"BP":6337,"Bal":6338,"Both":6339,"Cand":6340,"DC":6341,"Dü":6342,"Dar":6343,"Dash":6344,"Dub":6345,"Drop":6346,"Dumpsters":6347,"EX":6348,"Emp":6349,"Fit":6350,"Fix":6351,"Gree":6352,"Gables":6353,"HO":6354,"Hen":6355,"Ham":6356,"Hamp":6357,"Having":6358,"Honey":6359,"IF":6360,"Irel":6361,"Lev":6362,"Latin":6363,"MS":6364,"Mars":6365,"Num":6366,"Night":6367,"OB":6368,"PS":6369,"PT":6370,"Pop":6371,"Pick":6372,"Rom":6373,"Rag":6374,"Right":6375,"Rail":6376,"Rob":6377,"RCB":6378,"Senger":6379,"Tit":6380,"Tyl":6381,"UT":6382,"Using":6383,"UIM":6384,"Van":6385,"Way":6386,"Would":6387,"Yad":6388,"bag":6389,"bind":6390,"cater":6391,"dating":6392,"divid":6393,"diabetes":6394,"eper":6395,"fiber":6396,"ga":6397,"gall":6398,"god":6399,"gite":6400,"hers":6401,"kers":6402,"lg":6403,"lon":6404,"lake":6405,"lane":6406,"nu":6407,"nine":6408,"pill":6409,"rust":6410,"sed":6411,"sour":6412,"sending":6413,"saving":6414,"tag":6415,"tact":6416,"tens":6417,"tables":6418,"vac":6419,"void":6420,"wro":6421,"warr":6422,"wife":6423,"yer":6424,"yellow":6425,"zo":6426,"”,":6427,"ths":6428,"thin":6429,"inn":6430,"incur":6431,"incent":6432,"insul":6433,"incorpor":6434,"inspect":6435,"eries":6436,"onic":6437,"rein":6438,"replac":6439,"replaced":6440,"represents":6441,"atics":6442,"aler":6443,"aling":6444,"itals":6445,"arian":6446,"arms":6447,"leaving":6448,"stones":6449,"elder":6450,"enta":6451,"accoun":6452,"academ":6453,"bear":6454,"adult":6455,"adoption":6456,"ette":6457,"etry":6458,"impossible":6459,"usively":6460,"abil":6461,"absor":6462,"unexpected":6463,"promin":6464,"ceiling":6465,"agl":6466,"agend":6467,"agents":6468,"agues":6469,"aggress":6470,"comed":6471,"consul":6472,"confirmed":6473,"illa":6474,"ifts":6475,"mole":6476,"deleg":6477,"ops":6478,"resort":6479,"resource":6480,"ulu":6481,"keys":6482,"weet":6483,"haven":6484,"expo":6485,"estic":6486,"shr":6487,"shy":6488,"shut":6489,"quilt":6490,"artists":6491,"Ther":6492,"Think":6493,"umes":6494,"isters":6495,"acts":6496,"anywhere":6497,"grass":6498,"upload":6499,"updates":6500,"covery":6501,"ipal":6502,"ipped":6503,"gear":6504,"liqu":6505,"spel":6506,"cked":6507,"somewhat":6508,"somewhere":6509,"blend":6510,"partnership":6511,"Ital":6512,"manually":6513,"phan":6514,"crash":6515,"coln":6516,"ogue":6517,"awn":6518,"mini":6519,"cau":6520,"dram":6521,"bug":6522,"highlight":6523,"experiments":6524,"versions":6525,"viewers":6526,"shouldn":6527,"Commer":6528,"centr":6529,"readers":6530,"aux":6531,"persons":6532,"lift":6533,"airport":6534,"relatively":6535,"carbon":6536,"invited":6537,"Conflict":6538,"basically":6539,"cheap":6540,"cheese":6541,"flat":6542,"smile":6543,"letters":6544,"lessons":6545,"studio":6546,"transactions":6547,"processor":6548,"pursu":6549,"folder":6550,"Added":6551,"clock":6552,"Plac":6553,"chnau":6554,"Prote":6555,"applicable":6556,"profits":6557,"patience":6558,"possibilities":6559,"beds":6560,"bedrooms":6561,"extensive":6562,"publishing":6563,"decades":6564,"entered":6565,"Rodeo":6566,"keeps":6567,"accessories":6568,"Dec":6569,"balloons":6570,"gym":6571,"lasting":6572,"happiness":6573,"learned":6574,"bodies":6575,"feelings":6576,"USB":6577,"motion":6578,"checks":6579,"1990":6580,"1994":6581,"1995":6582,"species":6583,"reporting":6584,"Fran":6585,"Frank":6586,"Works":6587,"responses":6588,"statements":6589,"Coll":6590,"layou":6591,"ESS":6592,"appears":6593,"appearing":6594,"Canadian":6595,"actively":6596,"packing":6597,"packed":6598,"ushing":6599,"damages":6600,"bench":6601,"Join":6602,"named":6603,"focusing":6604,"protein":6605,"practical":6606,"wooden":6607,"effectively":6608,"IDGES":6609,"Does":6610,"holder":6611,"picks":6612,"picking":6613,"defined":6614,"definition":6615,"bringing":6616,"345":6617,"confident":6618,"cuis":6619,"reasonable":6620,"stories":6621,"Quarter":6622,"magn":6623,"travell":6624,"linked":6625,"trading":6626,"participation":6627,"shooting":6628,"fixed":6629,"Remember":6630,"safely":6631,"touches":6632,"reference":6633,"referred":6634,"officer":6635,"clearly":6636,"Peoples":6637,"promotion":6638,"displayed":6639,"walls":6640,"machines":6641,"Peter":6642,"writer":6643,"reduced":6644,"Offic":6645,"penal":6646,"cooling":6647,"spectrum":6648,"teaching":6649,"consuming":6650,"consumption":6651,"correctly":6652,"Westville":6653,"immune":6654,"articles":6655,"honest":6656,"laboratory":6657,"golden":6658,"agreements":6659,"houses":6660,"layer":6661,"acquire":6662,"currencies":6663,"introduction":6664,"evaluate":6665,"occurs":6666,"assessment":6667,"Public":6668,"exclusive":6669,"explains":6670,"solely":6671,"strategic":6672,"Lincoln":6673,"Support":6674,"Realtors":6675,"captured":6676,"Designs":6677,"atoes":6678,"virtually":6679,"indeed":6680,"carrying":6681,"wicket":6682,"announced":6683,"earnings":6684,"Career":6685,"EMR":6686,"Cinema":6687,"Oakridge":6688,"Easy":6689,"Eastern":6690,"LOVE":6691,"toilet":6692,"debt":6693,"emphasis":6694,"Racing":6695,"Valley":6696,"lobby":6697,"Indeed":6698,"pleasure":6699,"attached":6700,"Representative":6701,"BRIDGES":6702,"Ellis":6703,"surprised":6704,"refreshing":6705,"Assist":6706,"Motor":6707,"Victoria":6708,"complicated":6709,"upgraded":6710,"Traders":6711,"Denali":6712,"Standard":6713,"favourite":6714,"opinion":6715,"district":6716,"newspaper":6717,"Democrats":6718,"Celebr":6719,"Welcome":6720,"interpret":6721,"guarantee":6722,"Virginia":6723,"citizens":6724,"Digital":6725,"rapid":6726,"mascot":6727,"Industries":6728,"Rhea":6729,"revolution":6730,"Children":6731,"Beverly":6732,"Moultrie":6733,"ingredients":6734,"portfolio":6735,"circumstances":6736,"Dubai":6737,"Ireland":6738,"Ragin":6739,"Yadav":6740,"herself":6741,"wrote":6742,"%.":6743,"($":6744,"05":6745,"73":6746,"78":6747,"89":6748,"98":6749,"9th":6750,"Bes":6751,"Bun":6752,"Blo":6753,"Bush":6754,"Cre":6755,"Cat":6756,"Cross":6757,"CHE":6758,"DO":6759,"DS":6760,"Diet":6761,"Dining":6762,"Er":6763,"Ele":6764,"Fi":6765,"Fab":6766,"Fest":6767,"Fair":6768,"FICO":6769,"GS":6770,"Gh":6771,"Girl":6772,"Hon":6773,"Hal":6774,"Hand":6775,"Hard":6776,"Ide":6777,"Imag":6778,"Jour":6779,"Kit":6780,"Li":6781,"Les":6782,"Lar":6783,"Las":6784,"Lady":6785,"Learn":6786,"MW":6787,"MX":6788,"Mun":6789,"Mir":6790,"Mart":6791,"Nok":6792,"Nations":6793,"Nature":6794,"Prom":6795,"Pink":6796,"Person":6797,"RS":6798,"RAM":6799,"Sl":6800,"Sou":6801,"Sab":6802,"Spo":6803,"Seas":6804,"Sports":6805,"Tro":6806,"Tim":6807,"Tha":6808,"Treat":6809,"Teach":6810,"Tah":6811,"Tamarind":6812,"Ven":6813,"Ves":6814,"Very":6815,"bay":6816,"bite":6817,"bass":6818,"bio":6819,"bond":6820,"civil":6821,"equal":6822,"fade":6823,"fellow":6824,"flying":6825,"ii":6826,"jack":6827,"kno":6828,"lah":6829,"mel":6830,"mort":6831,"museum":6832,"ocean":6833,"pun":6834,"pact":6835,"pure":6836,"pile":6837,"rif":6838,"ride":6839,"scent":6840,"ta":6841,"tu":6842,"tent":6843,"tune":6844,"tamarind":6845,"vo":6846,"vic":6847,"vine":6848,"vary":6849,"vital":6850,"wires":6851,"xy":6852,"yo":6853,"instruction":6854,"ongoing":6855,"rely":6856,"renow":6857,"reaction":6858,"reunion":6859,"ouds":6860,"orial":6861,"orrow":6862,"enjo":6863,"enables":6864,"enthus":6865,"alter":6866,"alysis":6867,"andon":6868,"andom":6869,"edited":6870,"itting":6871,"lequ":6872,"stable":6873,"stations":6874,"stars":6875,"roles":6876,"roots":6877,"ils":6878,"secret":6879,"begins":6880,"het":6881,"advent":6882,"chip":6883,"chester":6884,"chronic":6885,"owing":6886,"etch":6887,"aying":6888,"aymore":6889,"verb":6890,"usal":6891,"abdomin":6892,"uner":6893,"unable":6894,"whom":6895,"procuring":6896,"uts":6897,"utral":6898,"agencies":6899,"losing":6900,"terre":6901,"illness":6902,"apart":6903,"emer":6904,"moves":6905,"opy":6906,"opposition":6907,"yours":6908,"kept":6909,"shell":6910,"shots":6911,"outcome":6912,"therapeutic":6913,"quit":6914,"quinoa":6915,"antic":6916,"umb":6917,"acting":6918,"anyway":6919,"prints":6920,"pricing":6921,"tea":6922,"grat":6923,"Inst":6924,"Insur":6925,"fear":6926,"coast":6927,"ella":6928,"hasn":6929,"formal":6930,"forming":6931,"formed":6932,"gos":6933,"ibl":6934,"ducts":6935,"spons":6936,"cretion":6937,"akh":6938,"disabilities":6939,"dispute":6940,"discipl":6941,"renting":6942,"bling":6943,"bless":6944,"blank":6945,"commonly":6946,"brid":6947,"intel":6948,"pleased":6949,"hero":6950,"offline":6951,"angal":6952,"mostly":6953,"choosing":6954,"dra":6955,"encry":6956,"tomorrow":6957,"joining":6958,"symbol":6959,"apparent":6960,"tains":6961,"viewer":6962,"supplement":6963,"attempt":6964,"Need":6965,"Neolithic":6966,"forest":6967,"backyard":6968,"tonight":6969,"prescrib":6970,"plays":6971,"greatly":6972,"hole":6973,"funded":6974,"Conf":6975,"Trust":6976,"Trail":6977,"Anderson":6978,"athlete":6979,"archite":6980,"belief":6981,"believed":6982,"downtown":6983,"handy":6984,"designing":6985,"processed":6986,"oses":6987,"towing":6988,"toward":6989,"Adult":6990,"Advan":6991,"mainly":6992,"Ontar":6993,"closing":6994,"capability":6995,"headed":6996,"applicant":6997,"writes":6998,"hicle":6999,"Enter":7000,"Enjoy":7001,"arrange":7002,"supporters":7003,"survey":7004,"roads":7005,"2001":7006,"enterprises":7007,"Room":7008,"aza":7009,"organisation":7010,"legit":7011,"presentations":7012,"signed":7013,"generous":7014,"passport":7015,"saying":7016,"Whenever":7017,"succeed":7018,"Soci":7019,"charged":7020,"Claim":7021,"Claymore":7022,"Allah":7023,"Tele":7024,"importantly":7025,"alius":7026,"increased":7027,"reception":7028,"specified":7029,"limits":7030,"muscles":7031,"buildings":7032,"gotten":7033,"housewarming":7034,"painted":7035,"buyers":7036,"hyper":7037,"examples":7038,"facing":7039,"facil":7040,"statistics":7041,"stylish":7042,"investing":7043,"reviewed":7044,"ITV":7045,"rolled":7046,"printing":7047,"printed":7048,"printable":7049,"SEC":7050,"employer":7051,"employed":7052,"northern":7053,"tests":7054,"tested":7055,"Should":7056,"concerts":7057,"depends":7058,"compete":7059,"Quest":7060,"hotel":7061,"tablets":7062,"ballot":7063,"celebrity":7064,"celebrated":7065,"Academ":7066,"Studios":7067,"ronics":7068,"broker":7069,"committee":7070,"!!!":7071,"Despite":7072,"Amanda":7073,"collecting":7074,"regardless":7075,"authorities":7076,"fallen":7077,"contracts":7078,"involve":7079,"involves":7080,"educational":7081,"bathrooms":7082,"hosts":7083,"Guard":7084,"targets":7085,"recorded":7086,"Petros":7087,"doub":7088,"representing":7089,"slices":7090,"trees":7091,"amounts":7092,"smartphones":7093,"aught":7094,"Movie":7095,"continuing":7096,"Makefile":7097,"1989":7098,"inspiration":7099,"Additionally":7100,"Laure":7101,"fabulous":7102,"Everyone":7103,"preferred":7104,"silence":7105,"priority":7106,"obtained":7107,"suggested":7108,"engineering":7109,"CPU":7110,"votes":7111,"implemented":7112,"maxim":7113,"cultiv":7114,"conversations":7115,"Angus":7116,"awarded":7117,"Berlin":7118,"distinct":7119,"strengthen":7120,"troubled":7121,"preparing":7122,"measurement":7123,"IGH":7124,"evaluation":7125,"detection":7126,"Palm":7127,"flexible":7128,"pushed":7129,"injury":7130,"Abb":7131,"inches":7132,"behavi":7133,"administr":7134,"exclusively":7135,"Associate":7136,"Genpact":7137,"Hosp":7138,"SoftBank":7139,"reservation":7140,"satisfaction":7141,"ALDI":7142,"Topics":7143,"Volunte":7144,"scientists":7145,"wickets":7146,"assigned":7147,"occasions":7148,"graduate":7149,"Mainframe":7150,"channels":7151,"industries":7152,"suffering":7153,"Kingdom":7154,"Rauner":7155,"ecosystem":7156,"toilets":7157,"deficiency":7158,"granted":7159,"expression":7160,"initiatives":7161,"tickets":7162,"climb":7163,"Certified":7164,"Middle":7165,"Vehicle":7166,"twice":7167,"Applications":7168,"mistake":7169,"Women":7170,"scallo":7171,"fortunately":7172,"Autism":7173,"entrance":7174,"mystery":7175,"Photo":7176,"Russia":7177,"obsess":7178,"repeat":7179,"consequences":7180,"Thomas":7181,"Family":7182,"fifty":7183,"transp":7184,"monitoring":7185,"vendor":7186,"inspection":7187,"totally":7188,"stunning":7189,"accordance":7190,"Diego":7191,"Fellowship":7192,"Style":7193,"SANYO":7194,"Twitter":7195,"lifestyle":7196,"Margaret":7197,"warrant":7198,"exposure":7199,"Italian":7200,"cuisine":7201,"Ghana":7202,"Nokia":7203,"Tahlequ":7204,"Vesalius":7205,"renowned":7206,"enjoys":7207,"enthusi":7208,"Insurance":7209,"Advanced":7210,"Ontario":7211,"Petrosian":7212,"Tahlequah":7213,"*.":7214,".)":7215,"07":7216,"334":7217,"3rd":7218,"62":7219,"7s":7220,"94":7221,"Agre":7222,"Bot":7223,"Bir":7224,"Bul":7225,"Bath":7226,"Bott":7227,"Based":7228,"BBC":7229,"Ced":7230,"Cow":7231,"Cha":7232,"Cast":7233,"Cover":7234,"CON":7235,"Crew":7236,"CICO":7237,"Di":7238,"Due":7239,"Daily":7240,"Dunk":7241,"EE":7242,"EL":7243,"East":7244,"Ethere":7245,"Edin":7246,"Econom":7247,"FM":7248,"Fre":7249,"Fast":7250,"Fresh":7251,"GE":7252,"GO":7253,"Gor":7254,"Hu":7255,"Hat":7256,"Haw":7257,"Heral":7258,"Honda":7259,"Jü":7260,"Jul":7261,"Jord":7262,"KX":7263,"Kav":7264,"Kore":7265,"Kids":7266,"Lou":7267,"MM":7268,"Mem":7269,"NC":7270,"Nu":7271,"Ol":7272,"PL":7273,"Pen":7274,"Pack":7275,"Pair":7276,"Pict":7277,"Pret":7278,"Pope":7279,"Ray":7280,"Rangers":7281,"SH":7282,"Son":7283,"Sor":7284,"Sand":7285,"Sem":7286,"Site":7287,"STA":7288,"Search":7289,"Schnau":7290,"TX":7291,"Ton":7292,"Tel":7293,"UC":7294,"UV":7295,"Umesh":7296,"Vis":7297,"WA":7298,"WS":7299,"Wi":7300,"Wall":7301,"Want":7302,"Winter":7303,"Warr":7304,"bin":7305,"bare":7306,"baked":7307,"bamboo":7308,"cents":7309,"cue":7310,"cities":7311,"codes":7312,"died":7313,"dietary":7314,"ez":7315,"een":7316,"eign":7317,"ebooks":7318,"fly":7319,"fits":7320,"fles":7321,"gently":7322,"hin":7323,"hang":7324,"ien":7325,"iant":7326,"lad":7327,"lich":7328,"liber":7329,"mn":7330,"mall":7331,"mile":7332,"mons":7333,"nish":7334,"native":7335,"pha":7336,"pitch":7337,"rings":7338,"sar":7339,"sof":7340,"sid":7341,"sop":7342,"sights":7343,"sides":7344,"till":7345,"tip":7346,"vacation":7347,"ws":7348,"wer":7349,"zan":7350,"”)":7351,"inar":7352,"inav":7353,"intim":7354,"incorporate":7355,"anime":7356,"ero":7357,"eria":7358,"refin":7359,"resum":7360,"oub":7361,"ornam":7362,"eness":7363,"escape":7364,"esthetic":7365,"isition":7366,"tock":7367,"inger":7368,"ander":7369,"andinav":7370,"arg":7371,"arp":7372,"argu":7373,"arrows":7374,"asks":7375,"assume":7376,"lec":7377,"lemon":7378,"leather":7379,"ione":7380,"stability":7381,"acing":7382,"omer":7383,"sees":7384,"seating":7385,"secut":7386,"beth":7387,"bean":7388,"adi":7389,"adly":7390,"abide":7391,"abandon":7392,"abakh":7393,"una":7394,"unal":7395,"unto":7396,"prospect":7397,"urn":7398,"urious":7399,"uting":7400,"utter":7401,"cone":7402,"confirm":7403,"concentr":7404,"aphy":7405,"eman":7406,"dele":7407,"degre":7408,"ulations":7409,"exists":7410,"shed":7411,"quant":7412,"quote":7413,"prison":7414,"grain":7415,"grip":7416,"Integr":7417,"coon":7418,"iped":7419,"ipper":7420,"geo":7421,"hassle":7422,"ght":7423,"workshops":7424,"avoc":7425,"comparing":7426,"achie":7427,"bool":7428,"astro":7429,"spicy":7430,"afra":7431,"evin":7432,"evolution":7433,"Analysis":7434,"context":7435,"epie":7436,"ansion":7437,"partners":7438,"ryps":7439,"branch":7440,"inton":7441,"berts":7442,"posals":7443,"1970":7444,"crime":7445,"cribe":7446,"correspond":7447,"Chall":7448,"coll":7449,"awa":7450,"Stan":7451,"Station":7452,"knows":7453,"wool":7454,"causing":7455,"encing":7456,"highway":7457,"visible":7458,"financing":7459,"viewing":7460,"Coming":7461,"attende":7462,"calm":7463,"calyce":7464,"merchand":7465,"marked":7466,"donations":7467,"topics":7468,"sett":7469,"Recent":7470,"surely":7471,"hoo":7472,"fundra":7473,"turing":7474,"Trish":7475,"flash":7476,"Allec":7477,"athers":7478,"ptions":7479,"Heaven":7480,"belly":7481,"engaged":7482,"Country":7483,"Univers":7484,"developments":7485,"identification":7486,"itchens":7487,"factor":7488,"Proper":7489,"customize":7490,"patio":7491,"Seattle":7492,"extended":7493,"End":7494,"Environment":7495,"surprise":7496,"decade":7497,"Rock":7498,"Robert":7499,"Roberts":7500,"organic":7501,"ahy":7502,"annivers":7503,"salad":7504,"varied":7505,"Bring":7506,"Bridge":7507,"signal":7508,"signals":7509,"follows":7510,"Scandinav":7511,"breach":7512,"breath":7513,"opera":7514,"cuts":7515,"Resort":7516,"Tech":7517,"payments":7518,"volunt":7519,"depth":7520,"mitig":7521,"templates":7522,"Apply":7523,"Working":7524,"undry":7525,"League":7526,"Leahy":7527,"controls":7528,"burst":7529,"burgh":7530,"Islam":7531,"retch":7532,"retreat":7533,"gestures":7534,"consideration":7535,"Affiliates":7536,"ACM":7537,"equation":7538,"Manchester":7539,"raise":7540,"counties":7541,"senses":7542,"11th":7543,"investigation":7544,"physi":7545,"necessarily":7546,"Maybe":7547,"mpic":7548,"refuse":7549,"shares":7550,"clicks":7551,"Steve":7552,"Stefon":7553,"nambool":7554,"focuses":7555,"Control":7556,"filling":7557,"Northern":7558,"Partners":7559,"mediate":7560,"holds":7561,"testing":7562,"vanities":7563,"picked":7564,"severe":7565,"fitted":7566,"reaching":7567,"breaks":7568,"Margery":7569,"confess":7570,"REE":7571,"fasting":7572,"label":7573,"naturally":7574,"Quick":7575,"hotels":7576,"circul":7577,"Patel":7578,"cooked":7579,"Studio":7580,"Gerald":7581,"zabeth":7582,"returns":7583,"html":7584,"garage":7585,"planted":7586,"GPCA":7587,"tracks":7588,"Paraly":7589,"ringtones":7590,"tournament":7591,"inois":7592,"floors":7593,"contractor":7594,"corporations":7595,"Disorder":7596,"worthy":7597,"represented":7598,"ASC":7599,"grew":7600,"premier":7601,"Often":7602,"potentially":7603,"completion":7604,"Perform":7605,"Perhaps":7606,"figured":7607,"honor":7608,"sixth":7609,"agram":7610,"Camera":7611,"milk":7612,"miles":7613,"suspect":7614,"washing":7615,"warning":7616,"quez":7617,"queen":7618,"efficiency":7619,"protected":7620,"acquisition":7621,"mistry":7622,"analyze":7623,"junior":7624,"McLean":7625,"OCHR":7626,"SMG":7627,"dynam":7628,"encouraged":7629,"trailer":7630,"kernel":7631,"applies":7632,"conditioning":7633,"YOUR":7634,"sequence":7635,"chairs":7636,"responding":7637,"pushing":7638,"emotions":7639,"Elisa":7640,"imagin":7641,"imagine":7642,"Holy":7643,"peaceful":7644,"drawn":7645,"capture":7646,"passionate":7647,"candidates":7648,"absolute":7649,"plugin":7650,"birthday":7651,"suspend":7652,"suspension":7653,"pulled":7654,"contribute":7655,"Soundproof":7656,"square":7657,"robust":7658,"medicine":7659,"transformed":7660,"manufacturers":7661,"Kock":7662,"guns":7663,"sexual":7664,"Annual":7665,"giant":7666,"Harvard":7667,"ranking":7668,"scenario":7669,"Raccoon":7670,"carried":7671,"Classic":7672,"Republic":7673,"Index":7674,"obviously":7675,"expanded":7676,"Fundament":7677,"revealed":7678,"collaboration":7679,"advertisers":7680,"Creative":7681,"Clearview":7682,"Karabakh":7683,"Miller":7684,"Opera":7685,"SUMO":7686,"glitter":7687,"glittery":7688,"sample":7689,"politics":7690,"Experience":7691,"Removal":7692,"Removed":7693,"detected":7694,"editorial":7695,"stimul":7696,"sovereign":7697,"increasingly":7698,"oblig":7699,"universities":7700,"modify":7701,"flavor":7702,"WordPress":7703,"WILL":7704,"ranked":7705,"assuan":7706,"neoconserv":7707,"cluster":7708,"athletes":7709,"configured":7710,"magazine":7711,"Elizabeth":7712,"pregnancy":7713,"supplements":7714,"believes":7715,"Illinois":7716,"scheme":7717,"anatomy":7718,"fundamental":7719,"thoroughly":7720,"Professional":7721,"Queen":7722,"globe":7723,"settlement":7724,"Consultant":7725,"harassment":7726,"acknowledged":7727,"BPH":7728,"Dropbox":7729,"insulin":7730,"elderly":7731,"agenda":7732,"caught":7733,"layout":7734,"Besides":7735,"Imagine":7736,"Journal":7737,"Personal":7738,"Spoon":7739,"intellect":7740,"Questions":7741,"doubt":7742,"scallops":7743,"Cedar":7744,"CICOA":7745,"Dunkin":7746,"Ethereum":7747,"Herald":7748,"Jülich":7749,"Jordan":7750,"KXIP":7751,"resumes":7752,"degrees":7753,"avocado":7754,"afraid":7755,"rypsin":7756,"calyceal":7757,"Scandinavian":7758,"Paralympic":7759,"Elisabet":7760,"%)":7761,"',":7762,"01":7763,"72":7764,"76":7765,"720":7766,"700":7767,"81":7768,"?”":7769,"Award":7770,"Avenue":7771,"Bet":7772,"Bab":7773,"Bible":7774,"Bamboo":7775,"Bibl":7776,"Bangal":7777,"Cab":7778,"Crow":7779,"Cons":7780,"DR":7781,"Dal":7782,"Dell":7783,"Et":7784,"Eth":7785,"FL":7786,"Fa":7787,"Fl":7788,"FET":7789,"Gre":7790,"Giv":7791,"Hy":7792,"Hate":7793,"Hum":7794,"Hills":7795,"Id":7796,"JS":7797,"Kris":7798,"Ly":7799,"Lic":7800,"Lind":7801,"Log":7802,"Lux":7803,"Learning":7804,"Lucky":7805,"Men":7806,"Mand":7807,"Mess":7808,"Moun":7809,"Mix":7810,"Mont":7811,"MAR":7812,"Mission":7813,"Natur":7814,"Navy":7815,"OEM":7816,"Pan":7817,"Pad":7818,"Pres":7819,"Pos":7820,"Pump":7821,"PCP":7822,"PCN":7823,"Stop":7824,"Six":7825,"Sug":7826,"Sony":7827,"TI":7828,"Tay":7829,"Tower":7830,"Ul":7831,"Vas":7832,"Vill":7833,"Vene":7834,"Yu":7835,"Zy":7836,"aa":7837,"bits":7838,"barr":7839,"bott":7840,"bacter":7841,"bomb":7842,"cro":7843,"cad":7844,"cant":7845,"cise":7846,"cables":7847,"dab":7848,"dedu":7849,"dumpsters":7850,"density":7851,"elev":7852,"euro":7853,"egg":7854,"fas":7855,"fers":7856,"fake":7857,"fishing":7858,"fields":7859,"gart":7860,"golf":7861,"gardens":7862,"hike":7863,"iav":7864,"iary":7865,"iOS":7866,"kn":7867,"ls":7868,"luck":7869,"mk":7870,"mun":7871,"mut":7872,"pel":7873,"pine":7874,"pixel":7875,"pizza":7876,"riv":7877,"rice":7878,"rtle":7879,"ranks":7880,"random":7881,"slot":7882,"tes":7883,"tap":7884,"tier":7885,"tours":7886,"trop":7887,"twent":7888,"uum":7889,"vill":7890,"vul":7891,"vous":7892,"wis":7893,"wag":7894,"wata":7895,"zone":7896,"zuel":7897,"ón":7898,"thers":7899,"inser":7900,"instr":7901,"inher":7902,"inos":7903,"anony":7904,"ancient":7905,"ern":7906,"eras":7907,"reci":7908,"revis":7909,"recall":7910,"theatre":7911,"attain":7912,"ativity":7913,"ora":7914,"oration":7915,"orange":7916,"alt":7917,"aland":7918,"alle":7919,"alog":7920,"alleg":7921,"alert":7922,"algor":7923,"isan":7924,"tol":7925,"itz":7926,"iter":7927,"aron":7928,"arlo":7929,"arising":7930,"assets":7931,"leagues":7932,"icelli":7933,"stro":7934,"stretch":7935,"rose":7936,"robot":7937,"rocks":7938,"elig":7939,"elier":7940,"iland":7941,"accounts":7942,"forth":7943,"forter":7944,"seed":7945,"beterre":7946,"heated":7947,"adm":7948,"adop":7949,"adder":7950,"cha":7951,"chop":7952,"charts":7953,"iders":7954,"eters":7955,"etball":7956,"oli":7957,"olar":7958,"igence":7959,"iginal":7960,"ctor":7961,"verify":7962,"abund":7963,"oted":7964,"otive":7965,"university":7966,"ungs":7967,"unwanted":7968,"propr":7969,"proposal":7970,"proposals":7971,"agan":7972,"agricul":7973,"ira":7974,"combo":7975,"complain":7976,"conver":7977,"sumo":7978,"sured":7979,"suited":7980,"loves":7981,"allot":7982,"neck":7983,"neither":7984,"neutral":7985,"apple":7986,"Their":7987,"emission":7988,"emony":7989,"modu":7990,"moshe":7991,"plastic":7992,"dear":7993,"deco":7994,"reserve":7995,"keley":7996,"kegon":7997,"weigh":7998,"haul":7999,"expl":8000,"exceed":8001,"pept":8002,"estream":8003,"shelf":8004,"sharp":8005,"socket":8006,"artwork":8007,"permit":8008,"worr":8009,"worst":8010,"odeling":8011,"istines":8012,"acters":8013,"cler":8014,"pride":8015,"poly":8016,"grab":8017,"grate":8018,"Inn":8019,"Innov":8020,"Independence":8021,"ustin":8022,"cozy":8023,"ipping":8024,"worker":8025,"mailing":8026,"compar":8027,"achmoshe":8028,"duve":8029,"duction":8030,"ichat":8031,"liability":8032,"ishes":8033,"Ansel":8034,"contents":8035,"disk":8036,"discretion":8037,"prest":8038,"precise":8039,"bladder":8040,"ownership":8041,"newest":8042,"string":8043,"strange":8044,"overlooking":8045,"brass":8046,"brush":8047,"intent":8048,"intensity":8049,"mann":8050,"berg":8051,"noon":8052,"interaction":8053,"1950":8054,"1980":8055,"phen":8056,"crimes":8057,"crimin":8058,"themes":8059,"colour":8060,"thereof":8061,"produces":8062,"inclusive":8063,"offices":8064,"offset":8065,"Stut":8066,"desir":8067,"deserv":8068,"minion":8069,"regards":8070,"drag":8071,"draft":8072,"buff":8073,"highlights":8074,"visited":8075,"iobuf":8076,"versus":8077,"Comple":8078,"issions":8079,"betting":8080,"auth":8081,"wanting":8082,"backs":8083,"Release":8084,"lifts":8085,"delight":8086,"delays":8087,"invas":8088,"invite":8089,"insights":8090,"Conne":8091,"Consumer":8092,"Conference":8093,"cheaper":8094,"chemistry":8095,"flag":8096,"flour":8097,"flight":8098,"flights":8099,"Alto":8100,"Alber":8101,"Always":8102,"Alloy":8103,"smith":8104,"Head":8105,"engaging":8106,"personally":8107,"booked":8108,"lightly":8109,"differences":8110,"Unlike":8111,"hereby":8112,"finds":8113,"larg":8114,"closer":8115,"capabilities":8116,"instance":8117,"headquarters":8118,"identified":8119,"Process":8120,"Project":8121,"Together":8122,"skirts":8123,"planet":8124,"Security":8125,"Secret":8126,"Enh":8127,"surfaces":8128,"param":8129,"paralle":8130,"Exp":8131,"Extre":8132,"azy":8133,"careful":8134,"ahn":8135,"completing":8136,"freezer":8137,"salmon":8138,"156":8139,"Aubeterre":8140,"Prim":8141,"Priv":8142,"Princ":8143,"Code":8144,"metres":8145,"metabol":8146,"Being":8147,"Before":8148,"restorative":8149,"issued":8150,"characters":8151,"ordered":8152,"foundation":8153,"operates":8154,"productivity":8155,"cute":8156,"Clin":8157,"Cloud":8158,"Climate":8159,"alike":8160,"secondary":8161,"1993":8162,"photograph":8163,"photographer":8164,"domestic":8165,"porter":8166,"Attack":8167,"Friend":8168,"ICK":8169,"Without":8170,"mush":8171,"musical":8172,"Islands":8173,"examined":8174,"personality":8175,"faced":8176,"enjoying":8177,"publication":8178,"equity":8179,"Manual":8180,"raised":8181,"alongside":8182,"activate":8183,"Draw":8184,"analys":8185,"Goddess":8186,"functioning":8187,"physician":8188,"Boot":8189,"Mediation":8190,"rolling":8191,"Myrtle":8192,"refused":8193,"reflection":8194,"clicking":8195,"SERV":8196,"names":8197,"approxim":8198,"demo":8199,"holes":8200,"liked":8201,"superb":8202,"supervis":8203,"Antonio":8204,"cuits":8205,"nearby":8206,"storing":8207,"competitors":8208,"133":8209,"magical":8210,"stead":8211,"steep":8212,"HERE":8213,"Patent":8214,"Spirit":8215,"celebration":8216,"Regional":8217,"integrity":8218,"tradition":8219,"aneously":8220,"cript":8221,"graphical":8222,"losses":8223,"landscap":8224,"Corp":8225,"telling":8226,"shook":8227,"Feel":8228,"experiencing":8229,"Among":8230,"Remove":8231,"Remodeling":8232,"ORI":8233,"browse":8234,"contractors":8235,"stronger":8236,"corporation":8237,"involving":8238,"educate":8239,"educated":8240,"Dispute":8241,"promoting":8242,"Carol":8243,"affecting":8244,"guided":8245,"maintaining":8246,"defense":8247,"destroy":8248,"PRO":8249,"Compact":8250,"teachers":8251,"answers":8252,"21st":8253,"mounted":8254,"Georg":8255,"Santos":8256,"semester":8257,"promising":8258,"promises":8259,"cruise":8260,"hospitals":8261,"Laver":8262,"Policy":8263,"agreed":8264,"Muskegon":8265,"ONE":8266,"exercises":8267,"analyz":8268,"suggests":8269,"difficulty":8270,"recognized":8271,"CPI":8272,"taxes":8273,"alternate":8274,"violation":8275,"violence":8276,"SOD":8277,"Swimming":8278,"bonus":8279,"dropped":8280,"accuracy":8281,"determination":8282,"introduce":8283,"Upon":8284,"igraphy":8285,"appliances":8286,"exception":8287,"exceptional":8288,"Ready":8289,"Berkeley":8290,"Palo":8291,"dreams":8292,"Grandma":8293,"Gooden":8294,"Centre":8295,"Portable":8296,"fairly":8297,"valued":8298,"reminded":8299,"thesis":8300,"judg":8301,"judge":8302,"mixed":8303,"mixture":8304,"reserves":8305,"extreme":8306,"straightforward":8307,"Jewish":8308,"luxurious":8309,"Belg":8310,"NOT":8311,"fighters":8312,"sustainability":8313,"Throughout":8314,"craft":8315,"controlled":8316,"Philistines":8317,"assignments":8318,"DIY":8319,"ethical":8320,"estimates":8321,"efficiently":8322,"sporting":8323,"spiritual":8324,"circuitry":8325,"Silver":8326,"folding":8327,"component":8328,"drugs":8329,"attorney":8330,"Milk":8331,"Spotify":8332,"chemicals":8333,"Archite":8334,"diagnosed":8335,"Airport":8336,"Help":8337,"spreads":8338,"Linked":8339,"gentle":8340,"habit":8341,"juice":8342,"paddock":8343,"calculation":8344,"occupied":8345,"Representatives":8346,"Ohio":8347,"tastes":8348,"beams":8349,"compassion":8350,"literally":8351,"Application":8352,"Capital":8353,"bourne":8354,"lamps":8355,"chandelier":8356,"resistant":8357,"shaped":8358,"crisis":8359,"Corporation":8360,"Corporate":8361,"Restorative":8362,"Susan":8363,"Type":8364,"navigation":8365,"Starting":8366,"desktop":8367,"minimal":8368,"Administr":8369,"Beauty":8370,"Beautiful":8371,"impressive":8372,"troublesho":8373,"Machiav":8374,"Rahul":8375,"ecological":8376,"stakeholders":8377,"antitative":8378,"antitrypsin":8379,"Guidebook":8380,"originally":8381,"Melbourne":8382,"iatric":8383,"liberal":8384,"southern":8385,"vegetables":8386,"restore":8387,"shelter":8388,"satisfied":8389,"dimensional":8390,"Mexico":8391,"Shore":8392,"enemies":8393,"segment":8394,"weapons":8395,"Counselors":8396,"Colorado":8397,"Continue":8398,"CyberSource":8399,"Galax":8400,"Histor":8401,"Kelly":8402,"Oklah":8403,"Zealand":8404,"female":8405,"pounds":8406,"prototype":8407,"Championships":8408,"attempting":8409,"Armenian":8410,"Junior":8411,"MOSFET":8412,"proximity":8413,"embrace":8414,"renovation":8415,"frustrating":8416,"Fitness":8417,"Hampton":8418,"PTFE":8419,"Railroad":8420,"Tyler":8421,"incurred":8422,"accounting":8423,"prominent":8424,"delegates":8425,"liquid":8426,"Placenta":8427,"Francis":8428,"345b":8429,"Quarterly":8430,"travellers":8431,"Festival":8432,"Ideas":8433,"Sabbath":8434,"victim":8435,"sponsor":8436,"legitimate":8437,"Academy":8438,"Hospital":8439,"Bottom":8440,"Botticelli":8441,"Edinburgh":8442,"Hatachmoshe":8443,"Pretty":8444,"Schnauzer":8445,"Warrnambool":8446,"flesh":8447,"merchandise":8448,"Recently":8449,"fundraising":8450,"anniversary":8451,"Performance":8452,"Fundamentals":8453,"Biblical":8454,"Bangalore":8455,"Givat":8456,"Licens":8457,"PCNL":8458,"Vasquez":8459,"Venezuel":8460,"bottles":8461,"watah":8462,"recipe":8463,"algorith":8464,"agricultural":8465,"sumoaffiliates":8466,"module":8467,"peptide":8468,"Anselmo":8469,"Oklahoma":8470,"Hatachmoshet":8471,"!\"":8472,"&#":8473,");":8474,"/.":8475,"250":8476,"350":8477,"69":8478,"800":8479,"850":8480,"?)":8481,"A3":8482,"Aw":8483,"Ax":8484,"Aqu":8485,"Aach":8486,"Ali":8487,"Aren":8488,"Acur":8489,"AAS":8490,"Alex":8491,"Austin":8492,"BS":8493,"BT":8494,"Bent":8495,"Bright":8496,"Bons":8497,"BIC":8498,"CO":8499,"Cad":8500,"Cul":8501,"Cass":8502,"Copy":8503,"DU":8504,"DV":8505,"Det":8506,"Dax":8507,"EC":8508,"Ev":8509,"Equ":8510,"Eco":8511,"Eure":8512,"Esp":8513,"Ess":8514,"FI":8515,"Flo":8516,"Five":8517,"Fact":8518,"Fors":8519,"FIG":8520,"Federal":8521,"Flan":8522,"HG":8523,"HIV":8524,"IL":8525,"Kings":8526,"Lol":8527,"Lib":8528,"Lep":8529,"Lane":8530,"Layer":8531,"Lemon":8532,"Mat":8533,"Mind":8534,"Matt":8535,"Miss":8536,"Mult":8537,"Marr":8538,"Material":8539,"Mental":8540,"Miam":8541,"MBA":8542,"NT":8543,"Oil":8544,"Pun":8545,"Put":8546,"Pav":8547,"Purch":8548,"Porter":8549,"Ring":8550,"Rav":8551,"Ref":8552,"Rug":8553,"RAN":8554,"Rene":8555,"Rules":8556,"Rights":8557,"SL":8558,"Ster":8559,"Sex":8560,"Sher":8561,"Ship":8562,"Sury":8563,"STV":8564,"Shaw":8565,"Tw":8566,"Tal":8567,"Tar":8568,"Tom":8569,"Times":8570,"Taken":8571,"UF":8572,"UL":8573,"Ur":8574,"V8":8575,"Vood":8576,"Wing":8577,"WIM":8578,"Wifi":8579,"WPI":8580,"WICK":8581,"Zone":8582,"__":8583,"_copy":8584,"ais":8585,"bat":8586,"bors":8587,"batt":8588,"batch":8589,"bats":8590,"bars":8591,"bags":8592,"bahn":8593,"cow":8594,"cake":8595,"ccol":8596,"cade":8597,"cured":8598,"crop":8599,"dar":8600,"dro":8601,"dad":8602,"dough":8603,"dwell":8604,"dump":8605,"divers":8606,"dden":8607,"ec":8608,"fu":8609,"fal":8610,"fad":8611,"fare":8612,"fci":8613,"fax":8614,"fought":8615,"fusion":8616,"gut":8617,"gamp":8618,"gcry":8619,"gfci":8620,"hill":8621,"hli":8622,"hence":8623,"hiring":8624,"iated":8625,"iator":8626,"jar":8627,"jab":8628,"killed":8629,"lil":8630,"lid":8631,"lip":8632,"lined":8633,"lady":8634,"lucky":8635,"mi":8636,"mic":8637,"mac":8638,"mend":8639,"mild":8640,"mium":8641,"nup":8642,"nie":8643,"nations":8644,"nick":8645,"oh":8646,"oy":8647,"obey":8648,"pc":8649,"pon":8650,"pac":8651,"pig":8652,"pour":8653,"pip":8654,"pace":8655,"pull":8656,"rat":8657,"rig":8658,"rag":8659,"sion":8660,"sight":8661,"scor":8662,"sadd":8663,"tat":8664,"til":8665,"tun":8666,"tall":8667,"tial":8668,"tures":8669,"temp":8670,"tub":8671,"twin":8672,"twel":8673,"temporary":8674,"tube":8675,"taught":8676,"tgart":8677,"ued":8678,"uate":8679,"ubs":8680,"v2":8681,"vas":8682,"vibr":8683,"wave":8684,"yam":8685,"yester":8686,"zens":8687,"®.":8688,"’,":8689,"thir":8690,"thread":8691,"anno":8692,"onian":8693,"retr":8694,"reform":8695,"returning":8696,"theory":8697,"atar":8698,"orage":8699,"ormous":8700,"engrav":8701,"enquir":8702,"enormous":8703,"esis":8704,"alo":8705,"alarm":8706,"alumn":8707,"alumin":8708,"isian":8709,"toy":8710,"toast":8711,"toss":8712,"itage":8713,"itory":8714,"arrest":8715,"aside":8716,"aspect":8717,"leman":8718,"stag":8719,"stair":8720,"stages":8721,"elp":8722,"entang":8723,"illy":8724,"ilder":8725,"ilton":8726,"aca":8727,"acs":8728,"aces":8729,"acle":8730,"forgiven":8731,"begun":8732,"hepat":8733,"heels":8734,"hearing":8735,"ches":8736,"chart":8737,"champion":8738,"chrome":8739,"idem":8740,"lyn":8741,"etal":8742,"amen":8743,"amber":8744,"ample":8745,"olan":8746,"olid":8747,"abr":8748,"abdom":8749,"otic":8750,"uniqu":8751,"uninstall":8752,"uninstalling":8753,"whel":8754,"pros":8755,"cement":8756,"ager":8757,"compr":8758,"composed":8759,"conqu":8760,"congress":8761,"suite":8762,"sudden":8763,"lop":8764,"approv":8765,"empl":8766,"emitting":8767,"ifting":8768,"mood":8769,"modate":8770,"pled":8771,"deem":8772,"decre":8773,"delete":8774,"deeper":8775,"opens":8776,"residence":8777,"ula":8778,"essay":8779,"weird":8780,"exit":8781,"export":8782,"explan":8783,"peer":8784,"peers":8785,"estones":8786,"outfits":8787,"therford":8788,"soil":8789,"soak":8790,"ounce":8791,"antib":8792,"perman":8793,"worship":8794,"oding":8795,"ummy":8796,"umbing":8797,"mentary":8798,"clunk":8799,"clouds":8800,"endless":8801,"prime":8802,"graf":8803,"grave":8804,"indu":8805,"dozens":8806,"formulation":8807,"timing":8808,"uded":8809,"compiled":8810,"boots":8811,"ousi":8812,"ailing":8813,"affor":8814,"dered":8815,"derived":8816,"getic":8817,"Answ":8818,"servers":8819,"crew":8820,"assault":8821,"aks":8822,"disabled":8823,"Weight":8824,"preview":8825,"renal":8826,"blown":8827,"province":8828,"strugg":8829,"overview":8830,"Whatever":8831,"franch":8832,"nood":8833,"interactions":8834,"interactive":8835,"spects":8836,"../":8837,"phil":8838,"pharm":8839,"needing":8840,"lowest":8841,"mayor":8842,"producing":8843,"firing":8844,"Stat":8845,"Stay":8846,"description":8847,"miner":8848,"cafe":8849,"encamp":8850,"lecture":8851,"joints":8852,"finances":8853,"sys":8854,"everybody":8855,"Comes":8856,"attended":8857,"seeks":8858,"beta":8859,"readings":8860,"iously":8861,"guilt":8862,"ceremony":8863,"setup":8864,"presidential":8865,"preserve":8866,"relations":8867,"relatives":8868,"wherein":8869,"tedly":8870,"puts":8871,"carved":8872,"insight":8873,"simult":8874,"Trav":8875,"Trib":8876,"Trump":8877,"Andy":8878,"Along":8879,"Alert":8880,"smash":8881,"engines":8882,"handling":8883,"marketplace":8884,"designated":8885,"longest":8886,"transmitted":8887,"afternoon":8888,"nervous":8889,"Adam":8890,"Advent":8891,"capes":8892,"captain":8893,"capturing":8894,"Gran":8895,"instant":8896,"instantly":8897,"Protech":8898,"ugly":8899,"customized":8900,"Tosh":8901,"patents":8902,"sketch":8903,"qualify":8904,"ventions":8905,"extens":8906,"extension":8907,"arriving":8908,"offerings":8909,"deciding":8910,"2006":8911,"runner":8912,"summar":8913,"realized":8914,"organis":8915,"legend":8916,"filiate":8917,"locally":8918,"performances":8919,"expansion":8920,"Brant":8921,"Branch":8922,"155":8923,"subsequ":8924,"cyber":8925,"Autom":8926,"Author":8927,"Price":8928,"Prior":8929,"Principles":8930,"accessing":8931,"accessed":8932,"meters":8933,"cellular":8934,"bodied":8935,"talents":8936,"talks":8937,"removing":8938,"specially":8939,"specialized":8940,"foundations":8941,"loaded":8942,"successors":8943,"elected":8944,"showed":8945,"ensem":8946,"1991":8947,"1470":8948,"portra":8949,"harder":8950,"muscle":8951,"undoub":8952,"Legal":8953,"burn":8954,"burri":8955,"directory":8956,"hyp":8957,"pared":8958,"responsive":8959,"privately":8960,"Americans":8961,"equival":8962,"laundry":8963,"traum":8964,"iencies":8965,"appeared":8966,"potatoes":8967,"winner":8968,"trainer":8969,"contacts":8970,"nonwork":8971,"117":8972,"investors":8973,"organizing":8974,"ucker":8975,"welcoming":8976,"reviewing":8977,"damaging":8978,"Boomer":8979,"SEO":8980,"individually":8981,"simple_":8982,"employers":8983,"practition":8984,"mingham":8985,"iveness":8986,"Individ":8987,"childrens":8988,"Chemical":8989,"watched":8990,"fitting":8991,"reaches":8992,"containing":8993,"containers":8994,"240":8995,"rounded":8996,"superior":8997,"benefic":8998,"confused":8999,"confidential":9000,"REstyle":9001,"RECongress":9002,"fastest":9003,"speaks":9004,"claiming":9005,"132":9006,"magulu":9007,"balls":9008,"circle":9009,"seller":9010,"abling":9011,"Spinner":9012,"celebrating":9013,"Region":9014,"Register":9015,"musicians":9016,"Access":9017,"Month":9018,"integral":9019,"integrating":9020,"cookies":9021,"Ministry":9022,"broke":9023,"Cord":9024,"respected":9025,"Remover":9026,"combining":9027,"measuring":9028,"touched":9029,"stayed":9030,"authorized":9031,"economies":9032,"ikes":9033,"discussions":9034,"accountant":9035,"Crush":9036,"Crime":9037,"TAIN":9038,"displays":9039,"sentiment":9040,"animation":9041,"Carl":9042,"failing":9043,"chatting":9044,"extraordinary":9045,"default":9046,"existence":9047,"newsletter":9048,"representation":9049,"sectors":9050,"decoration":9051,"decorated":9052,"decorating":9053,"assisted":9054,"1961":9055,"1963":9056,"automated":9057,"automotive":9058,"Image":9059,"destinations":9060,"grey":9061,"supplying":9062,"volunteering":9063,"genu":9064,"blogspot":9065,"achievement":9066,"requests":9067,"requested":9068,"communicate":9069,"harmon":9070,"Moreover":9071,"immigration":9072,"introduct":9073,"supplier":9074,"suppliers":9075,"Stock":9076,"honour":9077,"enna":9078,"promised":9079,"gains":9080,"gained":9081,"Pollack":9082,"Syr":9083,"candles":9084,"electricity":9085,"retailers":9086,"Everything":9087,"Muslim":9088,"preferences":9089,"automobile":9090,"protecting":9091,"MacRemover":9092,"panic":9093,"panels":9094,"counselors":9095,"obtaining":9096,"Films":9097,"freight":9098,"mormons":9099,"smoke":9100,"smoking":9101,"advise":9102,"advisor":9103,"distributed":9104,"HealthBridge":9105,"campaigns":9106,"Swiss":9107,"Switch":9108,"adjustments":9109,"Reading":9110,"dressed":9111,"racing":9112,"racist":9113,"occurred":9114,"dominant":9115,"LifeREstyle":9116,"Germanwatch":9117,"repairs":9118,"humid":9119,"humans":9120,"pools":9121,"coaches":9122,"Rutherford":9123,"neglect":9124,"drawing":9125,"territor":9126,"Intro":9127,"consistently":9128,"Springs":9129,"pulse":9130,"savings":9131,"acceptable":9132,"crafts":9133,"crafted":9134,"blockchain":9135,"Point":9136,"functionality":9137,"cryptocurrencies":9138,"faithful":9139,"Wedding":9140,"ethics":9141,"enhanced":9142,"procedure":9143,"compensable":9144,"THIS":9145,"boundaries":9146,"married":9147,"Interest":9148,"demonstrate":9149,"licensing":9150,"initially":9151,"Silence":9152,"Surv":9153,"pumpkin":9154,"exhibits":9155,"1957":9156,"strengths":9157,"Audi":9158,"Auditor":9159,"Bowl":9160,"UPDA":9161,"hopes":9162,"laptop":9163,"accommodate":9164,"Charles":9165,"Systems":9166,"888":9167,"Golden":9168,"Satyam":9169,"ticket":9170,"accepting":9171,"ambient":9172,"pleasant":9173,"arranged":9174,"survive":9175,"Ellen":9176,"Singh":9177,"Walmart":9178,"beside":9179,"intrud":9180,"surprising":9181,"Examples":9182,"Victorian":9183,"veloc":9184,"renewed":9185,"GMT":9186,"durable":9187,"gonna":9188,"podcast":9189,"mechanical":9190,"Administration":9191,"Japanese":9192,"Break":9193,"Little":9194,"ecology":9195,"restriction":9196,"restrictions":9197,"assembly":9198,"Brown":9199,"Browse":9200,"WEP":9201,"scored":9202,"recipes":9203,"oriented":9204,"adorable":9205,"governance":9206,"Laboratory":9207,"dimensions":9208,"Kenya":9209,"Location":9210,"Morris":9211,"Rolled":9212,"Spectrum":9213,"assuming":9214,"sauce":9215,"sauces":9216,"legislation":9217,"cylindrical":9218,"paintings":9219,"CFUV":9220,"va_copy":9221,"resolve":9222,"Apartment":9223,"Passover":9224,"Toronto":9225,"inflation":9226,"quotes":9227,"fragrance":9228,"adequate":9229,"Leadership":9230,"vitamin":9231,"Düren":9232,"catering":9233,"incorporated":9234,"academic":9235,"Commerce":9236,"Collins":9237,"penalty":9238,"Assistant":9239,"Bunola":9240,"Hardik":9241,"Liens":9242,"LesBons":9243,"Season":9244,"Trojan":9245,"Thailand":9246,"Venus":9247,"knock":9248,"Society":9249,"MoviePass":9250,"Volunteer":9251,"warranty":9252,"Agreement":9253,"Birmingham":9254,"Hawai":9255,"Kavousi":9256,"Olentang":9257,"sophist":9258,"weren":9259,"ornaments":9260,"deleted":9261,"Stanley":9262,"attendees":9263,"Robertson":9264,"intellectual":9265,"Natural":9266,"Villiers":9267,"Zydeco":9268,"tropical":9269,"twenty":9270,"eligible":9271,"adopted":9272,"grateful":9273,"Stuttgart":9274,"Secretary":9275,"parameters":9276,"Extreme":9277,"SERVICE":9278,"approximately":9279,"Laverne":9280,"LinkedIn":9281,"troubleshooting":9282,"Machiavelli":9283,"Galaxy":9284,"Venezuela":9285,"Aachen":9286,"Acuras":9287,"AASM":9288,"BICSc":9289,"Copyright":9290,"DVD":9291,"Daxko":9292,"Eureka":9293,"Forsch":9294,"Flanagan":9295,"Miami":9296,"Punjab":9297,"Surya":9298,"Voodoo":9299,"WICKET":9300,"batsman":9301,"gampang":9302,"nuptial":9303,"twelve":9304,"engraved":9305,"simultaneously":9306,"Protechsoft":9307,"undoubtedly":9308,"Boomerang":9309,"Satyamev":9310,"LesBonsLiens":9311,"Olentangy":9312,".'":9313,"06":9314,"1F":9315,"1L":9316,"180":9317,"5th":9318,"61":9319,"86":9320,"87":9321,"8th":9322,"93":9323,"96":9324,"900":9325,"Ah":9326,"Athen":9327,"ASE":9328,"Agar":9329,"Again":9330,"Aaron":9331,"BL":9332,"Ba":9333,"Bing":9334,"Bio":9335,"Bob":9336,"Broad":9337,"Blog":9338,"Bomb":9339,"Body":9340,"BMW":9341,"CL":9342,"Cer":9343,"Cou":9344,"Cro":9345,"Chair":9346,"Caled":9347,"Civil":9348,"Culture":9349,"DE":9350,"Dou":9351,"Dark":9352,"Dave":9353,"Drew":9354,"Diabetes":9355,"EG":9356,"EU":9357,"Ey":9358,"Ever":9359,"Eric":9360,"Eye":9361,"FO":9362,"Fed":9363,"Four":9364,"FMC":9365,"Ga":9366,"Gun":9367,"Gall":9368,"Gha":9369,"Gals":9370,"GMC":9371,"HA":9372,"HB":9373,"Has":9374,"Hop":9375,"Hold":9376,"IB":9377,"Imp":9378,"Iron":9379,"Jar":9380,"Jam":9381,"Jose":9382,"Jones":9383,"KE":9384,"KL":9385,"Ka":9386,"Kur":9387,"Kast":9388,"LP":9389,"Line":9390,"Living":9391,"Lakes":9392,"Made":9393,"Maut":9394,"Maur":9395,"MAT":9396,"Member":9397,"NP":9398,"Nig":9399,"Nation":9400,"None":9401,"Nolan":9402,"Oax":9403,"Ocean":9404,"Pap":9405,"Pie":9406,"Pok":9407,"Page":9408,"Pors":9409,"Pallot":9410,"Qual":9411,"RC":9412,"Rand":9413,"Rid":9414,"Rot":9415,"Rain":9416,"Rio":9417,"RSS":9418,"R1L":9419,"SC":9420,"Sin":9421,"Som":9422,"Sever":9423,"Seven":9424,"Steam":9425,"Sund":9426,"Stra":9427,"SIG":9428,"SCC":9429,"Sadly":9430,"TP":9431,"Tre":9432,"Tun":9433,"Tick":9434,"Touch":9435,"Taking":9436,"Tags":9437,"Talk":9438,"TNT":9439,"UI":9440,"Ubs":9441,"VA":9442,"Var":9443,"Vic":9444,"VIT":9445,"Vintage":9446,"WH":9447,"Wis":9448,"Wolf":9449,"XI":9450,"Xiv":9451,"YN":9452,"Youn":9453,"Yellow":9454,"Zak":9455,"\\/":9456,"aways":9457,"bent":9458,"bish":9459,"bree":9460,"bian":9461,"border":9462,"bund":9463,"bands":9464,"cav":9465,"caf":9466,"cope":9467,"dive":9468,"dust":9469,"dale":9470,"dirt":9471,"eg":9472,"ffect":9473,"fired":9474,"font":9475,"fond":9476,"ffolk":9477,"gam":9478,"gap":9479,"gum":9480,"greg":9481,"glob":9482,"gaming":9483,"hen":9484,"hits":9485,"hatt":9486,"i8":9487,"iating":9488,"iLe":9489,"iTun":9490,"jet":9491,"jam":9492,"jail":9493,"jacker":9494,"jazz":9495,"kg":9496,"kitchens":9497,"lag":9498,"loun":9499,"library":9500,"mg":9501,"mu":9502,"mad":9503,"mates":9504,"maps":9505,"migration":9506,"nan":9507,"nis":9508,"nell":9509,"navy":9510,"oak":9511,"pines":9512,"pond":9513,"pension":9514,"ram":9515,"rim":9516,"rus":9517,"rals":9518,"ranging":9519,"sand":9520,"sne":9521,"ske":9522,"scan":9523,"sick":9524,"scar":9525,"scam":9526,"sisters":9527,"tissues":9528,"tender":9529,"tissue":9530,"troller":9531,"uan":9532,"uity":9533,"uous":9534,"vable":9535,"vely":9536,"vath":9537,"wider":9538,"waters":9539,"xasprintf":9540,"yr":9541,"yards":9542,"yota":9543,"zent":9544,"®,":9545,"thon":9546,"thal":9547,"thos":9548,"thresh":9549,"inf":9550,"inely":9551,"inbound":9552,"inhab":9553,"injection":9554,"infection":9555,"anies":9556,"eron":9557,"eration":9558,"erton":9559,"onne":9560,"onze":9561,"recre":9562,"refr":9563,"revers":9564,"recycl":9565,"retrie":9566,"refund":9567,"theast":9568,"theater":9569,"atal":9570,"atmeal":9571,"oux":9572,"oured":9573,"orous":9574,"ena":9575,"enic":9576,"enforce":9577,"encounter":9578,"encompass":9579,"ality":9580,"isol":9581,"iscal":9582,"island":9583,"toe":9584,"tood":9585,"andal":9586,"ede":9587,"edges":9588,"itar":9589,"iture":9590,"itivity":9591,"arios":9592,"arXiv":9593,"asset":9594,"leis":9595,"leton":9596,"icate":9597,"icts":9598,"icio":9599,"iculous":9600,"stre":9601,"stad":9602,"stap":9603,"stere":9604,"stump":9605,"stabil":9606,"rope":9607,"entre":9608,"entit":9609,"illegal":9610,"acids":9611,"accred":9612,"youn":9613,"seam":9614,"bee":9615,"beer":9616,"beverage":9617,"heights":9618,"adoles":9619,"ched":9620,"chill":9621,"lywood":9622,"lyrics":9623,"amm":9624,"amity":9625,"amended":9626,"ige":9627,"igon":9628,"igne":9629,"implant":9630,"oter":9631,"ung":9632,"unlikely":9633,"unfavorable":9634,"prop":9635,"prodig":9636,"prospects":9637,"urge":9638,"uranium":9639,"cease":9640,"utor":9641,"utility":9642,"irty":9643,"conjunction":9644,"conforming":9645,"lore":9646,"lovers":9647,"loys":9648,"loving":9649,"login":9650,"terior":9651,"tray":9652,"trys":9653,"negl":9654,"emo":9655,"emissions":9656,"ifier":9657,"ourmet":9658,"moon":9659,"plied":9660,"ophy":9661,"opposed":9662,"resil":9663,"rescent":9664,"ulated":9665,"weave":9666,"haust":9667,"exhaust":9668,"peak":9669,"shire":9670,"shade":9671,"shore":9672,"outs":9673,"outique":9674,"socks":9675,"quic":9676,"quantitative":9677,"antim":9678,"cano":9679,"cancell":9680,"cancel":9681,"permitted":9682,"worse":9683,"ivals":9684,"mentor":9685,"acted":9686,"actress":9687,"anymore":9688,"notch":9689,"grid":9690,"indul":9691,"Info":9692,"Indon":9693,"Independent":9694,"Instead":9695,"upg":9696,"fears":9697,"cooperation":9698,"ials":9699,"dos":9700,"dosha":9701,"workplace":9702,"okes":9703,"oking":9704,"okay":9705,"2030":9706,"20mm":9707,"avatar":9708,"comptroller":9709,"ureau":9710,"duplic":9711,"boat":9712,"asty":9713,"asters":9714,"liament":9715,"ousine":9716,"ails":9717,"spam":9718,"spir":9719,"spawn":9720,"eves":9721,"evident":9722,"izz":9723,"Anxiety":9724,"ckham":9725,"creativity":9726,"ferences":9727,"aka":9728,"aceut":9729,"disc":9730,"dismiss":9731,"distract":9732,"discounts":9733,"disrup":9734,"disclosure":9735,"discovery":9736,"iah":9737,"prene":9738,"prefix":9739,"prenuptial":9740,"blink":9741,"overwhel":9742,"brill":9743,"brave":9744,"intend":9745,"manip":9746,"berline":9747,"fried":9748,"fraud":9749,"fridge":9750,"Youth":9751,"noise":9752,"intervention":9753,"posing":9754,"phr":9755,"phy":9756,"craw":9757,"crushing":9758,"crazy":9759,"justified":9760,"corresponding":9761,"Change":9762,"Charter":9763,"Chlor":9764,"Chester":9765,"colours":9766,"column":9767,"colleagues":9768,"curities":9769,"inkle":9770,"adeck":9771,"thriving":9772,"Storage":9773,"desper":9774,"desires":9775,"destru":9776,"cuses":9777,"minister":9778,"ministry":9779,"counted":9780,"addict":9781,"regain":9782,"regulation":9783,"dried":9784,"devoted":9785,"bucks":9786,"olds":9787,"ioch":9788,"everywhere":9789,"supposed":9790,"centers":9791,"foremost":9792,"calming":9793,"guitar":9794,"ceremon":9795,"donald":9796,"Reconstruction":9797,"preserv":9798,"delivers":9799,"airy":9800,"airports":9801,"underground":9802,"whereas":9803,"funny":9804,"caring":9805,"stems":9806,"sheets":9807,"hometown":9808,"homeowners":9809,"Constitution":9810,"Andre":9811,"mont":9812,"requiring":9813,"cheer":9814,"floral":9815,"Form":9816,"lesser":9817,"cleans":9818,"ampian":9819,"conditional":9820,"courage":9821,"courts":9822,"ieties":9823,"memories":9824,"personnel":9825,"handed":9826,"handled":9827,"handguns":9828,"blem":9829,"designers":9830,"eastern":9831,"oupon":9832,"transaction":9833,"consin":9834,"consists":9835,"consolid":9836,"missiles":9837,"valley":9838,"obst":9839,"observe":9840,"observed":9841,"101":9842,"cedes":9843,"Union":9844,"Unless":9845,"mainstream":9846,"developer":9847,"caps":9848,"Grab":9849,"Grace":9850,"Grade":9851,"Grange":9852,"Graham":9853,"Gripper":9854,"Grampian":9855,"Arcade":9856,"header":9857,"ugs":9858,"Tool":9859,"Toyota":9860,"wrap":9861,"posters":9862,"arrived":9863,"supportive":9864,"turns":9865,"Exped":9866,"Roy":9867,"azil":9868,"realistic":9869,"legally":9870,"Gov":9871,"Gospel":9872,"cared":9873,"stocks":9874,"blocks":9875,"films":9876,"locate":9877,"anned":9878,"annel":9879,"ricane":9880,"Brazil":9881,"151":9882,"subur":9883,"signing":9884,"signatures":9885,"Pract":9886,"accessibility":9887,"Cox":9888,"Coach":9889,"Coleman":9890,"Deep":9891,"followers":9892,"passengers":9893,"continental":9894,"specialists":9895,"125":9896,"128":9897,"brea":9898,"operated":9899,"operational":9900,"gling":9901,"glam":9902,"Sheet":9903,"USE":9904,"loyal":9905,"Reserv":9906,"Residential":9907,"optional":9908,"pays":9909,"iumph":9910,"cleanse":9911,"aims":9912,"photography":9913,"virus":9914,"145":9915,"pork":9916,"Leaves":9917,"buried":9918,"directions":9919,"hyth":9920,"faculty":9921,"enjoyable":9922,"grounded":9923,"videographers":9924,"ACK":9925,"privile":9926,"purchases":9927,"numbered":9928,"statist":9929,"statue":9930,"equally":9931,"furt":9932,"Original":9933,"installment":9934,"iences":9935,"raising":9936,"understands":9937,"contacting":9938,"invested":9939,"organizational":9940,"ucks":9941,"attered":9942,"lawsuit":9943,"ANL":9944,"ANY":9945,"Box":9946,"Boy":9947,"Mayank":9948,"refusal":9949,"185":9950,"male":9951,"malpractice":9952,"caster":9953,"towns":9954,"Particip":9955,"Doctor":9956,"emails":9957,"Lovely":9958,"researchers":9959,"dealership":9960,"definite":9961,"244":9962,"gnupg":9963,"roundabout":9964,"supervision":9965,"Windblight":9966,"Maria":9967,"borrow":9968,"concern":9969,"speakers":9970,"storm":9971,"bike":9972,"cardio":9973,"magnet":9974,"steering":9975,"steady":9976,"switched":9977,"sells":9978,"Spin":9979,"celebrations":9980,"integrate":9981,"integrates":9982,"cooks":9983,"Study":9984,"Mining":9985,"returned":9986,"shortly":9987,"broadcaster":9988,"fixing":9989,"fixtures":9990,"garbage":9991,"typical":9992,"combine":9993,"studying":9994,"406":9995,"Suzan":9996,"Suffolk":9997,"brows":9998,"stops":9999,"regarded":10000,"spray":10001,"Baron":10002,"ttyio":10003,"referrals":10004,"hosting":10005,"hosted":10006,"Craf":10007,"Peace":10008,"denied":10009,"rectus":10010,"promotions":10011,"Thankfully":10012,"Donald":10013,"midst":10014,"prepares":10015,"maintained":10016,"Schools":10017,"repet":10018,"firmly":10019,"Peters":10020,"nuts":10021,"uxe":10022,"stitutes":10023,"Anyone":10024,"assisting":10025,"1969":10026,"Images":10027,"reduction":10028,"premises":10029,"Offer":10030,"tremend":10031,"smartphone":10032,"blogs":10033,"associations":10034,"hearts":10035,"achievements":10036,"LLC":10037,"harsh":10038,"accordingly":10039,"1982":10040,"1985":10041,"1986":10042,"certification":10043,"Blackberry":10044,"Generally":10045,"Store":10046,"figur":10047,"ennel":10048,"semi":10049,"prompt":10050,"utilized":10051,"Computing":10052,"Buy":10053,"Police":10054,"stressed":10055,"subscrib":10056,"platforms":10057,"ERY":10058,"fael":10059,"fault":10060,"attracted":10061,"preference":10062,"AAAA":10063,"Macdonald":10064,"layers":10065,"silk":10066,"acquired":10067,"grandma":10068,"billboards":10069,"knowledgeable":10070,"downloading":10071,"Area":10072,"Overall":10073,"banking":10074,"advised":10075,"arency":10076,"buttons":10077,"Brook":10078,"Brokers":10079,"Brockham":10080,"Premium":10081,"Sciences":10082,"implementing":10083,"encouraging":10084,"violent":10085,"Swagar":10086,"Todd":10087,"gathered":10088,"stickers":10089,"adjustment":10090,"determining":10091,"answered":10092,"Smith":10093,"babies":10094,"Credit":10095,"Fox":10096,"Foot":10097,"Focus":10098,"batteries":10099,"trouble":10100,"closest":10101,"racial":10102,"consultant":10103,"quila":10104,"dominion":10105,"Horizon":10106,"Horvath":10107,"conventional":10108,"emotion":10109,"Irvine":10110,"diets":10111,"injured":10112,"ussman":10113,"Coordinators":10114,"targeted":10115,"slowly":10116,"reminders":10117,"optimize":10118,"explained":10119,"coaching":10120,"1973":10121,"1974":10122,"Mercedes":10123,"reservations":10124,"Realty":10125,"Designed":10126,"terror":10127,"territory":10128,"Artist":10129,"Below":10130,"Strong":10131,"Volks":10132,"catalog":10133,"acceptance":10134,"Starburst":10135,"transferred":10136,"Bookcase":10137,"agarwood":10138,"medication":10139,"officials":10140,"officially":10141,"???":10142,"Electronics":10143,"Governor":10144,"Kohli":10145,"linen":10146,"snap":10147,"Alternates":10148,"Maintain":10149,"Maintenance":10150,"wildlife":10151,"threatened":10152,"ombie":10153,"deadline":10154,"Annie":10155,"simpler":10156,"historical":10157,"Oakland":10158,"Silberline":10159,"folders":10160,"spoken":10161,"throwing":10162,"seriously":10163,"drinking":10164,"Simple":10165,"Simply":10166,"Tourism":10167,"witness":10168,"iconic":10169,"ultimately":10170,"emphasizes":10171,"Archadeck":10172,"scenarios":10173,"initiative":10174,"diagnosis":10175,"hoping":10176,"critic":10177,"criteria":10178,"carries":10179,"carrier":10180,"Fullerton":10181,"hurt":10182,"calculated":10183,"arrangement":10184,"Emily":10185,"Veget":10186,"nursing":10187,"twist":10188,"tasty":10189,"terminate":10190,"Scouts":10191,"advertisements":10192,"establishment":10193,"Creating":10194,"Operations":10195,"hijacker":10196,"split":10197,"eliminate":10198,"eliminated":10199,"shapes":10200,"sparkle":10201,"strains":10202,"crisp":10203,"Choose":10204,"possession":10205,"hydration":10206,"Woman":10207,"duration":10208,"division":10209,"paste":10210,"pastry":10211,"zzah":10212,"adaptive":10213,"minimize":10214,"fortunate":10215,"Krist":10216,"Krussman":10217,"Machine":10218,"Passion":10219,"Setting":10220,"dialogue":10221,"nominated":10222,"forums":10223,"universal":10224,"empowering":10225,"variations":10226,"Olympics":10227,"CSR":10228,"Calamity":10229,"Domin":10230,"Farmhouse":10231,"Purpose":10232,"finger":10233,"ynthos":10234,"orientation":10235,"anticipated":10236,"deployed":10237,"magazines":10238,"Downloads":10239,"Ashwin":10240,"Basic":10241,"Fishel":10242,"Mexican":10243,"Nursing":10244,"Pakistani":10245,"Saigon":10246,"Solutions":10247,"Wilson":10248,"enemy":10249,"declared":10250,"weapon":10251,"Antioch":10252,"Medicine":10253,"accommodations":10254,"Crystal":10255,"Limited":10256,"NEW":10257,"Object":10258,"Return":10259,"diesel":10260,"frozen":10261,"grocer":10262,"vinyl":10263,"heavily":10264,"compressed":10265,"intentionally":10266,"belongings":10267,"retrospect":10268,"subsidiary":10269,"psychological":10270,"Bears":10271,"Gatehouse":10272,"Napoli":10273,"cottage":10274,"reliance":10275,"Roofing":10276,"Atlantic":10277,"understood":10278,"Currently":10279,"Vietnamese":10280,"Greeks":10281,"Henan":10282,"Level":10283,"Numbers":10284,"Titans":10285,"divided":10286,"lonely":10287,"pillows":10288,"rustic":10289,"reinforce":10290,"replacing":10291,"consulting":10292,"shrimp":10293,"Protection":10294,"Frankfurt":10295,"interpretation":10296,"rapidly":10297,"Dietetic":10298,"Pinkfresh":10299,"Southern":10300,"adventur":10301,"emerging":10302,"gratulations":10303,"encryption":10304,"apparently":10305,"prescribed":10306,"architect":10307,"facilit":10308,"DiNapoli":10309,"Economic":10310,"Korea":10311,"MMUP":10312,"Memorial":10313,"Sorry":10314,"hinagar":10315,"ladies":10316,"argument":10317,"abandoned":10318,"achieving":10319,"epiece":10320,"correspondent":10321,"settled":10322,"voluntary":10323,"physiology":10324,"dynamic":10325,"imaginative":10326,"Republicans":10327,"obligations":10328,"Better":10329,"Faith":10330,"Ident":10331,"Luxury":10332,"OEMs":10333,"Pumpkin":10334,"Sugar":10335,"Taylor":10336,"instrument":10337,"ungszent":10338,"desirable":10339,"deserves":10340,"iobuf_":10341,"Connect":10342,"Albergue":10343,"largely":10344,"parallel":10345,"Principal":10346,"SODIM":10347,"Belgium":10348,"Milkman":10349,"Licensed":10350,"Arena":10351,"Cadfael":10352,"Essential":10353,"Lepage":10354,"Purchasing":10355,"Rugby":10356,"Sterling":10357,"false":10358,"tattoo":10359,"yesterday":10360,"aluminum":10361,"hepatitis":10362,"amenities":10363,"abdominal":10364,"uniquely":10365,"approval":10366,"struggle":10367,"philos":10368,"pharmaceut":10369,"subsequent":10370,"ensembles":10371,"equivalent":10372,"beneficial":10373,"introductory":10374,"velocity":10375,"Hawaii":10376,"Forschungszent":10377,"Caledonian":10378,"Ghazzah":10379,"Kastner":10380,"Mautino":10381,"Mauricio":10382,"Oaxaca":10383,"Porsche":10384,"Several":10385,"Sundar":10386,"Wisconsin":10387,"Zakynthos":10388,"iLeads":10389,"iTunes":10390,"recreational":10391,"seamless":10392,"tryside":10393,"Indones":10394,"Chloris":10395,"Expedition":10396,"Suzanne":10397,"Forschungszentrum":10398,"!),":10399,",'":10400,".).":10401,"1B":10402,"130":10403,"134":10404,"3D":10405,"74":10406,"785":10407,"84":10408,"834":10409,";;":10410,"AJ":10411,"AZ":10412,"Ath":10413,"Ado":10414,"A80":10415,"BY":10416,"Ban":10417,"Bon":10418,"Ball":10419,"Bart":10420,"Bud":10421,"Bry":10422,"Blow":10423,"Brun":10424,"Bask":10425,"Bapt":10426,"BACK":10427,"Bucks":10428,"Cart":10429,"Card":10430,"Cair":10431,"Colog":10432,"Cream":10433,"COS":10434,"Coffee":10435,"Crescent":10436,"Der":10437,"Dor":10438,"Dut":10439,"Dance":10440,"Dio":10441,"DNA":10442,"Ducker":10443,"EP":10444,"Emer":10445,"Etow":10446,"Event":10447,"EAS":10448,"EAR":10449,"Evalu":10450,"Fal":10451,"Fig":10452,"Fire":10453,"Flow":10454,"Fake":10455,"Fore":10456,"Flex":10457,"FREE":10458,"GC":10459,"Gan":10460,"Give":10461,"Given":10462,"GED":10463,"Gift":10464,"HK":10465,"HP":10466,"Hz":10467,"Hear":10468,"HGH":10469,"HIGH":10470,"Il":10471,"Ice":10472,"IIT":10473,"IAP":10474,"Idol":10475,"JP":10476,"Jr":10477,"Jed":10478,"Jud":10479,"JSE":10480,"Jama":10481,"Jazz":10482,"Kum":10483,"Kick":10484,"Kerr":10485,"Key":10486,"Knights":10487,"Khan":10488,"Kevin":10489,"Lor":10490,"Led":10491,"Later":10492,"Liqu":10493,"LUN":10494,"LGB":10495,"LCD":10496,"Luna":10497,"MK":10498,"Mb":10499,"Mu":10500,"Map":10501,"Mos":10502,"Morgan":10503,"MED":10504,"Mike":10505,"MME":10506,"Non":10507,"Near":10508,"Nep":10509,"Nair":10510,"Nike":10511,"NHS":10512,"NBA":10513,"NPs":10514,"OD":10515,"OG":10516,"OW":10517,"Option":10518,"Oatmeal":10519,"Pa":10520,"Py":10521,"Pow":10522,"Pum":10523,"PAs":10524,"Pek":10525,"Pier":10526,"Puro":10527,"Paren":10528,"PET":10529,"Pizza":10530,"Q345b":10531,"RA":10532,"Rth":10533,"Rud":10534,"Rog":10535,"Rise":10536,"Ros":10537,"RWD":10538,"Risk":10539,"Radi":10540,"SQ":10541,"Sn":10542,"Sel":10543,"Sac":10544,"Sud":10545,"Snow":10546,"Saf":10547,"Shel":10548,"Slow":10549,"Scho":10550,"Size":10551,"Sets":10552,"Self":10553,"Solution":10554,"Soul":10555,"STE":10556,"Sweet":10557,"Tem":10558,"Test":10559,"Tich":10560,"Tree":10561,"Tank":10562,"TIN":10563,"Tai":10564,"Treas":10565,"UCS":10566,"Vi":10567,"Vision":10568,"WR":10569,"WW":10570,"Wad":10571,"Wire":10572,"Wins":10573,"Wave":10574,"WIT":10575,"WAR":10576,"Winner":10577,"WAV":10578,"XMP":10579,"Ya":10580,"Ye":10581,"ZA":10582,"Zo":10583,"Zep":10584,"Z80":10585,"aer":10586,"bial":10587,"bark":10588,"bake":10589,"bicy":10590,"bull":10591,"banks":10592,"baking":10593,"cd":10594,"cart":10595,"cific":10596,"dat":10597,"dil":10598,"dio":10599,"diversity":10600,"dimin":10601,"dtemp":10602,"eu":10603,"eed":10604,"ebook":10605,"eRules":10606,"fi":10607,"french":10608,"fathers":10609,"fiscal":10610,"gp":10611,"gle":10612,"gad":10613,"gay":10614,"gren":10615,"gross":10616,"gency":10617,"hate":10618,"hired":10619,"hunt":10620,"hiding":10621,"ias":10622,"ión":10623,"jc":10624,"jö":10625,"jas":10626,"jury":10627,"junk":10628,"kne":10629,"kits":10630,"kiss":10631,"kings":10632,"kale":10633,"len":10634,"lol":10635,"lie":10636,"liness":10637,"lived":10638,"mW":10639,"md":10640,"mam":10641,"mur":10642,"mour":10643,"mant":10644,"mature":10645,"mapping":10646,"nm":10647,"nar":10648,"ox":10649,"oor":10650,"oved":10651,"oCommerce":10652,"pi":10653,"pp":10654,"pam":10655,"pir":10656,"pend":10657,"padd":10658,"pted":10659,"pants":10660,"pets":10661,"rally":10662,"rick":10663,"rame":10664,"rising":10665,"rush":10666,"rification":10667,"rival":10668,"rhyth":10669,"som":10670,"stom":10671,"sprint":10672,"twe":10673,"tart":10674,"tive":10675,"tum":10676,"tie":10677,"tile":10678,"tured":10679,"tape":10680,"tends":10681,"tiny":10682,"uth":10683,"uing":10684,"uble":10685,"vig":10686,"vap":10687,"vivid":10688,"vouch":10689,"wan":10690,"wre":10691,"wages":10692,"wired":10693,"xic":10694,"xml":10695,"yur":10696,"yers":10697,"yield":10698,"zh":10699,"inet":10700,"inity":10701,"infect":10702,"independence":10703,"indefinite":10704,"anx":10705,"anz":10706,"anie":10707,"oning":10708,"onice":10709,"rever":10710,"restr":10711,"remed":10712,"remark":10713,"replic":10714,"restart":10715,"recording":10716,"reactions":10717,"rewards":10718,"resem":10719,"recharge":10720,"reverse":10721,"recycle":10722,"atible":10723,"attrib":10724,"orphan":10725,"eners":10726,"enity":10727,"enabled":10728,"ensures":10729,"enabling":10730,"es_":10731,"esy":10732,"estr":10733,"ala":10734,"alur":10735,"altogether":10736,"alpha":10737,"islands":10738,"totem":10739,"tody":10740,"ingly":10741,"android":10742,"andhinagar":10743,"edo":10744,"editions":10745,"arro":10746,"asel":10747,"asse":10748,"aspar":10749,"leverage":10750,"ication":10751,"icide":10752,"icting":10753,"icular":10754,"stip":10755,"stance":10756,"root":10757,"rots":10758,"elk":10759,"eland":10760,"ello":10761,"elite":10762,"eliness":10763,"ila":10764,"ilty":10765,"acon":10766,"acres":10767,"acles":10768,"accompan":10769,"accum":10770,"omen":10771,"fork":10772,"forgive":10773,"seated":10774,"secular":10775,"veys":10776,"vegg":10777,"beans":10778,"healing":10779,"chic":10780,"chest":10781,"chase":10782,"charm":10783,"chapter":10784,"idis":10785,"lyph":10786,"etary":10787,"etti":10788,"aman":10789,"amend":10790,"ambit":10791,"aya":10792,"oline":10793,"igan":10794,"igate":10795,"ationally":10796,"imon":10797,"unting":10798,"unnecessary":10799,"unusual":10800,"unfortunately":10801,"probe":10802,"prostat":10803,"promp":10804,"props":10805,"utional":10806,"agus":10807,"agric":10808,"irations":10809,"compromise":10810,"conce":10811,"conversion":10812,"constitution":10813,"loan":10814,"logo":10815,"loans":10816,"tri":10817,"allic":10818,"allerg":10819,"neat":10820,"emin":10821,"embed":10822,"mosa":10823,"plc":10824,"pling":10825,"plas":10826,"debut":10827,"depos":10828,"decent":10829,"defeat":10830,"opio":10831,"resso":10832,"resser":10833,"uling":10834,"ultra":10835,"kee":10836,"extr":10837,"exposed":10838,"exempt":10839,"peoples":10840,"estone":10841,"sham":10842,"shred":10843,"shades":10844,"shifts":10845,"outlook":10846,"outfit":10847,"outskirts":10848,"therap":10849,"soever":10850,"quo":10851,"cane":10852,"perative":10853,"worn":10854,"bye":10855,"odies":10856,"Thriv":10857,"ums":10858,"umber":10859,"actus":10860,"erect":10861,"pray":10862,"prize":10863,"priced":10864,"priest":10865,"notable":10866,"poke":10867,"gran":10868,"grac":10869,"grind":10870,"grants":10871,"grilled":10872,"grasp":10873,"Intell":10874,"upside":10875,"meats":10876,"coa":10877,"coat":10878,"coil":10879,"cove":10880,"cocoa":10881,"ially":10882,"ellRe":10883,"docks":10884,"inevit":10885,"ghost":10886,"20s":10887,"20th":10888,"google":10889,"gospel":10890,"avo":10891,"aved":10892,"avender":10893,"timed":10894,"timore":10895,"uding":10896,"compare":10897,"compatible":10898,"portal":10899,"portions":10900,"ibbean":10901,"ureen":10902,"ears":10903,"earli":10904,"earrings":10905,"aching":10906,"dub":10907,"duo":10908,"bother":10909,"booth":10910,"boasts":10911,"span":10912,"spon":10913,"spare":10914,"eva":10915,"evol":10916,"izona":10917,"Ana":10918,"Ancient":10919,"cker":10920,"contempl":10921,"fool":10922,"ept":10923,"serenity":10924,"crete":10925,"creep":10926,"creator":10927,"assaul":10928,"ansas":10929,"discount":10930,"dissection":10931,"discharge":10932,"ignored":10933,"pread":10934,"predomin":10935,"prejud":10936,"ilet":10937,"render":10938,"rented":10939,"renzo":10940,"blended":10941,"blowing":10942,"fulfil":10943,"owns":10944,"lla":10945,"strip":10946,"strike":10947,"overs":10948,"overhead":10949,"bronze":10950,"intact":10951,"intense":10952,"manic":10953,"nosis":10954,"interact":10955,"1930":10956,"crack":10957,"Chi":10958,"Chang":10959,"Chief":10960,"colored":10961,"curve":10962,"servicing":10963,"awk":10964,"offense":10965,"describe":10966,"ression":10967,"countryside":10968,"chose":10969,"chores":10970,"additions":10971,"addiction":10972,"caution":10973,"registry":10974,"drives":10975,"drilling":10976,"buck":10977,"lectures":10978,"iolet":10979,"medals":10980,"versial":10981,"Common":10982,"centres":10983,"forecast":10984,"aug":10985,"auer":10986,"guy":10987,"guards":10988,"guilty":10989,"donate":10990,"ificial":10991,"bush":10992,"Reed":10993,"Really":10994,"Recomm":10995,"Record":10996,"president":10997,"deliber":10998,"thence":10999,"relig":11000,"relating":11001,"undergraduate":11002,"wherever":11003,"hob":11004,"cargo":11005,"carpet":11006,"carrots":11007,"sheet":11008,"sheep":11009,"Consul":11010,"Convention":11011,"Tri":11012,"Track":11013,"Triumph":11014,"Truth":11015,"monies":11016,"monitors":11017,"flick":11018,"Alcohol":11019,"smarter":11020,"lessly":11021,"amps":11022,"Hey":11023,"Heasel":11024,"archae":11025,"ologic":11026,"memor":11027,"english":11028,"handful":11029,"easiest":11030,"transl":11031,"transgender":11032,"transcontinental":11033,"afterwards":11034,"purple":11035,"calligraphy":11036,"objects":11037,"findings":11038,"cloth":11039,"cloths":11040,"Grass":11041,"Plaza":11042,"Argent":11043,"Arizona":11044,"solving":11045,"headlights":11046,"headache":11047,"Proceed":11048,"Production":11049,"ugal":11050,"customization":11051,"wraps":11052,"...\"":11053,"erville":11054,"extend":11055,"arris":11056,"arrive":11057,"surge":11058,"paragl":11059,"Express":11060,"Extens":11061,"summit":11062,"organised":11063,"bloging":11064,"filters":11065,"rica":11066,"anko":11067,"varieties":11068,"expend":11069,"expense":11070,"Brad":11071,"subtle":11072,"submission":11073,"cycad":11074,"featured":11075,"Dean":11076,"Decor":11077,"Death":11078,"autumn":11079,"autonom":11080,"generic":11081,"controversial":11082,"passes":11083,"passenger":11084,"metro":11085,"lasts":11086,"happier":11087,"pointed":11088,"singer":11089,"continually":11090,"cellaneous":11091,"digit":11092,"digest":11093,"digging":11094,"Soon":11095,"removes":11096,"charity":11097,"charges":11098,"12th":11099,"sidewall":11100,"operator":11101,"glor":11102,"glory":11103,"glimp":11104,"swabs":11105,"fewer":11106,"305":11107,"308":11108,"Cla":11109,"Clark":11110,"US_":11111,"tennis":11112,"istries":11113,"childhood":11114,"payable":11115,"payroll":11116,"checklist":11117,"showcase":11118,"cleaned":11119,"cleanliness":11120,"kindly":11121,"structured":11122,"structural":11123,"lime":11124,"internationally":11125,"148":11126,"501":11127,"additionally":11128,"milling":11129,"mighty":11130,"hardly":11131,"ondy":11132,"classroom":11133,"Leaf":11134,"burse":11135,"directed":11136,"Issu":11137,"Island":11138,"cams":11139,"retire":11140,"examination":11141,"considerations":11142,"Autobahn":11143,"Afgh":11144,"minded":11145,"placing":11146,"ACC":11147,"Colour":11148,"equations":11149,"furn":11150,"Order":11151,"Orient":11152,"Phishing":11153,"Manhatt":11154,"socially":11155,"socializing":11156,"sensations":11157,"expecting":11158,"contacted":11159,"nonconforming":11160,"Dronne":11161,"packs":11162,"welcomed":11163,"Boedo":11164,"Joel":11165,"Mediator":11166,"Mayor":11167,"refers":11168,"SETI":11169,"Stevie":11170,"namely":11171,"arson":11172,"Method":11173,"approx":11174,"casinos":11175,"futures":11176,"fills":11177,"audiences":11178,"icrobial":11179,"Industry":11180,"Indians":11181,"Lorenzo":11182,"pickup":11183,"waited":11184,"Chevy":11185,"watches":11186,"Reporter":11187,"dealing":11188,"definitions":11189,"Councilmember":11190,"348":11191,"24th":11192,"bitcoins":11193,"keyboard":11194,"Window":11195,"culinary":11196,"deterior":11197,"competing":11198,"competent":11199,"Quinton":11200,"steal":11201,"steam":11202,"triple":11203,"sellers":11204,"Patient":11205,"treatments":11206,"celebrates":11207,"addressed":11208,"Regard":11209,"Regulation":11210,"Acrob":11211,"Relation":11212,"Related":11213,"barrel":11214,"diodes":11215,"trades":11216,"PART":11217,"latency":11218,"brother":11219,"brokers":11220,"htm":11221,"gradually":11222,"freshly":11223,"matching":11224,"matched":11225,"mobility":11226,"fluent":11227,"Feb":11228,"incidents":11229,"planting":11230,"Ambass":11231,"IPs":11232,"tracking":11233,"Paragl":11234,"tourism":11235,"falls":11236,"falling":11237,"comfortably":11238,"strongest":11239,"ttyname":11240,"accountable":11241,"Disability":11242,"denial":11243,"selecting":11244,"beginners":11245,"modeling":11246,"displaying":11247,"Guy":11248,"Guys":11249,"ISH":11250,"ISP":11251,"Parks":11252,"excav":11253,"excuse":11254,"Caribbean":11255,"guides":11256,"wallpaper":11257,"ertips":11258,"manufacture":11259,"manufactured":11260,"maintains":11261,"homeland":11262,"1960":11263,"1964":11264,"1967":11265,"writers":11266,"wondering":11267,"Imlay":11268,"greet":11269,"reduces":11270,"organs":11271,"ometric":11272,"commerce":11273,"slate":11274,"slice":11275,"computers":11276,"blackened":11277,"association":11278,"Compet":11279,"Companies":11280,"Moon":11281,"crystal":11282,"gardening":11283,"marsh":11284,"margin":11285,"margins":11286,"riding":11287,"riders":11288,"teaches":11289,"formerly":11290,"III":11291,"horizon":11292,"elsewhere":11293,"sectional":11294,"amazon":11295,"continuation":11296,"continuous":11297,"continuously":11298,"Finch":11299,"Letter":11300,"Weston":11301,"immun":11302,"immort":11303,"1983":11304,"honors":11305,"honored":11306,"Cameron":11307,"Launch":11308,"LaGrange":11309,"modules":11310,"fabrics":11311,"sleek":11312,"efficacy":11313,"6570":11314,"Hollywood":11315,"hitting":11316,"grandfather":11317,"counselor":11318,"miscellaneous":11319,"ribe":11320,"periods":11321,"preventing":11322,"analyst":11323,"Johnson":11324,"Depending":11325,"adviser":11326,"popularity":11327,"recognize":11328,"taxi":11329,"taxpay":11330,"voting":11331,"voted":11332,"alternatives":11333,"distribute":11334,"encouragement":11335,"violates":11336,"235":11337,"Deluxe":11338,"texture":11339,"textures":11340,"sticking":11341,"accurately":11342,"entertaining":11343,"launching":11344,"nutrients":11345,"sweetness":11346,"bulk":11347,"centerpiece":11348,"Reader":11349,"characteristics":11350,"Bern":11351,"distur":11352,"influential":11353,"influences":11354,"separately":11355,"ibraries":11356,"petition":11357,"aysia":11358,"locker":11359,"locked":11360,"regulated":11361,"detects":11362,"MP3":11363,"MPa":11364,"pressing":11365,"releases":11366,"attendance":11367,"Iran":11368,"Portal":11369,"streaming":11370,"progresses":11371,"precious":11372,"relaxing":11373,"Coordinating":11374,"imagined":11375,"optimization":11376,"1971":11377,"churches":11378,"essentially":11379,"Transfer":11380,"objectives":11381,"Jeb":11382,"commissioner":11383,"consistent":11384,"consistency":11385,"Likewise":11386,"Speaker":11387,"Specific":11388,"nationwide":11389,"yesichat":11390,"contribution":11391,"temperatures":11392,"Books":11393,"Course":11394,"Early":11395,"Earlier":11396,"robots":11397,"appreciated":11398,"assignment":11399,"medicinal":11400,"accidentally":11401,"Flora":11402,"MCC":11403,"ROM":11404,"ROOM":11405,"Virat":11406,"ethnic":11407,"kaal":11408,"ovo":11409,"aspirations":11410,"outputs":11411,"Thanksgiving":11412,"guarding":11413,"guardian":11414,"Alternatively":11415,"Marketing":11416,"bounds":11417,"farmers":11418,"sexually":11419,"meantime":11420,"intelligence":11421,"simplest":11422,"simplified":11423,"CRP":11424,"Otherwise":11425,"spoil":11426,"spokes":11427,"exhibitors":11428,"clarify":11429,"Looking":11430,"Benz":11431,"Hara":11432,"Outdoor":11433,"PMI":11434,"Similar":11435,"Terms":11436,"Turn":11437,"Turin":11438,"categories":11439,"expressed":11440,"scenes":11441,"Helios":11442,"Saints":11443,"albums":11444,"trucks":11445,"decking":11446,"principal":11447,"habits":11448,"juven":11449,"mattress":11450,"palette":11451,"conception":11452,"trusted":11453,"willingness":11454,"arrangements":11455,"survived":11456,"LAGS":11457,"Metadata":11458,"Magaz":11459,"WooCommerce":11460,"massive":11461,"tailored":11462,"width":11463,"reveal":11464,"termination":11465,"telephone":11466,"telecommunications":11467,"lettering":11468,"literacy":11469,"Scouting":11470,"Organiz":11471,"satellites":11472,"Williams":11473,"Biology":11474,"Clearwire":11475,"Furniture":11476,"Luke":11477,"Maureen":11478,"splash":11479,"scrap":11480,"scratch":11481,"resistible":11482,"executive":11483,"upgrades":11484,"fulfillment":11485,"Susana":11486,"Verde":11487,"Vermont":11488,"stimulation":11489,"illustrated":11490,"mechanic":11491,"buffer":11492,"Understand":11493,"investigations":11494,"impressed":11495,"Reviews":11496,"669":11497,"Casino":11498,"Writ":11499,"rubber":11500,"opinions":11501,"cosplay":11502,"newspapers":11503,"map_assuan":11504,"Olympic":11505,"Olympia":11506,"Modern":11507,"Purple":11508,"Russian":11509,"fingertips":11510,"hesit":11511,"hesitate":11512,"sanitation":11513,"thickness":11514,"repeated":11515,"recipient":11516,"assured":11517,"anticipate":11518,"earthqu":11519,"delayed":11520,"athletic":11521,"publisher":11522,"Engineers":11523,"Engineering":11524,"demonstrated":11525,"neighborhoods":11526,"Circuit":11527,"Located":11528,"Payment":11529,"Winetricks":11530,"Investment":11531,"cognition":11532,"cognitive":11533,"workflows":11534,"Nevertheless":11535,"legislative":11536,"cylinders":11537,"journalist":11538,"Delphic":11539,"Delphine":11540,"occasionally":11541,"Videographers":11542,"Crypto":11543,"History":11544,"Oxford":11545,"Wildcats":11546,"fleet":11547,"festival":11548,"wipe":11549,"yogas":11550,"seasons":11551,"resolved":11552,"Armenia":11553,"advocated":11554,"Customer":11555,"Document":11556,"Glama":11557,"M4R":11558,"Malaysia":11559,"Vocal":11560,"dorf":11561,"inflamm":11562,"recruiting":11563,"praised":11564,"mythology":11565,"precedent":11566,"fragrances":11567,"Roofs":11568,"motorway":11569,"Atlanta":11570,"Important":11571,"vitamins":11572,"Following":11573,"triggered":11574,"Baltimore":11575,"Employ":11576,"Greece":11577,"Hamilton":11578,"Latinx":11579,"tactics":11580,"vacuum":11581,"incentives":11582,"alerts":11583,"aggressively":11584,"comedy":11585,"molecular":11586,"Therapy":11587,"dramatic":11588,"dramatically":11589,"pursue":11590,"Officers":11591,"Laser":11592,"Martin":11593,"RSG":11594,"Treaty":11595,"Tamarindus":11596,"mortg":11597,"rifice":11598,"apartments":11599,"Instagram":11600,"blanket":11601,"cultivated":11602,"IGHT":11603,"behaviors":11604,"administrative":11605,"transparent":11606,"Bullets":11607,"Castle":11608,"Gordon":11609,"HuellRe":11610,"NCAA":11611,"Nuovo":11612,"Pictures":11613,"SHU":11614,"WantDo":11615,"sarpa":11616,"secutive":11617,"quantity":11618,"branches":11619,"1970s":11620,"Challengers":11621,"Universal":11622,"Property":11623,"Environmental":11624,"mitigating":11625,"labeled":11626,"Crowd":11627,"Daley":11628,"MARTIN":11629,"fascin":11630,"mkdtemp":11631,"villages":11632,"vulner":11633,"wagen":11634,"inherent":11635,"proprietary":11636,"prestigious":11637,"phenomen":11638,"buffet":11639,"Complete":11640,"authors":11641,"invasion":11642,"flagstaff":11643,"Private":11644,"mushrooms":11645,"Drawers":11646,"analyses":11647,"ORIA":11648,"analyzing":11649,"compassionate":11650,"Administrator":11651,"Historic":11652,"victims":11653,"Benton":11654,"Cultural":11655,"Espresso":11656,"SLT":11657,"Sexy":11658,"WIMBoot":11659,"pacer":11660,"saddle":11661,"vibrant":11662,"annoying":11663,"alumni":11664,"comprising":11665,"explanation":11666,"encampments":11667,"Tribunal":11668,"organisms":11669,"Authority":11670,"burritos":11671,"genuine":11672,"Syria":11673,"territories":11674,"intruders":11675,"sophisticated":11676,"Agarwal":11677,"Certain":11678,"Impact":11679,"Nigel":11680,"Pokemon":11681,"Strauss":11682,"VITORIA":11683,"Young":11684,"breeze":11685,"eggs":11686,"ffective":11687,"globally":11688,"retrieval":11689,"leisure":11690,"streets":11691,"staple":11692,"entreprene":11693,"entitled":11694,"younger":11695,"negligence":11696,"emoji":11697,"resilient":11698,"desperately":11699,"suburbs":11700,"statistical":11701,"Participants":11702,"Football":11703,"Volkswagen":11704,"Objective":11705,"grocery":11706,"retrospective":11707,"Essentials":11708,"philosophy":11709,"pharmaceutical":11710,"Indonesia":11711,"Adobe":11712,"Cartier":11713,"Cologne":11714,"Etowah":11715,"EASY":11716,"Falcons":11717,"IITIO":11718,"IAPWS":11719,"Liquid":11720,"LUNs":11721,"LGBT":11722,"Neptune":11723,"Python":11724,"Peko":11725,"Parents":11726,"Schoen":11727,"Tichonice":11728,"UCSF":11729,"WITH":11730,"stomach":11731,"totems":11732,"asparagus":11733,"accompanied":11734,"agriculture":11735,"Thrivent":11736,"earliest":11737,"assaulted":11738,"predominantly":11739,"Heaselgrave":11740,"Proceedings":11741,"Manhattan":11742,"Acrobat":11743,"map_assuan_err":11744,"HuellReeds":11745,"MARTINVITORIA":11746,"!”":11747,"!).":11748,"%,":11749,")!":11750,".-":11751,"4G":11752,"420":11753,"410":11754,"4WD":11755,"53":11756,"525":11757,"79":11758,"8A":11759,"844":11760,"864":11761,"97":11762,":-":11763,"A1":11764,"AE":11765,"Aid":11766,"Ame":11767,"Action":11768,"Abr":11769,"Apost":11770,"Aging":11771,"A406":11772,"BB":11773,"BO":11774,"Bol":11775,"Bren":11776,"Bose":11777,"Bond":11778,"Bret":11779,"Batter":11780,"Blower":11781,"Binary":11782,"BHD":11783,"Bella":11784,"BUF":11785,"Boutique":11786,"Bauer":11787,"C1":11788,"Clo":11789,"Case":11790,"Cher":11791,"Cold":11792,"Carr":11793,"Cub":11794,"CIT":11795,"Cape":11796,"Cull":11797,"Clock":11798,"CCPI":11799,"CIPs":11800,"DH":11801,"Du":11802,"Dest":11803,"Dive":11804,"Dum":11805,"Dick":11806,"Dry":11807,"Dog":11808,"Dos":11809,"Dental":11810,"DAM":11811,"DNet":11812,"Doral":11813,"DGA":11814,"Danko":11815,"Est":11816,"Eve":11817,"Eld":11818,"Easter":11819,"Emir":11820,"Email":11821,"Emailing":11822,"FS":11823,"FU":11824,"Far":11825,"Fill":11826,"Fail":11827,"Field":11828,"Fla":11829,"Final":11830,"Fusion":11831,"FER":11832,"FLO":11833,"Fico":11834,"Fiction":11835,"GL":11836,"Gin":11837,"Gay":11838,"Gust":11839,"Gang":11840,"Gather":11841,"Golf":11842,"Greek":11843,"Gardens":11844,"Gabr":11845,"Han":11846,"Hit":11847,"Hom":11848,"Hous":11849,"Hair":11850,"Hours":11851,"Hott":11852,"Ian":11853,"Ivy":11854,"Jon":11855,"Jac":11856,"Jet":11857,"Jay":11858,"Jos":11859,"Jump":11860,"Jason":11861,"Jacqu":11862,"Ku":11863,"Kle":11864,"Kid":11865,"Kass":11866,"Krum":11867,"LI":11868,"LS":11869,"Len":11870,"Land":11871,"Lay":11872,"Lot":11873,"Lite":11874,"Lef":11875,"Lives":11876,"Lund":11877,"Laud":11878,"Lift":11879,"Langu":11880,"Lacs":11881,"MB":11882,"MV":11883,"MY":11884,"Mol":11885,"Mul":11886,"Might":11887,"Must":11888,"Match":11889,"MON":11890,"Making":11891,"Money":11892,"Maker":11893,"Moses":11894,"MHz":11895,"NS":11896,"NV":11897,"Na":11898,"Nom":11899,"Nav":11900,"Name":11901,"NAS":11902,"Nagar":11903,"Nico":11904,"Nevin":11905,"OP":11906,"Ot":11907,"Oct":11908,"Opt":11909,"OWE":11910,"Options":11911,"Others":11912,"PE":11913,"PN":11914,"Por":11915,"Pis":11916,"Pot":11917,"Pers":11918,"Pain":11919,"Pio":11920,"Poc":11921,"Pinterest":11922,"Penn":11923,"PLE":11924,"PCI":11925,"PUR":11926,"Papers":11927,"Pius":11928,"Preferences":11929,"QU":11930,"Rare":11931,"Rus":11932,"RES":11933,"Ranger":11934,"Retr":11935,"Rita":11936,"SK":11937,"Sas":11938,"Sne":11939,"Sul":11940,"Sha":11941,"Side":11942,"Song":11943,"Sark":11944,"Smas":11945,"SLE":11946,"SUN":11947,"Ta":11948,"Ten":11949,"Tes":11950,"Ted":11951,"Tent":11952,"Tot":11953,"Tag":11954,"Tap":11955,"Tys":11956,"Terr":11957,"Tetr":11958,"TPO":11959,"TUS_":11960,"Uribe":11961,"UAE":11962,"VEN":11963,"Vcure":11964,"Vari":11965,"Voting":11966,"Violet":11967,"WG":11968,"Wow":11969,"Wear":11970,"Wade":11971,"Wings":11972,"Wishing":11973,"WMA":11974,"Wheel":11975,"XX":11976,"Yet":11977,"Yur":11978,"Yelp":11979,"ZDNet":11980,"_f":11981,"_is":11982,"_CF":11983,"aesthetic":11984,"bust":11985,"bang":11986,"bours":11987,"bably":11988,"bills":11989,"bunk":11990,"bureau":11991,"cs":11992,"cig":11993,"cadd":11994,"couch":11995,"café":11996,"dé":11997,"drow":11998,"dread":11999,"dresser":12000,"eb":12001,"eous":12002,"eep":12003,"eath":12004,"ebay":12005,"fy":12006,"fts":12007,"faux":12008,"gig":12009,"gant":12010,"gown":12011,"gman":12012,"gau":12013,"glove":12014,"gene":12015,"gistry":12016,"gifts":12017,"glyph":12018,"hart":12019,"hors":12020,"hitch":12021,"hills":12022,"hanging":12023,"ij":12024,"iations":12025,"iPod":12026,"iPad":12027,"jac":12028,"jur":12029,"jum":12030,"jaw":12031,"jug":12032,"ki":12033,"ký":12034,"kan":12035,"kow":12036,"kok":12037,"kob":12038,"lc":12039,"lu":12040,"lers":12041,"lest":12042,"lvan":12043,"lord":12044,"lene":12045,"libraries":12046,"mere":12047,"mma":12048,"mary":12049,"mint":12050,"mater":12051,"melt":12052,"multim":12053,"nat":12054,"nab":12055,"nun":12056,"nest":12057,"nate":12058,"nod":12059,"oa":12060,"oz":12061,"oir":12062,"otom":12063,"oque":12064,"ography":12065,"oxy":12066,"pic":12067,"pens":12068,"pian":12069,"pakistan":12070,"rit":12071,"rhe":12072,"ray":12073,"rist":12074,"rage":12075,"rated":12076,"rors":12077,"rural":12078,"ripped":12079,"si":12080,"sq":12081,"sare":12082,"sip":12083,"saves":12084,"sque":12085,"sided":12086,"snood":12087,"tin":12088,"tan":12089,"tro":12090,"tut":12091,"tby":12092,"tire":12093,"tical":12094,"tied":12095,"tank":12096,"tuck":12097,"tires":12098,"tanks":12099,"tempor":12100,"tags":12101,"uish":12102,"von":12103,"vid":12104,"voc":12105,"vra":12106,"victor":12107,"vasprintf":12108,"wu":12109,"wat":12110,"wand":12111,"wip":12112,"wich":12113,"wake":12114,"wins":12115,"western":12116,"wifi":12117,"wheels":12118,"xx":12119,"xide":12120,"yond":12121,"zard":12122,"zek":12123,"zones":12124,"Čes":12125,"”),":12126,"”).":12127,"thy":12128,"thic":12129,"thol":12130,"thia":12131,"inis":12132,"inas":12133,"incess":12134,"insure":12135,"incomplete":12136,"inery":12137,"insect":12138,"inexpensive":12139,"inaccurate":12140,"insured":12141,"inaug":12142,"ani":12143,"anor":12144,"angr":12145,"erfield":12146,"onion":12147,"onder":12148,"reim":12149,"rene":12150,"remin":12151,"reject":12152,"reply":12153,"recover":12154,"reps":12155,"reproduce":12156,"recalls":12157,"reverb":12158,"remn":12159,"reporter":12160,"rebounds":12161,"thew":12162,"theft":12163,"theson":12164,"atig":12165,"orce":12166,"orals":12167,"orms":12168,"enix":12169,"enrich":12170,"esthe":12171,"essee":12172,"espres":12173,"alive":12174,"allev":12175,"alloy":12176,"isdict":12177,"isbury":12178,"toes":12179,"toys":12180,"tovi":12181,"toler":12182,"inge":12183,"inging":12184,"andiam":12185,"andran":12186,"edit":12187,"edia":12188,"editing":12189,"itic":12190,"itations":12191,"itious":12192,"itative":12193,"itarian":12194,"arom":12195,"arma":12196,"arise":12197,"arbit":12198,"argue":12199,"ofuel":12200,"asci":12201,"asshel":12202,"asailing":12203,"lee":12204,"leep":12205,"leash":12206,"leases":12207,"icately":12208,"stic":12209,"stell":12210,"rod":12211,"rogen":12212,"royal":12213,"elle":12214,"elic":12215,"elly":12216,"eldorf":12217,"enters":12218,"entity":12219,"ilion":12220,"ilage":12221,"ilance":12222,"ilater":12223,"aco":12224,"acement":12225,"oms":12226,"oming":12227,"omed":12228,"forgotten":12229,"semin":12230,"sects":12231,"sewing":12232,"secured":12233,"securities":12234,"veter":12235,"beck":12236,"beating":12237,"beings":12238,"beats":12239,"heim":12240,"adopt":12241,"adays":12242,"adverse":12243,"chen":12244,"chil":12245,"chard":12246,"chunk":12247,"chief":12248,"chilling":12249,"chamber":12250,"christ":12251,"owe":12252,"owed":12253,"idol":12254,"idation":12255,"idency":12256,"lymph":12257,"amid":12258,"amish":12259,"olm":12260,"igent":12261,"igenous":12262,"ims":12263,"imposed":12264,"ctive":12265,"verification":12266,"arest":12267,"usa":12268,"useless":12269,"abbre":12270,"absent":12271,"abnormal":12272,"otes":12273,"unis":12274,"unve":12275,"united":12276,"unately":12277,"unlaw":12278,"unfair":12279,"unauthorized":12280,"promo":12281,"procure":12282,"urt":12283,"urer":12284,"utilities":12285,"agers":12286,"agility":12287,"comforter":12288,"comfy":12289,"conv":12290,"conve":12291,"confin":12292,"confl":12293,"consume":12294,"conserve":12295,"confirms":12296,"conferences":12297,"concrete":12298,"suck":12299,"suits":12300,"sumed":12301,"logy":12302,"logos":12303,"trout":12304,"trike":12305,"traged":12306,"tribe":12307,"illes":12308,"illum":12309,"allies":12310,"alliances":12311,"apore":12312,"Theatre":12313,"TheEnd":12314,"embark":12315,"ifer":12316,"ifest":12317,"ifted":12318,"mover":12319,"moist":12320,"plies":12321,"deer":12322,"defe":12323,"delet":12324,"respects":12325,"ultr":12326,"ulsa":12327,"essence":12328,"keeper":12329,"hazard":12330,"explic":12331,"exchanges":12332,"exchanged":12333,"exterior":12334,"pean":12335,"peas":12336,"ighter":12337,"shi":12338,"shad":12339,"shame":12340,"shorter":12341,"shields":12342,"shirts":12343,"soar":12344,"sored":12345,"soaked":12346,"ateur":12347,"ategy":12348,"quire":12349,"queries":12350,"aint":12351,"ainted":12352,"ounces":12353,"antage":12354,"artistic":12355,"canvas":12356,"cannab":12357,"perks":12358,"perfection":12359,"odd":12360,"Thin":12361,"Three":12362,"Thunder":12363,"uments":12364,"ivor":12365,"ivis":12366,"ivable":12367,"romance":12368,"istle":12369,"actor":12370,"clips":12371,"willow":12372,"anybody":12373,"endum":12374,"noting":12375,"notified":12376,"notify":12377,"notification":12378,"notifications":12379,"teens":12380,"pole":12381,"poet":12382,"poem":12383,"pocr":12384,"poison":12385,"gring":12386,"grill":12387,"gravy":12388,"indis":12389,"indirect":12390,"indoor":12391,"indigenous":12392,"orted":12393,"omew":12394,"Infin":12395,"Influ":12396,"Instant":12397,"upscale":12398,"ideally":12399,"elled":12400,"dose":12401,"ipment":12402,"gearing":12403,"ineffective":12404,"workaround":12405,"oks":12406,"mathem":12407,"2025":12408,"2021":12409,"2022":12410,"formula":12411,"timber":12412,"timeline":12413,"uder":12414,"udas":12415,"udge":12416,"comply":12417,"iba":12418,"acht":12419,"achal":12420,"ached":12421,"dual":12422,"ichandran":12423,"boil":12424,"asting":12425,"asted":12426,"astically":12427,"lied":12428,"liver":12429,"isholm":12430,"ailable":12431,"spy":12432,"spell":12433,"spine":12434,"spite":12435,"spouse":12436,"spider":12437,"spilled":12438,"affl":12439,"affirm":12440,"deriv":12441,"gettime":12442,"getaway":12443,"izer":12444,"Anne":12445,"Anna":12446,"foster":12447,"foscam":12448,"epis":12449,"epic":12450,"epidem":12451,"creen":12452,"assing":12453,"assort":12454,"assists":12455,"tyard":12456,"disput":12457,"discard":12458,"disaster":12459,"disappoint":12460,"disappointment":12461,"dismissed":12462,"discounted":12463,"Wegman":12464,"somebody":12465,"preval":12466,"blow":12467,"blur":12468,"blame":12469,"partial":12470,"ensely":12471,"straw":12472,"strang":12473,"strangers":12474,"bru":12475,"brick":12476,"brake":12477,"braking":12478,"manship":12479,"mangal":12480,"manifest":12481,"fron":12482,"fraction":12483,"plements":12484,"noble":12485,"intermediate":12486,"interventions":12487,"helmet":12488,"190":12489,"19th":12490,"1949":12491,"herbs":12492,"crust":12493,"crine":12494,"crunch":12495,"craving":12496,"corn":12497,"correlation":12498,"corners":12499,"Chan":12500,"Chip":12501,"Champ":12502,"Chrome":12503,"Channel":12504,"Chisholm":12505,"themed":12506,"cury":12507,"curated":12508,"curtain":12509,"curious":12510,"cursor":12511,"curtains":12512,"ogenic":12513,"awed":12514,"offensive":12515,"thrive":12516,"Streng":12517,"Stuc":12518,"desc":12519,"angle":12520,"angel":12521,"angular":12522,"cier":12523,"custody":12524,"miners":12525,"chooses":12526,"woven":12527,"whatsoever":12528,"dragon":12529,"encer":12530,"tometry":12531,"sausage":12532,"bub":12533,"builder":12534,"visor":12535,"visibility":12536,"experiment":12537,"finals":12538,"sylvan":12539,"appet":12540,"taining":12541,"linear":12542,"supporter":12543,"Comed":12544,"Comment":12545,"Comforter":12546,"centuries":12547,"Negre":12548,"reads":12549,"merit":12550,"merely":12551,"mercy":12552,"backup":12553,"backbone":12554,"tons":12555,"sseldorf":12556,"ificent":12557,"ificates":12558,"topple":12559,"topping":12560,"Repe":12561,"lifting":12562,"lifted":12563,"pressures":12564,"righteous":12565,"energetic":12566,"relay":12567,"relate":12568,"undertake":12569,"underwent":12570,"undertaken":12571,"carri":12572,"inviting":12573,"invitations":12574,"sheer":12575,"Consum":12576,"Contract":12577,"Construction":12578,"ictly":12579,"Tran":12580,"Trou":12581,"Traffic":12582,"plicity":12583,"mones":12584,"monetary":12585,"requis":12586,"basics":12587,"startup":12588,"Alz":12589,"Alice":12590,"Almost":12591,"Alison":12592,"Albert":12593,"Alpha":12594,"Almighty":12595,"Aside":12596,"Assem":12597,"Asbury":12598,"goodness":12599,"lessWave":12600,"studied":12601,"studios":12602,"landing":12603,"Hezek":12604,"archive":12605,"condem":12606,"courtyard":12607,"belt":12608,"beloved":12609,"membuf":12610,"transmit":12611,"transplant":12612,"misses":12613,"ardstown":12614,"pursuit":12615,"obed":12616,"objection":12617,"osis":12618,"osate":12619,"detain":12620,"tower":12621,"Unique":12622,"Unified":12623,"Unfortunately":12624,"Admission":12625,"Adventure":12626,"Adults":12627,"develops":12628,"closet":12629,"Grill":12630,"Plumbing":12631,"Argos":12632,"chnology":12633,"solo":12634,"solic":12635,"instances":12636,"headphone":12637,"headshot":12638,"identical":12639,"programme":12640,"Prop":12641,"Products":12642,"Problem":12643,"Probably":12644,"profiles":12645,"Toilet":12646,"wrapping":12647,"bedspreads":12648,"shipment":12649,"ski":12650,"skip":12651,"plane":12652,"struck":12653,"Sean":12654,"Sebring":12655,"Sequo":12656,"qualifications":12657,"qualifies":12658,"ventures":12659,"occurren":12660,"extending":12661,"Encompass":12662,"arrivals":12663,"surplus":12664,"surveys":12665,"parad":12666,"Ext":12667,"Expo":12668,"Excell":12669,"Explain":12670,"veda":12671,"sumably":12672,"differently":12673,"realm":12674,"organise":12675,"legs":12676,"legacy":12677,"Goal":12678,"cares":12679,"complement":12680,"filter":12681,"filmed":12682,"locating":12683,"annah":12684,"freeze":12685,"oster":12686,"presenting":12687,"friendship":12688,"expired":12689,"elsius":12690,"openings":12691,"Bras":12692,"Bruder":12693,"15th":12694,"substance":12695,"cytometry":12696,"Prices":12697,"Prades":12698,"Defin":12699,"Deerfield":12700,"balaya":12701,"resulted":12702,"autistic":12703,"generations":12704,"generating":12705,"passports":12706,"metallic":12707,"Beth":12708,"Begins":12709,"Beyond":12710,"happily":12711,"advances":12712,"digits":12713,"bodily":12714,"grows":12715,"charitable":12716,"specials":12717,"specialty":12718,"122":12719,"ordering":12720,"founding":12721,"gliding":12722,"geranium":12723,"cutter":12724,"cutaneous":12725,"301":12726,"30am":12727,"Clare":12728,"tenant":12729,"Residents":12730,"Results":12731,"Teague":12732,"Tequila":12733,"statewide":12734,"loads":12735,"volumes":12736,"depot":12737,"depression":12738,"electro":12739,"elective":12740,"elections":12741,"electronics":12742,"electrification":12743,"cleaner":12744,"kinda":12745,"aiming":12746,"aimed":12747,"watercolor":12748,"photographic":12749,"viruses":12750,"limiting":12751,"limitation":12752,"wares":12753,"Appe":12754,"Approxim":12755,"sterling":12756,"porch":12757,"Attend":12758,"ICT":12759,"ICWG":12760,"classified":12761,"classification":12762,"Leg":12763,"burner":12764,"burned":12765,"burnt":12766,"burgring":12767,"directors":12768,"buyer":12769,"Isn":12770,"hygi":12771,"hybrid":12772,"hyrus":12773,"personalized":12774,"Affair":12775,"Affiliate":12776,"minds":12777,"mindful":12778,"placement":12779,"publications":12780,"Collabor":12781,"equitable":12782,"allowance":12783,"PhD":12784,"Phill":12785,"Phones":12786,"installs":12787,"Mantra":12788,"Managing":12789,"ienced":12790,"winners":12791,"Canfield":12792,"nedy":12793,"sensory":12794,"sensitivity":12795,"expectation":12796,"activated":12797,"activists":12798,"companions":12799,"1134":12800,"packaging":12801,"investments":12802,"imped":12803,"analog":12804,"Nov":12805,"lawn":12806,"lawyers":12807,"Boost":12808,"drying":12809,"ITY":12810,"beneath":12811,"Joh":12812,"Joyo":12813,"253":12814,"256":12815,"Maya":12816,"flowing":12817,"mpg":12818,"wallet":12819,"nightly":12820,"webinar":12821,"quicker":12822,"Megan":12823,"Mechan":12824,"Meyer":12825,"malicious":12826,"casual":12827,"casino":12828,"protects":12829,"proteins":12830,"democr":12831,"futur":12832,"favours":12833,"Nord":12834,"Parts":12835,"tribunal":12836,"mediator":12837,"audits":12838,"testimon":12839,"Share":12840,"pedestr":12841,"emailing":12842,"waive":12843,"severance":12844,"specifications":12845,"1000":12846,"Repulsa":12847,"faraz":12848,"icyandiam":12849,"dealers":12850,"defining":12851,"governing":12852,"Councilmembers":12853,"243":12854,"keyless":12855,"weights":12856,"weighted":12857,"breaker":12858,"Marco":12859,"Marcus":12860,"Marcos":12861,"cules":12862,"culature":12863,"ancesco":12864,"OST":12865,"casting":12866,"sunny":12867,"reasoning":12868,"reasonably":12869,"seasonal":12870,"competitor":12871,"Quit":12872,"HELL":12873,"circuits":12874,"screening":12875,"vibe":12876,"viated":12877,"Highly":12878,"Space":12879,"treats":12880,"treaty":12881,"Regul":12882,"learnt":12883,"Monique":12884,"barbe":12885,"baroque":12886,"diam":12887,"ordinance":12888,"traditions":12889,"problematic":12890,"Mini":12891,"Minn":12892,"Miner":12893,"Ministries":12894,"shortcut":12895,"networking":12896,"participant":12897,"broccol":12898,"humanity":12899,"otechnology":12900,"grades":12901,"Correspond":12902,"Cornell":12903,"hale":12904,"shoe":12905,"shock":12906,"discussing":12907,"Feed":12908,"Features":12909,"Samberg":12910,"fixture":12911,"garlic":12912,"respectful":12913,"copper":12914,"copies":12915,"copied":12916,"safari":12917,"combat":12918,"combines":12919,"combinations":12920,"Partovi":12921,"Suc":12922,"Subs":12923,"Suave":12924,"browsing":12925,"lateral":12926,"touching":12927,"stays":12928,"economically":12929,"ika":12930,"ikato":12931,"ikiped":12932,"contracted":12933,"contraction":12934,"discusses":12935,"Barthol":12936,"ENTS":12937,"referendum":12938,"delivering":12939,"clearance":12940,"Craft":12941,"Discover":12942,"Discovery":12943,"promoted":12944,"sentenced":12945,"excel":12946,"Carter":12947,"Carla":12948,"Carbon":12949,"gressor":12950,"branded":12951,"situated":12952,"APT":12953,"paperwork":12954,"wallpapers":12955,"ulls":12956,"excellence":12957,"worthwhile":12958,"impacts":12959,"repent":12960,"defensive":12961,"Petra":12962,"doubles":12963,"doubled":12964,"homme":12965,"homeless":12966,"representative":12967,"representatives":12968,"decorative":12969,"spotted":12970,"Anything":12971,"1962":12972,"1968":12973,"similarly":12974,"Implement":12975,"botan":12976,"sweat":12977,"initiate":12978,"reducing":12979,"IME":12980,"IMO":12981,"Something":12982,"genkernel":12983,"amongst":12984,"computing":12985,"ARD":12986,"penny":12987,"associates":12988,"cooler":12989,"traveling":12990,"traveled":12991,"Mobl":12992,"Moham":12993,"crying":12994,"ngorms":12995,"ridiculous":12996,"walkers":12997,"32KB":12998,"horse":12999,"horos":13000,"routinely":13001,"skincare":13002,"skinned":13003,"Finance":13004,"chains":13005,"immigr":13006,"endocrine":13007,"1987":13008,"recommendation":13009,"Geo":13010,"GeForce":13011,"Generations":13012,"Markets":13013,"send_":13014,"ennium":13015,"utils":13016,"speeds":13017,"Additional":13018,"Northwest":13019,"Cambridge":13020,"Devices":13021,"DirectX":13022,"Directors":13023,"compliment":13024,"modular":13025,"modification":13026,"washes":13027,"sesame":13028,"entirely":13029,"percentage":13030,"credibility":13031,"Everybody":13032,"housed":13033,"attractions":13034,"Holtby":13035,"couver":13036,"coupled":13037,"hamper":13038,"acquiring":13039,"acquainted":13040,"moderation":13041,"deeply":13042,"grandparents":13043,"grandmother":13044,"avoiding":13045,"avoided":13046,"Programming":13047,"Mediaocean":13048,"billions":13049,"billboard":13050,"freely":13051,"stacking":13052,"analyse":13053,"ATE":13054,"OverDrive":13055,"advisors":13056,"engineer":13057,"complexity":13058,"talked":13059,"recognised":13060,"recognizes":13061,"CPSC":13062,"McNevin":13063,"McMinn":13064,"Prepared":13065,"THER":13066,"sorts":13067,"taxis":13068,"professionally":13069,"Delivers":13070,"adjusted":13071,"adjustable":13072,"nutrient":13073,"nutritious":13074,"bulbs":13075,"bullying":13076,"trendy":13077,"centered":13078,"conditioned":13079,"Heritage":13080,"Server":13081,"disting":13082,"distances":13083,"lacking":13084,"parks":13085,"ylon":13086,"informative":13087,"influenced":13088,"chairman":13089,"measurements":13090,"hospitality":13091,"IGN":13092,"racism":13093,"consultations":13094,"clinically":13095,"comprehend":13096,"evaluated":13097,"regulate":13098,"regulatory":13099,"finishes":13100,"Seeger":13101,"exploitation":13102,"MPEG":13103,"assessing":13104,"assessed":13105,"assessable":13106,"Irma":13107,"Irish":13108,"Irwell":13109,"Portugal":13110,"innovations":13111,"neighbors":13112,"thankful":13113,"counteract":13114,"relaxed":13115,"holidays":13116,"targeting":13117,"repairing":13118,"Publishing":13119,"Powered":13120,"Salt":13121,"Salisbury":13122,"humming":13123,"imagination":13124,"optimal":13125,"optimistic":13126,"explaining":13127,"DAY":13128,"Genesis":13129,"Hoi":13130,"Merry":13131,"Ruby":13132,"strictly":13133,"broadcasters":13134,"498":13135,"49er":13136,"Activ":13137,"Actually":13138,"Educational":13139,"Finding":13140,"Jean":13141,"Jeeves":13142,"MEO":13143,"META":13144,"fancy":13145,"rails":13146,"titles":13147,"Artisan":13148,"Christianity":13149,"picturesque":13150,"birthdays":13151,"volunteered":13152,"suspended":13153,"Belle":13154,"Getting":13155,"NOTE":13156,"Strick":13157,"Strategy":13158,"Strictly":13159,"Speed":13160,"Volvo":13161,"fighting":13162,"pulp":13163,"seventh":13164,"contributions":13165,"contributed":13166,"departure":13167,"transferring":13168,"controlling":13169,"remodeled":13170,"tastefully":13171,"Microinsurance":13172,"SSL":13173,"squad":13174,"medications":13175,"transforming":13176,"limitations":13177,"accidental":13178,"Aggrav":13179,"Aggressor":13180,"ROI":13181,"bolt":13182,"cello":13183,"celain":13184,"lunchbox":13185,"snacks":13186,"surroundings":13187,"Define":13188,"Mrs":13189,"babe":13190,"threats":13191,"threaten":13192,"Interview":13193,"Interactive":13194,"Bluetooth":13195,"Ciné":13196,"Cinem":13197,"Listening":13198,"Surrey":13199,"folded":13200,"shake":13201,"shafts":13202,"exhibiting":13203,"clarity":13204,"clarifying":13205,"1958":13206,"appealing":13207,"Looks":13208,"suffered":13209,"documentation":13210,"neighboring":13211,"Washoes":13212,"447":13213,"Available":13214,"Milford":13215,"Outside":13216,"Spots":13217,"Tournament":13218,"gasoline":13219,"debate":13220,"deficit":13221,"deficits":13222,"partnered":13223,"diagnostic":13224,"Amazing":13225,"Bowen":13226,"lapse":13227,"laptops":13228,"nails":13229,"critically":13230,"validity":13231,"validated":13232,"Classmates":13233,"schedules":13234,"IVE":13235,"frequent":13236,"hurricane":13237,"paddocks":13238,"powder":13239,"boosting":13240,"conscience":13241,"survival":13242,"Certificate":13243,"Emmy":13244,"Metal":13245,"Singapore":13246,"Wool":13247,"Woakes":13248,"Wooster":13249,"Walker":13250,"massage":13251,"nurtured":13252,"nonetheless":13253,"tendencies":13254,"tailor":13255,"intrig":13256,"accomplished":13257,"extracts":13258,"extracted":13259,"teenage":13260,"positively":13261,"Organic":13262,"5130":13263,"Assess":13264,"Fortunately":13265,"GAICWG":13266,"Matheson":13267,"Older":13268,"kosher":13269,"sincer":13270,"samples":13271,"eliminating":13272,"complications":13273,"execute":13274,"executives":13275,"shaping":13276,"worrying":13277,"Thoughts":13278,"fulfilling":13279,"straints":13280,"Choosing":13281,"Traditional":13282,"Experienced":13283,"SuperView":13284,"LDP":13285,"LDS":13286,"Schuble":13287,"divorce":13288,"navigate":13289,"radical":13290,"atinum":13291,"illustrate":13292,"indication":13293,"indicates":13294,"synthetic":13295,"synthesis":13296,"Underwood":13297,"scheduling":13298,"Brevard":13299,"CCTV":13300,"Casa":13301,"Liter":13302,"NYSE":13303,"Rahm":13304,"dialog":13305,"hung":13306,"hunger":13307,"punching":13308,"rubbed":13309,"assembl":13310,"assemble":13311,"stakeholder":13312,"modified":13313,"hawks":13314,"coordinators":13315,"variable":13316,"Prerequisites":13317,"Meeting":13318,"map_gcry":13319,"Calendar":13320,"Domain":13321,"Skype":13322,"Users":13323,"fingers":13324,"hesive":13325,"patches":13326,"southeast":13327,"scores":13328,"onomic":13329,"agent_":13330,"restored":13331,"wealthy":13332,"institution":13333,"publishers":13334,"acceleration":13335,"accelerated":13336,"Philippines":13337,"citizen":13338,"Circular":13339,"Circuits":13340,"Fisheries":13341,"Kennedy":13342,"Nurburgring":13343,"Safe":13344,"Wilde":13345,"fifth":13346,"gateway":13347,"segments":13348,"cherry":13349,"conclude":13350,"concluded":13351,"Investig":13352,"spinach":13353,"pregnant":13354,"Chatting":13355,"journalists":13356,"Delphi":13357,"bowlers":13358,"accommodation":13359,"Bedspreads":13360,"Facil":13361,"Illness":13362,"Knowledge":13363,"Opener":13364,"PIco":13365,"Retail":13366,"Sarah":13367,"Sarfaraz":13368,"Tennessee":13369,"Waikato":13370,"bells":13371,"femin":13372,"grove":13373,"hallway":13374,"killings":13375,"ratings":13376,"yogurt":13377,"negotiation":13378,"negotiations":13379,"fundament":13380,"basketball":13381,"advocacy":13382,"Keeping":13383,"Customers":13384,"Gateway":13385,"Himachal":13386,"Jerry":13387,"Jersey":13388,"M4A":13389,"PCs":13390,"Townsend":13391,"cottages":13392,"pilot":13393,"pilgr":13394,"sadness":13395,"script":13396,"leaflets":13397,"constructed":13398,"embracing":13399,"quotation":13400,"Inclusion":13401,"Includes":13402,"coalition":13403,"preceding":13404,"motivated":13405,"scrolling":13406,"Importance":13407,"Düsseldorf":13408,"Darlene":13409,"IFA":13410,"Number":13411,"Vancouver":13412,"binding":13413,"gallery":13414,"sourced":13415,"tagged":13416,"replacement":13417,"consulted":13418,"resorts":13419,"shyness":13420,"shutdown":13421,"Therapeutic":13422,"Thinking":13423,"crashes":13424,"highlighted":13425,"Commercial":13426,"cheapest":13427,"Protect":13428,"penalties":13429,"Motorworld":13430,"Celebrating":13431,"Creations":13432,"Elementary":13433,"Girls":13434,"Half":13435,"Halsey":13436,"Handmade":13437,"Large":13438,"Lasers":13439,"Munger":13440,"Miramar":13441,"Mirror":13442,"Natureview":13443,"jackpot":13444,"melan":13445,"melted":13446,"scented":13447,"instructional":13448,"abdominus":13449,"Install":13450,"encrypted":13451,"prescribing":13452,"architecture":13453,"succeeded":13454,"Claims":13455,"Telegraph":13456,"facilitate":13457,"involvement":13458,"Laurel":13459,"maximize":13460,"distinctive":13461,"administrators":13462,"obsessed":13463,"transparency":13464,"enthusiasts":13465,"Cowley":13466,"Cowcadd":13467,"Gorilla":13468,"Louise":13469,"STATUS_":13470,"Wallpaper":13471,"liberty":13472,"liberals":13473,"sofa":13474,"refinement":13475,"ioneer":13476,"prisoners":13477,"geographical":13478,"collision":13479,"await":13480,"Islamic":13481,"confession":13482,"circulation":13483,"suspend2":13484,"neoconservative":13485,"neoconservatives":13486,"720p":13487,"Cabins":13488,"Consider":13489,"Etters":13490,"Flash":13491,"Greens":13492,"Greivis":13493,"Kristol":13494,"Mandeep":13495,"Message":13496,"Mountain":13497,"Mixed":13498,"Posada":13499,"Ultim":13500,"bacteria":13501,"knife":13502,"mutual":13503,"wisdom":13504,"anonymous":13505,"revised":13506,"alleged":13507,"seeded":13508,"olarships":13509,"abundant":13510,"converting":13511,"exploring":13512,"exploration":13513,"worries":13514,"worried":13515,"polyester":13516,"Innovation":13517,"comparison":13518,"duvet":13519,"duvets":13520,"brushes":13521,"1950s":13522,"criminals":13523,"delighted":13524,"smiths":13525,"Enhanced":13526,"metabolic":13527,"metabolism":13528,"photographs":13529,"landscaped":13530,"Carolina":13531,"destroyed":13532,"Georgia":13533,"judgments":13534,"Architecture":13535,"paddockplants":13536,"minimalist":13537,"algorithms":13538,"Awesome":13539,"Axar":13540,"Aquatics":13541,"BTC":13542,"Events":13543,"Equipment":13544,"Factors":13545,"HGTV":13546,"Multiple":13547,"Marriage":13548,"Pavilion":13549,"Ravichandran":13550,"Renew":13551,"Target":13552,"cropping":13553,"drove":13554,"dumping":13555,"lilies":13556,"pouring":13557,"tubes":13558,"retracement":13559,"enquiry":13560,"arrested":13561,"stairs":13562,"championship":13563,"prosper":13564,"congressman":13565,"deemed":13566,"permanent":13567,"grafting":13568,"affords":13569,"Answer":13570,"franchise":13571,"minerals":13572,"Travel":13573,"Toshiba":13574,"summarized":13575,"legendary":13576,"Automation":13577,"hypnosis":13578,"traumatic":13579,"practitioner":13580,"Individual":13581,"Survivor":13582,"Athens":13583,"Against":13584,"Bobcats":13585,"DEI":13586,"Eyepiece":13587,"Gallery":13588,"HBV":13589,"Jammers":13590,"Papin":13591,"RCX":13592,"Tickets":13593,"Various":13594,"caviar":13595,"threshold":13596,"refrig":13597,"reversible":13598,"enforcement":13599,"stereo":13600,"prodigal":13601,"antimicrobial":13602,"overwhelming":13603,"brilliant":13604,"manipulation":13605,"crawfish":13606,"destruction":13607,"ceremonies":13608,"Andrea":13609,"obstacles":13610,"breathe":13611,"borrowing":13612,"browsers":13613,"Crafts":13614,"Offering":13615,"tremendous":13616,"subscribers":13617,"terrorist":13618,"Vegetable":13619,"8343":13620,"Athlet":13621,"Basketball":13622,"Cairngorms":13623,"Emergency":13624,"EARS":13625,"HGH191AA":13626,"Jamaica":13627,"Kumar":13628,"OGG":13629,"Powell":13630,"Rudy":13631,"Safety":13632,"Template":13633,"Tankardstown":13634,"Wadell":13635,"WARRAN":13636,"Yahoo":13637,"ZAYN":13638,"Zephyrus":13639,"cartilage":13640,"gpg":13641,"pamper":13642,"ramekins":13643,"vapor":13644,"anxious":13645,"restricted":13646,"rechargeable":13647,"orphanage":13648,"veggies":13649,"charming":13650,"amendments":13651,"ambitious":13652,"prostatitis":13653,"deposits":13654,"exemptions":13655,"inevitable":13656,"sponsored":13657,"religion":13658,"memorable":13659,"Argentina":13660,"paragliding":13661,"glimpse":13662,"Clarkson":13663,"Afghan":13664,"Regardless":13665,"Ambassador":13666,"Paraglider":13667,"Competition":13668,"immortal":13669,"CrowdRise":13670,"Bentonville":13671,"entrepreneurs":13672,"LGBTQ":13673,"Amewu":13674,"Abraham":13675,"Battery":13676,"Dosha":13677,"Emirates":13678,"Failure":13679,"Gustavo":13680,"Gabriel":13681,"Homes":13682,"Krumlov":13683,"Lundgren":13684,"Lauder":13685,"Nicole":13686,"Ott":13687,"Pisces":13688,"Pennsylvan":13689,"Sulky":13690,"Sarkisian":13691,"Smasher":13692,"Tesla":13693,"Tysons":13694,"Tetrick":13695,"Vcuregistry":13696,"Wingscapes":13697,"_CFLAGS":13698,"bureaucr":13699,"glyphosate":13700,"jurisdict":13701,"multimedia":13702,"nodded":13703,"ritual":13704,"saree":13705,"Český":13706,"reimburse":13707,"reminis":13708,"espresso":13709,"ascii":13710,"asshelp":13711,"abbreviated":13712,"illumination":13713,"TheEndlessWave":13714,"explicit":13715,"indirectly":13716,"Stucco":13717,"Negreira":13718,"Consumers":13719,"Assembly":13720,"Hezekiah":13721,"Sequoia":13722,"Pradesh":13723,"Approximately":13724,"Affairs":13725,"Joyoshare":13726,"icyandiamide":13727,"HELLOWE":13728,"ikipedia":13729,"Bartholomew":13730,"immigrant":13731,"Aggravated":13732,"map_gcry_err":13733,"Cowcadden":13734,"Pennsylvania":13735,"\")":13736,"\"-":13737,"\";":13738,"''":13739,"(\"":13740,"(~":13741,")?":13742,"->":13743,".),":13744,"1A":13745,"114":13746,"2K":13747,"2S":13748,"210":13749,"216":13750,"320":13751,"360":13752,"3pm":13753,"4Z":13754,"58":13755,"5x":13756,"512":13757,"5000":13758,"67":13759,"68":13760,"650":13761,"7D":13762,"91":13763,"920":13764,":).":13765,"=\"":13766,">>":13767,"?\"":13768,"AF":13769,"AG":13770,"Ave":13771,"Aim":13772,"Ane":13773,"Ald":13774,"Agr":13775,"Age":13776,"Abs":13777,"Abroad":13778,"AAP":13779,"Agave":13780,"ABA":13781,"AUT":13782,"Aero":13783,"Ayur":13784,"BG":13785,"Bn":13786,"Bour":13787,"Bant":13788,"Bip":13789,"Bok":13790,"Bach":13791,"Bound":13792,"Bian":13793,"Border":13794,"BIN":13795,"Bison":13796,"BDI":13797,"Billing":13798,"Baham":13799,"BSky":13800,"BUT":13801,"BHK":13802,"Blocker":13803,"CV":13804,"Cit":13805,"Cay":13806,"Chave":13807,"Cod":13808,"Could":13809,"Catch":13810,"Cards":13811,"Cash":13812,"Cah":13813,"Cost":13814,"Clevel":13815,"Cris":13816,"Close":13817,"Cares":13818,"Cald":13819,"CAND":13820,"C400":13821,"CMOS":13822,"Coupon":13823,"Carson":13824,"Cudas":13825,"Celsius":13826,"CAPT":13827,"DD":13828,"DF":13829,"DW":13830,"Dam":13831,"Date":13832,"Dire":13833,"Dong":13834,"Dix":13835,"DIT":13836,"DIS":13837,"Dale":13838,"Diam":13839,"Duff":13840,"Dinner":13841,"Deter":13842,"Dirty":13843,"Ef":13844,"Ek":13845,"Eile":13846,"Edel":13847,"Estate":13848,"Emot":13849,"ECP":13850,"ECN":13851,"Ebol":13852,"EBay":13853,"Especially":13854,"F1":13855,"FK":13856,"FR":13857,"Fro":13858,"Fel":13859,"Fay":13860,"Fut":13861,"Fem":13862,"Ful":13863,"Fell":13864,"FAM":13865,"Falk":13866,"Finger":13867,"FROM":13868,"GF":13869,"GR":13870,"Gb":13871,"Gs":13872,"Gro":13873,"Gig":13874,"Gide":13875,"Gary":13876,"Greg":13877,"Gender":13878,"GIS":13879,"Glor":13880,"Gmail":13881,"Grey":13882,"GRAM":13883,"Ginger":13884,"Gourmet":13885,"Gandhinagar":13886,"HT":13887,"HU":13888,"Ha":13889,"Hur":13890,"Hart":13891,"Hod":13892,"Hong":13893,"Hadd":13894,"Hitch":13895,"Harm":13896,"HIC":13897,"Hiring":13898,"Hanger":13899,"Huge":13900,"Hundred":13901,"Harris":13902,"Hannah":13903,"IX":13904,"Ig":13905,"Iow":13906,"Icel":13907,"ILY":13908,"Irene":13909,"JE":13910,"JT":13911,"Ja":13912,"Jim":13913,"Jade":13914,"Job":13915,"Jane":13916,"Juan":13917,"Jlc":13918,"KS":13919,"Kh":13920,"Ker":13921,"Kat":13922,"Kent":13923,"Kay":13924,"Kim":13925,"Kul":13926,"Kong":13927,"Kry":13928,"Kors":13929,"Kob":13930,"Karen":13931,"Kitchens":13932,"LC":13933,"Lil":13934,"Lam":13935,"Lang":13936,"Lau":13937,"Lax":13938,"LES":13939,"Luck":13940,"Lights":13941,"Llan":13942,"LANL":13943,"Lavender":13944,"LISH":13945,"MN":13946,"Mt":13947,"Mad":13948,"Mam":13949,"Mur":13950,"Mort":13951,"Mail":13952,"Mover":13953,"Mang":13954,"Mouse":13955,"Move":13956,"Matter":13957,"Minal":13958,"Maps":13959,"Melf":13960,"Macy":13961,"Mood":13962,"MER":13963,"MRS":13964,"Masks":13965,"MENTS":13966,"NI":13967,"NJ":13968,"NK":13969,"Ni":13970,"Nat":13971,"Nad":13972,"Niel":13973,"Nik":13974,"NCT":13975,"NCB":13976,"NESS":13977,"Nero":13978,"NASC":13979,"NFL":13980,"OV":13981,"Ow":13982,"Oreg":13983,"OTA":13984,"OTE":13985,"Pi":13986,"Pel":13987,"Pil":13988,"Pag":13989,"Pup":13990,"Pure":13991,"Pep":13992,"Paw":13993,"Path":13994,"PIC":13995,"Punch":13996,"Push":13997,"POR":13998,"PLAC":13999,"Pioneer":14000,"PDF":14001,"Q4":14002,"RF":14003,"Ry":14004,"Ron":14005,"Ric":14006,"Ram":14007,"Rim":14008,"Rod":14009,"Rust":14010,"Rice":14011,"Race":14012,"Rick":14013,"Ruch":14014,"Rasp":14015,"Rachel":14016,"Ronda":14017,"RAD":14018,"RIGHT":14019,"SD":14020,"SF":14021,"SI":14022,"SP":14023,"Sz":14024,"Ses":14025,"Sit":14026,"Smo":14027,"Ske":14028,"Sust":14029,"Sure":14030,"Scal":14031,"Shad":14032,"SID":14033,"Saud":14034,"Sork":14035,"Saving":14036,"Sword":14037,"Sale":14038,"Scale":14039,"Slate":14040,"Slots":14041,"SNL":14042,"Saying":14043,"Scapes":14044,"Sleep":14045,"TB":14046,"TY":14047,"Ti":14048,"Tex":14049,"Table":14050,"Tip":14051,"Tav":14052,"Text":14053,"Twin":14054,"Tye":14055,"TER":14056,"Terror":14057,"TION":14058,"Taled":14059,"TRO":14060,"UD":14061,"UE":14062,"UG":14063,"Ub":14064,"Usu":14065,"User":14066,"Uber":14067,"VM":14068,"VN":14069,"Vod":14070,"VIO":14071,"Vote":14072,"Vinn":14073,"Vincent":14074,"VERY":14075,"VICT":14076,"WC":14077,"Wan":14078,"Wes":14079,"Wol":14080,"Ware":14081,"Wake":14082,"Watt":14083,"WHE":14084,"WMD":14085,"Wonder":14086,"XD":14087,"Xak":14088,"X4Z":14089,"Yere":14090,"Yog":14091,"YES":14092,"Zh":14093,"Zor":14094,"Zacks":14095,"Zombie":14096,"Zanz":14097,"].":14098,"_a":14099,"_t":14100,"_get":14101,"_file":14102,"_secure":14103,"_write":14104,"_status":14105,"_assuan":14106,"_string":14107,"ael":14108,"abe":14109,"aver":14110,"aide":14111,"aired":14112,"aesthe":14113,"bou":14114,"bis":14115,"boun":14116,"bach":14117,"bsp":14118,"bins":14119,"bump":14120,"bending":14121,"bids":14122,"cc":14123,"cest":14124,"cod":14125,"cere":14126,"cence":14127,"cia":14128,"ccr":14129,"capp":14130,"ccer":14131,"cub":14132,"citing":14133,"cada":14134,"cagre":14135,"cads":14136,"coupon":14137,"cactus":14138,"dl":14139,"dal":14140,"dare":14141,"dun":14142,"ders":14143,"dum":14144,"dine":14145,"dich":14146,"dile":14147,"damp":14148,"dense":14149,"dental":14150,"dots":14151,"dling":14152,"dull":14153,"drew":14154,"dangers":14155,"delling":14156,"dairy":14157,"dicyandiamide":14158,"eing":14159,"eigh":14160,"ether":14161,"ego":14162,"echo":14163,"eze":14164,"eager":14165,"fc":14166,"fed":14167,"fid":14168,"fate":14169,"ffe":14170,"fib":14171,"fsee":14172,"fave":14173,"fume":14174,"fik":14175,"fiat":14176,"fetal":14177,"fennel":14178,"gel":14179,"gust":14180,"gical":14181,"gang":14182,"gian":14183,"gplac":14184,"gae":14185,"gourmet":14186,"hd":14187,"hp":14188,"hion":14189,"hap":14190,"hort":14191,"hide":14192,"hell":14193,"hens":14194,"hug":14195,"hats":14196,"hra":14197,"hints":14198,"iac":14199,"iors":14200,"iages":14201,"ihood":14202,"iLink":14203,"itol":14204,"ja":14205,"js":14206,"jro":14207,"jah":14208,"jelly":14209,"kon":14210,"kil":14211,"kton":14212,"ktra":14213,"knit":14214,"kansas":14215,"lb":14216,"liv":14217,"lak":14218,"lace":14219,"lors":14220,"loft":14221,"lately":14222,"lugg":14223,"mv":14224,"mity":14225,"mish":14226,"mits":14227,"mound":14228,"mens":14229,"mold":14230,"mapp":14231,"mash":14232,"mmet":14233,"mask":14234,"mallows":14235,"migr":14236,"moles":14237,"minton":14238,"nity":14239,"narr":14240,"nload":14241,"nasty":14242,"nbsp":14243,"ole":14244,"och":14245,"oce":14246,"oke":14247,"pu":14248,"px":14249,"pes":14250,"pap":14251,"phas":14252,"paw":14253,"pins":14254,"pub":14255,"puff":14256,"pads":14257,"paved":14258,"q345b":14259,"rt":14260,"ril":14261,"rab":14262,"rie":14263,"rack":14264,"rav":14265,"raf":14266,"rink":14267,"rays":14268,"rhin":14269,"roux":14270,"ruling":14271,"sap":14272,"sigh":14273,"sive":14274,"sard":14275,"sions":14276,"sail":14277,"sway":14278,"sake":14279,"sings":14280,"soup":14281,"slim":14282,"sley":14283,"slic":14284,"slop":14285,"scared":14286,"tel":14287,"tid":14288,"tul":14289,"tort":14290,"tions":14291,"tts":14292,"txt":14293,"tilt":14294,"tension":14295,"tiles":14296,"tweet":14297,"uct":14298,"upl":14299,"uco":14300,"ugu":14301,"vro":14302,"vom":14303,"vation":14304,"vess":14305,"vans":14306,"vlog":14307,"vandal":14308,"wam":14309,"wir":14310,"wart":14311,"wage":14312,"wines":14313,"wished":14314,"waves":14315,"wides":14316,"winkle":14317,"w447":14318,"wikipedia":14319,"xia":14320,"xtry":14321,"xtract":14322,"yon":14323,"ype":14324,"yang":14325,"ygen":14326,"yummy":14327,"zombie":14328,"′′":14329,"thou":14330,"thyo":14331,"inth":14332,"inate":14333,"incial":14334,"infin":14335,"inating":14336,"inational":14337,"inject":14338,"instru":14339,"independ":14340,"inhot":14341,"incorrect":14342,"indefinitely":14343,"inhib":14344,"inappropriate":14345,"inquir":14346,"invisible":14347,"ano":14348,"anem":14349,"annot":14350,"ango":14351,"anax":14352,"anabol":14353,"erie":14354,"erra":14355,"onies":14356,"onia":14357,"rev":14358,"reel":14359,"reper":14360,"rebo":14361,"recess":14362,"rection":14363,"rethink":14364,"retract":14365,"recount":14366,"redesigned":14367,"rebuilt":14368,"reactive":14369,"reproductive":14370,"recreation":14371,"revel":14372,"refunds":14373,"recycling":14374,"reboot":14375,"replied":14376,"reCAPT":14377,"thedr":14378,"atro":14379,"atus":14380,"atile":14381,"atoid":14382,"outr":14383,"orte":14384,"orph":14385,"orating":14386,"enz":14387,"ench":14388,"enlar":14389,"encount":14390,"environ":14391,"enzy":14392,"enrolled":14393,"esp":14394,"esare":14395,"escop":14396,"ales":14397,"alab":14398,"alarms":14399,"isy":14400,"isal":14401,"isive":14402,"isional":14403,"isky":14404,"isascii":14405,"tod":14406,"tog":14407,"tore":14408,"toire":14409,"toll":14410,"toff":14411,"to_assuan":14412,"anders":14413,"edging":14414,"iti":14415,"itin":14416,"itto":14417,"itures":14418,"arn":14419,"aria":14420,"aroma":14421,"ofix":14422,"asi":14423,"asm":14424,"asy":14425,"asis":14426,"asser":14427,"asbes":14428,"lean":14429,"lebo":14430,"leaked":14431,"league":14432,"lemn":14433,"icion":14434,"icum":14435,"icating":14436,"iona":14437,"ionism":14438,"stin":14439,"strom":14440,"stitch":14441,"stately":14442,"starter":14443,"staking":14444,"stares":14445,"rocket":14446,"rogue":14447,"roasted":14448,"elong":14449,"elastic":14450,"elihood":14451,"ente":14452,"entities":14453,"ilz":14454,"ilical":14455,"acre":14456,"acal":14457,"acity":14458,"accent":14459,"acular":14460,"accustom":14461,"aculate":14462,"omla":14463,"forgot":14464,"forged":14465,"forcing":14466,"sec":14467,"seal":14468,"seize":14469,"sevent":14470,"seized":14471,"sealed":14472,"vet":14473,"vex":14474,"beef":14475,"bearing":14476,"beets":14477,"behold":14478,"bextract":14479,"hex":14480,"heal":14481,"hect":14482,"heap":14483,"heating":14484,"ading":14485,"adap":14486,"adher":14487,"adoc":14488,"adium":14489,"admitted":14490,"admissions":14491,"chin":14492,"chur":14493,"chut":14494,"chap":14495,"chrom":14496,"chances":14497,"chron":14498,"owitz":14499,"iden":14500,"idar":14501,"idas":14502,"idisation":14503,"etsy":14504,"ettes":14505,"amic":14506,"amph":14507,"amina":14508,"ambul":14509,"amateur":14510,"ols":14511,"olas":14512,"olia":14513,"igi":14514,"ima":14515,"imen":14516,"imination":14517,"imental":14518,"implants":14519,"imbalance":14520,"impossibility":14521,"imperative":14522,"implies":14523,"implements":14524,"verte":14525,"verbs":14526,"withstand":14527,"arel":14528,"usation":14529,"uscript":14530,"abo":14531,"abur":14532,"abused":14533,"oton":14534,"oters":14535,"uni":14536,"undo":14537,"unlike":14538,"undel":14539,"unted":14540,"unavailable":14541,"unclean":14542,"uncertain":14543,"unsuccessful":14544,"unlimited":14545,"unpublished":14546,"unfold":14547,"unbelie":14548,"unsigned":14549,"unpleasant":14550,"unmatched":14551,"unleash":14552,"unilater":14553,"whine":14554,"whisk":14555,"prot":14556,"prohib":14557,"proportion":14558,"projection":14559,"proclaimed":14560,
[...]
