<UNK>
<PAD>
<s>
<s/>
!
"
#
$
%
&
'
(
)
*
+
,
-
.
/
0
1
2
3
4
5
6
7
8
9
:
;
<
=
>
?
@
A
B
C
D
E
F
G
H
I
J
K
L
M
N
O
P
Q
R
S
T
U
V
W
X
Y
Z
[
\
]
_
`
a
b
c
d
e
f
g
h
i
j
k
l
m
n
o
p
q
r
s
t
u
v
w
x
y
z
|
~

¢
£
©
«
­
®
°
±
·
»
¿
É
×
à
á
â
ã
ä
å
æ
ç
è
é
ê
ë
í
ñ
ò
ó
ô
ö
ú
û
ü
ý
ć
Č
Đ
đ
ų
ȏ
́
̈
Ι
Ω
α
ạ
ế
ệ
ố
ộ
ờ
​
‐
–
—
‘
’
“
”
„
†
•
′
€
₹
←
↑
中
他
以
假
到
勇
吒
哪
囉
國
夏
夷
威
己
希
心
我
所
敢
是
望
渡
玩
的
神
童
耍
能
自
話
讓
贈
走
路
開
가
계
국
글
급
내
는
니
다
단
데
드
랜
로
모
벌
브
서
션
수
쉐
에
외
요
용
운
위
을
이
인
장
좌
지
집
출
크
파
페
평
품
필
한
합
해
화
�
😉
🙁
🙂
##t
##a
##i
##r
##x
##p
##l
##o
##d
##e
##m
##n
##c
##g
##u
##s
##f
##y
##k
##h
##b
##N
##D
##v
##U
##w
##é
##B
##H
##O
##z
##L
##W
##G
##2
##5
##C
##T
##R
##I
##P
##F
##1
##8
##0
##A
##q
##S
##M
##)
##,
##3
##7
##J
##E
##Q
##K
##V
##_
##6
##j
##!
##9
##X
##4
##"
##Z
###
##/
##“
##-
##집
##합
##니
##다
##:
##以
##讓
##他
##到
##夏
##威
##夷
##渡
##假
##囉
##.
##ñ
##>
##'
##Y
##ạ
##%
##?
##ệ
##à
##á
##국
##인
##Ι
##|
##ü
##–
##É
##Ω
##&
##ộ
##ö
##;
##크
##쉐
##이
##드
##ë
##ä
##장
##품
##\
##*
##ó
##]
##ú
##운
##데
##션
##吒
##是
##中
##國
##神
##話
##的
##童
##ç
##ô
##ế
##ờ
##$
##(
##â
##”
##평
##단
##을
##ê
##ò
##è
##•
##~
##ý
##′
##å
##希
##望
##能
##開
##心
##玩
##耍
##í
##’
##勇
##敢
##走
##自
##己
##路
##—
##ć
##ų
##ố
##해
##서
##는
##내
##+
##급
##ã
##계
##좌
##가
##요
##û
##£
##ȏ
##랜
##에
##출
##용
##로
##벌
##æ
##he
##in
##er
the
##on
##nd
##at
##es
##or
##ou
##en
##ing
##ed
##it
##an
and
to
##al
##ar
in
of
##re
##is
##ic
##ion
##om
##le
##as
th
##ent
##el
##il
you
##ro
##et
##st
##ct
is
for
##ve
##ur
on
be
re
##ut
##ot
##ly
##ow
##id
##ay
##ce
##ith
##ation
##ig
##ol
with
##ch
##ad
##am
st
that
##ir
##ers
##se
pro
The
##im
it
an
##ess
##ver
al
as
##ul
or
##ill
con
##ter
are
com
ha
wh
##ra
##oo
##pp
##ge
your
##ab
##est
##ak
##ate
at
##her
fr
##igh
##ck
##um
##if
##us
we
ne
ex
##un
##ld
##pe
##em
##ist
##iv
se
de
##ain
su
##ant
##ort
can
##ity
have
sh
##ment
##ive
##os
##art
##ust
##ies
##ore
by
##op
will
this
from
##ight
##th
not
##ie
was
##all
ch
##ome
en
##ard
##our
##ould
##ud
##rou
pl
##ork
##ear
##and
##ci
##per
##ell
so
##ost
all
us
ab
ad
Th
##od
##nt
##out
##qu
pr
he
##ally
##age
comp
##ect
##ine
##able
##ice
##gh
</
##ide
tr
##ake
has
##ag
do
##ure
##ib
##ind
##ions
res
##pt
In
##ac
##one
our
##orm
up
cl
##ast
20
me
##cc
##so
cont
##ook
##ff
le
their
##ack
##ime
whe
out
##ood
##ite
##ip
##ther
##ous
##ich
##ated
##ations
##ail
##ik
##du
##iz
lo
##ence
##ry
inc
##ance
but
##mp
one
int
app
##act
more
work
qu
##erv
##ong
##form
any
man
##og
##ere
time
##ents
##ans
they
St
##ace
##ick
sp
##ame
my
##fer
##ord
We
##ep
##reat
##ach
##ia
also
##ely
fe
##ile
dis
##ign
te
which
It
ev
##ase
##ount
who
##ary
##ire
##ue
about
##ark
##ike
##are
This
##ap
##ction
per
##ult
get
##lo
##ree
##ber
You
##ition
go
##ens
other
part
##av
new
##gr
##ish
##ical
##ors
year
prov
##ass
spe
un
need
hel
them
if
##lic
##now
##ings
pe
##ays
ar
acc
pre
##ub
Ch
##very
##vel
some
over
comm
201
inter
##pl
ag
would
##te
##cial
like
its
may
##ink
sa
##int
incl
19
imp
just
##ial
##ond
help
there
produ
##au
serv
been
##rough
when
than
##ade
ro
If
##wn
##nder
know
Al
make
##ose
##ices
rec
use
includ
off
##iew
am
into
des
##ning
##ople
fir
how
col
sc
##ang
##ough
ve
##ov
##ery
##ru
what
##cess
##ons
##ild
##ound
exper
add
##pr
##ew
##ft
##enc
##ater
##own
reg
her
##ful
ind
##oc
##lect
cons
people
through
look
tra
##iss
ph
##low
bec
Wh
##als
co
every
bu
##les
##itt
no
were
rem
his
most
##hen
##amp
should
##formation
##ates
##mer
supp
##ys
well
##00
##ible
An
##iness
##fter
only
first
##ied
##ise
##ating
##ory
##bs
##hed
see
##ts
##oss
##round
act
##ric
##ne
##hing
##row
tw
),
want
##etw
##ific
bl
had
##pect
##ities
##ower
these
set
high
##io
Re
bus
##ious
rel
##ata
compan
sy
##ian
information
str
As
dr
great
loc
Com
she
sm
under
##ob
##ife
##ove
##ject
way
##end
inv
##ual
##ures
##ause
).
##tain
##old
##ange
right
back
provid
##ph
car
pers
##ont
##ility
##ience
##oy
wor
##ool
##aking
dif
home
sim
##ks
##erm
mark
And
ke
##day
##ward
then
##olog
dec
av
gu
##ting
bas
day
many
##urn
ac
business
good
take
##get
product
own
##stem
such
##..
two
very
##xt
##fore
start
sec
even
stud
where
##ments
##velop
##iet
##hes
inst
##gram
New
Se
rep
min
now
##uring
mu
##ract
He
##anc
##line
##ular
trans
could
##gan
##nds
##its
requ
##oth
##ational
There
For
##rol
fin
##sel
##tern
best
##ty
im
##alth
De
bel
##rit
##oint
person
ll
med
##red
cour
long
##hip
design
pat
ass
after
##led
##oun
##ily
market
cre
data
##ss
process
years
che
##ix
##ek
##way
world
Ad
don
##iqu
##ics
##roup
adv
differ
ful
made
att
em
life
pur
##ble
##ener
##ott
comple
det
##air
##ative
lead
system
much
Pro
br
eff
find
##ues
being
id
##co
ins
##ustom
said
##ever
##ually
##iving
pol
develop
place
before
##chn
...
down
##view
again
call
##ision
##ages
room
Pl
##aw
those
##ows
##ize
because
list
mon
##olut
program
cur
ret
think
On
##unity
aut
##und
play
applic
cle
##ner
##omet
read
pres
count
experience
met
Ar
Pr
end
too
##ump
eas
##ath
##chool
prof
avail
Fr
custom
del
gr
##ven
##ather
##ited
##ession
10
fun
here
op
##ining
Un
while
company
used
##up
##ict
##lease
##land
##ital
##ank
does
mem
sk
sw
##az
##ple
##ins
##ash
each
fol
##ouse
##ission
How
offer
##ives
pub
##ax
##ave
##ivers
support
post
##ah
##ri
##ince
##other
week
mod
##atch
top
##ently
Te
poss
plan
##irect
But
##ality
def
same
vis
hand
services
##ior
##ress
##ason
form
using
200
available
Ind
So
##ale
health
##iel
##icle
different
fam
##etwork
lar
##ock
##arm
ext
perform
run
sur
Be
En
Sc
free
rest
##eng
##reen
##ption
##ology
##pos
keep
bo
##ier
online
around
bed
book
power
val
organ
frie
##istr
var
really
team
Our
fl
num
##ced
##ying
dev
provide
bet
both
site
##ness
##ene
sub
##ways
exc
head
##ittle
##ique
To
ear
##par
feel
import
cer
##der
##een
##ines
resp
result
techn
pass
somet
##aut
access
follow
Tr
cor
did
gener
sign
##ug
##ved
##ird
Ex
When
love
including
view
##ces
feat
month
open
They
12
Aut
lot
##alk
real
project
webs
##ized
service
veh
little
main
area
last
##less
##ising
##ross
happ
sure
##ource
##ody
going
Chr
full
light
ty
proper
##akes
##ruct
big
##ets
without
disc
art
She
##ware
##stand
##ider
partic
Cl
bro
cost
found
ob
unt
##bers
##rand
##ccess
control
event
Mar
##ving
##ired
What
emp
group
##ton
##vent
##ident
able
##oney
curr
Sh
food
##nect
within
few
special
ide
care
contin
interest
All
include
##blem
##ield
est
##ient
##iver
always
Res
today
conf
##ants
him
school
vide
state
##uman
child
opp
iss
##imes
Co
though
##ental
Inc
better
making
##gy
##ined
##room
##ural
##ustr
##thing
small
course
Sp
aff
lear
##put
##lis
inf
problem
##raph
check
betw
##ten
##cer
##ically
things
char
##ency
between
15
bre
elect
grow
oper
##ee
ref
still
success
show
important
At
during
old
stor
come
##pping
meet
Comm
Con
pos
##ients
rece
##vert
##orts
enj
enter
something
,”
##ling
##itc
##omm
##els
##ume
phot
second
Serv
fil
kind
##lev
199
Count
ca
point
##ium
##oice
##ately
order
##ems
level
intern
local
clean
Man
let
mov
since
connect
##orth
quality
##loy
spec
addition
cent
equ
fact
must
##con
##br
##ense
##pend
ent
quest
website
With
mill
pay
red
##res
##por
##lection
##ieve
##ands
prom
US
put
three
sho
eng
##ours
appro
based
Christ
direct
mus
par
ser
sit
##ivid
That
class
effect
until
hard
might
##elf
##ster
##cept
build
products
App
vol
win
away
##ves
##ats
##oll
##ember
##ode
##ok
consider
looking
##wards
profession
public
possible
enjoy
##ding
##read
##ability
##ified
purch
number
respons
Amer
cr
##ote
ant
exp
##earch
present
visit
Americ
water
beaut
another
next
##ists
##olution
County
Le
##ted
##uck
##vern
priv
working
saf
##self
es
gl
game
sal
##vers
ask
shall
content
manage
understand
students
."
cap
days
ma
sens
turn
##lish
##man
cond
##uss
contact
money
##ences
application
Is
##rib
##ger
stand
along
personal
video
30
creat
el
opt
past
##gg
##orn
##ism
##aster
##ury
##ute
##amer
never
create
large
Bl
One
Ph
less
non
pain
##ele
##itions
##duc
organiz
11
Rep
ed
##ren
##bal
##here
##atter
##ively
ens
##ards
social
needs
community
invest
easy
Service
Can
Coun
God
Or
fac
give
nat
term
##ES
##ination
##aly
##ases
review
prot
allow
##ocus
below
family
Auto
Ant
dig
ever
line
arr
Cont
camp
move
sum
##gin
##att
##ars
##ured
beh
##iful
##ains
phys
Network
body
lim
pack
##mission
##esh
##lement
advert
others
##tend
##ample
report
against
function
):
Br
dry
house
page
##light
##uly
##ots
expect
works
vehicle
Me
My
Part
wr
##ll
##ope
tool
##ici
##unch
soft
price
click
incre
imm
customers
18
Che
Med
air
wind
##bo
##ised
##imate
##ustry
left
quick
space
individ
May
focus
##aff
##ones
##ator
##itive
toget
##ety
web
chang
impro
##aterial
opport
##itchen
together
Col
##ned
##IO
##istance
leg
##ords
provided
across
media
dem
fut
##uro
##inal
sty
##irc
##oose
necess
##osp
change
companies
simple
members
certain
Am
case
occ
pa
sing
say
wom
##aim
##gle
##ream
##rap
##ify
##iety
employ
Su
low
size
##cil
##fect
##ert
##outh
##ister
ann
##ills
why
industry
install
##lished
Ne
job
##ming
##AC
##ering
##olid
##ames
##load
activ
friend
beautiful
dam
##icro
##ential
##iven
##cially
##obile
require
email
Eng
Source
Tra
camer
##ron
##hel
##ann
often
##ased
step
const
##ably
chall
means
##soci
provides
detail
development
issues
specific
##elebr
After
bene
et
got
la
law
pick
##arch
##ention
comes
having
##arden
##lobal
complete
14
Cal
living
material
pract
tem
##ply
##com
##by
##icy
##urther
##ips
account
Council
100
25
four
fav
wa
##fort
##iting
##let
##ilt
##ili
##urity
sever
perfect
commun
known
called
However
##istration
features
Cent
Jo
di
jo
mind
pop
test
##egr
##ging
##fact
##hor
##oogle
##ived
deal
quite
Do
Wind
dom
vers
##port
##cent
##ED
These
front
super
user
##ection
doing
##ording
cover
million
benef
13
50
No
Now
done
hours
tre
near
govern
2018
consum
bring
current
Anton
digital
future
far
##ler
##vir
##itch
##ane
##ilities
expl
search
##ibility
offers
actually
Group
York
ach
hist
lik
night
pot
please
side
##oot
##me
##ged
##ional
once
##ids
concer
##pped
##aken
season
enc
##ells
strate
##ances
##iversity
value
device
children
##ommend
ensure
necessary
cut
##tt
reason
##utes
##idence
##aker
enough
friends
##viron
.,
Google
flow
makes
range
##oor
##uit
##side
##ye
##ley
white
##pecially
##duct
getting
party
unique
prepar
buy
simply
private
maj
16
circ
celebr
due
er
mom
sci
##icles
third
##urs
##ada
plac
compet
try
research
appear
manag
news
color
address
inde
everything
remov
country
##conom
professional
Euro
Home
Pat
Rel
hig
live
link
name
pict
treat
##come
##vious
##IC
##ites
##lege
##irl
weight
##une
washer
trad
Intern
someone
##umpster
##levision
management
##vironment
High
coun
##ror
##be
##AN
##ern
above
mean
integr
Stud
##play
recommend
Reg
return
planning
performance
results
property
particular
especially
advertising
24
Go
bit
network
times
##li
##book
##edding
##ams
ener
respect
##ffic
##itted
##ney
key
doesn
technology
particip
learn
dryer
major
000
July
cal
card
field
further
human
kitchen
tou
wide
##ape
##iate
##part
##ER
##leg
##ulation
##ift
short
##aps
needed
##fully
drive
determ
books
American
Qu
Sw
Your
age
aud
cook
table
##af
##oid
##80
##ither
##aring
##ret
##asing
repr
##iring
items
##ables
##ement
Ste
2017
While
##rict
following
typ
type
discuss
questions
software
Ro
cy
hot
lat
##aur
##pper
##ops
##ification
designed
autom
photos
natural
several
Antonion
Des
Human
Please
loss
sat
##ring
##work
staff
attend
example
##unte
choose
clos
meas
road
experi
security
applications
bedroom
music
etc
Car
Pe
Par
came
mult
miss
port
sell
tour
yet
##ead
##most
##sw
##hod
comb
##abor
claim
whether
##aily
State
regard
track
broad
single
Antonioni
Fe
aw
educ
fill
watch
##app
##crib
##for
##OS
##EC
##erc
##eral
##ilar
##ires
##ush
##ained
##acy
collect
strong
invol
##ledge
systems
devices
position
summer
repres
GP
Just
Spe
bra
econom
mag
taking
ww
walk
##ral
##ps
##mas
##ches
##ino
##oud
##alf
##ask
##ership
share
blood
court
marketing
deliver
extra
variety
responsible
www
Dis
fre
ground
host
jour
later
ut
wel
##to
##ufact
##za
##IN
##oring
##ancial
##alys
begin
comfort
select
users
true
common
save
relations
located
##cover
author
various
didn
general
continue
affect
break
meeting
purchase
camera
Europe
Austr
Min
National
Park
cult
talk
##ng
##nam
##ature
##ari
##ests
environment
Thank
related
##erman
minutes
required
believe
patients
##olutions
programs
running
projects
estab
options
organization
tools
improve
energy
By
Not
fall
flo
men
says
van
via
wond
wedding
##min
##cl
##gest
##ux
##inary
##ali
##ared
##icult
##idents
anim
##ules
##hers
fresh
upon
contract
apply
record
includes
regular
throughout
become
blog
guid
study
Add
ident
University
box
early
problems
situ
style
women
Austral
brand
five
fail
face
fund
ge
hy
mar
##ai
##pose
##ec
##ms
##mb
##AR
##enn
##ises
stay
struct
##imum
##raft
##ights
##ources
##ellent
print
trip
manufact
##ogn
##ples
impact
production
##rows
method
Scott
maintain
Calif
Windows
government
17
City
Don
Gu
Rem
School
bi
bar
dest
dist
dining
girl
hold
lic
lower
ur
##20
##rect
##rop
##idd
yourself
##iff
exact
upd
##ograph
Sept
##anced
image
created
county
Art
happy
redu
building
##ornia
quickly
latest
California
ID
Jan
Most
Pet
TH
dou
fit
global
mach
sl
sent
wood
##cri
##go
##oura
##lex
reach
store
almost
hands
allows
close
worked
##ensive
##gress
held
196
##augh
recent
##ruction
training
Any
similar
decor
assist
materials
!!
Fl
Green
German
Sund
city
dumpster
fast
sound
wine
##mm
##uk
##use
##atic
##ening
tot
tow
init
##asc
exist
chat
abs
Inst
phone
everyone
supply
businesses
##ietary
inside
clear
defin
##ength
additional
volunte
Free
bath
either
writ
worth
##ued
##TA
##inci
##rew
refer
##adio
ste
##ull
frame
##ung
##ival
##aint
least
display
##itional
spend
prem
commer
2015
offic
among
black
smart
started
skills
excellent
months
vehicles
shopping
directly
sales
opportunity
details
favor
version
relationship
Bro
Gr
Mon
Sat
Tw
bad
ball
daily
htt
micro
nut
ren
rent
round
solutions
war
##eet
##gn
##ground
##ened
##anks
towards
##ctor
forward
##ution
stra
associ
send
seen
##opy
plant
press
comput
amount
sche
travel
cool
Comp
took
achieve
Here
given
garden
mess
ris
taken
##mber
##LAC
##ina
##ators
##arb
##urch
##usion
##unk
heart
##acter
##lock
2019
decision
member
challeng
benefits
represent
##alysis
Scottish
21
:/
Ge
Let
Lond
South
date
hear
rout
sale
##cast
##ench
##arter
##omes
isn
repl
##idge
story
answ
orig
##used
discover
##aving
according
amaz
accept
##selves
Plus
skin
infl
growth
kindle
levels
##ready
conditions
else
physical
history
moment
wonder
September
://
Cor
Int
More
Make
Roy
Some
West
fix
match
ring
rather
self
tast
wall
##ries
##lt
##ony
##atory
##arget
thing
##state
former
##urr
stat
neg
##antly
soon
heat
trying
clients
intro
##aves
2016
agree
198
helps
built
##itting
longer
purpose
policy
ready
switch
idea
thought
capt
protect
individual
London
Dr
Direct
Fin
Gener
IC
IT
North
cou
gra
hosp
lif
song
##of
##IT
##IM
##inner
##atform
##eds
##ides
##amb
##irt
already
coming
exam
uses
##ipment
anyone
##ordin
consult
rights
diff
##ological
customer
United
subject
cert
receive
damage
likely
Sunday
commercial
Ag
Ab
Bu
La
Pre
cause
ess
fig
lay
mobile
six
solution
won
##tty
##pis
##hn
##OR
##atives
##enous
##ications
##ctions
prob
##though
##ibly
load
feed
events
##avy
expert
##enced
advant
attack
complet
insp
currently
international
question
safe
behind
increase
legal
paper
##oliday
friendly
Center
##cription
Bar
BIO
GD
Mark
Mend
Sy
Work
bott
cand
fab
gold
hope
mot
mount
national
sun
went
##iod
##over
##door
##not
##ched
##hold
##50
##Com
##34
##itable
##elt
##igenous
##ument
##istic
subs
platform
usually
percent
previous
pretty
however
stress
location
instruct
polit
retail
weekend
restaur
signific
ideas
interested
electric
entire
Christmas
Black
domain
Bo
Every
PA
Will
dra
half
pie
target
wish
##iol
##pa
##med
##mit
##nov
##gon
##uff
##uary
##uals
##ke
##wise
##EN
##head
##alu
young
convers
areas
##ief
residents
leave
##izes
appoint
qual
prefer
included
##ought
providing
basis
request
posted
correct
schools
internet
connected
safety
reviews
Content
immed
touch
00
Are
Cons
bird
cry
file
fire
grand
hon
mil
ter
trou
##oza
##ex
##ham
##ze
##AP
##ET
##just
town
##reet
##asons
##road
nothing
prior
resume
clot
anything
speed
2011
ago
Also
college
Why
sets
highly
financial
fully
Program
Once
From
##istrib
feature
obtain
March
learning
successful
received
files
asked
strategy
counsel
GPLAC
journey
January
Mendoza
40
Af
Dan
Ed
Fil
Mic
Per
Spr
War
bill
bab
gives
ill
matter
option
sus
tell
##iation
##iable
##cle
##uge
##PR
##ored
##itation
##isions
stack
analy
exerc
section
selection
##aining
##ude
##cious
doc
##aces
##ffee
evidence
period
197
knowledge
screen
region
buying
cars
processing
attract
leading
download
rooms
easily
storage
Community
sites
Apple
potential
Relations
util
##pisode
,"
--
Brit
Day
El
Mc
Mac
Mary
Sm
bur
gather
hous
rates
sil
sol
takes
ways
##time
##aul
##ole
##ees
##hest
##orld
##itor
##ished
##oms
thous
##rown
##ided
##add
org
sugg
cannot
##arth
prices
##acation
##dule
spot
goes
prevent
recogn
colors
suppl
sett
driving
avoid
final
finish
medical
complex
sweet
Indigenous
corpor
object
engine
antique
Media
activities
floor
Australia
Royal
difficult
71
Cle
II
June
Mus
Oct
TV
apos
cells
ey
kn
land
oil
source
tal
vot
##aign
##de
##gree
##face
##hib
##IS
##orge
##ories
##ares
##urance
##iding
analysis
##verage
altern
##cker
deep
choice
##ciety
cloud
outdoor
##ization
spring
whole
interview
agre
describ
collection
##anger
remember
dress
polish
board
##idential
moving
effective
Canada
campaign
expected
John
encoura
picture
welcome
amazing
probably
".
Apr
Dietary
Ser
Sci
Voice
Was
bud
code
distrib
green
graph
max
ra
tax
voice
viol
##ties
##ivery
##rick
##gs
##gar
##ky
##back
##LL
##AA
##AS
##itte
onto
##ceed
stop
stock
prostate
Then
##abet
##unities
##ivity
adjust
##odel
princi
resistance
text
implement
##encies
registration
trail
background
Sec
Health
reading
Scot
costs
##puter
growing
entertain
equipment
limited
paid
English
popular
higher
types
vanity
exactly
computer
schedule
answer
..
22
Del
Each
Jes
Ke
Over
Off
PC
Rental
San
Tod
award
bal
crit
cred
fa
gen
huge
lives
rate
tree
##ael
##eal
##where
##itely
##any
##ison
stick
conven
##oof
##hern
prim
##ibr
myself
television
itself
helped
coll
added
became
remove
seek
Read
acqu
Pres
##lands
groups
positive
center
promot
condition
standard
##icians
changes
opportunities
Internet
ICES
.”
23
65
Dep
Even
His
IP
OC
batter
brows
cross
dark
nice
norm
sle
##tone
##rum
##dom
##fr
##well
inform
##asks
##elo
release
##cks
separ
shows
##osed
note
notice
plus
##iber
##ached
climate
##izing
appl
gets
helping
firm
coffee
guide
basic
student
instead
repair
delivery
grad
brok
issue
character
points
Many
##pendent
approach
individuals
##ronic
science
treatment
##partment
measure
machine
influ
hospital
Afric
Michel
26
Ac
Acc
Aug
Cred
Dav
Ir
Up
World
base
iP
kids
ly
mid
obs
po
park
sort
sense
yes
##ration
##oon
##ober
##eks
##ners
##son
##OU
##enge
##enior
##ana
##iday
##erson
##imin
item
##illage
conduct
##uses
##istry
dep
compre
trade
##aches
##ormone
outside
##ongress
dise
theme
themselves
##ublic
office
##itten
##hens
Ang
Develop
emb
playing
players
largest
ideal
sensors
wait
regarding
established
double
introdu
October
##ittee
Scotland
45
Dra
Good
Grand
Life
Port
Post
aim
block
dream
flex
hit
ign
led
pages
race
warm
”.
##iately
##sh
##yl
##haps
##wh
##het
##itter
##iture
##ication
##icious
rev
rele
reasons
##oles
stage
##irit
propos
##ighb
seem
seems
chain
button
evalu
##rought
experts
##press
regul
##phone
assess
advice
emot
developed
Friday
published
article
statement
winter
America
wrong
practices
placed
traditional
girls
THE
total
existing
http
completely
60
Aide
Cr
House
IN
Us
Use
Yuk
cat
cell
copy
ded
diet
ec
emer
foot
hour
pan
sink
slow
wire
words
##gu
##ha
##ball
##wide
##wood
##erve
##arily
inj
innov
##isc
##iced
##uth
##irst
neighb
##empt
shop
chair
plants
resources
clin
##soft
thank
traffic
relax
starting
See
##ritis
easier
offered
modern
Television
stores
creative
package
Check
##board
annual
requirements
challenge
communities
Special
gender
methods
bathroom
premium
associated
risk
##Computer
VoiceComputer
Jesus
28
27
31
Her
Im
Pal
Power
Sal
cra
doll
fu
fine
felt
hum
ple
rental
rules
sn
##iance
##ians
##ma
##mpt
##ID
##reme
##ille
##change
##irth
convent
##akers
plans
##ellow
society
##agement
##agn
##ager
##aging
##aged
upgr
meal
contain
##ference
accur
2012
interact
role
useful
##angelo
remind
wanted
Associ
##otton
thinking
healthy
excl
Coordin
afford
seconds
series
investment
written
##ION
strateg
highest
involved
comfortable
definitely
##aintiff
advantage
fabric
suggest
Today
Michelangelo
Yukon
Educ
Garden
Hot
Lin
SO
Since
Vacation
cab
cru
eye
gave
joint
late
lands
mor
map
rub
radio
slight
tim
ver
##apt
##iam
##ially
##oe
##mal
##mical
##gers
##yond
##TE
##IG
##),
ther
##onst
##oul
##sters
##urt
star
progress
death
##artment
plaintiff
door
reserv
incred
permission
peace
produce
##prise
register
train
actions
##hington
Rec
reput
attention
leads
grade
model
Techn
Trans
opening
lots
properly
Resume
info
##levant
serve
classic
creating
behav
Tracker
##coming
Design
broadcast
education
filled
situation
structure
Satur
straight
original
couple
candid
Washington
budget
comprehens
34
Loc
NO
ble
cases
fold
furn
jump
lux
rail
sav
virt
##ios
##rast
##mark
##mitted
##na
##cing
##hood
##zy
##TM
##atab
##iter
##itute
told
##ros
##urning
##ades
##amar
hair
##thritis
cho
##roud
plug
admission
admin
##acing
##astic
lose
##irection
##ension
arch
looks
wants
guests
requires
Def
path
patent
difference
Arts
Soft
passion
career
##tenance
Christian
movement
##attle
worksh
Party
templ
prepared
pictures
meaning
license
volunteer
writing
favorite
General
restaurant
troub
eyes
Science
battery
August
David
comprehensive
41
Ber
Find
Get
Great
Happ
Imp
Like
Mich
Other
Pol
Red
Rich
Take
Vol
action
brought
dut
dinner
holiday
lack
master
pul
proud
squ
ten
und
vision
##ters
##ipping
##lier
##ooth
##yle
##has
##bur
##vell
##AM
##30
##itors
##aries
##lements
##enture
##ayer
##igious
##ama
##illed
weeks
deb
sust
chance
ability
Through
contem
contrib
##ograp
States
feet
otherwise
speaker
accom
commission
##intage
rob
##angu
looked
##pects
Real
##ended
carry
secure
transfer
imag
designs
assign
##iques
bright
Plan
Online
models
Team
visual
India
passed
continu
movie
paying
##porary
appropr
considered
optim
demand
##anna
temper
scient
places
Feb
European
##ecut
Flor
absolut
ringtone
taste
Director
immediately
crypt
April
Saturday
",
500
Bus
CI
Cour
Congress
EV
Hill
MP
Sound
Well
average
bul
divers
direction
eight
eth
episode
fra
giving
pool
ult
vict
word
##tics
##ixt
##ipped
##nes
##ges
##gery
##sp
##DA
##RE
##EO
##ini
##ero
##ario
##rem
##reci
##omb
##aser
##iling
began
relevant
##ception
##igation
##ament
although
##illing
concept
##ateg
##umb
##emon
seat
suff
##ieved
##ellig
adult
heavy
##iple
appreci
goal
parties
accident
##ocr
consist
blue
setting
decide
owned
minimum
transform
transport
pattern
auto
##undred
countries
numbers
cleaning
effects
##oke
visitors
limit
changing
College
certainly
occas
woman
##rapy
announ
England
steps
removed
removal
determine
Road
satis
experiences
experienced
People
beginning
manufactur
wonderful
Film
housing
thousands
Department
browser
Credits
##atabase
480
51
80
90
AN
Awards
Elect
Gi
Love
Micro
Mobile
Sub
Top
Win
Wash
Where
ack
ahead
birth
cord
die
danger
eat
fight
fish
jew
mention
nation
son
tab
task
##rical
##ech
##men
##miss
##hol
##ville
##OM
##AT
##err
##orter
##orry
##aled
ing
##isation
##icip
##icated
##enty
youth
##roid
##etrick
beyond
rear
reven
##cember
##ado
##sequ
proced
alone
ath
##ifying
##usive
##ements
sharing
##oph
wash
enh
sole
Thanks
compens
##ago
meals
contains
output
Step
##ickets
spent
##lict
arthritis
China
commit
2013
produced
served
Altern
remodel
Ann
Ass
locations
provider
mining
images
December
effort
polic
profit
France
French
Tex
Inde
surround
confir
electronic
operations
stored
photo
##pending
professionals
expensive
understanding
capital
terms
reported
##iliar
nearly
independent
Govern
Steel
economic
affected
##aliye
##iddle
challenges
Build
expertise
significant
baby
exercise
Office
faith
reputation
acknow
AM
Act
CN
Care
Face
Gra
Hall
Kr
Mr
Met
Main
Nach
Op
Sant
Ty
Whe
aware
farm
gar
lab
lunch
rank
roll
tit
wild
##pite
##overy
##nal
##cape
##sc
##ses
##we
##HS
##SM
##32
##esome
##itude
thr
threat
##ilies
fore
react
##adata
##amed
##semb
##imming
##oost
##umn
##ifari
##istan
degree
waste
adop
##que
truly
meant
leaves
incor
intellig
appeal
quil
spirit
##apers
speak
##ube
committed
serving
recently
##ocurr
seeing
##pective
sympt
Deanna
##hips
markets
##ixel
##cohol
Play
2003
subst
excited
sometimes
Trifari
opened
websites
properties
Research
meetings
Conf
film
entry
responsibility
presented
protection
installed
join
consumer
consumers
circuit
International
##amsung
audio
claims
destination
licens
reduce
Company
essential
GDPR
political
714
entertainment
credit
President
sleep
iPh
thermal
choices
sustain
jewel
48
52
AC
BE
Book
Baliye
Cin
Dur
First
GM
Global
List
Look
Mother
Of
Oak
Sil
Sur
Sum
SEC
View
Yes
YOU
bow
bank
core
dru
distance
election
element
faster
hus
hire
hundred
lost
langu
mer
mat
pen
pump
rid
rich
rug
##aj
##rie
##rition
##oT
##oes
##more
##set
##kin
##body
##vely
##LE
##inst
##onse
##atically
##ederal
##reens
##oming
##ented
##elines
##iles
##eth
reci
exhib
seven
sector
dead
suitable
chann
##odes
compon
Inter
lovely
income
spa
sport
##aching
perhaps
overall
195
recovery
scen
industr
strength
drink
greater
decided
guest
starts
reports
minute
fulf
attor
attempt
detect
leader
listed
##azz
familiar
powerful
earn
estim
estate
oppos
Committee
factors
USA
shoot
serious
turned
paint
organizations
facilities
write
changed
demonst
Next
launch
##iliates
concerning
preparation
counter
culture
animal
update
Two
pressure
Market
released
Happy
husb
32
35
Aud
Best
Cy
Em
Eas
Gen
Har
Have
IoT
Kitchen
Lord
Mer
Nove
Out
Sim
Tour
Wood
amp
ce
cable
cash
craft
den
homes
ice
roof
south
solid
west
##lin
##made
##gency
##ka
##bum
##val
##ON
##IP
##PI
##ese
##oric
##eness
toile
input
##omin
##ett
##chan
##adem
stuff
##imately
##essions
##abilities
##atever
##anted
pred
compr
2000
quiet
manner
Str
dish
teac
whose
partner
aren
2010
191
##ruary
##print
shoulder
simpl
##roll
##roller
advis
completed
effic
listen
played
delicious
offering
##riage
earned
techniques
maintenance
##standing
emphas
operation
purchasing
salt
capac
standards
Amaz
cameras
diagn
Paris
multiple
establish
menu
Article
initi
replace
piece
conversation
Daniel
document
separate
Education
morning
Michael
February
policies
Texas
November
49
AS
Air
Ben
Bel
Bow
Down
Fund
Ho
IS
Jon
James
Net
Note
Section
SAP
Samsung
UK
Val
Vir
cards
categ
fan
fans
fair
father
games
gift
harm
lines
pm
rise
vintage
wat
##xiety
##pond
##mat
##cut
##ule
##fl
##ford
##house
##ban
##NL
##zer
##PA
##).
##40
##ered
##estern
##ores
##arant
##lete
throw
force
ones
beat
##uted
##lying
##ader
pros
album
##ulous
##aked
##umes
weather
##unction
##unications
deck
church
Those
Thurs
##quis
heard
tried
truck
##ags
##oodnt
Stoodnt
##icket
sports
##apter
goals
parts
accomm
rock
records
amb
cold
sched
Who
##rics
##rowd
highlight
smooth
invent
providers
guess
##ancy
medium
patient
assistance
chemical
advance
leaders
....
Place
player
Arch
##athan
possibly
extrem
bedding
valid
earlier
response
accessible
lights
Class
Show
continues
operating
Services
central
promote
parents
volume
considering
Phys
Republic
arrange
##iciency
window
focused
occur
construction
##comes
Patio
delivered
animals
##ography
nutrition
System
##paper
clothing
British
graphics
gradu
Africa
Dragon
slightly
Technology
appropriate
Business
##etricks
quilts
symptoms
iPhone
jewelry
language
Thursday
accommod
29
2nd
Aff
Bre
Dem
Dist
EN
Ext
Gold
Kar
Mo
Mor
Mil
Paul
Radio
SU
Wine
Water
bought
boost
du
dro
eating
fash
gas
gone
hor
har
ir
jud
labor
mis
mix
matt
overs
pin
pet
pow
pus
sold
soul
tips
wiring
##ault
##ipp
##ried
##ridge
##pro
##pare
##look
##cers
##care
##bury
##BC
therapy
##atin
##rey
##omy
##eter
##ctors
##amm
##iment
##unt
##istics
shape
noticed
##ears
adapt
Inv
clar
log
spect
speech
arm
Char
commands
inclusion
helpful
therefore
makeup
adding
Which
active
##ificate
busy
##ologies
productive
owners
##ancing
transact
finally
processes
efforts
reader
presence
ended
switc
defend
2008
2009
Social
famous
performed
surv
##poses
keeping
importance
corner
Click
obvious
videos
reflect
successfully
Commission
Manager
##resent
##respond
approved
parag
anti
expand
presentation
beauty
glad
Represent
facility
campus
occup
activity
practice
waiting
covered
##aneous
celebrate
error
managed
##ICO
Registration
particularly
##force
magn
##ING
guidance
status
stackable
corporate
alternative
##ibrary
seeking
furniture
luxury
##amarind
cryptocurr
Court
Microsoft
Facebook
Whether
demonstr
husband
36
Av
Big
CR
Caf
Div
Et
EL
Gl
Games
Hol
Hope
Mond
PM
Pub
Sing
Sam
Tues
Ve
band
bod
cas
cast
cup
dim
drop
glo
hom
hop
kid
length
liter
mir
mass
nail
ol
raw
sin
snow
senior
sorry
upper
wid
##xic
##pm
##lant
##ox
##ml
##ny
##che
##col
##cause
##gins
##uan
##sy
##fast
##flow
##bon
##TV
##TED
##Ps
##VE
##inct
##anch
##icing
##iled
##ston
forg
forced
reve
##ida
##igs
##olf
##ady
stream
street
##imb
alcohol
comment
##rael
##oos
##ppers
excess
except
sea
depos
##orthern
shops
willing
compli
##agar
##ague
##aced
##achel
outcomes
intended
spr
spaces
##order
fee
dispos
##bert
unf
prepare
thanks
score
scale
##angers
regions
becomes
Android
decisions
guard
evening
transformation
##ternal
cream
leadership
Only
metadata
##umpsters
format
2002
families
larger
Because
Scout
##enger
flu
submit
technical
Trad
120
bigger
interests
charging
refres
Applic
Israel
Repair
Organ
nature
advertis
expectations
joined
benefit
concern
Studies
Students
recommended
##books
calc
audience
satell
awesome
collected
economy
frequ
authority
##aughter
Germany
Institute
framework
official
message
route
Intel
negative
feedback
instructions
birds
encourage
maximum
convenience
collabor
normal
broken
According
diseases
##while
dedicated
neighbor
workshop
template
contemporary
accompl
diverse
Washoe
commitment
incorpor
intelligent
##install
300
BR
CH
Creat
Cap
Cup
Cert
Di
Data
Food
Father
Hel
King
Kind
Lear
Law
Mot
NA
Oh
OR
Old
Oper
Ra
Ren
Rest
Sch
Sign
Sample
Ter
Ut
Vide
Vict
Wed
cit
fat
hub
hormone
kick
lets
laser
mal
ment
mail
mental
pal
pair
sem
sac
session
sources
ton
tasks
vs
##ij
##iers
##rors
##dd
##cap
##uel
##field
##yn
##BA
##LD
##CA
##TION
##atively
##orative
##ounder
##itect
##ald
inch
##icate
##eler
##eles
##eline
##vey
##uries
reality
##ola
ord
##akistan
fruit
extend
sex
seats
ship
shap
noted
wasn
chick
plenty
Though
complic
client
2020
Start
spark
spots
disability
teen
##reek
##ensity
##avor
units
univers
arg
Chic
2014
interface
saw
producers
##oved
remaining
##ampions
##neys
religious
drivers
greatest
shel
worry
owner
transmission
courses
purposes
finding
##coin
insurance
developing
calling
programming
profile
availability
##iction
mode
forms
Indian
surpr
Beach
valu
values
feeling
generally
Exper
happen
interesting
confidence
thoughts
##pute
enterprise
movies
connection
hardware
privacy
glitter
capable
sensitive
elimin
Blue
edition
Orange
allowed
arrival
Meigs
employees
Super
jobs
domin
trend
flower
flowers
moments
manager
determined
cyc
selling
combination
##erald
guidelines
situations
##idden
doub
relationships
renew
##arbage
George
Corpor
inspired
instructor
draw
clothes
Maryland
gathering
supplies
Clear
talent
primary
seemed
wireless
accurate
Association
Coordinator
strategies
behavior
candidate
##ecutive
absolutely
##nesday
appreciate
capacity
Amazon
extremely
Physical
District
fashion
Monday
Victor
Wednesday
44
70
Back
Bott
CP
Call
Coll
Camer
Den
Fort
Fall
Gh
Grow
Jack
Jap
LO
LED
Mach
RE
Ret
Run
Under
Wom
Wild
Words
Western
XL
aid
born
battle
catch
der
dur
div
dance
fant
founder
lamp
mist
mouse
nav
padd
row
rad
rare
sized
sessions
village
##ae
##iant
##iology
##off
##gal
##gre
##hy
##vy
##US
##SA
##70
##inent
##oral
##itary
##itution
##isl
##asure
##eless
##ils
##eton
##etone
##aded
sto
station
stem
stuck
##iments
conference
wear
wearing
##unior
##ema
deals
shot
shared
##osh
##osing
##elling
abdom
##query
trim
trust
trick
Information
mechan
loved
quarter
##erequis
Stand
fees
tele
tech
##berry
##enses
proven
##place
Although
desire
##anging
##encing
##ocol
remote
Analy
basement
acid
Select
minor
minim
Dec
Admin
brings
calls
Print
functions
memory
skill
extract
surface
followed
Exam
featuring
realize
##ructure
biggest
continued
charge
Const
kinds
1997
caused
internal
moved
century
shoppers
server
purchased
cris
visitor
##ucky
creates
Phil
edge
editor
investig
allowing
packages
functional
increasing
##box
employee
Supp
communications
explore
##leges
brands
freed
cultural
talking
identify
boxes
##aught
initial
##ascale
officers
messages
challenging
##amboo
GDSM
bottom
bottle
billion
illustr
Britain
settings
Series
distribution
##abetes
emotional
emergency
clinical
Hotel
troubles
temperature
Florida
EVs
manufacturer
Government
CNPA
Summer
efficient
Jonathan
schedul
olive
Chicago
Japan
39
Bra
Cas
Did
During
Dumpster
Fol
Ford
HD
Ham
Holiday
Lt
Lake
Link
Mill
NC
NY
OF
Oly
Pac
Rah
Russ
Sus
Somet
Village
Word
]:
agr
cov
crowd
dates
eleg
federal
gain
gorge
hidden
icon
pod
pock
poor
sitting
tells
vote
wal
##ius
##rant
##ports
##lig
##lim
##ey
##cel
##chers
##gun
##uc
##kl
##vin
##word
##LY
##TS
##RO
##AL
##SE
##ester
##orough
##orrow
##ita
##alog
##arge
##areness
##ishes
##etic
fort
##urb
reb
##uts
##idget
##cean
##igration
stim
stake
states
proc
aspects
##ulate
##ulum
##ulated
##rape
##abb
expos
exchange
exception
external
##ista
shown
##osis
##oples
compared
dog
resolution
202
intr
manual
Star
Web
##berg
##ishing
unit
pepper
Church
Chapter
interp
serves
Alask
##ounds
becoming
##riculum
Review
driver
Compt
##endar
goods
adventure
empt
Product
poll
listing
Prerequis
opin
sky
##azio
publish
handmade
2007
##arming
runs
surgery
restrict
teams
respond
resulting
technologies
correspond
Exp
viewed
happening
Chris
artist
empower
1999
classes
winning
winetricks
enjoyed
##reads
visiting
glass
Bridget
Meet
laws
Central
circum
competition
participate
majority
Swed
typically
automatically
Description
measures
awareness
##nament
environmental
applying
hyd
manufacturing
##going
spending
https
origin
certificate
appointed
Consult
attractive
Music
describes
described
applied
parking
ignition
##hetic
affordable
crucial
map_
blend
Richard
Giada
procedures
Open
adopt
Tuesday
Ltd
Olymp
1st
33
46
95
AI
Bachel
CD
Custom
CAN
Cotton
Ener
FM
Farm
Hormone
Hader
Los
Last
Labor
MA
Mel
Master
Os
Pur
Poll
Pixel
RC
SM
Sun
Squ
Sup
Try
Wel
Watch
Year
breat
cotton
east
ends
earth
fing
gy
hall
hook
masc
middle
none
psy
rol
river
tight
tail
tough
turning
vir
vast
vert
##tle
##town
##rd
##ram
##rim
##la
##ean
##ext
##cles
##green
##uis
##fe
##fol
##ya
##blight
##wquery
##CC
##Tube
##Pod
##FTA
##_f
##erous
##atures
##itness
##rel
##ica
##icine
##ician
##lets
thus
thick
##entially
##etics
forum
repe
##utic
##ownt
##aying
##ads
##aming
proceed
##iminal
anxiety
orient
consequ
whatever
##abled
##cket
##uments
##istant
##ivil
shield
##osy
##oses
##arts
##ella
##ello
##ellows
##oston
abuse
Things
height
trig
trib
residential
##ptions
Ins
upcoming
clust
club
climb
incident
quant
dishes
YouTube
##assion
uns
unw
uninstall
acceler
agency
knowing
desk
##anged
veget
adds
##pression
White
coach
everyday
remain
actual
##rowse
##ifications
reliable
invites
perspective
Andry
guys
guarant
acetone
studies
finished
worldwide
Adv
advanced
purs
##otten
##airs
police
metal
delay
supports
Beaut
generation
signage
monthly
happened
discount
brown
eventually
##vention
carefully
smaller
Spot
150
showing
1998
causes
equipped
##pendence
entr
payment
engage
engagement
Report
physicians
Cheap
Such
Engine
specifically
fourth
favour
perfectly
population
Groups
concerned
cutting
managing
addresses
HomePod
integrated
multi
watching
magaz
Australian
failure
biology
fitness
volunteers
risks
routine
songs
certified
subscription
Board
qualified
Perform
Spring
susp
knew
agreement
dressing
principles
balance
critical
influence
Developer
##guazio
Specialist
dollars
incredibly
railroad
Defiance
Software
commissioners
scientific
adults
satisf
mentioned
athlet
remodeling
surrounding
title
licensed
drug
recip
components
attorneys
Download
Virgin
category
Democr
matters
paragraph
Café
dimens
compliance
neighborhood
valuable
Growth
Pacific
pocket
54
75
78
??
Bas
Bird
Boston
Come
CEO
Caj
Dig
Ear
Fam
Found
Full
Hi
Hor
Id
Iguazio
Kath
Live
Light
Mov
Never
Ob
OS
OK
Pakistan
Rent
Ross
River
Ruth
Sl
Sk
SS
Spect
Saint
Saul
Senior
bone
bond
burn
crown
dial
database
daughter
ease
fif
gear
grown
ht
ju
joy
lib
liable
mission
net
oven
punch
rain
rac
sizes
tty
vit
yog
zero
##ipe
##ras
##right
##pass
##lor
##lind
##oons
##down
##mosp
##nership
##cy
##case
##water
##IV
##15
##11
##MO
##EP
##iny
##inations
##ena
##itis
##anium
##oma
##ette
rein
##ota
##oty
##olve
stone
prote
alt
concl
atmosp
##umin
##ifies
weap
neoc
##unately
##lder
seg
sections
department
suit
shift
##iece
enem
plate
##elli
usage
Thus
##outhern
trial
dogs
contrast
outlet
outstanding
##izon
##izens
lob
lock
apps
workers
workflow
spl
spons
##orders
tend
Italy
gov
speaking
prec
pregn
##ubai
interior
agent
sau
imposs
impress
justice
##onda
whenever
recy
recall
despite
scene
regional
consent
phase
coordin
remained
Another
##pected
strive
Ash
decl
News
Newtown
finest
mediation
assum
creation
Adult
Prof
brief
Plant
folks
posts
weekly
planned
handle
formats
2005
Industr
organized
heads
generated
signs
views
happens
founded
conflict
breed
Communications
filed
1996
letting
director
anticip
asking
sensor
ensuring
Counsel
evergreen
Contin
Contact
Mean
Mexic
increases
Medical
Color
Coloring
legisl
styles
superv
trends
searching
errors
competitive
managers
index
integration
##fficient
participants
discussion
cylind
automatic
attending
closed
Justice
brain
journal
Nothing
failed
marriage
towel
steel
microphone
Financial
examine
mountain
restaurants
significantly
William
appointment
immediate
counseling
Smart
objective
voters
boarding
Delph
normally
conducted
disease
Angeles
proposed
regulations
cabin
landscape
saved
virtual
Realt
##ixture
occasion
Electric
Building
foreign
substant
bowl
hundreds
teacher
##proof
Invest
switches
ELEC
##oosing
fluid
satellite
Kindle
NAFTA
chicken
##ocolate
Analytics
gorgeous
##rapeutic
Energy
##osystem
Cajun
atmosphere
(“
38
42
57
99
BC
Bit
Bill
CA
CS
Cry
Camp
Circ
Curr
Ev
Episode
Further
Fellows
GB
Gal
Game
Hộ
Hist
Ill
Jew
Ken
Kel
Know
Low
Lim
Liz
Library
Mod
Mag
Max
Muse
Ox
Ol
ON
PHS
Rhe
Rose
Save
Sky
TO
Tre
Time
TOS
Tenn
UN
UC
Wa
W32
],
ast
awards
apartment
bes
ban
binary
cro
downt
egg
elements
fem
gro
gest
honey
lect
loose
mother
maker
makers
north
ped
pink
pwquery
rap
san
slic
sins
sister
sought
tired
wet
’.
##tage
##a_
##iated
##pet
##do
##days
##mon
##gent
##uf
##fin
##han
##bar
##vard
##wal
##OW
##zen
##LC
##Cam
##10
##19
##EM
##KB
##hent
##heless
##inn
##ora
##itative
##anish
##alty
##isk
thorough
##roy
##roeton
##ether
##etime
forget
bees
reached
##ithic
stru
stamp
strict
##iration
anat
align
convert
##tering
##rab
##estival
##using
wealth
seeds
depart
depending
sufficient
cancer
shower
shipping
##osen
notes
chr
ence
enable
##cient
##perror
abroad
trips
##agin
doctor
##ibilities
##pted
upload
clock
##asts
meat
meets
contained
wheel
outf
##izza
intention
appar
quot
anytime
##ogether
Still
Street
spin
disapp
disorders
Its
##itionally
##aven
##gred
provisions
unl
unless
accord
Chat
Child
Chines
overlook
ages
wouldn
maybe
194
producer
desired
firms
screens
vend
##prises
conscious
trained
travell
phones
buff
relative
##iances
invitation
bask
##anche
couldn
finance
Degree
belong
designer
##iquid
advoc
Prot
Plate
listening
curriculum
thinks
Armen
Princi
Univ
supporting
supported
topic
2004
extent
flat
numerous
heading
technique
passing
password
Trash
Exc
Executive
Exascale
lighting
Club
Marc
foods
specialist
config
Coast
Spanish
infrast
chargers
electrical
Att
filing
approx
criminal
expenses
maperror
array
household
improving
demands
##ACTED
damaged
constant
laun
communication
dealer
treated
achieved
appearance
Relic
Highlands
recommendations
networks
participating
discussed
closely
missing
portable
walking
##inoa
grounds
selected
breakfast
improvement
identity
funding
hyp
##mbol
structures
Guide
holding
updated
towels
Monroeton
consultation
About
figure
advantages
inspiring
subsid
previously
pieces
military
territ
suspend
stacked
documents
utilize
Small
silver
recognition
supplied
principle
implementation
Keep
informed
African
introduced
flexibility
injuries
innovation
Sales
convention
ruby
incredible
registered
Local
##TML
meaningful
duty
duties
##ographers
announce
dangerous
enhance
acknowledge
Santa
SECTION
rugby
channel
industrial
fulfill
estimated
Cyber
##printf
Netfl
graduated
ENACTED
powers
cryptocurrency
Division
mirror
concerns
frequently
accomplish
fantastic
stopped
Selected
Printable
freedom
scheduled
agricult
Comptroller
empty
Sweden
Bachelor
Square
psych
Meanwhile
Hội
Museum
Chinese
infrastructure
Netflix
37
4th
?!
AB
Arab
Bever
CB
Cat
Cut
Cult
Creek
Die
Database
EM
Earth
Fac
FOR
Gate
Garbage
HG
Hou
Him
Host
HTML
Ira
Long
Loss
Ms
MM
M4
Mal
Mass
Norm
Pages
Que
Rome
Roof
Sense
SAN
Town
Tah
Viet
Vista
WI
WA
af
bid
bold
cam
da
ep
fer
fle
fro
fear
ho
hur
hun
il
kill
lin
lau
lips
mine
mouth
masks
nu
pil
pun
push
rely
rough
sad
tiss
ven
vent
vac
##top
##aper
##iat
##ien
##iest
##iability
##oh
##oys
##dy
##ded
##mes
##cr
##cont
##uate
##hab
##bed
##bit
##DS
##van
##win
##zz
##GES
##Re
##12
##33
##inos
##atre
##oration
##orial
##oult
##itut
##itate
##ales
##aling
ingred
##asp
##ila
##ilst
##rote
##stery
##stream
forever
forces
##urally
beach
reward
##oli
##olithic
##ading
##adian
##amin
stun
##irm
##irts
##essed
##ulations
##illa
comments
whilst
##race
##ooper
##abol
frustr
##umer
##umber
##ifi
express
##ivate
sugar
##arters
chocolate
chosen
##ardens
##udes
##anda
##cipl
ade
prayer
trash
trunk
truth
doctors
##acent
ourselves
clip
##erves
myth
newly
proved
unex
Champions
command
recru
colleges
scri
##angal
remains
blind
Ask
Asia
driven
##phones
Andrew
secret
Sea
muse
transition
Therefore
belie
assault
attitude
Prov
listings
authent
metrics
Prince
grant
##essional
swim
swimming
posting
healthcare
performs
performing
##engers
boys
powered
submitted
exciting
feels
generate
Exchange
Resolution
himself
Incl
Spain
checking
breaking
Atlant
older
receiving
entering
Management
connections
centre
facts
millions
putting
shoes
Christians
voltage
##odeo
##okes
publicly
pasta
Phot
summ
behalf
physically
windows
##boards
improved
membership
beautifully
requirement
Training
constantly
detailed
laid
##faction
covering
coverage
historic
##ursing
links
##ICE
Highway
respective
respectively
calendar
cooking
Stef
portfol
combined
strongly
Minister
regularly
biological
urinary
assistant
sounds
renov
discovered
accepted
Finally
lifest
lifetime
figures
Barwell
motor
mountains
##holders
honest
Sprint
analytics
thousand
finishing
Clean
Second
genetics
primarily
##frame
deploy
Development
ecosystem
football
panel
innovative
dollar
fuel
funds
conventions
upgrade
container
Linares
administration
Import
##ographer
Planning
fragr
victory
concepts
transportation
patterns
AND
revenue
revenues
compensation
Alternate
acknowled
sustainable
Duration
matches
spacious
opposite
toilet
inventory
Republican
harass
defendant
Published
widely
deposit
disposal
Utah
citizens
sacred
paddock
Follow
Sometimes
elegant
Alaska
Prerequisite
circumst
Oslo
Supreme
vertical
trigger
BirdCam
Foundation
Kathy
neocons
Bitcoin
launched
Houston
Iraq
%),
.;
09
56
98
?”
Aub
Bay
Both
Cand
Celebr
Dü
Dar
Doc
Dash
Dumpsters
Dubai
Fis
Form
Gar
Gree
Having
Ire
Ide
LA
Latin
Mat
Moult
Night
Offic
Pay
Pop
Pick
Public
RS
Right
Rail
Rob
Racing
Ragin
Rodeo
Sa
SH
ST
Sight
Senger
Tit
Tro
Tur
UIM
WM
Would
Yad
bon
bound
boy
bunch
bench
cater
cuis
dies
eco
elder
ft
fiber
gall
gite
hes
hers
lake
lane
lift
laugh
mit
nine
named
ok
pit
pill
rat
rot
rust
shed
saving
tact
tables
void
venture
wicket
wrote
yellow
zip
##iator
##pat
##pal
##papers
##lam
##oj
##eb
##mo
##comm
##gra
##gart
##uing
##yard
##kins
##UN
##writ
##warming
##Bl
##HR
##WD
##GB
##CH
##In
##IR
##FE
##0s
##Sc
##EE
##_err
##69
##jan
##nda
##orable
##ouch
##inger
##itals
##itoring
tom
##alm
##arian
##omas
##asprintf
thin
##elle
##stal
##urious
reun
stated
asp
##ulu
##ulin
haven
##oop
##estic
##ifts
##usi
##ushing
##usively
weak
##isters
##ivated
deleg
shy
shut
##osc
enth
usual
Think
compl
##agues
resource
##ache
contest
leaf
leaving
##acks
incur
quilt
##erved
anywhere
manually
spread
teaching
Ital
partnership
##orship
somewhere
somewh
agents
aggress
190
recre
colour
experiments
shouldn
streng
dram
smile
invited
carbon
persons
decades
basically
studio
mini
Forest
patience
cheap
cheese
Advent
attached
##covery
##chnau
applicable
readers
presents
profits
Frank
possibilities
defined
extensive
surf
keeps
booking
vari
feelings
accessories
viewers
happiness
artists
articles
Margar
##tones
estimate
statements
learned
checks
operate
stories
positions
entered
1995
1994
connecting
species
parent
effectively
##oking
responses
Lead
safely
lessons
Canadian
##arsh
packing
reporting
airport
##ospel
occurs
employment
installation
damages
lapt
picks
Join
diabetes
Does
versions
consuming
consumption
bringing
explains
likes
newspaper
indeed
linked
trading
participation
touches
Quarter
bedrooms
Peoples
portion
represents
Added
##ART
Remember
district
updates
##ographic
reduced
Peter
machines
wooden
absor
clearly
definition
reference
referred
displayed
officer
Brok
balloons
sending
cooling
replaced
Westville
fixed
##onym
negot
captured
layer
layout
Works
golden
##ENT
Ellis
agreements
balanced
convenient
acquire
promotion
introduction
revolution
assessment
Using
##IDGES
upgraded
exclusive
strategic
Lincol
Designs
virtually
debt
carrying
announced
solely
Indeed
confirmed
Krist
##sembly
Conflict
Oakridge
earnings
shooting
Easy
Eastern
ceiling
predict
emphasis
Valley
laboratory
spectrum
transactions
Representative
bodies
Traders
refreshing
BRIDGES
Motor
complicated
surprised
cycling
Victoria
CPU
Denali
LOVE
Standard
Support
interpret
opinion
publishing
adoption
RCB
Welcome
gym
mascot
guarantee
favourite
Virginia
Democrats
Digital
lobby
impossible
Industries
Realtors
Rhea
rapid
Beverly
EMR
ingredients
unexpected
portfolio
circumstances
Ireland
Moultrie
Yadav
herself
somewhat
strengt
Margaret
Lincoln
%.
'.
($
02
04
47
62
64
88
86
84
AD
AP
ALD
Bi
Bes
Bart
Bush
CC
Cre
Cross
Craft
DO
Diet
Dining
Drop
Es
Eth
Fa
Fab
FICO
Gables
Hon
Hat
Hen
Hard
Hand
Hosp
Jour
Joy
Kn
Les
Mir
Mun
Matt
Nat
Nations
Nok
Nature
Ont
PT
Pas
Pink
Person
Rol
Rac
Rock
Sar
Set
SER
Ton
Tor
Tell
Treat
Tri
Tamarind
Um
UP
Ves
Ven
Vis
Very
Wil
Way
apart
bat
bag
bite
cos
cop
cott
cogn
dy
divid
fell
fade
flying
god
hole
km
kit
lg
lon
lies
losing
mel
mort
mall
mand
mole
northern
roles
rule
sour
tag
tickets
tamarind
uk
vel
vary
wing
wires
wickets
##pact
##point
##list
##los
##life
##oa
##eat
##my
##cher
##cats
##cceed
##gor
##gen
##gate
##ucc
##uits
##file
##hicle
##bour
##Bank
##GA
##Press
##joy
##YO
##inar
##inis
##inate
therapeutic
##onna
##org
##edy
##edar
##edia
##itz
toward
tooth
##alse
ine
##repr
##isan
##omat
##lequ
##rodu
ongoing
beam
begins
reform
##utral
##oted
##aymore
##charge
##adly
##amental
stations
stones
prop
prove
##vere
##tered
whom
yours
##akh
expression
##uner
##pection
##pends
##emp
depends
succeed
shine
##osha
choosing
enables
##uder
##andon
##andom
##andel
##quir
pricing
heav
hasn
hass
##agon
##agine
doors
##ibl
context
leather
outcome
##ailing
##ikes
inches
##mph
intel
##active
quinoa
anyway
##ogue
Stone
mystery
##ferences
dismiss
disabilities
dispute
tea
##ulty
unp
unable
preced
committee
##plays
agencies
offline
scall
scope
##owned
mostly
supplement
twice
blank
relatively
symbol
greatly
undert
backyard
Anderson
kept
keys
academ
instruction
##rolog
believed
designing
processor
detection
bridge
effici
inspection
monitoring
applicant
prescrib
Prom
granted
##aza
publis
supporters
deficiency
handy
formal
2001
survey
Enjoy
beds
organisation
headqu
passport
generous
Whenever
viewer
Autism
mainly
lasting
Claim
Cloud
Claymore
controller
Mars
Shop
Should
Allah
confident
Sports
checked
bread
importantly
reception
enjoys
enterprises
Country
moves
factory
engra
muscles
buildings
Appro
presentations
##verse
capability
Phili
painted
faces
facing
facil
##ESS
reviewed
prototy
Control
limits
housewarming
increased
focusing
stylish
Amanda
saying
employer
installing
Need
Neolithic
##iveness
##ronics
construct
picking
practical
##compass
joining
superb
trees
histor
concerts
reasonable
preparing
buyers
celebrity
celebrated
Studios
##ERE
Quest
cookie
tablets
hotel
Despite
regardless
Feel
educational
collecting
involve
involves
hosts
commonly
authorities
fallen
##alius
contracts
recorded
Additionally
hyper
Guard
distinct
Petros
!!!
totally
towing
smartphones
Twitter
ballot
renowned
warrant
amounts
representing
Makefile
walls
1989
Drive
ITV
examples
Abb
fabulous
Everyone
targets
conversations
preferred
priority
obtained
illness
McL
houses
silence
solve
engineering
votes
graphic
maxim
implemented
awarded
##front
broker
measurement
Academ
depth
Angus
flexible
evaluation
evaluate
injury
bathrooms
Palm
Associate
exclusively
suggested
##IGH
reservation
behavi
folder
administr
architect
SoftBank
troubled
Berlin
Volunte
assigned
continuing
continuous
scientists
ultimate
suffering
occasions
satisfaction
Topics
##missions
athlete
Career
Mainframe
reaction
ACM
Cinema
merch
channels
industries
opposition
Genpact
toilets
191AA
initiatives
pushed
Vehicle
Applications
CHE
Certified
Help
Kingdom
Learn
Rauner
tonight
Ghana
Women
mistake
Russia
walks
procuring
exposure
repeat
consequences
Insurance
Advanced
entrance
Family
Movie
fifty
protein
Fellowship
downtown
slices
accordance
Children
vendor
Diego
SANYO
Tahlequ
adequ
script
museum
lifestyle
cuisine
tomorrow
reunion
enthusi
Italian
strengthen
ALDI
Nokia
Ontario
Vesalius
Philipp
Petrosian
Tahlequah
.)
05
03
334
3rd
43
400
59
61
600
7s
73
85
9th
Ap
AT
AV
Aven
BP
Bir
Bun
Blow
Bath
Based
BBC
CF
Cou
Cro
Cow
Cam
Cast
Canc
Crew
CICO
Cedar
DC
Det
Due
Dunk
Er
EC
EX
Equ
East
Elis
Ell
Econom
Ful
Fun
Fast
Fair
Girl
Gerald
Haw
Honey
Herald
Honda
Imm
Jü
Jul
Jord
KX
Kit
Kore
Kav
Kock
Lou
Log
Lady
Ma
MS
MX
Mid
Mem
MOS
Manche
NE
Nor
Northern
Oft
Pen
Pack
Point
Pair
Pict
Pope
RA
Rom
Ray
Rangers
SE
Son
Sem
Sand
Site
Search
Saf
Schnau
TX
Tim
Term
Ur
Ver
WH
Woo
Want
Wall
Writ
blow
bats
baked
bamboo
cher
caly
codes
caught
civil
cooper
died
dating
dietary
ebooks
fles
gh
gent
grew
giant
jack
junior
liber
mo
mile
nor
native
por
pure
pile
pup
rating
sample
sides
soph
till
tun
vital
vacation
wise
wool
wrap
”)
”,
##tra
##ris
##rive
##rite
##rens
##rnam
##pg
##lich
##like
##oen
##oaff
##don
##dess
##mos
##mistry
##nic
##nel
##name
##cure
##cular
##uct
##upp
##ship
##fo
##fish
##father
##yer
##kele
##hin
##hroom
##hoot
##bool
##va
##vis
##UR
##wear
##zan
##LA
##5b
##FET
##16
##MP
##jud
##inav
##eria
##ndry
##orce
##oub
##itry
##alle
##arp
inse
inject
##reement
##isition
##ico
##ione
##omer
##lec
##asers
##etry
##stone
##style
rect
##uther
##oting
##iders
##ceal
##igraph
##olved
stands
stability
stars
stead
##secut
prox
procl
##ims
ang
anime
alarm
##ula
##uls
ornam
concent
##tery
##raid
##raising
##abil
##abakh
##ested
attain
##usal
exch
exists
exec
execut
##unal
##eman
sequ
dele
depend
degre
shares
washing
##ander
##andinav
sovere
abide
abandon
Thomas
compress
comparing
##inds
##inding
resumes
##pton
##ptide
##ormons
lease
##izabet
incom
##mpic
queen
quote
Stan
Station
Starb
disse
discipl
teach
evolution
##berts
partners
arts
Chall
##ints
##aux
roots
knows
Allec
scr
##anges
##oven
##oval
indic
##ocal
##ocado
pharm
coal
coast
bug
supplements
Analysis
actively
setup
highway
syn
synt
Coming
smell
carried
decade
avocado
Seattle
Heaven
##ancis
transpar
financing
belief
patio
assume
crew
processed
donations
advent
Proper
Project
brass
efficiency
##coon
inspect
insulin
developments
lists
retreat
counties
Press
Fresh
customize
grip
grass
Univers
##plete
##iversary
##ahy
modify
topics
possess
possibility
defic
formed
Index
surprise
Enh
Enter
Environment
Scandinav
boot
organic
varied
flavor
follows
Trust
Trish
signals
Expl
surely
oblig
unto
controls
Margery
Shield
Spoon
opera
refuse
1990
causing
letters
equal
equation
factor
promise
USB
engaged
consideration
crime
expans
League
Leahy
##ucks
salad
caps
senses
Islam
standing
Blog
11th
edited
##hereum
investing
investigation
naturally
##alympic
packed
Bring
##lights
Partners
##icially
clicks
185
Maybe
focuses
legit
necessarily
employed
Trail
picked
Councilm
##fortunately
severe
testing
tested
explain
potentially
compete
appears
appearing
newslet
Patel
##ernel
returns
calm
Quick
agenda
##retch
Steve
Room
Robert
Roberts
cycle
hotels
closing
Paralympic
missed
tournament
tracks
GPCA
##psin
##inois
Disorder
breaks
floors
vanities
contractor
identification
fundamental
prints
printing
printable
Removed
Removal
holds
urban
reaching
fasting
references
premier
nutri
renting
warning
scheme
Integr
ringtones
statistics
capture
protected
figured
sixth
completion
inspiration
Working
motion
##holder
subscrib
politics
correctly
honor
miles
Edin
Perhaps
analyze
Elizabet
settlement
corporations
knock
encouraged
raise
##odeling
trailer
Secret
acquisition
conditioning
657
OCHR
applies
##presso
emotions
Imagine
pleasure
peaceful
candidates
NOT
plugin
passionate
workshops
templates
pulled
square
##burg
##burgh
contribute
robust
absolute
Soundproof
##amentals
suffer
transformed
manufacturers
Winter
birthday
Annual
confirm
garage
ranking
ranked
##quez
YOUR
scenario
detected
Harvard
comprom
Holy
Classic
Affiliates
Karabakh
SUMO
pushing
obviously
expanded
Ethereum
globe
revealed
advertisers
collaboration
incorporate
Creative
Opera
extended
sexual
universities
Experience
glittery
doubt
Clearview
Camera
crisp
editorial
increasingly
WordPress
covers
Consultant
SMG
breath
cluster
magazine
suspension
athletes
html
pregnancy
Professional
substantial
Illinois
gestures
thoroughly
strugg
anatomy
disappoint
WILL
afraid
stunning
believes
Stefon
acknowledged
harassment
neoconserv
elderly
mitig
Besides
Dropbox
Journal
Raccoon
Umesh
dynam
hassle
intellect
scallops
Questions
McLean
merchand
BPH
CICOA
Dunkin
Elisabet
Jülich
Jordan
KXIP
Manchester
Often
calyceal
##rnambool
##itrypsin
sequence
degrees
Scandinavian
Elizabeth
!"
%)
',
*.
**
07
77
720
800
94
Award
ALL
BM
Bal
Bet
Bul
Bab
Ball
Bible
Bamboo
Bangal
Bibl
Cord
DI
Dell
Dale
Daily
Emp
FI
Fitness
Festival
GO
GA
Gre
Giv
Hate
Hills
HERE
Jer
Jac
Junior
Kings
Kids
Lic
Lep
Lux
Lucky
MD
ME
Mess
Mart
Mand
Mount
Mont
Mission
Middle
Navy
Okl
OEM
Pos
Pump
Rav
Rub
REC
Sug
Sony
Sabb
Tel
Tay
Tower
Turn
Together
Vas
Vill
Vene
Wi
Zy
Zeal
ax
blo
bomb
browse
cul
cities
cute
cables
dict
dumpsters
density
elev
euro
fly
fake
fitted
fellow
gn
golf
gardens
ham
hang
harb
iob
iOS
junction
king
lip
luck
lemon
liquid
liability
mk
mut
mild
male
misc
nar
nom
nerv
names
pip
papers
pixel
pounds
pizza
rom
rice
ranks
random
sid
southern
tion
tent
tap
tub
tours
vul
vill
wra
wata
wife
zone
##aa
##away
##rated
##rtle
##pan
##piece
##lay
##ds
##dor
##den
##ef
##met
##cons
##copy
##gi
##uch
##uum
##under
##ko
##king
##hot
##bound
##vi
##vine
##UL
##UP
##west
##wall
##zuel
##WS
##RC
##Rem
##IA
##Pass
##08
##St
##SC
##Source
##VD
##VICE
##_C
##YN
##ón
##inc
##inated
##eration
##erts
##nding
##ato
##esis
topp
##ala
##aron
##arwood
inher
##icelli
##asant
##ashed
##rob
##eters
##etball
##stat
##struction
forth
##uras
##urst
bear
beams
##utt
##utions
##otic
##otive
##iginal
##olk
##chain
##adder
stable
stretch
##erse
proof
Their
##imity
analys
ancient
alike
alert
algor
orange
conj
conqu
combo
##aks
##cked
##umbers
##ifting
weird
neck
neither
neutral
##emb
##istines
##ivation
sees
seed
seating
##aints
suited
shook
shock
ships
sharp
##ustin
##opes
##ieving
chip
charts
chandel
##uded
plastic
##earchers
socket
abund
##outhe
prest
pride
prison
heated
compassion
##agan
##agram
reserve
resistant
Inn
Innov
##asters
##sover
contents
lege
##acker
outs
##ichat
##iking
loves
incent
intensity
##acters
quit
##ervation
##achmos
##iavell
disk
##igned
permit
##lose
newest
##assuan
university
themes
peptide
arlo
arising
arrows
preview
overview
##tech
##inton
inclusive
1980
1950
impl
thereof
produces
rose
rocks
Always
Alloy
Alto
offices
offset
colle
column
addict
regards
##issions
cozy
##merce
Ansel
acting
wanting
Release
strange
invas
invite
##pha
##phan
##onto
worst
marks
productivity
ownership
instance
minion
belly
personally
personality
medicine
assets
cheaper
##ixed
##eko
differences
emission
completing
Process
finds
##coins
insights
Placent
curtain
cleans
counts
metres
metabol
Prim
ending
Frie
Francis
delight
delays
grate
hereby
Unlike
##ahn
##ahoma
##rier
module
planet
defense
visited
extreme
Being
Before
freezer
restore
restorative
booked
valued
flight
flour
flights
betting
headed
signal
viewing
Autom
lightly
discret
artwork
Clin
Climate
foundation
controlled
currency
Shore
careful
Resort
issued
Cover
Spirit
characters
156
operates
refund
reflection
refused
storing
Connect
Conference
photographer
secondary
1993
caf
ordered
Manual
specified
equity
Without
payments
prompt
promising
prominent
engaging
mushroom
param
Apply
volunt
publication
enjoying
crimes
antitrypsin
escape
salmon
capabilities
Islands
alongside
##gged
Goddess
sumoaff
physician
functioning
Myrtle
clicking
immune
Mediation
Amb
Among
anniversary
accounts
accounting
Centre
tests
domestic
versus
133
nearby
Antonio
nights
encry
cuts
celebration
competitors
indefin
Patent
##ICK
tradition
integrity
Studio
Regional
##liers
determination
Swimming
cooked
##retty
losses
closer
roads
experiencing
educate
educated
filling
##forter
##forward
##ercy
stronger
involving
magical
Disc
Dispute
affecting
contractors
guided
identified
funded
fundraising
printed
maintaining
Remodeling
destroy
##ropical
slot
##uke
writes
steep
##ungs
planted
Compact
21st
answers
Corp
grab
hospitals
lifts
examined
Laver
loading
bottles
mounted
##345b
##kegon
Consumer
milk
Warrnambool
suspect
analyz
exercises
suggests
recognized
corporation
difficulty
Muskegon
alternate
agreed
raised
taxes
violation
violence
Security
PCNL
Ready
promoting
appliances
Upon
embrace
introduce
Draw
Gooden
Grandma
Portable
dreams
proposal
proposals
ecological
chairs
Palo
pleased
interaction
reminded
cruise
verify
reserves
Recently
straightforward
folding
luxurious
Berkele
Policy
Throughout
imagine
assignments
ethical
##umbing
Independence
Santos
Tyler
label
##weight
spiritual
circuitry
sustainability
Silver
drugs
recipe
component
spawn
sporting
attorney
attempting
estimates
teachers
diagnosed
Airport
Belg
Fundamentals
highlights
chemicals
Architect
Milk
duv
dropped
irre
judge
##eterre
##ammers
Representatives
occupied
##aneously
literally
Application
calculation
Capital
Learning
Restorative
Video
semester
shaped
Starting
shelf
Corporation
Corporate
Bottom
Botticelli
Machiavell
lamps
navigation
minimal
Administr
crisis
Philistines
troubleshoot
Hampton
Linked
Miller
Rahul
Susan
stimul
stakeholders
exceptional
originally
Melbour
unwanted
desktop
vegetables
Beautiful
Spotify
Performance
satisfied
dimensional
liberal
weapons
segment
enemies
precise
impressive
Counselors
Continue
Mexico
Colorado
Galax
Jewish
Kelly
female
overlooking
travellers
Armenian
configured
Attack
Guidebook
subsidi
CyberSource
agricultural
illeg
frustrating
Championships
authentic
Photo
renovation
Aubeterre
Ideas
Railroad
bonus
delegates
incurred
surfaces
Quarterly
absorb
Hatachmos
Hospital
PTFE
Personal
efficiently
headquarters
prototype
Academy
Avenue
MOSFET
Schnauzer
flesh
gentle
##igraphy
proximity
Edinburgh
merchandise
Bangalore
Biblical
DIY
Givat
Licens
Oklahoma
Sabbath
Vasquez
Venezuel
Zealand
iobuf
watah
algorith
chandelier
Anselmo
Placenta
discretion
sumoaffiliates
Berkeley
Melbourne
Hatachmoshet
&#
);
08
350
55
Ax
Au
Aw
A3
Aqu
Aac
Access
Agg
AAS
Apartment
Austin
BS
Bed
Bio
BIC
Browse
Ca
CM
Cur
Cad
Cass
Code
Corn
Copy
CON
DU
DVD
Est
Ent
Eure
Ess
Emb
FL
Five
Fact
Fors
Flow
Federal
Hy
HIV
JS
Kast
Lor
Lib
Lov
Little
Lane
Laur
Layer
Mind
Mult
Miss
Mental
Material
Miam
MBA
Nu
Non
Near
NAS
OB
Oil
Ori
Pan
Put
Pun
Pall
Pav
Purch
Porter
RO
Ring
Rug
Rights
Ruther
Sin
Ster
Sher
Sury
STA
SEO
STV
Taken
V8
Van
Vood
Wat
Wing
Walk
Wedding
WPI
Wolf
WEP
Wifi
Walm
WICK
XI
Zone
au
aest
bol
bare
bits
bacter
cm
cents
coc
caut
cement
dorm
dump
dwell
era
fest
fasc
fought
gf
gut
gate
gun
gamp
gained
grey
gonna
hence
hike
hiring
hij
iL
iT
killed
lit
lid
lad
lag
lady
lucky
mm
mood
mob
mph
maps
mixture
mormons
nic
nations
nurt
nomin
odd
pond
pull
rum
ride
racing
ses
sar
sys
sadd
ta
tor
tur
tall
tone
tip
tier
tatt
tones
ticket
taught
ug
v2
vibr
wer
wave
worship
®.
’,
##aal
##aid
##iar
##ias
##iens
##iolog
##iently
##ran
##ray
##rest
##riv
##range
##pon
##pot
##page
##lan
##oir
##eper
##mith
##mium
##night
##noon
##cre
##cell
##cry
##cade
##gage
##gely
##ugh
##upt
##uild
##fres
##yth
##yame
##kee
##bl
##bor
##bel
##bally
##UT
##UV
##wire
##watch
##Bons
##Bridge
##OL
##zo
##zens
##Liens
##GE
##25
##29
##TC
##TR
##1L
##150
##86
##SF
##Man
##35
##jab
##hell
##inter
##inals
##inyl
##erior
theory
theatre
##onic
##onom
##onian
##atar
##atoes
##orage
##enic
##enities
##edition
##itage
##itivity
##anie
##anagan
toss
##arn
inn
ink
inac
##isian
##iculous
##leman
##asm
##ashes
##entang
##elve
##illy
##ilton
##rog
##rovers
##etal
##etch
##etheless
forest
##urate
##urities
begun
reim
rever
reaches
##lyn
##idem
##aya
##ige
##igible
##olan
##olars
##olini
##adow
##aduate
stages
##irates
##irty
##send
proport
analog
anonym
alumn
alumin
aside
aspect
##uling
conver
##terday
habit
##about
##abling
##estones
##ummy
exit
##una
##unc
##unes
##empl
##emony
##isted
##ivals
sevent
sectors
dear
delete
deeper
suite
sudd
##orted
##osher
##ieces
chart
enorm
enquir
plays
##andy
soak
aller
abb
adm
adorable
Thail
prime
compar
composed
compiled
##ective
dock
dozens
##ibe
residence
resolve
##aca
##acle
##orms
clunk
##asting
containing
controvers
##ousi
##ails
##ailable
##ikely
worker
##ogs
Stay
Stra
Stop
Stock
Style
Stutt
spo
spicy
##ordinary
Weight
disp
disabled
displays
perman
##ultaneously
province
unus
uniqu
needing
peer
peers
arms
pref
overw
mayor
##inking
producing
servers
Along
desir
description
firing
scored
scroll
##ateral
##owners
traum
phil
Whatever
everybody
suppliers
Answ
seeks
acts
twenty
twelve
bless
blown
bladder
Recon
relatives
locally
Comes
Comput
smoke
smoking
simultaneously
Andy
Andre
decre
deciding
guilt
wherein
instant
instantly
Season
miner
Head
transl
transmitted
requests
Force
finances
longest
designated
patch
patents
afternoon
marketplace
Adam
advise
attach
emitting
Protech
branc
##cope
insight
retro
returning
readings
presidential
preserve
meters
Prior
endless
customized
swab
offerings
##axko
##ahoo
Tech
default
handling
handgun
formulation
2006
Individ
Society
extens
extension
performances
runner
Enc
boots
flag
flav
flash
beta
subsequ
headsh
##pared
ceremony
accessing
accessed
Trib
Trump
signed
Author
realized
disclos
brother
foundations
##ventions
specialized
confused
confidential
childrens
Spinner
charged
elected
successors
showed
1991
cafe
letter
equival
puts
engines
directory
musical
muscle
musicians
harder
winner
##oken
responsive
antib
export
explo
Americans
Legal
##tedly
##ucker
privately
##mann
contacts
eligible
nonwork
117
investors
reviewing
arriving
arranged
functionality
Brant
Bright
Branch
immigration
Chemical
individually
employers
Suff
lowest
##mingham
damaging
##help
1470
practition
temporary
accountant
##iliate
communicate
superior
benefic
132
trem
governance
explan
liked
potatoes
encamp
circle
celebrating
appeared
removing
integral
integrating
Region
Register
240
respected
touched
Swiss
cookies
discussions
cycl
automated
automobile
automotive
attended
attendees
measuring
Carol
portra
seller
combining
claimed
awa
economies
magulu
extraordinary
freight
welcoming
Ministry
animation
blogsp
failing
married
##ennis
stayed
Remove
destinations
THIS
sentiment
1961
1963
decoration
decorated
decorating
assisted
Flanagan
Germanwatch
fastest
initially
existence
chatting
supplying
volunteering
writer
##TAIN
favorable
Brown
Gran
Month
Satyame
balls
nuts
rounded
strain
achievement
hearing
accepting
acceptable
inflation
Moreover
tastes
statist
neglect
introduct
captain
capturing
protecting
Agreement
essay
Syr
candles
retailers
electricity
Boomer
Everything
drawn
preferences
requested
towns
obtaining
counselors
Films
Springs
telling
##clear
McC
MacRem
burrit
supplier
Muslim
talents
talks
##deco
clouds
dressed
campaigns
distributed
adjustments
HealthBridge
../
genu
Reading
repairs
Acuras
Upd
poly
LifeRE
blockchain
Crime
Crush
catalog
cellular
ecology
panels
Image
humid
humans
containers
accuracy
interactive
interactions
joints
landscap
timing
trainer
Location
savings
##marks
pulse
undoub
robot
imagin
ethics
##ixtures
##REE
fishing
procedure
enhanced
compensable
Assistant
faithful
Type
##screen
adopted
speaks
licensing
GMT
Silence
Surv
penalty
pumpkin
exhibits
1957
strengths
paintings
Audi
Auditor
ample
crafts
advisor
Bowl
fairly
watched
ambient
occurred
Systems
accommodate
Extreme
Golden
judg
mixed
Charles
survive
cryptocurrencies
demonstrate
PMI
Singh
hopes
sprint
Ohio
##capes
dominant
renewed
drawing
Victorian
Collins
derived
durable
mechanical
Administration
Examples
Japanese
podcast
##bergue
restriction
restrictions
Laboratory
Pollack
rolled
rolling
oriented
uninstalling
recipes
dimensions
Spectrum
juice
racist
vitamin
sauce
sauces
assuming
legislation
cylindrical
Kenya
Olentang
beside
lecture
##a_copy
##doors
outfits
quotes
Principles
approximately
Queen
laundry
venue
##ohli
summar
fragrance
Düren
Trojan
boundaries
catering
##oji
##communications
Leadership
laptop
888
Hardik
LesBons
Natural
Passover
Rolled
SERVICE
Toronto
UPDA
Venus
cosplay
veloc
academic
engraved
warranty
Volunteer
MoviePass
Birmingham
Bunola
CFUV
Ellen
Hawai
Kavousi
batsman
sophistic
proclaim
ornaments
deleted
Stanley
expansion
legitimate
newsletter
Robertson
Secretary
intellectual
RECongress
Villiers
Zydeco
nervous
legend
grateful
parameters
Laverne
Machiavelli
troubleshooting
LinkedIn
Galaxy
Venezuela
Aachen
AASM
BICSc
Copyright
Eureka
Miami
Punjab
Rutherford
Surya
Voodoo
Walmart
WICKET
gfci
gampang
iLead
ugly
weren
##fresh
sudden
enormous
Thailand
Stuttgart
Protechsoft
blogspot
Satyamev
Boomerang
MacRemover
LifeREstyle
undoubtedly
Olentangy
LesBonsLiens
.'
/.
06
1F
58
5th
72
76
700
89
8th
92
900
AR
Aaron
Bing
Bent
Bur
Bear
Bob
Boy
Body
Bern
Bomb
Bears
Cer
Cab
Card
Cook
Cond
Coc
Crit
Civil
DN
Dom
Dark
Dave
Drew
Domin
Ey
EU
ES
Ever
Eric
Event
FR
Fed
Fre
Fra
Four
Field
Focus
Foot
Fox
Gun
Gall
Gri
Gospel
HB
HE
Has
Hold
IF
Iron
Jar
Jose
Jones
KL
Kohli
Ly
LD
Lar
Living
Lock
Lakes
Lemon
LLC
MO
Men
Made
Mob
Mining
Maut
Member
Maur
Magn
Nig
Nursing
Numbers
Nolan
Oax
Ocean
PS
Pis
Page
Pap
Pors
Pract
Pok
PRO
Passion
Pretty
Qual
Rad
Rain
Rio
R1L
SL
Sen
Sol
Sep
Solutions
STE
Sorry
SCC
Southern
Sadly
TN
TR
Toy
Tool
Taking
Times
Ubs
Ult
Vic
Vintage
WIM
Wisc
Yellow
Zak
bike
bother
bars
bull
bags
borrow
cin
cart
cake
coura
dust
dough
dup
draft
dirt
dosha
ez
fond
font
fears
false
fixtures
gum
gently
gains
graft
garbage
gaming
hits
homet
hung
holes
hurt
harsh
i8
jail
jazz
library
mac
mater
nick
navy
nursing
ow
ore
oak
ocean
pc
pel
pig
pour
pork
pac
pace
pays
pitch
pension
rig
rag
ranging
sch
sick
sne
sights
sisters
tens
tube
tropical
vinyl
wip
wider
witness
xasprintf
yield
yards
®,
##tim
##tons
##troller
##ii
##iences
##iams
##rate
##rif
##rus
##rass
##rings
##rals
##rument
##po
##pract
##lton
##lined
##da
##dale
##eep
##mi
##mates
##mother
##makers
##nity
##nish
##nger
##names
##cm
##cul
##cue
##caster
##ga
##gos
##giving
##gcry
##ui
##uity
##uell
##sor
##fael
##furt
##hire
##hors
##hatt
##ba
##bow
##bial
##bird
##Net
##Nap
##DIM
##Drive
##vie
##vath
##write
##BS
##BLE
##Hz
##OD
##zent
##zil
##GS
##Cs
##TP
##TER
##82
##77
##EG
##EI
##VIT
##_p
##Xiv
##hew
##hemat
##iner
##inity
##inely
##inating
##inental
theater
##onnect
##onze
##atme
##atulations
##esse
##orous
##enity
##enupt
##ede
##edonian
##itar
##itutes
##anies
toe
toy
##alo
##ara
inner
inhab
inbound
##reets
##icon
##icio
##omen
##ashing
thres
##rove
##eto
##eted
##ste
##stood
##stock
##staff
isol
island
forem
##urches
beer
beverage
reject
rebo
##utor
##uting
##lywood
##owed
##igon
##oline
##chungs
##ador
##adium
##amity
##amber
##amless
stag
stap
stump
stems
stops
stabil
##ira
prod
propr
##imp
##imon
##veral
alle
asks
##ulatory
cone
conv
congr
congress
##terior
comf
##rac
##raction
##racing
##gender
##abri
##esting
ate
##heries
fried
fridge
franch
##ckham
##umper
##ifier
##ushes
weigh
weave
expend
exceed
exha
##unate
##embers
seamless
succ
cancell
shore
shots
shrim
##osa
##ustion
##ighty
##thos
notch
chill
chop
chronic
champions
ensemb
enforce
encompass
##arding
##ourmet
##uding
plates
##earing
##andal
##cia
sof
soil
soci
socks
##oster
ads
adoles
##oding
##outique
##quo
##quila
prenupt
heights
hepat
compos
comptroller
tries
##agl
##agen
##agers
##ureau
resil
resort
researchers
##acs
##ormal
ups
cler
cloth
##asty
20mm
2030
##ffe
leis
##ousine
loy
loving
lovers
login
buttons
intent
intend
apple
workplace
##forming
anymore
manip
##ogenic
Store
Storage
##aceut
span
myster
##epiece
##iah
disru
discovery
permitted
##lov
##berline
Youth
##gren
speakers
##lication
peak
arXiv
accred
Change
Chair
Choose
Charter
Chlor
overt
overhead
intermed
intervention
agarwood
##inkle
implant
##adeck
Alm
Albergue
officially
amend
amended
amenities
desper
desires
deserves
fired
colours
scar
scent
scrap
screw
##onsin
regulation
hero
indul
consists
consolid
coat
coins
coaches
coaching
everywhere
bund
noise
remark
##ampion
##ampian
supposed
Anxiety
actress
##ricane
twe
twin
##ioch
reliance
companions
dried
Comment
undergr
underground
##obahn
##endous
##olds
caring
carries
carrier
worse
homeowners
##ksw
marked
decent
avatar
guitar
acids
##gets
##...
startup
studying
whereas
##ieties
##hesis
institut
instrument
Several
repet
minister
ministry
requiring
Dev
Deep
personnel
medic
medication
courts
designers
asset
cheer
chemistry
advised
emissions
Produ
brid
brill
developer
##aws
##aways
retain
retros
retrie
##ometric
metall
Arena
Arizon
Arcade
Price
eastern
delivers
grid
funny
opens
Union
Unless
##upg
memories
##insurance
supportive
posters
Tele
handed
handled
Indones
largely
bedsp
floral
##cedes
devoted
##eneurs
header
earning
passengers
accessibility
followers
correl
signing
signatures
125
mainstream
Sheet
Clark
broke
obst
obey
Maria
specialists
Residential
videographers
opposed
Cox
Coleman
Spin
affiliates
infection
155
151
operated
operational
refin
refusal
Attend
Conduct
photograph
photography
films
cleanse
centers
equally
entit
promises
approval
directions
paralle
enjoyable
purchases
numbered
crushing
antim
Leaves
privile
glam
understands
conditional
##ussman
contacting
creativity
paste
pastry
##isms
lesser
painting
organizing
organizational
edges
##attered
invested
Original
faced
faculty
terminate
Antioch
arrived
physiology
Particip
180
Chester
Medicine
airports
Mayank
Suzan
annoy
installment
##ACK
##olidays
emails
##annel
lawn
pickup
145
Caledonian
Calamity
dealership
Doctor
Windblight
##lerton
explained
encoun
prepares
celebrations
##AND
integrate
integrates
Study
returned
##liament
fields
kitchens
##ERY
shortly
determining
Switch
Swagar
cooks
typical
closest
Peace
missiles
combine
regarded
broadcaster
brave
hosting
hosted
utility
##arios
Thankfully
##uxe
blogs
geograph
##ARD
##enna
##ennel
maintained
Schools
distract
uranium
Artist
reduction
Peters
1969
Anyone
assisting
Sundar
Instead
referrals
steering
premises
smartphone
Broad
Brook
Brockham
Grade
Grampian
roundabout
strains
associations
achievements
hearts
represented
representation
Georg
replacing
accordingly
acceptance
fixing
tasty
statue
neglig
1982
1985
1986
Generally
consulting
consultant
certification
Buy
Premium
figur
layers
safegu
Baron
##Commerce
platforms
stressed
Blackberry
Box
targeted
##paid
qualify
preference
Area
grandma
terror
billboards
babies
optional
1973
1974
knowledgeable
attracted
downloading
utilized
McN
McM
Macdon
Smith
buried
gathered
silk
settled
encouraging
racial
raising
##kyB
##AAAA
stocks
adjustment
implementing
answered
Overall
critic
criteria
fault
stickers
acquired
promotions
batteries
firmly
Account
Credit
Irvine
lyrics
midst
observe
observed
yesterday
Portug
aims
emotion
diets
emerging
slowly
injured
##iscal
Images
craw
crazy
reminders
Coordinators
SODIM
reservations
Designed
folders
Police
Volksw
contempl
accompan
Realty
transferred
optimize
ultra
ultimately
##ombie
consistently
ANY
Electronics
fighters
##ophy
Alternates
Annie
Independent
Governor
Grab
Grace
Krussman
Maintain
Maintenance
wildlife
thriving
threatened
Bookcase
GMC
Oakland
Silberline
banking
deadline
scenarios
drinking
##azzah
seriously
Mercedes
Simple
Simply
Tourism
cease
denied
Strong
simpler
emphasizes
diagnosis
establishment
initiative
Below
waters
throwing
prospect
prospects
Archadeck
Republicans
arrangement
accommodations
Break
horiz
adaptive
transaction
switched
Veget
hoping
unfavor
Scouts
advertisements
officials
incorporated
Creating
Diabetes
DiNap
Operations
malpract
mentor
semi
##ynthos
ordin
shapes
sparkle
universal
argument
shelter
surprising
eliminate
eliminated
dominion
Ghazzah
Machine
Return
Woman
duration
division
##hyth
abdominal
minimize
Constitution
Brazil
iconic
corresponding
correspondent
Expedition
empowering
lawsuit
Olympics
Farmhouse
Purpose
virus
forums
orientation
quantitative
Beauty
discounts
magazines
Downloads
???
Basic
Horizon
Horvath
Ident
Object
Pakistani
dialogue
ttyio
reinforce
weapon
enemy
split
Ashwin
declared
Mexican
supervision
CSR
Crypt
Crystal
Current
Currently
Limited
Modern
astrolog
chrome
apparently
unlikely
belongings
Protection
Principal
territory
psychological
Culture
Gatehouse
MMUP
Roofing
Vietnam
Vietnames
frozen
linen
tissue
tissues
##continental
Atlantic
deployed
Fishel
Greeks
RSS
Saigon
Titans
diesel
pillows
rustic
recreational
Frankfurt
variations
Brokers
interpretation
rapidly
Dietetic
Faith
Henan
Pinkfresh
Wilson
cottage
divided
lonely
##repreneurs
heavily
prescribed
historical
Economic
Fullerton
Korea
Memorial
cooperation
##hinagar
insect
injection
rectus
steady
sovereign
abandoned
Starburst
pharmaceut
adventur
obligations
struggle
dynamic
BMW
Better
Lepage
Luxury
OEMs
Pumpkin
Sugar
Taylor
gnupg
conjunction
##outheast
colleagues
encryption
Belgium
Milkman
subsidiary
illegal
Licensed
iobuf_
Cadfael
Forschungs
Kastner
Lovely
Pallot
Purchasing
Rugby
Sterling
hijacker
iTunes
ladies
nominated
tattoo
##ught
##ython
aluminum
uniquely
overwhel
philos
Reconstruction
Computing
handguns
subsequent
disclosure
equivalent
Suffolk
beneficial
tremendous
introductory
velocity
Hawaii
iLeads
Gripper
Mautino
Mauricio
Oaxaca
Porsche
TNT
Toyota
Wisconsin
Zakynthos
courage
hometown
##zentrum
##atmeal
threshold
foremost
ensembles
prenuptial
hepatitis
Chloris
parallel
Suzanne
Macdonald
SODIMM
unfavorable
DiNapoli
malpractice
Vietnamese
Forschungszentrum
!),
,'
.).
01
1B
53
68
66
669
82
834
93
96
?)
Ah
AA
AJ
AZ
Ath
Apart
A80
Alex
Ba
BA
Bon
Bud
Bry
Bert
Bask
Beds
Bapt
Biology
Bucks
BACK
CT
Cart
Cru
Colog
Cair
Cres
Cream
COS
Crowd
DH
DA
Dou
Dut
Dron
Daxko
Ducker
EE
End
Eff
Emer
Eco
Eye
Eli
Emm
EAS
Fal
Fig
Fore
Fake
Furn
FIG
FREE
GH
Give
Gord
Gang
Gals
Given
Gift
Gabri
HA
Harm
HIGH
Il
Ice
Iss
IIT
IAP
Jr
Jed
Jud
Jama
Jazz
JSE
Jeb
Kum
Kick
Kerr
Khan
Lu
LI
Led
Lol
Lab
Lind
LAN
Laser
Luc
Liquid
LUN
LGB
Luke
Luna
MK
Map
MON
Nur
Nike
NHS
NPs
NBA
Ok
Opt
Option
Oatmeal
Po
PI
Pot
Pow
Pum
Pie
Pier
Puro
Pizza
PART
Peko
Python
Q345b
RV
Rot
Rth
Rud
Rog
RAM
Risk
RWD
SP
SQ
Som
Sud
Sac
Snow
Slow
Size
Sets
Self
Solution
SET
SIG
Soul
Sett
Saints
Tal
Test
Trou
Tich
Tree
Tank
Talk
Tai
Templ
VA
Verm
Vision
Vocal
WR
Wad
Wire
Wins
WAR
WIT
Winner
XMP
Yu
Yel
Ze
Z80
__
az
aer
apt
bin
bay
bake
bree
bub
baking
batch
bicy
cust
din
dat
dil
dad
dive
dread
diversity
dimin
ek
eR
ele
ech
ebook
erect
fi
fool
fills
fitting
festival
fiscal
gay
gad
gap
gross
google
greet
gotten
gospel
hi
hate
hob
hired
hitting
hiding
ip
iron
jar
jury
junk
kings
kiss
kne
kits
kale
kaal
liv
lime
lap
loun
lived
mW
mur
mad
mature
ny
nam
om
oy
oun
pra
pound
phen
pants
pupp
ric
rally
rame
rising
riding
rhyth
sou
sen
sam
sight
sells
tu
ted
tro
ters
tain
tive
ties
tack
tile
tons
tune
tape
tiny
tennis
umb
vig
vap
vivid
ward
wages
wired
wipe
xml
yard
##tic
##theless
##temp
##ais
##aft
##apped
##iating
##ienced
##rent
##rig
##rible
##ront
##ression
##rification
##rison
##pad
##lu
##lace
##liness
##lines
##dra
##dtemp
##eed
##eas
##eah
##mic
##mans
##map
##mble
##ns
##nosis
##can
##cest
##card
##cery
##cific
##cling
##craft
##gl
##got
##gain
##gie
##gling
##gman
##uce
##uance
##far
##foot
##yers
##ygen
##kirts
##kernel
##how
##hield
##bin
##bay
##bish
##bits
##born
##Do
##vo
##vit
##UF
##UE
##wing
##world
##BL
##Boot
##HK
##HER
##zh
##LS
##Grange
##RS
##RAM
##IAN
##PS
##FLA
##Force
##03
##AI
##Sex
##Mb
##View
##_s
##_op
##66
##jc
##jö
##99
##94
##41
##400
##;;
##inet
##eries
##eranium
therap
##oning
##onice
##atal
##aters
##atics
##esy
##orious
##organ
##orilla
##eners
##enzo
##inge
##edo
##anz
##anqu
android
toast
tomat
##aler
##alur
##arious
##arged
##arwal
inex
##rell
##isp
##icide
##icular
##omic
##omach
##omatic
##lee
##asel
##ela
##eland
##ilty
younger
##rots
##etary
##sts
##stown
##string
islands
fork
forec
##veys
##urbs
bee
beans
rewards
recharge
reverse
##lyph
##owah
##idis
##ayers
##cend
##ationally
##igr
##igan
##igate
##olo
##aman
##amins
ster
stain
storm
stere
streets
stomach
##irations
##ersey
##sex
##semble
probe
props
Therapy
anx
alter
alerts
alpha
aspar
assemb
assembly
##ulating
orphan
conce
comedy
haul
habits
##raw
##racy
##abe
##estone
french
##umph
neat
exempt
executive
##unting
##istible
seasons
deem
##orte
canv
cancel
shade
shred
shades
shifts
shaft
notable
##iev
chic
chase
chose
chores
chapter
churches
enl
enabled
enabling
##uders
plc
##andhinagar
##cier
##ellence
##ellaneous
socially
Thriv
##odies
##outs
prize
healing
compare
##agus
##ureen
##ibbe
##inder
resident
resemb
##ptune
##acon
##acles
upside
20th
meats
##ccer
##soever
leverage
outlook
##ika
##izz
loan
loans
loft
logo
locks
incidents
intact
intense
##actus
quic
##ansas
Stat
spare
spokes
spoken
##eps
##reath
diss
discharge
tender
tends
teaches
Young
##aved
unre
unst
unav
unne
unaut
unfortunately
peoples
##aysia
argu
accum
precious
prejud
##uble
Chi
Chief
overd
##pled
##plus
saus
1920
1930
justified
##ials
##onds
##ondy
##onder
##auer
servicing
rope
Ali
Alert
Alcohol
recording
recover
offend
offense
scrol
vegg
##ovo
##cessary
additions
addiction
##priate
registry
##oche
##ocation
##ocracy
conserv
tract
phr
coil
remed
supple
Ana
Ancient
##tsy
##rica
##ricted
##ificial
##iolet
Ref
Reed
Really
##iously
relig
strip
drives
drilling
locate
Computer
Complete
sheep
smash
smarter
underw
understood
##obe
##phy
carved
cargo
carpet
carrots
##oya
thence
guy
guilty
acres
##getic
secular
wherever
reprodu
Hey
Heasel
transpl
transgender
transcontinental
imper
Deb
Dean
Death
Depending
medals
assured
afterwards
##ounce
chest
Adobe
donate
attrib
emoji
purple
##otted
complement
deterior
Proceed
bronze
findings
insur
..."
calligraphy
Plaza
monies
monitors
curve
retire
autumn
authors
president
Argent
Private
easiest
customization
deliber
gram
grants
grilled
grasp
101
opio
sketch
sweat
##avender
modules
tops
Teach
possession
defeat
visible
handful
Industry
Indians
Soon
##arma
surge
Ens
restart
boat
booth
boasts
valley
organised
##istries
varieties
flick
submission
subtle
suburbs
excav
excuse
headache
headlights
earli
earrings
##parents
ceremon
passes
passenger
Truth
generic
featured
128
12th
Autobahn
realistic
lasts
##lessly
happier
disconnect
Cla
Marsh
Sha
Shaw
fewer
continually
estream
Resp
Result
confront
childhood
Coach
Coffee
infect
checklist
charity
charges
breach
operator
refers
showcase
Common
Commun
Contain
Convention
posit
filters
kindly
pointed
internationally
cleaned
cleanliness
Manhatt
lettering
additionally
centres
equations
##conforming
##bridge
entrepreneurs
milling
payable
payroll
rede
redes
##resistible
promised
USE
english
directed
serenity
classroom
hardly
considerations
crash
expense
Level
Leaf
glory
mapping
sensations
##lishing
contacted
Island
305
creator
elk
elite
Blu
Phishing
nonconforming
##eleton
##balance
ensures
socializing
Order
termination
digest
digging
arrive
summit
packs
##lementary
Brad
Brun
expecting
##iciencies
immun
immort
Chevy
Mediator
Mayor
Colour
legally
futures
singer
##ertips
Neptune
activate
##icrobial
##entials
Track
constitution
##comed
accountable
250
waited
Joel
diodes
minded
dealing
Window
134
501
explos
achieving
sidewall
##tters
celebrates
placing
competing
competent
newspapers
colored
addressed
independence
removes
countryside
Patient
Related
treatments
##ANT
Regulation
244
24th
bitcoins
keyboard
calming
cardi
Quinton
audiences
Steam
Stevie
cyt
latency
closure
Caribbe
Parents
Paragl
missions
portal
sellers
tourism
claiming
tracking
##ECT
strongest
Speaker
Specific
Disability
Discover
grounded
welcomed
##INVIT
beginners
selecting
##covered
Parks
cultivated
falling
wondering
freshly
bloging
guides
margin
margins
##ARS
##enny
structural
triple
manufacture
manufactured
maintains
Donald
Guy
Guys
barrel
disturb
urge
Artisan
reduces
slate
slice
##cript
1967
1964
totems
Instagram
definitions
worthy
steal
steam
displaying
blackened
Grass
micros
renal
rented
association
pressing
Compet
Companies
gardening
Letter
amazon
inflamm
elsewhere
Introdu
Weston
matching
wallpaper
formerly
1983
Finch
examination
Again
Agarwal
Laure
Launch
LaGrange
essentially
loaded
motiv
Boedo
PAs
Williams
drag
##key
conversion
crystal
grandfather
grandmother
honors
honored
trouble
counselor
Afgh
periods
1971
1970s
solving
organs
recognize
sweetness
objects
objectives
voting
voted
##ISH
alternatives
describe
Sciences
distribute
taxi
taxp
violent
violates
##backs
##LLOW
principal
texture
textures
entertaining
popularity
Deluxe
Key
Kevin
PCP
Todd
sticking
##ibraries
Reader
centerpiece
6570
sleek
separately
gradually
brokers
characteristics
influences
influential
Acrob
Iran
obsess
yesichat
embed
Portal
blocks
ignored
releases
dedu
panic
##irsty
relaxing
Imlay
crack
conventional
upgrades
accurately
Coordinating
fabrics
rubber
progresses
Record
Recommend
modeling
Located
archae
Impact
Likewise
Otherwise
Polit
unders
##burse
contribution
commissioner
robots
assignment
continuation
optimization
temperatures
Flora
crypto
Course
MPa
MP3
bulk
ethnic
pools
victims
appreciated
accidentally
consistency
Winetricks
nationwide
Thanksgiving
outputs
Alternatively
Method
Metadata
farmers
roller
reactions
meantime
incorrect
intelligence
ACC
Looking
riders
exhibitors
scenes
fulfil
detects
launching
Marketing
Hara
Outdoor
Similar
crafted
denial
##ominantly
##etti
predominantly
comprising
simplest
simplified
adviser
efficacy
Benz
Virat
categories
albums
decking
trucks
arrangements
graduate
Extens
Morgan
duo
mattress
petition
powder
##eteran
clarify
survived
paragl
demonstrated
Etowah
Glama
Hollywood
casinos
globally
homeland
literacy
massive
width
##oxy
##color
forgive
reveal
streaming
willingness
unfair
guardian
Scouting
Organiz
calculated
satellites
encouragement
Helios
Schoen
Videographers
palette
orders
ordinary
sexually
cycad
Clearwire
Cameron
Understand
Wildcats
##US_
trusted
mechanic
telephone
telecommunications
Philip
investigations
illustrated
Casino
Hamilton
NCAA
Russian
Susana
stimulation
exposed
intruders
opinions
hydration
map_assuan
Olympic
Olympia
Customer
Purple
earthqu
fingertips
tailored
thickness
repeated
quantity
pursue
delayed
Engineers
Engineering
athletic
recipient
neighborhoods
785
Early
Earlier
Idol
Nevertheless
htm
vitamins
yogas
reinfor
altogether
workflows
sponsor
impressed
recycle
anticipate
anticipated
legislative
cylinders
journalist
Delphic
Delphine
occasionally
Investment
Circuit
Evalu
History
Historic
Magaz
Oxford
ONE
UCSF
Wait
eggs
grocery
lectures
pedest
sanitation
outfit
intentionally
buffet
advocated
Armenia
territories
fulfillment
agriculture
Cultural
HGH
MME
M4R
Malaysia
Roofs
WAV
fleet
vacuum
##Reeds
expressed
mythology
recruiting
assaulted
Atlanta
motorway
Important
fragrances
Following
triggered
Document
Greece
Latinx
Officers
Payment
RSG
SHU
Turin
hesit
hesitate
okay
tactics
##grave
aspirations
##oscam
aggressively
dramatic
dramatically
##ARTINVIT
Espresso
Knights
Treaty
Triumph
Tamarindus
apartments
cognitive
molecular
ineff
blanket
publisher
Approx
facilit
##IGHT
behaviors
administrative
continuously
adequate
Apost
Castle
Maureen
NEW
Pictures
Terms
Verde
WooCommerce
WantDo
ghost
wraps
##secutive
compressed
##indsay
dissection
Challengers
transparent
Property
Universal
Environmental
Councilmember
nutrients
compromise
mitigating
Baltim
Bullets
Daley
Employ
Martin
culinary
mkdtemp
miscellaneous
vulner
villages
##dorf
inherent
analyses
prestigious
compassionate
outskirts
incentives
invasion
mushrooms
voluntary
Ambass
indefinite
analyzing
Drawers
Administrator
Essentials
Lorenzo
Nuovo
cocoa
mobility
sarpa
saddle
vibrant
##iologic
##crete
##onomous
inacc
alumni
allerg
controversial
Strauss
spoil
unusual
desirable
branches
swabs
flagstaff
Tribunal
Authority
explanation
encampments
statistical
Syria
burritos
genuine
imaginative
sophisticated
Certain
DNA
Football
Nigel
Pokemon
SLT
WIMBoot
pacer
scholars
##rifice
##uellReeds
staple
proprietary
shrimp
resilient
leisure
desperately
undergraduate
medicinal
Production
retrospective
retrieval
Arizona
Indonesia
entitled
Participants
annoying
negligence
McNe
Volkswagen
accompanied
Objective
pharmaceutical
philosophy
Cartier
Cologne
Crescent
Dronne
EASY
Falcons
Furniture
IITIO
IAPWS
LUNs
LGBT
SETI
Tichonice
Vermont
WITH
breeze
eRules
murder
namely
praised
phenomen
##FLAGS
asparagus
Thrivent
unnecessary
unauthor
Heaselgrave
Proceedings
earliest
Manhattan
Caribbean
Acrobat
map_assuan_err
##ARTINVITOR
Baltimore
!”
!).
%,
)!
.-
3D
4G
420
4WD
67
74
8A
:-
Ay
Aid
Action
Aging
A40
BH
BY
Bond
Bose
Burn
Brand
Batter
Bari
Binary
Block
Barth
Boost
Beth
Bella
BTC
Boutique
Bauer
CO
C1
Cra
Cher
Case
Cub
Cold
Cape
Clock
CIT
CPI
DW
DS
Der
Dor
Dest
Dive
Dry
Dance
Dru
Dank
Dental
DAM
Doral
DGA
Dosha
DEI
ED
EB
Eve
Easter
Esc
Elementary
Etters
Far
Fill
Fem
Fail
Fire
Flo
Flex
Fusion
Fiction
Fico
GU
GC
GS
Gan
Gay
Gust
Gov
Gather
Gene
Greens
Golf
Greek
Gardens
Gorilla
Hit
Han
Hum
Hop
Hous
Hours
Half
Homes
Halse
IG
IV
Ian
Ivy
Jay
Jos
Jump
Jason
Jee
Jean
Jammers
Jersey
Ku
Kle
Kid
Kass
Kob
Krum
LC
Len
Land
Line
Later
Loy
Lund
Lee
Lift
Liter
Langu
Large
Lasers
Lacs
Mol
Mul
Mant
Must
Making
Money
Mee
MED
Maker
Moon
MEO
MAT
MCC
Moses
Mangal
Mixed
NP
NF
NV
Nom
Nation
Nord
Nap
Nav
Nov
Nair
Nagar
Number
OG
Ore
Opp
Options
PN
PL
PR
Pers
Pain
Pod
Pio
Penn
Papers
Pius
PUR
Pinter
Quit
RM
Rid
Ros
Rand
Roll
RES
Ranger
Rita
Sn
SA
Sul
Side
Song
Sark
Sne
Ship
Six
Smas
Sixt
SLE
TP
TA
TM
Tes
Ten
Ted
Tent
Tos
Tap
Tys
Target
Tetrick
Tickets
UA
Urib
Vanc
Vari
Virt
Vcure
Voting
Various
Violet
Wo
Wow
Wear
Wings
Wade
Wool
Wishing
Yet
Yur
Yahoo
ZD
ZA
Zep
ap
afor
ba
bot
bass
batt
bills
bells
banks
bunk
border
binding
bureau
cow
cig
cant
cure
cav
cats
dé
dab
dip
dys
dual
diver
drown
dabb
ether
epis
ebay
fusion
fixture
faux
ga
gig
gau
gown
gene
gifts
geranium
glyph
het
hem
hors
hug
hitch
hipp
hanging
holidays
ie
iv
jet
jur
kob
kernel
kosher
les
lan
lol
laz
lying
lilies
libraries
mp
mic
mam
mun
mart
mere
mask
mover
melt
migration
marsh
mpg
mercy
nm
ner
nest
nun
nod
oh
ov
owe
ought
pam
pies
pine
pian
pets
ports
pole
poke
pakistan
ru
rit
ran
rif
rod
rings
ripped
si
sq
sher
sand
sip
sare
sorts
sli
saves
southeast
til
tut
tant
tart
tie
tick
tied
tank
tuck
tires
tanks
turb
vl
vou
vine
vasprintf
vibe
va_copy
wi
wis
wand
wake
wins
woven
zones
Čes
”),
”).
##ta
##tes
##tail
##tby
##aver
##iations
##ioc
##ión
##rom
##rist
##rome
##rary
##rieve
##rimin
##xide
##pes
##pers
##plic
##pensive
##person
##preads
##lers
##lest
##lies
##lene
##lists
##ligation
##lifting
##oz
##oom
##oft
##oque
##ocean
##eg
##eu
##ev
##eous
##eals
##mers
##mall
##mour
##mail
##nab
##normal
##cin
##chen
##cadd
##cuses
##gence
##gund
##gistry
##uer
##uous
##unds
##sen
##ssel
##syl
##fit
##fig
##fall
##fax
##fuel
##foxy
##yr
##kg
##ký
##ker
##ken
##kow
##hal
##hill
##hart
##hard
##bing
##bone
##bably
##biology
##build
##DI
##vated
##vitable
##viated
##UD
##wi
##wed
##wan
##war
##was
##BI
##Book
##Belle
##HuellReeds
##OC
##zip
##zek
##Link
##WG
##Wave
##GED
##21
##Ch
##CL
##Tr
##TH
##TUS_
##RT
##Rep
##Rise
##RANT
##IES
##POS
##Fi
##FER
##1AA
##85
##81
##89
##Av
##AX
##Shield
##MC
##MHz
##31
##End
##EEN
##KE
##VEN
##_m
##_c
##_write
##jo
##ju
##XX
##42
##44
##??
##\/
##hend
##heim
##hett
##inus
##inth
##inery
##incess
##erting
##erfield
theft
##ona
##onville
##ndum
##atig
##atible
##atric
##orum
##orian
##orized
##ouver
##ingu
##inging
##ingly
##iti
##itol
##itment
##itations
##itious
##itarian
toys
topping
toler
##alties
##arely
##around
inau
##rets
##reviated
##isa
##isd
##isor
##isible
##isbury
##icole
##ioned
##omed
##lem
##lend
##leep
##asia
##asailing
thread
##eli
##elly
##eliness
##ilion
##ilage
##ilance
##ilitation
##rot
##robe
##ropriate
##etra
##etooth
##star
##urer
##uration
onion
bean
beings
beating
beats
render
rehab
##utils
##otes
##otal
##otion
##otom
##idation
##idency
##ceeds
##igal
##igrant
##olm
##olis
##olic
##olome
withstand
withdra
##chair
##adv
##adays
##adesh
stays
##irs
##sey
prost
prostat
Therapeutic
Theatre
TheEnd
##imated
##immer
##imedia
angle
##verning
alive
allev
##ulates
##illes
conve
conferences
concrete
comforter
##rais
##raham
##raints
##ravated
##oops
##ooses
##ppings
##aka
##ateur
##ategy
##ighter
##ckles
##umers
##umination
##umably
##iform
##ifted
exterior
##unct
##emn
##istle
##ivor
##ivis
##ivable
sewing
deer
depr
delet
depression
##ainted
sup
##antic
##antage
cannab
sham
shake
shame
shipment
shorter
##osate
##uster
##usted
##oper
willow
##thy
##thia
noting
notified
notify
notification
notifications
washes
chains
chron
chunk
chief
chilling
charming
chooses
env
##ardo
##ardless
##ardstown
##udas
##udge
##andiam
##andran
##cii
##cience
soar
soaked
##osts
##ostic
allies
alloy
alliances
useless
abilities
abnormal
Thin
Three
Thunder
##oded
##qual
##quire
pray
priced
comply
trike
##agree
resist
resorts
resolved
InT
Infl
Infin
##aculate
##ormones
upsc
clut
clim
clips
##asted
##astically
##ccolini
##sole
contraction
leases
wheels
##ipedia
##ichandran
##ikato
##ikipedia
##izer
##izen
intim
appet
quart
queries
##erving
##ervations
anybody
manic
manif
mangal
##erendum
Sto
Strict
Strick
Stucc
spy
spam
spell
spine
spite
spouse
spider
spilled
spotted
Wegman
##acht
##achal
##ilet
disput
disaster
teens
evident
##arehouse
##apore
perks
gettime
getaway
##loom
##loys
##loying
governing
##ensely
##avo
##gring
##grim
##isholm
specially
speeds
unh
unve
united
uncer
unfor
uncle
themed
##licit
peas
arbit
arrog
preval
Chan
Choosing
Champion
Channel
Chisholm
somebody
overr
overl
overload
interventions
##plants
aging
aged
agility
##inted
193
19th
imped
imposed
roy
root
Alz
Alice
Almost
Alison
Albert
amid
amish
scan
scoot
scores
##ovi
##ovasc
whatsoever
experiment
##ewu
##encer
##enches
regain
herbs
indu
indirect
indoor
indigenous
indication
consume
conserve
conscience
traged
copper
remn
remod
##amping
##mercial
supporter
Anne
##bsite
##ossom
actor
twist
##ificent
##ificates
blur
blame
##ioxide
Repe
relay
relation
relate
relating
##ianco
strike
strang
strangers
Aside
Asbury
Assembly
drum
Comforter
Commercial
sheer
sheets
shell
inviting
invitations
righteous
backs
backup
backbone
cares
##ontal
worn
worries
worried
##ksh
basics
goodness
owns
studied
studios
##heson
##hesive
instances
institution
Seven
Seah
Sebr
Sequo
reps
repent
repro
reply
replic
reporter
miners
Hezek
transf
finishes
##tyard
Deerfield
belt
##ritious
medi
medications
mediator
courtyard
patches
assort
assists
asshelp
Admission
advances
adverse
differently
##otto
detain
##airy
Prop
Propos
Problem
Probably
brick
idol
insure
insured
insert
develops
##chnology
Plumbing
##awk
##awed
monetary
programme
curated
curious
cursor
reth
retrace
autistic
##ometry
Arrows
Argos
Prices
Pradesh
endocr
profiles
gran
grill
Unique
Unified
Unfortunately
memorable
ski
skip
swe
folkl
##riers
moder
modular
modified
modification
moderation
Teleg
Teague
Tequila
plane
defining
defensive
visibility
formula
surre
surveys
surplus
Beyond
Begins
Encompass
freeze
restored
boil
boards
organise
variable
flor
excel
excellence
headphone
Toilet
ears
resulted
passports
corners
generations
generating
##veda
Express
openings
122
realm
##lessWave
happily
Chrome
discont
artistic
founding
##bersec
controlling
Marco
Marriage
Shan
Share
Shoot
specials
specialty
ideally
Residents
conflic
confession
statewide
Space
Spots
afflic
affords
learnt
problematic
charitable
158
15th
breaker
electro
elective
elections
electronics
electrification
grows
refrig
referendum
Athens
Concer
##itched
##omme
##elsius
photographic
filmed
kinda
ordering
cleaner
Managing
##orthy
centuries
equitable
##brid
enters
entity
redirect
directors
muscul
pars
parad
parap
classified
classification
##elfare
volumes
winners
##oked
professionally
publications
crust
crunch
crimin
crashes
##otechnology
explicit
presenting
watercolor
Leg
safari
esc
espresso
gliding
gluc
glimp
##versible
sensory
sensitivity
turns
Isn
personalized
30am
##gging
PhD
Phill
Phones
nonetheless
##ducing
1134
Repuls
edit
editions
editing
##balaya
investments
Canfield
allowance
digit
digits
arrested
arrivals
Contract
camps
##arson
limiting
limitation
packaging
##eshow
Bruder
drying
##otsw
expectation
Mechan
Meyer
Parts
Partovi
immigrant
quicker
webinar
Columb
##nedy
legs
legacy
futur
Amewu
occurr
Suave
installs
Negre
activated
activists
emailing
Travel
Traffic
##annon
##annah
specifications
beneath
lawyers
Calendar
tempor
##icyandiam
253
favours
waive
Joh
diam
minds
mindful
testimon
##factory
dealers
superf
supermark
130
exploring
explaining
exploration
nightly
seasonal
##ancesco
cutter
reasoning
reasonably
friendship
flowing
buyer
circulation
circuits
##urses
competitor
treats
treaty
##ICWG
weights
weighted
trades
traditions
Highly
recommendation
Regardless
Goal
networking
energetic
respects
respectful
keyless
participant
humanity
toug
##ERF
shortcut
Sweet
audits
discusses
discussing
cyber
attendance
closet
Carter
Carbon
Carla
multimedia
misses
combat
combines
combinations
Feed
Features
##ercury
brake
braking
economically
walkers
delivering
freely
utilities
comfortably
Mini
Miner
Ministries
talked
##ngorms
falls
##cloth
contracted
Additional
situated
branded
hybrid
##ennium
structured
impacts
179
barbe
baroque
destruction
distances
distingu
holders
reducing
Petra
sentenced
woodwork
##ourable
##gressor
1962
1968
Anything
similarly
decorative
Fla
tower
initiate
absent
Install
Instruct
clearance
writers
worthwhile
##ulls
commerce
amongst
Grill
Monique
nutritious
straw
associates
pressures
computing
computers
traveling
traveled
cooler
representative
representatives
Geo
GeForce
routinely
skinned
skincare
Correspond
wallpapers
1987
protects
DirectX
Directors
Finance
Generations
Northwest
coupled
grain
grapp
gravy
lifted
##ITY
##IME
##amba
##ambling
consulted
consultations
Aggressor
Abraham
Lauder
Preferences
Prepared
essence
loads
paperwork
Markets
motivated
sunny
percentage
entirely
Everybody
targeting
##uffy
##ENTS
qualifications
qualifies
touching
Consider
Consumers
crying
grandparents
honour
trout
##hamed
Programming
billions
billboard
babe
illumination
##PROM
stacking
analyse
sectional
1970
screening
attractions
burnt
solo
solic
preventing
recognised
recognizes
avoiding
avoided
complexity
objection
engineer
Mediaocean
knife
landing
##hiba
deeply
dresser
Johnson
Server
taxis
adjusted
adjustable
Delivers
OverDrive
Offering
PCs
PCI
critically
credibility
genkernel
collision
acquiring
acquainted
centered
promoted
conditioned
browsing
browsers
informative
repairing
grades
measurements
influenced
hospitality
Irish
Irwell
Irma
iPad
iPod
lymph
midw
obsessed
poet
poem
poison
parks
depot
comprehend
embark
embracing
aiming
aimed
##shire
##ylie
revised
evaluated
regulate
regulated
regulatory
assessing
assessed
assessable
INF
Users
innovations
neighbors
neighboring
chairman
clinically
thankful
relaxed
Seeger
Heritage
Powered
Salt
Salisbury
craving
humming
pleasant
snood
snacks
Educational
rubbed
timed
timber
timeline
verification
Recogn
broadcasters
NOTE
rails
archive
Defin
Define
Christianity
picturesque
volunteered
Finding
Getting
Implement
Others
Volvo
lacking
pulp
squad
tenant
##burgring
debate
contributed
contributions
transferring
imagined
imagination
optimal
optimistic
tastefully
CIPs
MPEG
bulbs
bullying
fraud
fraction
##amentally
suffered
accidental
consistent
transforming
limitations
5130
Subs
Washoes
birthdays
fighting
##ophag
remodeled
Assess
surroundings
confirms
Actually
Graham
Mrs
Metal
Opener
Wheel
garlic
lunchbox
titles
thrive
threats
threaten
appealing
substance
525
Books
Ciné
Cinem
Listening
Looks
Surrey
merit
merely
mathemat
penet
penalties
ridiculous
##LEAS
exhibiting
Interview
Interactive
Interesting
1958
fulfilling
counteract
32KB
Email
Emailing
Emirates
Genesis
Merry
Outside
Tournament
Strength
Strategy
partnered
advisors
Amazing
diagnostic
replacement
documentation
498
49er
Bowen
Hoi
ISP
harmon
watches
##cutaneous
prosper
##unctional
ambitious
schedules
highlighted
validity
validated
Classmates
accommodation
Affairs
Affiliate
Brett
Brevard
Milford
SUN
boosting
drove
gasoline
horse
pinn
##atinum
clarity
clarifying
logos
Charl
survival
CRP
Holtby
Publishing
Singapore
Samberg
bodied
bodily
casual
casino
homeless
massage
sincer
forgiven
forgotten
deposits
spray
Traditional
refresh
Organic
accomplished
Older
Renew
Schuble
malicious
mailing
extending
shaping
Thoughts
complications
teenage
argue
worrying
Experienced
eliminating
SuperView
trendy
doubles
doubled
CPSC
Collabor
Fortunately
Retail
Underwood
Wilde
deriv
divorce
navigate
radical
##hyrus
##oshare
abdominus
extracts
extracted
Construction
illustrate
scheduling
Casa
NYSE
Rahm
Something
wallet
##celain
fortunate
rebounds
stakeholder
procure
2022
2025
2021
intrig
interpre
Reviews
Products
Prerequisites
Expo
Meeting
map_gcry
blended
Customers
FMC
RCX
breathe
finger
fingers
hallway
tailor
viruses
shields
tribe
tribunal
acceleration
accelerated
pursuit
discounted
Ski
SSL
burner
burned
fifth
gearing
punching
racism
ttyname
yogurt
proteins
conclude
concluded
segments
locked
splash
sponsored
tendencies
pregnant
recycl
recalls
coordinators
Adults
journalists
Delphi
bowlers
Investig
Circular
Circuits
Events
Illness
Kennedy
Knowledge
Skype
Tennesse
Waikato
cropping
femin
grove
##191AA
struck
strictly
anatom
wealthy
departure
apparent
quotation
spinach
unlaw
Chatting
1949
basketball
advocacy
Protect
Marcus
Marcos
hypnosis
suspend2
suspended
Keeping
Gateway
HGTV
Himachal
M4A
Townsend
epic
epidem
frost
hurricane
hunger
killings
linear
nuest
pilot
sadness
venues
ventures
##iatric
##vania
Inclusion
Includes
Importance
paddocks
paddockplants
Celebrating
Düssel
Darlene
Fisheries
Matheson
WMA
gallery
ratings
##writer
##writing
shyness
shutdown
Thinking
leaflets
cheapest
Adventure
laptops
negotiations
Kristol
Motorworld
864
844
CCPI
CCTV
Creations
Crafts
Handmade
Joyoshare
Mirror
Miramar
Munger
Natureview
Sarfar
copies
copied
cottages
melan
melted
sourced
tagged
##iniscent
inevitable
##repres
succeeded
dismissed
preceding
undertake
undertaken
instructional
prescribing
publishers
Claims
facilitate
involvement
distinctive
maximize
administrators
architecture
enthusiasts
Philippines
Blower
Cowley
Cowcadd
Cambridge
Equipment
Girls
Immed
Louise
MXF
Safe
Safety
Wooster
Wallpaper
blowing
cherry
jackpot
liberals
liberty
moist
porch
##oenix
##ioneer
exchanged
exchanges
execute
executives
incomplete
indicates
coalition
synthetic
synthesis
transparency
deficit
deficits
Enhanced
Islamic
Councilmembers
nutrient
subscribers
disappointment
neoconservative
neoconservatives
***
774
720p
GAICWG
Greivis
Jerry
Jacqu
META
Message
Mandeep
Mountain
Posada
Ravichandran
Ruby
europe
hamper
mutual
romance
tubes
wrapping
##giene
##_CFLAGS
topple
seeded
abundant
prisoners
Innovation
1950s
curtains
metabolic
metabolism
Friend
Friends
delighted
Automation
café
destroyed
labeled
Architecture
duvet
duvets
minimalist
algorithms
Axar
Awesome
Aquatics
Aggravated
Cornell
Factors
Multiple
Pavilion
ROI
STATUS_
Walker
aesthetic
bolt
bacteria
dumping
gateway
nurtured
sesame
##miths
##keeper
reimburse
reverb
anonymous
converting
seventh
enquiry
abbreviated
comparison
permanent
prefix
traumatic
Answer
Andrea
minerals
Individual
headshot
exploitation
practitioner
Carolina
await
polyester
landscaped
Survivor
judgments
summarized
legendary
Bobcats
Cabins
Domain
Eyepiece
Gallery
HBV
HELLOW
IFA
LDP
Pisces
Papin
borrowing
cartilage
grafting
alleged
congressman
comfy
franchise
championship
enforcement
sofa
adolesc
cloths
manipulation
intermediate
Almighty
amendments
brilliant
metallic
bedspreads
correlation
Clarkson
obstacles
refinement
photographs
antimicrobial
geographical
Georgia
terrorist
McMinn
Portugal
crawfish
Vegetable
ordinance
Cryptocurr
overwhelming
8343
Athlet
Basketball
Bedspreads
Cairngorms
CrowdRise
EEPROM
Emergency
Emmy
Gordon
Jamaica
Kumar
Nurburgring
PIco
Powell
Rudy
SQL
Tankardstown
Template
Wadell
WARRANT
Yelp
custody
dilig
ramekins
samples
##manship
##gotiation
##Sexy
inexpensive
forecast
rechargeable
sterling
stereo
anxious
orphanage
exemptions
canvas
shafts
sausage
scrolling
veggies
religion
underwent
reproduce
transplant
Argentina
ceremonies
Results
positively
Bluetooth
immortal
cytometry
Paraglider
Competition
Against
Laurel
Afghan
paragliding
HGH191AA
ineffective
Approximately
Ambassador
inaccurate
McNevin
LGBTQ
unauthorized
##ARTINVITORIA
A406
BHD
Battery
Bartholome
Danko
Failure
Gustavo
Halsey
IGN
Jeeves
Krumlov
LCD
Lundgren
Mantra
OGG
Pennsyl
Pinterest
Sulky
Sarkisian
Smasher
Tesla
Toshiba
Tysons
UAE
Uribe
Vancouver
Vcuregistry
Woakes
Wingscapes
ZDNet
ZAYN
Zephyrus
botan
bureaucr
caviar
glyphosate
jurisd
nodded
pamper
ritual
saree
wisdom
Český
##plicity
##lestick
inaug
prostatitis
TheEndlessWave
Influ
upscale
Strictly
Stucco
indirectly
Sebring
Sequoia
Hezekiah
retracement
endocrine
Telegraph
##bersecurity
glimpse
Repulsa
Negreira
##icyandiamide
map_gcry_err
Tennessee
Düsseldorf
Sarfaraz
Cowcadden
Bartholomew
Pennsylvania
")
"-
";
''
("
(~
)?
.),
/"
1A
2S
320
3pm
5x
7D
79
81
91
:).
="
?"
AG
Aer
Ast
Ave
Aim
Age
Ald
Agr
Aru
Abs
Actor
AAP
Aero
API
AUT
Bn
BB
BG
Bant
Bour
Bip
Bach
Bound
Bah
Bok
Boot
Barb
BAS
Bison
Billing
Border
BUT
BUF
Bianco
Ce
CE
CV
Cit
Cay
Core
Could
Cod
Cong
Cob
Cash
Cah
Carm
Crown
Coven
Close
C400
Cudas
Celsius
Carson
Dh
DR
DM
Dal
Dam
Dim
Date
Dum
Dong
Dix
Dinner
Distrib
Duke
Dirty
Dogs
Duffy
Ec
Ek
Eb
ET
ER
EA
Eile
Empt
Elder
Fi
Fel
Fro
Fut
Fay
Fish
Falk
Final
FAM
Fij
Firm
Finger
Fixed
GL
GR
Gin
Ger
Gent
Gig
Goo
Gide
Gary
Gamb
Gael
Ginger
Grove
Gourmet
Gandhinagar
Gmail
Hu
HU
HR
Hur
Had
Hart
Hod
Hong
Hors
Hew
Hamp
Herm
Hott
Hug
Hitch
Hiring
Huge
Hadd
Hanger
Hundred
HOM
Hearing
Hannah
IL
IR
IX
Iow
Icel
Jl
Jet
Jim
Jade
Job
Jane
Juan
Ka
Kh
Ker
Kat
Kent
Kur
Kul
Kry
Kong
Kors
Kurt
Kosher
Li
Lo
LL
LP
LM
Lon
Lit
Lay
Lau
Lang
Lew
Lax
Luck
Lords
Lights
LDS
Llan
Lavender
Lindsay
Mt
Mu
MB
MW
MY
Ment
Mur
Mad
Mam
Mort
Mood
Mail
Mike
Move
Mix
Mouse
Match
Melf
Matter
Minal
Maps
Macy
Mover
Masks
MEP
Mosc
Mercy
MRS
Mercury
Ni
NJ
Nar
Nad
None
Nob
Niel
Nero
Nathan
OP
OM
Ost
Own
Ott
Obe
OTA
Osc
Pa
Ps
PD
PH
Pel
Pil
Pra
Pag
Pure
Poss
Perm
Paw
Path
Pock
Punch
Poor
PIC
Push
PET
Padd
POL
PLEAS
Pioneer
QU
Q2
Q4
Ry
RT
Ron
Ram
Rim
Rus
Rust
Rod
Rice
Race
Rare
Rene
Raj
Rachel
Ronda
Rasp
Ruch
RIGHT
SB
Sz
Ses
Sor
Sit
Sel
Sir
Sust
Sork
Sure
Shen
Sale
Saving
Spending
SNL
Saying
Sleep
Samba
Ti
Tom
Too
Table
Tag
Tav
Tru
Tye
Task
Turning
Taled
Tags
Tosh
Touch
Tylie
Ub
UR
UI
Und
Unt
Uber
Une
Umm
Vo
VO
VM
Vin
Vod
Vac
Vote
VIC
VIP
Vinn
VERY
WW
WC
WF
WE
Wan
Wake
Wales
Write
Wonder
Warehouse
XM
X4
Xak
YE
Yog
Yere
YES
Yeah
Zhen
Zacks
Zombie
Zanz
Zoya
].
aides
ber
bir
bang
bru
bio
bump
bands
bids
binds
bumper
crou
cag
cere
cue
cub
ched
cave
citing
cada
cams
cush
cuff
cements
ccr
cactus
dl
dess
dos
dine
dich
dated
dile
dare
damp
dues
distr
dental
dense
dots
dull
dangers
dyn
dubai
dioxide
dairy
dicyandiamide
eager
etsy
fo
fon
fed
fse
fate
fart
foss
fax
fave
fancy
fiat
fading
focal
fetal
foster
fennel
foscam
gal
gel
grou
gast
gpl
gang
goose
german
gaining
greens
gpg
gourmet
gambling
hd
hill
hell
hide
hens
hath
hats
hills
hunt
hints
hiking
hormones
ich
joke
jelly
kan
kil
li
lb
los
lie
lac
liqu
lug
liver
lately
loos
loses
lasers
mg
mish
mound
mesh
moon
moles
mosa
na
ning
nan
nur
nos
nood
nbs
nasty
ox
oce
odor
pp
pu
pic
pad
pap
pose
panc
puff
paved
penny
q345b
ri
rhe
ram
rage
rack
rated
rays
rink
rural
rush
rained
rival
rides
races
ripe
rogue
rhin
ropes
ruling
rarely
som
sore
sard
sake
sail
sings
sway
sung
sided
samsung
tin
tid
tul
tort
tire
txt
tread
tilt
tumb
tiles
tags
teles
ul
upt
vo
von
vom
vess
vans
voc
vandal
veteran
wre
wage
wick
wint
wines
waves
wides
wished
wishes
wifi
wikipedia
welfare
xt
ya
yummy
yahoo
zen
zombie
′′
##tre
##tion
##table
##taking
##tops
##aem
##aud
##aand
##iors
##iago
##iya
##ienna
##ril
##rich
##rations
##rial
##rates
##rific
##rative
##rason
##ritten
##raying
##ratulations
##xx
##xs
##ped
##pre
##pace
##pread
##picy
##ls
##lon
##lab
##lop
##lord
##lors
##lages
##lank
##lins
##laim
##latin
##laws
##oi
##oing
##och
##occ
##oire
##oister
##dar
##dle
##die
##dber
##eer
##eing
##eav
##eating
##egg
##ejo
##md
##mg
##mar
##mid
##mus
##mine
##mount
##mary
##mitt
##mits
##mily
##mets
##maker
##mune
##moon
##minton
##no
##nat
##nan
##nst
##nie
##new
##cs
##cant
##cos
##curity
##cules
##crop
##cued
##curr
##copes
##gical
##ghed
##gio
##gian
##gages
##gently
##gator
##gae
##gien
##gzh
##uw
##uent
##uide
##uccess
##uilt
##sis
##sour
##fc
##fold
##fume
##yna
##ki
##kind
##know
##kward
##ktra
##kansas
##hr
##hon
##hist
##hous
##hams
##bi
##bro
##bly
##bra
##best
##bear
##bach
##bys
##bott
##buf
##NE
##NESS
##DL
##DC
##DR
##DM
##DIT
##von
##vro
##vid
##vation
##vra
##vest
##va_copy
##UC
##UM
##ULL
##wic
##with
##wam
##wick
##walk
##winkle
##w44
##worthy
##Bro
##Big
##Bras
##BHK
##HO
##HA
##Hot
##OT
##OK
##zie
##zard
##LI
##LP
##Gs
##Gb
##GH
##Gen
##Guide
##24
##200
##55
##59
##CE
##CAR
##CAP
##Th
##TOR
##TRO
##TCH
##Touch
##II
##IF
##ILY
##PM
##FO
##FC
##FK
##1c
##14
##87
##01
##Al
##And
##Ang
##ALL
##ATE
##So
##Sight
##Sty
##Stone
##Scapes
##Mus
##MENTS
##MARTINVITORIA
##73
##700
##734
##JT
##JP
##EV
##Ele
##Emily
##Qu
##KS
##King
##VN
##_t
##_is
##_se
##_get
##_print
##_a_
##_stat
##_assuan
##_string
##60
##je
##jas
##jrol
##jah
##jee
##jamin
##jacent
##4U
##43
##->
##heat
##heet
##heav
##health
##heets
##inas
##inence
##incial
##inational
##inars
##erver
##erra
##erie
##error
##ergart
##onies
##onia
##onomy
##ndon
##ndel
##ndant
##atable
##atile
##atty
##atoid
##atches
##esare
##orations
##oria
##orating
##orne
##enst
##edd
##edience
##itory
##itures
##anut
##anax
##anuts
tog
toes
toll
##alt
##alab
##alable
##alone
##alia
##aro
##arf
##aration
##arra
##aria
##arrass
inapp
inhib
inquir
##reas
##reation
##rection
##isy
##isit
##isive
##isely
##ishers
##isky
##iscovered
##icion
##icum
##icop
##icone
##icating
##icRep
##iona
##ionism
##oman
##omla
##leb
##asi
##asis
##asurer
##ascii
thou
threads
thirsty
##enta
##entations
##eled
##elong
##elwe
##ilz
##ilation
##ilical
##ilateral
##roft
##roke
##rocket
##rogen
##etz
##etts
##stract
ish
isascii
forged
forcing
##ura
##urring
##urban
##urveda
ons
beck
beets
bearing
beef
bending
reper
reass
revel
reCAP
##uty
##uters
##uttering
##oto
##oter
##oton
##otte
##owing
##owitz
##iden
##idas
##idently
##idisation
##cee
##igi
##ignt
##olen
##olar
##olas
##olia
##cha
##cho
##chat
##chard
##church
##charged
##adt
##amic
##amina
stood
stip
stub
stew
stair
stately
stains
stares
stairs
stadium
stolen
##irk
##iratory
##sec
prohib
prosecut
##ima
##imj
##imen
##imental
##immune
anch
anem
anten
anger
anabol
ancest
##essor
alab
altering
assemble
asbest
##ulf
##ulic
##ulent
##ulpt
##ulence
##illion
conception
convey
convin
concurr
comic
hazard
whine
whisk
##rain
##raulic
##pps
##ppies
##ppucc
##abo
##estamp
##estock
##estream
atro
##hering
frames
framed
fruity
##ckers
##ckwinkle
##umble
##umonia
##umatoid
##ifer
##user
##usation
##ushed
##uscript
##usetts
neon
exh
exascale
exotic
##unted
##eme
##emention
seal
sear
seated
seize
seized
sealed
deput
debr
decept
decks
dependent
##ainable
suits
suicide
##anting
##ortion
canal
shing
shout
shines
shug
shirt
shuff
shirts
shifting
##oscope
##arting
##usting
byte
##opher
##oplank
chap
chances
chamber
enrol
environ
enzy
##arded
##roux
##rous
plun
plain
plating
plains
plumber
##anders
##ciation
##eller
##ellite
##ellations
soap
soaking
sobr
soda
soccer
##ostadt
abused
abras
admitted
adml
admissions
adhering
Thing
Than
Throw
Thai
Thoms
##odied
##qué
##quit
pron
priest
princess
hect
heating
compact
compartment
compatible
##ects
##ghai
tri
tranqu
##aghett
dose
dozen
##ibar
##ibles
resin
resid
resides
Inf
Inject
Infr
Insp
Info
##aco
##acher
##acity
##acular
uplifting
upheav
clay
clash
cloister
##astructure
206
##ccoli
##ookie
##ffmann
lean
