{
  "version": "1.0",
  "truncation": null,
  "padding": null,
  "added_tokens": [
    {
      "id": 0,
      "content": "<UNK>",
      "single_word": false,
      "lstrip": false,
      "rstrip": false,
      "normalized": false,
      "special": true
    },
    {
      "id": 1,
      "content": "<PAD>",
      "single_word": false,
      "lstrip": false,
      "rstrip": false,
      "normalized": false,
      "special": true
    },
    {
      "id": 2,
      "content": "<s>",
      "single_word": false,
      "lstrip": false,
      "rstrip": false,
      "normalized": false,
      "special": true
    },
    {
      "id": 3,
      "content": "<s/>",
      "single_word": false,
      "lstrip": false,
      "rstrip": false,
      "normalized": false,
      "special": true
    }
  ],
  "normalizer": null,
  "pre_tokenizer": {
    "type": "Whitespace"
  },
  "post_processor": null,
  "decoder": null,
  "model": {
    "type": "WordPiece",
    "unk_token": "<UNK>",
    "continuing_subword_prefix": "##",
    "max_input_chars_per_word": 100,
    "vocab": {
      "<UNK>": 0,
      "<PAD>": 1,
      "<s>": 2,
      "<s/>": 3,
      "!": 4,
      "\"": 5,
      "#": 6,
      "$": 7,
      "%": 8,
      "&": 9,
      "'": 10,
      "(": 11,
      ")": 12,
      "*": 13,
      "+": 14,
      ",": 15,
      "-": 16,
      ".": 17,
      "/": 18,
      "0": 19,
      "1": 20,
      "2": 21,
      "3": 22,
      "4": 23,
      "5": 24,
      "6": 25,
      "7": 26,
      "8": 27,
      "9": 28,
      ":": 29,
      ";": 30,
      "<": 31,
      "=": 32,
      ">": 33,
      "?": 34,
      "@": 35,
      "A": 36,
      "B": 37,
      "C": 38,
      "D": 39,
      "E": 40,
      "F": 41,
      "G": 42,
      "H": 43,
      "I": 44,
      "J": 45,
      "K": 46,
      "L": 47,
      "M": 48,
      "N": 49,
      "O": 50,
      "P": 51,
      "Q": 52,
      "R": 53,
      "S": 54,
      "T": 55,
      "U": 56,
      "V": 57,
      "W": 58,
      "X": 59,
      "Y": 60,
      "Z": 61,
      "[": 62,
      "\\": 63,
      "]": 64,
      "_": 65,
      "`": 66,
      "a": 67,
      "b": 68,
      "c": 69,
      "d": 70,
      "e": 71,
      "f": 72,
      "g": 73,
      "h": 74,
      "i": 75,
      "j": 76,
      "k": 77,
      "l": 78,
      "m": 79,
      "n": 80,
      "o": 81,
      "p": 82,
      "q": 83,
      "r": 84,
      "s": 85,
      "t": 86,
      "u": 87,
      "v": 88,
      "w": 89,
      "x": 90,
      "y": 91,
      "z": 92,
      "|": 93,
      "~": 94,
      "": 95,
      "¢": 96,
      "£": 97,
      "©": 98,
      "«": 99,
      "­": 100,
      "®": 101,
      "°": 102,
      "±": 103,
      "·": 104,
      "»": 105,
      "¿": 106,
      "É": 107,
      "×": 108,
      "à": 109,
      "á": 110,
      "â": 111,
      "ã": 112,
      "ä": 113,
      "å": 114,
      "æ": 115,
      "ç": 116,
      "è": 117,
      "é": 118,
      "ê": 119,
      "ë": 120,
      "í": 121,
      "ñ": 122,
      "ò": 123,
      "ó": 124,
      "ô": 125,
      "ö": 126,
      "ú": 127,
      "û": 128,
      "ü": 129,
      "ý": 130,
      "ć": 131,
      "Č": 132,
      "Đ": 133,
      "đ": 134,
      "ų": 135,
      "ȏ": 136,
      "́": 137,
      "̈": 138,
      "Ι": 139,
      "Ω": 140,
      "α": 141,
      "ạ": 142,
      "ế": 143,
      "ệ": 144,
      "ố": 145,
      "ộ": 146,
      "ờ": 147,
      "​": 148,
      "‐": 149,
      "–": 150,
      "—": 151,
      "‘": 152,
      "’": 153,
      "“": 154,
      "”": 155,
      "„": 156,
      "†": 157,
      "•": 158,
      "′": 159,
      "€": 160,
      "₹": 161,
      "←": 162,
      "↑": 163,
      "中": 164,
      "他": 165,
      "以": 166,
      "假": 167,
      "到": 168,
      "勇": 169,
      "吒": 170,
      "哪": 171,
      "囉": 172,
      "國": 173,
      "夏": 174,
      "夷": 175,
      "威": 176,
      "己": 177,
      "希": 178,
      "心": 179,
      "我": 180,
      "所": 181,
      "敢": 182,
      "是": 183,
      "望": 184,
      "渡": 185,
      "玩": 186,
      "的": 187,
      "神": 188,
      "童": 189,
      "耍": 190,
      "能": 191,
      "自": 192,
      "話": 193,
      "讓": 194,
      "贈": 195,
      "走": 196,
      "路": 197,
      "開": 198,
      "가": 199,
      "계": 200,
      "국": 201,
      "글": 202,
      "급": 203,
      "내": 204,
      "는": 205,
      "니": 206,
      "다": 207,
      "단": 208,
      "데": 209,
      "드": 210,
      "랜": 211,
      "로": 212,
      "모": 213,
      "벌": 214,
      "브": 215,
      "서": 216,
      "션": 217,
      "수": 218,
      "쉐": 219,
      "에": 220,
      "외": 221,
      "요": 222,
      "용": 223,
      "운": 224,
      "위": 225,
      "을": 226,
      "이": 227,
      "인": 228,
      "장": 229,
      "좌": 230,
      "지": 231,
      "집": 232,
      "출": 233,
      "크": 234,
      "파": 235,
      "페": 236,
      "평": 237,
      "품": 238,
      "필": 239,
      "한": 240,
      "합": 241,
      "해": 242,
      "화": 243,
      "�": 244,
      "😉": 245,
      "🙁": 246,
      "🙂": 247,
      "##t": 248,
      "##a": 249,
      "##i": 250,
      "##r": 251,
      "##x": 252,
      "##p": 253,
      "##l": 254,
      "##o": 255,
      "##d": 256,
      "##e": 257,
      "##m": 258,
      "##n": 259,
      "##c": 260,
      "##g": 261,
      "##u": 262,
      "##s": 263,
      "##f": 264,
      "##y": 265,
      "##k": 266,
      "##h": 267,
      "##b": 268,
      "##N": 269,
      "##D": 270,
      "##v": 271,
      "##U": 272,
      "##w": 273,
      "##é": 274,
      "##B": 275,
      "##H": 276,
      "##O": 277,
      "##z": 278,
      "##L": 279,
      "##W": 280,
      "##G": 281,
      "##2": 282,
      "##5": 283,
      "##C": 284,
      "##T": 285,
      "##R": 286,
      "##I": 287,
      "##P": 288,
      "##F": 289,
      "##1": 290,
      "##8": 291,
      "##0": 292,
      "##A": 293,
      "##q": 294,
      "##S": 295,
      "##M": 296,
      "##)": 297,
      "##,": 298,
      "##3": 299,
      "##7": 300,
      "##J": 301,
      "##E": 302,
      "##Q": 303,
      "##K": 304,
      "##V": 305,
      "##_": 306,
      "##6": 307,
      "##j": 308,
      "##!": 309,
      "##9": 310,
      "##X": 311,
      "##4": 312,
      "##\"": 313,
      "##Z": 314,
      "###": 315,
      "##/": 316,
      "##“": 317,
      "##-": 318,
      "##집": 319,
      "##합": 320,
      "##니": 321,
      "##다": 322,
      "##:": 323,
      "##以": 324,
      "##讓": 325,
      "##他": 326,
      "##到": 327,
      "##夏": 328,
      "##威": 329,
      "##夷": 330,
      "##渡": 331,
      "##假": 332,
      "##囉": 333,
      "##.": 334,
      "##ñ": 335,
      "##>": 336,
      "##'": 337,
      "##Y": 338,
      "##ạ": 339,
      "##%": 340,
      "##?": 341,
      "##ệ": 342,
      "##à": 343,
      "##á": 344,
      "##국": 345,
      "##인": 346,
      "##Ι": 347,
      "##|": 348,
      "##ü": 349,
      "##–": 350,
      "##É": 351,
      "##Ω": 352,
      "##&": 353,
      "##ộ": 354,
      "##ö": 355,
      "##;": 356,
      "##크": 357,
      "##쉐": 358,
      "##이": 359,
      "##드": 360,
      "##ë": 361,
      "##ä": 362,
      "##장": 363,
      "##품": 364,
      "##\\": 365,
      "##*": 366,
      "##ó": 367,
      "##]": 368,
      "##ú": 369,
      "##운": 370,
      "##데": 371,
      "##션": 372,
      "##吒": 373,
      "##是": 374,
      "##中": 375,
      "##國": 376,
      "##神": 377,
      "##話": 378,
      "##的": 379,
      "##童": 380,
      "##ç": 381,
      "##ô": 382,
      "##ế": 383,
      "##ờ": 384,
      "##$": 385,
      "##(": 386,
      "##â": 387,
      "##”": 388,
      "##평": 389,
      "##단": 390,
      "##을": 391,
      "##ê": 392,
      "##ò": 393,
      "##è": 394,
      "##•": 395,
      "##~": 396,
      "##ý": 397,
      "##′": 398,
      "##å": 399,
      "##希": 400,
      "##望": 401,
      "##能": 402,
      "##開": 403,
      "##心": 404,
      "##玩": 405,
      "##耍": 406,
      "##í": 407,
      "##’": 408,
      "##勇": 409,
      "##敢": 410,
      "##走": 411,
      "##自": 412,
      "##己": 413,
      "##路": 414,
      "##—": 415,
      "##ć": 416,
      "##ų": 417,
      "##ố": 418,
      "##해": 419,
      "##서": 420,
      "##는": 421,
      "##내": 422,
      "##+": 423,
      "##급": 424,
      "##ã": 425,
      "##계": 426,
      "##좌": 427,
      "##가": 428,
      "##요": 429,
      "##û": 430,
      "##£": 431,
      "##ȏ": 432,
      "##랜": 433,
      "##에": 434,
      "##출": 435,
      "##용": 436,
      "##로": 437,
      "##벌": 438,
      "##æ": 439,
      "##he": 440,
      "##in": 441,
      "##er": 442,
      "the": 443,
      "##on": 444,
      "##nd": 445,
      "##at": 446,
      "##es": 447,
      "##or": 448,
      "##ou": 449,
      "##en": 450,
      "##ing": 451,
      "##ed": 452,
      "##it": 453,
      "##an": 454,
      "and": 455,
      "to": 456,
      "##al": 457,
      "##ar": 458,
      "in": 459,
      "of": 460,
      "##re": 461,
      "##is": 462,
      "##ic": 463,
      "##ion": 464,
      "##om": 465,
      "##le": 466,
      "##as": 467,
      "th": 468,
      "##ent": 469,
      "##el": 470,
      "##il": 471,
      "you": 472,
      "##ro": 473,
      "##et": 474,
      "##st": 475,
      "##ct": 476,
      "is": 477,
      "for": 478,
      "##ve": 479,
      "##ur": 480,
      "on": 481,
      "be": 482,
      "re": 483,
      "##ut": 484,
      "##ot": 485,
      "##ly": 486,
      "##ow": 487,
      "##id": 488,
      "##ay": 489,
      "##ce": 490,
      "##ith": 491,
      "##ation": 492,
      "##ig": 493,
      "##ol": 494,
      "with": 495,
      "##ch": 496,
      "##ad": 497,
      "##am": 498,
      "st": 499,
      "that": 500,
      "##ir": 501,
      "##ers": 502,
      "##se": 503,
      "pro": 504,
      "The": 505,
      "##im": 506,
      "it": 507,
      "an": 508,
      "##ess": 509,
      "##ver": 510,
      "al": 511,
      "as": 512,
      "##ul": 513,
      "or": 514,
      "##ill": 515,
      "con": 516,
      "##ter": 517,
      "are": 518,
      "com": 519,
      "ha": 520,
      "wh": 521,
      "##ra": 522,
      "##oo": 523,
      "##pp": 524,
      "##ge": 525,
      "your": 526,
      "##ab": 527,
      "##est": 528,
      "##ak": 529,
      "##ate": 530,
      "at": 531,
      "##her": 532,
      "fr": 533,
      "##igh": 534,
      "##ck": 535,
      "##um": 536,
      "##if": 537,
      "##us": 538,
      "we": 539,
      "ne": 540,
      "ex": 541,
      "##un": 542,
      "##ld": 543,
      "##pe": 544,
      "##em": 545,
      "##ist": 546,
      "##iv": 547,
      "se": 548,
      "de": 549,
      "##ain": 550,
      "su": 551,
      "##ant": 552,
      "##ort": 553,
      "can": 554,
      "##ity": 555,
      "have": 556,
      "sh": 557,
      "##ment": 558,
      "##ive": 559,
      "##os": 560,
      "##art": 561,
      "##ust": 562,
      "##ies": 563,
      "##ore": 564,
      "by": 565,
      "##op": 566,
      "will": 567,
      "this": 568,
      "from": 569,
      "##ight": 570,
      "##th": 571,
      "not": 572,
      "##ie": 573,
      "was": 574,
      "##all": 575,
      "ch": 576,
      "##ome": 577,
      "en": 578,
      "##ard": 579,
      "##our": 580,
      "##ould": 581,
      "##ud": 582,
      "##rou": 583,
      "pl": 584,
      "##ork": 585,
      "##ear": 586,
      "##and": 587,
      "##ci": 588,
      "##per": 589,
      "##ell": 590,
      "so": 591,
      "##ost": 592,
      "all": 593,
      "us": 594,
      "ab": 595,
      "ad": 596,
      "Th": 597,
      "##od": 598,
      "##nt": 599,
      "##out": 600,
      "##qu": 601,
      "pr": 602,
      "he": 603,
      "##ally": 604,
      "##age": 605,
      "comp": 606,
      "##ect": 607,
      "##ine": 608,
      "##able": 609,
      "##ice": 610,
      "##gh": 611,
      "</": 612,
      "##ide": 613,
      "tr": 614,
      "##ake": 615,
      "has": 616,
      "##ag": 617,
      "do": 618,
      "##ure": 619,
      "##ib": 620,
      "##ind": 621,
      "##ions": 622,
      "res": 623,
      "##pt": 624,
      "In": 625,
      "##ac": 626,
      "##one": 627,
      "our": 628,
      "##orm": 629,
      "up": 630,
      "cl": 631,
      "##ast": 632,
      "20": 633,
      "me": 634,
      "##cc": 635,
      "##so": 636,
      "cont": 637,
      "##ook": 638,
      "##ff": 639,
      "le": 640,
      "their": 641,
      "##ack": 642,
      "##ime": 643,
      "whe": 644,
      "out": 645,
      "##ood": 646,
      "##ite": 647,
      "##ip": 648,
      "##ther": 649,
      "##ous": 650,
      "##ich": 651,
      "##ated": 652,
      "##ations": 653,
      "##ail": 654,
      "##ik": 655,
      "##du": 656,
      "##iz": 657,
      "lo": 658,
      "##ence": 659,
      "##ry": 660,
      "inc": 661,
      "##ance": 662,
      "but": 663,
      "##mp": 664,
      "one": 665,
      "int": 666,
      "app": 667,
      "##act": 668,
      "more": 669,
      "work": 670,
      "qu": 671,
      "##erv": 672,
      "##ong": 673,
      "##form": 674,
      "any": 675,
      "man": 676,
      "##og": 677,
      "##ere": 678,
      "time": 679,
      "##ents": 680,
      "##ans": 681,
      "they": 682,
      "St": 683,
      "##ace": 684,
      "##ick": 685,
      "sp": 686,
      "##ame": 687,
      "my": 688,
      "##fer": 689,
      "##ord": 690,
      "We": 691,
      "##ep": 692,
      "##reat": 693,
      "##ach": 694,
      "##ia": 695,
      "also": 696,
      "##ely": 697,
      "fe": 698,
      "##ile": 699,
      "dis": 700,
      "##ign": 701,
      "te": 702,
      "which": 703,
      "It": 704,
      "ev": 705,
      "##ase": 706,
      "##ount": 707,
      "who": 708,
      "##ary": 709,
      "##ire": 710,
      "##ue": 711,
      "about": 712,
      "##ark": 713,
      "##ike": 714,
      "##are": 715,
      "This": 716,
      "##ap": 717,
      "##ction": 718,
      "per": 719,
      "##ult": 720,
      "get": 721,
      "##lo": 722,
      "##ree": 723,
      "##ber": 724,
      "You": 725,
      "##ition": 726,
      "go": 727,
      "##ens": 728,
      "other": 729,
      "part": 730,
      "##av": 731,
      "new": 732,
      "##gr": 733,
      "##ish": 734,
      "##ical": 735,
      "##ors": 736,
      "year": 737,
      "prov": 738,
      "##ass": 739,
      "spe": 740,
      "un": 741,
      "need": 742,
      "hel": 743,
      "them": 744,
      "if": 745,
      "##lic": 746,
      "##now": 747,
      "##ings": 748,
      "pe": 749,
      "##ays": 750,
      "ar": 751,
      "acc": 752,
      "pre": 753,
      "##ub": 754,
      "Ch": 755,
      "##very": 756,
      "##vel": 757,
      "some": 758,
      "over": 759,
      "comm": 760,
      "201": 761,
      "inter": 762,
      "##pl": 763,
      "ag": 764,
      "would": 765,
      "##te": 766,
      "##cial": 767,
      "like": 768,
      "its": 769,
      "may": 770,
      "##ink": 771,
      "sa": 772,
      "##int": 773,
      "incl": 774,
      "19": 775,
      "imp": 776,
      "just": 777,
      "##ial": 778,
      "##ond": 779,
      "help": 780,
      "there": 781,
      "produ": 782,
      "##au": 783,
      "serv": 784,
      "been": 785,
      "##rough": 786,
      "when": 787,
      "than": 788,
      "##ade": 789,
      "ro": 790,
      "If": 791,
      "##wn": 792,
      "##nder": 793,
      "know": 794,
      "Al": 795,
      "make": 796,
      "##ose": 797,
      "##ices": 798,
      "rec": 799,
      "use": 800,
      "includ": 801,
      "off": 802,
      "##iew": 803,
      "am": 804,
      "into": 805,
      "des": 806,
      "##ning": 807,
      "##ople": 808,
      "fir": 809,
      "how": 810,
      "col": 811,
      "sc": 812,
      "##ang": 813,
      "##ough": 814,
      "ve": 815,
      "##ov": 816,
      "##ery": 817,
      "##ru": 818,
      "what": 819,
      "##cess": 820,
      "##ons": 821,
      "##ild": 822,
      "##ound": 823,
      "exper": 824,
      "add": 825,
      "##pr": 826,
      "##ew": 827,
      "##ft": 828,
      "##enc": 829,
      "##ater": 830,
      "##own": 831,
      "reg": 832,
      "her": 833,
      "##ful": 834,
      "ind": 835,
      "##oc": 836,
      "##lect": 837,
      "cons": 838,
      "people": 839,
      "through": 840,
      "look": 841,
      "tra": 842,
      "##iss": 843,
      "ph": 844,
      "##low": 845,
      "bec": 846,
      "Wh": 847,
      "##als": 848,
      "co": 849,
      "every": 850,
      "bu": 851,
      "##les": 852,
      "##itt": 853,
      "no": 854,
      "were": 855,
      "rem": 856,
      "his": 857,
      "most": 858,
      "##hen": 859,
      "##amp": 860,
      "should": 861,
      "##formation": 862,
      "##ates": 863,
      "##mer": 864,
      "supp": 865,
      "##ys": 866,
      "well": 867,
      "##00": 868,
      "##ible": 869,
      "An": 870,
      "##iness": 871,
      "##fter": 872,
      "only": 873,
      "first": 874,
      "##ied": 875,
      "##ise": 876,
      "##ating": 877,
      "##ory": 878,
      "##bs": 879,
      "##hed": 880,
      "see": 881,
      "##ts": 882,
      "##oss": 883,
      "##round": 884,
      "act": 885,
      "##ric": 886,
      "##ne": 887,
      "##hing": 888,
      "##row": 889,
      "tw": 890,
      "),": 891,
      "want": 892,
      "##etw": 893,
      "##ific": 894,
      "bl": 895,
      "had": 896,
      "##pect": 897,
      "##ities": 898,
      "##ower": 899,
      "these": 900,
      "set": 901,
      "high": 902,
      "##io": 903,
      "Re": 904,
      "bus": 905,
      "##ious": 906,
      "rel": 907,
      "##ata": 908,
      "compan": 909,
      "sy": 910,
      "##ian": 911,
      "information": 912,
      "str": 913,
      "As": 914,
      "dr": 915,
      "great": 916,
      "loc": 917,
      "Com": 918,
      "she": 919,
      "sm": 920,
      "under": 921,
      "##ob": 922,
      "##ife": 923,
      "##ove": 924,
      "##ject": 925,
      "way": 926,
      "##end": 927,
      "inv": 928,
      "##ual": 929,
      "##ures": 930,
      "##ause": 931,
      ").": 932,
      "##tain": 933,
      "##old": 934,
      "##ange": 935,
      "right": 936,
      "back": 937,
      "provid": 938,
      "##ph": 939,
      "car": 940,
      "pers": 941,
      "##ont": 942,
      "##ility": 943,
      "##ience": 944,
      "##oy": 945,
      "wor": 946,
      "##ool": 947,
      "##aking": 948,
      "dif": 949,
      "home": 950,
      "sim": 951,
      "##ks": 952,
      "##erm": 953,
      "mark": 954,
      "And": 955,
      "ke": 956,
      "##day": 957,
      "##ward": 958,
      "then": 959,
      "##olog": 960,
      "dec": 961,
      "av": 962,
      "gu": 963,
      "##ting": 964,
      "bas": 965,
      "day": 966,
      "many": 967,
      "##urn": 968,
      "ac": 969,
      "business": 970,
      "good": 971,
      "take": 972,
      "##get": 973,
      "product": 974,
      "own": 975,
      "##stem": 976,
      "such": 977,
      "##..": 978,
      "two": 979,
      "very": 980,
      "##xt": 981,
      "##fore": 982,
      "start": 983,
      "sec": 984,
      "even": 985,
      "stud": 986,
      "where": 987,
      "##ments": 988,
      "##velop": 989,
      "##iet": 990,
      "##hes": 991,
      "inst": 992,
      "##gram": 993,
      "New": 994,
      "Se": 995,
      "rep": 996,
      "min": 997,
      "now": 998,
      "##uring": 999,
      "mu": 1000,
      "##ract": 1001,
      "He": 1002,
      "##anc": 1003,
      "##line": 1004,
      "##ular": 1005,
      "trans": 1006,
      "could": 1007,
      "##gan": 1008,
      "##nds": 1009,
      "##its": 1010,
      "requ": 1011,
      "##oth": 1012,
      "##ational": 1013,
      "There": 1014,
      "For": 1015,
      "##rol": 1016,
      "fin": 1017,
      "##sel": 1018,
      "##tern": 1019,
      "best": 1020,
      "##ty": 1021,
      "im": 1022,
      "##alth": 1023,
      "De": 1024,
      "bel": 1025,
      "##rit": 1026,
      "##oint": 1027,
      "person": 1028,
      "ll": 1029,
      "med": 1030,
      "##red": 1031,
      "cour": 1032,
      "long": 1033,
      "##hip": 1034,
      "design": 1035,
      "pat": 1036,
      "ass": 1037,
      "after": 1038,
      "##led": 1039,
      "##oun": 1040,
      "##ily": 1041,
      "market": 1042,
      "cre": 1043,
      "data": 1044,
      "##ss": 1045,
      "process": 1046,
      "years": 1047,
      "che": 1048,
      "##ix": 1049,
      "##ek": 1050,
      "##way": 1051,
      "world": 1052,
      "Ad": 1053,
      "don": 1054,
      "##iqu": 1055,
      "##ics": 1056,
      "##roup": 1057,
      "adv": 1058,
      "differ": 1059,
      "ful": 1060,
      "made": 1061,
      "att": 1062,
      "em": 1063,
      "life": 1064,
      "pur": 1065,
      "##ble": 1066,
      "##ener": 1067,
      "##ott": 1068,
      "comple": 1069,
      "det": 1070,
      "##air": 1071,
      "##ative": 1072,
      "lead": 1073,
      "system": 1074,
      "much": 1075,
      "Pro": 1076,
      "br": 1077,
      "eff": 1078,
      "find": 1079,
      "##ues": 1080,
      "being": 1081,
      "id": 1082,
      "##co": 1083,
      "ins": 1084,
      "##ustom": 1085,
      "said": 1086,
      "##ever": 1087,
      "##ually": 1088,
      "##iving": 1089,
      "pol": 1090,
      "develop": 1091,
      "place": 1092,
      "before": 1093,
      "##chn": 1094,
      "...": 1095,
      "down": 1096,
      "##view": 1097,
      "again": 1098,
      "call": 1099,
      "##ision": 1100,
      "##ages": 1101,
      "room": 1102,
      "Pl": 1103,
      "##aw": 1104,
      "those": 1105,
      "##ows": 1106,
      "##ize": 1107,
      "because": 1108,
      "list": 1109,
      "mon": 1110,
      "##olut": 1111,
      "program": 1112,
      "cur": 1113,
      "ret": 1114,
      "think": 1115,
      "On": 1116,
      "##unity": 1117,
      "aut": 1118,
      "##und": 1119,
      "play": 1120,
      "applic": 1121,
      "cle": 1122,
      "##ner": 1123,
      "##omet": 1124,
      "read": 1125,
      "pres": 1126,
      "count": 1127,
      "experience": 1128,
      "met": 1129,
      "Ar": 1130,
      "Pr": 1131,
      "end": 1132,
      "too": 1133,
      "##ump": 1134,
      "eas": 1135,
      "##ath": 1136,
      "##chool": 1137,
      "prof": 1138,
      "avail": 1139,
      "Fr": 1140,
      "custom": 1141,
      "del": 1142,
      "gr": 1143,
      "##ven": 1144,
      "##ather": 1145,
      "##ited": 1146,
      "##ession": 1147,
      "10": 1148,
      "fun": 1149,
      "here": 1150,
      "op": 1151,
      "##ining": 1152,
      "Un": 1153,
      "while": 1154,
      "company": 1155,
      "used": 1156,
      "##up": 1157,
      "##ict": 1158,
      "##lease": 1159,
      "##land": 1160,
      "##ital": 1161,
      "##ank": 1162,
      "does": 1163,
      "mem": 1164,
      "sk": 1165,
      "sw": 1166,
      "##az": 1167,
      "##ple": 1168,
      "##ins": 1169,
      "##ash": 1170,
      "each": 1171,
      "fol": 1172,
      "##ouse": 1173,
      "##ission": 1174,
      "How": 1175,
      "offer": 1176,
      "##ives": 1177,
      "pub": 1178,
      "##ax": 1179,
      "##ave": 1180,
      "##ivers": 1181,
      "support": 1182,
      "post": 1183,
      "##ah": 1184,
      "##ri": 1185,
      "##ince": 1186,
      "##other": 1187,
      "week": 1188,
      "mod": 1189,
      "##atch": 1190,
      "top": 1191,
      "##ently": 1192,
      "Te": 1193,
      "poss": 1194,
      "plan": 1195,
      "##irect": 1196,
      "But": 1197,
      "##ality": 1198,
      "def": 1199,
      "same": 1200,
      "vis": 1201,
      "hand": 1202,
      "services": 1203,
      "##ior": 1204,
      "##ress": 1205,
      "##ason": 1206,
      "form": 1207,
      "using": 1208,
      "200": 1209,
      "available": 1210,
      "Ind": 1211,
      "So": 1212,
      "##ale": 1213,
      "health": 1214,
      "##iel": 1215,
      "##icle": 1216,
      "different": 1217,
      "fam": 1218,
      "##etwork": 1219,
      "lar": 1220,
      "##ock": 1221,
      "##arm": 1222,
      "ext": 1223,
      "perform": 1224,
      "run": 1225,
      "sur": 1226,
      "Be": 1227,
      "En": 1228,
      "Sc": 1229,
      "free": 1230,
      "rest": 1231,
      "##eng": 1232,
      "##reen": 1233,
      "##ption": 1234,
      "##ology": 1235,
      "##pos": 1236,
      "keep": 1237,
      "bo": 1238,
      "##ier": 1239,
      "online": 1240,
      "around": 1241,
      "bed": 1242,
      "book": 1243,
      "power": 1244,
      "val": 1245,
      "organ": 1246,
      "frie": 1247,
      "##istr": 1248,
      "var": 1249,
      "really": 1250,
      "team": 1251,
      "Our": 1252,
      "fl": 1253,
      "num": 1254,
      "##ced": 1255,
      "##ying": 1256,
      "dev": 1257,
      "provide": 1258,
      "bet": 1259,
      "both": 1260,
      "site": 1261,
      "##ness": 1262,
      "##ene": 1263,
      "sub": 1264,
      "##ways": 1265,
      "exc": 1266,
      "head": 1267,
      "##ittle": 1268,
      "##ique": 1269,
      "To": 1270,
      "ear": 1271,
      "##par": 1272,
      "feel": 1273,
      "import": 1274,
      "cer": 1275,
      "##der": 1276,
      "##een": 1277,
      "##ines": 1278,
      "resp": 1279,
      "result": 1280,
      "techn": 1281,
      "pass": 1282,
      "somet": 1283,
      "##aut": 1284,
      "access": 1285,
      "follow": 1286,
      "Tr": 1287,
      "cor": 1288,
      "did": 1289,
      "gener": 1290,
      "sign": 1291,
      "##ug": 1292,
      "##ved": 1293,
      "##ird": 1294,
      "Ex": 1295,
      "When": 1296,
      "love": 1297,
      "including": 1298,
      "view": 1299,
      "##ces": 1300,
      "feat": 1301,
      "month": 1302,
      "open": 1303,
      "They": 1304,
      "12": 1305,
      "Aut": 1306,
      "lot": 1307,
      "##alk": 1308,
      "real": 1309,
      "project": 1310,
      "webs": 1311,
      "##ized": 1312,
      "service": 1313,
      "veh": 1314,
      "little": 1315,
      "main": 1316,
      "area": 1317,
      "last": 1318,
      "##less": 1319,
      "##ising": 1320,
      "##ross": 1321,
      "happ": 1322,
      "sure": 1323,
      "##ource": 1324,
      "##ody": 1325,
      "going": 1326,
      "Chr": 1327,
      "full": 1328,
      "light": 1329,
      "ty": 1330,
      "proper": 1331,
      "##akes": 1332,
      "##ruct": 1333,
      "big": 1334,
      "##ets": 1335,
      "without": 1336,
      "disc": 1337,
      "art": 1338,
      "She": 1339,
      "##ware": 1340,
      "##stand": 1341,
      "##ider": 1342,
      "partic": 1343,
      "Cl": 1344,
      "bro": 1345,
      "cost": 1346,
      "found": 1347,
      "ob": 1348,
      "unt": 1349,
      "##bers": 1350,
      "##rand": 1351,
      "##ccess": 1352,
      "control": 1353,
      "event": 1354,
      "Mar": 1355,
      "##ving": 1356,
      "##ired": 1357,
      "What": 1358,
      "emp": 1359,
      "group": 1360,
      "##ton": 1361,
      "##vent": 1362,
      "##ident": 1363,
      "able": 1364,
      "##oney": 1365,
      "curr": 1366,
      "Sh": 1367,
      "food": 1368,
      "##nect": 1369,
      "within": 1370,
      "few": 1371,
      "special": 1372,
      "ide": 1373,
      "care": 1374,
      "contin": 1375,
      "interest": 1376,
      "All": 1377,
      "include": 1378,
      "##blem": 1379,
      "##ield": 1380,
      "est": 1381,
      "##ient": 1382,
      "##iver": 1383,
      "always": 1384,
      "Res": 1385,
      "today": 1386,
      "conf": 1387,
      "##ants": 1388,
      "him": 1389,
      "school": 1390,
      "vide": 1391,
      "state": 1392,
      "##uman": 1393,
      "child": 1394,
      "opp": 1395,
      "iss": 1396,
      "##imes": 1397,
      "Co": 1398,
      "though": 1399,
      "##ental": 1400,
      "Inc": 1401,
      "better": 1402,
      "making": 1403,
      "##gy": 1404,
      "##ined": 1405,
      "##room": 1406,
      "##ural": 1407,
      "##ustr": 1408,
      "##thing": 1409,
      "small": 1410,
      "course": 1411,
      "Sp": 1412,
      "aff": 1413,
      "lear": 1414,
      "##put": 1415,
      "##lis": 1416,
      "inf": 1417,
      "problem": 1418,
      "##raph": 1419,
      "check": 1420,
      "betw": 1421,
      "##ten": 1422,
      "##cer": 1423,
      "##ically": 1424,
      "things": 1425,
      "char": 1426,
      "##ency": 1427,
      "between": 1428,
      "15": 1429,
      "bre": 1430,
      "elect": 1431,
      "grow": 1432,
      "oper": 1433,
      "##ee": 1434,
      "ref": 1435,
      "still": 1436,
      "success": 1437,
      "show": 1438,
      "important": 1439,
      "At": 1440,
      "during": 1441,
      "old": 1442,
      "stor": 1443,
      "come": 1444,
      "##pping": 1445,
      "meet": 1446,
      "Comm": 1447,
      "Con": 1448,
      "pos": 1449,
      "##ients": 1450,
      "rece": 1451,
      "##vert": 1452,
      "##orts": 1453,
      "enj": 1454,
      "enter": 1455,
      "something": 1456,
      ",”": 1457,
      "##ling": 1458,
      "##itc": 1459,
      "##omm": 1460,
      "##els": 1461,
      "##ume": 1462,
      "phot": 1463,
      "second": 1464,
      "Serv": 1465,
      "fil": 1466,
      "kind": 1467,
      "##lev": 1468,
      "199": 1469,
      "Count": 1470,
      "ca": 1471,
      "point": 1472,
      "##ium": 1473,
      "##oice": 1474,
      "##ately": 1475,
      "order": 1476,
      "##ems": 1477,
      "level": 1478,
      "intern": 1479,
      "local": 1480,
      "clean": 1481,
      "Man": 1482,
      "let": 1483,
      "mov": 1484,
      "since": 1485,
      "connect": 1486,
      "##orth": 1487,
      "quality": 1488,
      "##loy": 1489,
      "spec": 1490,
      "addition": 1491,
      "cent": 1492,
      "equ": 1493,
      "fact": 1494,
      "must": 1495,
      "##con": 1496,
      "##br": 1497,
      "##ense": 1498,
      "##pend": 1499,
      "ent": 1500,
      "quest": 1501,
      "website": 1502,
      "With": 1503,
      "mill": 1504,
      "pay": 1505,
      "red": 1506,
      "##res": 1507,
      "##por": 1508,
      "##lection": 1509,
      "##ieve": 1510,
      "##ands": 1511,
      "prom": 1512,
      "US": 1513,
      "put": 1514,
      "three": 1515,
      "sho": 1516,
      "eng": 1517,
      "##ours": 1518,
      "appro": 1519,
      "based": 1520,
      "Christ": 1521,
      "direct": 1522,
      "mus": 1523,
      "par": 1524,
      "ser": 1525,
      "sit": 1526,
      "##ivid": 1527,
      "That": 1528,
      "class": 1529,
      "effect": 1530,
      "until": 1531,
      "hard": 1532,
      "might": 1533,
      "##elf": 1534,
      "##ster": 1535,
      "##cept": 1536,
      "build": 1537,
      "products": 1538,
      "App": 1539,
      "vol": 1540,
      "win": 1541,
      "away": 1542,
      "##ves": 1543,
      "##ats": 1544,
      "##oll": 1545,
      "##ember": 1546,
      "##ode": 1547,
      "##ok": 1548,
      "consider": 1549,
      "looking": 1550,
      "##wards": 1551,
      "profession": 1552,
      "public": 1553,
      "possible": 1554,
      "enjoy": 1555,
      "##ding": 1556,
      "##read": 1557,
      "##ability": 1558,
      "##ified": 1559,
      "purch": 1560,
      "number": 1561,
      "respons": 1562,
      "Amer": 1563,
      "cr": 1564,
      "##ote": 1565,
      "ant": 1566,
      "exp": 1567,
      "##earch": 1568,
      "present": 1569,
      "visit": 1570,
      "Americ": 1571,
      "water": 1572,
      "beaut": 1573,
      "another": 1574,
      "next": 1575,
      "##ists": 1576,
      "##olution": 1577,
      "County": 1578,
      "Le": 1579,
      "##ted": 1580,
      "##uck": 1581,
      "##vern": 1582,
      "priv": 1583,
      "working": 1584,
      "saf": 1585,
      "##self": 1586,
      "es": 1587,
      "gl": 1588,
      "game": 1589,
      "sal": 1590,
      "##vers": 1591,
      "ask": 1592,
      "shall": 1593,
      "content": 1594,
      "manage": 1595,
      "understand": 1596,
      "students": 1597,
      ".\"": 1598,
      "cap": 1599,
      "days": 1600,
      "ma": 1601,
      "sens": 1602,
      "turn": 1603,
      "##lish": 1604,
      "##man": 1605,
      "cond": 1606,
      "##uss": 1607,
      "contact": 1608,
      "money": 1609,
      "##ences": 1610,
      "application": 1611,
      "Is": 1612,
      "##rib": 1613,
      "##ger": 1614,
      "stand": 1615,
      "along": 1616,
      "personal": 1617,
      "video": 1618,
      "30": 1619,
      "creat": 1620,
      "el": 1621,
      "opt": 1622,
      "past": 1623,
      "##gg": 1624,
      "##orn": 1625,
      "##ism": 1626,
      "##aster": 1627,
      "##ury": 1628,
      "##ute": 1629,
      "##amer": 1630,
      "never": 1631,
      "create": 1632,
      "large": 1633,
      "Bl": 1634,
      "One": 1635,
      "Ph": 1636,
      "less": 1637,
      "non": 1638,
      "pain": 1639,
      "##ele": 1640,
      "##itions": 1641,
      "##duc": 1642,
      "organiz": 1643,
      "11": 1644,
      "Rep": 1645,
      "ed": 1646,
      "##ren": 1647,
      "##bal": 1648,
      "##here": 1649,
      "##atter": 1650,
      "##ively": 1651,
      "ens": 1652,
      "##ards": 1653,
      "social": 1654,
      "needs": 1655,
      "community": 1656,
      "invest": 1657,
      "easy": 1658,
      "Service": 1659,
      "Can": 1660,
      "Coun": 1661,
      "God": 1662,
      "Or": 1663,
      "fac": 1664,
      "give": 1665,
      "nat": 1666,
      "term": 1667,
      "##ES": 1668,
      "##ination": 1669,
      "##aly": 1670,
      "##ases": 1671,
      "review": 1672,
      "prot": 1673,
      "allow": 1674,
      "##ocus": 1675,
      "below": 1676,
      "family": 1677,
      "Auto": 1678,
      "Ant": 1679,
      "dig": 1680,
      "ever": 1681,
      "line": 1682,
      "arr": 1683,
      "Cont": 1684,
      "camp": 1685,
      "move": 1686,
      "sum": 1687,
      "##gin": 1688,
      "##att": 1689,
      "##ars": 1690,
      "##ured": 1691,
      "beh": 1692,
      "##iful": 1693,
      "##ains": 1694,
      "phys": 1695,
      "Network": 1696,
      "body": 1697,
      "lim": 1698,
      "pack": 1699,
      "##mission": 1700,
      "##esh": 1701,
      "##lement": 1702,
      "advert": 1703,
      "others": 1704,
      "##tend": 1705,
      "##ample": 1706,
      "report": 1707,
      "against": 1708,
      "function": 1709,
      "):": 1710,
      "Br": 1711,
      "dry": 1712,
      "house": 1713,
      "page": 1714,
      "##light": 1715,
      "##uly": 1716,
      "##ots": 1717,
      "expect": 1718,
      "works": 1719,
      "vehicle": 1720,
      "Me": 1721,
      "My": 1722,
      "Part": 1723,
      "wr": 1724,
      "##ll": 1725,
      "##ope": 1726,
      "tool": 1727,
      "##ici": 1728,
      "##unch": 1729,
      "soft": 1730,
      "price": 1731,
      "click": 1732,
      "incre": 1733,
      "imm": 1734,
      "customers": 1735,
      "18": 1736,
      "Che": 1737,
      "Med": 1738,
      "air": 1739,
      "wind": 1740,
      "##bo": 1741,
      "##ised": 1742,
      "##imate": 1743,
      "##ustry": 1744,
      "left": 1745,
      "quick": 1746,
      "space": 1747,
      "individ": 1748,
      "May": 1749,
      "focus": 1750,
      "##aff": 1751,
      "##ones": 1752,
      "##ator": 1753,
      "##itive": 1754,
      "toget": 1755,
      "##ety": 1756,
      "web": 1757,
      "chang": 1758,
      "impro": 1759,
      "##aterial": 1760,
      "opport": 1761,
      "##itchen": 1762,
      "together": 1763,
      "Col": 1764,
      "##ned": 1765,
      "##IO": 1766,
      "##istance": 1767,
      "leg": 1768,
      "##ords": 1769,
      "provided": 1770,
      "across": 1771,
      "media": 1772,
      "dem": 1773,
      "fut": 1774,
      "##uro": 1775,
      "##inal": 1776,
      "sty": 1777,
      "##irc": 1778,
      "##oose": 1779,
      "necess": 1780,
      "##osp": 1781,
      "change": 1782,
      "companies": 1783,
      "simple": 1784,
      "members": 1785,
      "certain": 1786,
      "Am": 1787,
      "case": 1788,
      "occ": 1789,
      "pa": 1790,
      "sing": 1791,
      "say": 1792,
      "wom": 1793,
      "##aim": 1794,
      "##gle": 1795,
      "##ream": 1796,
      "##rap": 1797,
      "##ify": 1798,
      "##iety": 1799,
      "employ": 1800,
      "Su": 1801,
      "low": 1802,
      "size": 1803,
      "##cil": 1804,
      "##fect": 1805,
      "##ert": 1806,
      "##outh": 1807,
      "##ister": 1808,
      "ann": 1809,
      "##ills": 1810,
      "why": 1811,
      "industry": 1812,
      "install": 1813,
      "##lished": 1814,
      "Ne": 1815,
      "job": 1816,
      "##ming": 1817,
      "##AC": 1818,
      "##ering": 1819,
      "##olid": 1820,
      "##ames": 1821,
      "##load": 1822,
      "activ": 1823,
      "friend": 1824,
      "beautiful": 1825,
      "dam": 1826,
      "##icro": 1827,
      "##ential": 1828,
      "##iven": 1829,
      "##cially": 1830,
      "##obile": 1831,
      "require": 1832,
      "email": 1833,
      "Eng": 1834,
      "Source": 1835,
      "Tra": 1836,
      "camer": 1837,
      "##ron": 1838,
      "##hel": 1839,
      "##ann": 1840,
      "often": 1841,
      "##ased": 1842,
      "step": 1843,
      "const": 1844,
      "##ably": 1845,
      "chall": 1846,
      "means": 1847,
      "##soci": 1848,
      "provides": 1849,
      "detail": 1850,
      "development": 1851,
      "issues": 1852,
      "specific": 1853,
      "##elebr": 1854,
      "After": 1855,
      "bene": 1856,
      "et": 1857,
      "got": 1858,
      "la": 1859,
      "law": 1860,
      "pick": 1861,
      "##arch": 1862,
      "##ention": 1863,
      "comes": 1864,
      "having": 1865,
      "##arden": 1866,
      "##lobal": 1867,
      "complete": 1868,
      "14": 1869,
      "Cal": 1870,
      "living": 1871,
      "material": 1872,
      "pract": 1873,
      "tem": 1874,
      "##ply": 1875,
      "##com": 1876,
      "##by": 1877,
      "##icy": 1878,
      "##urther": 1879,
      "##ips": 1880,
      "account": 1881,
      "Council": 1882,
      "100": 1883,
      "25": 1884,
      "four": 1885,
      "fav": 1886,
      "wa": 1887,
      "##fort": 1888,
      "##iting": 1889,
      "##let": 1890,
      "##ilt": 1891,
      "##ili": 1892,
      "##urity": 1893,
      "sever": 1894,
      "perfect": 1895,
      "commun": 1896,
      "known": 1897,
      "called": 1898,
      "However": 1899,
      "##istration": 1900,
      "features": 1901,
      "Cent": 1902,
      "Jo": 1903,
      "di": 1904,
      "jo": 1905,
      "mind": 1906,
      "pop": 1907,
      "test": 1908,
      "##egr": 1909,
      "##ging": 1910,
      "##fact": 1911,
      "##hor": 1912,
      "##oogle": 1913,
      "##ived": 1914,
      "deal": 1915,
      "quite": 1916,
      "Do": 1917,
      "Wind": 1918,
      "dom": 1919,
      "vers": 1920,
      "##port": 1921,
      "##cent": 1922,
      "##ED": 1923,
      "These": 1924,
      "front": 1925,
      "super": 1926,
      "user": 1927,
      "##ection": 1928,
      "doing": 1929,
      "##ording": 1930,
      "cover": 1931,
      "million": 1932,
      "benef": 1933,
      "13": 1934,
      "50": 1935,
      "No": 1936,
      "Now": 1937,
      "done": 1938,
      "hours": 1939,
      "tre": 1940,
      "near": 1941,
      "govern": 1942,
      "2018": 1943,
      "consum": 1944,
      "bring": 1945,
      "current": 1946,
      "Anton": 1947,
      "digital": 1948,
      "future": 1949,
      "far": 1950,
      "##ler": 1951,
      "##vir": 1952,
      "##itch": 1953,
      "##ane": 1954,
      "##ilities": 1955,
      "expl": 1956,
      "search": 1957,
      "##ibility": 1958,
      "offers": 1959,
      "actually": 1960,
      "Group": 1961,
      "York": 1962,
      "ach": 1963,
      "hist": 1964,
      "lik": 1965,
      "night": 1966,
      "pot": 1967,
      "please": 1968,
      "side": 1969,
      "##oot": 1970,
      "##me": 1971,
      "##ged": 1972,
      "##ional": 1973,
      "once": 1974,
      "##ids": 1975,
      "concer": 1976,
      "##pped": 1977,
      "##aken": 1978,
      "season": 1979,
      "enc": 1980,
      "##ells": 1981,
      "strate": 1982,
      "##ances": 1983,
      "##iversity": 1984,
      "value": 1985,
      "device": 1986,
      "children": 1987,
      "##ommend": 1988,
      "ensure": 1989,
      "necessary": 1990,
      "cut": 1991,
      "##tt": 1992,
      "reason": 1993,
      "##utes": 1994,
      "##idence": 1995,
      "##aker": 1996,
      "enough": 1997,
      "friends": 1998,
      "##viron": 1999,
      ".,": 2000,
      "Google": 2001,
      "flow": 2002,
      "makes": 2003,
      "range": 2004,
      "##oor": 2005,
      "##uit": 2006,
      "##side": 2007,
      "##ye": 2008,
      "##ley": 2009,
      "white": 2010,
      "##pecially": 2011,
      "##duct": 2012,
      "getting": 2013,
      "party": 2014,
      "unique": 2015,
      "prepar": 2016,
      "buy": 2017,
      "simply": 2018,
      "private": 2019,
      "maj": 2020,
      "16": 2021,
      "circ": 2022,
      "celebr": 2023,
      "due": 2024,
      "er": 2025,
      "mom": 2026,
      "sci": 2027,
      "##icles": 2028,
      "third": 2029,
      "##urs": 2030,
      "##ada": 2031,
      "plac": 2032,
      "compet": 2033,
      "try": 2034,
      "research": 2035,
      "appear": 2036,
      "manag": 2037,
      "news": 2038,
      "color": 2039,
      "address": 2040,
      "inde": 2041,
      "everything": 2042,
      "remov": 2043,
      "country": 2044,
      "##conom": 2045,
      "professional": 2046,
      "Euro": 2047,
      "Home": 2048,
      "Pat": 2049,
      "Rel": 2050,
      "hig": 2051,
      "live": 2052,
      "link": 2053,
      "name": 2054,
      "pict": 2055,
      "treat": 2056,
      "##come": 2057,
      "##vious": 2058,
      "##IC": 2059,
      "##ites": 2060,
      "##lege": 2061,
      "##irl": 2062,
      "weight": 2063,
      "##une": 2064,
      "washer": 2065,
      "trad": 2066,
      "Intern": 2067,
      "someone": 2068,
      "##umpster": 2069,
      "##levision": 2070,
      "management": 2071,
      "##vironment": 2072,
      "High": 2073,
      "coun": 2074,
      "##ror": 2075,
      "##be": 2076,
      "##AN": 2077,
      "##ern": 2078,
      "above": 2079,
      "mean": 2080,
      "integr": 2081,
      "Stud": 2082,
      "##play": 2083,
      "recommend": 2084,
      "Reg": 2085,
      "return": 2086,
      "planning": 2087,
      "performance": 2088,
      "results": 2089,
      "property": 2090,
      "particular": 2091,
      "especially": 2092,
      "advertising": 2093,
      "24": 2094,
      "Go": 2095,
      "bit": 2096,
      "network": 2097,
      "times": 2098,
      "##li": 2099,
      "##book": 2100,
      "##edding": 2101,
      "##ams": 2102,
      "ener": 2103,
      "respect": 2104,
      "##ffic": 2105,
      "##itted": 2106,
      "##ney": 2107,
      "key": 2108,
      "doesn": 2109,
      "technology": 2110,
      "particip": 2111,
      "learn": 2112,
      "dryer": 2113,
      "major": 2114,
      "000": 2115,
      "July": 2116,
      "cal": 2117,
      "card": 2118,
      "field": 2119,
      "further": 2120,
      "human": 2121,
      "kitchen": 2122,
      "tou": 2123,
      "wide": 2124,
      "##ape": 2125,
      "##iate": 2126,
      "##part": 2127,
      "##ER": 2128,
      "##leg": 2129,
      "##ulation": 2130,
      "##ift": 2131,
      "short": 2132,
      "##aps": 2133,
      "needed": 2134,
      "##fully": 2135,
      "drive": 2136,
      "determ": 2137,
      "books": 2138,
      "American": 2139,
      "Qu": 2140,
      "Sw": 2141,
      "Your": 2142,
      "age": 2143,
      "aud": 2144,
      "cook": 2145,
      "table": 2146,
      "##af": 2147,
      "##oid": 2148,
      "##80": 2149,
      "##ither": 2150,
      "##aring": 2151,
      "##ret": 2152,
      "##asing": 2153,
      "repr": 2154,
      "##iring": 2155,
      "items": 2156,
      "##ables": 2157,
      "##ement": 2158,
      "Ste": 2159,
      "2017": 2160,
      "While": 2161,
      "##rict": 2162,
      "following": 2163,
      "typ": 2164,
      "type": 2165,
      "discuss": 2166,
      "questions": 2167,
      "software": 2168,
      "Ro": 2169,
      "cy": 2170,
      "hot": 2171,
      "lat": 2172,
      "##aur": 2173,
      "##pper": 2174,
      "##ops": 2175,
      "##ification": 2176,
      "designed": 2177,
      "autom": 2178,
      "photos": 2179,
      "natural": 2180,
      "several": 2181,
      "Antonion": 2182,
      "Des": 2183,
      "Human": 2184,
      "Please": 2185,
      "loss": 2186,
      "sat": 2187,
      "##ring": 2188,
      "##work": 2189,
      "staff": 2190,
      "attend": 2191,
      "example": 2192,
      "##unte": 2193,
      "choose": 2194,
      "clos": 2195,
      "meas": 2196,
      "road": 2197,
      "experi": 2198,
      "security": 2199,
      "applications": 2200,
      "bedroom": 2201,
      "music": 2202,
      "etc": 2203,
      "Car": 2204,
      "Pe": 2205,
      "Par": 2206,
      "came": 2207,
      "mult": 2208,
      "miss": 2209,
      "port": 2210,
      "sell": 2211,
      "tour": 2212,
      "yet": 2213,
      "##ead": 2214,
      "##most": 2215,
      "##sw": 2216,
      "##hod": 2217,
      "comb": 2218,
      "##abor": 2219,
      "claim": 2220,
      "whether": 2221,
      "##aily": 2222,
      "State": 2223,
      "regard": 2224,
      "track": 2225,
      "broad": 2226,
      "single": 2227,
      "Antonioni": 2228,
      "Fe": 2229,
      "aw": 2230,
      "educ": 2231,
      "fill": 2232,
      "watch": 2233,
      "##app": 2234,
      "##crib": 2235,
      "##for": 2236,
      "##OS": 2237,
      "##EC": 2238,
      "##erc": 2239,
      "##eral": 2240,
      "##ilar": 2241,
      "##ires": 2242,
      "##ush": 2243,
      "##ained": 2244,
      "##acy": 2245,
      "collect": 2246,
      "strong": 2247,
      "invol": 2248,
      "##ledge": 2249,
      "systems": 2250,
      "devices": 2251,
      "position": 2252,
      "summer": 2253,
      "repres": 2254,
      "GP": 2255,
      "Just": 2256,
      "Spe": 2257,
      "bra": 2258,
      "econom": 2259,
      "mag": 2260,
      "taking": 2261,
      "ww": 2262,
      "walk": 2263,
      "##ral": 2264,
      "##ps": 2265,
      "##mas": 2266,
      "##ches": 2267,
      "##ino": 2268,
      "##oud": 2269,
      "##alf": 2270,
      "##ask": 2271,
      "##ership": 2272,
      "share": 2273,
      "blood": 2274,
      "court": 2275,
      "marketing": 2276,
      "deliver": 2277,
      "extra": 2278,
      "variety": 2279,
      "responsible": 2280,
      "www": 2281,
      "Dis": 2282,
      "fre": 2283,
      "ground": 2284,
      "host": 2285,
      "jour": 2286,
      "later": 2287,
      "ut": 2288,
      "wel": 2289,
      "##to": 2290,
      "##ufact": 2291,
      "##za": 2292,
      "##IN": 2293,
      "##oring": 2294,
      "##ancial": 2295,
      "##alys": 2296,
      "begin": 2297,
      "comfort": 2298,
      "select": 2299,
      "users": 2300,
      "true": 2301,
      "common": 2302,
      "save": 2303,
      "relations": 2304,
      "located": 2305,
      "##cover": 2306,
      "author": 2307,
      "various": 2308,
      "didn": 2309,
      "general": 2310,
      "continue": 2311,
      "affect": 2312,
      "break": 2313,
      "meeting": 2314,
      "purchase": 2315,
      "camera": 2316,
      "Europe": 2317,
      "Austr": 2318,
      "Min": 2319,
      "National": 2320,
      "Park": 2321,
      "cult": 2322,
      "talk": 2323,
      "##ng": 2324,
      "##nam": 2325,
      "##ature": 2326,
      "##ari": 2327,
      "##ests": 2328,
      "environment": 2329,
      "Thank": 2330,
      "related": 2331,
      "##erman": 2332,
      "minutes": 2333,
      "required": 2334,
      "believe": 2335,
      "patients": 2336,
      "##olutions": 2337,
      "programs": 2338,
      "running": 2339,
      "projects": 2340,
      "estab": 2341,
      "options": 2342,
      "organization": 2343,
      "tools": 2344,
      "improve": 2345,
      "energy": 2346,
      "By": 2347,
      "Not": 2348,
      "fall": 2349,
      "flo": 2350,
      "men": 2351,
      "says": 2352,
      "van": 2353,
      "via": 2354,
      "wond": 2355,
      "wedding": 2356,
      "##min": 2357,
      "##cl": 2358,
      "##gest": 2359,
      "##ux": 2360,
      "##inary": 2361,
      "##ali": 2362,
      "##ared": 2363,
      "##icult": 2364,
      "##idents": 2365,
      "anim": 2366,
      "##ules": 2367,
      "##hers": 2368,
      "fresh": 2369,
      "upon": 2370,
      "contract": 2371,
      "apply": 2372,
      "record": 2373,
      "includes": 2374,
      "regular": 2375,
      "throughout": 2376,
      "become": 2377,
      "blog": 2378,
      "guid": 2379,
      "study": 2380,
      "Add": 2381,
      "ident": 2382,
      "University": 2383,
      "box": 2384,
      "early": 2385,
      "problems": 2386,
      "situ": 2387,
      "style": 2388,
      "women": 2389,
      "Austral": 2390,
      "brand": 2391,
      "five": 2392,
      "fail": 2393,
      "face": 2394,
      "fund": 2395,
      "ge": 2396,
      "hy": 2397,
      "mar": 2398,
      "##ai": 2399,
      "##pose": 2400,
      "##ec": 2401,
      "##ms": 2402,
      "##mb": 2403,
      "##AR": 2404,
      "##enn": 2405,
      "##ises": 2406,
      "stay": 2407,
      "struct": 2408,
      "##imum": 2409,
      "##raft": 2410,
      "##ights": 2411,
      "##ources": 2412,
      "##ellent": 2413,
      "print": 2414,
      "trip": 2415,
      "manufact": 2416,
      "##ogn": 2417,
      "##ples": 2418,
      "impact": 2419,
      "production": 2420,
      "##rows": 2421,
      "method": 2422,
      "Scott": 2423,
      "maintain": 2424,
      "Calif": 2425,
      "Windows": 2426,
      "government": 2427,
      "17": 2428,
      "City": 2429,
      "Don": 2430,
      "Gu": 2431,
      "Rem": 2432,
      "School": 2433,
      "bi": 2434,
      "bar": 2435,
      "dest": 2436,
      "dist": 2437,
      "dining": 2438,
      "girl": 2439,
      "hold": 2440,
      "lic": 2441,
      "lower": 2442,
      "ur": 2443,
      "##20": 2444,
      "##rect": 2445,
      "##rop": 2446,
      "##idd": 2447,
      "yourself": 2448,
      "##iff": 2449,
      "exact": 2450,
      "upd": 2451,
      "##ograph": 2452,
      "Sept": 2453,
      "##anced": 2454,
      "image": 2455,
      "created": 2456,
      "county": 2457,
      "Art": 2458,
      "happy": 2459,
      "redu": 2460,
      "building": 2461,
      "##ornia": 2462,
      "quickly": 2463,
      "latest": 2464,
      "California": 2465,
      "ID": 2466,
      "Jan": 2467,
      "Most": 2468,
      "Pet": 2469,
      "TH": 2470,
      "dou": 2471,
      "fit": 2472,
      "global": 2473,
      "mach": 2474,
      "sl": 2475,
      "sent": 2476,
      "wood": 2477,
      "##cri": 2478,
      "##go": 2479,
      "##oura": 2480,
      "##lex": 2481,
      "reach": 2482,
      "store": 2483,
      "almost": 2484,
      "hands": 2485,
      "allows": 2486,
      "close": 2487,
      "worked": 2488,
      "##ensive": 2489,
      "##gress": 2490,
      "held": 2491,
      "196": 2492,
      "##augh": 2493,
      "recent": 2494,
      "##ruction": 2495,
      "training": 2496,
      "Any": 2497,
      "similar": 2498,
      "decor": 2499,
      "assist": 2500,
      "materials": 2501,
      "!!": 2502,
      "Fl": 2503,
      "Green": 2504,
      "German": 2505,
      "Sund": 2506,
      "city": 2507,
      "dumpster": 2508,
      "fast": 2509,
      "sound": 2510,
      "wine": 2511,
      "##mm": 2512,
      "##uk": 2513,
      "##use": 2514,
      "##atic": 2515,
      "##ening": 2516,
      "tot": 2517,
      "tow": 2518,
      "init": 2519,
      "##asc": 2520,
      "exist": 2521,
      "chat": 2522,
      "abs": 2523,
      "Inst": 2524,
      "phone": 2525,
      "everyone": 2526,
      "supply": 2527,
      "businesses": 2528,
      "##ietary": 2529,
      "inside": 2530,
      "clear": 2531,
      "defin": 2532,
      "##ength": 2533,
      "additional": 2534,
      "volunte": 2535,
      "Free": 2536,
      "bath": 2537,
      "either": 2538,
      "writ": 2539,
      "worth": 2540,
      "##ued": 2541,
      "##TA": 2542,
      "##inci": 2543,
      "##rew": 2544,
      "refer": 2545,
      "##adio": 2546,
      "ste": 2547,
      "##ull": 2548,
      "frame": 2549,
      "##ung": 2550,
      "##ival": 2551,
      "##aint": 2552,
      "least": 2553,
      "display": 2554,
      "##itional": 2555,
      "spend": 2556,
      "prem": 2557,
      "commer": 2558,
      "2015": 2559,
      "offic": 2560,
      "among": 2561,
      "black": 2562,
      "smart": 2563,
      "started": 2564,
      "skills": 2565,
      "excellent": 2566,
      "months": 2567,
      "vehicles": 2568,
      "shopping": 2569,
      "directly": 2570,
      "sales": 2571,
      "opportunity": 2572,
      "details": 2573,
      "favor": 2574,
      "version": 2575,
      "relationship": 2576,
      "Bro": 2577,
      "Gr": 2578,
      "Mon": 2579,
      "Sat": 2580,
      "Tw": 2581,
      "bad": 2582,
      "ball": 2583,
      "daily": 2584,
      "htt": 2585,
      "micro": 2586,
      "nut": 2587,
      "ren": 2588,
      "rent": 2589,
      "round": 2590,
      "solutions": 2591,
      "war": 2592,
      "##eet": 2593,
      "##gn": 2594,
      "##ground": 2595,
      "##ened": 2596,
      "##anks": 2597,
      "towards": 2598,
      "##ctor": 2599,
      "forward": 2600,
      "##ution": 2601,
      "stra": 2602,
      "associ": 2603,
      "send": 2604,
      "seen": 2605,
      "##opy": 2606,
      "plant": 2607,
      "press": 2608,
      "comput": 2609,
      "amount": 2610,
      "sche": 2611,
      "travel": 2612,
      "cool": 2613,
      "Comp": 2614,
      "took": 2615,
      "achieve": 2616,
      "Here": 2617,
      "given": 2618,
      "garden": 2619,
      "mess": 2620,
      "ris": 2621,
      "taken": 2622,
      "##mber": 2623,
      "##LAC": 2624,
      "##ina": 2625,
      "##ators": 2626,
      "##arb": 2627,
      "##urch": 2628,
      "##usion": 2629,
      "##unk": 2630,
      "heart": 2631,
      "##acter": 2632,
      "##lock": 2633,
      "2019": 2634,
      "decision": 2635,
      "member": 2636,
      "challeng": 2637,
      "benefits": 2638,
      "represent": 2639,
      "##alysis": 2640,
      "Scottish": 2641,
      "21": 2642,
      ":/": 2643,
      "Ge": 2644,
      "Let": 2645,
      "Lond": 2646,
      "South": 2647,
      "date": 2648,
      "hear": 2649,
      "rout": 2650,
      "sale": 2651,
      "##cast": 2652,
      "##ench": 2653,
      "##arter": 2654,
      "##omes": 2655,
      "isn": 2656,
      "repl": 2657,
      "##idge": 2658,
      "story": 2659,
      "answ": 2660,
      "orig": 2661,
      "##used": 2662,
      "discover": 2663,
      "##aving": 2664,
      "according": 2665,
      "amaz": 2666,
      "accept": 2667,
      "##selves": 2668,
      "Plus": 2669,
      "skin": 2670,
      "infl": 2671,
      "growth": 2672,
      "kindle": 2673,
      "levels": 2674,
      "##ready": 2675,
      "conditions": 2676,
      "else": 2677,
      "physical": 2678,
      "history": 2679,
      "moment": 2680,
      "wonder": 2681,
      "September": 2682,
      "://": 2683,
      "Cor": 2684,
      "Int": 2685,
      "More": 2686,
      "Make": 2687,
      "Roy": 2688,
      "Some": 2689,
      "West": 2690,
      "fix": 2691,
      "match": 2692,
      "ring": 2693,
      "rather": 2694,
      "self": 2695,
      "tast": 2696,
      "wall": 2697,
      "##ries": 2698,
      "##lt": 2699,
      "##ony": 2700,
      "##atory": 2701,
      "##arget": 2702,
      "thing": 2703,
      "##state": 2704,
      "former": 2705,
      "##urr": 2706,
      "stat": 2707,
      "neg": 2708,
      "##antly": 2709,
      "soon": 2710,
      "heat": 2711,
      "trying": 2712,
      "clients": 2713,
      "intro": 2714,
      "##aves": 2715,
      "2016": 2716,
      "agree": 2717,
      "198": 2718,
      "helps": 2719,
      "built": 2720,
      "##itting": 2721,
      "longer": 2722,
      "purpose": 2723,
      "policy": 2724,
      "ready": 2725,
      "switch": 2726,
      "idea": 2727,
      "thought": 2728,
      "capt": 2729,
      "protect": 2730,
      "individual": 2731,
      "London": 2732,
      "Dr": 2733,
      "Direct": 2734,
      "Fin": 2735,
      "Gener": 2736,
      "IC": 2737,
      "IT": 2738,
      "North": 2739,
      "cou": 2740,
      "gra": 2741,
      "hosp": 2742,
      "lif": 2743,
      "song": 2744,
      "##of": 2745,
      "##IT": 2746,
      "##IM": 2747,
      "##inner": 2748,
      "##atform": 2749,
      "##eds": 2750,
      "##ides": 2751,
      "##amb": 2752,
      "##irt": 2753,
      "already": 2754,
      "coming": 2755,
      "exam": 2756,
      "uses": 2757,
      "##ipment": 2758,
      "anyone": 2759,
      "##ordin": 2760,
      "consult": 2761,
      "rights": 2762,
      "diff": 2763,
      "##ological": 2764,
      "customer": 2765,
      "United": 2766,
      "subject": 2767,
      "cert": 2768,
      "receive": 2769,
      "damage": 2770,
      "likely": 2771,
      "Sunday": 2772,
      "commercial": 2773,
      "Ag": 2774,
      "Ab": 2775,
      "Bu": 2776,
      "La": 2777,
      "Pre": 2778,
      "cause": 2779,
      "ess": 2780,
      "fig": 2781,
      "lay": 2782,
      "mobile": 2783,
      "six": 2784,
      "solution": 2785,
      "won": 2786,
      "##tty": 2787,
      "##pis": 2788,
      "##hn": 2789,
      "##OR": 2790,
      "##atives": 2791,
      "##enous": 2792,
      "##ications": 2793,
      "##ctions": 2794,
      "prob": 2795,
      "##though": 2796,
      "##ibly": 2797,
      "load": 2798,
      "feed": 2799,
      "events": 2800,
      "##avy": 2801,
      "expert": 2802,
      "##enced": 2803,
      "advant": 2804,
      "attack": 2805,
      "complet": 2806,
      "insp": 2807,
      "currently": 2808,
      "international": 2809,
      "question": 2810,
      "safe": 2811,
      "behind": 2812,
      "increase": 2813,
      "legal": 2814,
      "paper": 2815,
      "##oliday": 2816,
      "friendly": 2817,
      "Center": 2818,
      "##cription": 2819,
      "Bar": 2820,
      "BIO": 2821,
      "GD": 2822,
      "Mark": 2823,
      "Mend": 2824,
      "Sy": 2825,
      "Work": 2826,
      "bott": 2827,
      "cand": 2828,
      "fab": 2829,
      "gold": 2830,
      "hope": 2831,
      "mot": 2832,
      "mount": 2833,
      "national": 2834,
      "sun": 2835,
      "went": 2836,
      "##iod": 2837,
      "##over": 2838,
      "##door": 2839,
      "##not": 2840,
      "##ched": 2841,
      "##hold": 2842,
      "##50": 2843,
      "##Com": 2844,
      "##34": 2845,
      "##itable": 2846,
      "##elt": 2847,
      "##igenous": 2848,
      "##ument": 2849,
      "##istic": 2850,
      "subs": 2851,
      "platform": 2852,
      "usually": 2853,
      "percent": 2854,
      "previous": 2855,
      "pretty": 2856,
      "however": 2857,
      "stress": 2858,
      "location": 2859,
      "instruct": 2860,
      "polit": 2861,
      "retail": 2862,
      "weekend": 2863,
      "restaur": 2864,
      "signific": 2865,
      "ideas": 2866,
      "interested": 2867,
      "electric": 2868,
      "entire": 2869,
      "Christmas": 2870,
      "Black": 2871,
      "domain": 2872,
      "Bo": 2873,
      "Every": 2874,
      "PA": 2875,
      "Will": 2876,
      "dra": 2877,
      "half": 2878,
      "pie": 2879,
      "target": 2880,
      "wish": 2881,
      "##iol": 2882,
      "##pa": 2883,
      "##med": 2884,
      "##mit": 2885,
      "##nov": 2886,
      "##gon": 2887,
      "##uff": 2888,
      "##uary": 2889,
      "##uals": 2890,
      "##ke": 2891,
      "##wise": 2892,
      "##EN": 2893,
      "##head": 2894,
      "##alu": 2895,
      "young": 2896,
      "convers": 2897,
      "areas": 2898,
      "##ief": 2899,
      "residents": 2900,
      "leave": 2901,
      "##izes": 2902,
      "appoint": 2903,
      "qual": 2904,
      "prefer": 2905,
      "included": 2906,
      "##ought": 2907,
      "providing": 2908,
      "basis": 2909,
      "request": 2910,
      "posted": 2911,
      "correct": 2912,
      "schools": 2913,
      "internet": 2914,
      "connected": 2915,
      "safety": 2916,
      "reviews": 2917,
      "Content": 2918,
      "immed": 2919,
      "touch": 2920,
      "00": 2921,
      "Are": 2922,
      "Cons": 2923,
      "bird": 2924,
      "cry": 2925,
      "file": 2926,
      "fire": 2927,
      "grand": 2928,
      "hon": 2929,
      "mil": 2930,
      "ter": 2931,
      "trou": 2932,
      "##oza": 2933,
      "##ex": 2934,
      "##ham": 2935,
      "##ze": 2936,
      "##AP": 2937,
      "##ET": 2938,
      "##just": 2939,
      "town": 2940,
      "##reet": 2941,
      "##asons": 2942,
      "##road": 2943,
      "nothing": 2944,
      "prior": 2945,
      "resume": 2946,
      "clot": 2947,
      "anything": 2948,
      "speed": 2949,
      "2011": 2950,
      "ago": 2951,
      "Also": 2952,
      "college": 2953,
      "Why": 2954,
      "sets": 2955,
      "highly": 2956,
      "financial": 2957,
      "fully": 2958,
      "Program": 2959,
      "Once": 2960,
      "From": 2961,
      "##istrib": 2962,
      "feature": 2963,
      "obtain": 2964,
      "March": 2965,
      "learning": 2966,
      "successful": 2967,
      "received": 2968,
      "files": 2969,
      "asked": 2970,
      "strategy": 2971,
      "counsel": 2972,
      "GPLAC": 2973,
      "journey": 2974,
      "January": 2975,
      "Mendoza": 2976,
      "40": 2977,
      "Af": 2978,
      "Dan": 2979,
      "Ed": 2980,
      "Fil": 2981,
      "Mic": 2982,
      "Per": 2983,
      "Spr": 2984,
      "War": 2985,
      "bill": 2986,
      "bab": 2987,
      "gives": 2988,
      "ill": 2989,
      "matter": 2990,
      "option": 2991,
      "sus": 2992,
      "tell": 2993,
      "##iation": 2994,
      "##iable": 2995,
      "##cle": 2996,
      "##uge": 2997,
      "##PR": 2998,
      "##ored": 2999,
      "##itation": 3000,
      "##isions": 3001,
      "stack": 3002,
      "analy": 3003,
      "exerc": 3004,
      "section": 3005,
      "selection": 3006,
      "##aining": 3007,
      "##ude": 3008,
      "##cious": 3009,
      "doc": 3010,
      "##aces": 3011,
      "##ffee": 3012,
      "evidence": 3013,
      "period": 3014,
      "197": 3015,
      "knowledge": 3016,
      "screen": 3017,
      "region": 3018,
      "buying": 3019,
      "cars": 3020,
      "processing": 3021,
      "attract": 3022,
      "leading": 3023,
      "download": 3024,
      "rooms": 3025,
      "easily": 3026,
      "storage": 3027,
      "Community": 3028,
      "sites": 3029,
      "Apple": 3030,
      "potential": 3031,
      "Relations": 3032,
      "util": 3033,
      "##pisode": 3034,
      ",\"": 3035,
      "--": 3036,
      "Brit": 3037,
      "Day": 3038,
      "El": 3039,
      "Mc": 3040,
      "Mac": 3041,
      "Mary": 3042,
      "Sm": 3043,
      "bur": 3044,
      "gather": 3045,
      "hous": 3046,
      "rates": 3047,
      "sil": 3048,
      "sol": 3049,
      "takes": 3050,
      "ways": 3051,
      "##time": 3052,
      "##aul": 3053,
      "##ole": 3054,
      "##ees": 3055,
      "##hest": 3056,
      "##orld": 3057,
      "##itor": 3058,
      "##ished": 3059,
      "##oms": 3060,
      "thous": 3061,
      "##rown": 3062,
      "##ided": 3063,
      "##add": 3064,
      "org": 3065,
      "sugg": 3066,
      "cannot": 3067,
      "##arth": 3068,
      "prices": 3069,
      "##acation": 3070,
      "##dule": 3071,
      "spot": 3072,
      "goes": 3073,
      "prevent": 3074,
      "recogn": 3075,
      "colors": 3076,
      "suppl": 3077,
      "sett": 3078,
      "driving": 3079,
      "avoid": 3080,
      "final": 3081,
      "finish": 3082,
      "medical": 3083,
      "complex": 3084,
      "sweet": 3085,
      "Indigenous": 3086,
      "corpor": 3087,
      "object": 3088,
      "engine": 3089,
      "antique": 3090,
      "Media": 3091,
      "activities": 3092,
      "floor": 3093,
      "Australia": 3094,
      "Royal": 3095,
      "difficult": 3096,
      "71": 3097,
      "Cle": 3098,
      "II": 3099,
      "June": 3100,
      "Mus": 3101,
      "Oct": 3102,
      "TV": 3103,
      "apos": 3104,
      "cells": 3105,
      "ey": 3106,
      "kn": 3107,
      "land": 3108,
      "oil": 3109,
      "source": 3110,
      "tal": 3111,
      "vot": 3112,
      "##aign": 3113,
      "##de": 3114,
      "##gree": 3115,
      "##face": 3116,
      "##hib": 3117,
      "##IS": 3118,
      "##orge": 3119,
      "##ories": 3120,
      "##ares": 3121,
      "##urance": 3122,
      "##iding": 3123,
      "analysis": 3124,
      "##verage": 3125,
      "altern": 3126,
      "##cker": 3127,
      "deep": 3128,
      "choice": 3129,
      "##ciety": 3130,
      "cloud": 3131,
      "outdoor": 3132,
      "##ization": 3133,
      "spring": 3134,
      "whole": 3135,
      "interview": 3136,
      "agre": 3137,
      "describ": 3138,
      "collection": 3139,
      "##anger": 3140,
      "remember": 3141,
      "dress": 3142,
      "polish": 3143,
      "board": 3144,
      "##idential": 3145,
      "moving": 3146,
      "effective": 3147,
      "Canada": 3148,
      "campaign": 3149,
      "expected": 3150,
      "John": 3151,
      "encoura": 3152,
      "picture": 3153,
      "welcome": 3154,
      "amazing": 3155,
      "probably": 3156,
      "\".": 3157,
      "Apr": 3158,
      "Dietary": 3159,
      "Ser": 3160,
      "Sci": 3161,
      "Voice": 3162,
      "Was": 3163,
      "bud": 3164,
      "code": 3165,
      "distrib": 3166,
      "green": 3167,
      "graph": 3168,
      "max": 3169,
      "ra": 3170,
      "tax": 3171,
      "voice": 3172,
      "viol": 3173,
      "##ties": 3174,
      "##ivery": 3175,
      "##rick": 3176,
      "##gs": 3177,
      "##gar": 3178,
      "##ky": 3179,
      "##back": 3180,
      "##LL": 3181,
      "##AA": 3182,
      "##AS": 3183,
      "##itte": 3184,
      "onto": 3185,
      "##ceed": 3186,
      "stop": 3187,
      "stock": 3188,
      "prostate": 3189,
      "Then": 3190,
      "##abet": 3191,
      "##unities": 3192,
      "##ivity": 3193,
      "adjust": 3194,
      "##odel": 3195,
      "princi": 3196,
      "resistance": 3197,
      "text": 3198,
      "implement": 3199,
      "##encies": 3200,
      "registration": 3201,
      "trail": 3202,
      "background": 3203,
      "Sec": 3204,
      "Health": 3205,
      "reading": 3206,
      "Scot": 3207,
      "costs": 3208,
      "##puter": 3209,
      "growing": 3210,
      "entertain": 3211,
      "equipment": 3212,
      "limited": 3213,
      "paid": 3214,
      "English": 3215,
      "popular": 3216,
      "higher": 3217,
      "types": 3218,
      "vanity": 3219,
      "exactly": 3220,
      "computer": 3221,
      "schedule": 3222,
      "answer": 3223,
      "..": 3224,
      "22": 3225,
      "Del": 3226,
      "Each": 3227,
      "Jes": 3228,
      "Ke": 3229,
      "Over": 3230,
      "Off": 3231,
      "PC": 3232,
      "Rental": 3233,
      "San": 3234,
      "Tod": 3235,
      "award": 3236,
      "bal": 3237,
      "crit": 3238,
      "cred": 3239,
      "fa": 3240,
      "gen": 3241,
      "huge": 3242,
      "lives": 3243,
      "rate": 3244,
      "tree": 3245,
      "##ael": 3246,
      "##eal": 3247,
      "##where": 3248,
      "##itely": 3249,
      "##any": 3250,
      "##ison": 3251,
      "stick": 3252,
      "conven": 3253,
      "##oof": 3254,
      "##hern": 3255,
      "prim": 3256,
      "##ibr": 3257,
      "myself": 3258,
      "television": 3259,
      "itself": 3260,
      "helped": 3261,
      "coll": 3262,
      "added": 3263,
      "became": 3264,
      "remove": 3265,
      "seek": 3266,
      "Read": 3267,
      "acqu": 3268,
      "Pres": 3269,
      "##lands": 3270,
      "groups": 3271,
      "positive": 3272,
      "center": 3273,
      "promot": 3274,
      "condition": 3275,
      "standard": 3276,
      "##icians": 3277,
      "changes": 3278,
      "opportunities": 3279,
      "Internet": 3280,
      "ICES": 3281,
      ".”": 3282,
      "23": 3283,
      "65": 3284,
      "Dep": 3285,
      "Even": 3286,
      "His": 3287,
      "IP": 3288,
      "OC": 3289,
      "batter": 3290,
      "brows": 3291,
      "cross": 3292,
      "dark": 3293,
      "nice": 3294,
      "norm": 3295,
      "sle": 3296,
      "##tone": 3297,
      "##rum": 3298,
      "##dom": 3299,
      "##fr": 3300,
      "##well": 3301,
      "inform": 3302,
      "##asks": 3303,
      "##elo": 3304,
      "release": 3305,
      "##cks": 3306,
      "separ": 3307,
      "shows": 3308,
      "##osed": 3309,
      "note": 3310,
      "notice": 3311,
      "plus": 3312,
      "##iber": 3313,
      "##ached": 3314,
      "climate": 3315,
      "##izing": 3316,
      "appl": 3317,
      "gets": 3318,
      "helping": 3319,
      "firm": 3320,
      "coffee": 3321,
      "guide": 3322,
      "basic": 3323,
      "student": 3324,
      "instead": 3325,
      "repair": 3326,
      "delivery": 3327,
      "grad": 3328,
      "brok": 3329,
      "issue": 3330,
      "character": 3331,
      "points": 3332,
      "Many": 3333,
      "##pendent": 3334,
      "approach": 3335,
      "individuals": 3336,
      "##ronic": 3337,
      "science": 3338,
      "treatment": 3339,
      "##partment": 3340,
      "measure": 3341,
      "machine": 3342,
      "influ": 3343,
      "hospital": 3344,
      "Afric": 3345,
      "Michel": 3346,
      "26": 3347,
      "Ac": 3348,
      "Acc": 3349,
      "Aug": 3350,
      "Cred": 3351,
      "Dav": 3352,
      "Ir": 3353,
      "Up": 3354,
      "World": 3355,
      "base": 3356,
      "iP": 3357,
      "kids": 3358,
      "ly": 3359,
      "mid": 3360,
      "obs": 3361,
      "po": 3362,
      "park": 3363,
      "sort": 3364,
      "sense": 3365,
      "yes": 3366,
      "##ration": 3367,
      "##oon": 3368,
      "##ober": 3369,
      "##eks": 3370,
      "##ners": 3371,
      "##son": 3372,
      "##OU": 3373,
      "##enge": 3374,
      "##enior": 3375,
      "##ana": 3376,
      "##iday": 3377,
      "##erson": 3378,
      "##imin": 3379,
      "item": 3380,
      "##illage": 3381,
      "conduct": 3382,
      "##uses": 3383,
      "##istry": 3384,
      "dep": 3385,
      "compre": 3386,
      "trade": 3387,
      "##aches": 3388,
      "##ormone": 3389,
      "outside": 3390,
      "##ongress": 3391,
      "dise": 3392,
      "theme": 3393,
      "themselves": 3394,
      "##ublic": 3395,
      "office": 3396,
      "##itten": 3397,
      "##hens": 3398,
      "Ang": 3399,
      "Develop": 3400,
      "emb": 3401,
      "playing": 3402,
      "players": 3403,
      "largest": 3404,
      "ideal": 3405,
      "sensors": 3406,
      "wait": 3407,
      "regarding": 3408,
      "established": 3409,
      "double": 3410,
      "introdu": 3411,
      "October": 3412,
      "##ittee": 3413,
      "Scotland": 3414,
      "45": 3415,
      "Dra": 3416,
      "Good": 3417,
      "Grand": 3418,
      "Life": 3419,
      "Port": 3420,
      "Post": 3421,
      "aim": 3422,
      "block": 3423,
      "dream": 3424,
      "flex": 3425,
      "hit": 3426,
      "ign": 3427,
      "led": 3428,
      "pages": 3429,
      "race": 3430,
      "warm": 3431,
      "”.": 3432,
      "##iately": 3433,
      "##sh": 3434,
      "##yl": 3435,
      "##haps": 3436,
      "##wh": 3437,
      "##het": 3438,
      "##itter": 3439,
      "##iture": 3440,
      "##ication": 3441,
      "##icious": 3442,
      "rev": 3443,
      "rele": 3444,
      "reasons": 3445,
      "##oles": 3446,
      "stage": 3447,
      "##irit": 3448,
      "propos": 3449,
      "##ighb": 3450,
      "seem": 3451,
      "seems": 3452,
      "chain": 3453,
      "button": 3454,
      "evalu": 3455,
      "##rought": 3456,
      "experts": 3457,
      "##press": 3458,
      "regul": 3459,
      "##phone": 3460,
      "assess": 3461,
      "advice": 3462,
      "emot": 3463,
      "developed": 3464,
      "Friday": 3465,
      "published": 3466,
      "article": 3467,
      "statement": 3468,
      "winter": 3469,
      "America": 3470,
      "wrong": 3471,
      "practices": 3472,
      "placed": 3473,
      "traditional": 3474,
      "girls": 3475,
      "THE": 3476,
      "total": 3477,
      "existing": 3478,
      "http": 3479,
      "completely": 3480,
      "60": 3481,
      "Aide": 3482,
      "Cr": 3483,
      "House": 3484,
      "IN": 3485,
      "Us": 3486,
      "Use": 3487,
      "Yuk": 3488,
      "cat": 3489,
      "cell": 3490,
      "copy": 3491,
      "ded": 3492,
      "diet": 3493,
      "ec": 3494,
      "emer": 3495,
      "foot": 3496,
      "hour": 3497,
      "pan": 3498,
      "sink": 3499,
      "slow": 3500,
      "wire": 3501,
      "words": 3502,
      "##gu": 3503,
      "##ha": 3504,
      "##ball": 3505,
      "##wide": 3506,
      "##wood": 3507,
      "##erve": 3508,
      "##arily": 3509,
      "inj": 3510,
      "innov": 3511,
      "##isc": 3512,
      "##iced": 3513,
      "##uth": 3514,
      "##irst": 3515,
      "neighb": 3516,
      "##empt": 3517,
      "shop": 3518,
      "chair": 3519,
      "plants": 3520,
      "resources": 3521,
      "clin": 3522,
      "##soft": 3523,
      "thank": 3524,
      "traffic": 3525,
      "relax": 3526,
      "starting": 3527,
      "See": 3528,
      "##ritis": 3529,
      "easier": 3530,
      "offered": 3531,
      "modern": 3532,
      "Television": 3533,
      "stores": 3534,
      "creative": 3535,
      "package": 3536,
      "Check": 3537,
      "##board": 3538,
      "annual": 3539,
      "requirements": 3540,
      "challenge": 3541,
      "communities": 3542,
      "Special": 3543,
      "gender": 3544,
      "methods": 3545,
      "bathroom": 3546,
      "premium": 3547,
      "associated": 3548,
      "risk": 3549,
      "##Computer": 3550,
      "VoiceComputer": 3551,
      "Jesus": 3552,
      "28": 3553,
      "27": 3554,
      "31": 3555,
      "Her": 3556,
      "Im": 3557,
      "Pal": 3558,
      "Power": 3559,
      "Sal": 3560,
      "cra": 3561,
      "doll": 3562,
      "fu": 3563,
      "fine": 3564,
      "felt": 3565,
      "hum": 3566,
      "ple": 3567,
      "rental": 3568,
      "rules": 3569,
      "sn": 3570,
      "##iance": 3571,
      "##ians": 3572,
      "##ma": 3573,
      "##mpt": 3574,
      "##ID": 3575,
      "##reme": 3576,
      "##ille": 3577,
      "##change": 3578,
      "##irth": 3579,
      "convent": 3580,
      "##akers": 3581,
      "plans": 3582,
      "##ellow": 3583,
      "society": 3584,
      "##agement": 3585,
      "##agn": 3586,
      "##ager": 3587,
      "##aging": 3588,
      "##aged": 3589,
      "upgr": 3590,
      "meal": 3591,
      "contain": 3592,
      "##ference": 3593,
      "accur": 3594,
      "2012": 3595,
      "interact": 3596,
      "role": 3597,
      "useful": 3598,
      "##angelo": 3599,
      "remind": 3600,
      "wanted": 3601,
      "Associ": 3602,
      "##otton": 3603,
      "thinking": 3604,
      "healthy": 3605,
      "excl": 3606,
      "Coordin": 3607,
      "afford": 3608,
      "seconds": 3609,
      "series": 3610,
      "investment": 3611,
      "written": 3612,
      "##ION": 3613,
      "strateg": 3614,
      "highest": 3615,
      "involved": 3616,
      "comfortable": 3617,
      "definitely": 3618,
      "##aintiff": 3619,
      "advantage": 3620,
      "fabric": 3621,
      "suggest": 3622,
      "Today": 3623,
      "Michelangelo": 3624,
      "Yukon": 3625,
      "Educ": 3626,
      "Garden": 3627,
      "Hot": 3628,
      "Lin": 3629,
      "SO": 3630,
      "Since": 3631,
      "Vacation": 3632,
      "cab": 3633,
      "cru": 3634,
      "eye": 3635,
      "gave": 3636,
      "joint": 3637,
      "late": 3638,
      "lands": 3639,
      "mor": 3640,
      "map": 3641,
      "rub": 3642,
      "radio": 3643,
      "slight": 3644,
      "tim": 3645,
      "ver": 3646,
      "##apt": 3647,
      "##iam": 3648,
      "##ially": 3649,
      "##oe": 3650,
      "##mal": 3651,
      "##mical": 3652,
      "##gers": 3653,
      "##yond": 3654,
      "##TE": 3655,
      "##IG": 3656,
      "##),": 3657,
      "ther": 3658,
      "##onst": 3659,
      "##oul": 3660,
      "##sters": 3661,
      "##urt": 3662,
      "star": 3663,
      "progress": 3664,
      "death": 3665,
      "##artment": 3666,
      "plaintiff": 3667,
      "door": 3668,
      "reserv": 3669,
      "incred": 3670,
      "permission": 3671,
      "peace": 3672,
      "produce": 3673,
      "##prise": 3674,
      "register": 3675,
      "train": 3676,
      "actions": 3677,
      "##hington": 3678,
      "Rec": 3679,
      "reput": 3680,
      "attention": 3681,
      "leads": 3682,
      "grade": 3683,
      "model": 3684,
      "Techn": 3685,
      "Trans": 3686,
      "opening": 3687,
      "lots": 3688,
      "properly": 3689,
      "Resume": 3690,
      "info": 3691,
      "##levant": 3692,
      "serve": 3693,
      "classic": 3694,
      "creating": 3695,
      "behav": 3696,
      "Tracker": 3697,
      "##coming": 3698,
      "Design": 3699,
      "broadcast": 3700,
      "education": 3701,
      "filled": 3702,
      "situation": 3703,
      "structure": 3704,
      "Satur": 3705,
      "straight": 3706,
      "original": 3707,
      "couple": 3708,
      "candid": 3709,
      "Washington": 3710,
      "budget": 3711,
      "comprehens": 3712,
      "34": 3713,
      "Loc": 3714,
      "NO": 3715,
      "ble": 3716,
      "cases": 3717,
      "fold": 3718,
      "furn": 3719,
      "jump": 3720,
      "lux": 3721,
      "rail": 3722,
      "sav": 3723,
      "virt": 3724,
      "##ios": 3725,
      "##rast": 3726,
      "##mark": 3727,
      "##mitted": 3728,
      "##na": 3729,
      "##cing": 3730,
      "##hood": 3731,
      "##zy": 3732,
      "##TM": 3733,
      "##atab": 3734,
      "##iter": 3735,
      "##itute": 3736,
      "told": 3737,
      "##ros": 3738,
      "##urning": 3739,
      "##ades": 3740,
      "##amar": 3741,
      "hair": 3742,
      "##thritis": 3743,
      "cho": 3744,
      "##roud": 3745,
      "plug": 3746,
      "admission": 3747,
      "admin": 3748,
      "##acing": 3749,
      "##astic": 3750,
      "lose": 3751,
      "##irection": 3752,
      "##ension": 3753,
      "arch": 3754,
      "looks": 3755,
      "wants": 3756,
      "guests": 3757,
      "requires": 3758,
      "Def": 3759,
      "path": 3760,
      "patent": 3761,
      "difference": 3762,
      "Arts": 3763,
      "Soft": 3764,
      "passion": 3765,
      "career": 3766,
      "##tenance": 3767,
      "Christian": 3768,
      "movement": 3769,
      "##attle": 3770,
      "worksh": 3771,
      "Party": 3772,
      "templ": 3773,
      "prepared": 3774,
      "pictures": 3775,
      "meaning": 3776,
      "license": 3777,
      "volunteer": 3778,
      "writing": 3779,
      "favorite": 3780,
      "General": 3781,
      "restaurant": 3782,
      "troub": 3783,
      "eyes": 3784,
      "Science": 3785,
      "battery": 3786,
      "August": 3787,
      "David": 3788,
      "comprehensive": 3789,
      "41": 3790,
      "Ber": 3791,
      "Find": 3792,
      "Get": 3793,
      "Great": 3794,
      "Happ": 3795,
      "Imp": 3796,
      "Like": 3797,
      "Mich": 3798,
      "Other": 3799,
      "Pol": 3800,
      "Red": 3801,
      "Rich": 3802,
      "Take": 3803,
      "Vol": 3804,
      "action": 3805,
      "brought": 3806,
      "dut": 3807,
      "dinner": 3808,
      "holiday": 3809,
      "lack": 3810,
      "master": 3811,
      "pul": 3812,
      "proud": 3813,
      "squ": 3814,
      "ten": 3815,
      "und": 3816,
      "vision": 3817,
      "##ters": 3818,
      "##ipping": 3819,
      "##lier": 3820,
      "##ooth": 3821,
      "##yle": 3822,
      "##has": 3823,
      "##bur": 3824,
      "##vell": 3825,
      "##AM": 3826,
      "##30": 3827,
      "##itors": 3828,
      "##aries": 3829,
      "##lements": 3830,
      "##enture": 3831,
      "##ayer": 3832,
      "##igious": 3833,
      "##ama": 3834,
      "##illed": 3835,
      "weeks": 3836,
      "deb": 3837,
      "sust": 3838,
      "chance": 3839,
      "ability": 3840,
      "Through": 3841,
      "contem": 3842,
      "contrib": 3843,
      "##ograp": 3844,
      "States": 3845,
      "feet": 3846,
      "otherwise": 3847,
      "speaker": 3848,
      "accom": 3849,
      "commission": 3850,
      "##intage": 3851,
      "rob": 3852,
      "##angu": 3853,
      "looked": 3854,
      "##pects": 3855,
      "Real": 3856,
      "##ended": 3857,
      "carry": 3858,
      "secure": 3859,
      "transfer": 3860,
      "imag": 3861,
      "designs": 3862,
      "assign": 3863,
      "##iques": 3864,
      "bright": 3865,
      "Plan": 3866,
      "Online": 3867,
      "models": 3868,
      "Team": 3869,
      "visual": 3870,
      "India": 3871,
      "passed": 3872,
      "continu": 3873,
      "movie": 3874,
      "paying": 3875,
      "##porary": 3876,
      "appropr": 3877,
      "considered": 3878,
      "optim": 3879,
      "demand": 3880,
      "##anna": 3881,
      "temper": 3882,
      "scient": 3883,
      "places": 3884,
      "Feb": 3885,
      "European": 3886,
      "##ecut": 3887,
      "Flor": 3888,
      "absolut": 3889,
      "ringtone": 3890,
      "taste": 3891,
      "Director": 3892,
      "immediately": 3893,
      "crypt": 3894,
      "April": 3895,
      "Saturday": 3896,
      "\",": 3897,
      "500": 3898,
      "Bus": 3899,
      "CI": 3900,
      "Cour": 3901,
      "Congress": 3902,
      "EV": 3903,
      "Hill": 3904,
      "MP": 3905,
      "Sound": 3906,
      "Well": 3907,
      "average": 3908,
      "bul": 3909,
      "divers": 3910,
      "direction": 3911,
      "eight": 3912,
      "eth": 3913,
      "episode": 3914,
      "fra": 3915,
      "giving": 3916,
      "pool": 3917,
      "ult": 3918,
      "vict": 3919,
      "word": 3920,
      "##tics": 3921,
      "##ixt": 3922,
      "##ipped": 3923,
      "##nes": 3924,
      "##ges": 3925,
      "##gery": 3926,
      "##sp": 3927,
      "##DA": 3928,
      "##RE": 3929,
      "##EO": 3930,
      "##ini": 3931,
      "##ero": 3932,
      "##ario": 3933,
      "##rem": 3934,
      "##reci": 3935,
      "##omb": 3936,
      "##aser": 3937,
      "##iling": 3938,
      "began": 3939,
      "relevant": 3940,
      "##ception": 3941,
      "##igation": 3942,
      "##ament": 3943,
      "although": 3944,
      "##illing": 3945,
      "concept": 3946,
      "##ateg": 3947,
      "##umb": 3948,
      "##emon": 3949,
      "seat": 3950,
      "suff": 3951,
      "##ieved": 3952,
      "##ellig": 3953,
      "adult": 3954,
      "heavy": 3955,
      "##iple": 3956,
      "appreci": 3957,
      "goal": 3958,
      "parties": 3959,
      "accident": 3960,
      "##ocr": 3961,
      "consist": 3962,
      "blue": 3963,
      "setting": 3964,
      "decide": 3965,
      "owned": 3966,
      "minimum": 3967,
      "transform": 3968,
      "transport": 3969,
      "pattern": 3970,
      "auto": 3971,
      "##undred": 3972,
      "countries": 3973,
      "numbers": 3974,
      "cleaning": 3975,
      "effects": 3976,
      "##oke": 3977,
      "visitors": 3978,
      "limit": 3979,
      "changing": 3980,
      "College": 3981,
      "certainly": 3982,
      "occas": 3983,
      "woman": 3984,
      "##rapy": 3985,
      "announ": 3986,
      "England": 3987,
      "steps": 3988,
      "removed": 3989,
      "removal": 3990,
      "determine": 3991,
      "Road": 3992,
      "satis": 3993,
      "experiences": 3994,
      "experienced": 3995,
      "People": 3996,
      "beginning": 3997,
      "manufactur": 3998,
      "wonderful": 3999,
      "Film": 4000,
      "housing": 4001,
      "thousands": 4002,
      "Department": 4003,
      "browser": 4004,
      "Credits": 4005,
      "##atabase": 4006,
      "480": 4007,
      "51": 4008,
      "80": 4009,
      "90": 4010,
      "AN": 4011,
      "Awards": 4012,
      "Elect": 4013,
      "Gi": 4014,
      "Love": 4015,
      "Micro": 4016,
      "Mobile": 4017,
      "Sub": 4018,
      "Top": 4019,
      "Win": 4020,
      "Wash": 4021,
      "Where": 4022,
      "ack": 4023,
      "ahead": 4024,
      "birth": 4025,
      "cord": 4026,
      "die": 4027,
      "danger": 4028,
      "eat": 4029,
      "fight": 4030,
      "fish": 4031,
      "jew": 4032,
      "mention": 4033,
      "nation": 4034,
      "son": 4035,
      "tab": 4036,
      "task": 4037,
      "##rical": 4038,
      "##ech": 4039,
      "##men": 4040,
      "##miss": 4041,
      "##hol": 4042,
      "##ville": 4043,
      "##OM": 4044,
      "##AT": 4045,
      "##err": 4046,
      "##orter": 4047,
      "##orry": 4048,
      "##aled": 4049,
      "ing": 4050,
      "##isation": 4051,
      "##icip": 4052,
      "##icated": 4053,
      "##enty": 4054,
      "youth": 4055,
      "##roid": 4056,
      "##etrick": 4057,
      "beyond": 4058,
      "rear": 4059,
      "reven": 4060,
      "##cember": 4061,
      "##ado": 4062,
      "##sequ": 4063,
      "proced": 4064,
      "alone": 4065,
      "ath": 4066,
      "##ifying": 4067,
      "##usive": 4068,
      "##ements": 4069,
      "sharing": 4070,
      "##oph": 4071,
      "wash": 4072,
      "enh": 4073,
      "sole": 4074,
      "Thanks": 4075,
      "compens": 4076,
      "##ago": 4077,
      "meals": 4078,
      "contains": 4079,
      "output": 4080,
      "Step": 4081,
      "##ickets": 4082,
      "spent": 4083,
      "##lict": 4084,
      "arthritis": 4085,
      "China": 4086,
      "commit": 4087,
      "2013": 4088,
      "produced": 4089,
      "served": 4090,
      "Altern": 4091,
      "remodel": 4092,
      "Ann": 4093,
      "Ass": 4094,
      "locations": 4095,
      "provider": 4096,
      "mining": 4097,
      "images": 4098,
      "December": 4099,
      "effort": 4100,
      "polic": 4101,
      "profit": 4102,
      "France": 4103,
      "French": 4104,
      "Tex": 4105,
      "Inde": 4106,
      "surround": 4107,
      "confir": 4108,
      "electronic": 4109,
      "operations": 4110,
      "stored": 4111,
      "photo": 4112,
      "##pending": 4113,
      "professionals": 4114,
      "expensive": 4115,
      "understanding": 4116,
      "capital": 4117,
      "terms": 4118,
      "reported": 4119,
      "##iliar": 4120,
      "nearly": 4121,
      "independent": 4122,
      "Govern": 4123,
      "Steel": 4124,
      "economic": 4125,
      "affected": 4126,
      "##aliye": 4127,
      "##iddle": 4128,
      "challenges": 4129,
      "Build": 4130,
      "expertise": 4131,
      "significant": 4132,
      "baby": 4133,
      "exercise": 4134,
      "Office": 4135,
      "faith": 4136,
      "reputation": 4137,
      "acknow": 4138,
      "AM": 4139,
      "Act": 4140,
      "CN": 4141,
      "Care": 4142,
      "Face": 4143,
      "Gra": 4144,
      "Hall": 4145,
      "Kr": 4146,
      "Mr": 4147,
      "Met": 4148,
      "Main": 4149,
      "Nach": 4150,
      "Op": 4151,
      "Sant": 4152,
      "Ty": 4153,
      "Whe": 4154,
      "aware": 4155,
      "farm": 4156,
      "gar": 4157,
      "lab": 4158,
      "lunch": 4159,
      "rank": 4160,
      "roll": 4161,
      "tit": 4162,
      "wild": 4163,
      "##pite": 4164,
      "##overy": 4165,
      "##nal": 4166,
      "##cape": 4167,
      "##sc": 4168,
      "##ses": 4169,
      "##we": 4170,
      "##HS": 4171,
      "##SM": 4172,
      "##32": 4173,
      "##esome": 4174,
      "##itude": 4175,
      "thr": 4176,
      "threat": 4177,
      "##ilies": 4178,
      "fore": 4179,
      "react": 4180,
      "##adata": 4181,
      "##amed": 4182,
      "##semb": 4183,
      "##imming": 4184,
      "##oost": 4185,
      "##umn": 4186,
      "##ifari": 4187,
      "##istan": 4188,
      "degree": 4189,
      "waste": 4190,
      "adop": 4191,
      "##que": 4192,
      "truly": 4193,
      "meant": 4194,
      "leaves": 4195,
      "incor": 4196,
      "intellig": 4197,
      "appeal": 4198,
      "quil": 4199,
      "spirit": 4200,
      "##apers": 4201,
      "speak": 4202,
      "##ube": 4203,
      "committed": 4204,
      "serving": 4205,
      "recently": 4206,
      "##ocurr": 4207,
      "seeing": 4208,
      "##pective": 4209,
      "sympt": 4210,
      "Deanna": 4211,
      "##hips": 4212,
      "markets": 4213,
      "##ixel": 4214,
      "##cohol": 4215,
      "Play": 4216,
      "2003": 4217,
      "subst": 4218,
      "excited": 4219,
      "sometimes": 4220,
      "Trifari": 4221,
      "opened": 4222,
      "websites": 4223,
      "properties": 4224,
      "Research": 4225,
      "meetings": 4226,
      "Conf": 4227,
      "film": 4228,
      "entry": 4229,
      "responsibility": 4230,
      "presented": 4231,
      "protection": 4232,
      "installed": 4233,
      "join": 4234,
      "consumer": 4235,
      "consumers": 4236,
      "circuit": 4237,
      "International": 4238,
      "##amsung": 4239,
      "audio": 4240,
      "claims": 4241,
      "destination": 4242,
      "licens": 4243,
      "reduce": 4244,
      "Company": 4245,
      "essential": 4246,
      "GDPR": 4247,
      "political": 4248,
      "714": 4249,
      "entertainment": 4250,
      "credit": 4251,
      "President": 4252,
      "sleep": 4253,
      "iPh": 4254,
      "thermal": 4255,
      "choices": 4256,
      "sustain": 4257,
      "jewel": 4258,
      "48": 4259,
      "52": 4260,
      "AC": 4261,
      "BE": 4262,
      "Book": 4263,
      "Baliye": 4264,
      "Cin": 4265,
      "Dur": 4266,
      "First": 4267,
      "GM": 4268,
      "Global": 4269,
      "List": 4270,
      "Look": 4271,
      "Mother": 4272,
      "Of": 4273,
      "Oak": 4274,
      "Sil": 4275,
      "Sur": 4276,
      "Sum": 4277,
      "SEC": 4278,
      "View": 4279,
      "Yes": 4280,
      "YOU": 4281,
      "bow": 4282,
      "bank": 4283,
      "core": 4284,
      "dru": 4285,
      "distance": 4286,
      "election": 4287,
      "element": 4288,
      "faster": 4289,
      "hus": 4290,
      "hire": 4291,
      "hundred": 4292,
      "lost": 4293,
      "langu": 4294,
      "mer": 4295,
      "mat": 4296,
      "pen": 4297,
      "pump": 4298,
      "rid": 4299,
      "rich": 4300,
      "rug": 4301,
      "##aj": 4302,
      "##rie": 4303,
      "##rition": 4304,
      "##oT": 4305,
      "##oes": 4306,
      "##more": 4307,
      "##set": 4308,
      "##kin": 4309,
      "##body": 4310,
      "##vely": 4311,
      "##LE": 4312,
      "##inst": 4313,
      "##onse": 4314,
      "##atically": 4315,
      "##ederal": 4316,
      "##reens": 4317,
      "##oming": 4318,
      "##ented": 4319,
      "##elines": 4320,
      "##iles": 4321,
      "##eth": 4322,
      "reci": 4323,
      "exhib": 4324,
      "seven": 4325,
      "sector": 4326,
      "dead": 4327,
      "suitable": 4328,
      "chann": 4329,
      "##odes": 4330,
      "compon": 4331,
      "Inter": 4332,
      "lovely": 4333,
      "income": 4334,
      "spa": 4335,
      "sport": 4336,
      "##aching": 4337,
      "perhaps": 4338,
      "overall": 4339,
      "195": 4340,
      "recovery": 4341,
      "scen": 4342,
      "industr": 4343,
      "strength": 4344,
      "drink": 4345,
      "greater": 4346,
      "decided": 4347,
      "guest": 4348,
      "starts": 4349,
      "reports": 4350,
      "minute": 4351,
      "fulf": 4352,
      "attor": 4353,
      "attempt": 4354,
      "detect": 4355,
      "leader": 4356,
      "listed": 4357,
      "##azz": 4358,
      "familiar": 4359,
      "powerful": 4360,
      "earn": 4361,
      "estim": 4362,
      "estate": 4363,
      "oppos": 4364,
      "Committee": 4365,
      "factors": 4366,
      "USA": 4367,
      "shoot": 4368,
      "serious": 4369,
      "turned": 4370,
      "paint": 4371,
      "organizations": 4372,
      "facilities": 4373,
      "write": 4374,
      "changed": 4375,
      "demonst": 4376,
      "Next": 4377,
      "launch": 4378,
      "##iliates": 4379,
      "concerning": 4380,
      "preparation": 4381,
      "counter": 4382,
      "culture": 4383,
      "animal": 4384,
      "update": 4385,
      "Two": 4386,
      "pressure": 4387,
      "Market": 4388,
      "released": 4389,
      "Happy": 4390,
      "husb": 4391,
      "32": 4392,
      "35": 4393,
      "Aud": 4394,
      "Best": 4395,
      "Cy": 4396,
      "Em": 4397,
      "Eas": 4398,
      "Gen": 4399,
      "Har": 4400,
      "Have": 4401,
      "IoT": 4402,
      "Kitchen": 4403,
      "Lord": 4404,
      "Mer": 4405,
      "Nove": 4406,
      "Out": 4407,
      "Sim": 4408,
      "Tour": 4409,
      "Wood": 4410,
      "amp": 4411,
      "ce": 4412,
      "cable": 4413,
      "cash": 4414,
      "craft": 4415,
      "den": 4416,
      "homes": 4417,
      "ice": 4418,
      "roof": 4419,
      "south": 4420,
      "solid": 4421,
      "west": 4422,
      "##lin": 4423,
      "##made": 4424,
      "##gency": 4425,
      "##ka": 4426,
      "##bum": 4427,
      "##val": 4428,
      "##ON": 4429,
      "##IP": 4430,
      "##PI": 4431,
      "##ese": 4432,
      "##oric": 4433,
      "##eness": 4434,
      "toile": 4435,
      "input": 4436,
      "##omin": 4437,
      "##ett": 4438,
      "##chan": 4439,
      "##adem": 4440,
      "stuff": 4441,
      "##imately": 4442,
      "##essions": 4443,
      "##abilities": 4444,
      "##atever": 4445,
      "##anted": 4446,
      "pred": 4447,
      "compr": 4448,
      "2000": 4449,
      "quiet": 4450,
      "manner": 4451,
      "Str": 4452,
      "dish": 4453,
      "teac": 4454,
      "whose": 4455,
      "partner": 4456,
      "aren": 4457,
      "2010": 4458,
      "191": 4459,
      "##ruary": 4460,
      "##print": 4461,
      "shoulder": 4462,
      "simpl": 4463,
      "##roll": 4464,
      "##roller": 4465,
      "advis": 4466,
      "completed": 4467,
      "effic": 4468,
      "listen": 4469,
      "played": 4470,
      "delicious": 4471,
      "offering": 4472,
      "##riage": 4473,
      "earned": 4474,
      "techniques": 4475,
      "maintenance": 4476,
      "##standing": 4477,
      "emphas": 4478,
      "operation": 4479,
      "purchasing": 4480,
      "salt": 4481,
      "capac": 4482,
      "standards": 4483,
      "Amaz": 4484,
      "cameras": 4485,
      "diagn": 4486,
      "Paris": 4487,
      "multiple": 4488,
      "establish": 4489,
      "menu": 4490,
      "Article": 4491,
      "initi": 4492,
      "replace": 4493,
      "piece": 4494,
      "conversation": 4495,
      "Daniel": 4496,
      "document": 4497,
      "separate": 4498,
      "Education": 4499,
      "morning": 4500,
      "Michael": 4501,
      "February": 4502,
      "policies": 4503,
      "Texas": 4504,
      "November": 4505,
      "49": 4506,
      "AS": 4507,
      "Air": 4508,
      "Ben": 4509,
      "Bel": 4510,
      "Bow": 4511,
      "Down": 4512,
      "Fund": 4513,
      "Ho": 4514,
      "IS": 4515,
      "Jon": 4516,
      "James": 4517,
      "Net": 4518,
      "Note": 4519,
      "Section": 4520,
      "SAP": 4521,
      "Samsung": 4522,
      "UK": 4523,
      "Val": 4524,
      "Vir": 4525,
      "cards": 4526,
      "categ": 4527,
      "fan": 4528,
      "fans": 4529,
      "fair": 4530,
      "father": 4531,
      "games": 4532,
      "gift": 4533,
      "harm": 4534,
      "lines": 4535,
      "pm": 4536,
      "rise": 4537,
      "vintage": 4538,
      "wat": 4539,
      "##xiety": 4540,
      "##pond": 4541,
      "##mat": 4542,
      "##cut": 4543,
      "##ule": 4544,
      "##fl": 4545,
      "##ford": 4546,
      "##house": 4547,
      "##ban": 4548,
      "##NL": 4549,
      "##zer": 4550,
      "##PA": 4551,
      "##).": 4552,
      "##40": 4553,
      "##ered": 4554,
      "##estern": 4555,
      "##ores": 4556,
      "##arant": 4557,
      "##lete": 4558,
      "throw": 4559,
      "force": 4560,
      "ones": 4561,
      "beat": 4562,
      "##uted": 4563,
      "##lying": 4564,
      "##ader": 4565,
      "pros": 4566,
      "album": 4567,
      "##ulous": 4568,
      "##aked": 4569,
      "##umes": 4570,
      "weather": 4571,
      "##unction": 4572,
      "##unications": 4573,
      "deck": 4574,
      "church": 4575,
      "Those": 4576,
      "Thurs": 4577,
      "##quis": 4578,
      "heard": 4579,
      "tried": 4580,
      "truck": 4581,
      "##ags": 4582,
      "##oodnt": 4583,
      "Stoodnt": 4584,
      "##icket": 4585,
      "sports": 4586,
      "##apter": 4587,
      "goals": 4588,
      "parts": 4589,
      "accomm": 4590,
      "rock": 4591,
      "records": 4592,
      "amb": 4593,
      "cold": 4594,
      "sched": 4595,
      "Who": 4596,
      "##rics": 4597,
      "##rowd": 4598,
      "highlight": 4599,
      "smooth": 4600,
      "invent": 4601,
      "providers": 4602,
      "guess": 4603,
      "##ancy": 4604,
      "medium": 4605,
      "patient": 4606,
      "assistance": 4607,
      "chemical": 4608,
      "advance": 4609,
      "leaders": 4610,
      "....": 4611,
      "Place": 4612,
      "player": 4613,
      "Arch": 4614,
      "##athan": 4615,
      "possibly": 4616,
      "extrem": 4617,
      "bedding": 4618,
      "valid": 4619,
      "earlier": 4620,
      "response": 4621,
      "accessible": 4622,
      "lights": 4623,
      "Class": 4624,
      "Show": 4625,
      "continues": 4626,
      "operating": 4627,
      "Services": 4628,
      "central": 4629,
      "promote": 4630,
      "parents": 4631,
      "volume": 4632,
      "considering": 4633,
      "Phys": 4634,
      "Republic": 4635,
      "arrange": 4636,
      "##iciency": 4637,
      "window": 4638,
      "focused": 4639,
      "occur": 4640,
      "construction": 4641,
      "##comes": 4642,
      "Patio": 4643,
      "delivered": 4644,
      "animals": 4645,
      "##ography": 4646,
      "nutrition": 4647,
      "System": 4648,
      "##paper": 4649,
      "clothing": 4650,
      "British": 4651,
      "graphics": 4652,
      "gradu": 4653,
      "Africa": 4654,
      "Dragon": 4655,
      "slightly": 4656,
      "Technology": 4657,
      "appropriate": 4658,
      "Business": 4659,
      "##etricks": 4660,
      "quilts": 4661,
      "symptoms": 4662,
      "iPhone": 4663,
      "jewelry": 4664,
      "language": 4665,
      "Thursday": 4666,
      "accommod": 4667,
      "29": 4668,
      "2nd": 4669,
      "Aff": 4670,
      "Bre": 4671,
      "Dem": 4672,
      "Dist": 4673,
      "EN": 4674,
      "Ext": 4675,
      "Gold": 4676,
      "Kar": 4677,
      "Mo": 4678,
      "Mor": 4679,
      "Mil": 4680,
      "Paul": 4681,
      "Radio": 4682,
      "SU": 4683,
      "Wine": 4684,
      "Water": 4685,
      "bought": 4686,
      "boost": 4687,
      "du": 4688,
      "dro": 4689,
      "eating": 4690,
      "fash": 4691,
      "gas": 4692,
      "gone": 4693,
      "hor": 4694,
      "har": 4695,
      "ir": 4696,
      "jud": 4697,
      "labor": 4698,
      "mis": 4699,
      "mix": 4700,
      "matt": 4701,
      "overs": 4702,
      "pin": 4703,
      "pet": 4704,
      "pow": 4705,
      "pus": 4706,
      "sold": 4707,
      "soul": 4708,
      "tips": 4709,
      "wiring": 4710,
      "##ault": 4711,
      "##ipp": 4712,
      "##ried": 4713,
      "##ridge": 4714,
      "##pro": 4715,
      "##pare": 4716,
      "##look": 4717,
      "##cers": 4718,
      "##care": 4719,
      "##bury": 4720,
      "##BC": 4721,
      "therapy": 4722,
      "##atin": 4723,
      "##rey": 4724,
      "##omy": 4725,
      "##eter": 4726,
      "##ctors": 4727,
      "##amm": 4728,
      "##iment": 4729,
      "##unt": 4730,
      "##istics": 4731,
      "shape": 4732,
      "noticed": 4733,
      "##ears": 4734,
      "adapt": 4735,
      "Inv": 4736,
      "clar": 4737,
      "log": 4738,
      "spect": 4739,
      "speech": 4740,
      "arm": 4741,
      "Char": 4742,
      "commands": 4743,
      "inclusion": 4744,
      "helpful": 4745,
      "therefore": 4746,
      "makeup": 4747,
      "adding": 4748,
      "Which": 4749,
      "active": 4750,
      "##ificate": 4751,
      "busy": 4752,
      "##ologies": 4753,
      "productive": 4754,
      "owners": 4755,
      "##ancing": 4756,
      "transact": 4757,
      "finally": 4758,
      "processes": 4759,
      "efforts": 4760,
      "reader": 4761,
      "presence": 4762,
      "ended": 4763,
      "switc": 4764,
      "defend": 4765,
      "2008": 4766,
      "2009": 4767,
      "Social": 4768,
      "famous": 4769,
      "performed": 4770,
      "surv": 4771,
      "##poses": 4772,
      "keeping": 4773,
      "importance": 4774,
      "corner": 4775,
      "Click": 4776,
      "obvious": 4777,
      "videos": 4778,
      "reflect": 4779,
      "successfully": 4780,
      "Commission": 4781,
      "Manager": 4782,
      "##resent": 4783,
      "##respond": 4784,
      "approved": 4785,
      "parag": 4786,
      "anti": 4787,
      "expand": 4788,
      "presentation": 4789,
      "beauty": 4790,
      "glad": 4791,
      "Represent": 4792,
      "facility": 4793,
      "campus": 4794,
      "occup": 4795,
      "activity": 4796,
      "practice": 4797,
      "waiting": 4798,
      "covered": 4799,
      "##aneous": 4800,
      "celebrate": 4801,
      "error": 4802,
      "managed": 4803,
      "##ICO": 4804,
      "Registration": 4805,
      "particularly": 4806,
      "##force": 4807,
      "magn": 4808,
      "##ING": 4809,
      "guidance": 4810,
      "status": 4811,
      "stackable": 4812,
      "corporate": 4813,
      "alternative": 4814,
      "##ibrary": 4815,
      "seeking": 4816,
      "furniture": 4817,
      "luxury": 4818,
      "##amarind": 4819,
      "cryptocurr": 4820,
      "Court": 4821,
      "Microsoft": 4822,
      "Facebook": 4823,
      "Whether": 4824,
      "demonstr": 4825,
      "husband": 4826,
      "36": 4827,
      "Av": 4828,
      "Big": 4829,
      "CR": 4830,
      "Caf": 4831,
      "Div": 4832,
      "Et": 4833,
      "EL": 4834,
      "Gl": 4835,
      "Games": 4836,
      "Hol": 4837,
      "Hope": 4838,
      "Mond": 4839,
      "PM": 4840,
      "Pub": 4841,
      "Sing": 4842,
      "Sam": 4843,
      "Tues": 4844,
      "Ve": 4845,
      "band": 4846,
      "bod": 4847,
      "cas": 4848,
      "cast": 4849,
      "cup": 4850,
      "dim": 4851,
      "drop": 4852,
      "glo": 4853,
      "hom": 4854,
      "hop": 4855,
      "kid": 4856,
      "length": 4857,
      "liter": 4858,
      "mir": 4859,
      "mass": 4860,
      "nail": 4861,
      "ol": 4862,
      "raw": 4863,
      "sin": 4864,
      "snow": 4865,
      "senior": 4866,
      "sorry": 4867,
      "upper": 4868,
      "wid": 4869,
      "##xic": 4870,
      "##pm": 4871,
      "##lant": 4872,
      "##ox": 4873,
      "##ml": 4874,
      "##ny": 4875,
      "##che": 4876,
      "##col": 4877,
      "##cause": 4878,
      "##gins": 4879,
      "##uan": 4880,
      "##sy": 4881,
      "##fast": 4882,
      "##flow": 4883,
      "##bon": 4884,
      "##TV": 4885,
      "##TED": 4886,
      "##Ps": 4887,
      "##VE": 4888,
      "##inct": 4889,
      "##anch": 4890,
      "##icing": 4891,
      "##iled": 4892,
      "##ston": 4893,
      "forg": 4894,
      "forced": 4895,
      "reve": 4896,
      "##ida": 4897,
      "##igs": 4898,
      "##olf": 4899,
      "##ady": 4900,
      "stream": 4901,
      "street": 4902,
      "##imb": 4903,
      "alcohol": 4904,
      "comment": 4905,
      "##rael": 4906,
      "##oos": 4907,
      "##ppers": 4908,
      "excess": 4909,
      "except": 4910,
      "sea": 4911,
      "depos": 4912,
      "##orthern": 4913,
      "shops": 4914,
      "willing": 4915,
      "compli": 4916,
      "##agar": 4917,
      "##ague": 4918,
      "##aced": 4919,
      "##achel": 4920,
      "outcomes": 4921,
      "intended": 4922,
      "spr": 4923,
      "spaces": 4924,
      "##order": 4925,
      "fee": 4926,
      "dispos": 4927,
      "##bert": 4928,
      "unf": 4929,
      "prepare": 4930,
      "thanks": 4931,
      "score": 4932,
      "scale": 4933,
      "##angers": 4934,
      "regions": 4935,
      "becomes": 4936,
      "Android": 4937,
      "decisions": 4938,
      "guard": 4939,
      "evening": 4940,
      "transformation": 4941,
      "##ternal": 4942,
      "cream": 4943,
      "leadership": 4944,
      "Only": 4945,
      "metadata": 4946,
      "##umpsters": 4947,
      "format": 4948,
      "2002": 4949,
      "families": 4950,
      "larger": 4951,
      "Because": 4952,
      "Scout": 4953,
      "##enger": 4954,
      "flu": 4955,
      "submit": 4956,
      "technical": 4957,
      "Trad": 4958,
      "120": 4959,
      "bigger": 4960,
      "interests": 4961,
      "charging": 4962,
      "refres": 4963,
      "Applic": 4964,
      "Israel": 4965,
      "Repair": 4966,
      "Organ": 4967,
      "nature": 4968,
      "advertis": 4969,
      "expectations": 4970,
      "joined": 4971,
      "benefit": 4972,
      "concern": 4973,
      "Studies": 4974,
      "Students": 4975,
      "recommended": 4976,
      "##books": 4977,
      "calc": 4978,
      "audience": 4979,
      "satell": 4980,
      "awesome": 4981,
      "collected": 4982,
      "economy": 4983,
      "frequ": 4984,
      "authority": 4985,
      "##aughter": 4986,
      "Germany": 4987,
      "Institute": 4988,
      "framework": 4989,
      "official": 4990,
      "message": 4991,
      "route": 4992,
      "Intel": 4993,
      "negative": 4994,
      "feedback": 4995,
      "instructions": 4996,
      "birds": 4997,
      "encourage": 4998,
      "maximum": 4999,
      "convenience": 5000,
      "collabor": 5001,
      "normal": 5002,
      "broken": 5003,
      "According": 5004,
      "diseases": 5005,
      "##while": 5006,
      "dedicated": 5007,
      "neighbor": 5008,
      "workshop": 5009,
      "template": 5010,
      "contemporary": 5011,
      "accompl": 5012,
      "diverse": 5013,
      "Washoe": 5014,
      "commitment": 5015,
      "incorpor": 5016,
      "intelligent": 5017,
      "##install": 5018,
      "300": 5019,
      "BR": 5020,
      "CH": 5021,
      "Creat": 5022,
      "Cap": 5023,
      "Cup": 5024,
      "Cert": 5025,
      "Di": 5026,
      "Data": 5027,
      "Food": 5028,
      "Father": 5029,
      "Hel": 5030,
      "King": 5031,
      "Kind": 5032,
      "Lear": 5033,
      "Law": 5034,
      "Mot": 5035,
      "NA": 5036,
      "Oh": 5037,
      "OR": 5038,
      "Old": 5039,
      "Oper": 5040,
      "Ra": 5041,
      "Ren": 5042,
      "Rest": 5043,
      "Sch": 5044,
      "Sign": 5045,
      "Sample": 5046,
      "Ter": 5047,
      "Ut": 5048,
      "Vide": 5049,
      "Vict": 5050,
      "Wed": 5051,
      "cit": 5052,
      "fat": 5053,
      "hub": 5054,
      "hormone": 5055,
      "kick": 5056,
      "lets": 5057,
      "laser": 5058,
      "mal": 5059,
      "ment": 5060,
      "mail": 5061,
      "mental": 5062,
      "pal": 5063,
      "pair": 5064,
      "sem": 5065,
      "sac": 5066,
      "session": 5067,
      "sources": 5068,
      "ton": 5069,
      "tasks": 5070,
      "vs": 5071,
      "##ij": 5072,
      "##iers": 5073,
      "##rors": 5074,
      "##dd": 5075,
      "##cap": 5076,
      "##uel": 5077,
      "##field": 5078,
      "##yn": 5079,
      "##BA": 5080,
      "##LD": 5081,
      "##CA": 5082,
      "##TION": 5083,
      "##atively": 5084,
      "##orative": 5085,
      "##ounder": 5086,
      "##itect": 5087,
      "##ald": 5088,
      "inch": 5089,
      "##icate": 5090,
      "##eler": 5091,
      "##eles": 5092,
      "##eline": 5093,
      "##vey": 5094,
      "##uries": 5095,
      "reality": 5096,
      "##ola": 5097,
      "ord": 5098,
      "##akistan": 5099,
      "fruit": 5100,
      "extend": 5101,
      "sex": 5102,
      "seats": 5103,
      "ship": 5104,
      "shap": 5105,
      "noted": 5106,
      "wasn": 5107,
      "chick": 5108,
      "plenty": 5109,
      "Though": 5110,
      "complic": 5111,
      "client": 5112,
      "2020": 5113,
      "Start": 5114,
      "spark": 5115,
      "spots": 5116,
      "disability": 5117,
      "teen": 5118,
      "##reek": 5119,
      "##ensity": 5120,
      "##avor": 5121,
      "units": 5122,
      "univers": 5123,
      "arg": 5124,
      "Chic": 5125,
      "2014": 5126,
      "interface": 5127,
      "saw": 5128,
      "producers": 5129,
      "##oved": 5130,
      "remaining": 5131,
      "##ampions": 5132,
      "##neys": 5133,
      "religious": 5134,
      "drivers": 5135,
      "greatest": 5136,
      "shel": 5137,
      "worry": 5138,
      "owner": 5139,
      "transmission": 5140,
      "courses": 5141,
      "purposes": 5142,
      "finding": 5143,
      "##coin": 5144,
      "insurance": 5145,
      "developing": 5146,
      "calling": 5147,
      "programming": 5148,
      "profile": 5149,
      "availability": 5150,
      "##iction": 5151,
      "mode": 5152,
      "forms": 5153,
      "Indian": 5154,
      "surpr": 5155,
      "Beach": 5156,
      "valu": 5157,
      "values": 5158,
      "feeling": 5159,
      "generally": 5160,
      "Exper": 5161,
      "happen": 5162,
      "interesting": 5163,
      "confidence": 5164,
      "thoughts": 5165,
      "##pute": 5166,
      "enterprise": 5167,
      "movies": 5168,
      "connection": 5169,
      "hardware": 5170,
      "privacy": 5171,
      "glitter": 5172,
      "capable": 5173,
      "sensitive": 5174,
      "elimin": 5175,
      "Blue": 5176,
      "edition": 5177,
      "Orange": 5178,
      "allowed": 5179,
      "arrival": 5180,
      "Meigs": 5181,
      "employees": 5182,
      "Super": 5183,
      "jobs": 5184,
      "domin": 5185,
      "trend": 5186,
      "flower": 5187,
      "flowers": 5188,
      "moments": 5189,
      "manager": 5190,
      "determined": 5191,
      "cyc": 5192,
      "selling": 5193,
      "combination": 5194,
      "##erald": 5195,
      "guidelines": 5196,
      "situations": 5197,
      "##idden": 5198,
      "doub": 5199,
      "relationships": 5200,
      "renew": 5201,
      "##arbage": 5202,
      "George": 5203,
      "Corpor": 5204,
      "inspired": 5205,
      "instructor": 5206,
      "draw": 5207,
      "clothes": 5208,
      "Maryland": 5209,
      "gathering": 5210,
      "supplies": 5211,
      "Clear": 5212,
      "talent": 5213,
      "primary": 5214,
      "seemed": 5215,
      "wireless": 5216,
      "accurate": 5217,
      "Association": 5218,
      "Coordinator": 5219,
      "strategies": 5220,
      "behavior": 5221,
      "candidate": 5222,
      "##ecutive": 5223,
      "absolutely": 5224,
      "##nesday": 5225,
      "appreciate": 5226,
      "capacity": 5227,
      "Amazon": 5228,
      "extremely": 5229,
      "Physical": 5230,
      "District": 5231,
      "fashion": 5232,
      "Monday": 5233,
      "Victor": 5234,
      "Wednesday": 5235,
      "44": 5236,
      "70": 5237,
      "Back": 5238,
      "Bott": 5239,
      "CP": 5240,
      "Call": 5241,
      "Coll": 5242,
      "Camer": 5243,
      "Den": 5244,
      "Fort": 5245,
      "Fall": 5246,
      "Gh": 5247,
      "Grow": 5248,
      "Jack": 5249,
      "Jap": 5250,
      "LO": 5251,
      "LED": 5252,
      "Mach": 5253,
      "RE": 5254,
      "Ret": 5255,
      "Run": 5256,
      "Under": 5257,
      "Wom": 5258,
      "Wild": 5259,
      "Words": 5260,
      "Western": 5261,
      "XL": 5262,
      "aid": 5263,
      "born": 5264,
      "battle": 5265,
      "catch": 5266,
      "der": 5267,
      "dur": 5268,
      "div": 5269,
      "dance": 5270,
      "fant": 5271,
      "founder": 5272,
      "lamp": 5273,
      "mist": 5274,
      "mouse": 5275,
      "nav": 5276,
      "padd": 5277,
      "row": 5278,
      "rad": 5279,
      "rare": 5280,
      "sized": 5281,
      "sessions": 5282,
      "village": 5283,
      "##ae": 5284,
      "##iant": 5285,
      "##iology": 5286,
      "##off": 5287,
      "##gal": 5288,
      "##gre": 5289,
      "##hy": 5290,
      "##vy": 5291,
      "##US": 5292,
      "##SA": 5293,
      "##70": 5294,
      "##inent": 5295,
      "##oral": 5296,
      "##itary": 5297,
      "##itution": 5298,
      "##isl": 5299,
      "##asure": 5300,
      "##eless": 5301,
      "##ils": 5302,
      "##eton": 5303,
      "##etone": 5304,
      "##aded": 5305,
      "sto": 5306,
      "station": 5307,
      "stem": 5308,
      "stuck": 5309,
      "##iments": 5310,
      "conference": 5311,
      "wear": 5312,
      "wearing": 5313,
      "##unior": 5314,
      "##ema": 5315,
      "deals": 5316,
      "shot": 5317,
      "shared": 5318,
      "##osh": 5319,
      "##osing": 5320,
      "##elling": 5321,
      "abdom": 5322,
      "##query": 5323,
      "trim": 5324,
      "trust": 5325,
      "trick": 5326,
      "Information": 5327,
      "mechan": 5328,
      "loved": 5329,
      "quarter": 5330,
      "##erequis": 5331,
      "Stand": 5332,
      "fees": 5333,
      "tele": 5334,
      "tech": 5335,
      "##berry": 5336,
      "##enses": 5337,
      "proven": 5338,
      "##place": 5339,
      "Although": 5340,
      "desire": 5341,
      "##anging": 5342,
      "##encing": 5343,
      "##ocol": 5344,
      "remote": 5345,
      "Analy": 5346,
      "basement": 5347,
      "acid": 5348,
      "Select": 5349,
      "minor": 5350,
      "minim": 5351,
      "Dec": 5352,
      "Admin": 5353,
      "brings": 5354,
      "calls": 5355,
      "Print": 5356,
      "functions": 5357,
      "memory": 5358,
      "skill": 5359,
      "extract": 5360,
      "surface": 5361,
      "followed": 5362,
      "Exam": 5363,
      "featuring": 5364,
      "realize": 5365,
      "##ructure": 5366,
      "biggest": 5367,
      "continued": 5368,
      "charge": 5369,
      "Const": 5370,
      "kinds": 5371,
      "1997": 5372,
      "caused": 5373,
      "internal": 5374,
      "moved": 5375,
      "century": 5376,
      "shoppers": 5377,
      "server": 5378,
      "purchased": 5379,
      "cris": 5380,
      "visitor": 5381,
      "##ucky": 5382,
      "creates": 5383,
      "Phil": 5384,
      "edge": 5385,
      "editor": 5386,
      "investig": 5387,
      "allowing": 5388,
      "packages": 5389,
      "functional": 5390,
      "increasing": 5391,
      "##box": 5392,
      "employee": 5393,
      "Supp": 5394,
      "communications": 5395,
      "explore": 5396,
      "##leges": 5397,
      "brands": 5398,
      "freed": 5399,
      "cultural": 5400,
      "talking": 5401,
      "identify": 5402,
      "boxes": 5403,
      "##aught": 5404,
      "initial": 5405,
      "##ascale": 5406,
      "officers": 5407,
      "messages": 5408,
      "challenging": 5409,
      "##amboo": 5410,
      "GDSM": 5411,
      "bottom": 5412,
      "bottle": 5413,
      "billion": 5414,
      "illustr": 5415,
      "Britain": 5416,
      "settings": 5417,
      "Series": 5418,
      "distribution": 5419,
      "##abetes": 5420,
      "emotional": 5421,
      "emergency": 5422,
      "clinical": 5423,
      "Hotel": 5424,
      "troubles": 5425,
      "temperature": 5426,
      "Florida": 5427,
      "EVs": 5428,
      "manufacturer": 5429,
      "Government": 5430,
      "CNPA": 5431,
      "Summer": 5432,
      "efficient": 5433,
      "Jonathan": 5434,
      "schedul": 5435,
      "olive": 5436,
      "Chicago": 5437,
      "Japan": 5438,
      "39": 5439,
      "Bra": 5440,
      "Cas": 5441,
      "Did": 5442,
      "During": 5443,
      "Dumpster": 5444,
      "Fol": 5445,
      "Ford": 5446,
      "HD": 5447,
      "Ham": 5448,
      "Holiday": 5449,
      "Lt": 5450,
      "Lake": 5451,
      "Link": 5452,
      "Mill": 5453,
      "NC": 5454,
      "NY": 5455,
      "OF": 5456,
      "Oly": 5457,
      "Pac": 5458,
      "Rah": 5459,
      "Russ": 5460,
      "Sus": 5461,
      "Somet": 5462,
      "Village": 5463,
      "Word": 5464,
      "]:": 5465,
      "agr": 5466,
      "cov": 5467,
      "crowd": 5468,
      "dates": 5469,
      "eleg": 5470,
      "federal": 5471,
      "gain": 5472,
      "gorge": 5473,
      "hidden": 5474,
      "icon": 5475,
      "pod": 5476,
      "pock": 5477,
      "poor": 5478,
      "sitting": 5479,
      "tells": 5480,
      "vote": 5481,
      "wal": 5482,
      "##ius": 5483,
      "##rant": 5484,
      "##ports": 5485,
      "##lig": 5486,
      "##lim": 5487,
      "##ey": 5488,
      "##cel": 5489,
      "##chers": 5490,
      "##gun": 5491,
      "##uc": 5492,
      "##kl": 5493,
      "##vin": 5494,
      "##word": 5495,
      "##LY": 5496,
      "##TS": 5497,
      "##RO": 5498,
      "##AL": 5499,
      "##SE": 5500,
      "##ester": 5501,
      "##orough": 5502,
      "##orrow": 5503,
      "##ita": 5504,
      "##alog": 5505,
      "##arge": 5506,
      "##areness": 5507,
      "##ishes": 5508,
      "##etic": 5509,
      "fort": 5510,
      "##urb": 5511,
      "reb": 5512,
      "##uts": 5513,
      "##idget": 5514,
      "##cean": 5515,
      "##igration": 5516,
      "stim": 5517,
      "stake": 5518,
      "states": 5519,
      "proc": 5520,
      "aspects": 5521,
      "##ulate": 5522,
      "##ulum": 5523,
      "##ulated": 5524,
      "##rape": 5525,
      "##abb": 5526,
      "expos": 5527,
      "exchange": 5528,
      "exception": 5529,
      "external": 5530,
      "##ista": 5531,
      "shown": 5532,
      "##osis": 5533,
      "##oples": 5534,
      "compared": 5535,
      "dog": 5536,
      "resolution": 5537,
      "202": 5538,
      "intr": 5539,
      "manual": 5540,
      "Star": 5541,
      "Web": 5542,
      "##berg": 5543,
      "##ishing": 5544,
      "unit": 5545,
      "pepper": 5546,
      "Church": 5547,
      "Chapter": 5548,
      "interp": 5549,
      "serves": 5550,
      "Alask": 5551,
      "##ounds": 5552,
      "becoming": 5553,
      "##riculum": 5554,
      "Review": 5555,
      "driver": 5556,
      "Compt": 5557,
      "##endar": 5558,
      "goods": 5559,
      "adventure": 5560,
      "empt": 5561,
      "Product": 5562,
      "poll": 5563,
      "listing": 5564,
      "Prerequis": 5565,
      "opin": 5566,
      "sky": 5567,
      "##azio": 5568,
      "publish": 5569,
      "handmade": 5570,
      "2007": 5571,
      "##arming": 5572,
      "runs": 5573,
      "surgery": 5574,
      "restrict": 5575,
      "teams": 5576,
      "respond": 5577,
      "resulting": 5578,
      "technologies": 5579,
      "correspond": 5580,
      "Exp": 5581,
      "viewed": 5582,
      "happening": 5583,
      "Chris": 5584,
      "artist": 5585,
      "empower": 5586,
      "1999": 5587,
      "classes": 5588,
      "winning": 5589,
      "winetricks": 5590,
      "enjoyed": 5591,
      "##reads": 5592,
      "visiting": 5593,
      "glass": 5594,
      "Bridget": 5595,
      "Meet": 5596,
      "laws": 5597,
      "Central": 5598,
      "circum": 5599,
      "competition": 5600,
      "participate": 5601,
      "majority": 5602,
      "Swed": 5603,
      "typically": 5604,
      "automatically": 5605,
      "Description": 5606,
      "measures": 5607,
      "awareness": 5608,
      "##nament": 5609,
      "environmental": 5610,
      "applying": 5611,
      "hyd": 5612,
      "manufacturing": 5613,
      "##going": 5614,
      "spending": 5615,
      "https": 5616,
      "origin": 5617,
      "certificate": 5618,
      "appointed": 5619,
      "Consult": 5620,
      "attractive": 5621,
      "Music": 5622,
      "describes": 5623,
      "described": 5624,
      "applied": 5625,
      "parking": 5626,
      "ignition": 5627,
      "##hetic": 5628,
      "affordable": 5629,
      "crucial": 5630,
      "map_": 5631,
      "blend": 5632,
      "Richard": 5633,
      "Giada": 5634,
      "procedures": 5635,
      "Open": 5636,
      "adopt": 5637,
      "Tuesday": 5638,
      "Ltd": 5639,
      "Olymp": 5640,
      "1st": 5641,
      "33": 5642,
      "46": 5643,
      "95": 5644,
      "AI": 5645,
      "Bachel": 5646,
      "CD": 5647,
      "Custom": 5648,
      "CAN": 5649,
      "Cotton": 5650,
      "Ener": 5651,
      "FM": 5652,
      "Farm": 5653,
      "Hormone": 5654,
      "Hader": 5655,
      "Los": 5656,
      "Last": 5657,
      "Labor": 5658,
      "MA": 5659,
      "Mel": 5660,
      "Master": 5661,
      "Os": 5662,
      "Pur": 5663,
      "Poll": 5664,
      "Pixel": 5665,
      "RC": 5666,
      "SM": 5667,
      "Sun": 5668,
      "Squ": 5669,
      "Sup": 5670,
      "Try": 5671,
      "Wel": 5672,
      "Watch": 5673,
      "Year": 5674,
      "breat": 5675,
      "cotton": 5676,
      "east": 5677,
      "ends": 5678,
      "earth": 5679,
      "fing": 5680,
      "gy": 5681,
      "hall": 5682,
      "hook": 5683,
      "masc": 5684,
      "middle": 5685,
      "none": 5686,
      "psy": 5687,
      "rol": 5688,
      "river": 5689,
      "tight": 5690,
      "tail": 5691,
      "tough": 5692,
      "turning": 5693,
      "vir": 5694,
      "vast": 5695,
      "vert": 5696,
      "##tle": 5697,
      "##town": 5698,
      "##rd": 5699,
      "##ram": 5700,
      "##rim": 5701,
      "##la": 5702,
      "##ean": 5703,
      "##ext": 5704,
      "##cles": 5705,
      "##green": 5706,
      "##uis": 5707,
      "##fe": 5708,
      "##fol": 5709,
      "##ya": 5710,
      "##blight": 5711,
      "##wquery": 5712,
      "##CC": 5713,
      "##Tube": 5714,
      "##Pod": 5715,
      "##FTA": 5716,
      "##_f": 5717,
      "##erous": 5718,
      "##atures": 5719,
      "##itness": 5720,
      "##rel": 5721,
      "##ica": 5722,
      "##icine": 5723,
      "##ician": 5724,
      "##lets": 5725,
      "thus": 5726,
      "thick": 5727,
      "##entially": 5728,
      "##etics": 5729,
      "forum": 5730,
      "repe": 5731,
      "##utic": 5732,
      "##ownt": 5733,
      "##aying": 5734,
      "##ads": 5735,
      "##aming": 5736,
      "proceed": 5737,
      "##iminal": 5738,
      "anxiety": 5739,
      "orient": 5740,
      "consequ": 5741,
      "whatever": 5742,
      "##abled": 5743,
      "##cket": 5744,
      "##uments": 5745,
      "##istant": 5746,
      "##ivil": 5747,
      "shield": 5748,
      "##osy": 5749,
      "##oses": 5750,
      "##arts": 5751,
      "##ella": 5752,
      "##ello": 5753,
      "##ellows": 5754,
      "##oston": 5755,
      "abuse": 5756,
      "Things": 5757,
      "height": 5758,
      "trig": 5759,
      "trib": 5760,
      "residential": 5761,
      "##ptions": 5762,
      "Ins": 5763,
      "upcoming": 5764,
      "clust": 5765,
      "club": 5766,
      "climb": 5767,
      "incident": 5768,
      "quant": 5769,
      "dishes": 5770,
      "YouTube": 5771,
      "##assion": 5772,
      "uns": 5773,
      "unw": 5774,
      "uninstall": 5775,
      "acceler": 5776,
      "agency": 5777,
      "knowing": 5778,
      "desk": 5779,
      "##anged": 5780,
      "veget": 5781,
      "adds": 5782,
      "##pression": 5783,
      "White": 5784,
      "coach": 5785,
      "everyday": 5786,
      "remain": 5787,
      "actual": 5788,
      "##rowse": 5789,
      "##ifications": 5790,
      "reliable": 5791,
      "invites": 5792,
      "perspective": 5793,
      "Andry": 5794,
      "guys": 5795,
      "guarant": 5796,
      "acetone": 5797,
      "studies": 5798,
      "finished": 5799,
      "worldwide": 5800,
      "Adv": 5801,
      "advanced": 5802,
      "purs": 5803,
      "##otten": 5804,
      "##airs": 5805,
      "police": 5806,
      "metal": 5807,
      "delay": 5808,
      "supports": 5809,
      "Beaut": 5810,
      "generation": 5811,
      "signage": 5812,
      "monthly": 5813,
      "happened": 5814,
      "discount": 5815,
      "brown": 5816,
      "eventually": 5817,
      "##vention": 5818,
      "carefully": 5819,
      "smaller": 5820,
      "Spot": 5821,
      "150": 5822,
      "showing": 5823,
      "1998": 5824,
      "causes": 5825,
      "equipped": 5826,
      "##pendence": 5827,
      "entr": 5828,
      "payment": 5829,
      "engage": 5830,
      "engagement": 5831,
      "Report": 5832,
      "physicians": 5833,
      "Cheap": 5834,
      "Such": 5835,
      "Engine": 5836,
      "specifically": 5837,
      "fourth": 5838,
      "favour": 5839,
      "perfectly": 5840,
      "population": 5841,
      "Groups": 5842,
      "concerned": 5843,
      "cutting": 5844,
      "managing": 5845,
      "addresses": 5846,
      "HomePod": 5847,
      "integrated": 5848,
      "multi": 5849,
      "watching": 5850,
      "magaz": 5851,
      "Australian": 5852,
      "failure": 5853,
      "biology": 5854,
      "fitness": 5855,
      "volunteers": 5856,
      "risks": 5857,
      "routine": 5858,
      "songs": 5859,
      "certified": 5860,
      "subscription": 5861,
      "Board": 5862,
      "qualified": 5863,
      "Perform": 5864,
      "Spring": 5865,
      "susp": 5866,
      "knew": 5867,
      "agreement": 5868,
      "dressing": 5869,
      "principles": 5870,
      "balance": 5871,
      "critical": 5872,
      "influence": 5873,
      "Developer": 5874,
      "##guazio": 5875,
      "Specialist": 5876,
      "dollars": 5877,
      "incredibly": 5878,
      "railroad": 5879,
      "Defiance": 5880,
      "Software": 5881,
      "commissioners": 5882,
      "scientific": 5883,
      "adults": 5884,
      "satisf": 5885,
      "mentioned": 5886,
      "athlet": 5887,
      "remodeling": 5888,
      "surrounding": 5889,
      "title": 5890,
      "licensed": 5891,
      "drug": 5892,
      "recip": 5893,
      "components": 5894,
      "attorneys": 5895,
      "Download": 5896,
      "Virgin": 5897,
      "category": 5898,
      "Democr": 5899,
      "matters": 5900,
      "paragraph": 5901,
      "Café": 5902,
      "dimens": 5903,
      "compliance": 5904,
      "neighborhood": 5905,
      "valuable": 5906,
      "Growth": 5907,
      "Pacific": 5908,
      "pocket": 5909,
      "54": 5910,
      "75": 5911,
      "78": 5912,
      "??": 5913,
      "Bas": 5914,
      "Bird": 5915,
      "Boston": 5916,
      "Come": 5917,
      "CEO": 5918,
      "Caj": 5919,
      "Dig": 5920,
      "Ear": 5921,
      "Fam": 5922,
      "Found": 5923,
      "Full": 5924,
      "Hi": 5925,
      "Hor": 5926,
      "Id": 5927,
      "Iguazio": 5928,
      "Kath": 5929,
      "Live": 5930,
      "Light": 5931,
      "Mov": 5932,
      "Never": 5933,
      "Ob": 5934,
      "OS": 5935,
      "OK": 5936,
      "Pakistan": 5937,
      "Rent": 5938,
      "Ross": 5939,
      "River": 5940,
      "Ruth": 5941,
      "Sl": 5942,
      "Sk": 5943,
      "SS": 5944,
      "Spect": 5945,
      "Saint": 5946,
      "Saul": 5947,
      "Senior": 5948,
      "bone": 5949,
      "bond": 5950,
      "burn": 5951,
      "crown": 5952,
      "dial": 5953,
      "database": 5954,
      "daughter": 5955,
      "ease": 5956,
      "fif": 5957,
      "gear": 5958,
      "grown": 5959,
      "ht": 5960,
      "ju": 5961,
      "joy": 5962,
      "lib": 5963,
      "liable": 5964,
      "mission": 5965,
      "net": 5966,
      "oven": 5967,
      "punch": 5968,
      "rain": 5969,
      "rac": 5970,
      "sizes": 5971,
      "tty": 5972,
      "vit": 5973,
      "yog": 5974,
      "zero": 5975,
      "##ipe": 5976,
      "##ras": 5977,
      "##right": 5978,
      "##pass": 5979,
      "##lor": 5980,
      "##lind": 5981,
      "##oons": 5982,
      "##down": 5983,
      "##mosp": 5984,
      "##nership": 5985,
      "##cy": 5986,
      "##case": 5987,
      "##water": 5988,
      "##IV": 5989,
      "##15": 5990,
      "##11": 5991,
      "##MO": 5992,
      "##EP": 5993,
      "##iny": 5994,
      "##inations": 5995,
      "##ena": 5996,
      "##itis": 5997,
      "##anium": 5998,
      "##oma": 5999,
      "##ette": 6000,
      "rein": 6001,
      "##ota": 6002,
      "##oty": 6003,
      "##olve": 6004,
      "stone": 6005,
      "prote": 6006,
      "alt": 6007,
      "concl": 6008,
      "atmosp": 6009,
      "##umin": 6010,
      "##ifies": 6011,
      "weap": 6012,
      "neoc": 6013,
      "##unately": 6014,
      "##lder": 6015,
      "seg": 6016,
      "sections": 6017,
      "department": 6018,
      "suit": 6019,
      "shift": 6020,
      "##iece": 6021,
      "enem": 6022,
      "plate": 6023,
      "##elli": 6024,
      "usage": 6025,
      "Thus": 6026,
      "##outhern": 6027,
      "trial": 6028,
      "dogs": 6029,
      "contrast": 6030,
      "outlet": 6031,
      "outstanding": 6032,
      "##izon": 6033,
      "##izens": 6034,
      "lob": 6035,
      "lock": 6036,
      "apps": 6037,
      "workers": 6038,
      "workflow": 6039,
      "spl": 6040,
      "spons": 6041,
      "##orders": 6042,
      "tend": 6043,
      "Italy": 6044,
      "gov": 6045,
      "speaking": 6046,
      "prec": 6047,
      "pregn": 6048,
      "##ubai": 6049,
      "interior": 6050,
      "agent": 6051,
      "sau": 6052,
      "imposs": 6053,
      "impress": 6054,
      "justice": 6055,
      "##onda": 6056,
      "whenever": 6057,
      "recy": 6058,
      "recall": 6059,
      "despite": 6060,
      "scene": 6061,
      "regional": 6062,
      "consent": 6063,
      "phase": 6064,
      "coordin": 6065,
      "remained": 6066,
      "Another": 6067,
      "##pected": 6068,
      "strive": 6069,
      "Ash": 6070,
      "decl": 6071,
      "News": 6072,
      "Newtown": 6073,
      "finest": 6074,
      "mediation": 6075,
      "assum": 6076,
      "creation": 6077,
      "Adult": 6078,
      "Prof": 6079,
      "brief": 6080,
      "Plant": 6081,
      "folks": 6082,
      "posts": 6083,
      "weekly": 6084,
      "planned": 6085,
      "handle": 6086,
      "formats": 6087,
      "2005": 6088,
      "Industr": 6089,
      "organized": 6090,
      "heads": 6091,
      "generated": 6092,
      "signs": 6093,
      "views": 6094,
      "happens": 6095,
      "founded": 6096,
      "conflict": 6097,
      "breed": 6098,
      "Communications": 6099,
      "filed": 6100,
      "1996": 6101,
      "letting": 6102,
      "director": 6103,
      "anticip": 6104,
      "asking": 6105,
      "sensor": 6106,
      "ensuring": 6107,
      "Counsel": 6108,
      "evergreen": 6109,
      "Contin": 6110,
      "Contact": 6111,
      "Mean": 6112,
      "Mexic": 6113,
      "increases": 6114,
      "Medical": 6115,
      "Color": 6116,
      "Coloring": 6117,
      "legisl": 6118,
      "styles": 6119,
      "superv": 6120,
      "trends": 6121,
      "searching": 6122,
      "errors": 6123,
      "competitive": 6124,
      "managers": 6125,
      "index": 6126,
      "integration": 6127,
      "##fficient": 6128,
      "participants": 6129,
      "discussion": 6130,
      "cylind": 6131,
      "automatic": 6132,
      "attending": 6133,
      "closed": 6134,
      "Justice": 6135,
      "brain": 6136,
      "journal": 6137,
      "Nothing": 6138,
      "failed": 6139,
      "marriage": 6140,
      "towel": 6141,
      "steel": 6142,
      "microphone": 6143,
      "Financial": 6144,
      "examine": 6145,
      "mountain": 6146,
      "restaurants": 6147,
      "significantly": 6148,
      "William": 6149,
      "appointment": 6150,
      "immediate": 6151,
      "counseling": 6152,
      "Smart": 6153,
      "objective": 6154,
      "voters": 6155,
      "boarding": 6156,
      "Delph": 6157,
      "normally": 6158,
      "conducted": 6159,
      "disease": 6160,
      "Angeles": 6161,
      "proposed": 6162,
      "regulations": 6163,
      "cabin": 6164,
      "landscape": 6165,
      "saved": 6166,
      "virtual": 6167,
      "Realt": 6168,
      "##ixture": 6169,
      "occasion": 6170,
      "Electric": 6171,
      "Building": 6172,
      "foreign": 6173,
      "substant": 6174,
      "bowl": 6175,
      "hundreds": 6176,
      "teacher": 6177,
      "##proof": 6178,
      "Invest": 6179,
      "switches": 6180,
      "ELEC": 6181,
      "##oosing": 6182,
      "fluid": 6183,
      "satellite": 6184,
      "Kindle": 6185,
      "NAFTA": 6186,
      "chicken": 6187,
      "##ocolate": 6188,
      "Analytics": 6189,
      "gorgeous": 6190,
      "##rapeutic": 6191,
      "Energy": 6192,
      "##osystem": 6193,
      "Cajun": 6194,
      "atmosphere": 6195,
      "(“": 6196,
      "38": 6197,
      "42": 6198,
      "57": 6199,
      "99": 6200,
      "BC": 6201,
      "Bit": 6202,
      "Bill": 6203,
      "CA": 6204,
      "CS": 6205,
      "Cry": 6206,
      "Camp": 6207,
      "Circ": 6208,
      "Curr": 6209,
      "Ev": 6210,
      "Episode": 6211,
      "Further": 6212,
      "Fellows": 6213,
      "GB": 6214,
      "Gal": 6215,
      "Game": 6216,
      "Hộ": 6217,
      "Hist": 6218,
      "Ill": 6219,
      "Jew": 6220,
      "Ken": 6221,
      "Kel": 6222,
      "Know": 6223,
      "Low": 6224,
      "Lim": 6225,
      "Liz": 6226,
      "Library": 6227,
      "Mod": 6228,
      "Mag": 6229,
      "Max": 6230,
      "Muse": 6231,
      "Ox": 6232,
      "Ol": 6233,
      "ON": 6234,
      "PHS": 6235,
      "Rhe": 6236,
      "Rose": 6237,
      "Save": 6238,
      "Sky": 6239,
      "TO": 6240,
      "Tre": 6241,
      "Time": 6242,
      "TOS": 6243,
      "Tenn": 6244,
      "UN": 6245,
      "UC": 6246,
      "Wa": 6247,
      "W32": 6248,
      "],": 6249,
      "ast": 6250,
      "awards": 6251,
      "apartment": 6252,
      "bes": 6253,
      "ban": 6254,
      "binary": 6255,
      "cro": 6256,
      "downt": 6257,
      "egg": 6258,
      "elements": 6259,
      "fem": 6260,
      "gro": 6261,
      "gest": 6262,
      "honey": 6263,
      "lect": 6264,
      "loose": 6265,
      "mother": 6266,
      "maker": 6267,
      "makers": 6268,
      "north": 6269,
      "ped": 6270,
      "pink": 6271,
      "pwquery": 6272,
      "rap": 6273,
      "san": 6274,
      "slic": 6275,
      "sins": 6276,
      "sister": 6277,
      "sought": 6278,
      "tired": 6279,
      "wet": 6280,
      "’.": 6281,
      "##tage": 6282,
      "##a_": 6283,
      "##iated": 6284,
      "##pet": 6285,
      "##do": 6286,
      "##days": 6287,
      "##mon": 6288,
      "##gent": 6289,
      "##uf": 6290,
      "##fin": 6291,
      "##han": 6292,
      "##bar": 6293,
      "##vard": 6294,
      "##wal": 6295,
      "##OW": 6296,
      "##zen": 6297,
      "##LC": 6298,
      "##Cam": 6299,
      "##10": 6300,
      "##19": 6301,
      "##EM": 6302,
      "##KB": 6303,
      "##hent": 6304,
      "##heless": 6305,
      "##inn": 6306,
      "##ora": 6307,
      "##itative": 6308,
      "##anish": 6309,
      "##alty": 6310,
      "##isk": 6311,
      "thorough": 6312,
      "##roy": 6313,
      "##roeton": 6314,
      "##ether": 6315,
      "##etime": 6316,
      "forget": 6317,
      "bees": 6318,
      "reached": 6319,
      "##ithic": 6320,
      "stru": 6321,
      "stamp": 6322,
      "strict": 6323,
      "##iration": 6324,
      "anat": 6325,
      "align": 6326,
      "convert": 6327,
      "##tering": 6328,
      "##rab": 6329,
      "##estival": 6330,
      "##using": 6331,
      "wealth": 6332,
      "seeds": 6333,
      "depart": 6334,
      "depending": 6335,
      "sufficient": 6336,
      "cancer": 6337,
      "shower": 6338,
      "shipping": 6339,
      "##osen": 6340,
      "notes": 6341,
      "chr": 6342,
      "ence": 6343,
      "enable": 6344,
      "##cient": 6345,
      "##perror": 6346,
      "abroad": 6347,
      "trips": 6348,
      "##agin": 6349,
      "doctor": 6350,
      "##ibilities": 6351,
      "##pted": 6352,
      "upload": 6353,
      "clock": 6354,
      "##asts": 6355,
      "meat": 6356,
      "meets": 6357,
      "contained": 6358,
      "wheel": 6359,
      "outf": 6360,
      "##izza": 6361,
      "intention": 6362,
      "appar": 6363,
      "quot": 6364,
      "anytime": 6365,
      "##ogether": 6366,
      "Still": 6367,
      "Street": 6368,
      "spin": 6369,
      "disapp": 6370,
      "disorders": 6371,
      "Its": 6372,
      "##itionally": 6373,
      "##aven": 6374,
      "##gred": 6375,
      "provisions": 6376,
      "unl": 6377,
      "unless": 6378,
      "accord": 6379,
      "Chat": 6380,
      "Child": 6381,
      "Chines": 6382,
      "overlook": 6383,
      "ages": 6384,
      "wouldn": 6385,
      "maybe": 6386,
      "194": 6387,
      "producer": 6388,
      "desired": 6389,
      "firms": 6390,
      "screens": 6391,
      "vend": 6392,
      "##prises": 6393,
      "conscious": 6394,
      "trained": 6395,
      "travell": 6396,
      "phones": 6397,
      "buff": 6398,
      "relative": 6399,
      "##iances": 6400,
      "invitation": 6401,
      "bask": 6402,
      "##anche": 6403,
      "couldn": 6404,
      "finance": 6405,
      "Degree": 6406,
      "belong": 6407,
      "designer": 6408,
      "##iquid": 6409,
      "advoc": 6410,
      "Prot": 6411,
      "Plate": 6412,
      "listening": 6413,
      "curriculum": 6414,
      "thinks": 6415,
      "Armen": 6416,
      "Princi": 6417,
      "Univ": 6418,
      "supporting": 6419,
      "supported": 6420,
      "topic": 6421,
      "2004": 6422,
      "extent": 6423,
      "flat": 6424,
      "numerous": 6425,
      "heading": 6426,
      "technique": 6427,
      "passing": 6428,
      "password": 6429,
      "Trash": 6430,
      "Exc": 6431,
      "Executive": 6432,
      "Exascale": 6433,
      "lighting": 6434,
      "Club": 6435,
      "Marc": 6436,
      "foods": 6437,
      "specialist": 6438,
      "config": 6439,
      "Coast": 6440,
      "Spanish": 6441,
      "infrast": 6442,
      "chargers": 6443,
      "electrical": 6444,
      "Att": 6445,
      "filing": 6446,
      "approx": 6447,
      "criminal": 6448,
      "expenses": 6449,
      "maperror": 6450,
      "array": 6451,
      "household": 6452,
      "improving": 6453,
      "demands": 6454,
      "##ACTED": 6455,
      "damaged": 6456,
      "constant": 6457,
      "laun": 6458,
      "communication": 6459,
      "dealer": 6460,
      "treated": 6461,
      "achieved": 6462,
      "appearance": 6463,
      "Relic": 6464,
      "Highlands": 6465,
      "recommendations": 6466,
      "networks": 6467,
      "participating": 6468,
      "discussed": 6469,
      "closely": 6470,
      "missing": 6471,
      "portable": 6472,
      "walking": 6473,
      "##inoa": 6474,
      "grounds": 6475,
      "selected": 6476,
      "breakfast": 6477,
      "improvement": 6478,
      "identity": 6479,
      "funding": 6480,
      "hyp": 6481,
      "##mbol": 6482,
      "structures": 6483,
      "Guide": 6484,
      "holding": 6485,
      "updated": 6486,
      "towels": 6487,
      "Monroeton": 6488,
      "consultation": 6489,
      "About": 6490,
      "figure": 6491,
      "advantages": 6492,
      "inspiring": 6493,
      "subsid": 6494,
      "previously": 6495,
      "pieces": 6496,
      "military": 6497,
      "territ": 6498,
      "suspend": 6499,
      "stacked": 6500,
      "documents": 6501,
      "utilize": 6502,
      "Small": 6503,
      "silver": 6504,
      "recognition": 6505,
      "supplied": 6506,
      "principle": 6507,
      "implementation": 6508,
      "Keep": 6509,
      "informed": 6510,
      "African": 6511,
      "introduced": 6512,
      "flexibility": 6513,
      "injuries": 6514,
      "innovation": 6515,
      "Sales": 6516,
      "convention": 6517,
      "ruby": 6518,
      "incredible": 6519,
      "registered": 6520,
      "Local": 6521,
      "##TML": 6522,
      "meaningful": 6523,
      "duty": 6524,
      "duties": 6525,
      "##ographers": 6526,
      "announce": 6527,
      "dangerous": 6528,
      "enhance": 6529,
      "acknowledge": 6530,
      "Santa": 6531,
      "SECTION": 6532,
      "rugby": 6533,
      "channel": 6534,
      "industrial": 6535,
      "fulfill": 6536,
      "estimated": 6537,
      "Cyber": 6538,
      "##printf": 6539,
      "Netfl": 6540,
      "graduated": 6541,
      "ENACTED": 6542,
      "powers": 6543,
      "cryptocurrency": 6544,
      "Division": 6545,
      "mirror": 6546,
      "concerns": 6547,
      "frequently": 6548,
      "accomplish": 6549,
      "fantastic": 6550,
      "stopped": 6551,
      "Selected": 6552,
      "Printable": 6553,
      "freedom": 6554,
      "scheduled": 6555,
      "agricult": 6556,
      "Comptroller": 6557,
      "empty": 6558,
      "Sweden": 6559,
      "Bachelor": 6560,
      "Square": 6561,
      "psych": 6562,
      "Meanwhile": 6563,
      "Hội": 6564,
      "Museum": 6565,
      "Chinese": 6566,
      "infrastructure": 6567,
      "Netflix": 6568,
      "37": 6569,
      "4th": 6570,
      "?!": 6571,
      "AB": 6572,
      "Arab": 6573,
      "Bever": 6574,
      "CB": 6575,
      "Cat": 6576,
      "Cut": 6577,
      "Cult": 6578,
      "Creek": 6579,
      "Die": 6580,
      "Database": 6581,
      "EM": 6582,
      "Earth": 6583,
      "Fac": 6584,
      "FOR": 6585,
      "Gate": 6586,
      "Garbage": 6587,
      "HG": 6588,
      "Hou": 6589,
      "Him": 6590,
      "Host": 6591,
      "HTML": 6592,
      "Ira": 6593,
      "Long": 6594,
      "Loss": 6595,
      "Ms": 6596,
      "MM": 6597,
      "M4": 6598,
      "Mal": 6599,
      "Mass": 6600,
      "Norm": 6601,
      "Pages": 6602,
      "Que": 6603,
      "Rome": 6604,
      "Roof": 6605,
      "Sense": 6606,
      "SAN": 6607,
      "Town": 6608,
      "Tah": 6609,
      "Viet": 6610,
      "Vista": 6611,
      "WI": 6612,
      "WA": 6613,
      "af": 6614,
      "bid": 6615,
      "bold": 6616,
      "cam": 6617,
      "da": 6618,
      "ep": 6619,
      "fer": 6620,
      "fle": 6621,
      "fro": 6622,
      "fear": 6623,
      "ho": 6624,
      "hur": 6625,
      "hun": 6626,
      "il": 6627,
      "kill": 6628,
      "lin": 6629,
      "lau": 6630,
      "lips": 6631,
      "mine": 6632,
      "mouth": 6633,
      "masks": 6634,
      "nu": 6635,
      "pil": 6636,
      "pun": 6637,
      "push": 6638,
      "rely": 6639,
      "rough": 6640,
      "sad": 6641,
      "tiss": 6642,
      "ven": 6643,
      "vent": 6644,
      "vac": 6645,
      "##top": 6646,
      "##aper": 6647,
      "##iat": 6648,
      "##ien": 6649,
      "##iest": 6650,
      "##iability": 6651,
      "##oh": 6652,
      "##oys": 6653,
      "##dy": 6654,
      "##ded": 6655,
      "##mes": 6656,
      "##cr": 6657,
      "##cont": 6658,
      "##uate": 6659,
      "##hab": 6660,
      "##bed": 6661,
      "##bit": 6662,
      "##DS": 6663,
      "##van": 6664,
      "##win": 6665,
      "##zz": 6666,
      "##GES": 6667,
      "##Re": 6668,
      "##12": 6669,
      "##33": 6670,
      "##inos": 6671,
      "##atre": 6672,
      "##oration": 6673,
      "##orial": 6674,
      "##oult": 6675,
      "##itut": 6676,
      "##itate": 6677,
      "##ales": 6678,
      "##aling": 6679,
      "ingred": 6680,
      "##asp": 6681,
      "##ila": 6682,
      "##ilst": 6683,
      "##rote": 6684,
      "##stery": 6685,
      "##stream": 6686,
      "forever": 6687,
      "forces": 6688,
      "##urally": 6689,
      "beach": 6690,
      "reward": 6691,
      "##oli": 6692,
      "##olithic": 6693,
      "##ading": 6694,
      "##adian": 6695,
      "##amin": 6696,
      "stun": 6697,
      "##irm": 6698,
      "##irts": 6699,
      "##essed": 6700,
      "##ulations": 6701,
      "##illa": 6702,
      "comments": 6703,
      "whilst": 6704,
      "##race": 6705,
      "##ooper": 6706,
      "##abol": 6707,
      "frustr": 6708,
      "##umer": 6709,
      "##umber": 6710,
      "##ifi": 6711,
      "express": 6712,
      "##ivate": 6713,
      "sugar": 6714,
      "##arters": 6715,
      "chocolate": 6716,
      "chosen": 6717,
      "##ardens": 6718,
      "##udes": 6719,
      "##anda": 6720,
      "##cipl": 6721,
      "ade": 6722,
      "prayer": 6723,
      "trash": 6724,
      "trunk": 6725,
      "truth": 6726,
      "doctors": 6727,
      "##acent": 6728,
      "ourselves": 6729,
      "clip": 6730,
      "##erves": 6731,
      "myth": 6732,
      "newly": 6733,
      "proved": 6734,
      "unex": 6735,
      "Champions": 6736,
      "command": 6737,
      "recru": 6738,
      "colleges": 6739,
      "scri": 6740,
      "##angal": 6741,
      "remains": 6742,
      "blind": 6743,
      "Ask": 6744,
      "Asia": 6745,
      "driven": 6746,
      "##phones": 6747,
      "Andrew": 6748,
      "secret": 6749,
      "Sea": 6750,
      "muse": 6751,
      "transition": 6752,
      "Therefore": 6753,
      "belie": 6754,
      "assault": 6755,
      "attitude": 6756,
      "Prov": 6757,
      "listings": 6758,
      "authent": 6759,
      "metrics": 6760,
      "Prince": 6761,
      "grant": 6762,
      "##essional": 6763,
      "swim": 6764,
      "swimming": 6765,
      "posting": 6766,
      "healthcare": 6767,
      "performs": 6768,
      "performing": 6769,
      "##engers": 6770,
      "boys": 6771,
      "powered": 6772,
      "submitted": 6773,
      "exciting": 6774,
      "feels": 6775,
      "generate": 6776,
      "Exchange": 6777,
      "Resolution": 6778,
      "himself": 6779,
      "Incl": 6780,
      "Spain": 6781,
      "checking": 6782,
      "breaking": 6783,
      "Atlant": 6784,
      "older": 6785,
      "receiving": 6786,
      "entering": 6787,
      "Management": 6788,
      "connections": 6789,
      "centre": 6790,
      "facts": 6791,
      "millions": 6792,
      "putting": 6793,
      "shoes": 6794,
      "Christians": 6795,
      "voltage": 6796,
      "##odeo": 6797,
      "##okes": 6798,
      "publicly": 6799,
      "pasta": 6800,
      "Phot": 6801,
      "summ": 6802,
      "behalf": 6803,
      "physically": 6804,
      "windows": 6805,
      "##boards": 6806,
      "improved": 6807,
      "membership": 6808,
      "beautifully": 6809,
      "requirement": 6810,
      "Training": 6811,
      "constantly": 6812,
      "detailed": 6813,
      "laid": 6814,
      "##faction": 6815,
      "covering": 6816,
      "coverage": 6817,
      "historic": 6818,
      "##ursing": 6819,
      "links": 6820,
      "##ICE": 6821,
      "Highway": 6822,
      "respective": 6823,
      "respectively": 6824,
      "calendar": 6825,
      "cooking": 6826,
      "Stef": 6827,
      "portfol": 6828,
      "combined": 6829,
      "strongly": 6830,
      "Minister": 6831,
      "regularly": 6832,
      "biological": 6833,
      "urinary": 6834,
      "assistant": 6835,
      "sounds": 6836,
      "renov": 6837,
      "discovered": 6838,
      "accepted": 6839,
      "Finally": 6840,
      "lifest": 6841,
      "lifetime": 6842,
      "figures": 6843,
      "Barwell": 6844,
      "motor": 6845,
      "mountains": 6846,
      "##holders": 6847,
      "honest": 6848,
      "Sprint": 6849,
      "analytics": 6850,
      "thousand": 6851,
      "finishing": 6852,
      "Clean": 6853,
      "Second": 6854,
      "genetics": 6855,
      "primarily": 6856,
      "##frame": 6857,
      "deploy": 6858,
      "Development": 6859,
      "ecosystem": 6860,
      "football": 6861,
      "panel": 6862,
      "innovative": 6863,
      "dollar": 6864,
      "fuel": 6865,
      "funds": 6866,
      "conventions": 6867,
      "upgrade": 6868,
      "container": 6869,
      "Linares": 6870,
      "administration": 6871,
      "Import": 6872,
      "##ographer": 6873,
      "Planning": 6874,
      "fragr": 6875,
      "victory": 6876,
      "concepts": 6877,
      "transportation": 6878,
      "patterns": 6879,
      "AND": 6880,
      "revenue": 6881,
      "revenues": 6882,
      "compensation": 6883,
      "Alternate": 6884,
      "acknowled": 6885,
      "sustainable": 6886,
      "Duration": 6887,
      "matches": 6888,
      "spacious": 6889,
      "opposite": 6890,
      "toilet": 6891,
      "inventory": 6892,
      "Republican": 6893,
      "harass": 6894,
      "defendant": 6895,
      "Published": 6896,
      "widely": 6897,
      "deposit": 6898,
      "disposal": 6899,
      "Utah": 6900,
      "citizens": 6901,
      "sacred": 6902,
      "paddock": 6903,
      "Follow": 6904,
      "Sometimes": 6905,
      "elegant": 6906,
      "Alaska": 6907,
      "Prerequisite": 6908,
      "circumst": 6909,
      "Oslo": 6910,
      "Supreme": 6911,
      "vertical": 6912,
      "trigger": 6913,
      "BirdCam": 6914,
      "Foundation": 6915,
      "Kathy": 6916,
      "neocons": 6917,
      "Bitcoin": 6918,
      "launched": 6919,
      "Houston": 6920,
      "Iraq": 6921,
      "%),": 6922,
      ".;": 6923,
      "09": 6924,
      "56": 6925,
      "98": 6926,
      "?”": 6927,
      "Aub": 6928,
      "Bay": 6929,
      "Both": 6930,
      "Cand": 6931,
      "Celebr": 6932,
      "Dü": 6933,
      "Dar": 6934,
      "Doc": 6935,
      "Dash": 6936,
      "Dumpsters": 6937,
      "Dubai": 6938,
      "Fis": 6939,
      "Form": 6940,
      "Gar": 6941,
      "Gree": 6942,
      "Having": 6943,
      "Ire": 6944,
      "Ide": 6945,
      "LA": 6946,
      "Latin": 6947,
      "Mat": 6948,
      "Moult": 6949,
      "Night": 6950,
      "Offic": 6951,
      "Pay": 6952,
      "Pop": 6953,
      "Pick": 6954,
      "Public": 6955,
      "RS": 6956,
      "Right": 6957,
      "Rail": 6958,
      "Rob": 6959,
      "Racing": 6960,
      "Ragin": 6961,
      "Rodeo": 6962,
      "Sa": 6963,
      "SH": 6964,
      "ST": 6965,
      "Sight": 6966,
      "Senger": 6967,
      "Tit": 6968,
      "Tro": 6969,
      "Tur": 6970,
      "UIM": 6971,
      "WM": 6972,
      "Would": 6973,
      "Yad": 6974,
      "bon": 6975,
      "bound": 6976,
      "boy": 6977,
      "bunch": 6978,
      "bench": 6979,
      "cater": 6980,
      "cuis": 6981,
      "dies": 6982,
      "eco": 6983,
      "elder": 6984,
      "ft": 6985,
      "fiber": 6986,
      "gall": 6987,
      "gite": 6988,
      "hes": 6989,
      "hers": 6990,
      "lake": 6991,
      "lane": 6992,
      "lift": 6993,
      "laugh": 6994,
      "mit": 6995,
      "nine": 6996,
      "named": 6997,
      "ok": 6998,
      "pit": 6999,
      "pill": 7000,
      "rat": 7001,
      "rot": 7002,
      "rust": 7003,
      "shed": 7004,
      "saving": 7005,
      "tact": 7006,
      "tables": 7007,
      "void": 7008,
      "venture": 7009,
      "wicket": 7010,
      "wrote": 7011,
      "yellow": 7012,
      "zip": 7013,
      "##iator": 7014,
      "##pat": 7015,
      "##pal": 7016,
      "##papers": 7017,
      "##lam": 7018,
      "##oj": 7019,
      "##eb": 7020,
      "##mo": 7021,
      "##comm": 7022,
      "##gra": 7023,
      "##gart": 7024,
      "##uing": 7025,
      "##yard": 7026,
      "##kins": 7027,
      "##UN": 7028,
      "##writ": 7029,
      "##warming": 7030,
      "##Bl": 7031,
      "##HR": 7032,
      "##WD": 7033,
      "##GB": 7034,
      "##CH": 7035,
      "##In": 7036,
      "##IR": 7037,
      "##FE": 7038,
      "##0s": 7039,
      "##Sc": 7040,
      "##EE": 7041,
      "##_err": 7042,
      "##69": 7043,
      "##jan": 7044,
      "##nda": 7045,
      "##orable": 7046,
      "##ouch": 7047,
      "##inger": 7048,
      "##itals": 7049,
      "##itoring": 7050,
      "tom": 7051,
      "##alm": 7052,
      "##arian": 7053,
      "##omas": 7054,
      "##asprintf": 7055,
      "thin": 7056,
      "##elle": 7057,
      "##stal": 7058,
      "##urious": 7059,
      "reun": 7060,
      "stated": 7061,
      "asp": 7062,
      "##ulu": 7063,
      "##ulin": 7064,
      "haven": 7065,
      "##oop": 7066,
      "##estic": 7067,
      "##ifts": 7068,
      "##usi": 7069,
      "##ushing": 7070,
      "##usively": 7071,
      "weak": 7072,
      "##isters": 7073,
      "##ivated": 7074,
      "deleg": 7075,
      "shy": 7076,
      "shut": 7077,
      "##osc": 7078,
      "enth": 7079,
      "usual": 7080,
      "Think": 7081,
      "compl": 7082,
      "##agues": 7083,
      "resource": 7084,
      "##ache": 7085,
      "contest": 7086,
      "leaf": 7087,
      "leaving": 7088,
      "##acks": 7089,
      "incur": 7090,
      "quilt": 7091,
      "##erved": 7092,
      "anywhere": 7093,
      "manually": 7094,
      "spread": 7095,
      "teaching": 7096,
      "Ital": 7097,
      "partnership": 7098,
      "##orship": 7099,
      "somewhere": 7100,
      "somewh": 7101,
      "agents": 7102,
      "aggress": 7103,
      "190": 7104,
      "recre": 7105,
      "colour": 7106,
      "experiments": 7107,
      "shouldn": 7108,
      "streng": 7109,
      "dram": 7110,
      "smile": 7111,
      "invited": 7112,
      "carbon": 7113,
      "persons": 7114,
      "decades": 7115,
      "basically": 7116,
      "studio": 7117,
      "mini": 7118,
      "Forest": 7119,
      "patience": 7120,
      "cheap": 7121,
      "cheese": 7122,
      "Advent": 7123,
      "attached": 7124,
      "##covery": 7125,
      "##chnau": 7126,
      "applicable": 7127,
      "readers": 7128,
      "presents": 7129,
      "profits": 7130,
      "Frank": 7131,
      "possibilities": 7132,
      "defined": 7133,
      "extensive": 7134,
      "surf": 7135,
      "keeps": 7136,
      "booking": 7137,
      "vari": 7138,
      "feelings": 7139,
      "accessories": 7140,
      "viewers": 7141,
      "happiness": 7142,
      "artists": 7143,
      "articles": 7144,
      "Margar": 7145,
      "##tones": 7146,
      "estimate": 7147,
      "statements": 7148,
      "learned": 7149,
      "checks": 7150,
      "operate": 7151,
      "stories": 7152,
      "positions": 7153,
      "entered": 7154,
      "1995": 7155,
      "1994": 7156,
      "connecting": 7157,
      "species": 7158,
      "parent": 7159,
      "effectively": 7160,
      "##oking": 7161,
      "responses": 7162,
      "Lead": 7163,
      "safely": 7164,
      "lessons": 7165,
      "Canadian": 7166,
      "##arsh": 7167,
      "packing": 7168,
      "reporting": 7169,
      "airport": 7170,
      "##ospel": 7171,
      "occurs": 7172,
      "employment": 7173,
      "installation": 7174,
      "damages": 7175,
      "lapt": 7176,
      "picks": 7177,
      "Join": 7178,
      "diabetes": 7179,
      "Does": 7180,
      "versions": 7181,
      "consuming": 7182,
      "consumption": 7183,
      "bringing": 7184,
      "explains": 7185,
      "likes": 7186,
      "newspaper": 7187,
      "indeed": 7188,
      "linked": 7189,
      "trading": 7190,
      "participation": 7191,
      "touches": 7192,
      "Quarter": 7193,
      "bedrooms": 7194,
      "Peoples": 7195,
      "portion": 7196,
      "represents": 7197,
      "Added": 7198,
      "##ART": 7199,
      "Remember": 7200,
      "district": 7201,
      "updates": 7202,
      "##ographic": 7203,
      "reduced": 7204,
      "Peter": 7205,
      "machines": 7206,
      "wooden": 7207,
      "absor": 7208,
      "clearly": 7209,
      "definition": 7210,
      "reference": 7211,
      "referred": 7212,
      "displayed": 7213,
      "officer": 7214,
      "Brok": 7215,
      "balloons": 7216,
      "sending": 7217,
      "cooling": 7218,
      "replaced": 7219,
      "Westville": 7220,
      "fixed": 7221,
      "##onym": 7222,
      "negot": 7223,
      "captured": 7224,
      "layer": 7225,
      "layout": 7226,
      "Works": 7227,
      "golden": 7228,
      "##ENT": 7229,
      "Ellis": 7230,
      "agreements": 7231,
      "balanced": 7232,
      "convenient": 7233,
      "acquire": 7234,
      "promotion": 7235,
      "introduction": 7236,
      "revolution": 7237,
      "assessment": 7238,
      "Using": 7239,
      "##IDGES": 7240,
      "upgraded": 7241,
      "exclusive": 7242,
      "strategic": 7243,
      "Lincol": 7244,
      "Designs": 7245,
      "virtually": 7246,
      "debt": 7247,
      "carrying": 7248,
      "announced": 7249,
      "solely": 7250,
      "Indeed": 7251,
      "confirmed": 7252,
      "Krist": 7253,
      "##sembly": 7254,
      "Conflict": 7255,
      "Oakridge": 7256,
      "earnings": 7257,
      "shooting": 7258,
      "Easy": 7259,
      "Eastern": 7260,
      "ceiling": 7261,
      "predict": 7262,
      "emphasis": 7263,
      "Valley": 7264,
      "laboratory": 7265,
      "spectrum": 7266,
      "transactions": 7267,
      "Representative": 7268,
      "bodies": 7269,
      "Traders": 7270,
      "refreshing": 7271,
      "BRIDGES": 7272,
      "Motor": 7273,
      "complicated": 7274,
      "surprised": 7275,
      "cycling": 7276,
      "Victoria": 7277,
      "CPU": 7278,
      "Denali": 7279,
      "LOVE": 7280,
      "Standard": 7281,
      "Support": 7282,
      "interpret": 7283,
      "opinion": 7284,
      "publishing": 7285,
      "adoption": 7286,
      "RCB": 7287,
      "Welcome": 7288,
      "gym": 7289,
      "mascot": 7290,
      "guarantee": 7291,
      "favourite": 7292,
      "Virginia": 7293,
      "Democrats": 7294,
      "Digital": 7295,
      "lobby": 7296,
      "impossible": 7297,
      "Industries": 7298,
      "Realtors": 7299,
      "Rhea": 7300,
      "rapid": 7301,
      "Beverly": 7302,
      "EMR": 7303,
      "ingredients": 7304,
      "unexpected": 7305,
      "portfolio": 7306,
      "circumstances": 7307,
      "Ireland": 7308,
      "Moultrie": 7309,
      "Yadav": 7310,
      "herself": 7311,
      "somewhat": 7312,
      "strengt": 7313,
      "Margaret": 7314,
      "Lincoln": 7315,
      "%.": 7316,
      "'.": 7317,
      "($": 7318,
      "02": 7319,
      "04": 7320,
      "47": 7321,
      "62": 7322,
      "64": 7323,
      "88": 7324,
      "86": 7325,
      "84": 7326,
      "AD": 7327,
      "AP": 7328,
      "ALD": 7329,
      "Bi": 7330,
      "Bes": 7331,
      "Bart": 7332,
      "Bush": 7333,
      "CC": 7334,
      "Cre": 7335,
      "Cross": 7336,
      "Craft": 7337,
      "DO": 7338,
      "Diet": 7339,
      "Dining": 7340,
      "Drop": 7341,
      "Es": 7342,
      "Eth": 7343,
      "Fa": 7344,
      "Fab": 7345,
      "FICO": 7346,
      "Gables": 7347,
      "Hon": 7348,
      "Hat": 7349,
      "Hen": 7350,
      "Hard": 7351,
      "Hand": 7352,
      "Hosp": 7353,
      "Jour": 7354,
      "Joy": 7355,
      "Kn": 7356,
      "Les": 7357,
      "Mir": 7358,
      "Mun": 7359,
      "Matt": 7360,
      "Nat": 7361,
      "Nations": 7362,
      "Nok": 7363,
      "Nature": 7364,
      "Ont": 7365,
      "PT": 7366,
      "Pas": 7367,
      "Pink": 7368,
      "Person": 7369,
      "Rol": 7370,
      "Rac": 7371,
      "Rock": 7372,
      "Sar": 7373,
      "Set": 7374,
      "SER": 7375,
      "Ton": 7376,
      "Tor": 7377,
      "Tell": 7378,
      "Treat": 7379,
      "Tri": 7380,
      "Tamarind": 7381,
      "Um": 7382,
      "UP": 7383,
      "Ves": 7384,
      "Ven": 7385,
      "Vis": 7386,
      "Very": 7387,
      "Wil": 7388,
      "Way": 7389,
      "apart": 7390,
      "bat": 7391,
      "bag": 7392,
      "bite": 7393,
      "cos": 7394,
      "cop": 7395,
      "cott": 7396,
      "cogn": 7397,
      "dy": 7398,
      "divid": 7399,
      "fell": 7400,
      "fade": 7401,
      "flying": 7402,
      "god": 7403,
      "hole": 7404,
      "km": 7405,
      "kit": 7406,
      "lg": 7407,
      "lon": 7408,
      "lies": 7409,
      "losing": 7410,
      "mel": 7411,
      "mort": 7412,
      "mall": 7413,
      "mand": 7414,
      "mole": 7415,
      "northern": 7416,
      "roles": 7417,
      "rule": 7418,
      "sour": 7419,
      "tag": 7420,
      "tickets": 7421,
      "tamarind": 7422,
      "uk": 7423,
      "vel": 7424,
      "vary": 7425,
      "wing": 7426,
      "wires": 7427,
      "wickets": 7428,
      "##pact": 7429,
      "##point": 7430,
      "##list": 7431,
      "##los": 7432,
      "##life": 7433,
      "##oa": 7434,
      "##eat": 7435,
      "##my": 7436,
      "##cher": 7437,
      "##cats": 7438,
      "##cceed": 7439,
      "##gor": 7440,
      "##gen": 7441,
      "##gate": 7442,
      "##ucc": 7443,
      "##uits": 7444,
      "##file": 7445,
      "##hicle": 7446,
      "##bour": 7447,
      "##Bank": 7448,
      "##GA": 7449,
      "##Press": 7450,
      "##joy": 7451,
      "##YO": 7452,
      "##inar": 7453,
      "##inis": 7454,
      "##inate": 7455,
      "therapeutic": 7456,
      "##onna": 7457,
      "##org": 7458,
      "##edy": 7459,
      "##edar": 7460,
      "##edia": 7461,
      "##itz": 7462,
      "toward": 7463,
      "tooth": 7464,
      "##alse": 7465,
      "ine": 7466,
      "##repr": 7467,
      "##isan": 7468,
      "##omat": 7469,
      "##lequ": 7470,
      "##rodu": 7471,
      "ongoing": 7472,
      "beam": 7473,
      "begins": 7474,
      "reform": 7475,
      "##utral": 7476,
      "##oted": 7477,
      "##aymore": 7478,
      "##charge": 7479,
      "##adly": 7480,
      "##amental": 7481,
      "stations": 7482,
      "stones": 7483,
      "prop": 7484,
      "prove": 7485,
      "##vere": 7486,
      "##tered": 7487,
      "whom": 7488,
      "yours": 7489,
      "##akh": 7490,
      "expression": 7491,
      "##uner": 7492,
      "##pection": 7493,
      "##pends": 7494,
      "##emp": 7495,
      "depends": 7496,
      "succeed": 7497,
      "shine": 7498,
      "##osha": 7499,
      "choosing": 7500,
      "enables": 7501,
      "##uder": 7502,
      "##andon": 7503,
      "##andom": 7504,
      "##andel": 7505,
      "##quir": 7506,
      "pricing": 7507,
      "heav": 7508,
      "hasn": 7509,
      "hass": 7510,
      "##agon": 7511,
      "##agine": 7512,
      "doors": 7513,
      "##ibl": 7514,
      "context": 7515,
      "leather": 7516,
      "outcome": 7517,
      "##ailing": 7518,
      "##ikes": 7519,
      "inches": 7520,
      "##mph": 7521,
      "intel": 7522,
      "##active": 7523,
      "quinoa": 7524,
      "anyway": 7525,
      "##ogue": 7526,
      "Stone": 7527,
      "mystery": 7528,
      "##ferences": 7529,
      "dismiss": 7530,
      "disabilities": 7531,
      "dispute": 7532,
      "tea": 7533,
      "##ulty": 7534,
      "unp": 7535,
      "unable": 7536,
      "preced": 7537,
      "committee": 7538,
      "##plays": 7539,
      "agencies": 7540,
      "offline": 7541,
      "scall": 7542,
      "scope": 7543,
      "##owned": 7544,
      "mostly": 7545,
      "supplement": 7546,
      "twice": 7547,
      "blank": 7548,
      "relatively": 7549,
      "symbol": 7550,
      "greatly": 7551,
      "undert": 7552,
      "backyard": 7553,
      "Anderson": 7554,
      "kept": 7555,
      "keys": 7556,
      "academ": 7557,
      "instruction": 7558,
      "##rolog": 7559,
      "believed": 7560,
      "designing": 7561,
      "processor": 7562,
      "detection": 7563,
      "bridge": 7564,
      "effici": 7565,
      "inspection": 7566,
      "monitoring": 7567,
      "applicant": 7568,
      "prescrib": 7569,
      "Prom": 7570,
      "granted": 7571,
      "##aza": 7572,
      "publis": 7573,
      "supporters": 7574,
      "deficiency": 7575,
      "handy": 7576,
      "formal": 7577,
      "2001": 7578,
      "survey": 7579,
      "Enjoy": 7580,
      "beds": 7581,
      "organisation": 7582,
      "headqu": 7583,
      "passport": 7584,
      "generous": 7585,
      "Whenever": 7586,
      "viewer": 7587,
      "Autism": 7588,
      "mainly": 7589,
      "lasting": 7590,
      "Claim": 7591,
      "Cloud": 7592,
      "Claymore": 7593,
      "controller": 7594,
      "Mars": 7595,
      "Shop": 7596,
      "Should": 7597,
      "Allah": 7598,
      "confident": 7599,
      "Sports": 7600,
      "checked": 7601,
      "bread": 7602,
      "importantly": 7603,
      "reception": 7604,
      "enjoys": 7605,
      "enterprises": 7606,
      "Country": 7607,
      "moves": 7608,
      "factory": 7609,
      "engra": 7610,
      "muscles": 7611,
      "buildings": 7612,
      "Appro": 7613,
      "presentations": 7614,
      "##verse": 7615,
      "capability": 7616,
      "Phili": 7617,
      "painted": 7618,
      "faces": 7619,
      "facing": 7620,
      "facil": 7621,
      "##ESS": 7622,
      "reviewed": 7623,
      "prototy": 7624,
      "Control": 7625,
      "limits": 7626,
      "housewarming": 7627,
      "increased": 7628,
      "focusing": 7629,
      "stylish": 7630,
      "Amanda": 7631,
      "saying": 7632,
      "employer": 7633,
      "installing": 7634,
      "Need": 7635,
      "Neolithic": 7636,
      "##iveness": 7637,
      "##ronics": 7638,
      "construct": 7639,
      "picking": 7640,
      "practical": 7641,
      "##compass": 7642,
      "joining": 7643,
      "superb": 7644,
      "trees": 7645,
      "histor": 7646,
      "concerts": 7647,
      "reasonable": 7648,
      "preparing": 7649,
      "buyers": 7650,
      "celebrity": 7651,
      "celebrated": 7652,
      "Studios": 7653,
      "##ERE": 7654,
      "Quest": 7655,
      "cookie": 7656,
      "tablets": 7657,
      "hotel": 7658,
      "Despite": 7659,
      "regardless": 7660,
      "Feel": 7661,
      "educational": 7662,
      "collecting": 7663,
      "involve": 7664,
      "involves": 7665,
      "hosts": 7666,
      "commonly": 7667,
      "authorities": 7668,
      "fallen": 7669,
      "##alius": 7670,
      "contracts": 7671,
      "recorded": 7672,
      "Additionally": 7673,
      "hyper": 7674,
      "Guard": 7675,
      "distinct": 7676,
      "Petros": 7677,
      "!!!": 7678,
      "totally": 7679,
      "towing": 7680,
      "smartphones": 7681,
      "Twitter": 7682,
      "ballot": 7683,
      "renowned": 7684,
      "warrant": 7685,
      "amounts": 7686,
      "representing": 7687,
      "Makefile": 7688,
      "walls": 7689,
      "1989": 7690,
      "Drive": 7691,
      "ITV": 7692,
      "examples": 7693,
      "Abb": 7694,
      "fabulous": 7695,
      "Everyone": 7696,
      "targets": 7697,
      "conversations": 7698,
      "preferred": 7699,
      "priority": 7700,
      "obtained": 7701,
      "illness": 7702,
      "McL": 7703,
      "houses": 7704,
      "silence": 7705,
      "solve": 7706,
      "engineering": 7707,
      "votes": 7708,
      "graphic": 7709,
      "maxim": 7710,
      "implemented": 7711,
      "awarded": 7712,
      "##front": 7713,
      "broker": 7714,
      "measurement": 7715,
      "Academ": 7716,
      "depth": 7717,
      "Angus": 7718,
      "flexible": 7719,
      "evaluation": 7720,
      "evaluate": 7721,
      "injury": 7722,
      "bathrooms": 7723,
      "Palm": 7724,
      "Associate": 7725,
      "exclusively": 7726,
      "suggested": 7727,
      "##IGH": 7728,
      "reservation": 7729,
      "behavi": 7730,
      "folder": 7731,
      "administr": 7732,
      "architect": 7733,
      "SoftBank": 7734,
      "troubled": 7735,
      "Berlin": 7736,
      "Volunte": 7737,
      "assigned": 7738,
      "continuing": 7739,
      "continuous": 7740,
      "scientists": 7741,
      "ultimate": 7742,
      "suffering": 7743,
      "occasions": 7744,
      "satisfaction": 7745,
      "Topics": 7746,
      "##missions": 7747,
      "athlete": 7748,
      "Career": 7749,
      "Mainframe": 7750,
      "reaction": 7751,
      "ACM": 7752,
      "Cinema": 7753,
      "merch": 7754,
      "channels": 7755,
      "industries": 7756,
      "opposition": 7757,
      "Genpact": 7758,
      "toilets": 7759,
      "191AA": 7760,
      "initiatives": 7761,
      "pushed": 7762,
      "Vehicle": 7763,
      "Applications": 7764,
      "CHE": 7765,
      "Certified": 7766,
      "Help": 7767,
      "Kingdom": 7768,
      "Learn": 7769,
      "Rauner": 7770,
      "tonight": 7771,
      "Ghana": 7772,
      "Women": 7773,
      "mistake": 7774,
      "Russia": 7775,
      "walks": 7776,
      "procuring": 7777,
      "exposure": 7778,
      "repeat": 7779,
      "consequences": 7780,
      "Insurance": 7781,
      "Advanced": 7782,
      "entrance": 7783,
      "Family": 7784,
      "Movie": 7785,
      "fifty": 7786,
      "protein": 7787,
      "Fellowship": 7788,
      "downtown": 7789,
      "slices": 7790,
      "accordance": 7791,
      "Children": 7792,
      "vendor": 7793,
      "Diego": 7794,
      "SANYO": 7795,
      "Tahlequ": 7796,
      "adequ": 7797,
      "script": 7798,
      "museum": 7799,
      "lifestyle": 7800,
      "cuisine": 7801,
      "tomorrow": 7802,
      "reunion": 7803,
      "enthusi": 7804,
      "Italian": 7805,
      "strengthen": 7806,
      "ALDI": 7807,
      "Nokia": 7808,
      "Ontario": 7809,
      "Vesalius": 7810,
      "Philipp": 7811,
      "Petrosian": 7812,
      "Tahlequah": 7813,
      ".)": 7814,
      "05": 7815,
      "03": 7816,
      "334": 7817,
      "3rd": 7818,
      "43": 7819,
      "400": 7820,
      "59": 7821,
      "61": 7822,
      "600": 7823,
      "7s": 7824,
      "73": 7825,
      "85": 7826,
      "9th": 7827,
      "Ap": 7828,
      "AT": 7829,
      "AV": 7830,
      "Aven": 7831,
      "BP": 7832,
      "Bir": 7833,
      "Bun": 7834,
      "Blow": 7835,
      "Bath": 7836,
      "Based": 7837,
      "BBC": 7838,
      "CF": 7839,
      "Cou": 7840,
      "Cro": 7841,
      "Cow": 7842,
      "Cam": 7843,
      "Cast": 7844,
      "Canc": 7845,
      "Crew": 7846,
      "CICO": 7847,
      "Cedar": 7848,
      "DC": 7849,
      "Det": 7850,
      "Due": 7851,
      "Dunk": 7852,
      "Er": 7853,
      "EC": 7854,
      "EX": 7855,
      "Equ": 7856,
      "East": 7857,
      "Elis": 7858,
      "Ell": 7859,
      "Econom": 7860,
      "Ful": 7861,
      "Fun": 7862,
      "Fast": 7863,
      "Fair": 7864,
      "Girl": 7865,
      "Gerald": 7866,
      "Haw": 7867,
      "Honey": 7868,
      "Herald": 7869,
      "Honda": 7870,
      "Imm": 7871,
      "Jü": 7872,
      "Jul": 7873,
      "Jord": 7874,
      "KX": 7875,
      "Kit": 7876,
      "Kore": 7877,
      "Kav": 7878,
      "Kock": 7879,
      "Lou": 7880,
      "Log": 7881,
      "Lady": 7882,
      "Ma": 7883,
      "MS": 7884,
      "MX": 7885,
      "Mid": 7886,
      "Mem": 7887,
      "MOS": 7888,
      "Manche": 7889,
      "NE": 7890,
      "Nor": 7891,
      "Northern": 7892,
      "Oft": 7893,
      "Pen": 7894,
      "Pack": 7895,
      "Point": 7896,
      "Pair": 7897,
      "Pict": 7898,
      "Pope": 7899,
      "RA": 7900,
      "Rom": 7901,
      "Ray": 7902,
      "Rangers": 7903,
      "SE": 7904,
      "Son": 7905,
      "Sem": 7906,
      "Sand": 7907,
      "Site": 7908,
      "Search": 7909,
      "Saf": 7910,
      "Schnau": 7911,
      "TX": 7912,
      "Tim": 7913,
      "Term": 7914,
      "Ur": 7915,
      "Ver": 7916,
      "WH": 7917,
      "Woo": 7918,
      "Want": 7919,
      "Wall": 7920,
      "Writ": 7921,
      "blow": 7922,
      "bats": 7923,
      "baked": 7924,
      "bamboo": 7925,
      "cher": 7926,
      "caly": 7927,
      "codes": 7928,
      "caught": 7929,
      "civil": 7930,
      "cooper": 7931,
      "died": 7932,
      "dating": 7933,
      "dietary": 7934,
      "ebooks": 7935,
      "fles": 7936,
      "gh": 7937,
      "gent": 7938,
      "grew": 7939,
      "giant": 7940,
      "jack": 7941,
      "junior": 7942,
      "liber": 7943,
      "mo": 7944,
      "mile": 7945,
      "nor": 7946,
      "native": 7947,
      "por": 7948,
      "pure": 7949,
      "pile": 7950,
      "pup": 7951,
      "rating": 7952,
      "sample": 7953,
      "sides": 7954,
      "soph": 7955,
      "till": 7956,
      "tun": 7957,
      "vital": 7958,
      "vacation": 7959,
      "wise": 7960,
      "wool": 7961,
      "wrap": 7962,
      "”)": 7963,
      "”,": 7964,
      "##tra": 7965,
      "##ris": 7966,
      "##rive": 7967,
      "##rite": 7968,
      "##rens": 7969,
      "##rnam": 7970,
      "##pg": 7971,
      "##lich": 7972,
      "##like": 7973,
      "##oen": 7974,
      "##oaff": 7975,
      "##don": 7976,
      "##dess": 7977,
      "##mos": 7978,
      "##mistry": 7979,
      "##nic": 7980,
      "##nel": 7981,
      "##name": 7982,
      "##cure": 7983,
      "##cular": 7984,
      "##uct": 7985,
      "##upp": 7986,
      "##ship": 7987,
      "##fo": 7988,
      "##fish": 7989,
      "##father": 7990,
      "##yer": 7991,
      "##kele": 7992,
      "##hin": 7993,
      "##hroom": 7994,
      "##hoot": 7995,
      "##bool": 7996,
      "##va": 7997,
      "##vis": 7998,
      "##UR": 7999,
      "##wear": 8000,
      "##zan": 8001,
      "##LA": 8002,
      "##5b": 8003,
      "##FET": 8004,
      "##16": 8005,
      "##MP": 8006,
      "##jud": 8007,
      "##inav": 8008,
      "##eria": 8009,
      "##ndry": 8010,
      "##orce": 8011,
      "##oub": 8012,
      "##itry": 8013,
      "##alle": 8014,
      "##arp": 8015,
      "inse": 8016,
      "inject": 8017,
      "##reement": 8018,
      "##isition": 8019,
      "##ico": 8020,
      "##ione": 8021,
      "##omer": 8022,
      "##lec": 8023,
      "##asers": 8024,
      "##etry": 8025,
      "##stone": 8026,
      "##style": 8027,
      "rect": 8028,
      "##uther": 8029,
      "##oting": 8030,
      "##iders": 8031,
      "##ceal": 8032,
      "##igraph": 8033,
      "##olved": 8034,
      "stands": 8035,
      "stability": 8036,
      "stars": 8037,
      "stead": 8038,
      "##secut": 8039,
      "prox": 8040,
      "procl": 8041,
      "##ims": 8042,
      "ang": 8043,
      "anime": 8044,
      "alarm": 8045,
      "##ula": 8046,
      "##uls": 8047,
      "ornam": 8048,
      "concent": 8049,
      "##tery": 8050,
      "##raid": 8051,
      "##raising": 8052,
      "##abil": 8053,
      "##abakh": 8054,
      "##ested": 8055,
      "attain": 8056,
      "##usal": 8057,
      "exch": 8058,
      "exists": 8059,
      "exec": 8060,
      "execut": 8061,
      "##unal": 8062,
      "##eman": 8063,
      "sequ": 8064,
      "dele": 8065,
      "depend": 8066,
      "degre": 8067,
      "shares": 8068,
      "washing": 8069,
      "##ander": 8070,
      "##andinav": 8071,
      "sovere": 8072,
      "abide": 8073,
      "abandon": 8074,
      "Thomas": 8075,
      "compress": 8076,
      "comparing": 8077,
      "##inds": 8078,
      "##inding": 8079,
      "resumes": 8080,
      "##pton": 8081,
      "##ptide": 8082,
      "##ormons": 8083,
      "lease": 8084,
      "##izabet": 8085,
      "incom": 8086,
      "##mpic": 8087,
      "queen": 8088,
      "quote": 8089,
      "Stan": 8090,
      "Station": 8091,
      "Starb": 8092,
      "disse": 8093,
      "discipl": 8094,
      "teach": 8095,
      "evolution": 8096,
      "##berts": 8097,
      "partners": 8098,
      "arts": 8099,
      "Chall": 8100,
      "##ints": 8101,
      "##aux": 8102,
      "roots": 8103,
      "knows": 8104,
      "Allec": 8105,
      "scr": 8106,
      "##anges": 8107,
      "##oven": 8108,
      "##oval": 8109,
      "indic": 8110,
      "##ocal": 8111,
      "##ocado": 8112,
      "pharm": 8113,
      "coal": 8114,
      "coast": 8115,
      "bug": 8116,
      "supplements": 8117,
      "Analysis": 8118,
      "actively": 8119,
      "setup": 8120,
      "highway": 8121,
      "syn": 8122,
      "synt": 8123,
      "Coming": 8124,
      "smell": 8125,
      "carried": 8126,
      "decade": 8127,
      "avocado": 8128,
      "Seattle": 8129,
      "Heaven": 8130,
      "##ancis": 8131,
      "transpar": 8132,
      "financing": 8133,
      "belief": 8134,
      "patio": 8135,
      "assume": 8136,
      "crew": 8137,
      "processed": 8138,
      "donations": 8139,
      "advent": 8140,
      "Proper": 8141,
      "Project": 8142,
      "brass": 8143,
      "efficiency": 8144,
      "##coon": 8145,
      "inspect": 8146,
      "insulin": 8147,
      "developments": 8148,
      "lists": 8149,
      "retreat": 8150,
      "counties": 8151,
      "Press": 8152,
      "Fresh": 8153,
      "customize": 8154,
      "grip": 8155,
      "grass": 8156,
      "Univers": 8157,
      "##plete": 8158,
      "##iversary": 8159,
      "##ahy": 8160,
      "modify": 8161,
      "topics": 8162,
      "possess": 8163,
      "possibility": 8164,
      "defic": 8165,
      "formed": 8166,
      "Index": 8167,
      "surprise": 8168,
      "Enh": 8169,
      "Enter": 8170,
      "Environment": 8171,
      "Scandinav": 8172,
      "boot": 8173,
      "organic": 8174,
      "varied": 8175,
      "flavor": 8176,
      "follows": 8177,
      "Trust": 8178,
      "Trish": 8179,
      "signals": 8180,
      "Expl": 8181,
      "surely": 8182,
      "oblig": 8183,
      "unto": 8184,
      "controls": 8185,
      "Margery": 8186,
      "Shield": 8187,
      "Spoon": 8188,
      "opera": 8189,
      "refuse": 8190,
      "1990": 8191,
      "causing": 8192,
      "letters": 8193,
      "equal": 8194,
      "equation": 8195,
      "factor": 8196,
      "promise": 8197,
      "USB": 8198,
      "engaged": 8199,
      "consideration": 8200,
      "crime": 8201,
      "expans": 8202,
      "League": 8203,
      "Leahy": 8204,
      "##ucks": 8205,
      "salad": 8206,
      "caps": 8207,
      "senses": 8208,
      "Islam": 8209,
      "standing": 8210,
      "Blog": 8211,
      "11th": 8212,
      "edited": 8213,
      "##hereum": 8214,
      "investing": 8215,
      "investigation": 8216,
      "naturally": 8217,
      "##alympic": 8218,
      "packed": 8219,
      "Bring": 8220,
      "##lights": 8221,
      "Partners": 8222,
      "##icially": 8223,
      "clicks": 8224,
      "185": 8225,
      "Maybe": 8226,
      "focuses": 8227,
      "legit": 8228,
      "necessarily": 8229,
      "employed": 8230,
      "Trail": 8231,
      "picked": 8232,
      "Councilm": 8233,
      "##fortunately": 8234,
      "severe": 8235,
      "testing": 8236,
      "tested": 8237,
      "explain": 8238,
      "potentially": 8239,
      "compete": 8240,
      "appears": 8241,
      "appearing": 8242,
      "newslet": 8243,
      "Patel": 8244,
      "##ernel": 8245,
      "returns": 8246,
      "calm": 8247,
      "Quick": 8248,
      "agenda": 8249,
      "##retch": 8250,
      "Steve": 8251,
      "Room": 8252,
      "Robert": 8253,
      "Roberts": 8254,
      "cycle": 8255,
      "hotels": 8256,
      "closing": 8257,
      "Paralympic": 8258,
      "missed": 8259,
      "tournament": 8260,
      "tracks": 8261,
      "GPCA": 8262,
      "##psin": 8263,
      "##inois": 8264,
      "Disorder": 8265,
      "breaks": 8266,
      "floors": 8267,
      "vanities": 8268,
      "contractor": 8269,
      "identification": 8270,
      "fundamental": 8271,
      "prints": 8272,
      "printing": 8273,
      "printable": 8274,
      "Removed": 8275,
      "Removal": 8276,
      "holds": 8277,
      "urban": 8278,
      "reaching": 8279,
      "fasting": 8280,
      "references": 8281,
      "premier": 8282,
      "nutri": 8283,
      "renting": 8284,
      "warning": 8285,
      "scheme": 8286,
      "Integr": 8287,
      "ringtones": 8288,
      "statistics": 8289,
      "capture": 8290,
      "protected": 8291,
      "figured": 8292,
      "sixth": 8293,
      "completion": 8294,
      "inspiration": 8295,
      "Working": 8296,
      "motion": 8297,
      "##holder": 8298,
      "subscrib": 8299,
      "politics": 8300,
      "correctly": 8301,
      "honor": 8302,
      "miles": 8303,
      "Edin": 8304,
      "Perhaps": 8305,
      "analyze": 8306,
      "Elizabet": 8307,
      "settlement": 8308,
      "corporations": 8309,
      "knock": 8310,
      "encouraged": 8311,
      "raise": 8312,
      "##odeling": 8313,
      "trailer": 8314,
      "Secret": 8315,
      "acquisition": 8316,
      "conditioning": 8317,
      "657": 8318,
      "OCHR": 8319,
      "applies": 8320,
      "##presso": 8321,
      "emotions": 8322,
      "Imagine": 8323,
      "pleasure": 8324,
      "peaceful": 8325,
      "candidates": 8326,
      "NOT": 8327,
      "plugin": 8328,
      "passionate": 8329,
      "workshops": 8330,
      "templates": 8331,
      "pulled": 8332,
      "square": 8333,
      "##burg": 8334,
      "##burgh": 8335,
      "contribute": 8336,
      "robust": 8337,
      "absolute": 8338,
      "Soundproof": 8339,
      "##amentals": 8340,
      "suffer": 8341,
      "transformed": 8342,
      "manufacturers": 8343,
      "Winter": 8344,
      "birthday": 8345,
      "Annual": 8346,
      "confirm": 8347,
      "garage": 8348,
      "ranking": 8349,
      "ranked": 8350,
      "##quez": 8351,
      "YOUR": 8352,
      "scenario": 8353,
      "detected": 8354,
      "Harvard": 8355,
      "comprom": 8356,
      "Holy": 8357,
      "Classic": 8358,
      "Affiliates": 8359,
      "Karabakh": 8360,
      "SUMO": 8361,
      "pushing": 8362,
      "obviously": 8363,
      "expanded": 8364,
      "Ethereum": 8365,
      "globe": 8366,
      "revealed": 8367,
      "advertisers": 8368,
      "collaboration": 8369,
      "incorporate": 8370,
      "Creative": 8371,
      "Opera": 8372,
      "extended": 8373,
      "sexual": 8374,
      "universities": 8375,
      "Experience": 8376,
      "glittery": 8377,
      "doubt": 8378,
      "Clearview": 8379,
      "Camera": 8380,
      "crisp": 8381,
      "editorial": 8382,
      "increasingly": 8383,
      "WordPress": 8384,
      "covers": 8385,
      "Consultant": 8386,
      "SMG": 8387,
      "breath": 8388,
      "cluster": 8389,
      "magazine": 8390,
      "suspension": 8391,
      "athletes": 8392,
      "html": 8393,
      "pregnancy": 8394,
      "Professional": 8395,
      "substantial": 8396,
      "Illinois": 8397,
      "gestures": 8398,
      "thoroughly": 8399,
      "strugg": 8400,
      "anatomy": 8401,
      "disappoint": 8402,
      "WILL": 8403,
      "afraid": 8404,
      "stunning": 8405,
      "believes": 8406,
      "Stefon": 8407,
      "acknowledged": 8408,
      "harassment": 8409,
      "neoconserv": 8410,
      "elderly": 8411,
      "mitig": 8412,
      "Besides": 8413,
      "Dropbox": 8414,
      "Journal": 8415,
      "Raccoon": 8416,
      "Umesh": 8417,
      "dynam": 8418,
      "hassle": 8419,
      "intellect": 8420,
      "scallops": 8421,
      "Questions": 8422,
      "McLean": 8423,
      "merchand": 8424,
      "BPH": 8425,
      "CICOA": 8426,
      "Dunkin": 8427,
      "Elisabet": 8428,
      "Jülich": 8429,
      "Jordan": 8430,
      "KXIP": 8431,
      "Manchester": 8432,
      "Often": 8433,
      "calyceal": 8434,
      "##rnambool": 8435,
      "##itrypsin": 8436,
      "sequence": 8437,
      "degrees": 8438,
      "Scandinavian": 8439,
      "Elizabeth": 8440,
      "!\"": 8441,
      "%)": 8442,
      "',": 8443,
      "*.": 8444,
      "**": 8445,
      "07": 8446,
      "77": 8447,
      "720": 8448,
      "800": 8449,
      "94": 8450,
      "Award": 8451,
      "ALL": 8452,
      "BM": 8453,
      "Bal": 8454,
      "Bet": 8455,
      "Bul": 8456,
      "Bab": 8457,
      "Ball": 8458,
      "Bible": 8459,
      "Bamboo": 8460,
      "Bangal": 8461,
      "Bibl": 8462,
      "Cord": 8463,
      "DI": 8464,
      "Dell": 8465,
      "Dale": 8466,
      "Daily": 8467,
      "Emp": 8468,
      "FI": 8469,
      "Fitness": 8470,
      "Festival": 8471,
      "GO": 8472,
      "GA": 8473,
      "Gre": 8474,
      "Giv": 8475,
      "Hate": 8476,
      "Hills": 8477,
      "HERE": 8478,
      "Jer": 8479,
      "Jac": 8480,
      "Junior": 8481,
      "Kings": 8482,
      "Kids": 8483,
      "Lic": 8484,
      "Lep": 8485,
      "Lux": 8486,
      "Lucky": 8487,
      "MD": 8488,
      "ME": 8489,
      "Mess": 8490,
      "Mart": 8491,
      "Mand": 8492,
      "Mount": 8493,
      "Mont": 8494,
      "Mission": 8495,
      "Middle": 8496,
      "Navy": 8497,
      "Okl": 8498,
      "OEM": 8499,
      "Pos": 8500,
      "Pump": 8501,
      "Rav": 8502,
      "Rub": 8503,
      "REC": 8504,
      "Sug": 8505,
      "Sony": 8506,
      "Sabb": 8507,
      "Tel": 8508,
      "Tay": 8509,
      "Tower": 8510,
      "Turn": 8511,
      "Together": 8512,
      "Vas": 8513,
      "Vill": 8514,
      "Vene": 8515,
      "Wi": 8516,
      "Zy": 8517,
      "Zeal": 8518,
      "ax": 8519,
      "blo": 8520,
      "bomb": 8521,
      "browse": 8522,
      "cul": 8523,
      "cities": 8524,
      "cute": 8525,
      "cables": 8526,
      "dict": 8527,
      "dumpsters": 8528,
      "density": 8529,
      "elev": 8530,
      "euro": 8531,
      "fly": 8532,
      "fake": 8533,
      "fitted": 8534,
      "fellow": 8535,
      "gn": 8536,
      "golf": 8537,
      "gardens": 8538,
      "ham": 8539,
      "hang": 8540,
      "harb": 8541,
      "iob": 8542,
      "iOS": 8543,
      "junction": 8544,
      "king": 8545,
      "lip": 8546,
      "luck": 8547,
      "lemon": 8548,
      "liquid": 8549,
      "liability": 8550,
      "mk": 8551,
      "mut": 8552,
      "mild": 8553,
      "male": 8554,
      "misc": 8555,
      "nar": 8556,
      "nom": 8557,
      "nerv": 8558,
      "names": 8559,
      "pip": 8560,
      "papers": 8561,
      "pixel": 8562,
      "pounds": 8563,
      "pizza": 8564,
      "rom": 8565,
      "rice": 8566,
      "ranks": 8567,
      "random": 8568,
      "sid": 8569,
      "southern": 8570,
      "tion": 8571,
      "tent": 8572,
      "tap": 8573,
      "tub": 8574,
      "tours": 8575,
      "vul": 8576,
      "vill": 8577,
      "wra": 8578,
      "wata": 8579,
      "wife": 8580,
      "zone": 8581,
      "##aa": 8582,
      "##away": 8583,
      "##rated": 8584,
      "##rtle": 8585,
      "##pan": 8586,
      "##piece": 8587,
      "##lay": 8588,
      "##ds": 8589,
      "##dor": 8590,
      "##den": 8591,
      "##ef": 8592,
      "##met": 8593,
      "##cons": 8594,
      "##copy": 8595,
      "##gi": 8596,
      "##uch": 8597,
      "##uum": 8598,
      "##under": 8599,
      "##ko": 8600,
      "##king": 8601,
      "##hot": 8602,
      "##bound": 8603,
      "##vi": 8604,
      "##vine": 8605,
      "##UL": 8606,
      "##UP": 8607,
      "##west": 8608,
      "##wall": 8609,
      "##zuel": 8610,
      "##WS": 8611,
      "##RC": 8612,
      "##Rem": 8613,
      "##IA": 8614,
      "##Pass": 8615,
      "##08": 8616,
      "##St": 8617,
      "##SC": 8618,
      "##Source": 8619,
      "##VD": 8620,
      "##VICE": 8621,
      "##_C": 8622,
      "##YN": 8623,
      "##ón": 8624,
      "##inc": 8625,
      "##inated": 8626,
      "##eration": 8627,
      "##erts": 8628,
      "##nding": 8629,
      "##ato": 8630,
      "##esis": 8631,
      "topp": 8632,
      "##ala": 8633,
      "##aron": 8634,
      "##arwood": 8635,
      "inher": 8636,
      "##icelli": 8637,
      "##asant": 8638,
      "##ashed": 8639,
      "##rob": 8640,
      "##eters": 8641,
      "##etball": 8642,
      "##stat": 8643,
      "##struction": 8644,
      "forth": 8645,
      "##uras": 8646,
      "##urst": 8647,
      "bear": 8648,
      "beams": 8649,
      "##utt": 8650,
      "##utions": 8651,
      "##otic": 8652,
      "##otive": 8653,
      "##iginal": 8654,
      "##olk": 8655,
      "##chain": 8656,
      "##adder": 8657,
      "stable": 8658,
      "stretch": 8659,
      "##erse": 8660,
      "proof": 8661,
      "Their": 8662,
      "##imity": 8663,
      "analys": 8664,
      "ancient": 8665,
      "alike": 8666,
      "alert": 8667,
      "algor": 8668,
      "orange": 8669,
      "conj": 8670,
      "conqu": 8671,
      "combo": 8672,
      "##aks": 8673,
      "##cked": 8674,
      "##umbers": 8675,
      "##ifting": 8676,
      "weird": 8677,
      "neck": 8678,
      "neither": 8679,
      "neutral": 8680,
      "##emb": 8681,
      "##istines": 8682,
      "##ivation": 8683,
      "sees": 8684,
      "seed": 8685,
      "seating": 8686,
      "##aints": 8687,
      "suited": 8688,
      "shook": 8689,
      "shock": 8690,
      "ships": 8691,
      "sharp": 8692,
      "##ustin": 8693,
      "##opes": 8694,
      "##ieving": 8695,
      "chip": 8696,
      "charts": 8697,
      "chandel": 8698,
      "##uded": 8699,
      "plastic": 8700,
      "##earchers": 8701,
      "socket": 8702,
      "abund": 8703,
      "##outhe": 8704,
      "prest": 8705,
      "pride": 8706,
      "prison": 8707,
      "heated": 8708,
      "compassion": 8709,
      "##agan": 8710,
      "##agram": 8711,
      "reserve": 8712,
      "resistant": 8713,
      "Inn": 8714,
      "Innov": 8715,
      "##asters": 8716,
      "##sover": 8717,
      "contents": 8718,
      "lege": 8719,
      "##acker": 8720,
      "outs": 8721,
      "##ichat": 8722,
      "##iking": 8723,
      "loves": 8724,
      "incent": 8725,
      "intensity": 8726,
      "##acters": 8727,
      "quit": 8728,
      "##ervation": 8729,
      "##achmos": 8730,
      "##iavell": 8731,
      "disk": 8732,
      "##igned": 8733,
      "permit": 8734,
      "##lose": 8735,
      "newest": 8736,
      "##assuan": 8737,
      "university": 8738,
      "themes": 8739,
      "peptide": 8740,
      "arlo": 8741,
      "arising": 8742,
      "arrows": 8743,
      "preview": 8744,
      "overview": 8745,
      "##tech": 8746,
      "##inton": 8747,
      "inclusive": 8748,
      "1980": 8749,
      "1950": 8750,
      "impl": 8751,
      "thereof": 8752,
      "produces": 8753,
      "rose": 8754,
      "rocks": 8755,
      "Always": 8756,
      "Alloy": 8757,
      "Alto": 8758,
      "offices": 8759,
      "offset": 8760,
      "colle": 8761,
      "column": 8762,
      "addict": 8763,
      "regards": 8764,
      "##issions": 8765,
      "cozy": 8766,
      "##merce": 8767,
      "Ansel": 8768,
      "acting": 8769,
      "wanting": 8770,
      "Release": 8771,
      "strange": 8772,
      "invas": 8773,
      "invite": 8774,
      "##pha": 8775,
      "##phan": 8776,
      "##onto": 8777,
      "worst": 8778,
      "marks": 8779,
      "productivity": 8780,
      "ownership": 8781,
      "instance": 8782,
      "minion": 8783,
      "belly": 8784,
      "personally": 8785,
      "personality": 8786,
      "medicine": 8787,
      "assets": 8788,
      "cheaper": 8789,
      "##ixed": 8790,
      "##eko": 8791,
      "differences": 8792,
      "emission": 8793,
      "completing": 8794,
      "Process": 8795,
      "finds": 8796,
      "##coins": 8797,
      "insights": 8798,
      "Placent": 8799,
      "curtain": 8800,
      "cleans": 8801,
      "counts": 8802,
      "metres": 8803,
      "metabol": 8804,
      "Prim": 8805,
      "ending": 8806,
      "Frie": 8807,
      "Francis": 8808,
      "delight": 8809,
      "delays": 8810,
      "grate": 8811,
      "hereby": 8812,
      "Unlike": 8813,
      "##ahn": 8814,
      "##ahoma": 8815,
      "##rier": 8816,
      "module": 8817,
      "planet": 8818,
      "defense": 8819,
      "visited": 8820,
      "extreme": 8821,
      "Being": 8822,
      "Before": 8823,
      "freezer": 8824,
      "restore": 8825,
      "restorative": 8826,
      "booked": 8827,
      "valued": 8828,
      "flight": 8829,
      "flour": 8830,
      "flights": 8831,
      "betting": 8832,
      "headed": 8833,
      "signal": 8834,
      "viewing": 8835,
      "Autom": 8836,
      "lightly": 8837,
      "discret": 8838,
      "artwork": 8839,
      "Clin": 8840,
      "Climate": 8841,
      "foundation": 8842,
      "controlled": 8843,
      "currency": 8844,
      "Shore": 8845,
      "careful": 8846,
      "Resort": 8847,
      "issued": 8848,
      "Cover": 8849,
      "Spirit": 8850,
      "characters": 8851,
      "156": 8852,
      "operates": 8853,
      "refund": 8854,
      "reflection": 8855,
      "refused": 8856,
      "storing": 8857,
      "Connect": 8858,
      "Conference": 8859,
      "photographer": 8860,
      "secondary": 8861,
      "1993": 8862,
      "caf": 8863,
      "ordered": 8864,
      "Manual": 8865,
      "specified": 8866,
      "equity": 8867,
      "Without": 8868,
      "payments": 8869,
      "prompt": 8870,
      "promising": 8871,
      "prominent": 8872,
      "engaging": 8873,
      "mushroom": 8874,
      "param": 8875,
      "Apply": 8876,
      "volunt": 8877,
      "publication": 8878,
      "enjoying": 8879,
      "crimes": 8880,
      "antitrypsin": 8881,
      "escape": 8882,
      "salmon": 8883,
      "capabilities": 8884,
      "Islands": 8885,
      "alongside": 8886,
      "##gged": 8887,
      "Goddess": 8888,
      "sumoaff": 8889,
      "physician": 8890,
      "functioning": 8891,
      "Myrtle": 8892,
      "clicking": 8893,
      "immune": 8894,
      "Mediation": 8895,
      "Amb": 8896,
      "Among": 8897,
      "anniversary": 8898,
      "accounts": 8899,
      "accounting": 8900,
      "Centre": 8901,
      "tests": 8902,
      "domestic": 8903,
      "versus": 8904,
      "133": 8905,
      "nearby": 8906,
      "Antonio": 8907,
      "nights": 8908,
      "encry": 8909,
      "cuts": 8910,
      "celebration": 8911,
      "competitors": 8912,
      "indefin": 8913,
      "Patent": 8914,
      "##ICK": 8915,
      "tradition": 8916,
      "integrity": 8917,
      "Studio": 8918,
      "Regional": 8919,
      "##liers": 8920,
      "determination": 8921,
      "Swimming": 8922,
      "cooked": 8923,
      "##retty": 8924,
      "losses": 8925,
      "closer": 8926,
      "roads": 8927,
      "experiencing": 8928,
      "educate": 8929,
      "educated": 8930,
      "filling": 8931,
      "##forter": 8932,
      "##forward": 8933,
      "##ercy": 8934,
      "stronger": 8935,
      "involving": 8936,
      "magical": 8937,
      "Disc": 8938,
      "Dispute": 8939,
      "affecting": 8940,
      "contractors": 8941,
      "guided": 8942,
      "identified": 8943,
      "funded": 8944,
      "fundraising": 8945,
      "printed": 8946,
      "maintaining": 8947,
      "Remodeling": 8948,
      "destroy": 8949,
      "##ropical": 8950,
      "slot": 8951,
      "##uke": 8952,
      "writes": 8953,
      "steep": 8954,
      "##ungs": 8955,
      "planted": 8956,
      "Compact": 8957,
      "21st": 8958,
      "answers": 8959,
      "Corp": 8960,
      "grab": 8961,
      "hospitals": 8962,
      "lifts": 8963,
      "examined": 8964,
      "Laver": 8965,
      "loading": 8966,
      "bottles": 8967,
      "mounted": 8968,
      "##345b": 8969,
      "##kegon": 8970,
      "Consumer": 8971,
      "milk": 8972,
      "Warrnambool": 8973,
      "suspect": 8974,
      "analyz": 8975,
      "exercises": 8976,
      "suggests": 8977,
      "recognized": 8978,
      "corporation": 8979,
      "difficulty": 8980,
      "Muskegon": 8981,
      "alternate": 8982,
      "agreed": 8983,
      "raised": 8984,
      "taxes": 8985,
      "violation": 8986,
      "violence": 8987,
      "Security": 8988,
      "PCNL": 8989,
      "Ready": 8990,
      "promoting": 8991,
      "appliances": 8992,
      "Upon": 8993,
      "embrace": 8994,
      "introduce": 8995,
      "Draw": 8996,
      "Gooden": 8997,
      "Grandma": 8998,
      "Portable": 8999,
      "dreams": 9000,
      "proposal": 9001,
      "proposals": 9002,
      "ecological": 9003,
      "chairs": 9004,
      "Palo": 9005,
      "pleased": 9006,
      "interaction": 9007,
      "reminded": 9008,
      "cruise": 9009,
      "verify": 9010,
      "reserves": 9011,
      "Recently": 9012,
      "straightforward": 9013,
      "folding": 9014,
      "luxurious": 9015,
      "Berkele": 9016,
      "Policy": 9017,
      "Throughout": 9018,
      "imagine": 9019,
      "assignments": 9020,
      "ethical": 9021,
      "##umbing": 9022,
      "Independence": 9023,
      "Santos": 9024,
      "Tyler": 9025,
      "label": 9026,
      "##weight": 9027,
      "spiritual": 9028,
      "circuitry": 9029,
      "sustainability": 9030,
      "Silver": 9031,
      "drugs": 9032,
      "recipe": 9033,
      "component": 9034,
      "spawn": 9035,
      "sporting": 9036,
      "attorney": 9037,
      "attempting": 9038,
      "estimates": 9039,
      "teachers": 9040,
      "diagnosed": 9041,
      "Airport": 9042,
      "Belg": 9043,
      "Fundamentals": 9044,
      "highlights": 9045,
      "chemicals": 9046,
      "Architect": 9047,
      "Milk": 9048,
      "duv": 9049,
      "dropped": 9050,
      "irre": 9051,
      "judge": 9052,
      "##eterre": 9053,
      "##ammers": 9054,
      "Representatives": 9055,
      "occupied": 9056,
      "##aneously": 9057,
      "literally": 9058,
      "Application": 9059,
      "calculation": 9060,
      "Capital": 9061,
      "Learning": 9062,
      "Restorative": 9063,
      "Video": 9064,
      "semester": 9065,
      "shaped": 9066,
      "Starting": 9067,
      "shelf": 9068,
      "Corporation": 9069,
      "Corporate": 9070,
      "Bottom": 9071,
      "Botticelli": 9072,
      "Machiavell": 9073,
      "lamps": 9074,
      "navigation": 9075,
      "minimal": 9076,
      "Administr": 9077,
      "crisis": 9078,
      "Philistines": 9079,
      "troubleshoot": 9080,
      "Hampton": 9081,
      "Linked": 9082,
      "Miller": 9083,
      "Rahul": 9084,
      "Susan": 9085,
      "stimul": 9086,
      "stakeholders": 9087,
      "exceptional": 9088,
      "originally": 9089,
      "Melbour": 9090,
      "unwanted": 9091,
      "desktop": 9092,
      "vegetables": 9093,
      "Beautiful": 9094,
      "Spotify": 9095,
      "Performance": 9096,
      "satisfied": 9097,
      "dimensional": 9098,
      "liberal": 9099,
      "weapons": 9100,
      "segment": 9101,
      "enemies": 9102,
      "precise": 9103,
      "impressive": 9104,
      "Counselors": 9105,
      "Continue": 9106,
      "Mexico": 9107,
      "Colorado": 9108,
      "Galax": 9109,
      "Jewish": 9110,
      "Kelly": 9111,
      "female": 9112,
      "overlooking": 9113,
      "travellers": 9114,
      "Armenian": 9115,
      "configured": 9116,
      "Attack": 9117,
      "Guidebook": 9118,
      "subsidi": 9119,
      "CyberSource": 9120,
      "agricultural": 9121,
      "illeg": 9122,
      "frustrating": 9123,
      "Championships": 9124,
      "authentic": 9125,
      "Photo": 9126,
      "renovation": 9127,
      "Aubeterre": 9128,
      "Ideas": 9129,
      "Railroad": 9130,
      "bonus": 9131,
      "delegates": 9132,
      "incurred": 9133,
      "surfaces": 9134,
      "Quarterly": 9135,
      "absorb": 9136,
      "Hatachmos": 9137,
      "Hospital": 9138,
      "PTFE": 9139,
      "Personal": 9140,
      "efficiently": 9141,
      "headquarters": 9142,
      "prototype": 9143,
      "Academy": 9144,
      "Avenue": 9145,
      "MOSFET": 9146,
      "Schnauzer": 9147,
      "flesh": 9148,
      "gentle": 9149,
      "##igraphy": 9150,
      "proximity": 9151,
      "Edinburgh": 9152,
      "merchandise": 9153,
      "Bangalore": 9154,
      "Biblical": 9155,
      "DIY": 9156,
      "Givat": 9157,
      "Licens": 9158,
      "Oklahoma": 9159,
      "Sabbath": 9160,
      "Vasquez": 9161,
      "Venezuel": 9162,
      "Zealand": 9163,
      "iobuf": 9164,
      "watah": 9165,
      "algorith": 9166,
      "chandelier": 9167,
      "Anselmo": 9168,
      "Placenta": 9169,
      "discretion": 9170,
      "sumoaffiliates": 9171,
      "Berkeley": 9172,
      "Melbourne": 9173,
      "Hatachmoshet": 9174,
      "&#": 9175,
      ");": 9176,
      "08": 9177,
      "350": 9178,
      "55": 9179,
      "Ax": 9180,
      "Au": 9181,
      "Aw": 9182,
      "A3": 9183,
      "Aqu": 9184,
      "Aac": 9185,
      "Access": 9186,
      "Agg": 9187,
      "AAS": 9188,
      "Apartment": 9189,
      "Austin": 9190,
      "BS": 9191,
      "Bed": 9192,
      "Bio": 9193,
      "BIC": 9194,
      "Browse": 9195,
      "Ca": 9196,
      "CM": 9197,
      "Cur": 9198,
      "Cad": 9199,
      "Cass": 9200,
      "Code": 9201,
      "Corn": 9202,
      "Copy": 9203,
      "CON": 9204,
      "DU": 9205,
      "DVD": 9206,
      "Est": 9207,
      "Ent": 9208,
      "Eure": 9209,
      "Ess": 9210,
      "Emb": 9211,
      "FL": 9212,
      "Five": 9213,
      "Fact": 9214,
      "Fors": 9215,
      "Flow": 9216,
      "Federal": 9217,
      "Hy": 9218,
      "HIV": 9219,
      "JS": 9220,
      "Kast": 9221,
      "Lor": 9222,
      "Lib": 9223,
      "Lov": 9224,
      "Little": 9225,
      "Lane": 9226,
      "Laur": 9227,
      "Layer": 9228,
      "Mind": 9229,
      "Mult": 9230,
      "Miss": 9231,
      "Mental": 9232,
      "Material": 9233,
      "Miam": 9234,
      "MBA": 9235,
      "Nu": 9236,
      "Non": 9237,
      "Near": 9238,
      "NAS": 9239,
      "OB": 9240,
      "Oil": 9241,
      "Ori": 9242,
      "Pan": 9243,
      "Put": 9244,
      "Pun": 9245,
      "Pall": 9246,
      "Pav": 9247,
      "Purch": 9248,
      "Porter": 9249,
      "RO": 9250,
      "Ring": 9251,
      "Rug": 9252,
      "Rights": 9253,
      "Ruther": 9254,
      "Sin": 9255,
      "Ster": 9256,
      "Sher": 9257,
      "Sury": 9258,
      "STA": 9259,
      "SEO": 9260,
      "STV": 9261,
      "Taken": 9262,
      "V8": 9263,
      "Van": 9264,
      "Vood": 9265,
      "Wat": 9266,
      "Wing": 9267,
      "Walk": 9268,
      "Wedding": 9269,
      "WPI": 9270,
      "Wolf": 9271,
      "WEP": 9272,
      "Wifi": 9273,
      "Walm": 9274,
      "WICK": 9275,
      "XI": 9276,
      "Zone": 9277,
      "au": 9278,
      "aest": 9279,
      "bol": 9280,
      "bare": 9281,
      "bits": 9282,
      "bacter": 9283,
      "cm": 9284,
      "cents": 9285,
      "coc": 9286,
      "caut": 9287,
      "cement": 9288,
      "dorm": 9289,
      "dump": 9290,
      "dwell": 9291,
      "era": 9292,
      "fest": 9293,
      "fasc": 9294,
      "fought": 9295,
      "gf": 9296,
      "gut": 9297,
      "gate": 9298,
      "gun": 9299,
      "gamp": 9300,
      "gained": 9301,
      "grey": 9302,
      "gonna": 9303,
      "hence": 9304,
      "hike": 9305,
      "hiring": 9306,
      "hij": 9307,
      "iL": 9308,
      "iT": 9309,
      "killed": 9310,
      "lit": 9311,
      "lid": 9312,
      "lad": 9313,
      "lag": 9314,
      "lady": 9315,
      "lucky": 9316,
      "mm": 9317,
[...]
