#version: 0.2
e Ġ
Ġ t
Ġ a
i n
Ġt h
s Ġ
e r
o n
d Ġ
t Ġ
o r
e n
o u
Ġth eĠ
a n
r e
Ġ s
a t
i t
in g
Ġa n
y Ġ
a l
. Ġ
a r
, Ġ
e s
o Ġ
o f
i s
i on
i c
Ġ c
o m
Ġan dĠ
e l
t h
i l
y ou
f or
e d
Ġ p
Ġ w
s t
e dĠ
r o
c h
Ġ b
Ġ m
Ġt oĠ
i sĠ
a s
Ġ h
en t
l e
c t
Ġ d
l o
v eĠ
u s
it h
e t
â Ģ
u r
Ġ f
at ion
o l
v er
i d
Ġ in
i g
Ġt o
i m
e sĠ
r a
u n
e m
a tĠ
Ġ you
o w
l eĠ
Ġ of
a m
i r
Ġ g
i f
Ġ re
u l
il l
a c
e c
Ġa l
Ġa r
w h
al l
Ġs t
n e
o p
t er
eĠ th
w ith
a d
a b
ou r
a g
e x
ing Ġ
o t
o s
u t
âĢ Ļ
a y
p l
c om
en tĠ
s >
Ġ <
Ġan d
i tĠ
re s
p ro
a k
q u
h a
eĠ s
eĠ t
ou n
i v
ig h
Ġ l
u m
Ġth atĠ
es s
c on
p er
r om
o o
an d
eĠ of
. ĠtheĠ
e ar
u p
e v
Ġth isĠ
is t
s .Ġ
a in
e .Ġ
Ġar eĠ
e ct
l yĠ
en c
Ġ for
an dĠ
Ġth e
a sĠ
e p
i veĠ
s ,Ġ
Ġ n
er eĠ
e ,Ġ
u d
b e
Ġa s
sĠ of
Ġw ith
a yĠ
an t
ĠtheĠ s
es t
Ġ on
Ġs h
Ġyou r
ou l
r i
Ġa sĠ
eĠ c
an c
, ĠandĠ
el l
a p
you r
th er
b eĠ
en d
Ġa Ġ
or k
s ĠandĠ
o d
p r
at eĠ
sĠ in
s> Ġ<
Ġ< /
s>Ġ< s>
g h
n o
c l
d u
i p
Ġa d
2 0
Ġ or
Ġw h
Ġp ro
a ch
p or
Ġa t
e tĠ
s h
ar d
ĠtheĠ c
f rom
w ill
ar t
e ver
eĠ in
for m
ne w
b er
eĠ m
ic h
d er
l y
is h
ou t
Ġc on
o c
ou tĠ
Ġc om
o ver
eĠ d
ou gh
Ġal l
oul dĠ
i al
lo w
Ġ (
e al
Ġ isĠ
b u
ha veĠ
v i
w e
Ġa b
âĢĻ sĠ
a il
i z
f er
in d
ab leĠ
, Ġs
e w
p le
r u
Ġc an
m ent
in t
Ġa c
it yĠ
Ġc h
a veĠ
e f
w eĠ
Ġ ex
eĠ a
Ġa p
eĠ andĠ
e .
p h
it y
eĠt oĠ
ac k
i es
Ġs p
o ther
tĠ of
m an
n ow
on g
u st
en s
l i
it ion
Ġ j
edĠ b
ct ion
eĠ b
ĠtheĠ f
a st
ig n
Ġa tĠ
ĠtheĠ m
por t
an g
Ġ v
g ra
er v
Ġthe ir
s .
Ġ i
Ġ k
Ġth at
is s
ar k
oun t
igh t
ĠtheĠ p
w ork
ĠtheĠ b
es tĠ
con t
h er
all yĠ
s oĠ
s p
y ear
ed ĠtoĠ
eĠth eĠ
' sĠ
c an
i re
o k
u b
v id
1 9
Ġ r
in k
ow n
e g
i b
no tĠ
i enc
ĠtheĠ d
edĠ in
Ġp l
com m
el p
lo g
re at
Ġw ill
c ess
Ġa m
ic al
Ġh aveĠ
e as
u c
er s
t oĠ
m ak
ĠtheĠ g
ic k
i a
is Ġa
Ġt im
as s
if Ġyou
com p
y Ġs
a dĠ
Ġth ereĠ
. .
f ul
o b
eĠ p
ĠtheĠ t
u ch
e b
igh tĠ
20 1
i esĠ
Ġt ak
sĠ s
oo k
a v
Ġt e
Ġt r
sĠ for
r ough
Ġa f
yĠ c
a ct
ing Ġs
Ġ lo
Ġ us
bu tĠ
i dĠ
yĠ of
Ġb eĠ
s ĠtoĠ
ou s
ul t
p os
re d
es ,Ġ
0 0
oun d
d o
us tĠ
) ,
m entĠ
w asĠ
Ġ our
ar eĠ
es .Ġ
y ,Ġ
Ġ it
on eĠ
âĢ ľ
s ,
ic ation
âĢ Ŀ
e at
r at
re c
es sĠ
m or
w ay
in c
Ġf rom
h ow
Ġa g
ver s
cl ud
oo dĠ
Ġa Ġs
Ġth em
e k
s el
or d
en g
Ġt ra
wh ich
erv ic
ĠandĠ s
be en
it t
os tĠ
n ot
o st
ĠtheĠ l
o v
em ber
o ol
.Ġ i
ar g
vi ew
. Ġs
er sĠ
Ġre s
Ġal soĠ
li k
re m
Ġto Ġs
h elp
n ing
an tĠ
t o
you Ġcan
pl ac
e ,
t ion
y st
Ġ le
wh en
eal th
a f
at a
s ĠareĠ
Ġad d
eĠ for
form ation
i o
p res
eĠ isĠ
Ġth rough
ro w
eĠt o
c al
Ġa Ġp
edĠ with
u re
Ġ un
ing ĠtheĠ
t ain
y .Ġ
h e
i an
r ic
Ġa Ġb
Ġ ne
Ġ itĠ
Ġa Ġc
ect ion
s tĠ
t on
ing Ġin
l in
Ġth es
en er
l a
at er
eĠ f
Ġa Ġf
an k
g o
ing ĠtoĠ
ou sĠ
Ġthe yĠ
b o
p a
y s
sĠ on
Ġs c
Ġab outĠ
w ell
g r
l l
Ġ is
is ion
s o
u al
es ĠandĠ
Ġb e
Ġto ĠtheĠ
Ġac c
d ay
ro om
Ġst ud
pro vid
ev en
j o
r it
in ter
oo d
gra m
c k
eĠ w
ed .Ġ
yĠ m
e op
p re
an s
s c
ing Ġm
il d
) .
f ic
m in
eĠ with
el yĠ
Ġap pl
Ġa Ġm
ent er
us in
ur n
yst em
u sĠ
Ġ e
ĠtheĠ w
ha sĠ
iss ion
d on
i et
ar dĠ
as tĠ
edĠ for
Ġaf ter
a us
eĠ you
Ġa Ġg
re g
om eĠ
per ienc
m on
ar yĠ
Ġcon t
b ut
Ġan Ġ
. ĠthisĠ
e h
l ic
e an
p ar
s id
, Ġand
b r
g an
r y
Ġ new
sĠ with
edĠ on
ot t
e -
ar y
ol le
oun dĠ
Ġas s
ust om
i ent
eĠ h
ĠtheĠ h
lo ok
wh oĠ
eĠ on
Ġa Ġd
âĢĻ tĠ
pro du
sh ip
k e
ing ,Ġ
un d
e th
r en
Ġ *
Ġt w
Ġth er
re en
esĠ of
ul ar
, ĠtheĠ
a re
ou p
ing Ġc
ing Ġp
yĠ b
is c
s Ġand
es ign
el i
Ġcom p
eop leĠ
Ġth en
en dĠ
id ent
k now
l ish
s ib
,Ġ m
u tĠ
Ġat t
i at
it ch
ol ut
ow er
edĠb y
g et
i x
s on
ed Ġto
âĢ ĵ
20 0
ark et
f ir
ch ool
eĠth atĠ
in clud
Ġp er
Ġw ork
Ġm or
Ġh er
it sĠ
ing .Ġ
if fer
wh atĠ
1 0
w ereĠ
el op
st or
ec ial
ag eĠ
r iv
s it
Ġth is
Ġw asĠ
ev elop
Ġ up
Ġa Ġl
lo s
all y
i k
n oĠ
u g
re qu
ing Ġd
yĠ d
ess ion
c o
n er
ing ĠandĠ
ing Ġb
ro s
ation al
s e
Ġ year
.Ġ m
Ġg r
Ġcom m
Ġth os
am p
if ic
ear ch
f in
re atĠ
re ad
at h
ed ĠandĠ
as h
op en
f ect
in ĠtheĠ
or l
Ġs e
it al
ic leĠ
em ent
Ġof Ġ
Ġof ĠtheĠ
comp an
b l
at edĠ
Ġan yĠ
Ġh asĠ
ec tĠ
Ġwh ich
ever y
edĠb yĠ
c er
f e
g etĠ
i vers
v el
Ġ qu
at or
ur eĠ
our s
a ut
g u
v is
y ĠandĠ
Ġs om
itĠ isĠ
Ġap p
' tĠ
i oĠ
Ġh igh
wh il
l and
an Ġ
Ġh ow
ec on
i qu
t ing
w ouldĠ
sĠ d
at ch
Ġre g
Ġar t
um an
olut ion
) :
b ec
sĠ m
es .
ed ,Ġ
Ġm on
Ġin ter
j ect
o tĠ
y p
re t
st ru
ol dĠ
ol low
ra c
ha p
Ġa v
Ġth ink
ĠtheĠ n
.Ġ h
Ġd o
veĠ th
ple as
Ġte ch
j ustĠ
w ard
in v
on eĠof
Ġp r
ĠtoĠ d
em p
ple t
Ġappl ication
e et
e .ĠtheĠ
f l
m ission
s ĠthatĠ
s .ĠtheĠ
v al
Ġm yĠ
ĠtoĠ beĠ
un der
em entĠ
b yĠ
e y
r on
r ist
Ġ y
Ġa ct
ol d
ex perienc
ingĠ for
um p
1 2
i el
o int
ct or
ab le
res p
c or
e qu
sĠ from
anc eĠ
h igh
m ed
s Ġto
Ġa Ġw
ar tĠ
ra g
un ction
.. .
1 5
a ,Ġ
f ac
eĠ l
in Ġ
st at
ver t
ver yĠ
Ġre l
oun c
usin ess
d ition
f re
in eĠ
ĠtheĠ pro
Ġs ervic
.Ġ d
et ter
ex p
Ġthe y
art ic
ityĠ of
pres ent
gan iz
b le
o ic
r ation
at iveĠ
,Ġ c
ra ct
um ber
per t
ap p
iss u
Ġag ain
. c
a z
e ther
r yĠ
ch ang
ur ch
Ġre m
eĠs h
Ġab out
Ġpl an
w as
y m
ar m
Ġc l
Ġh ealth
am eĠ
ingĠ on
per son
ail ableĠ
ke ep
b as
sĠ or
re as
it ies
Ġh e
le t
Ġd on
Ġd ata
Ġf in
im port
ac tĠ
19 9
sel f
1 4
a idĠ
c ur
s ,ĠandĠ
t im
Ġ -
Ġ over
al i
.Ġ ifĠyou
Ġw ouldĠ
im p
wh ereĠ
pl ay
res s
, âĢĿ
v ent
Ġs oĠ
,Ġ butĠ
Ġm an
Ġm ed
id e
ra d
if i
Ġal so
ĠasĠ well
we ek
u f
eĠ and
sĠ c
at ur
Ġan y
is tĠ
st er
Ġb o
le ar
am il
ul l
ec k
ers on
m yĠ
m all
s om
Ġ other
eĠ your
in u
sĠ b
al k
,Ġ or
of ession
Ġm ayĠ
et er
op tion
oul d
ast er
comm un
e ch
or th
el ev
Ġw eĠ
ro l
ne ed
op er
oc k
: Ġ
e ach
h ealth
Ġth ank
re l
,Ġ d
,Ġ you
ĠandĠ d
el y
ed d
Ġw ant
le ad
lo c
Ġre c
Ġat ĠtheĠ
Ġk now
itt leĠ
m uch
u ter
in formation
on Ġ
at her
ing Ġh
Ġw e
ro ad
Ġm ak
as k
eĠs p
we en
man ag
Ġtw oĠ
e yĠ
i um
r eĠ
Ġ out
on lyĠ
ing Ġa
edĠ s
ter n
Ġwh en
will Ġb
i ousĠ
m er
v eh
w ar
dĠ of
ed ĠtheĠ
st ud
le an
ol l
Ġin Ġ
im pl
esĠ in
un t
un ch
be for
du c
Ġpro gram
we b
af f
a h
a Ġ
a ir
u res
.Ġ in
et ween
âĢ ĺ
Ġin t
ex t
pl an
ep t
ount yĠc
Ġtr ans
iffer entĠ
ounc il
elev ision
g er
h isĠ
m ad
r al
r ent
r id
v en
on -
Ġh elp
uc cess
. ĠthereĠ
3 0
d ayĠ
m ayĠ
ing Ġof
.Ġ c
.Ġ you
.Ġ weĠ
,Ġ i
,Ġ w
st and
ĠtoĠ c
Ġto p
im ple
ab il
com plet
oo g
how ever
ener al
ofession al
1 8
l ong
eĠ g
Ġth an
sĠ (
it or
ion i
Ġal low
est ion
Ġcomp an
orl d
ble m
d ec
j ust
l if
eĠ or
eĠ from
Ġth ough
at t
.Ġ b
Ġc ar
el ect
Ġd is
âĢ Ķ
ir stĠ
Ġand ĠtheĠ
Ġsh ouldĠ
no log
low er
vid e
olle g
a u
h om
h as
v ar
Ġs up
it iesĠ
ing Ġto
eĠs ur
ev ent
ri p
eĠc an
Ġthes eĠ
sib leĠ
' s
a per
e !
m ostĠ
r ightĠ
u allyĠ
w ayĠ
y ĠtoĠ
er c
or t
at ient
.Ġ itĠ
ro p
ol or
ra m
Ġg u
Ġg et
ne x
ex c
pro gram
qu al
per form
gra ph
Ġadd ition
resp on
e ak
g iv
l ist
v ir
en jo
ing Ġf
,Ġ p
ĠandĠ f
ed uc
st r
Ġm ill
Ġd ay
ation Ġof
Ġin d
Ġst at
con s
ri end
will ĠbeĠ
e ,ĠandĠ
o veĠ
r un
t en
u k
Ġt elevision
sĠ you
at ter
ing Ġwith
.Ġ w
es ĠtoĠ
Ġp erson
Ġm in
ep end
ĠaĠ lo
Ġte am
hap p
a j
a x
c ar
i er
l es
n ess
s m
sĠ p
er r
Ġan al
,Ġ h
of f
ĠandĠ p
Ġm arket
em ail
if ul
our c
âĢĻ s
od el
Ġad v
ever yĠ
Ġap pro
Ġe ach
ustom er
Ġgr oup
l ight
m al
n âĢĻtĠ
s ,Ġs
re am
Ġs it
,Ġ in
ic t
Ġp h
Ġw eb
Ġh isĠ
Ġf il
ec ur
Ġst or
Ġn otĠ
pr ic
haveĠ a
ind leĠ
aut iful
ump ster
1 3
o dĠ
w el
Ġt urn
re a
Ġs o
Ġan ton
yĠ p
for t
Ġh om
ol ic
Ġl if
eĠof ĠtheĠ
ev entĠ
Ġas k
Ġac cess
Ġsp ecial
Ġcomm un
val u
8 0
k in
n am
r ang
Ġ isĠa
Ġa Ġh
Ġa Ġre
ing Ġyour
Ġp ar
us h
Ġal way
wh at
ub lic
produ ct
itch en
requ ire
oog leĠ
b y
d i
f il
w ant
re dĠ
it eĠ
id eĠ
ec ess
iv id
Ġl ik
Ġfor ĠtheĠ
ĠtheĠs am
s>Ġ<s> Ġ
ef fect
ĠtheĠm ostĠ
Ġpl ac
rat eg
rec e
Ġtra in
io log
usin essĠ
hasĠ been
vert is
. Ġst
u per
Ġa ut
Ġs ign
,Ġ f
esĠ on
over n
Ġit sĠ
Ġstud ent
Ġtech nolog
Ġrel ation
b lo
c ount
d is
e :
e ?
r ight
v ol
Ġ own
Ġa Ġn
al Ġ
,Ġ which
of fer
edĠ m
Ġb yĠ
Ġb usiness
Ġm ember
Ġh uman
le as
Ġin ĠtheĠ
âĢĻ ll
res h
Ġsh eĠ
Ġsh ow
du ct
ott ish
ros s
urch as
- s
b ack
w er
eĠ (
Ġt yp
sĠ can
.Ġ youĠcan
ĠandĠ c
le g
et ail
un ivers
Ġre qu
Ġar ound
all eng
oun sel
ĠaĠ new
int o
Ġj ustĠ
19 8
uch ĠasĠ
Ġlo ok
ord in
he ad
ild ren
Ġthos eĠ
ountyĠc ouncil
a w
b or
b ook
d oĠ
d esign
i ation
n et
o g
p ut
eĠ itĠ
er ic
an n
Ġs chool
Ġan Ġex
Ġan other
,Ġ with
el ow
Ġb l
Ġb y
Ġb as
esĠ for
Ġof Ġs
Ġal ong
eli ver
bec aus
! Ġi
1 6
g reen
h and
o in
r is
y .
Ġ if
.Ġ p
es ĠthatĠ
is ter
ic esĠ
Ġp art
Ġw as
Ġb u
Ġd ef
Ġf e
pr is
pr int
sid er
fir stĠ
artic ip
! !
n ational
o log
t t
v oic
eĠ ad
Ġt ru
in st
,Ġ g
,Ġ weĠ
Ġp re
edĠ c
ch eck
Ġd oĠ
Ġst art
eĠth an
ens ur
ub lish
19 6
veh icleĠ
' veĠ
1 1
e z
p t
eĠ is
in s
in ation
Ġth ing
on c
or ganiz
ou ch
re st
re allyĠ
,Ġ b
es ĠareĠ
Ġp eopleĠ
Ġb r
Ġd ec
et t
Ġto day
im ag
im pro
esĠ with
ha dĠ
eĠt im
ist ration
anc eĠof
du st
Ġor der
por tĠ
outĠ of
Ġex perienc
sp ect
ire ct
uc k
ful l
Ġanton ioni
1 00
2 4
c all
e er
p ay
Ġ o
eĠ an
in al
er t
ing Ġfrom
.Ġ for
es p
of t
el eb
th eĠ
ed g
edĠ d
ro ll
us ic
ol id
Ġin st
ul ation
ec ific
Ġon ĠtheĠ
cont rol
a ur
c reat
e ir
f eat
f ollow
i or
i entĠ
m ark
s Ġthat
Ġ en
Ġa u
Ġs ystem
es ,
is m
st ateĠ
ch rist
Ġh our
id enc
Ġin formation
if ication
op port
qu estion
con f
Ġn ot
ap t
red it
produ c
web sit
nex tĠ
educ ation
opport un
5 0
e eĠ
g ether
w itch
Ġ &
on ĠtheĠ
en ef
re port
Ġs al
Ġs et
at ed
edĠ p
edĠ from
Ġb etter
lo y
im m
am ag
ec om
pro cess
ha v
ist or
Ġas ĠtheĠ
Ġwh atĠ
ableĠ toĠ
ĠhaveĠ a
eas on
Ġne ed
ĠaĠf ew
Ġmed ia
ĠasĠwell ĠasĠ
ivid ual
, Ġt
e ep
k itchen
o os
r im
on ly
or dĠ
th or
ed .
Ġm ic
ĠtoĠ m
le vel
res earch
ĠthatĠ you
sĠof ĠtheĠ
ard en
Ġcon s
ph ys
cont inu
ob il
00 0
Ġy ork
uccess ful
Ġmill ion
- f
4 0
b ur
h on
n a
w w
w in
re w
re ak
at ing
.Ġ if
ic le
Ġc o
Ġb utĠ
Ġh as
ur ing
ig ital
Ġyou Ġcan
Ġg oodĠ
wh er
eĠth at
eĠth isĠ
res ult
eĠof Ġ
Ġpro vid
sh ouldĠ
Ġsp ac
ib leĠ
vers ion
every th
Ġweb sit
b in
c as
f t
f ectĠ
g iveĠ
i allyĠ
o graph
p utĠ
r entĠ
r iveĠ
s ur
w ater
or der
Ġs er
it edĠ
it âĢĻsĠ
for ĠtheĠ
ĠtoĠ re
le tĠ
lo cal
ur ther
ra in
ir l
Ġg etĠ
eĠth eĠs
ot ion
con sider
eĠof Ġc
ri ver
Ġwh oĠ
bu ild
haveĠ been
ind ow
Ġwill Ġb
gr oup
ary Ġa
isc us
econ d
pleas eĠ
Ġthank Ġyou
aj or
' ll
) Ġ
, Ġa
. "
a id
g l
j ob
l essĠ
s up
Ġt ri
or g
Ġs ub
at iv
.Ġ f
,Ġ n
es c
Ġc ouldĠ
Ġc ount
ĠandĠ m
el o
ch i
Ġm ar
lo ad
us ing
ur s
Ġf re
ol ish
ir c
Ġre t
Ġar eĠs
op p
ab or
ap pl
beĠ a
cl ick
Ġpro cess
Ġch rist
man yĠ
ens iveĠ
Ġj ust
Ġwill ĠbeĠ
Ġtim eĠ
mor eĠ
ember Ġ
row n
Ġsc ienc
iet aryĠa
eter min
vir on
Ġperson al
- c
b al
c essĠ
f ill
g i
g oodĠ
Ġt er
Ġa rea
re view
it ut
it iveĠ
ing .
.Ġ our
ar ter
ic ian
ĠandĠ h
el ection
Ġin clud
Ġof fer
ut il
âĢĻ veĠ
res sĠ
e.Ġ i
Ġn oĠ
Ġas Ġa
pr iv
,Ġs oĠ
eb ook
Ġun der
whil eĠ
Ġtech n
Ġwe ek
1 7
e veĠ
g in
k ill
l iv
m et
n ecess
s ?
s Ġa
s ĠtheĠ
w rit
Ġth re
on don
Ġs ur
it em
ing leĠ
Ġan n
es ĠtheĠ
es Ġto
for Ġ
ed ,
Ġw ereĠ
ro k
ch ed
ĠtoĠ b
ĠtoĠ mak
Ġd i
id entĠ
atĠ s
ec aus
Ġst rateg
ne ct
pro t
ain tain
pr of
ich el
oc ial
ĠtheĠf irstĠ
cont ain
comm end
inc eĠ
af et
ater ial
bo th
Ġacc ord
Ġther e
unt il
rid g
Ġalway sĠ
- p
3 2
6 5
d ata
p ost
w a
y ,
sĠ isĠ
sĠ will
er g
or m
at esĠ
it ation
yĠ with
es ,ĠandĠ
of fe
ent ial
ra w
Ġof fic
Ġg reatĠ
our t
ingĠ up
um mer
.ĠtheĠ c
sh op
ever al
Ġex am
ire ctor
ĠtheĠt im
Ġte ach
orl dĠ
Ġav ailableĠ
emp loy
Ġact iv
umber Ġof
person al
atur al
edd ingĠ
vide oĠ
Ġalong Ġwith
Ġau thor
b ar
b leĠ
d e
d ef
h n
h ous
l im
l ink
l arg
m asĠ
p rom
p uter
s :
y t
Ġ "
Ġ ro
Ġ âĢľ
Ġt reat
in it
er n
er ,Ġ
re al
re ateĠ
yĠ in
al u
is ĠtheĠ
il dĠ
st ill
ent al
Ġd evelop
et on
et ic
ur pos
Ġin v
if y
Ġal tern
ingĠ isĠ
os p
âĢĻ reĠ
entĠ in
res ident
sĠin ĠtheĠ
Ġpro duct
fer enc
int oĠ
ef ul
e. ĠthisĠ
Ġv eh
cont actĠ
Ġpl ay
Ġam az
mentĠ of
ĠtheĠw orld
Ġass ist
Ġass oc
fe el
.c Ġ(
imp leĠ
Ġbo th
enjo y
ecom puter
viron ment
2 5
g reat
h el
i i
i ous
n ia
o vi
s !
y n
er Ġ
re f
re present
al soĠ
.Ġ âĢľ
es Ġand
is eĠ
Ġc ounsel
Ġc redit
th rit
for nia
ch alleng
ra p
ra ph
Ġyou ĠareĠ
ir st
Ġg o
ul tĠ
ingĠ room
qu ick
ip p
Ġwh il
sh all
ang elo
ĠtheĠb estĠ
can ĠbeĠ
eg re
Ġam eric
Ġres earch
Ġne edĠtoĠ
iet yĠof
par tĠof
olle ct
eth od
gu id
stru ct
iel d
Ġthey ĠareĠ
artic ular
import ant
giv en
rece iv
- in
. Ġa
b ig
d el
d evelop
e am
g oogleĠ
h ol
h ear
i anc
i ateĠ
k indleĠ
l it
o .Ġ
o ak
p eopleĠ
Ġ ifĠyou
Ġ even
Ġt en
sĠ wereĠ
Ġs aidĠ
at estĠ
yĠ isĠ
,Ġ itĠ
es sĠof
ic eĠ
Ġc all
Ġc ours
il ity
for c
Ġp atient
edĠ up
Ġb ack
lo veĠ
Ġf oodĠ
un iqu
wh o
eĠth em
ab lish
Ġfor Ġ
Ġn ow
be ing
be autiful
est ablish
Ġad dĠ
new Ġyork
vi a
ph ot
pos sibleĠ
eng th
eng lish
Ġcont inu
Ġther ap
iel dĠ
Ġdon 'tĠ
commun ityĠ
oper ation
Ġanal ys
ordin ator
oin tĠ
ichel angelo
' m
c ottish
d own
f tĠ
l ess
m os
o x
p s
r ong
s ch
y c
Ã ©
Ġ el
Ġ âĢĵ
eĠ up
it .Ġ
it 'sĠ
ing ,
ing Ġg
ing ĠthatĠ
is it
Ġc ell
il ar
ed ĠthatĠ
Ġp res
st art
Ġb ioĠ
Ġm e
ĠtoĠ your
lo v
Ġin Ġs
im ilar
ra y
Ġof Ġyour
Ġar oundĠ
eĠth eir
pro blem
Ġl ist
ep art
ĠtheĠc ount
eĠm or
ly Ġs
Ġch ang
ass ion
ult ur
rem ium
pres s
bo ard
mon th
Ġtw o
Ġart icleĠ
stru ction
inv est
Ġpr ofessional
fl u
Ġfin dĠ
err or
Ġfil m
wel com
Ġrequ ire
d en
f ound
g ener
j un
j ectĠ
o id
p op
p ower
r anc
sĠ lik
en u
re ach
ing Ġt
of Ġ
Ġp os
edĠ g
Ġh op
Ġh and
ent lyĠ
le x
et im
Ġin toĠ
Ġst and
with ĠtheĠ
ab l
âĢĻ m
Ġl ong
con cer
.ĠtheĠ s
ear n
ev idenc
ect or
ĠtheĠs h
Ġsh all
ri b
ri or
ri but
sĠandĠ s
Ġch ildren
Ġex t
ity ,Ġ
Ġtak eĠa
lin eĠ
ener g
Ġacc ount
enter tain
br id
know n
Ġatt end
fir st
Ġsom e
ali fornia
lear n
Ġmin ut
blo odĠ
atĠs ink
. h
. com
3 4
e en
e ,Ġs
f riend
l or
l astĠ
m arket
m atter
n al
s )
s ĠatĠ
u ally
w n
w oĠ
x Ġ
eĠ it
Ġa Ġt
sĠ whoĠ
or s
ou th
re commend
Ġs ection
at ingĠ
ing Ġw
ing Ġyou
ing Ġtheir
yĠ for
al t
el f
ro b
ĠtoĠ help
Ġh ous
Ġd own
Ġd esign
ith er
Ġin to
Ġof f
ac c
ec ut
ne edĠtoĠ
Ġl iv
um ent
ĠthatĠ isĠ
e.Ġ weĠ
ep tion
Ġwith ĠtheĠ
pr ofessional
Ġad vertis
Ġor ganiz
Ġwh at
Ġcon dition
oc us
iz edĠ
Ġex c
Ġex p
sp ecial
comm ission
ĠhaveĠ toĠ
comp et
Ġtr y
Ġlo cal
ĠtoĠs e
eĠto ĠtheĠ
jo in
don âĢĻtĠ
edĠby ĠtheĠ
Ġper form
ĠaĠl ittleĠ
ĠhasĠ been
econ om
bec om
Ġmon th
ret urn
Ġplan ning
import antĠ
uf f
loc ation
stud ent
imple ment
var ietyĠof
esp ec
iscus s
- t
- up
4 80
6 0
a .Ġ
c ours
e ad
f ar
f unction
i Ġam
n essĠ
p i
u it
w id
y Ġto
Ġ z
Ġa chi
on der
ou rag
,Ġ âĢľ
,Ġ but
om en
ĠandĠ b
el in
el low
ed .ĠtheĠ
ed Ġas
ed room
st on
st ep
ro ck
Ġb od
Ġb ali
Ġm y
Ġm ad
ent ion
Ġin c
im ateĠ
Ġre ad
Ġar thrit
Ġst y
Ġst ep
Ġst ateĠ
eĠth eĠc
eĠth eĠb
eĠth anĠ
Ġand Ġt
ear lyĠ
ĠthisĠ isĠ
Ġwith Ġ
oul der
end er
ĠaĠ v
Ġac ross
ack ag
Ġsp ecific
tĠof ĠtheĠ
adĠ of
ĠthereĠ ar
ĠthereĠ areĠ
av or
Ġle vel
inter est
ren ch
endĠ of
Ġmor eĠ
Ġqu al
wouldĠ beĠ
med iat
abil ity
voic ecomputer
ichelangelo Ġantonioni
Ġbali y
) ĠandĠ
- b
. Ġsh
. Ġall
7 14
d in
d at
e ;
f a
g oĠ
g ot
j our
l u
l ondon
m ap
m ember
p art
s er
u .
Ã ¼
Ġ view
Ġt ouch
Ġa ud
Ġa Ġcom
in Ġs
sĠ haveĠ
er y
er tain
or ig
en vironment
re adĠ
Ġc or
Ġc as
Ġc reat
Ġc ustomer
st aff
Ġb ut
Ġb usinessĠ
as sĠ
as on
Ġh adĠ
Ġh app
us eĠ
us er
Ġf ac
ig ation
im at
im al
esĠ s
esĠ you
un itedĠ
em b
em or
am pa
Ġst ill
Ġst ock
ut r
pl ant
com pl
eĠt r
con nect
ĠthisĠ s
ist ic
Ġon lyĠ
eĠc o
du ction
Ġor Ġ
ach Ġbaliy
eĠin formation
eĠm an
over Ġ
bu f
ru g
ies ĠandĠ
Ġsp eak
edĠin ĠtheĠ
comm itt
Ġtak eĠ
Ġlo veĠ
pos sib
eng ag
Ġres ist
go ingĠtoĠ
ĠaĠg reatĠ
ean na
ix el
compan yĠ
vis it
eet ing
rag on
road c
plan ning
Ġhuman Ġrelation
enef it
ietaryĠa id
eddingĠ eventĠ
espec iallyĠ
ampa ign
' reĠ
, Ġal
2 2
a im
b ab
b eli
e u
g reatĠ
h am
l ittleĠ
m ean
r or
eĠ ag
Ġt arg
Ġa ir
Ġa ction
er .Ġ
on d
tĠ s
or gan
en ough
ou d
an u
Ġs m
at ic
.Ġ when
ar b
es .ĠtheĠ
il t
you Ġwill
for d
ed ĠasĠ
Ġp ark
edĠ her
Ġh ill
le v
lo t
Ġf ollow
Ġf unction
Ġf amil
ol v
ol der
Ġof Ġp
Ġg reat
ill ag
wh yĠ
wh ether
Ġst ar
ne ver
ot ton
ot land
âĢĻ t
qu it
con c
ain t
be gin
sĠin Ġ
cl us
Ġor Ġbetter
Ġpro t
sh ow
from ĠtheĠ
ple x
ust ral
ĠatĠ le
Ġv ar
gra d
Ġk indleĠ
19 7
ful lyĠ
pos al
do or
mor eĠthan
inc ip
ure dĠ
Ġbe for
compan y
Ġapp oint
econ dĠ
cor dĠ
exp ect
Ġgu id
Ġaddition al
Ġappro ach
Ġtechn iqu
osp ital
' t
. ,
c lean
d eliver
e veĠth
f amil
g n
g ood
h im
j am
l edg
n g
n 'tĠ
o il
o ot
p c
r ound
r itt
r ank
v ision
w ear
w ord
Ġt on
Ġt ell
er ship
ĠtheĠ ch
Ġs uch
Ġs omeĠ
ing Ġthem
al f
of fic
Ġc olor
om ent
th atĠ
th ough
you ĠareĠ
for Ġyou
Ġw ay
st ar
edĠ of
Ġm us
ent ir
Ġd ist
Ġd ifferentĠ
us p
ur in
Ġto ol
ra is
am er
if t
Ġst aff
eĠth eĠd
ad a
ad d
ad vertis
ab as
ab outĠ
itĠ c
eĠs om
con dition
up port
ev ic
sĠof Ġ
Ġsh op
Ġad min
Ġpro ject
Ġpro blem
eĠm on
eĠd o
Ġab s
e. Ġs
ph on
erv ation
19 5
Ġam ong
ĠthereĠ isĠ
iesĠ of
yĠof ĠtheĠ
pos ition
do esĠ
s, Ġand
rem ov
eop le
enter pris
Ġ* Ġ
bl ack
Ġreg ion
emp t
Ġrem ov
Ġhe ad
ide a
impl yĠ
au gh
erc is
mal Ġresist
ecur ityĠ
pt om
aur ant
. ĠandĠ
2 1
b etter
d isc
d ifferentĠ
e el
e ed
e âĢĻsĠ
g ress
h eĠ
h ereĠ
l am
l andĠ
l iveĠ
m a
n ight
n umber
p urchas
s ystem
u red
w es
w orth
y uk
in ĠthisĠ
Ġth ous
tĠ on
an ch
Ġs at
at form
.Ġ however
is od
Ġc al
Ġc ustom
om ain
ed ĠtoĠtheĠ
Ġp ag
ch r
ch em
ch arg
Ġm et
ur eĠandĠ
Ġf ind
Ġto oĠ
Ġto ok
Ġto ward
esĠ from
leĠ toĠ
Ġar riv
wh it
op y
ot ential
âĢĻ r
res um
s.Ġ i
Ġfor m
ep isod
ant on
Ġsh ar
anc ial
ell entĠ
no v
Ġpro pert
ach in
eĠm ak
oc ĠhumanĠrelation
haveĠ toĠ
we et
we ightĠ
ark etĠ
cont entĠ
edĠin Ġ
av ailableĠ
sĠfor ĠtheĠ
Ġlo s
do es
âĢĿ .
rat her
rec ord
Ġtra ck
Ġun ivers
la w
ood n
ĠaĠg rad
reg ard
Ġnew .Ġ
ĠtheĠh igh
Ġ* Ġm
are er
requ ir
co hol
fin dĠ
ĠtheĠpro cess
Ġagain st
ym ptom
reas on
Ġ- -
Ġman ag
som eth
ext ra
list en
ĠaĠlo tĠof
effect iveĠ
ann el
Ġbl ack
olid ayĠ
utr ition
ritt en
, ĠasĠ
. Ġafter
/ /
: //
d em
f ind
g row
h ard
m e
m atch
r ing
r .Ġ
s -
v ailableĠ
y -
eĠ i
Ġt alk
ou bl
an al
Ġs w
at eĠc
Ġan t
Ġan imal
.Ġ butĠ
,Ġ (
es ter
Ġc ent
el s
you ĠhaveĠ
Ġp ort
ĠtoĠ keep
le c
le adĠ
lo ck
ur ingĠtheĠ
Ġf our
ra ck
un g
em pl
Ġof Ġin
Ġg d
Ġg am
Ġg row
Ġg eneral
ul yĠ
with Ġ
ex pl
ingĠ itĠ
ot el
os eĠ
Ġl a
oo th
enc ourag
s,Ġ c
e,Ġ i
Ġon eĠ
Ġon eĠof
ap ital
ther n
pr im
oc cur
vi ol
ind ividual
ableĠ andĠ
eĠa f
Ġv ide
ire dĠ
ĠtheĠg plac
ob ject
Ġtak en
sĠs uchĠasĠ
Ġres ident
eĠfor ĠtheĠ
ĠtheyĠ can
gr ound
jo hn
reg ular
Ġper mission
stru ctor
inv it
Ġabout ĠtheĠ
bas edĠon
rel ation
Ġwant ĠtoĠ
eĠsp ecial
mayĠ beĠ
rip tion
ris k
eĠad mission
dust ri
phys ical
yt ic
achĠbaliy eĠ
! Ġ
4 5
b c
c i
e a
e um
e ech
h ad
h ib
h uman
k id
k ind
o ,Ġ
o idĠ
p ublish
s et
w .
w areĠ
Ġ room
Ġt v
Ġt est
er Ġb
en z
an y
re v
re lev
ing ?
yĠ f
,Ġ youĠcan
is ,Ġ
ic ens
ic allyĠ
Ġc r
Ġc olleg
for Ġm
for Ġyour
ed ĠaĠ
ed ia
Ġb elow
Ġb ecaus
Ġm ustĠ
ĠtoĠ getĠ
Ġh ad
Ġh av
Ġd el
Ġf irstĠ
Ġto gether
Ġto wn
im ent
ra il
ir th
Ġre ason
Ġst ation
ne tĠ
eĠs ystem
iv elyĠ
con st
ĠareĠ you
ĠtheĠs c
ĠtheĠs p
od d
eĠin Ġ
ough t
ableĠ to
ru ct
Ġch oos
weĠ haveĠ
Ġj o
Ġv is
Ġr un
uc c
ers ,
ob tain
act or
ingĠs chool
inc reas
sel v
not ic
plac eĠ
Ġthrough out
Ġun t
ĠitĠ isĠ
la unch
reg ion
Ġcont rol
lic ens
olle ction
look ingĠfor
produ ction
Ġatt ack
iffer enc
ĠaĠl arg
Ġapp ear
Ġdo esĠ
equ isit
Ġagain stĠ
.c :
cur rent
ĠsoĠ much
rad io
commun ity
vide o
Ġsup port
Ġind ividual
Ġph ys
overn ment
leg al
impro v
christ masĠ
Ġter m
Ġexam ple
Ġinv est
Ġorganiz ation
ĠaĠgrad eĠofĠc
- d
a .
a i
b reak
c at
c ent
c ard
c enter
d igital
f un
f ix
f resh
i ou
i pl
l at
l ightĠ
l ater
m ar
m ov
m aintain
n es
n on-
o or
s omeĠ
u ation
u itĠ
v ot
x l
Â ®
Ġ $
Ġ +
eĠ asĠ
Ġt re
Ġt our
in f
in n
sĠ &
sĠ w
sĠ us
er sĠandĠ
er man
on s
or ry
re leas
Ġs ha
Ġs etĠ
Ġs iz
Ġs ens
it self
ing Ġan
Ġan g
al so
ar n
is tĠof
ic Ġ
ĠandĠ w
il yĠ
Ġp ain
Ġp articip
ro adĠ
ch air
ch oos
Ġb etween
Ġm ay
Ġm od
Ġm ov
Ġh ear
Ġd in
Ġd id
Ġd idĠ
Ġd isc
Ġd omain
lo bal
ur g
ur rentĠ
Ġf eat
Ġin Ġc
Ġto o
esĠ (
esĠ or
ra ft
ir m
Ġg ra
Ġal cohol
ne ar
eĠth rough
ag n
ag eĠd
ingĠ or
pl ayĠ
res olution
pro c
eĠt ak
oun tĠ
igh bor
ev alu
Ġn orth
Ġon lin
Ġyour Ġd
pr er
sĠin clud
no th
cl aim
out sid
oc ument
Ġcom plet
bu y
ru th
ru st
Ġcan ĠbeĠ
ef fic
weĠ areĠ
ph as
gra du
Ġk eep
Ġthat ĠtheĠ
sp ir
Ġr ight
ifĠyou ĠareĠ
Ġte en
ĠtheĠl arg
e, ĠtheĠ
Ġle t
Ġle ad
Ġadd ress
go dĠ
pa ir
Ġsc otland
gr and
pre par
sc ienc
Ġappl y
.ĠthisĠ isĠ
und ayĠ
Ġcomp uter
Ġinter est
veĠth eĠ
Ġcl ass
vent ion
loc at
ven u
Ġtop ic
respon sibleĠ
Ġind epend
ecur ity
ĠtheĠsam eĠtim
rece iveĠ
Ġaut om
Ġfe el
inst all
eleb rat
abor ator
appl ication
Ġcredit s.Ġ
! ĠthankĠyou
" ,
, Ġst
, ĠtheĠc
. m
. ĠasĠ
5 00
b od
c olor
e )
e ut
e 'sĠ
g en
g ressĠ
i am
k ing
n l
n or
n pa
r um
s ;
s Ġar
t u
t al
v iv
w atch
y âĢĻsĠ
Ġ ,Ġ
Ġ ever
Ġ oper
eĠ wasĠ
Ġth anĠ
sĠ when
er s.Ġ
er s,Ġ
on e.Ġ
or tĠ
ou dĠ
re duc
Ġs in
Ġs mall
at abas
ing ĠatĠ
.Ġ g
Ġc alifornia
ĠandĠ you
il Ġ
il it
il enc
ed er
ed ĠatĠ
Ġp ower
Ġp riv
Ġp ublic
Ġw rit
Ġw indow
edĠ f
ro t
ro y
ch ar
Ġm uch
ĠtoĠ provid
as c
Ġh on
Ġh ereĠ
le aveĠ
et work
ur yĠ
Ġf ull
id eal
Ġto Ġst
if f
Ġre al
Ġre st
Ġal read
op tim
eĠth ey
our tĠ
ag eĠof
pro ject
qu arter
ha el
Ġl in
Ġl ink
um o
ear th
ĠthisĠ p
be ver
ĠtheĠs ameĠ
est ination
eĠc all
ĠtheĠc or
eĠin ter
over all
,Ġs p
int ro
eĠb y
s. ĠthisĠ
eg rat
ers ĠareĠ
ĠtheĠt op
act er
ingĠs ervic
vers ation
eng in
Ġres um
rem ain
ĠaboutĠ your
gr oundĠ
so on
eĠw as
pre pa
br ing
eĠh as
Ġ* Ġs
fir m
iffer ent
ug g
cer tain
Ġqu estion
Ġreg istration
ĠtheĠn ational
under stand
resp ect
fre eĠ
Ġservic eĠ
let ter
Ġdon âĢĻtĠ
.ĠifĠyou ĠareĠ
Ġbo ard
oll ar
ger man
.ĠthereĠ ar
erc ial
happ en
ict or
require d
vol v
Ġbu ild
organiz ation
hav ing
necess ary
ched u
Ġme ig
flu enc
Ġtarg et
anu aryĠ
ustral ia
anton ioni
prer equisit
- h
. ĠtoĠ
. âĢĿ
/ or
2 3
_ c
b etween
c ost
c ustom
d a
d eal
d riv
e ac
e ek
f low
f und
g eneral
h anc
h ensiveĠ
i os
i ĠhaveĠ
j es
k el
m c
m od
r ink
s Ġat
s etĠ
s Ġag
s ervic
t ak
u es
w ardĠ
y Ġand
Ġ imag
eĠ v
eĠ st
Ġt ask
Ġa Ġst
in a
in em
Ġth isĠa
sĠ up
on Ġs
on lin
ou bleĠ
Ġs econd
it s
ing ĠtheĠd
Ġan s
al lo
.Ġ n
.Ġ it
.Ġ beĠ
ar c
of ĠtheĠ
il ityĠ
ed it
Ġp ric
Ġp oint
Ġp ublish
Ġw in
Ġw ell
edĠ or
Ġb ook
Ġb ott
as cal
Ġh omeĠ
le ,Ġ
Ġd u
Ġd iet
us eĠof
Ġf l
ation Ġfor
ol k
Ġin Ġm
esĠ m
em erg
Ġre allyĠ
ne ction
ter m
eĠth ereĠ
eĠth eĠm
eĠth eyĠ
with outĠ
ab out
ex am
ingĠ it
ingĠ our
pl i
Ġand Ġthen
itĠ wasĠ
eĠs oĠ
eĠs ervic
Ġl arg
ĠthatĠ w
ess ag
per fect
ep ar
e,Ġ which
Ġsh areĠ
ĠasĠ you
eĠc ar
ell it
ap ac
your self
ĠaĠ veryĠ
ĠaĠ varietyĠof
ateĠ in
s>Ġ<s> ĠtheĠ
Ġwh er
eĠin ĠtheĠ
eĠd ay
Ġall Ġof
Ġab leĠtoĠ
Ġch alleng
Ġex pert
Ġap art
ity ĠandĠ
ens ion
ĠtheĠf irst
ign ific
ire ction
comm on
eas y
mak eĠsur
ĠtheĠg reen
Ġit em
Ġthem selv
Ġtra vel
ĠtheĠl atestĠ
ure sĠ
ĠaĠf ull
bo x
sĠon ĠtheĠ
Ġbe h
don 'tĠ
ĠaĠg oodĠ
eĠon ĠtheĠ
ke y
Ġther malĠresist
Ġcomp et
stor ativeĠ
co gn
fin ish
Ġqu ick
Ġapp eal
Ġhow ĠtoĠ
Ġav oidĠ
ron t
Ġact uallyĠ
dition al
vent ur
week end
eĠand ĠtheĠ
Ġany th
onĠ xl
ept emberĠ
Ġthough t
nex t
str ong
run ning
ĠaĠn umberĠof
olog ical
vehicleĠ advertis
Ġthing sĠ
produc tĠ
imm un
Ġmic ro
ched ul
prot ect
Ġcounsel or
lit ter
Ġgd pr
, ĠasĠwellĠasĠ
- year
. ĠsheĠ
2 6
2 8
4 9
] :
a Ġs
a ction
b ol
b ath
c tĠ
c entĠ
c aus
d ist
d idĠ
d etail
f all
f lower
g res
m Ġ
m eet
n ic
n orth
o ber
p ayĠ
p ri
r ateĠ
s âĢĻ
t y
t ar
v illag
w all
w qu
y l
y ber
y ĠandĠs
ð Ł
Ġ er
Ġ open
eĠ n
eĠ will
Ġa ward
Ġth ir
or Ġof
re ct
re fer
re ek
Ġs pr
it iz
ing ĠthisĠ
ing ĠtheĠs
ing ĠaĠ
ing Ġher
es .Ġs
is ĠtoĠ
ic at
ic ally
Ġc and
Ġc up
Ġc ountyĠcouncil
el com
ed Ġat
Ġp ay
Ġp rom
Ġp ass
Ġp urchas
edĠ out
ch ildren
Ġb eg
Ġm ethod
ct ober
Ġd eal
Ġd irect
Ġd irector
et c
ur b
Ġf iveĠ
ol iveĠ
Ġin Ġfilm
Ġto dayĠ
Ġto wel
im mediat
em por
em otion
leĠ of
am b
ir t
Ġg iv
Ġg ener
Ġre ach
ill ion
Ġar ch
Ġst ruct
eĠth eĠt
ab et
ut ur
pl antĠ
pl ug
itĠ en
Ġl astĠ
ĠthatĠ i
ĠthatĠ s
per fectĠ
and sĠof
eĠof fer
ĠthisĠ year
s,Ġ or
Ġn etwork
e,Ġ you
e,Ġ with
ud g
sĠof Ġs
Ġwith outĠ
pr incip
cl ass
Ġwh ereĠ
ail able
ple ment
Ġch ar
Ġj un
eĠb yĠ
ang u
ount ain
estĠ in
can Ġb
ub sc
Ġr ich
ĠtheĠd ata
Ġpl ant
eas ier
ers ĠtoĠ
Ġtim e.Ġ
Ġtim eĠtoĠ
ĠthereĠ is
Ġtr oubl
Ġaf fect
Ġtra d
lik eĠtoĠ
rem odel
help Ġyou
help ful
Ġthrough outĠ
he atĠsink
Ġbe ach
Ġbe autiful
eĠw ouldĠ
pre vent
ingĠm or
ĠtheĠw orldĠ
ros sĠ
Ġyear sĠ
ifi edĠ
uf fer
uf act
veh icle
befor eĠ
Ġint ro
dec ision
elect ric
exc it
qual ityĠ
Ġmarket ing
overn mentĠ
og n
Ġbu y
Ġpre par
Ġinst itut
stateĠ health
ww w.
Ġmar ch
Ġchrist ian
Ġveh icleĠ
Ġassoc iat
egre eĠin
ultur al
possib le
Ġabs olut
' r
( s
, ĠthisĠ
- th
- co
. Ġt
. ĠtheyĠ
1 20
2 7
3 6
3 00
4 8
9 5
a ĠandĠ
d sm
d etermin
e atĠ
e ither
f ather
f ram
g irl
h istor
i edĠ
i ec
l ay
m y
m ightĠ
n âĢĻt
o on
p m
p at
p olic
p ublic
p articip
q :
r as
r ich
s iz
s ourc
w orld
y a
y .ĠtheĠ
y ,ĠandĠ
z er
Ġ /
Ġ u
Ġ ...
eĠ al
eĠ our
eĠ which
Ġt al
Ġa Ġcon
Ġa way
in at
in oĠ
er Ġfor
er Ġor
en n
an yĠ
re ation
re vi
Ġs an
Ġs kill
at e.Ġ
ing s
ing Ġand
ing ĠtheĠp
al d
.Ġ now
.Ġ but
.Ġ itĠisĠ
ar yĠs
,Ġ your
,Ġ ifĠyou
,Ġ includ
es :
es k
is on
Ġc lean
om b
il ities
you Ġknow
ed Ġand
ed ition
Ġp aper
Ġp olic
Ġp leas
Ġp olish
Ġp eople
st rateg
Ġb ar
Ġb ig
Ġb iolog
Ġm ightĠ
Ġm aterial
Ġh ar
ent ĠandĠ
ent ly
le ep
Ġd umpster
Ġd ocument
us edĠ
us eful
Ġf und
ol it
Ġin Ġyour
Ġto Ġtak
esĠ c
em per
em Ġcell
em phas
Ġyou th
Ġof Ġm
Ġof ĠtheĠb
Ġg erman
Ġre view
Ġre present
eĠth es
with in
ex pert
ex ercis
ot or
os tĠof
ut t
ut ure
âĢĻ dĠ
com fort
itĠ of
pro per
pro pert
ha sĠs
um er
.ĠtheĠ g
up pl
ist r
s.Ġ ifĠyou
ain ten
Ġfor Ġr
ep os
Ġn on-
ant lyĠ
Ġyour Ġf
eĠc l
eĠc ount
end edĠ
du eĠtoĠ
Ġpro jectĠ
ĠtheĠc ar
ĠtheĠc as
eĠin t
oc iet
haveĠ th
vi ous
ind epend
,Ġs m
eĠandĠ s
li x
ĠtheĠm arket
ĠtheĠp ower
sp ac
sp aper
ĠtheĠg eneral
ick en
Ġaf ford
act iv
ingĠs ystem
eat h
to -
Ġle g
Ġthrough ĠtheĠ
ric t
ric tĠ
ĠaĠb ig
la im
pa per
Ġsc ottish
Ġis ĠtheĠ
reg istration
ingĠp art
get ting
Ġmor eĠinformation
Ġcomm itt
every oneĠ
Ġsom eth
Ġreg ard
fl or
:Ġ "
Ġdis eas
respon s
aj un
Ġadv ic
Ġadv anc
Ġappro v
Ġpar tĠof
Ġrelation ship
bor n
design edĠfor
rest aurant
impro veĠ
sĠthat ĠareĠ
Ġret ail
65 7
lim it
econom ic
map _
orig inal
ĠatĠle astĠ
oodn tĠ
anal ytic
ĠofĠin structor
relation ship
Ġans wer
-co ordinator
( london
, ĠthatĠ
, Ġthen
4 4
_ err
b estĠ
c lear
c reateĠ
d om
d eb
d umpster
d irect
e _
e aster
e adĠof
f it
f ish
f oodĠ
f ocus
g ain
h ar
h ot
h old
k b
l as
m as
m eal
m ustĠ
m itt
m ost
n ightĠ
n atural
p ark
p ick
p ract
p atient
r oup
v ictor
w ish
w are
w ould
y !
y th
y et
y cl
Ġ [
Ġ issu
Ġ âĢĶ
Ġ everyĠ
Ġ episod
eĠ con
Ġa pr
Ġa wayĠ
in dĠ
in Ġm
sĠ which
or ang
ĠtheĠ con
an a
an iel
re -
re etĠ
Ġs port
Ġs uper
Ġs oft
Ġs eason
Ġs inceĠ
at eĠs
ing ĠtheĠf
,Ġ l
,Ġ us
es ?
oĠ (
is k
ic ienc
Ġc ab
Ġc ook
Ġc aus
om eth
ĠandĠ i
el eg
Ġp at
Ġp al
Ġp ost
edĠ it
edĠ into
ro eton
ch urch
Ġb eli
ĠtoĠ get
ĠtoĠ ensur
isĠ s
isĠ of
Ġh im
Ġh istor
ent ral
le ct
lo p
lo or
lo adĠ
us edĠtoĠ
us eum
ur t
ur ning
Ġf ew
Ġf ellow
ation .Ġ
ation ,Ġ
ver y
Ġin f
im um
esĠ wereĠ
un day
em on
Ġg e
Ġg od
Ġg arden
Ġg irl
if tĠ
if yĠ
Ġre sp
Ġre lic
Ġre spect
Ġre cogn
Ġal mostĠ
all y,Ġ
Ġst op
Ġst artĠ
ne ighbor
eĠth en
ab ric
ag az
ex per
com eĠ
entĠ on
Ġand ĠtheĠs
pro of
pro bab
ha ir
eĠt woĠ
oun der
oun tĠof
iv ely
oo tĠ
ear li
ist rat
s.Ġ in
s.Ġ if
e.Ġ you
lyĠ d
ep tĠ
eĠc or
ell ig
end ar
ateĠ andĠ
Ġwh o
Ġpro duc
ach el
Ġat ĠtheĠsameĠtim
ĠtheĠc o
Ġcon cer
oc cas
ĠisĠ s
ĠisĠ notĠ
we etĠ
we ight
ment ion
ef fort
eĠa Ġ
ĠtheĠm ain
Ġv alu
Ġthat âĢĻsĠ
sp eak
eg or
ĠtheĠd ay
ĠtheĠg am
comp ar
av our
do g
Ġour Ġwebsit
rec ogn
Ġtra der
ĠtheĠl astĠ
rem oveĠ
ĠtoĠs aveĠ
e, Ġand
ĠaĠp er
la x
go ing
Ġacc ept
eĠw ash
aryĠ option
ĠaĠd ietaryĠaid
know ledg
Ġper centĠ
se em
Ġgr and
amp leĠ
Ġmon roeton
ron tĠ
ron ic
equ ip
exp ens
Ġman yĠ
atur day
Ġrec e
Ġrec ord
manag ement
Ġprogram m
ven ienc
Ġhelp Ġyou
imple -p
abil ityĠ
however ,Ġ
dec or
ĠshouldĠ beĠ
aper ror
qual ity
respon d
Ġcommun ityĠ
rang eĠof
require ment
ĠthoseĠ whoĠ
print f
mark etĠ
opportun ity
Ġret urn
Ġpersonal Ġdata
Ġthre eĠ
prom ot
Ġveh icle
Ġamaz on
brid getĠ
Ġsome oneĠ
Ġarthrit isĠ
jour nal
ĠorĠbetter ,Ġor
cordĠ bloodĠ
remov al
chem ical
Ġ*Ġm aperror
Ġpermission ĠofĠinstructor
Ġunt il
Ġang el
Ġcredits.Ġ prerequisit
tu beĠ
eder al
allo on
.ĠbeĠ itĠen
ðŁ Ļ
occas ion
imple-p wqu
.ĠbeĠitĠen act
. Ġthis
6 4
7 5
8 8
9 0
a it
a ith
a ver
b a
b on
b el
b ank
c ouldĠ
c olleg
c ollect
d uring
e in
e on
f ast
f fic
f urther
f lix
h ill
h op
i -
i eĠ
l aborator
m it
m ail
n ail
n au
n 't
o .
p g
p ain
p ass
r an
r oundĠ
s ay
s ĠasĠ
s ĠtoĠtheĠ
s witch
s ĠareĠs
t ra
t op
u x
u an
v as
w o
w is
w ood
z en
Ġ ip
Ġ outĠ
Ġ rac
Ġ event
eĠ ar
Ġt it
Ġa :
Ġa Ġhigh
in o
in Ġa
in âĢĻ
in ĠtheĠp
Ġth reat
sĠ i
sĠ is
sĠ your
sĠ program
er veĠ
er iesĠ
or tĠof
en ess
en hanc
ou ston
ĠtheĠ in
re plac
Ġs earch
ing er
ing Ġat
ing ĠaĠs
Ġan Ġin
Ġan Ġinter
al ĠandĠ
.Ġ on
ar ch
ar yĠc
,Ġ when
,Ġ whoĠ
of tĠ
Ġc ol
Ġc offe
Ġc ajun
ĠandĠ in
ĠandĠ mak
el y,Ġ
il tĠ
for Ġall
ed in
ed ĠtheĠp
Ġp ixel
Ġw ould
ro de
Ġb re
Ġb row
Ġb edroom
Ġb roadc
Ġm ean
Ġm odel
Ġm arketĠ
le ftĠ
Ġd ayĠ
Ġd etail
us b
Ġf all
Ġf ail
Ġf riend
id d
Ġto Ġa
Ġto ĠtheĠd
em ic
Ġyou ĠhaveĠ
Ġof ĠtheĠc
Ġg ood
if fic
Ġre port
ul ousĠ
ac cess
eĠth er
ag raph
âĢĻ .
com bin
com plex
itĠ for
qu ot
ha vi
iv e,Ġ
Ġl and
um n
eĠof Ġyour
ear ning
s.Ġ itĠ
e.Ġ in
e.Ġ itĠ
ep per
Ġn am
Ġn atural
e,Ġ w
be y
Ġwith ĠaĠgradeĠofĠc
ant ag
ĠtheĠs it
Ġon ĠtheĠs
Ġsh ip
,ĠandĠ s
ap pro
end ing
sĠin toĠ
cl in
cl as
eĠd ata
haveĠ theĠ
Ġab us
Ġab oveĠ
iz on
int ag
Ġac qu
Ġac eton
Ġch eck
eĠa Ġd
ies ,Ġ
Ġsp endĠ
ust ain
Ġj ob
eĠb ack
ĠtheĠf ollow
Ġv ol
Ġv oic
Ġk itchen
Ġthat 'sĠ
work ingĠwith
work shop
ĠtheĠb as
ĠtheĠb od
cont ribut
soĠ much
can Ġi
ib ility
notĠ beĠ
Ġpl atform
ical Ġ
uc cessĠ
comp uter
ĠthereĠ isĠa
Ġaf fil
act iveĠ
Ġlo c
pos tĠ
red Ġto
do ctor
mentĠ in
Ġfrom Ġ
Ġag re
Ġag enc
not e:
Ġres ult
lik eĠa
rem ember
plac eĠtoĠ
Ġne ar
ection Ġ
Ġthes eĠp
inter national
yĠm ean
sc ap
Ġe y
Ġe qu
ott om
are a
yĠb as
Ġatt ract
get t
eĠthatĠ you
whatĠ you
compan ies
bl u
cer t
vis itor
sĠm ayĠ
emp ower
ĠtheĠpro gram
Ġrem odel
eĠsh all
eĠsh ouldĠ
bas edĠ
Ġhe atĠsink
Ġfin ish
imp actĠ
ide asĠ
Ġany oneĠ
ĠweĠ areĠ
manag er
unt eer
Ġtrans mission
long er
Ġcompan yĠ
rop ean
perform anc
graph ic
cons um
Ġph ot
ĠnotĠ beĠ
umpster ĠforĠr
Ġcommun ication
Ġsign ag
sĠcan ĠbeĠ
Ġbr andĠ
hadĠ been
olid ay
christ ian
Ġmic hael
Ġcons ult
uccessful lyĠ
esc rib
Ġjust ic
Ġann ual
wa it
employ e
Ġactiv itiesĠ
def init
entĠin Ġmonroeton
Ġameric an
kindleĠ book
who ĠareĠ
Ġpres ent
Ġrequire ment
Ġstand ard
concer n
ĠtheĠsh oulder
brid g
ecut iveĠ
iscuss ion
onder ful
u. s.Ġ
eĠtr ans
arb ageĠd
begin ning
eut ic
Ġ*Ġs imple-pwqu
Ġboard ingĠschool
inem a
emerg enc
ĠthermalĠresist anc
ufact ur
agaz in
.ĠbeĠitĠenact ed,
umpsterĠforĠr entĠinĠmonroeton
arbageĠd umpsterĠforĠrentĠinĠmonroeton
" .
/ m
/ w
3 1
3 5
4 1
a vi
b t
b all
b eĠs
b est
b eĠtheĠ
c over
c Ġ(
d r
d epend
d amag
e /
e o
f lex
f actor
g at
g un
g am
g ov
i od
k y
k ath
l an
l ast
m o
m il
m other
o ter
p ast
r oĠ
r ick
r ans
r ush
s tĠof
s uch
s chool
s Ġabout
t d
v eg
w on
w eddingĠeventĠ
y z
y etĠ
y 'sĠ
z y
Ġ eas
Ġ ..
eĠ as
eĠ atĠ
eĠ all
eĠ isĠa
eĠ provid
Ġt il
Ġt end
Ġt ast
Ġt ax
in ĠtheĠs
in Ġyour
sĠ over
er Ġof
er sĠof
er Ġ(
on ,Ġ
on th
on to
en ar
en ior
ĠtheĠ res
an e
re ar
Ġs inc
Ġs everal
Ġs usp
at al
at is
at egor
it er
it ment
it ness
it âĢĻs
ing sĠ
ing Ġst
ing ĠtoĠtheĠ
yĠ (
yĠ w
.Ġ "
.Ġ of
.Ġ with
.Ġ how
.Ġ voicecomputer
,Ġ "
,Ġ for
,Ġ isĠ
,Ġ pleas
es Ġar
es ĠandĠs
es ,Ġand
is Ġan
Ġc od
Ġc ard
Ġc over
Ġc li
Ġc ertain
Ġc laim
ĠandĠ weĠ
ĠandĠ other
el er
th re
th es
il ver
ed Ġthem
ed ĠtoĠs
Ġp m
Ġp et
Ġw ish
st ra
st ream
st reetĠ
edĠ ch
ch er
ch oic
ch annel
Ġb ab
Ġb estĠ
Ġm eal
Ġm iss
ĠtoĠ work
lo veĠth
us ion
et ric
ur al
Ġf un
Ġf ix
Ġf irm
ol f
id nâĢĻtĠ
Ġin dustri
im Ġdomain
esĠ d
atĠ h
ow l
am bo
ir ing,Ġ
Ġg en
Ġg oĠ
Ġg reen
Ġal though
Ġar g
Ġar tĠ
wh ol
all yĠs
Ġst oodntĠ
op ular
our tĠof
ag u
ag ent
ex ist
ex press
ex clus
ex hib
ot yp
com esĠ
pro cessĠ
oun ter
iv al
iv il
Ġl ay
Ġl ittleĠ
con versation
up ĠtoĠ
s.Ġ h
e.Ġ c
e.Ġ youĠcan
e.Ġ when
Ġfor Ġm
Ġfor Ġyour
s,Ġ which
Ġn o
Ġn ov
Ġn utrition
Ġn achĠbaliyeĠ
e,Ġ or
ud getĠ
Ġsh ort
ri endĠ
eĠc ur
anc e,Ġ
cl ar
Ġad ult
20 2
Ġwh ether
ĠtheĠc npa
ever green
eĠin clud
new s
oc ol
Ġcom plex
eĠd i
bu ildĠ
ail yĠ
iz z
iz ation
,Ġs o
ew ork
ew arm
ment .Ġ
int el
ityĠ in
Ġch ild
Ġex ist
Ġsp ir
Ġsp ot
li br
Ġj anuaryĠ
ast ic
Ġv ot
Ġi Ġam
cont act
cont roll
Ġr at
Ġr out
Ġr he
ĠtheĠd is
reat h
ĠhaveĠ been
isĠa ĠgreatĠ
ĠtheĠt woĠ
eb ru
Ġlo v
butĠ i
sĠtoĠ beĠ
mentĠ for
ĠandĠs oundĠ
ĠtheĠl ong
view Ġwith
.Ġs oĠ
ersĠ whoĠ
lik eĠ
lik ely
yst er
ĠaĠp riv
he adĠof
ric tion
ĠtheyĠ wereĠ
Ġsc reen
Ġstud io
yĠm ember
pre tt
sc reen
min ut
reg ister
Ġcont entĠ
Ġcont act
Ġcont actĠ
par is
br anch
sĠwith ĠtheĠ
edĠon ĠtheĠ
eĠthatĠ isĠ
Ġmor eĠthanĠ
evelop mentĠ
ĠaĠl ong
requ est
ingĠb ack
atedĠ from
Ġwhich ĠisĠ
vis or
Ġsom eĠof
inv olv
oneĠof ĠtheĠ
cor por
rag inâĢĻ
Ġrem ain
Ġcl ick
imp act
Ġbo x
manag ementĠ
befor eĠtheĠ
ah ,Ġ
rent al
Ġcompan iesĠ
Ġdis play
var iousĠ
Ġsup portĠ
enjo yĠ
cons ult
fort un
Ġpar agraph
Ġstudent sĠ
Ġtyp eĠof
net work
net flix
tt p
Ġtru st
Ġtru ck
Ġdec emberĠ
dust ryĠ
eleb ration
feat ures
opportun itiesĠ
shouldĠ beĠ
Ġser ver
build ing
util .h
Ġann ounc
prof it
Ġthere for
Ġtreat ment
hel d
Ġameric a
Ġten n
phot ograph
Ġtherap eutic
Ġanalys is
jun eĠ
jun ior
Ġsty leĠ
ĠstateĠ univers
jour ne
Ġbut ton
committ e
eĠag ain
otton Ġtrader
amer a
doesĠ notĠ
Ġ*Ġ util.h
yuk on
Ġthous andsĠof
Ġarriv al
expl or
current lyĠ
prepar ation
intro duc
easter n
Ġapr ilĠ
ambo oĠ
raginâĢĻ Ġcajun
Ġparagraph Ġ
Ġtherapeutic ĠboardingĠschool
( andĠ
, "
, Ġsh
, ĠtheyĠ
. ;
. Ġas
. ĠatĠ
. Ġtak
6 6
; ĠandĠ
a ic
a Ġg
a ul
b b
b usiness
b usinessĠ
c ru
c ook
c rit
d ateĠ
d eanna
e oĠ
e il
e edĠ
e em
f our
f ew
f ood
f oundĠ
g od
g aveĠ
g plac
g rown
h ost
h ood
i .
i Ġ
i ,Ġ
i ber
l ab
l ack
l amp
l istĠ
m ajor
n essĠof
o gu
o veĠth
p ack
p ackag
s al
s Ġas
s erv
t re
u sĠon
v est
w ritten
y ĠtheĠ
y Ġst
z ip
Ġ ent
Ġ veryĠ
Ġ option
Ġ âĢĺ
Ġ email
Ġ xĠ
Ġ radio
Ġ engin
eĠ at
eĠ work
eĠ when
Ġt or
Ġt able
Ġt ah
Ġt empl
Ġa ustralia
in ĠaĠ
in Ġdef
sĠ -
sĠ h
sĠ itĠ
sĠ byĠ
er ,
on ic
on e,Ġ
ou ble
ĠtheĠ am
an ag
re et
Ġs ol
Ġs ay
Ġs election
Ġs eptemberĠ
at elyĠ
it ter
it ud
it iat
ing .ĠtheĠ
ing ton
ing ĠaboutĠ
ing Ġspac
yĠ on
al s
al low
.Ġ each
.Ġ what
.Ġ onc
ar il
ar y,Ġ
es i
es ĠatĠ
is ĠaĠ
ic in
Ġc ould
Ġc ert
Ġc rim
om in
ĠandĠ sp
el tĠ
el iz
il e.
ed Ġa
ed om
ed ĠtheĠs
ed ,ĠandĠ
ed Ġtheir
ed Ġthat
ed ĠaboutĠ
Ġp ut
Ġp ick
Ġp ract
Ġp articular
Ġp remium
Ġw ayĠ
Ġw antĠ
Ġw ater
Ġw inter
Ġw ineĠ
Ġw alk
Ġw orld
st y
st ick
st ock
edĠ over
ch os
ch ester
Ġm eet
Ġm usic
Ġm obil
ĠtoĠ do
ĠtoĠ know
Ġh ospital
le .
le .Ġ
le qu
le sĠof
Ġd ur
Ġd riveĠ
Ġd epart
us ual
Ġf act
Ġf ood
Ġf urther
Ġf rench
ation ĠandĠ
ver b
id at
Ġin Ġb
Ġin ĠtheĠm
Ġin ĠtheĠp
ig ur
esĠ will
esĠ includ
ra ction
un n
un iv
Ġyou Ġwill
Ġof Ġf
Ġof Ġour
Ġg oogleĠ
if Ġi
Ġre leas
ec os
ec ision
ec ret
Ġal ask
op h
op t
ab lyĠ
ab ulousĠ
ag eĠandĠ
ingĠ out
os sib
ut ureĠ
âĢĻ sĠin
pl ain
res tĠ
qu een
eĠs ay
eĠs how
Ġl im
Ġl icens
um b
con duct
s.Ġ -
s.Ġ w
s.Ġ for
e.Ġ w
s,Ġ includ
Ġn umber
Ġn ecess
e,Ġ butĠ
be gan
Ġas ĠaĠ
ant it
Ġon -
Ġsh ould
Ġsh opp
Ġyour Ġhom
anc eĠb
s>Ġ<s> ĠthisĠ
du str
Ġad apt
Ġwh it
Ġpro c
etĠ with
ĠtheĠc ountyĠcouncil
eĠin Ġyour
eĠm ed
ly .
ly ĠandĠ
eĠd oĠ
eĠd own
Ġ( $
ew ayĠ
ru byĠ
Ġch em
ef ile.
ph oneĠ
ies Ġand
Ġsp ec
Ġsp eech
edĠb yĠs
eĠb ook
ĠtheĠf in
ĠtheĠm or
Ġtheir Ġf
s. Ġs
Ġk id
Ġk ind
ight ĠandĠsoundĠ
work edĠwith
ĠtheĠb ack
ub ject
comm od
Ġam b
eas yĠtoĠ
mak eĠ
mak esĠ
ĠtheĠg u
isĠa vailableĠ
Ġtim eĠandĠ
ass uan
ĠtheĠt eam
Ġaf ric
Ġlo veĠth
yĠof Ġmeig
ous eĠ
mor eĠthanĠ
Ġtra ffic
arg are
Ġle ftĠ
pres entĠ
eĠisĠ s
eĠto Ġs
cal lop
he adĠ
Ġne ver
lin e.Ġ
Ġthes eĠs
go tĠ
ĠtheyĠ haveĠ
gr ant
Ġis Ġan
Ġbe ing
Ġbe am
Ġacc essĠ
Ġstud y
Ġstud yĠ
Ġstud entĠ
provid es
pre hensiveĠ
eĠwith ĠtheĠ
Ġe u
Ġcont ent
,Ġand ĠtheĠ
Ġass ess
Ġass ign
ient ist
und red
esĠof ĠtheĠ
Ġatt ach
Ġwork shop
se en
se qu
amp ion
fin ancial
Ġse em
compan iesĠ
Ġqu arter
vis ual
Ġhigh -
Ġhigh Ġschool
ret t
Ġpr of
Ġy uk
cor rect
med iation
exp and
ym p
ingĠon ĠtheĠ
aidĠ count
cur rentĠ
ĠasĠwell Ġas
ech nolog
rel at
eĠsp ac
ingĠa rea
oll abor
aff il
Ġint el
.ĠthereĠ areĠ
stand ardĠ
complet elyĠ
just ic
ĠtheseĠ ar
Ġanal yz
Ġso Ġs
Ġcommun ity
fil m
.Ġst ep
vol um
alĠ ill
ĠanĠex c
Ġdec ision
dust ry
esp it
feat ur
Ġmedia Ġgroup
kitchen Ġremodel
local Ġauthor
sup portĠ
Ġchrist masĠ
gi ada
util iz
ocial Ġmedia
afet yĠ
Ġaccord ingĠtoĠ
personal Ġdata
.cĠ( map_
hel dĠ
oak ridg
ĠsaidĠ count
newĠyork ,Ġ
ray er
Ġhop eĠyou
Ġext ra
entertain ment
Ġtry ingĠtoĠ
Ġplanning Ġapplication
Ġachi eveĠ
Ġinc reas
Ġarthrit is
Ġaud ienc
orig in
unitedĠ stat
beli ev
Ġprot ection
Ġadmin istrat
augh ter
eĠaf ter
invit esĠ
relev ant
Ġjo hn
Ġphys ical
agn os
responsibleĠ for
king dom
ugg est
chedu leĠ
plug in
ubsc ription
Ġyouth Ġprogram
Ġ*Ġmaperror .cĠ(map_
ðŁĻ Ĥ
iffic ult
ĠwithĠaĠgradeĠofĠc -
Ġaffil iat
Ġ*Ġsimple-pwqu ery
Ġcli ent
ah,Ġ ok
Ġtah lequ
ecos ystem
efile. am
ightĠandĠsoundĠ (london
Ġtahlequ ah,Ġok
( c
) Ġfor
) Ġor
, Ġan
, Ġto
, ĠtheĠs
. ĠthatĠ
3 8
5 6
9 8
9 9
? Ġhow
a Ġc
a Ġm
a Ġfor
b urn
b eĠsur
b elow
b rok
b irth
c ut
c up
c reen
c are
c ourt
e "
e e
e es
e ur
e y.Ġ
f ail
g b
g e
g ar
h et
h ardĠ
h ospital
i as
i ĠwouldĠ
l ad
l ich
l ength
m h
m at
m ic
m ay
m ind
m aterial
m ovi
m ethod
o th
p -
p u
p ect
p rec
p ull
r Ġ
r ul
r ant
r y.Ġ
r ength
s l
s z
s man
s ection
s ession
s olution
s :Ġ
u sĠs
v a
v in
w est
w oodĠ
y ork
z o
Ã ³
Ġ '
Ġ log
Ġ ident
Ġ every
Ġ oldĠ
eĠ ch
Ġt ex
Ġt oldĠ
Ġt ues
Ġa re
Ġa war
Ġa wes
in ar
in form
in forc
sĠ per
sĠ willĠb
er ĠtoĠ
or Ġin
or mon
ou thern
ou bt
an ,Ġ
an el
an ish
re p
re li
re venu
re lax
Ġs ant
Ġs ong
Ġs av
Ġs ourc
Ġs uccessful
Ġs ummer
Ġs implyĠ
Ġs ecurityĠ
at o
at om
at ingĠin
at ellit
it 's
ing ,ĠandĠ
ing ly
ing Ġthat
Ġan yĠof
yĠ or
al way
.Ġ l
.Ġ your
.Ġ man
.Ġ her
.Ġ even
.Ġ pleas
.Ġ pleaseĠ
ar ra
ar ies
ar ning
,Ġ on
,Ġ our
,Ġ notĠ
,Ġ itĠisĠ
es ,Ġs
es pres
of Ġcours
Ġc red
Ġc ost
Ġc enter
Ġc los
Ġc amp
Ġc ollect
Ġc areer
el lo
el ement
el yĠandĠ
th em
th rough
il ityĠof
il itiesĠ
ed u
ed Ġthrough
ed nes
Ġp utĠ
Ġp assion
Ġp ackag
Ġw ood
Ġw omen
st andĠ
st uck
edĠ (
edĠ us
Ġb eĠs
Ġb alloon
Ġm o
Ġm is
Ġm eas
Ġm ostĠ
Ġm ichelangeloĠantonioni
Ġm oment
ĠtoĠ h
ĠtoĠ our
isĠ on
as printf
Ġh eĠ
Ġh is
ent yĠof
ct iv
Ġd em
Ġd riv
Ġd river
Ġd ragon
lo b
lo th
lo sel
us ,Ġ
us uallyĠ
et a
ur eĠof
Ġf ul
Ġf ranc
ation sĠ
ver n
Ġin sur
Ġto ĠtheĠs
Ġto Ġtheir
im ageĠ
im press
un al
Ġof Ġc
Ġof Ġb
Ġof ĠtheĠp
am m
am ent
am ageĠ
Ġg odĠ
Ġre p
ill ust
ec or
Ġar m
ne edĠ
eĠth is
with Ġyou
ab it
ab oveĠ
ag ar
ex ascal
ingĠ outĠ
ot iv
pl atform
Ġand ĠtheĠc
res ourc
pro stateĠhealth
ak eh
qu ez
eĠs o
eĠs olution
eĠt eam
Ġl iveĠ
Ġl ater
Ġl aw
Ġl angu
ĠthatĠ itĠ
ĠthatĠ sh
rom is
up grad
ev i
ĠthisĠ websit
s.Ġ c
s.Ġ p
s.Ġ you
s.Ġ our
s.Ġ weĠ
ain tĠ
e.Ġ for
Ġn ational
e,Ġ d
sĠof Ġyour
Ġwith Ġyou
ant ic
ant ly
ĠtheĠs eason
ĠtheĠs econdĠ
Ġon e-
ĠasĠ weĠ
your Ġbusiness
sĠandĠ other
sĠin Ġyour
no .Ġ
cl ub
ip leĠ
Ġad mission
Ġor gan
ach ineĠ
etĠ c
etĠ of
sh in
ĠtheĠc ountyĠc
will iam
ever yĠs
new ĠyouthĠprogram
out door
Ġcon c
Ġcon f
Ġcon tain
Ġcon nect
eĠd is
eĠd riv
Ġall -
Ġall Ġyour
Ġ( b
bu ilt
ableĠ for
ment or
Ġch oic
Ġch urch
Ġex chang
ies .
ies .Ġ
li b
Ġj our
ĠtheĠf ull
ign or
Ġv isit
gra v
Ġi 'm
ĠtheĠp ar
ĠtheĠp res
ĠtheĠb ook
cont ent
sp ecific
Ġr en
Ġr ightĠ
own er
comm ercial
eas yĠ
ĠtheĠg arden
ia ,Ġ
Ġtim e,Ġ
ass ist
ful ly
sĠs o
av en
red ib
ound proof
Ġit âĢĻsĠ
s, ĠtheĠ
rec entĠ
rec ordĠ
Ġfrom ĠtheĠ
Ġag ric
ĠaĠs mall
Ġthem .
eng land
Ġtra ditional
ov en
.Ġs om
ĠalsoĠ beĠ
when Ġyou
Ġadd res
cal endar
ĠaĠp erson
edĠwith ĠtheĠ
Ġun iqu
ĠaĠb etter
ĠaĠb achel
Ġne edĠ
ĠitĠ com
bo ardĠ
Ġacc ur
inter net
pre fer
ĠaĠm in
edĠfor ĠtheĠ
Ġafter ĠtheĠ
mon eyĠ
lic tĠ
ry ps
ott ag
ient ific
Ġ* Ġmak
sĠand Ġtheir
Ġatt empt
iat or
Ġmor eĠthan
itsĠ own
ally ,
ner ship
se ek
ath room
aut om
vis itĠ
Ġhigh way
Ġreg ister
Ġmon eyĠ
Ġinter national
ret ail
Ġav oid
Ġav ailable
Ġdo es
inv itation
Ġpr im
ron tĠof
sĠfrom ĠtheĠ
high er
high lyĠ
med ia
ĠaĠw ideĠ
Ġrel atedĠ
ym bol
Ġhe adĠ
import anceĠof
Ġover Ġ
whereĠ youĠcan
rad ioĠ
uf fic
sĠb etween
commun ication
Ġknow ledg
information Ġon
ingĠh isĠ
Ġwe ightĠ
unch Ġballoon
Ġtrans form
ĠtoĠc reat
18 5
eĠg litter
Ġallow sĠyou
lif eĠ
elect ronic
Ġsup pl
program m
vir t
Ġstat ementĠ
ĠaĠlo t
les sĠof
Ġadv oc
Ġgroup Ġ
yĠp ark
valu eĠfor
kin dĠof
Ġaut o
blo od
Ġtyp esĠof
Ġlook ĠatĠ
put eĠ
Ġbl u
Ġby ĠtheĠ
hand l
Ġdef in
tt ps
rest riction
full Ġof
eleb r
Ġen ough
nextĠ year
version Ġof
sup pl
appl ic
bal anc
priv ac
prof il
Ġaccord ingĠto
Ġaltern at
Ġaltern ativeĠ
ĠtheĠworld âĢĻsĠ
quick lyĠ
guid elin
-in ch
edĠup on
phot oĠ
possibleĠ toĠ
cottish Ġtelevision
yc eal
pop ulation
Ġsection Ġ
special ist
implement ation
avor it
Ã¼ lich
environment al
unitedĠ kingdom
compl ish
eĠco ordinator
eĠman ag
Ġspeak er
eu ropean
conc ept
Ġvar iousĠ
offic ial
entir eĠ
ĠthereĠisĠ noĠ
Ġcal yceal
ureĠandĠ function
does n'tĠ
rather Ġthan
ĠtheĠhigh estĠ
ĠtheĠprocess ingĠof
object iveĠ
ipl in
umo Ġaffiliat
exam in
ctober Ġ
emotion al
Ġassociat edĠwith
Ġtal ent
revi ousĠ
ingĠpart yĠ
Ġrecogn ition
earli er
Ġcredits.Ġprerequisit e:
Ġbrow ser
havi or
ewarm ingĠpartyĠ
Ġ*Ġutil.h Ġ(
.Ġstep Ġ
oundproof Ġwindow
Ġ*Ġmak efile.am
! Ġw
' dĠ
, Ġat
, ĠtheĠg
, Ġantonioni
- -
- on
- row
- endĠ
. Ġand
. Ġat
. ĠalsoĠ
. ĠaĠp
. org
2 9
3 7
3 34
4 6
4 7
8 5
; Ġ
_ s
a -
a Ġd
a Ġf
a way
b ed
b ul
b our
b ak
b eĠc
b ound
b roadc
c ostĠ
c ardĠ
c ry
c los
c offe
d al
d es
d egreeĠin
e etĠ
e adĠ
e autiful
f f
f ol
f iveĠ
f etĠ
f itt
f ranc
g a
h our
h andĠ
i ver
i Ġcan
j ur
j ack
j unction
k a
k eg
l ank
m iss
n ectĠ
n ameĠ
n orm
o sĠ
p il
p eter
p olish
s a
s f
s w
s ess
t m
t leĠ
u el
u sĠof
v il
w d
w ild
w ash
w indow
x t
y am
y Ġsh
y es,Ġ
y nam
Ġ =
Ġ enter
Ġ usĠ
Ġ outĠof
Ġ education
Ġ ocĠhumanĠrelation
Ġ rail
Ġt ip
Ġt ick
Ġt ty
Ġa th
Ġa im
Ġa idĠ
Ġa Ġplac
in tĠ
in ner
in Ġorder
in fluenc
in aryĠoption
Ġth urs
sĠ her
sĠ willĠbeĠ
er tĠ
er sĠin
on dĠ
tĠ isĠ
or Ġsh
or row
or ryĠ
en an
en ic
en ali
ou dĠof
ĠtheĠ st
ĠtheĠ information
re storativeĠ
Ġs am
Ġs oul
Ġs erv
Ġs af
Ġs olution
Ġs witch
Ġs impleĠ
Ġs elf
Ġs aturday
at ĠtheĠ
at ach
at ely
it v
it iv
it ect
it nessĠ
it imateĠ
ing ĠasĠ
ing ĠtheĠc
ing ĠtheĠg
ing ful
ing ĠwasĠ
Ġan sel
Ġan Ġun
Ġan yĠm
al sĠ
.Ġ j
.Ġ from
.Ġ inĠ
.Ġ itâĢĻsĠ
.Ġ q:
ar ant
ar eĠa
,Ġ if
,Ġ we
,Ġ mak
,Ġ even
es ;
es ĠasĠ
es .ĠthisĠ
es ,ĠtheĠ
is l
is ation
is Ġalso
ic ell
Ġc ap
Ġc irc
Ġc ollection
Ġc raft
ĠandĠ our
ĠandĠ even
ĠandĠ long
el der
el y.Ġ
th isĠ
th etic
ed ĠthisĠ
ed ĠtheĠt
ed back
Ġp ool
Ġp ict
Ġp iec
Ġw ind
Ġw ord
Ġw edd
st all
st ag
st itut
ro of
ro ot
ro bo
ch eĠ
Ġb lo
Ġb enefit
Ġm en
Ġm il
Ġm yĠc
Ġm ult
Ġm aster
ĠtoĠ you
ĠtoĠ offer
isĠ for
isĠ notĠ
Ġh all
Ġh ost
Ġh olidayĠ
Ġh ttp
ent enc
ent ryĠ
le av
le ft
Ġd rop
Ġd amag
Ġd igital
us eĠa
et ting
âĢ ¢
ur ger
Ġf ound
Ġf eet
Ġf ather
ol n
ol ymp
Ġin s
Ġin volv
ig g
ig at
ig raph
Ġto ĠtheĠp
ra v
ra z
un k
un lessĠ
Ġyou 'll
leĠ andĠ
Ġof ĠtheĠw
am ong
am ousĠ
am az
am ental
Ġg ot
Ġg raph
Ġg overnment
Ġre pair
ul s
ul in
ul tĠof
ac qu
ac redĠ
ec olog
Ġal lec
wh y
Ġst on
Ġst ress
ne g
ne edĠto
eĠth e
with Ġyour
ad o
ab in
ab eth
ab les
ingĠ i
ingĠ experienc
ot eĠ
ot landĠ
os itiveĠ
ut ri
com ple
Ġand Ġan
res ultĠ
res ervation
qu iteĠ
ha w
eĠs c
eĠs al
eĠs aid
eĠt empl
iv ision
Ġl ab
Ġl ess
per hap
and er
.ĠtheĠ m
.ĠtheĠ t
ear ly
up on
up dat
ev olution
ist ak
s.Ġ d
s.Ġ m
e.Ġ our
e.Ġ ifĠyou
ĠareĠ notĠ
lyĠ on
enc eĠ
enc eĠw
enc ry
Ġfor c
Ġthe at
Ġthe yĠs
s,Ġ d
s,Ġ you
Ġn u
Ġn or
Ġn av
ud get
be h
be aut
Ġas ĠtheyĠ
Ġas ĠaĠdietaryĠaid
Ġwith in
est ĠandĠ
est im
Ġyour Ġapplication
ell -
your Ġown
ĠaĠ year
od ern
s>Ġ<s> Ġd
Ġad just
Ġor ang
Ġwh yĠ
ach i
por ter
por tĠof
ĠtheĠc urrentĠ
new Ġrelic
eĠm in
eĠm yĠ
eĠm ayĠ
eĠm ov
eĠm arket
eĠm eet
ly ,
out com
Ġcon nection
Ġcom mon
eĠd etail
eal er
bu iltĠ
âĢĻsĠ s
ail or
,Ġs c
ment ,Ġ
int eg
Ġac commod
Ġac complish
Ġch annel
ef fectĠ
weĠ will
Ġex ercis
Ġex plain
eĠa Ġb
ph er
ph il
eĠtoĠ your
ies .ĠtheĠ
Ġsp ect
man ufactur
ust er
Ġj es
Ġj ulyĠ
eĠb as
ĠtheĠf inal
ĠtheĠf uture
ĠtheĠm in
Ġv ision
Ġv illag
Ġtheir Ġ
Ġi ĠhaveĠa
ĠtheĠb ridg
ĠtheĠb enefit
ĠtheĠb ottom
sp ec
'sĠ m
ub eter
Ġr id
Ġr ank
Ġr isk
own edĠ
ĠtheĠd ef
reat iveĠ
Ġam and
eas tĠ
ers âĢĻ
ers Ġand
ĠtheĠg pc
Ġtim eĠin
ass ess
comp ut
ĠthereĠ was
ful fill
ob vious
eĠp res
ĠtheĠt yp
Ġtak ing
Ġtak esĠ
Ġtak eĠtheĠ
Ġtr yĠtoĠ
yĠc ours
Ġlo tĠof
ult ure
y,Ġ or
mor eĠf
inc ipl
inc oln
how ĠtoĠ
Ġag eĠ
ĠaĠs ingleĠ
Ġtra il
not ĠtoĠ
.Ġi Ġam
ersĠ can
lik eĠto
Ġle ah
Ġadd edĠ
io dĠof
row s
ĠaĠb eautiful
ĠaĠc ar
ingĠin to
Ġthes eĠl
go al
ĠtheyĠ will
bo ot
pa idĠ
Ġsc out
Ġacc eler
jo int
inter estĠ
eĠw ant
pre p
Ġe ither
mon ey
par ent
ott leĠ
ary land
look Ġfor
ke yĠ
esĠof Ġ
isc over
,Ġm ayĠ
iat es.
includ es
yĠd ayĠ
yĠd esign
Ġcomm and
Ġcomm ercial
Ġse eĠ
Ġse ek
every on
Ġreg ular
sĠm ustĠ
rac ingĠp
Ġpr oĠ
val le
able .Ġ
med iateĠ
15 0
vert ical
fre ez
fre edom
Ġservic es,Ġ
app oint
Ġfin anc
ĠwouldĠ beĠ
whereĠ you
ech n
rel atedĠ
Ġwant Ġto
lead ership
ĠatĠtheĠ endĠof
Ġmak eĠ
stud entĠ
ah n
Ġint eg
Ġtrans fer
Ġtrans formation
.ĠthereĠ isĠ
abil ityĠof
oog le
Ġcompan y
au x
rip t
wayĠ of
.ĠitĠ wasĠ
Ġgu est
exc ellentĠ
respon sib
cons ist
sm ith
ĠandĠp epper
light lyĠ
Ġaccess ĠtoĠ
Ġcommun ities
ĠaĠre t
product iveĠ
require dĠ
s>Ġ<s>Ġ ifĠyou
iolog ical
dis eas
dis play
vol unteer
univers ityĠof
doĠ you
Ġbas ic
!Ġi âĢĻm
Ġbr and
spect iveĠ
oft wareĠ
Ġinst all
feat ure
apt op
opportun ities
enef itĠ
Ġset ting
ordĠ bloodĠ
phys iolog
hon or
Ġser iesĠ
letĠ usĠ
)Ġ [
org e
Ġsub sc
Ġfre eĠtoĠ
Ġscienc eĠ
ietaryĠa ideĠ
fill edĠwith
priv ateĠ
Ġtechn ical
orm oneĠ
Ġro adĠ
init elyĠ
ern el
Ġassoc iateĠ
Ġcall igraph
mos het
ĠinĠs ightĠandĠsoundĠ(london
Ġpos ition
etim esĠ
concer t
entertain mentĠ
known ĠasĠ
compet ition
-t ech
pi ec
Ġachi ev
interest edĠin
Ġqual ityĠ
fa ction
lu x
Ġstock Ġexchang
buf fer
ĠatĠle ast
Ġappoint ment
eĠmon th
eĠdo es
yuk onĠxl
Ġunivers ity
Ġmanag ement
Ġcent ur
expl ain
Ġvide oĠ
eĠadmission Ġcounselor
relev antĠ
Ġvis itor
Ġphys ician
legal Ġbas
orry ĠtoĠ
Ġsha re
rust ic
ĠtheĠlarg estĠ
grand ma
locat edĠin
Ġindepend entĠ
Ġcalifornia ĠstateĠunivers
eĠthey ĠareĠ
umo affil
jes us
ĠinĠm ind
Ġapart mentĠ
Ġbeh ind
yber sourc
itiz en
immediat elyĠ
abet esĠ
Ġmarch Ġ
ainten anc
Ġcommitt e
las er
exper iment
probab lyĠ
ĠorĠbetter,Ġor ĠpermissionĠofĠinstructor
laborator yĠ
nail Ġpolish
nau zer
vas quez
Ġthreat en
yĠmean sĠof
atĠh atach
ambooĠ plantĠ
inĠdef icienc
eliz abeth
chos en
undred sĠof
ampion ship
Ġyuk onĠxl
redib lyĠ
ryps inĠdeficienc
icell i
enceĠw ar
iates. zip
umoaffil iates.zip
atĠhatach moshet
% ),
) Ġin
) Ġwith
) ĠhasĠbeen
, ĠtoĠ
, ĠtheĠm
, ĠtoĠbeĠ
, Ġshall
- m
- day
- se
- tim
- war
- term
- basedĠ
. a
. p
. Ġth
. Ġto
. Ġthey
. Ġalso
. ĠthankĠyou
. Ġamazon
0 3
4 3
4 00
5 5
8 6
? Ġ
? Ġyou
? Ġ+
a Ġb
a âĢĻsĠ
b adĠ
b rough
b oundĠ
b yĠd
c m
c ad
c ial
c ountyĠcouncil
c ulation
c rim
c irc
c ampaign
d ur
d ev
d ry
d rop
e =
e j
e ap
e oneĠ
e :Ġ
f ci
g or
g rat
g arden
g odd
g dsm
h y
h an
h ir
h all
h oodĠ
i ar
i res
i e,Ġ
i etĠ
i antĠ
i 'veĠ
j Ã¼lich
k ernel
l er
l ag
l ip
l ass
m en
m itĠ
m artĠ
m odel
n on
n dĠ
n ation
n av
n utrition
o h
o al
p in
p et
p leĠ
p oint
p ush
p articular
p otential
r d
r and
r andĠ
r out
r ical
r ash
s "
s '
s ĠaboutĠ
s impl
s imple
s Ġaround
s uit
t ,Ġ
v inc
w estĠ
w alk
w rong
x tĠ
y ri
y .Ġi
z on
Ã ł
Ġ :
Ġ x
Ġ |
Ġ ir
Ġ ell
Ġ low
Ġ everyth
eĠ hasĠ
Ġt n
Ġt ur
Ġt ableĠ
Ġt estĠ
Ġt rip
Ġa z
Ġa Ġto
Ġa Ġch
Ġa reas
Ġa Ġspecial
in .Ġ
in ct
in ĠtheĠm
in Ġour
in ingĠroom
Ġth ick
sĠ f
sĠ com
sĠ wasĠ
sĠ âĢľ
sĠ âĢĵ
sĠ under
sĠ haveĠa
sĠ shouldĠ
er ĠandĠ
er Ġw
on Ġb
on ent
on eĠs
on Ġour
on ian
or yĠ
or al
or sĠin
or izon
en a
en ,Ġ
en abl
en alt
ĠtheĠ year
ĠtheĠ rightĠ
an ic
an sp
re form
Ġs ell
Ġs aveĠ
Ġs eat
Ġs impl
Ġs kin
Ġs aid
Ġs ingleĠ
Ġs ector
Ġs weet
Ġs ecurity
Ġs weetĠ
at eĠtheĠ
at edĠin
at ure
it ar
it ĠalsoĠ
ing /
ing le
ing sĠandĠ
ing ĠandĠs
ing sĠareĠ
ing Ġthrough
ing ĠaĠp
ing Ġstrateg
ing Ġproject
Ġan Ġintro
Ġan atom
yĠ win
al dĠ
al Ġd
.Ġ ch
.Ġ bridgetĠ
ar y.Ġ
ar Ġhill
,Ġ j
,Ġ k
,Ġ from
,Ġ mor
es Ġat
of ten
is edĠ
is ĠanĠ
is land
ic l
Ġc ur
Ġc ity
Ġc ool
Ġc are
Ġc ouncil
Ġc ourt
Ġc opy
Ġc elebrat
ĠandĠ your
ĠandĠ will
ĠandĠ hasĠ
ĠandĠ continu
el ic
el yĠs
el bour
il m
il ead
you th
you Ġlik
you ĠneedĠtoĠ
for ward
ed ;
ed ic
ed icat
ed arĠhill
Ġp ink
Ġp ostĠ
Ġp ath
Ġp oll
Ġp .m
Ġp olit
Ġp anel
Ġw ar
Ġw id
Ġw est
Ġw elcom
st eadĠof
edĠ "
edĠ h
edĠ off
edĠ intoĠ
edĠ student
ro ok
ch and
Ġb ec
Ġb yĠs
Ġm er
Ġm ain
Ġm other
Ġm ajor
Ġm emor
Ġm eeting
ĠtoĠ us
ĠtoĠ hisĠ
isĠ b
Ġh i
Ġh ardĠ
Ġh air
Ġh otel
Ġd at
Ġd es
Ġd ev
Ġd eliver
Ġd eep
Ġd uring
Ġd etermin
Ġd estination
lo tĠ
lo vel
us c
us yĠ
us al
us esĠ
us edĠfor
Ġf ast
Ġf oundĠ
Ġf lower
Ġf ram
Ġf irst
Ġf ieldĠ
Ġf loor
ver yĠs
ver yĠb
Ġin Ġg
Ġin ĠtheĠs
Ġin sid
ig el
Ġto t
Ġto Ġall
Ġto ĠtheĠf
Ġto ĠaĠc
im iz
esĠ which
ra k
ra struct
un ion
un fortun
leĠ in
Ġof ten
am eric
ir d
ir dĠ
ir ror
Ġg ar
Ġg iveĠ
Ġg plac
Ġg lam
Ġg overnmentĠ
if ĠitĠ
Ġre plac
Ġre put
ul let
ill board
ac ific
op ulation
eĠth re
eĠth ink
ad v
ad eĠ
ad emic
ab s
ab bath
ag re
ag e,Ġ
ag net
ag gress
ex act
ex chang
ingĠ &
ingĠ new
ot iveĠ
ut ton
ay .Ġ
ay ,Ġ
ay ĠalsoĠ
pl ication
pl usĠ
entĠ of
Ġand Ġall
itĠ seem
pro posal
ak er
qu iet
eĠs ureĠ
eĠs aidĠ
eĠs ortĠof
eĠt our
eĠt ru
eĠt rain
Ġl ightĠ
Ġl uck
Ġl ondon
Ġl atestĠ
Ġl td
um entĠ
ĠthatĠ itĠisĠ
ess ential
con gressĠ
con firm
oo st
oo do
up g
up p
ev Ġsur
ĠthisĠ week
s.Ġ l
e.Ġ b
e.Ġ h
enc eĠof
Ġfor Ġtheir
Ġfor mer
Ġthe yĠc
asĠ of
Ġn urs
e,Ġ in
Ġas Ġan
Ġas ĠaĠs
sĠof Ġb
ĠtheĠs id
ĠtheĠs ervic
est imat
est roy
Ġon c
Ġon Ġ
Ġon Ġyour
Ġon ly
Ġon lineĠ
Ġsh ipp
Ġsh ortĠ
Ġyour Ġcomputer
ri ef
eĠc as
eĠc ell
anc ell
,ĠandĠ other
ap ableĠ
sĠandĠ d
pr oud
pr oudĠof
ateĠ for
sĠin Ġour
sĠin to
s>Ġ<s> Ġs
s>Ġ<s> Ġc
s>Ġ<s> Ġour
cl oudĠ
du eĠto
du ctor
Ġad opt
Ġor ient
Ġpro stat
Ġpro posal
ach en
por ation
Ġat Ġall
etĠ up
ĠtheĠc irc
will ingĠtoĠ
ever Ġyou
form er
form Ġof
new spaper
ber t
eĠm eeting
Ġcon duc
Ġcon gressĠ
oc ean
oc usĠon
oc cup
Ġ( t
Ġ( âĢľ
eal Ġplan
vi aĠ
,Ġs inc
ment ĠandĠ
int ellig
Ġac ros
Ġac knowledg
Ġch ildĠ
Ġex ascal
eĠa vailableĠ
Ġsp end
Ġj oint
Ġj oin
edĠb yĠc
ĠtheĠf utur
port ion
ang er
s. h
s. ĠsheĠ
Ġi 'veĠ
Ġk e
Ġk ill
Ġk new
Ġthat ĠareĠ
ĠtheĠp art
ĠtheĠp eopleĠ
ĠtheĠb est
cont est
her e.
year sĠ
edĠtoĠ beĠ
'sĠ s
'sĠ mostĠ
ire ctĠ
Ġr ental
own ersĠ
eg g
ĠtheĠd evelopmentĠ
edĠin formation
comm andĠ
log g
Ġam Ġi
eas il
eas ure
Ġtim eĠyou
comp a
comp ens
yĠs on
ob l
eĠp re
eĠp eopleĠ
eĠp ower
eĠp ixel
uch Ġas
iesĠ in
Ġtak es
sĠs ervic
sĠs inceĠ
ook i
Ġtr yĠ
Ġtr im
Ġtr end
sĠfor Ġsal
Ġaf f
yĠc olleg
Ġus ingĠ
yĠof fer
do ing
Ġour Ġl
oneĠ isĠ
rec ip
rec entlyĠ
Ġtra um
ĠtheĠl ist
.Ġi 'veĠ
.Ġs omeĠ
Ġres ourc
Ġres ultĠ
Ġres ervation
rem in
ĠtoĠs eeĠ
antĠ s
to oĠ
Ġle arn
io buf
eĠisĠ designedĠfor
row dĠ
ĠitĠ was
ection Ġof
ingĠin Ġ
eĠf amil
eĠf eel
bo y
Ġacc ident
Ġstud ioĠ
Ġstud ios
even Ġthough
pre -
ingĠm yĠ
ĠaĠm ed
urn it
usĠ (
ĠaĠg reat
mon itor
Ġcont ract
Ġnew Ġyork
sĠwith in
e- to-
eĠh igh
ĠaĠd ifferentĠ
produ cer
ren ew
Ġ* Ġtty
ingĠc ustom
ingĠc ampaign
sĠand ĠtheĠ
endĠ up
Ġatt ention
iat ric
ix t
includ eĠ
whatĠ i
stor ag
evelop ment
Ġup dat
los eĠ
ug ar
ingĠd ata
ingĠd irector
.Ġm r
Ġcomm ission
fin al
ĠanyĠ other
gu est
gu ard
Ġapp rec
land scap
Ġreg ulation
Ġart ist
Ġmon ey
rac tĠ
Ġdo g
fl ag
med ical
15 6
eĠl iv
stat us
ĠtheĠpro blem
exp ensiveĠ
Ġrem ember
bas ic
Ġfin al
Ġfin ancial
14 7
aidĠ commission
Ġmed ical
Ġmed iation
ĠmayĠ beĠ
ĠweĠ will
need sĠtoĠ
rel ated
,Ġyou âĢĻll
ingĠh and
Ġout putĠ
Ġwhen Ġyou
.Ġin Ġaddition
Ġint egrat
plan n
mad eĠ
rid ay
.ĠweĠ haveĠ
,Ġw eĠcan
ĠtoĠc reateĠ
eĠg oodĠ
dec oĠ
Ġthough tĠ
var i
Ġsup plement
erc iseĠ
exc ell
qual ifi
educ ational
riend lyĠ
Ġmin dĠ
happ y
happ yĠ
ax k
ness ĠandĠ
sm artĠ
sĠp ag
sĠp rior
Ġadv antag
Ġappro x
13 2
13 3
yĠp eopleĠ
valu e=
Ġpar ent
want ĠtoĠ
effect iv
Ġtrain ing
uper b
blo ck
,Ġwhich ĠisĠ
ross -
univers ityĠ
univers ity
Ġrequ ir
Ġrequ est
ounsel or
doĠ notĠ
ĠanĠex t
,Ġwith ĠtheĠ
ĠofĠs umoĠaffiliat
becaus eĠitĠ
Ġdef ianc
!! !
,ĠweĠ will
Ġpre -
ĠdoĠ notĠ
Ġdec or
eĠtim eĠtoĠ
feat ureĠ
Ġen vironment
conf ession
opportun ityĠ
obil eĠ
-f i
bur g
bur gh
Ġco -coordinator
ograph ic
ĠgetĠ your
urs u
-c ell
election Ġof
Ġinclud esĠ
Ġunder stand
Ġsur viv
ĠtoĠmak eĠa
prof itĠ
65 8
Ġtreat mentĠ
osp el
contactĠ us
Ġassoc iation
ious ly
represent ativeĠ
represent ativ
rap p
shall Ġb
del et
hear ĠaboutĠyour
uniqu eĠ
mos tĠof
Ġpres identĠ
assion ateĠ
Ġrequire d
pop ular
Ġpos sib
earn ed
ribut ion
Ġsome on
friend ly
lastĠ year
rob ot
Ġhous e.Ġ
Ġinto ĠtheĠ
eption al
Ġachi eveĠth
,ĠâĢľ antonioni
eĠtheĠb estĠ
oulder Ġpain
fa ith
Ã¼ ren
Ġcreat iveĠ
emb rac
,Ġal though
beli eveĠth
mean sĠ
otton Ġsw
company 'sĠ
Ġmus keg
urin aryĠs
add ock
itĠc ardĠ
Ġadmin istration
Ġregion al
Ġremov ed.Ġ
augh tĠ
Ġsat is
Ġpropert yĠ
weightĠ los
does nâĢĻtĠ
oodn t
regard lessĠof
me ans
ateĠc rim
Ġgrow th
object iv
basedĠon ĠtheĠ
any oĠ
rev eal
ĠtheĠsc reen
Ġrun ning
region al
ĠdoesĠ notĠ
Ġparticip ant
Ġdin ingĠroom
Ġgra du
proc ed
eĠtak en
gradu atedĠfrom
Ġlet ter
Ġclass ic
nor mal
Ġpriv ateĠ
char acter
Ġalread yĠ
bever ly
eĠinter est
soon ĠasĠ
certain lyĠ
ĠtheĠnational Ġpark
jes usĠ
tak en
epar at
ignific antĠ
payĠ for
Ġthir d
Ġthir dĠ
Ġbeg in
oliveĠ tre
immediat ely
empor aryĠ
Ġarch itect
princip lesĠof
Ġjun eĠ
Ġabsolut elyĠ
-th e-
Ġrepresent ativ
utt g
epos it
Ġscottish Ġtelevision
Ġsometh ing
victor ian
Ġsoft war
eleg antĠ
Ġpal m
Ġfellow ship
Ġresp ons
Ġconcer n
recogn iz
journal ist
Ġbroadc aster
ĠtheĠbas ic
veg et
zy decoĠ
Ġgen etic
express ion
Ġlay er
eĠcur rent
ocol ateĠ
Ġspir it
Ġrhe a
ebru aryĠ
itiat iv
Ġchem ical
Ġquarter lyĠ
oakridg eĠ
Ġ*Ġsimple-pwquery .cĠ(
p- value=
Ã³ n
Ġawes omeĠ
ednes day
eta -cell
akeh older
etĠc ityĠ
uffic ientĠ
puteĠ resolution
norm allyĠ
yam evĠsur
Ġthurs day
robo tĠ
ĠtheĠgpc a
incoln Ġindustri
ietaryĠaideĠ resum
orryĠtoĠ hearĠaboutĠyour
boundĠ market
ansp ar
aggress orĠsh
oodo oĠ
e-to- fac
ottonĠsw ab
" s
% Ġ(
% ci
( t
( newĠyork
, Ġth
, ĠtheĠb
, ĠaĠb
, ĠaĠf
, ĠanĠ
, Ġturn
- Ġ
- mak
- oldĠ
- to-
- nightĠ
- antit
. t
. Ġthen
. ĠtwoĠ
. Ġtaken
/ .
/ t
0 4
0 7
3 3
5 2
5 4
6 00
? ?
a ult
a ward
b en
b an
b um
b low
b log
b atter
c p
c ol
c am
c op
c os
c ast
c areĠ
c ustomer
c apt
c apac
d anc
d riveĠ
d river
d raw
d ragon
d ollar
d escrib
d ifficult
e ightĠ
e âĢĿ
e ed,Ġ
f ig
f ield
f ounder
f ederal
g oneĠ
g ift
g overnment
g cry
g orge
h k
h in
h ub
h ys
h ug
i en
i ally
i âĢĻm
i -fi
j an
j ud
j ump
j anuaryĠ
k h
k ast
l d
l il
m b
m eĠ
m is
m id
m art
m yĠd
m oveĠ
m ichelangeloĠantonioni
n p
n eĠ
n ingĠ
o '
o at
p )
p al
p ag
p ha
p ointĠ
p remium
p rior
r isĠ
r ud
r areĠ
r ys
r ofessional
r anch
s /
s r
s eĠof
s ell
s aveĠ
s ĠtheĠm
s af
s Ġthrough
s eason
s afet
s impleĠ
s implyĠ
u gh
u sĠfor
u imĠdomain
w ir
w ad
w entĠ
w edd
w eĠcan
w orldĠ
w omen
x -
x asprintf
y ardĠ
y self
y Ġstor
y gi
z h
Â ©
Â ·
Ã ¶
ë ĭ
ì Ŀ
Ġ @
Ġ ru
Ġ eat
Ġ eventĠ
Ġ version
Ġ via
Ġ error
Ġ enterpris
Ġ ðŁĻĤ
eĠ -
eĠ whatĠ
eĠ until
eĠ student
Ġt om
Ġt el
Ġt ab
Ġt ap
Ġt ank
Ġt ext
Ġt emper
Ġa x
Ġa ra
Ġa Ġhealth
Ġa .m
in i
in um
in sid
in ĠmyĠ
in Ġaddition
Ġth us
sĠ en
sĠ if
sĠ out
sĠ provid
sĠ wouldĠ
sĠ wer
sĠ haveĠbeen
er Ġf
er Ġv
er ton
er emon
on t
on toĠ
on ĠtheĠt
on âĢĻtĠ
or b
or f
or eĠ
or sĠ
or Ġother
en edĠ
en ch
ou is
ou ple
ĠtheĠ "
ĠtheĠ a
ĠtheĠ new
ĠtheĠ way
ĠtheĠ nextĠ
ĠtheĠ endĠof
an Ġansel
re ally
re put
re pair
re hensiveĠ
re inforc
Ġs k
Ġs ayĠ
Ġs cal
Ġs oundĠ
Ġs imilar
at it
at oĠ
at eĠtoĠ
at esĠandĠ
at tooĠ
at yamevĠsur
ing u
ing s,Ġ
ing Ġall
ing ,Ġs
ing Ġpl
ing ĠaĠb
ing Ġwork
ing Ġaround
Ġan yĠs
Ġan Ġhour
yĠ wasĠ
al anc
.Ġ k
.Ġ is
.Ġ un
.Ġ oneĠ
.Ġ not
.Ġ whil
.Ġ check
.Ġ whileĠ
.Ġ it'sĠ
ar tĠof
ar ia
,Ġ be
,Ġ pa
,Ġ inĠ
,Ġ pleaseĠ
es h
es Ġas
es tĠof
es tern
es thetic
oĠ di
of -
is an
is ition
is ĠalsoĠ
ic ateĠ
ic tion
Ġc op
Ġc ut
Ġc areĠ
Ġc lear
Ġc reateĠ
Ġc ampaign
Ġc urrentĠ
Ġc ategor
om an
om eĠof
om ination
ĠandĠ provid
el im
el ong
el essĠ
th eĠs
il ber
for um
for Ġtheir
for sch
for wardĠ
ed !
ed Ġall
ed ĠandĠs
ed ĠaĠc
ed onian
Ġp o
Ġp ound
Ġp rec
Ġp aidĠ
Ġp ointĠ
Ġp rior
Ġw eĠcan
Ġw orldĠ
Ġw onder
Ġw ait
st ant
st artĠ
edĠ st
edĠ outĠ
edĠ under
edĠ product
ch ain
ch ip
ch ild
ch icken
Ġb rit
Ġb reak
Ġb rown
Ġm al
Ġm ind
Ġm ph
Ġm achin
ĠtoĠ haveĠ
ĠtoĠ complet
ĠtoĠ perform
ĠtoĠ haveĠa
ĠtoĠ check
isĠ in
Ġh ol
Ġh ir
Ġh ard
Ġh otĠ
ent re
ent ic
ent rum
Ġd r
Ġd et
Ġd iss
Ġd eb
Ġd ivers
Ġd egre
Ġd uringĠtheĠ
Ġd iscussion
Ġd amageĠ
lo om
lo oseĠ
us es
us ingĠ
ur oĠ
ur pris
Ġf resh
Ġf ield
Ġf ocus
Ġf abric
Ġf aith
ation .
ation sĠof
ation sĠfor
ol veĠ
ver yĠm
id eas
Ġin ch
Ġin struction
ig ration
ig iousĠ
ig inal
Ġto w
Ġto ĠthisĠ
Ġto ĠspendĠ
im b
im ul
im mediateĠ
esĠ over
esĠ can
esĠ lik
esĠ inĠtheĠ
esĠ program
em al
em bl
em ester
Ġyou tubeĠ
ow ard
Ġof Ġa
Ġof Ġw
Ġof ĠtheĠg
am eĠs
am ber
am eĠa
Ġg ain
Ġg rac
Ġg ather
Ġg ender
if ĠtheĠ
if ies
Ġre f
Ġre v
Ġre fer
Ġre li
Ġre stor
ul ator
ac u
ac don
ac count
ec o
ec id
ec ureĠ
Ġal ign
Ġal di
Ġar rang
Ġst ayĠ
Ġst amp
Ġst opp
Ġst rong
Ġst emĠcell
Ġst uttg
ne y
ne edĠfor
with Ġb
with ĠaĠ
ad min
ad a,Ġ
our Ġf
our Ġteam
ex erciseĠ
ingĠ n
ingĠ year
ingĠ issu
ot a
ot om
os ĠandĠ
os ition
os fetĠ
ut or
ut ral
âĢĻ ,
âĢĻ sĠto
pl us
Ġand Ġa
Ġand ĠaĠc
res ist
res erv
pro v
pro stat
pro ven
pro jectĠ
ha wa
eĠs it
eĠs uch
eĠs omeĠ
eĠs upport
eĠt ra
eĠt od
eĠt yp
eĠt each
eĠt echnolog
iv ity
Ġl istĠof
um ph
ĠthatĠ will
ĠthatĠ weĠ
con clud
con struction
con nection
per mitt
per iod
rom otion
.ĠtheĠ b
.ĠtheĠ d
ĠthisĠ is
ist an
s.Ġ "
s.Ġ youĠcan
s.Ġ when
e.Ġ if
e.Ġ whatĠ
enc e,Ġ
asĠ well
ep id
ep atit
s,Ġ b
s,Ġ with
s,Ġ weĠ
s,Ġ butĠ
Ġn igel
e,Ġ f
e,Ġ our
e,Ġ but
be at
Ġas h
Ġas Ġtheir
sĠof fic
Ġwith Ġa
Ġwith Ġyour
ĠtheĠs how
est on
Ġsh in
Ġsh ower
ri k
ri er
ri ev
ri vers
eĠc enter
eĠc olleg
anc er
ell iteĠ
ap an
your Ġ
your Ġf
ther malĠresist
sĠandĠ b
od imm
sĠin t
s>Ġ<s> ĠtheĠc
s>Ġ<s> Ġi
s>Ġ<s> ĠhereĠ
no on
cl ip
cl assĠ
du ck
Ġad option
Ġor ĠbioĠ
Ġpro per
Ġpro cessĠ
Ġpro duction
Ġpro bab
Ġpro stateĠhealth
por ateĠ
ard wareĠ
ĠtheĠc enter
ĠtheĠc areer
will Ġ
will ĠnotĠ
art icleĠ
ber kel
eĠm od
out putĠ
Ġcon duct
Ġcon sider
Ġcon gres
Ġcon venienc
outĠ group
Ġcom prehensiveĠ
eĠd esign
ial ogu
ĠisĠ f
ĠisĠ oneĠof
bu ck
haveĠ s
haveĠ you
Ġab b
Ġab id
ew el
ru it
Ġcan Ġb
ment al
ment ,ĠandĠ
int ention
int egrat
Ġac tĠ
Ġch arg
Ġch ina
eĠandĠ d
e. Ġa
e. ĠsoĠ
other Ġ
other Ġhand
man n
man y
man chester
ens ureĠ
Ġj am
Ġj udg
edĠb etween
eĠb eli
eĠb etween
ĠtheĠf our
ĠtheĠf act
Ġv al
Ġv oter
gra c
Ġi -war
Ġk en
Ġk eyĠ
Ġthat ĠthisĠ
Ġthat 's
work Ġwith
ĠtheĠb ox
cont ract
her ald
sp ot
sp eech
edĠtoĠ b
edĠtoĠ mak
ire d
19 4
Ġr ang
Ġr atesĠ
ib r
notĠ onlyĠ
ĠtheĠd amag
ĠtheĠd irection
ĠtheĠd ecision
Ġpl us
comm it
comm and
log ger
Ġam ountĠof
ĠhaveĠ theĠ
ĠhaveĠ anyĠ
eas el
mak eĠa
Ġtim e,
Ġtim eĠwith
ass oc
comp rehensiveĠ
ĠthereĠ wasĠ
.. ..
ob ahn
eĠp oint
ĠtheĠt own
ĠtheĠt rans
ook Ġher
ook -up
Ġtr ick
Ġtr ustĠ
Ġtr ash
sĠfor Ġ
Ġaf fectĠ
yĠc all
yĠc ard
act uallyĠ
ingĠs oĠ
ingĠs omeĠ
Ġus ing
Ġus edĠ
butĠ itĠ
ĠbeĠ ableĠtoĠ
ous lyĠ
ous ly
ult ipleĠ
pos tĠon
es,Ġ which
es.Ġ c
es.Ġ itĠ
Ġit .Ġ
Ġit Ġall
Ġit 'sĠ
Ġit 's
s, ĠthisĠ
rec tĠ
inc eĠthen
ĠandĠs ervic
ĠtheĠl ordĠ
.Ġi ĠhaveĠ
.Ġi Ġthink
.Ġi 'm
arg in
arg et
view Ġh
view Ġof
.Ġs ectionĠ
lik eĠtheĠ
lik elyĠ
help sĠtoĠ
to gether
yst al
Ġle aveĠ
Ġle mon
Ġle arning
af fect
sĠareĠ not
Ġadd ressĠ
ĠaĠp at
ĠaĠb as
ĠaĠc ustom
ingĠin ĠtheĠ
ingĠin toĠ
Ġthes eĠf
la idĠ
la hom
eĠf ind
eĠf urther
sĠon Ġyour
well -
gr ill
Ġis land
Ġstud iesĠ
inter netĠ
eĠw atch
ans wer
fic er
min or
eĠwith in
ĠaĠm an
ĠaĠm ult
ĠaĠm ajor
Ġe z
ĠaĠg roup
Ġcont ra
eh ous
lic t
ean ingful
par entĠ
sid i
br as
Ġnew Ġmember
Ġnew spaper
Ġnew .Ġtaken
edĠon Ġ
e- interest
Ġass istĠ
Ġass emb
eĠh im
eĠh ealth
ĠtheĠh ealth
ĠtheĠh uman
whoĠ isĠ
und redĠ
ren ov
,ĠtheĠ applic
yĠb ack
,Ġm ichelangeloĠantonioni
Ġatt endĠ
Ġatt itud
includ edĠ
Ġher e.Ġ
Ġher e.
evelop mentĠof
Ġup grad
los Ġangel
noĠ matter
ug ust
co -
Ġyear sĠag
Ġse a
Ġse qu
ĠofĠ other
compan y,Ġ
fe edback
Ġhigh light
wouldĠ beĠa
sĠd uring
Ġart icle
es. ĠsheĠ
Ġav enu
.Ġh eĠ
justĠ becaus
Ġpr incip
ĠtoĠd oĠ
ĠtoĠd evelop
ĠtoĠbeĠ a
ementĠ of
ump st
ump tion
12 8
equ al
equ ipp
sĠfrom Ġ
ĠaĠw arm
ĠaĠw eek
ĠaĠw ell-
unction al
eĠl ist
fre eĠtempl
ĠtheĠpro pert
.Ġd oĠ
.Ġd eanna
.c .Ġ
eĠsh ar
eĠsh opp
Ġcl imateĠ
Ġcl oud
let ting
vent or
ifi edĠin
lear ning
myĠ f
sĠb ack
sĠb ook
sĠb rok
ĠmayĠ haveĠ
rel ativ
,Ġyou Ġwill
Ġrec entlyĠ
Ġknow n
Ġknow ĠthatĠ
ask sĠ
Ġout com
Ġwhen ĠyouĠareĠ
willĠb eĠs
befor eĠyou
aĠ âĢĵ
Ġint ellig
.Ġyou Ġwill
stand ard
Ġcompan ies
eĠfrom Ġ
att end
lower Ġcalyceal
has ĠtheĠ
eĠsur eĠtoĠ
rightĠ now
Ġget t
Ġget ting
exc eptĠ
qual if
Ġday sĠof
ĠaĠlo v
ĠaĠlo cal
car ry
Ġanal ytic
Ġappro pri
Ġsit uation
Ġfil esĠ
Ġask Ġfor
Ġspecial ist
nam ent
ĠaĠh and
want Ġto
Ġlik eĠ
s>Ġ<s>Ġ "
.Ġst ill
Ġaut oĠ
Ġsign Ġup
Ġtechnolog yĠ
Ġrelation sĠ
Ġmember ship
leg itimateĠ
ann ual
Ġanother Ġ
Ġbas ementĠ
becaus eĠof
becaus eĠi
hand s-
Ġpart yĠmember
Ġpart yĠdesign
print able
eĠad d
,Ġg eneral
,ĠweĠ areĠ
11 7
eĠis ĠaĠ
ins :
Ġdec id
Ġtoday âĢĻsĠ
outĠof ĠtheĠ
full Ġepisod
Ġo h
.Ġfor ĠmoreĠinformation
oft war
aur ic
creat ed
conf ig
edĠfrom Ġ
ĠtoĠm eet
phys ician
40 6
bur yĠpark
rew Ġmichael
wher eĠtheĠ
eĠofĠ $
giveĠ you
ĠthankĠyou ĠsoĠmuch
org eĠwash
Ġscienc e-interest
met al
necess aryĠ
sĠa way
prot ectĠ
contain er
Ġaccord anc
Ġthere 's
.ĠtheĠc ours
Ġexam ination
Ġteach er
ĠavailableĠ for
Ġactiv ities
Ġauthor ityĠ
def in
real iz
Ġdevelop mentĠ
Ġinv it
Ġaltern ateĠ
resident ial
ref und
ref resh
.ĠâĢľ antonioni
Ġcredit s.
Ġwhil eĠ
shall ĠbeĠ
receiv ed
big Ġdata
googleĠ analytic
ĠfoodĠ item
ox y
sch nauzer
yc leĠ
Ġlist en
epart mentĠof
Ġrequire dĠ
etim es
Ġstand ardĠ
concer ning
earn edĠher
lineĠ vot
.com /
sĠwhoĠ haveĠ
needĠtoĠ beĠ
Ġadvertis ing
Ġexc it
Ġexc ellentĠ
Ġexp ect
Ġperform anc
becom eĠa
uff olk
din ingĠroom
fa el
u. k
imat elyĠ
emor yĠ
eĠman yĠ
Ġsm il
Ġfamil yĠ
whether Ġyou
clus iveĠ
ustral ian
ĠkindleĠ ebook
Ġguid anc
pc nl
rank f
Ġton ight
Ġmus eum
usp end
disc over
disc iplin
wes tern
Ġthous andĠ
Ġsat ellit
chr isĠ
nov ation
nov ativeĠ
Ġunivers ityĠ
ateĠc l
ung sz
viol enc
Ġvide o
Ġresident ial
eĠspecial istĠ
const itut
const antlyĠ
Ġvis ual
Ġterm sĠof
digital Ġsignag
fix t
inf o
Ġsens itiveĠ
Ġhear t
ĠdidĠ you
Ġdisc over
ĠinĠc inema
evalu ation
gradu ateĠ
Ġlet sĠyou
Ġautom atic
!ĠthankĠyou ĠsoĠmuch
Ġpriv ac
intro duction
prepa red
mc ĠyukonĠxl
ĠthisĠa ct
Ġbott icelli
Ġfl ash
makeĠsur eĠyou
ĠtheĠgreen Ġpart
Ġcompet itor
Ġquick lyĠ
ront -endĠ
tar io
orĠof Ġart
Ġprom ot
Ġgiv atĠhatachmoshet
ĠlastĠ year
esk top
Ġpleas eĠ
Ġbiolog yĠwith
eĠthes eĠ
expert is
umer ousĠ
ĠtheĠgeneral Ġassemb
pract ic
ĠpercentĠ of
Ġgrand mother
Ġrece iv
edin burgh
rode oĠ
usb and
Ġacqu ir
Ġvoic ecomputer
Ġloc ation
definit ely
.ĠbeĠitĠenacted, Ġthat
rush ĠproĠ
won 'tĠ
Ġ.. /
atis f
Ġnov emberĠ
eil ing
Ġradio Ġstation
ecret ary
Ġnecess ary
Ġadapt iveĠ
rubyĠ laser
Ġspeech Ġrecognition
Ġprof il
ĠanĠexc ellentĠ
localĠauthor ity
Ġadministrat or
invitesĠ freeĠtempl
ĠwithĠaĠgradeĠofĠc- ĠorĠbetter,ĠorĠpermissionĠofĠinstructor
Ġtahlequah,Ġok lahom
mh z
prec ed
va _c
Ġtues day
espres so
edu ction
losel yĠwith
lictĠ resolution
ĠaĠwideĠ rangeĠof
ĠweightĠ los
virt ual
Ġcredits.Ġprerequisite: ĠbioĠ
ewarmingĠpartyĠ invitesĠfreeĠtempl
Ġ*Ġmakefile.am Ġ(
Ġtick et
arant e
Ġgraph ic
beh ind
achi ev
ĠtheĠtyp eĠof
Ġleah yĠ
prep areĠ
racingĠp ost
simple _
yĠwin eĠb
rastruct ur
ĠtheĠdevelopmentĠ uimĠdomain
iobuf _
Ġ*Ġtty io
urinaryĠs ymptom
Ġpalm Ġbeach
%ci Ġ=
hin agar
kast ner
forsch ungsz
looseĠ kindleĠbook
ĠhaveĠanyĠ question
orgeĠwash ington
Ġscience-interest edĠstudent
ewarmingĠpartyĠinvitesĠfreeĠtempl ateĠ
forschungsz entrum
! Ġyou
% )
% Ġof
% Ġoff
( icesĠ
( ii
( berkel
) ;
, Ġar
, ĠaĠ
, Ġall
, ĠtheĠf
, ĠtheĠd
- st
- Ġb
- and
- speak
. Ġthank
. ĠtheyĠareĠ
. gov
0 1
0 5
0 8
0 9
3 9
4 2
5 7
5 9
6 8
: ĠtheĠ
: Ġnew
; Ġand
? !
? Ġa:
_ _
_ f
_ fil
a ,
a Ġp
a Ġin
a Ġor
a Ġ(
a vid
a uc
b ind
b unal
b hk
c b
c c
c u
c re
c ul
c oc
c ouncil
c rib
d t
d ig
d ish
d iet
d egre
d aniel
d axk
d orf
e âĢĻ
e ableĠ
e ast
e y,Ġ
e âĢĻs
e ,ĠsoĠ
f astĠ
f ieldĠ
f Ġgdpr
f loor
f abric
g g
g re
g ear
g reg
g ott
g old
g ather
g overnmentĠ
g oogle
h sĠ
h dĠ
h or
h es
h itĠ
h eat
h omeĠ
h ana
h ouston
h oliday
i us
i ra
i Ġwill
i ersĠ
i Ġfeel
j u
j on
j .Ġ
j uryĠ
j udg
k dt
l id
l ateĠ
l atestĠ
m g
m m
m w
m yĠs
m aster
m usic
m achin
m auric
n ol
n ap
n atur
n achĠbaliyeĠ
o !
o le
o ir
o âĢĻ
o be
o ard
o chr
o veĠtheĠ
o ctoberĠ
p od
p tion
p ian
p ath
p atch
p oll
p urpos
p eople
p olit
r h
r dĠ
r th
r us
r ig
r y,Ġ
r he
s sĠ
s end
s pr
s now
s port
s ight
s Ġthem
s ĠtoĠs
s mall
s uper
s uchĠasĠ
s !Ġi
s Ġtri
t un
u z
v ey
v intag
w eĠc
w ast
w ire
w antĠ
w onderful
y :
y ch
y ellow
â Ĩ
í ķ
Ġ .
Ġ >
Ġ ic
Ġ est
Ġ vers
Ġ imple
Ġ operation
Ġ optim
Ġ emphas
Ġ enjoyĠ
eĠ her
eĠ att
eĠ continu
eĠ operation
eĠ restaurant
Ġt ich
Ġt ier
Ġa w
Ġa dĠ
Ġa ver
in yĠ
in Ġc
in com
in Ġl
in ess
in Ġfor
in e,Ġ
in sp
in atedĠ
Ġth row
Ġth riv
sĠ g
sĠ v
sĠ now
sĠ present
sĠ national
sĠ regard
sĠ requir
sĠ whoĠareĠ
er l
er yĠ
er ĠisĠ
er ies
er iousĠ
on or
on Ġc
on om
on Ġf
on Ġyour
on eĠandĠ
on ĠtheĠp
on ĠaĠs
on ym
on eyĠ
tĠ branch
or n
or ough
or ient
en th
ou sĠandĠ
ĠtheĠ companyĠ
ĠtheĠ area
an z
an Ġj
re stor
re portĠ
re ferenc
Ġs ound
Ġs even
Ġs lic
Ġs hap
Ġs elect
Ġs ocial
Ġs afet
Ġs yn
Ġs uit
Ġs ymptom
Ġs leep
Ġs ugar
at ent
at edĠbyĠ
at ures
it !
it l
it is
it ableĠ
ing s.Ġ
ing lyĠ
ing Ġcom
ing Ġsp
ing s.
ing red
ing s,
ing ĠofĠ
ing Ġregion
Ġan Ġamaz
yĠ from
al iz
al ys
al read
al anceĠ
al lot
.Ġ (
.Ġ v
.Ġ we
.Ġ well
.Ġ inter
.Ġ noĠ
.Ġ inĠtheĠ
.Ġ withĠtheĠ
.Ġ donâĢĻtĠ
.Ġ jam
.Ġ note:
ar i
ar v
ar en
ar oundĠ
ar rang
,Ġ la
,Ġ ll
,Ġ inĠtheĠ
,Ġ whereĠ
,Ġ health
,Ġ right
,Ġ whileĠ
,Ġ especiallyĠ
,Ġ godĠ
es id
es Ġthrough
es ĠtoĠtheĠ
is nâĢĻtĠ
ion eer
ic ro
ic e,Ġ
ic hael
Ġc le
Ġc ityĠ
Ġc ast
Ġc rown
Ġc amer
Ġc apital
Ġc reation
Ġc elebr
om et
ĠandĠ for
ĠandĠ st
ĠandĠ isĠ
ĠandĠ un
ĠandĠ itĠ
ĠandĠ end
ĠandĠ can
ĠandĠ itsĠ
ĠandĠ water
el m
el veĠ
el ess
el and
el ectĠ
th ,Ġ
th eĠm
th ink
th Ġcentur
il k
il eg
you Ġwith
you ĠshouldĠ
you ng
you ĠwantĠtoĠ
you tubeĠ
for tĠ
for get
for ĠmoreĠinformation
ed en
ed al
ed el
ed ĠtheĠf
ed ĠaĠd
ed ium
ed Ġteen
Ġp il
Ġp ub
Ġp astĠ
Ġp unch
Ġp ush
Ġp urpos
Ġw ing
Ġw eĠs
Ġw estĠ
Ġw eĠw
Ġw ash
Ġw atch
Ġw eddingĠeventĠ
Ġw estern
st ,Ġ
st op
st oodnt
edĠ justĠ
edĠ high
edĠ myĠ
edĠ professional
ro c
ro veĠ
ro idĠ
ro vers
ro zen
ch a
ch or
Ġb ed
Ġb and
Ġb yĠc
Ġb ik
Ġb udgetĠ
Ġb inaryĠoption
Ġm eĠ
Ġm ent
Ġm id
Ġm ap
Ġm art
Ġm ark
Ġm ission
Ġm aintain
Ġm ovi
Ġm otor
Ġm agazin
Ġm argare
ĠtoĠ com
ĠtoĠ not
ĠtoĠ itsĠ
ĠtoĠ giveĠ
ĠtoĠ consider
as p
as ,Ġ
as ĠandĠ
as ersĠareĠ
Ġh enan
Ġh undredĠ
ent r
ent im
le m
le yĠ
le mon
ct uallyĠ
ct ually
Ġd e
Ġd ry
Ġd ream
Ġd rug
Ġd ietaryĠaid
Ġd ifferenc
Ġd ifferent
Ġd ollar
Ġd aniel
lo d
lo l
us i
us eĠtheĠ
us edĠto
ur ingĠs
ur fac
Ġf ir
Ġf ish
Ġf low
Ġf itness
Ġf eltĠ
ation Ġand
ation sĠandĠ
ation ĠofĠtheĠ
ol idĠ
ver d
ver yĠd
id stĠof
Ġin Ġa
Ġin ĠtheĠc
ig or
ig ibleĠ
Ġto ĠtheĠg
Ġto ĠaĠp
Ġto Ġtry
Ġto Ġappeal
Ġto ĠavoidĠ
Ġto ĠachieveĠ
esĠ &
esĠ isĠ
esĠ mayĠbeĠ
ra it
ra ight
ra gr
ra iseĠ
un it
un kin
un ableĠtoĠ
em an
atĠ b
atĠ of
atĠ read
Ġyou Ġget
Ġyou ĠneedĠtoĠ
leĠ thatĠ
Ġof Ġg
Ġof Ġart
am ar
am per
am ountĠof
ir on
Ġg n
Ġg re
Ġg at
Ġg all
Ġg oldĠ
Ġg rew
Ġg mcĠyukonĠxl
if Ġyour
Ġre portĠ
Ġre commend
Ġre ferenc
Ġre storativeĠ
ac cur
ac eut
ec ological
Ġal ik
Ġal ertĠ
Ġal bum
Ġal pha
Ġar en
wh eel
Ġst ay
Ġst res
Ġst ick
Ġst alk
Ġst ream
Ġst uff
Ġst reet
Ġst rength
op eĠof
eĠth eĠin
eĠth eĠaĠ
ad m
ad or
ad oĠ
ad der
ad ian
ad vis
ab ur
ab ol
our Ġwebsit
ag g
ag staff
ex pos
ex clud
ex ual
ex actĠ
ingĠ $
ingĠ question
ut ter
ut ual
ay n
ay mentĠ
ay lor
pl at
pl entyĠof
com b
com eĠin
com ingĠfrom
entĠ sit
entĠ calendar
Ġand Ġto
Ġand ĠalsoĠ
Ġand ĠaĠp
Ġand ĠtwoĠ
Ġand rew
pro s
pro pos
pro stateĠ
qu e
qu ietĠ
eĠs et
eĠs qu
eĠt urn
eĠt elevision
eĠt rack
eĠt wo
iv or
igh tĠof
Ġl b
Ġl i
Ġl ak
Ġl ind
Ġl ux
Ġl ibr
um m
ĠthatĠ is
ĠthatĠ mak
ĠthatĠ youĠcan
ĠthatĠ wouldĠ
ess ageĠ
con sc
con ven
con ferenc
con venienc
rom e
oo comm
and on
and al
and id
and hinagar
eĠof ten
.ĠtheĠ p
up com
up dateĠ
up portĠof
ĠthisĠ d
ĠthisĠ month
ist ryĠ
s.Ġ how
ĠareĠ a
ĠareĠ all
enc yĠ
enc eĠin
Ġfor ward
Ġfor tĠbranch
ep th
ep as
s,Ġ itĠ
s,Ġ mak
s,Ġ but
Ġn ail
Ġn ight
Ġn o.Ġ
e,Ġ includ
be ingĠm
be havior
Ġas pect
sĠof Ġm
sĠof ĠpeopleĠ
Ġwith Ġan
Ġwith Ġit
ayĠ with
ĠtheĠs pr
ĠtheĠs ign
est y
est ream
est ival
Ġon ĠtheĠb
Ġsh o
Ġsh eĠisĠ
Ġyour Ġus
Ġyour self
ri dĠof
ĠasĠ much
ĠasĠ partĠof
eĠc al
eĠc ard
eĠc ouldĠ
eĠc lean
eĠc olor
anc e,
,ĠandĠ d
,ĠandĠ i
,ĠandĠ m
,ĠandĠ itĠ
,ĠandĠ weĠ
ell er
ap ost
your Ġapplication
end it
end ingĠ
sĠandĠ st
pr ofession
ateĠ you
sĠin ter
sĠin Ġorder
sĠin Ġfl
sĠin ĠfortĠbranch
s>Ġ<s> Ġb
s>Ġ<s> Ġin
s>Ġ<s> ĠweĠareĠ
no is
no ck
Ġad vis
Ġad ventur
Ġad visor
Ġwh ol
Ġpro stateĠ
Ġat ĠtheĠg
etĠ your
etĠ ofĠ
will ĠhelpĠyou
ever yĠdayĠ
eĠin Ġs
eĠin toĠ
form at
ber n
ber ryĠ
eĠm ad
eĠm eal
eĠm ember
der iv
ly ,Ġ
out iqu
Ġcon versation
oc i
Ġcom ment
Ġcom bin
eĠd el
eĠd et
eĠd eal
eĠd ef
eĠd eliver
eĠd amag
eĠd riveĠ
eĠd idnâĢĻtĠ
Ġall erg
ouldĠ beĠ
low Ġdown
Ġ( c
ĠisĠ not
ĠisĠ veryĠ
ĠisĠ call
ĠisĠ currentlyĠ
vi ousĠ
we ather
we 'r
Ġab ov
iz eĠyour
ind ia
,Ġs uchĠasĠ
ew ay
ew alk
ru b
ment s,Ġ
Ġac id
Ġac ademic
Ġch ron
Ġch icken
Ġex act
eĠa war
Ġap t
eĠandĠ mor
e. Ġall
ph ic
ack ageĠ
ies tĠ
Ġsp ar
Ġsp ark
Ġsp read
man ageĠ
man ner
ens .
li ber
Ġj ul
Ġj unction
Ġj ointĠ
Ġj ewel
edĠb elow
eĠb yĠs
eĠb ecaus
ĠtheĠf ac
ĠtheĠf all
ĠtheĠf rontĠ
ĠtheĠm on
ĠtheĠm usic
ĠtheĠm arketĠ
Ġv en
gra veĠ
Ġtheir Ġb
Ġtheir Ġown
s. Ġand
s. ĠtheyĠ
s. Ġsom
s. cĠ(
Ġi i
Ġk m
Ġk /w
ĠtheĠp astĠ
ĠtheĠp oint
ĠtheĠp ict
ĠtheĠb re
cont rovers
her e!
sp ok
eĠtheĠ f
ub tleĠ
ub stant
Ġr ul
eg ment
ib od
ib ilityĠ
notĠ haveĠ
ĠtheĠd atabas
Ġpl c
Ġpl ug
comm endĠ
comm itment
log Ġhop
log Ġfriend
Ġwill iam
Ġam ount
ĠhaveĠ s
ĠhaveĠ an
uc sf
ers ĠthatĠ
mak er
ĠtheĠg row
ĠtheĠg overn
ia h
Ġtim eĠof
Ġtim e.
Ġtim eĠtheĠ
comp il
comp os
comp ass
comp onent
ĠthereĠ willĠb
ob serv
eĠp ointĠ
ĠtheĠt rain
Ġtak eĠcar
Ġtak eĠtheĠaĠ
av ender
av ailable
Ġtr ulyĠ
Ġtr anspar
act ic
act ual
ingĠs om
ingĠs upport
ingĠs ometh
Ġlo t
Ġlo y
Ġlo adĠ
Ġus eĠ
Ġus er
Ġus ersĠ
Ġus uallyĠ
yĠof Ġ
sĠtoĠ m
sĠtoĠ mak
ult imateĠ
pos itiveĠ
pos sess
red ict
red itĠcardĠ
wasĠ notĠ
Ġit al
Ġit sĠs
Ġit self
oneĠ f
oneĠ on
oneĠ or
oneĠ with
s, Ġan
s, Ġthen
s, ĠandĠtheĠ
âĢĿ ,
rec all
rec ently
mor eĠs
mor ning
mor mon
mor tal
mor tar
way Ġto
inc tĠ
inc ur
inc ident
inc rediblyĠ
Ġag end
Ġag grav
ĠaĠs olution
ĠaĠs econd
Ġtra dition
ost on
ĠtheĠl iv
ĠtheĠl ast
ĠtheĠl ink
ĠtheĠl aw
ov oĠ(
.Ġi Ġcan
.Ġi âĢĻveĠ
.Ġi Ġdon'tĠ
view ĠtheĠ
.Ġs c
.Ġs ilenc
Ġres erv
Ġres ultĠof
rem eĠ
ĠtoĠs ign
help sĠyou
to ĠtheĠ
Ġle tĠ
Ġle adĠ
sĠareĠ in
he av
ĠaĠb adĠ
Ġne ighbor
Ġne xtĠ
ĠitĠ wasĠ
ĠaĠc ertain
ĠaĠc lass
la ugh
eĠf in
eĠf ac
eĠf irstĠ
go es
go ĠtoĠ
go ingĠto
pa redĠ
Ġsc rap
Ġbe en
Ġstud ies
provid ed.Ġ
even ing
jo el
inter view
inter nal
eĠw indow
eĠw eddingĠeventĠ
yĠm onth
pre ferenc
pre vious
ans ion
sc ottish
ingĠm usic
ingĠm achin
Ġappl ic
ĠaĠm or
ĠaĠm ember
Ġe th
ĠtheĠw ayĠ
eĠyou ĠareĠ
ĠanĠ en
ĠanĠ over
ĠanĠ oldĠ
ĠanĠ ideal
,Ġand Ġthen
Ġnew s
sĠwith Ġ
olle ctĠ
ient ly
eĠh and
eĠh ear
ĠtheĠh ear
ĠtheĠh ous
look ing
look ĠatĠ
look ingĠatĠ
Ġtw elveĠ
oup leĠof
ingĠc enter
ingĠp ag
ingĠp eopleĠ
ingĠp hys
yĠb y
ident ity
ident ification
edĠto ĠtheĠc
includ esĠ
Ġper hap
Ġwork Ġin
Ġwork ingĠwith
Ġmor eĠfrom
whatĠ will
10 1
ageĠ wasĠ
ĠaĠl ink
ĠaĠl icens
ug ustĠ
requ estĠ
ingĠd own
ingĠd esign
co ach
ner Ġof
ingĠandĠ d
ingĠb yĠ
ros oftĠ
se e
Ġyear sĠof
.Ġm yĠ
.Ġm ostĠ
fin anc
ath let
Ġse en
Ġse eĠa
bl adder
Ġwhich Ġis
edĠbyĠ your
aut inoĠ
aut obahn
gu er
gu ess
gu arante
itĠisĠ someth
whil eĠtheĠ
whil eĠyou
Ġhow Ġmuch
sĠd oĠ
Ġart istĠ
bec omeĠ
sĠm yĠ
ed,Ġ butĠ
Ġmon e
Ġinter fac
Ġinter viewĠwith
ret riev
Ġav ail
Ġthink Ġof
Ġthink ĠthatĠ
Ġthink ĠaboutĠ
ĠtheĠn umber
ĠtheĠn orth
ĠtheĠn umberĠof
inv itor
oneĠof Ġour
oneĠof ĠtheĠmostĠ
ĠtoĠd etail
val id
ementĠ meansĠ
Ġact iveĠ
Ġact ually
ingĠfor ĠtheĠ
iel dĠof
resp ir
anceĠ from
sĠto gether
15 1
15 5
fac e-to-fac
eĠl if
eĠl ong
stat eĠof
stat ement
Ġservic esĠ
Ġservic es.Ġ
ract ition
Ġrem ot
eĠsh op
arm aceut
Ġcl ub
bas ically
Ġhe aven
Ġfin allyĠ
tim e.
Ġover look
ĠwouldĠ likeĠtoĠ
vent ureĠ
,ĠbutĠ i
Ġman yĠs
Ġmed icin
ifi ed
week endĠ
sĠc all
sĠc enter
Ġany on
Ġany way
ech anic
ĠweĠ haveĠ
need edĠfor
each Ġother
Ġthank sĠtoĠ
,Ġyou ĠhaveĠtoĠ
ĠandĠd in
lead ersĠ
loc ated
Ġrec entĠ
Ġwe âĢĻll
Ġmak eĠa
eĠsp ecific
manag ingĠdirector
Ġout put
edĠs omeĠ
tern al
edĠtheĠ in
ept ember
mad eĠwith
uccess orsĠin
ingĠof f
.Ġyou âĢĻll
.ĠweĠ ar
.ĠweĠ will
.ĠweĠ areĠ
abil ities
itor Ġgeneral
Ġallow Ġyou
dec id
just ĠasĠ
lif t
att le
.Ġb yĠtheĠ
Ġcar ry
elect rical
Ġdis charg
Ġdis playĠ
vide os
Ġsup pli
ĠtheseĠ areĠ
.ĠitĠ was
rop box
exc essĠ
perform anceĠ
giv esĠyou
vir gin
ĠandĠf ollow
str iveĠ
Ġind ia
run ner
Ġteam ĠstoodntĠ
sĠp eopleĠ
,Ġh uman
off setĠ
Ġgroup sĠ
s,Ġs p
Ġstor ag
13 4
Ġanton ioĠ
Ġlif e.Ġ
Ġlif e,Ġ
Ġaccess ĠandĠ
ĠisĠa ctiv
ĠaĠh alf
Ġpar tĠofĠtheĠ
what ever
product iv
Ġlik elyĠ
Ġplac eĠ
Ġsign ific
Ġstudent sĠin
-s izedĠ
eĠ( s
sĠcan Ġb
ordin ating
design edĠtoĠ
og enic
ĠanĠex tra
ĠofĠs aidĠcount
Ġalong sid
green ĠpartyĠmember
hand leĠ
print ableĠ
eĠad v
inst itut
,ĠweĠ haveĠ
ĠdoĠ i
ensur eĠthatĠ
pt un
onc eĠtheĠ
,Ġb logĠfriend
ett i
impro veĠth
Ġexperienc eĠin
irect ly
full erton
eĠan alys
.Ġfor Ġexample
oft ware
follow ing
Ġsystem s,Ġ
christ mas
istor yĠof
hon eyĠ
eĠthat ĠtheĠ
result sĠin
result ingĠin
Ġprovid es
Ġprovid esĠ
version ĠofĠsumoĠaffiliat
bin aryĠoption
sur viv
eĠofĠc alifornia
ĠwillĠb eĠs
gl or
Ġtri al
esc ap
Ġcount yĠ
Ġcount ri
Ġcount rys
chi ef
Ġchrist mas
ĠasĠa Ġresult
priv at
priv ileg
17 7
liv ingĠroom
necess aril
writ ing.Ġ
Ġthre e-
ĠtoĠmak eĠ
Ġdi abetesĠ
Ġaccord ingĠtoĠtheĠ
Ġthere 'sĠ
until ĠtheĠ
raw Ġmaterial
Ġoffic er
Ġexam in
prom in
prom is
Ġtreat mentĠin
init ial
contactĠ usĠ
Ġassist antĠ
struct ureĠandĠfunction
receiv edĠ
.Ġa Ġstud
del ic
hol der
hear t
oak Ġup
ĠfoodĠ preparation
Ġcontinu eĠtoĠ
Ġanalys isĠ
less Ġthan
ĠâĢĵ Ġ
imilar ĠtoĠ
eĠmor eĠ
month lyĠ
invest ig
invest igation
error s.h
found ĠthatĠ
abl esĠandĠ
ĠtakeĠa Ġlook
Ġattend e
learn ĠmoreĠ
Ġminut esĠ
Ġminut eĠdriveĠ
lor is
atingĠ evidenc
elf -
rob atĠread
ĠtoĠhelp Ġyou
Ġdown load
acc ept
e.ĠweĠ areĠ
Ġexp ensiveĠ
Ġperform anceĠ
Ġmonth lyĠ
cours eĠ
cours eĠisĠdesignedĠfor
function al
wid elyĠ
Ġz omb
Ġmy th
dat abas
ĠaĠcom plet
ĠaĠcom fort
ĠhadĠ been
goingĠtoĠ beĠ
planning Ġapplication
planning Ġdepart
beli eveĠ
organ ism
Ġsm art
Ġsm artĠ
Ġfamil y
quit eĠa
grad eĠ
Ġguid ebook
famil yĠ
good en
jam esĠ
round about
Ġtell Ġyou
ĠtheĠch urch
Ġdist rict
Ġabs orb
phon e,Ġ
Ġ*Ġ errors.h
empt yĠ
Ġremov al
Ġtoward sĠ
Ġlos Ġangel
findĠ outĠ
dem and
me ant
anal ys
Ġant iqu
Ġant ibod
Ġla unch
basedĠon Ġ
kind sĠof
ĠmustĠ beĠ
const antĠ
Ġthroughout ĠtheĠ
production Ġu
ĠaĠlarg eĠ
Ġinvest ig
cat s
lat in
mar ri
ĠsetĠ up
Ġdin ner
Ġtoo !
noth ingĠ
effic ac
grand father
locat edĠon
nl Ġwith
ilit aryĠ
Ġpower ful
roy al
Ġrest aurant
ĠtheĠcor ner
ugg estĠ
ĠserviceĠ provid
chedu le
-h arm
eac eful
mod ern
ĠaĠst rong
.Ġit ĠalsoĠ
ĠhomeĠ remodel
Ġdiet etic
exam ple
Ġlarg eĠ
perfect lyĠ
apac ity
makeĠsur eĠthatĠ
Ġbeh alf
Ġcompet ition
Ġquick ly
strong lyĠ
vehicleĠadvertis ingĠ
immun eĠsystem
-year -oldĠ
bath room
wall paper
Ġer ul
Ġspr ingĠ
ĠcountyĠcouncil Ġmember
Ġbeg an
urb an
oliveĠ oil
amb oo
Ġchar acter
Ġtroubl edĠteen
Ġmarketing Ġstrateg
Ġinstitut ion
fram ework
histor ic
ras p
comfort ableĠ
istr yĠof
independ enceĠwar
,Ġsm g
Ġafford ableĠ
Ġleg al
Ġcommitt eeĠ
flor id
createĠ a
focus edĠon
mustĠ beĠ
ĠawayĠ from
Ġbeli eveĠ
Ġresp on
Ġproduc tĠ
ĠatĠtheĠsameĠtim e,Ġ
Ġrece iveĠ
opportunity ĠtoĠ
ĠthreeĠ year
sĠprogram sĠinĠfl
rode o
Ġbre ed
Ġfall Ġ
idd leĠ
Ġland scap
bey ond
ĠtheĠsit uation
clin ical
ustain ableĠ
canĠi Ġdo
Ġequ ip
eĠshall ĠbeĠ
Ġphot o
uccessfullyĠ complet
avi dĠ
flex ibleĠ
gat ewayĠ
kath yĠ
enar ios
atal og
.Ġof Ġtenn
thre eĠ
thes is
Ġpet ition
stra ight
Ġbab y'sĠ
ourtĠof Ġmeig
ĠaĠpriv ateĠ
ĠaĠpriv ateĠcl
eastern Ġchristian
66 9
lab el
.Ġonc eĠyou
Ġwinter Ġ
ĠwineĠ videoĠ
sty leĠ
Ġalask a
s,Ġinclud ing
Ġon- lineĠvot
anceĠb rok
dustr y.Ġ
assuan _err
ĠstudentĠ bod
Ġeu rop
standardĠ schnauzer
ĠsoĠs orryĠtoĠhearĠaboutĠyour
Ġarthritis ĠtreatmentĠin
brok en
hardĠ work
Ġcamp us
impress iveĠ
illust rat
exascal eĠ
Ġlangu ag
Ġadmission Ġconsult
william Ġhill
Ġagric ultural
ĠitĠcom esĠtoĠ
autom obil
Ġregister edĠ
Ġdoes nâĢĻtĠ
eĠglitter yĠwineĠb
Ġdefin ition
specialist ,Ġ(
oundproofĠwindow sĠinĠfortĠbranch
ynam ic
restorativeĠ justic
Ġblo odĠ
neg ativeĠ
comple tion
encry ption
Ġnu ovoĠ(
Ġjes us
Ġrank edĠ
vertical Ġmill
letĠusĠ know
)Ġ[ w
Ġsubsc ription
ormoneĠ level
lux uryĠ
legalĠbas isĠfor
rustic Ġglam
elizabeth Ġell
gor ith
ĠanĠintro duction
edicat edĠtoĠ
Ġpolit ical
americ an
abs olut
Ġluck yĠb
Ġconduc tĠ
remin der
eĠfeel ĠfreeĠtoĠ
ingĠhand gun
Ġsatis faction
anyoĠ electric
victorian Ġcand
ĠquarterlyĠ (berkel
etĠcityĠ houston
puteĠresolution Ġprogram
-antit rypsinĠdeficienc
oat meal
ygi en
Ġara b
atyamevĠsur ya
uroĠ verd
acu um
hawa ii
Ġprobab lyĠ
easel graveĠ
assoc iat
ĠinĠcinema ĠnuovoĠ(
atisf i
va_c opy
.gov /
bhk ĠapartmentĠ
gott en
kdt emp
âĨ ĳ
Ġvers usĠ
Ġtich onic
ingred ient
unkin '
Ġgrew Ġup
agstaff Ġaz
oocomm erc
ingĠphys ician
uccessorsĠin Ġoffic
productionĠu imĠdomain
sĠprogramsĠinĠfl agstaffĠaz
.ĠofĠtenn .Ġ
ĠarthritisĠtreatmentĠin Ġken
ĠquarterlyĠ(berkel ey
! "
! ĠtheĠ
! Ġh
! ĠsoĠ
! Ġhapp
" Ġhigh
% ĠinĠ
% ĠsinceĠ
& b
' .
( i
) Ġwhich
) Ġ-
) ĠgrewĠup
* .
+ book
, Ġas
, ĠtheĠt
, Ġthrough
, ĠaĠd
, Ġapp
, ĠshouldĠ
, Ġstart
, ĠalongĠwith
, ĠtheyĠareĠ
, ĠthereĠareĠ
, ĠaccordingĠtoĠ
- view
- to
- person
- bas
- mad
- click
- lit
- relatedĠ
- classĠ
. ĠaĠ
. Ġther
. Ġstudent
. ĠthatâĢĻsĠ
/ person
1 13
3 50
6 1
6 2
6 7
7 0
7 86
8 10
8 60
9 00
: -
: Ġfor
; Ġth
; ĠtheĠ
? âĢĿ
? ĠweĠ
? Ġif
? ĠareĠyou
a _
a ar
a und
a ik
b s
b v
b re
b it
b ow
b ag
b eĠtoĠ
b yĠs
b yĠm
b ioĠ
b enef
b bc
b ought
b itĠof
b oost
c a
c le
c ap
c od
c ool
c utĠ
c amp
c reas
c ientĠ
c lock
c ollection
c raft
c ycl
c eĠagain
c ottonĠtrader
c ollabor
c ottag
c ounselor
d l
d id
d im
d iscuss
d evic
d uringĠtheĠ
d estination
d idnâĢĻtĠ
d espit
d oubt
d irectĠ
e or
e iv
e ersĠ
e antĠ
e ans
e whatĠ
e graph
f ad
f itĠ
f air
f rench
f older
f asc
f avour
f utureĠ
f amousĠ
g ium
g rip
g overn
h d
h en
h al
h eal
h eĠisĠ
h olidayĠ
h abit
h ttps
i usĠ
i edĠto
i anceĠ
i eĠl
i âĢĻll
i âĢĻveĠ
i ada
i Ã³n
j i
j ul
j ection
k n
k Ġ
k it
k itĠ
k ick
k ob
k night
k sw
k nock
l c
l un
l atĠ
l ak
l ayĠ
l ap
l ication
l imp
l uk
l uck
l antic
m oĠ
m em
m ill
m ph
m eĠtoĠ
m eeting
m ooth
m otiv
n an
n el
n edĠ
n as
n ak
n ship
n eck
n urs
n umberĠof
o a
o qu
o ardĠ
p p
p Ġ
p our
p sĠandĠ
p ink
p ool
p ursu
r v
r up
r eĠc
r ity
r ass
r yĠs
r antĠ
s k
s eĠ
s or
s en
s Ġan
s am
s ex
s ect
s ign
s ĠtheĠb
s eat
s sel
s cal
s Ġafter
s ureĠ
s kin
s ĠasĠwellĠasĠ
s ingleĠ
s ummer
s ecurityĠ
s undayĠ
s ecurity
s ky
t ail
t own
t yp
u le
u allyĠs
v dĠ
v it
v ic
w eĠs
w ool
w ineĠ
w iseĠ
w ors
w orry
x x
x im
y _
y ach
y Ġthat
y ĠaboutĠ
y es,
z ek
z ayn
½ Ġk
¿ ½
Â £
Â ±
Â »
Â Ń
Ã ¡
Ã ½Ġk
Ä į
ä »
ï ¿½
Ġ ì
Ġ vi
Ġ uc
Ġ eb
Ġ road
Ġ river
Ġ election
Ġ establish
Ġ evidenc
Ġ edit
Ġ oven
eĠ k
eĠ areĠ
eĠ lik
eĠ la
eĠ âĢĵ
eĠ itsĠ
eĠ stor
eĠ willĠbeĠ
eĠ hasĠbeen
eĠ report
Ġt u
Ġt un
Ġt ough
Ġt ire
Ġt ass
Ġt reatĠ
Ġt weet
Ġt urning
Ġt ailor
Ġt attooĠ
Ġt utor
Ġa Ġrel
Ġa Ġcompan
Ġa head
Ġa Ġtru
in es
in th
in entĠ
in Ġon
in ĠtheĠc
in Ġtheir
in ĠtheĠt
in a,Ġ
in Ã©
in Ġtouch
in Ġport
in Ġfact
Ġth orough
sĠ n
sĠ re
sĠ it
sĠ sh
sĠ soĠ
sĠ butĠ
sĠ befor
sĠ list
sĠ shall
sĠ later
sĠ relat
er Ġd
er ver
er .ĠtheĠ
er ial
er s.
er y.
er ĠthanĠ
on yĠ
on .Ġ
on us
on ation
on e.
on Ġher
tĠ (
tĠ out
or ph
or ship
or rent
en vi
en able
en ĠintoĠ
en Ġhill
en eur
ou x
ou sĠs
ou s.cĠ(
ĠtheĠ r
ĠtheĠ on
ĠtheĠ ro
ĠtheĠ form
ĠtheĠ âĢľ
ĠtheĠ right
ĠtheĠ job
ĠtheĠ application
an or
an Ġc
an im
an ium
re es
re ational
re porter
Ġs l
Ġs id
Ġs un
Ġs qu
Ġs ight
Ġs ession
Ġs old
Ġs ideĠ
Ġs undayĠ
Ġs chedul
Ġs enior
Ġs ilver
Ġs ymbol
at Ġa
at in
at tĠ
at ed.Ġ
at edĠfor
at edĠby
at ientĠ
at ĠtheĠsameĠtim
at uresĠ
it z
it ĠtoĠ
it sĠof
it Ġall
it ial
it eĠisĠ
it ans
ing :
ing Ġre
ing âĢĻsĠ
ing ĠaĠc
ing ĠaĠf
ing ĠaĠm
ing ĠaĠg
ing ĠaĠd
ing ĠofĠtheĠ
ing Ġhigh
ing Ġcompan
ing ĠaĠnew
ing Ġproduct
Ġan a
Ġan Ġincreas
Ġan cientĠ
yĠ reg
yĠ hasĠbeen
yĠ hous
al ition
al Ġdischarg
.Ġ r
.Ġ us
.Ġ ne
.Ġ com
.Ġ con
.Ġ he
.Ġ la
.Ġ br
.Ġ ren
.Ġ whatĠ
.Ġ justĠ
.Ġ whyĠ
.Ġ choos
.Ġ photoĠ
ar th
ar eĠs
ar yĠm
ar thrit
ar ilyĠ
,Ġ re
,Ġ is
,Ġ un
,Ġ new
,Ġ her
,Ġ red
,Ġ do
,Ġ wasĠ
,Ġ well
,Ġ wereĠ
,Ġ byĠ
,Ġ professional
,Ġ univ
,Ġ oakridgeĠ
,Ġ Â·
,Ġ kathyĠ
es )
es _
es isĠ
es Ġall
es sĠs
es cal
es omeĠ
es Ġthen
es ĠatĠtheĠ
es Ġteam
es Ġaround
oĠ eĠ
oĠ kitchenĠremodel
oĠ mortar
is ĠthatĠ
is order
is ĠalwaysĠ
is posal
ic ,Ġ
ic ol
ic s,Ġ
ic atedĠ
ic iousĠ
Ġc ow
Ġc art
Ġc apt
Ġc yt
Ġc avi
Ġc ounter
Ġc amera
Ġc loth
Ġc ulture
Ġc sr
Ġc eremon
om est
om ew
om atic
ĠandĠ on
ĠandĠ ch
ĠandĠ beĠ
ĠandĠ mor
ĠandĠ plac
ĠandĠ chang
ĠandĠ health
ĠandĠ whit
ĠandĠ physical
ĠandĠ rossĠ
ĠandĠ international
el a
el an
el ep
el se
th ol
th Ġof
th eĠc
th eĠp
th eat
th ank
th eir
th irdĠ
th entic
th eor
il a
il legal
you âĢĻll
for Ġf
for ĠthisĠ
for Ġexample
ed ?
ed Ġan
ed lyĠ
ed ĠtheĠc
ed ly
ed ,Ġs
ed ĠtheĠb
ed ication
ed .Ġs
ed ĠaĠb
ed Ġafter
ed ĠanĠ
ed .ĠthisĠ
ed Ġthis
ed ĠtwoĠ
ed itor
ed Ġteam
ed Ġanother
ed ĠasĠa
ed Ġagainst
ed ĠthatĠtheĠ
ed ĠtheĠcor
Ġp as
Ġp ow
Ġp eer
Ġp otential
Ġp oor
Ġp opular
Ġp aul
Ġp rett
Ġp opulation
Ġp addock
Ġw entĠ
Ġw oodĠ
Ġw ild
st own
st rat
st antĠ
st amp
edĠ our
edĠ when
edĠ itsĠ
edĠ him
ro id
ro ther
ro cer
ch ol
ch ill
ch rom
ch eer
ch arter
ch ildĠ
ch ampionship
Ġb adĠ
Ġb ank
Ġb usĠ
Ġb ath
Ġb ed,Ġ
Ġm c
Ġm m
Ġm w
Ġm ag
Ġm ary
Ġm yĠb
Ġm yĠd
Ġm oveĠ
Ġm ax
Ġm ental
Ġm essag
Ġm ostĠof
Ġm pg
ĠtoĠ in
ĠtoĠ myĠ
ĠtoĠ manag
ĠtoĠ control
ĠtoĠ follow
ĠtoĠ join
ĠtoĠ becom
ĠtoĠ return
ĠtoĠ find
ĠtoĠ launch
ĠtoĠ prevent
ĠtoĠ improveĠ
ĠtoĠ promot
isĠ play
Ġh el
Ġh ang
Ġh ors
Ġh oliday
Ġh epatit
Ġh ygien
ent leĠ
ent ry
ent Ġtelevision
ent ina
ent itl
le ast
le ather
le agu
le +book
ct ure
Ġd an
Ġd ell
Ġd ang
Ġd ark
Ġd iscuss
Ġd evic
Ġd irection
Ġd espit
Ġd rivers
lo stĠ
lo veĠtheĠ
us a
us eĠandĠ
us eĠofĠtheĠ
et al
âĢ ²
ur i
ur l
ur der
ur eĠisĠ
ur bur
ur round
ur viv
Ġf ig
Ġf oc
Ġf arm
Ġf lor
Ġf actor
Ġf inger
Ġf abulousĠ
ation Ġin
ation s,Ġ
ation Ġwill
ol t
id -
id ol
id den
Ġin Ġtheir
Ġin ĠaĠc
Ġin Ġorder
Ġin fluenc
Ġin dustryĠ
Ġin dustry
ig ious
ig rantĠ
Ġto ĠthatĠ
Ġto ĠaĠ
Ġto Ġthem
Ġto ĠanĠ
Ġto Ġacquir
im it
im mortal
esĠ us
esĠ itĠ
esĠ high
esĠ count
esĠ i.
ra q
ra yĠ
ra el
ra yĠof
ra ftĠ
em m
em il
atĠ you
Ġyou Ġwant
Ġyou ĠshouldĠ
Ġyou ng
Ġyou Ġreach
Ġyou ĠwantĠ
ow enĠhill
leĠ isĠ
leĠ to
Ġof ĠaĠd
Ġof ĠtheseĠ
Ġof Ġinformation
Ġof ĠtheĠgplac
am ous
am mer
ir well
ir Ġcondition
Ġg un
Ġg litter
if etim
Ġre adĠ
Ġre ally
Ġre cordĠ
Ġre venu
Ġre bound
ul at
ill i
ill ar
ill ness
ill ino
ac ro
ac et
ec ad
ec ure
Ġal um
Ġal ert
Ġal together
wh iteĠ
wh oseĠ
all en
all ic
Ġst ag
Ġst uck
Ġst ability
Ġst ucc
Ġst imul
ne ither
ne edĠof
ne aker
ne utral
ter ior
eĠth eĠsh
with ĠthisĠ
with ĠtheĠs
with ĠaĠf
with inĠ
with Ġother
ab ly
our Ġl
ag en
ag ain
ex istĠ
ex ually
ex ecut
ex ecutiveĠ
ingĠ l
ingĠ us
ingĠ if
ingĠ over
ingĠ outĠof
ingĠ job
os ;
os sibleĠ
os ĠandĠm
os tĠofĠtheĠ
ut iesĠ
ut down
âĢĻ c
ay beĠ
com ment
com esĠwith
Ġand Ġal
Ġand ĠaĠb
Ġand ĠaĠd
Ġand Ġaccess
itĠ will
res id
pro spect
ak istan
qu ak
eĠs iz
eĠs erv
eĠs ection
eĠs chool
eĠs eem
eĠt ri
eĠt reat
eĠt ook
iv in
iv e,
igh ter
Ġl ac
Ġl ateĠ
Ġl ight
Ġl essĠ
Ġl unch
Ġl iter
Ġl incolnĠindustri
um ans
ĠthatĠ your
ĠthatĠ can
ĠthatĠ myĠ
ĠthatĠ has
ĠthatĠ heĠ
ess ayĠ
con fir
con stru
con sequ
con nectĠ
per mission
per iodĠof
oo ter
and le
eĠof f
eĠof Ġall
eĠof Ġour
.ĠtheĠ new
ear l
up d
up re
up per
ev ot
ĠthisĠ lif
ĠthisĠ plugin
s.Ġ your
s.Ġ now
s.Ġ however
ain ting
e.Ġ ifĠyouĠareĠ
e.Ġ however,Ġ
lyĠ whatĠ
enc y
enc eĠandĠ
enc e,
enc los
Ġfor Ġan
Ġfor Ġit
Ġfor Ġthos
Ġfor Ġeach
Ġfor Ġshar
Ġthe or
ep rom
ep loy
ep hy
s,Ġ in
s,Ġ isĠ
s,Ġ can
s,Ġ âĢľ
s,Ġ youĠcan
s,Ġ pa
s,Ġ whoĠ
s,Ġ pleaseĠ
Ġn un
Ġn uc
Ġn utri
e,Ġ now
e,Ġ both
e,Ġ youĠwill
e,Ġ itĠc
ud ienc
ud itorĠgeneral
be an
be am
be ingĠs
Ġas c
Ġas ian
Ġas ĠtheyĠareĠ
Ġas buryĠpark
sĠof f
sĠof Ġh
sĠof ĠthisĠ
sĠof ĠtheĠs
sĠof fer
sĠof Ġour
Ġwith ĠaĠ
Ġwith Ġour
ant i
ant ast
ant astic
ĠtheĠs un
ĠtheĠs callop
est -
est ra
Ġon eĠs
Ġon ĠthisĠ
Ġon ĠtheĠc
Ġon ĠmyĠ
Ġon tario
Ġsh ad
Ġsh oot
ri ber
ĠasĠ i
ĠasĠ sh
ĠasĠ long
ĠasĠ usual
eĠc am
eĠc op
eĠc ustom
eĠc amp
eĠc ours
eĠc lear
eĠc ustomer
eĠc ounsel
eĠc ox
eĠc elebrat
anc eĠon
ell ane
your Ġsit
your Ġneed
your Ġlocal
your ĠbusinessĠ
ĠaĠ âĢľ
ĠaĠ âĢĺ
sĠandĠ new
od a
od i
pr intĠ
pr incipl
pr eneur
pr oĠkitchenĠremodel
ateĠ isĠ
ateĠ with
sĠin Ġs
sĠin Ġtheir
sĠin ĠtheĠd
sĠin ĠmyĠ
sĠin volv
s>Ġ<s> Ġfor
s>Ġ<s> ĠtheĠs
gh ana
cl ient
cl imateĠ
cl oud
cl uster
cl imb
du cer
ip ul
Ġad am
Ġad justĠ
Ġad ultĠ
Ġor Ġin
Ġor Ġnon-
Ġor Ġaceton
Ġor iginal
Ġwh om
Ġwh iteĠ
Ġpro pos
Ġpro ven
Ġpro vision
Ġpro ducer
por sch
Ġat Ġa
Ġat ĠtheĠs
etĠ outĠ
sh elp
sh ower
sh ort
sh ieldĠ
ard stown
ĠtheĠc ityĠ
ĠtheĠc ost
ĠtheĠc ours
ĠtheĠc ityĠof
ĠtheĠc air
ĠtheĠc offe
ĠtheĠc rushĠproĠ
from Ġ
from Ġfather
will ĠhaveĠ
art invitor
eĠin f
eĠin form
eĠin Ġtheir
eĠin volv
form atĠ
form sĠof
ber tĠ
eĠm aterial
eĠm ayĠalsoĠ
ly ,ĠtheĠ
ly Ġsit
ly mph
out Ġther
Ġcon d
Ġcon junction
oc umentĠ
Ġcom esĠ
Ġcom pl
Ġcom pa
Ġcom par
eĠd ayĠ
eĠd isc
eĠd epend
eĠd ecor
ough tĠ
low -
low Ġcook
Ġ( f
Ġ( h
Ġ( or
Ġ( andĠ
Ġ( paris
Ġ( wild
eal edĠ
ĠisĠ d
ĠisĠ in
ĠisĠ justĠ
bu yĠ
haveĠ to
vi dĠ
we ak
we âĢĻveĠ
we 'reĠ
Ġab und
Ġab road
Ġab andon
âĢĻsĠ m
ail yĠbas
iz eĠofĠyour
ind ex
ableĠ t
,Ġs outh
,Ġs cottishĠtelevision
ew u
ple mentĠ
ru is
ru by
ru cial
Ġcan Ġyou
Ġcan Ġi
ment Ġag
int end
Ġac robatĠread
ityĠ mentor
ityĠ lun
Ġch eĠ
Ġch ev
Ġch ip
Ġch ees
Ġch ocolateĠ
weĠ ar
weĠ provid
weĠ wereĠ
Ġex per
Ġex pos
Ġex hib
eĠa Ġnew
eĠa ward
eĠa ctiv
eĠandĠ health
ph ereĠ
eĠtoĠ beĠ
eĠtoĠ getĠ
ies ĠthatĠ
ies ,ĠandĠ
Ġsp entĠ
Ġsp anish
tĠof f
man ual
ong o
ens or
ens eĠof
li qu
li ament
Ġj an
Ġj ack
Ġj eb
edĠb yĠm
edĠb yĠd
edĠb ecaus
eĠb elow
eĠb oth
ĠtheĠf re
ĠtheĠf ound
ĠtheĠf amil
ĠtheĠf ather
ĠtheĠf ield
ĠtheĠf aith
ĠtheĠf rontĠof
ĠatĠ m
ĠatĠ work
ĠatĠ hom
ĠtheĠm ess
ĠtheĠm ost
ĠtheĠm enu
port al
port rait
Ġv ir
Ġv enu
Ġv ictor
Ġv oodooĠ
gra p
s. com
s. ĠanyĠ
s. ĠthisĠisĠ
Ġi otĠ
Ġi ĠwouldĠ
Ġi Ġdon'tĠ
Ġi ĠtryĠtoĠ
Ġk a
Ġk al
Ġk ey
Ġthat Ġall
Ġthat ĠtheyĠcan
ĠtheĠp et
ĠtheĠp ath
ĠtheĠp olish
ĠtheĠp urpos
ĠtheĠp ossib
ĠtheĠp acific
work ingĠon
ĠtheĠb ig
ĠtheĠb utton
cont empor
her b
soĠ far
sp end
sp eedĠ
edĠtoĠ get
eĠtheĠ firstĠ
'sĠ your
'sĠ own
can notĠ
can Ġhelp
ub mission
ub mit
19 3
Ġr h
Ġr ent
Ġr ound
own load
ib le
notĠ justĠ
ĠtheĠd ist
ĠtheĠd umpster
ĠtheĠd ifferenc
edĠin Ġyour
Ġpl usĠs
Ġpl entyĠof
Ġwill ĠnotĠ
Ġam p
Ġam ewu
ĠhaveĠ to
ĠhaveĠ som
eas onĠ
eas ilyĠ
ers '
mak eĠm
mak ingĠitĠ
ĠtheĠg lobal
ĠtheĠg reek
ĠtheĠg oal
isĠa ctuallyĠ
Ġtim eĠfor
ass ag
yĠs ystem
ĠthereĠ wereĠ
ob ed
eĠp art
eĠp artĠ
eĠp urchas
eĠp urpos
ĠtheĠt emper
eb r
iesĠ with
Ġtak eĠonĠtheĠ
Ġtak eĠhim
sĠs uchĠas
av oid
sĠfor ĠkindleĠ
sĠfor Ġgirl
yĠc o
yĠc lean
ingĠs olution
ingĠs uppl
Ġlo ad
Ġlo ck
Ġus b
Ġus ĠatĠ
idĠ water
sĠtoĠ getĠ
ult ureĠ
ult imat
red ĠtoĠ
red ĠtoĠtheĠ
es,Ġ in
es,Ġ or
es,Ġ butĠ
es,Ġ but
wasĠ post
es.Ġ -
es.Ġ re
y,Ġ butĠ
Ġit sĠm
âĢľ forschungszentrum
s, ĠtoĠ
s, Ġst
s, ĠasĠwellĠasĠ
âĢĿ Ġ(
eat ure
rec eption
mor e.Ġ
way .Ġ
way ĠtoĠgetĠ
way ĠtoĠst
inc identĠ
how Ġyou
Ġag ility
Ġag greg
vers eĠ
ĠaĠs ur
ĠaĠs impleĠ
ĠaĠs olidĠ
Ġthem Ġall
ek oĠ
sel ect
ord on
ord pres
Ġtra c
which ĠisĠ
ervic esĠ
ĠandĠs et
ĠandĠs oul
ĠandĠs erv
ĠandĠs eeĠ
not ifi
ĠtheĠl ateĠ
ĠtheĠl ack
ĠtheĠl ight
ĠtheĠl icens
ool ingĠsystem
.Ġi ĠalsoĠ
.Ġi ĠwasĠ
.Ġi ĠwouldĠ
.Ġi ĠjustĠ
.Ġi ĠloveĠ
arg o
view er
.Ġs aveĠ
.Ġs inceĠthen
ersĠ (
ersĠ with
ersĠ shall
Ġres olution
ĠalsoĠ work
lik eĠw
lik eĠyou
rem ind
rem oteĠ
ĠtoĠs ell
ĠtoĠs erv
help sĠ
help ingĠtoĠ
plac e.Ġ
e, ĠtoĠ
yst ery
Ġle av
Ġle ft
when Ġi
af ter
Ġadd sĠ
eĠfor Ġyou
eĠfor ĠtheĠs
eĠfor Ġyour
eĠfor Ġall
eĠfor Ġfre
io tĠs
pres crib
eĠisĠ wear
eĠto oĠ
eĠto gether
ĠaĠp art
ĠaĠp articular
ĠaĠp remium
ĠaĠp hot
edĠwith Ġ
edĠwith Ġyour
Ġun itsĠ
y.Ġ our
y.Ġ ifĠyou
he atĠ
he 'll
he aven
ĠaĠb it
ĠaĠb usiness
ĠaĠb lank
Ġne ed.Ġ
Ġne got
ĠitĠ is
ĠitĠ hasĠbeen
ĠitĠ mayĠbeĠ
ĠaĠc o
ĠaĠc ours
ĠaĠc ultur
ection al
ton Ġ
Ġthes eĠm
Ġthes eĠtwoĠ
la ur
eĠf unction
eĠf ram
ĠaĠf resh
go ĠtoĠd
ingĠtoĠ beĠ
ĠtheyĠ wer
sĠon ly
sĠon Ġour
Ġsc or
Ġsc ientist
Ġsc outĠgroup
gr andĠ
Ġis rael
Ġbe ingĠb
Ġbe havior
Ġacc redit
Ġacc identĠ
Ġacc ountĠ
provid edĠon
provid edĠby
rit or
rit ic
rit ain
rit ical
inter ior
inter estĠin
ed.Ġ in
ed.Ġ youĠcan
pre st
pre jud
sc or
sc op
min i
min n
eĠwith outĠ
Ġappl ies
Ġappl ianc
ĠaĠm aster
ĠaĠm onth
urn ish
Ġe -
Ġe eprom
don âĢĻt
ardĠ count
edĠfor Ġtheir
Ġafter Ġa
Ġafter Ġyou
ĠaĠg u
reg ulation
mon d
Ġcont entĠandĠ
ĠanĠ email
ĠanĠ effectiveĠ
.ĠthisĠ is
.ĠthisĠ isĠtheĠ
eh oldĠ
ean ut
,Ġand Ġall
br and
br andĠ
Ġnew Ġrelic
sĠwith Ġyour
e- up
e- bas
oundĠ of
Ġass embl
eĠh isĠ
eĠh old
ĠtheĠh om
ĠtheĠh ol
look sĠlik
whoĠ haveĠ
eĠon Ġ
eĠon lyĠ
ĠaĠd ailyĠbas
ke ys
ing,Ġ m
eth odĠ
Ġ* *
Ġ* .
Ġ* Ġf
Ġ* Ġget
Ġtw itter
,ĠtheĠ companyĠ
are fullyĠ
oup leĠ
ingĠc o
ingĠc ap
ingĠc ard
ingĠp ublic
yĠb yĠ
yĠb ear
isc ellane
sĠand /or
eli ber
eli osĠandĠm
Ġthen ĠbeĠ
ident if
ident ifi
ident ify
know Ġthat
know Ġabout
know ĠhowĠtoĠ
ower ful
ix edĠm
edĠto wel
Ġper fectĠ
Ġper Ġweek
Ġper iod
Ġwork sĠ
Ġwork Ġwith
Ġwork ingĠon
stor m
stor ageĠ
riv al
sit eĠ
sit uation
Ġthis ?
Ġup per
ĠaĠl ifetim
los s
los som
ug eĠ
ug al
ingĠd ay
ingĠd ayĠ
ingĠd isorder
yĠd evelop
yĠd amag
ingĠb as
ingĠb utĠ
ingĠb usiness
ingĠb alloon
se yĠhous
Ġyear s,Ġ
Ġgr an
Ġgr ill
Ġgr andĠ
Ġgr ound
Ġcomm itment
earch Ġfor
fin eĠ
fin allyĠ
read ingĠ
read yĠtoĠ
ath an
ath es
open Ġplan
open ĠroadĠ
inĠtheĠ eastern
Ġse e
ital ian
compan ion
bl ess
Ġwhich ĠtheĠ
edĠbyĠ us
ivers eĠ
Ġqu ot
ureĠ and
gu ilt
yĠandĠ f
yĠandĠ physiolog
Ġsom eĠp
Ġsom eĠsortĠof
Ġhigh -tech
whil eĠs
whil eĠin
Ġhow ĠtheyĠ
Ġhow ĠdoĠi
sĠd own
sĠd esign
sĠd uringĠtheĠ
Ġreg im
bec am
sĠm ad
es. com
Ġmon dayĠ
Ġinter netĠ
Ġinter vention
Ġinter estĠin
ject or
rac eĠ
rac istĠ
rac ism
Ġav oc
Ġthink ing
ĠtheĠn or
ĠtheĠn ecess
.Ġh i
.Ġh eĠisĠ
inv ent
Ġpr incipl
ĠtoĠd riveĠ
ĠtoĠd etermin
fl ick
fl amm
sĠthatĠ mayĠ
val idĠ
val idat
ĠmyĠ f
under standĠ
byĠ using
ey m
experienc e.Ġ
experienc eĠandĠ
12 5
able ,Ġ
cor n
equ ival
high estĠ
high Ġschool
med icin
ĠaĠw ay
ĠaĠw eak
artĠ from
... "
veryĠ important
Ġrel ativ
ineĠ and
ĠtheĠpro c
ĠtheĠpro ject
ĠtheĠpro stateĠ
.Ġd idĠ
etter s,Ġpa
exp edition
exp endit
exp ansion
Ġthey âĢĻll
present ation
ganiz ation
app ear
issu es,Ġ
issu esĠandĠ
az z
chang eĠof
Ġrem oveĠ
eĠsh ould
eĠsh oot
was ĠtheĠ
Ġcl ar
Ġcl oudĠ
Ġhealth Ġprofessional
keep ĠinĠmind
reas ur
Ġhe ight
Ġhe ightĠ
let t
Ġdata Ġprotection
14 4
14 5
14 8
tim eĠtoĠ
Ġ- Ġ
.ĠifĠyou Ġwant
.ĠifĠyou âĢĻr
ĠwouldĠ youĠlik
whereĠ els
,ĠbutĠ how
Ġman ufactur
Ġmed ic
ifi edĠs
amil ton
eĠyour self
sĠb y
sĠb elow
ĠmayĠ b
ĠmayĠ notĠ
option al
aster Ġbedroom
ĠweĠ ar
need edĠ
need sĠof
health bridg
Ġthank sĠfor
,Ġyou ĠmayĠ
,Ġyou 'll
,Ġyou ĠneedĠtoĠ
ĠandĠd esign
edd yĠbear
Ġwant edĠtoĠ
much Ġmor
information ĠaboutĠ
onĠ isĠa
ingĠh ook-up
Ġwe 'veĠ
Ġmak ing
eĠsp ot
eĠsp otĠ
ĠtwoĠ (
ĠtwoĠ of
ĠtwoĠ year
Ġout Ġto
edĠs al
Ġwhen Ġi
willĠb eĠp
mer c
war rant
stud yĠ
stud yĠofĠtheĠ
lean lin
web Ġsit
web inar
ah o
air Ġof
ures .Ġ
ext rem
ext ract
ountyĠc ourtĠofĠmeig
Ġtrans ition
Ġtrans portĠ
.ĠthereĠ willĠbeĠ
dayĠ of
,Ġw eĠs
,Ġw ater
complet eĠwith
18 0
sĠ( andĠ
lif etim
lif esty
eĠfrom ĠtheĠ
att ach
att ract
elect edĠ
elect iveĠ
olleg eĠadmission
au er
var iation
eĠsur eĠyou
eĠsur pris
mostĠ important
atient s.Ġ
Ġgu y
Ġgu ilt
qual ityĠof
enjo ys
ingĠf oodĠ
str ing
str ass
str ength
str ument
Ġday s.Ġ
Ġstat ement
Ġstat usĠof
ingĠwith ĠtheĠ
Ġmin er
ĠaĠlo tĠ
happ yĠtoĠ
ax pay
car ri
les h
ness eeĠ
sm /
sm ell
sĠp articip
Ġmarket ingĠ
email Ġaddress
everyĠ week
light lyĠs
s,Ġs oĠ
s,Ġs uchĠasĠ
Ġph on
Ġph il
ecur ityĠof
Ġturn Ġyour
Ġturn Ġright
Ġturn Ġleft
Ġhom eĠisĠ
Ġlif t
Ġlif e?
Ġaccess or
Ġaccess ibleĠ
nam e.Ġ
rang ingĠfrom
ĠaĠre st
ingĠyour Ġown
Ġalway s
Ġalway sĠs
what ĠtheĠ
redĠ with
.Ġst and
.Ġst art
Ġaut umn
Ġsign al
,Ġf riend
ĠitsĠ own
Ġtechnolog y
Ġtechnolog y,Ġ
Ġtechnolog yĠandĠ
Ġtechnolog iesĠandĠ
count ryĠ
dis order
dis abl
dis appoint
vol ksw
Ġown ership
ĠaĠn atural
Ġbusiness .Ġ
.ĠyouĠcan ĠalsoĠ
univers itiesĠ
Ġlook ingĠfor
aw esomeĠ
Ġbas edĠon
Ġbas ement
becaus eĠyou
y. Ġtopic
Ġif ĠtheĠ
icesĠ research
Ġpart nership
Ġdef initelyĠ
Ġfe etĠ
olog y,Ġ
voic eĠ
,Ġg dsm
ĠdoĠ youĠhaveĠ
Ġstart edĠ
ensur eĠyou
onc eĠyou
rest aur
esĠareĠ notĠ
esĠareĠ availableĠ
ĠpeopleĠ toĠ
Ġbr ing
Ġtoday !
Ġtoday ?
impro veĠtheĠ
Ġexperienc e.Ġ
Ġexperienc eĠwith
24 0
call edĠ
pay ment
Ġo chr
Ġo ctoberĠ
eĠan yĠ
edĠd uring
control Ġof
ientĠ portal
Ġhour sĠof
Ġinformation ĠaboutĠ
conf lictĠresolution
Ġnot ic
websit eĠ
onĠtheĠ otherĠhand
Ġsal t
Ġset i
edĠp ower
edĠfrom ĠtheĠ
imm ens
imm igrantĠ
process or
ĠwhatĠ isĠ
ĠaĠfew Ġmoment
Ġmic rob
ĠthatĠyou ĠareĠ
obil eĠthem
Ġmillion ĠandĠ
-f ram
-f riendlyĠ
bur y,Ġ
hon e
hon our
Ġco ach
Ġhas ĠalsoĠ
eĠthisĠ isĠ
eĠthisĠ year
rentĠ wasĠ
sur pris
Ġser veĠ
eĠtheĠs am
ĠwillĠb eĠin
ajor ityĠof
sup port
Ġtri bunal
Ġsub ject
Ġsub sidi
.Ġf ind
,Ġn orth
esc ription
ĠcouldĠ beĠ
irc ular
appl y
beĠa ĠpartĠof
click ingĠher
bal ay
goodĠ new
Ġter ritor
Ġinclud eĠ
e.Ġi Ġam
e.Ġi ĠwasĠ
e.Ġi Ġhop
ĠnoĠ longer
ebook Ġpag
Ġunder standĠ
Ġweek lyĠ
kill edĠ
sĠa ustralia
writ e
esĠtheĠ importanceĠof
Ġdi eg
Ġstrateg ic
prot otyp
ocial Ġjustic
ĠtheĠfirstĠ s
Ġthere âĢĻs
wa itĠfor
orm ousĠ
orm sĠnational
raw Ġmill
raw fish
Ġoffic eĠ
Ġoffic ial
ingĠup Ġon
ĠavailableĠ toĠ
Ġactiv ityĠ
eddingĠ event
lim itĠ
lim itedĠ
link edĠtoĠ
link Ġinsur
larg eĠ
larg estĠ
er,Ġ (
yĠin Ġp
Ġdevelop ment
Ġinv itation
Ġaltern ativ
âĢĻreĠ having
Ġassist anc
25 3
alsoĠ offer
rap id
Ġgo al
quick ly
del ay
develop ment
hear d
iateĠ your
kindleĠ cloudĠ
ĠifĠyou Ġwant
Ġcall edĠ
possibleĠ for
english ĠandĠsp
cottish ĠmediaĠgroup
yc le
Ġel der
Ġel ementĠmeansĠ
eĠup Ġwith
Ġcell ular
ĠaroundĠ $
ĠtheĠcount ryĠ
ĠtheĠcount iesĠof
press ion
Ġprofessional Ġcolleg
den iedĠ
gener ateĠ
gener ally
earn Ġcred
Ġshall ĠbeĠ
rib unal
sĠandĠs ervic
Ġchildren ĠandĠ
Ġext ent
energ yĠ
energ yĠandĠ
.h .Ġ
34 8
e,Ġs uchĠasĠ
friend lyĠ
recommend ation
yĠfor Ġyou
alt ĠandĠpepper
acc ord
acc identĠ
Ġorganiz ational
Ġwhat ever
Ġexc eptional
Ġexp ens
commission ers,
compet itor
compet itiveĠ
ĠtoĠse eĠtheĠ
join tĠ
-up :
Ġz eal
,Ġbut ĠtheĠ
edĠas ĠaĠ
edroom Ġ
Ġread er
Ġsty lish
ĠaĠv oid
Ġacross ĠtheĠ
ĠthereĠareĠ noĠ
Ġqual ity
Ġqual ifi
mediat or
ability ĠtoĠ
Ã¼ ssel
Ġaud i
Ġaud it
ĠaĠcom bin
ĠaĠcom prehensiveĠ
inĠs even
Ġcas esĠ
Ġcustomer Ġservic
Ġhapp en
Ġhapp yĠ
Ġfac ilit
unitedĠ linkĠinsur
emor ial
committ edĠtoĠ
possib lyĠ
engag ement
eanna âĢĻsĠ
greatĠ for
tĠs eat
organ is
organ ic
Ġstar Ġ
conc eption
Ġprot otyp
Ġbefor eĠyou
Ġappoint edĠby
expect edĠto
Ġguid elin
famil y
famil iar
gn upg
ng ormsĠnational
ĠtheĠch ildren
Ġdist rictĠ
Ġdist ribution
urin aryĠ
eĠtheĠd ay
eĠsom eth
eĠdo esĠ
e.Ġs umoaffiliates.zip
Ġhead quarter
Ġthous and
Ġcustom ersĠ
Ġmet al
ĠtooĠ much
Ġtoward s
opy rightĠ
Ġunivers ityĠof
Ġ*Ġm iscellane
ĠtheĠprocess or
Ġagainst ĠtheĠ
someth ingĠi
olidayĠ onĠ
dem on
grow th
lec ular
Ġgam esĠ
Ġla Ġcount
encourag ement
s,Ġc ivil
eĠforĠtheĠ art
john son
eĠspecial ist
dustri al
erĠb ambooĠplantĠ
enz o
rev olution
rev ardĠcount
Ġcr ash
Ġcr ystal
Ġbecaus eĠ
Ġbecaus eĠitĠ
Ġdel ayĠ
current ly
Ġsupport ,Ġ
ĠaĠgradeĠofĠc ĠorĠbetter,Ġor
card stock
fresh lyĠ
fresh Ġstudio
iou sĠandĠ
iou sĠs
eĠasĠ well
Ġsens or
Ġmod ern
Ġdid n'tĠ
Ġfeat ur
Ġfeat ure
Ġgra ham
ageĠd evic
Ġnorth Ġameric
effic ienc
effic ientĠ
ifĠyouĠareĠ a
godĠ hasĠ
scienc eĠstudent
Ġautom otiveĠ
nor thern
rum lov
Ġ,Ġ newĠyork,Ġ
Ġoper atingĠ
ĠthanĠ ever
ĠtoĠprovid eĠ
asc ii
Ġhon eyĠ
Ġfull Ġepisod
ideal Ġfor
Ġreal iz
earth quak
bever ag
s.ĠthisĠ cours
engin eer
prepa re
prepa redĠ
Ġregistration ĠstatusĠof
respect iveĠ
necessary ĠtoĠ
.ĠtoĠ request
_c flag
between Ġ
Ġbott leĠ
Ġdu eĠtoĠ
eĠtheĠm ostĠ
pli anceĠof
epar ateĠ
Ġwher eĠtheĠ
Ġexpert is
ignific antlyĠ
ĠtheĠgreen Ġerul
Ġcompet itiveĠ
vehicleĠadvertis ing
49 8
aĠs ay
eĠn umberĠof
refer ral
itiz ens
Ġcand id
Ġcand idat
Ġpay mentĠ
Ġprom is
Ġpass ed
Ġdirect ly
irt yĠ
Ġstruct ureĠandĠ
Ġstruct ureĠandĠfunction
ĠthatĠs aid
princip al
class room
Ġrich ard
Ġrich ardĠ
Ġtroubl esh
heatĠsink ĠthermalĠresistanc
uffer Ġfrom
es: ĠbioĠ
esk Ã½Ġk
Ġbig Ġdata
useful Ġfor
proper lyĠ
proper ly
ainten anceĠ
eĠcl ass
endedĠ constitut
eĠint egrat
ĠtheĠpower Ġsector
Ġleg isl
Ġscottish ĠmediaĠgroup
registration Ġguidebook
Ġadvanc edĠ
Ġapprov edĠ
44 7
deb tĠ
direct lyĠ
har aĠsay
yth m
Ġ[ w
re- ownedĠ
ateĠs ector
,Ġus uallyĠ
Ġcab in
edĠinto ĠtheĠ
Ġbeli eveĠth
ĠtoĠensur eĠthat
Ġhistor ic
Ġinf ection
Ġge forc
neighbor hood
probab ly
ĠtheĠco -coordinator
Ġconcer ning
recogn is
ĠaĠper iodĠof
Ġgrand ma
equip ment
cordĠbloodĠ bank
Ġcredits.Ġprerequisit es:ĠbioĠ
88 8
aver ageĠ
zen sĠof
Ġtit leĠ
arch iv
Ġbroadc ast
appro v
ĠtheĠfollow ing
Ġvol unteer
Ġequ ity
Ġphot ograph
arbageĠdumpsterĠforĠrentĠinĠmonroeton ,Ġpa
e/ charter
gat ehous
rans fer
won âĢĻtĠ
weddingĠeventĠ invitesĠ
inĠtheĠs pr
ĠtheĠres tĠof
itâĢĻs ĠtheĠ
Ġmiss ingĠsometh
ĠtoĠwork Ġwith
usion Ġmedia
Ġarg entina
agent _
exclus ivelyĠ
exhib ition
s,Ġwhich ĠisĠ
clar ify
Ġadult sĠandĠ
evergreen ĠcontentĠ
Ġlov elyĠ
opportunitiesĠ for
Ġtherefor eĠ
ĠtherapeuticĠboardingĠschool Ġfor
crit ic
crit ical
deanna âĢĻsĠ
Ġtempl atesĠ
Ġcert ific
Ġcrim inal
Ġpract ic
ĠtoĠdo Ġso
oph ag
s.Ġfor Ġexample
antit ativeĠ
dustr y,Ġ
Ġproc ed
eĠdown load
eĠbook sĠforĠkindleĠ
Ġkind sĠof
ĠtheĠback groundĠ
ĠchristmasĠ decor
ĠsaidĠcount y
ĠsaidĠcount yĠofĠmeig
ĠhopeĠyou âĢĻreĠhaving
origin allyĠ
Ġ*Ġmaperror.cĠ(map_ assuan_err
ee per
Ġident ification
Ġawar en
rep eat
Ġsummer Ġ
atellit eĠtelevision
.Ġpleas eĠfeelĠfreeĠtoĠ
arra yĠof
ofĠcours e,Ġ
Ġdem and
vern eĠcox
Ġinsur anceĠ
upgrad eĠto
evi ew
ĠtheĠcountyĠc ourtĠof
Ġjour nal
specific allyĠ
assist anceĠof
ĠaĠbachel or
ĠaĠbachel orĠofĠart
Ġaccur at
prefer red
seek ing
reviousĠ month
oundproofĠwindow Ġguy
broadc ast
broadc astĠ
fol io
Ġcap tain
Ġcraft sman
elder ly
entryĠ wasĠpost
olymp ic
raz il
acqu isition
Ġnor thern
Ġnav igation
Ġorang eĠcount
eĠmin ister
effectĠ on
phil ip
ĠtheĠbridg esĠprogram
ubeter r
Ġamand a
Ġtaking Ġplac
notĠtoĠ mention
sĠmustĠ beĠ
freez er
Ġinteg ral
aux Ġcalligraph
consist entlyĠ
ĠaĠret ro
ĠcaliforniaĠstateĠunivers ity,Ġ
.a .Ġin
.Ġalso ,Ġ
cad den
crim inal
grat eful
oh io
rash es.Ġ
Ġtur m
enalt yĠ
ingĠaĠp re-ownedĠ
elbour n
Ġpoll ack
Ġbec ameĠa
Ġdev icesĠ
unfortun atelyĠ
eĠtru ck
ĠtheĠsid ewalk
contest ant
obl igation
eĠpixel Ġcloud
ĠaĠmed iator
status _
aidĠcommission ersĠshall
ĠoutputĠ power
ĠtoĠcreateĠ a
eĠgoodĠ prostateĠhealth
Ġapprox imatelyĠ
opportunityĠ for
assionateĠ aboutĠ
Ġmuskeg onĠ
weightĠlos sĠprogramsĠinĠflagstaffĠaz
Ġgradu atedĠfrom
Ġthird -row
Ġbegin ning
Ġsoftwar eĠmod
elegantĠ wedd
Ġlayer ĠluckyĠb
eĠcurrent lyĠ
ietaryĠaideĠresum eĠ
,Ġturn ĠleftĠ
describ edĠin
gcry _err
Â© Ġ
anĠansel moĠ
reput ation
ingu ish
isan Ġstucc
omination Ġpetition
ilber lin
entre preneur
Ġstuttg art
ourĠteam Ġof
Ġnigel :Ġ"
ĠtheĠcareer ĠorĠnon-
Ġabb revi
Ġabid eĠby
ĠtheĠfour th
viewĠh orizon
eĠwatch Ġonlin
ĠtheĠhuman Ġbod
,ĠtheĠapplic antĠ
letting Ġyou
ĠrelationsĠ specialist,Ġ(
Ġaccordanc eĠwith
oxy gen
ĠtheĠgeneralĠassemb ly
Ġadministrator Ġwill
simple_ p
%ciĠ= Ġ-
kastner Ġcup
dig it
hsĠ cordĠbloodĠbank
nol an
pian Ġtelevision
Ġimple mentĠ
.Ġinter viewĠwith
Ġhenan Ġchemical
usi ast
Ġrecommend ation
abol ism
entĠsit es:
que ez
andhinagar Ġhighway
eĠcal culation
phic Ġinter
Ġven us
controvers ial
ĠtheĠdatabas eĠcoordinator
Ġwilliam Ġhill
ĠtheĠgovern or
eĠfin ish
face-to-fac eĠmeet
time. cĠ(
,Ġhuman ĠrelationsĠspecialist,Ġ(
,ĠblogĠfriend s!
Ġcountrys id
structureĠandĠfunction Ġof
ĠaĠcomfort ableĠ
Ġsmart phon
ĠtowardsĠ jÃ¼lich
efficac yĠandĠs
eĠglitteryĠwineĠb ottleĠ
oundproofĠwindowsĠinĠfortĠbranch ,Ġin
easelgraveĠ say
ĠversusĠ lowerĠcalyceal
ĠarthritisĠtreatmentĠinĠken ya
%ĠinĠ q
/person /
aik atoĠ
limp seĠof
sky b
yach tĠ
zek iah
Äį eskÃ½Ġk
,Ġuniv .ĠofĠtenn.Ġ
Ġcyt omet
Ġcavi ar
thol omew
Ġhepatit isĠb
urbur gr
esĠi. e.Ġsumoaffiliates.zip
Ġalum inum
confir med
ĠtheĠcair ngormsĠnational
ĠtheĠfaith ful
ĠiĠtryĠtoĠ run
Ġnegot iation
Ġ*Ġget time.cĠ(
eliosĠandĠm athes
openĠroadĠ packag
equival entĠ
nesseeĠ river
kindleĠcloudĠ read
englishĠandĠsp anish
ĠprofessionalĠcolleg eĠadmissionĠcounselor
earnĠcred itĠfor
Ã¼ssel dorf
unitedĠlinkĠinsur anceĠbrok
Ġ*Ġmiscellane ous.cĠ(
Ġtroublesh oot
endedĠconstitut ion
ĠaĠbachelorĠofĠart sĠin
ĠlayerĠluckyĠb ambooĠplantĠ
isanĠstucc oĠmortar
ĠtheĠcareerĠorĠnon- scienceĠstudent
ÄįeskÃ½Ġk rumlov
ĠtheĠcairngormsĠnational Ġpark
! Ġb
! Ġyour
! ),
! ).
! ĠweĠ
! ĠyouĠcan
! Ġnow
! Ġamand
" Ġwid
$ Ġ
% ĠinĠtheĠp
% Ġblu
& ap
' oĠ
' sĠin
' sĠto
' sĠoffic
( no
( p-value=
) !
) ?
) Ġof
) Ġl
) ĠwasĠ
) ĠandĠd
) ĠbyĠ
) Ġdi
) Ġjoin
) ĠgraduatedĠfrom
, ĠatĠ
, ĠtheĠp
, Ġtak
, ĠaĠs
, ĠalsoĠ
, ĠasĠwell
, ĠatĠtheĠ
, Ġtelevision
, Ġask
, ĠarticleĠ
, ĠthisĠisĠ
, ĠtodayĠ
, ĠthereĠis
, ĠthereĠisĠa
, ĠatĠtheĠendĠof
, smartĠ
- >
- j
- l
- Ġand
- out
- sp
- lin
- stor
- fac
- fre
- lead
- dayĠ
- back
- head
- doĠ
- edg
- given
- month
- error
- minut
. )
. d
. Ġar
. Ġab
. Ġthrough
. Ġthos
. ĠanyĠ
. ĠatĠtheĠ
. Ġthough
. ĠtheseĠ
. Ġaddition
. Ġtelevision
. Ġspecial
. Ġanother
. ĠasĠtheĠ
. ĠtoĠre
. Ġtogether
. Ġalcohol
. Ġtopic
. ĠandĠthen
. Ġthat'sĠ
. ĠtheseĠp
. Ġallec
. ĠamĠi
. ĠthereâĢĻs
/ c
/ her
/ resum
1 30
2 50
3 36
4 60
5 85
6 9
6 50
7 1
7 4
7 00
8 1
8 00
9 1
: Ġw
: Ġd
: Ġf
: Ġin
: ĠaddĠ
: ĠmichelangeloĠantonioni
: ĠaddedĠ
; Ġhol
? Ġor
? Ġi
? Ġy
? ĠifĠyou
? Ġnigel:Ġ"
@ c
_ t
_ is
_ assuan
_ status
_ a_
_ string
a Ġh
a Ġof
a ĠisĠ
a Ġv
a ,Ġm
a ultĠ
a a.
a achen
b p
b il
b Ġd
b ra
b eĠth
b itĠ
b ear
b ach
b ish
b ph
b ang
b ingĠm
b yĠb
b eĠsh
b readĠ
b ootĠ
b owl
c ;
c g
c dĠ
c el
c ell
c af
c ater
c atch
c old
c oll
c ross
c redit
c elebrat
c inem
c loth
c aughtĠ
d -
d et
d pr
d ber
d ick
d iffer
d ress
d ream
d na
d irector
d oubl
d ifferenc
d irection
d eath
d ouble
d edic
d iction
d ialogu
e of
e ant
e over
e ign
e ight
e âĢĶ
e aper
e head
f u
f an
f ing
f et
f atĠ
f um
f ell
f ight
f act
f ection
f old
f oot
f olk
f als
f eltĠ
f ocusĠon
f ont
g p
g s
g w
g um
g ap
g lobal
g reek
g iftĠ
g pg
g lob
g ospel
g dpr
h ur
h un
h eĠs
h ook
h oneĠ
h otĠ
h ann
h alf
h otel
h eĠwouldĠ
h usband
h idden
i it
i .Ġ
i om
i em
i Ġn
i ov
i ĠwasĠ
i edĠandĠ
i ationĠof
i Ġweb
i Ġneed
i fornia
i 'm
i ĠloveĠ
i ĠdonâĢĻtĠ
i abet
i agnos
i Ġvision
j k
j im
j os
j ayĠ
j ail
j aw
j anu
j uredĠ
j r.Ġ
j apan
k m
k s
k en
k at
k et
k ok
k rist
k Ġpink
l ar
l ord
l ung
l istĠof
l td
l aptop
m f
m p
m r
m us
m ag
m and
m eas
m idĠ
m ult
m essag
m illion
m ountain
m Ġcab
m useum
m agazin
m yster
m etĠwith
m achineĠ
m aryland
m aintenanc
m easure
m urder
m iĠn
n c
n d
n ĠandĠ
n ish
n ack
n ood
n ik
n ath
n ineĠ
n utri
o y
o Ġa
o en
o ia
o inter
o Ġservic
o .c
o ,ĠbutĠ
o ctober
o bey
p .
p ĠandĠ
p ur
p ir
p ul
p ec
p etĠ
p Ġsp
p unch
p ez
p eer
p aint
p eon
p izz
p rayer
p redict
p assionateĠaboutĠ
q lit
r t
r of
r us,Ġ
s ol
s ĠthisĠ
s ep
s ayĠ
s ĠaĠ
s ĠtheĠc
s Ġall
s ĠthereĠ
s hap
s ĠaĠw
s ĠatĠtheĠ
s giv
s ett
s econd
s everal
s ĠavailableĠ
s Ġacross
s ung
s ĠtheyĠcan
s ĠagainstĠ
s afetyĠ
s ĠaĠlot
s ulin
s oftwareĠ
s ych
s Ġalik
t a
t r
t le
t ip
t 'sĠ
t ool
t urin
t ruth
t ello
t echn
t Ġtrim
u w
u ent
u ard
u Ġpart
v d
v e
v ill
v ag
v ex
v asĠ
v iveĠ
v ection
v astĠ
v ary
v itation
v oid
v oodooĠ
w isĠ
w et
w im
w if
w ip
w ind
w ordĠ
w rap
w onder
w rapp
x ic
y ;
y op
y ĠthatĠ
y ard
y Ġac
y Ġtr
y .ĠthisĠ
y ,ĠtheĠ
y ,Ġa
y ĠtimeĠ
y ond
z z
z ephy
µ Ń
Ã ±
Ã Ń
Î ±
â Ĥ
ê µŃ
ì ļ
Ġ #
Ġ í
Ġ em
Ġ ram
Ġ roll
Ġ econom
Ġ earlyĠ
Ġ viol
Ġ obtain
Ġ edition
Ġ occasion
Ġ impactĠ
Ġ employe
Ġ u.s.Ġ
Ġ opportunitiesĠ
Ġ imageĠ
Ġ radioĠ
Ġ objectiveĠ
Ġ occup
Ġ ideas
Ġ ecological
Ġ encryption
Ġ ingredient
ľ ë
eĠ r
eĠ z
eĠ ne
eĠ ifĠyou
eĠ help
eĠ look
eĠ chang
eĠ play
eĠ stud
eĠ hadĠ
eĠ chem
eĠ video
eĠ committe
eĠ expression
Ġt i
Ġt ul
Ġt all
Ġt um
Ġt ail
Ġt ight
Ġt uck
Ġt ableĠandĠ
Ġt amar
Ġt aylor
Ġa id
Ġa Ġsh
Ġa Ġplan
Ġa Ġrec
Ġa Ġstat
Ġa Ġteam
Ġa Ġproblem
Ġa Ġhead
Ġa wardĠ
Ġa ĠcompanyĠ
Ġa headĠof
Ġa headĠ
Ġa achen
in Ġan
in Ġb
in os
in sĠandĠ
in ateĠ
in ach
in âĢĻsĠ
in Ġch
in ĠtheĠg
in essĠ
in ĠtheĠl
in dustryĠ
in clusiveĠ
Ġth in
Ġth om
sĠ "
sĠ pro
sĠ outĠ
sĠ mak
sĠ isĠa
sĠ ifĠyou
sĠ mor
sĠ go
sĠ well
sĠ usĠ
sĠ open
sĠ whil
sĠ stat
sĠ veryĠ
sĠ each
sĠ âĢĶ
sĠ hom
sĠ perform
sĠ right
sĠ first
sĠ wouldĠbeĠ
sĠ overĠ
sĠ leadĠ
sĠ outsid
sĠ began
sĠ featur
sĠ lastĠyear
er /
er i
er k
er Ġt
er ,ĠandĠ
er ia
er ob
er sĠs
er ,ĠtheĠ
er veĠth
er ,Ġc
er cur
er Ġshall
er iesĠof
er Ġstation
er Ġbox
er Ġoutput
on Ġof
on ĠtheĠc
on Ġall
on Ġ(
on eĠtoĠ
on ĠaĠm
on e-
on Ġhow
on Ġfil
on Ġset
on Ġme
on eĠday
dĠ for
tĠ for
tĠ water
or Ġ
or Ġc
or ch
or .ĠtheĠ
or s,Ġ
or ĠisĠ
en o
en Ġs
en ableĠ
en ities
en itiesĠ
en omen
en rich
en compass
en nesseeĠriver
ou ter
ĠtheĠ j
ĠtheĠ at
ĠtheĠ per
ĠtheĠ be
ĠtheĠ experienc
ĠtheĠ onlyĠ
ĠtheĠ complet
ĠtheĠ condition
ĠtheĠ idea
an l
an Ġof
an itation
an Ġincreas
re sĠof
re ens
re ass
re tion
re tain
re ward
re ationĠof
re pli
re boot
re commendĠ
Ġs u
Ġs ent
Ġs pl
Ġs entĠ
Ġs end
Ġs eg
Ġs ameĠ
Ġs aw
Ġs outh
Ġs ociet
Ġs unday
Ġs ustain
Ġs uccessĠ
Ġs ocialĠmedia
Ġs afetyĠ
Ġs cheduleĠ
Ġs orryĠ
Ġs ufficientĠ
Ġs odimm
Ġs uffolk
Ġs electĠ
Ġs ufferĠfrom
at ig
at e,Ġ
at edĠtoĠ
at es.Ġ
at e,
at edĠandĠ
at ron
at ograph
at oid
at edĠbyĠtheĠ
at ingĠsystem
at fish
at elliteĠ
at lantic
it a
it am
it sĠs
it ual
it ,ĠbutĠ
it rypsinĠdeficienc
it ateĠtoĠ
ing !
ing ;
ing âĢĻ
ing ap
ing ĠtheĠb
ing Ġtim
ing Ġtr
ing sĠfor
ing ĠtoĠs
ing ual
ing Ġbe
ing Ġafter
ing ĠanĠ
ing .ĠthisĠ
ing Ġthos
ing ĠaĠw
ing Ġabout
ing Ġrec
ing Ġwhen
ing ĠshouldĠ
ing Ġstudent
ing ert
ing ,Ġt
ing ĠwillĠb
ing Ġprocess
ing Ġread
ing Ġstaff
ing Ġprogramm
ing Ġplatform
ing ĠcompaniesĠ
Ġan Ġs
Ġan Ġag
Ġan yĠb
Ġan Ġattack
Ġan Ġannual
Ġan ĠassociateĠ
Ġan ĠalternateĠ
yĠ -
yĠ day
yĠ leagu
al ex
al ong
al tim
al ask
al mostĠ
.Ġ *
.Ġ -
.Ġ no
.Ġ work
.Ġ log
.Ġ look
.Ġ whoĠ
.Ġ oneĠof
.Ġ using
.Ġ click
.Ġ kind
.Ġ prerequisit
.Ġ everyoneĠ
.Ġ giada
.Ġ earlier
.Ġ jesus
.Ġ vasquez
.Ġ compa
ar l
ar ri
ar sh
ar iesĠ
ar rat
ar io
ar ship
ar -view
ar omatic
,Ġ o
,Ġ ch
,Ġ man
,Ġ can
,Ġ isĠa
,Ġ eat
,Ġ not
,Ġ hasĠ
,Ġ br
,Ġ whatĠ
,Ġ open
,Ġ oneĠof
,Ġ high
,Ġ fac
,Ġ hisĠ
,Ġ however
,Ġ head
,Ġ only
,Ġ wher
,Ġ itâĢĻsĠ
,Ġ click
,Ġ until
,Ġ feel
,Ġ challeng
,Ġ who
,Ġ first
,Ġ london
,Ġ john
,Ġ either
,Ġ juneĠ
,Ġ newĠyork,Ġ
,Ġ no.Ġ
,Ġ implementation
,Ġ builtĠ
,Ġ florid
,Ġ ohio
es !
es /
es ir
es âĢĻ
es ĠtheĠs
es sĠfor
es yĠof
es how
es Ġthem
es ĠaĠd
es co
es Ġallow
es âĢĶ
es .ĠtheĠs
es -b
es ham
es .ĠthisĠisĠ
es ĠthatĠareĠ
es ameĠs
oĠ in
oĠ âĢĵ
oĠ has
of Ġyour
of Ġtheir
of Ġthem
of Ġlif
is p
is ,ĠandĠ
is ĠatĠ
is eas
is ĠthereĠ
is cal
is es.
is edĠs
is cons
is Ġalway
is ĠarticleĠ
is nâĢĻt
is diction
ion Ġof
ion s,Ġ
ic a
ic Ġb
ic ag
ic ial
ic eĠandĠ
ic les
ic Ġacid
Ġc am
Ġc ob
Ġc ostĠ
Ġc lin
Ġc ameĠ
Ġc ream
Ġc ris
Ġc uff
Ġc rack
Ġc hair
Ġc inema
Ġc ivil
Ġc edarĠhill
Ġc ancell
Ġc ottonĠswab
Ġc ouple
Ġc inÃ©
om entĠ
om la
om ewhatĠ
ĠandĠ en
ĠandĠ us
ĠandĠ ne
ĠandĠ sh
ĠandĠ new
ĠandĠ over
ĠandĠ haveĠ
ĠandĠ man
ĠandĠ wasĠ
ĠandĠ how
ĠandĠ youĠcan
ĠandĠ well
ĠandĠ inter
ĠandĠ reg
ĠandĠ stor
ĠandĠ high
ĠandĠ hisĠ
ĠandĠ has
ĠandĠ mostĠ
ĠandĠ hasĠbeen
ĠandĠ national
ĠandĠ giveĠ
ĠandĠ click
ĠandĠ shall
ĠandĠ loveĠ
ĠandĠ english
ĠandĠ communityĠ
ĠandĠ reach
ĠandĠ easy
ĠandĠ natural
ĠandĠ chemical
ĠandĠ replac
ĠandĠ evaluation
el t
el le
el ter
el ot
el sĠandĠ
el ek
el igibleĠ
el egraph
th an
th Ġb
th os
th ereĠ
th ew
th eĠb
th ĠmayĠ
th Ġjun
th yop
il z
il eĠ
il ink
il ical
you tĠ
you Ġus
you Ġhav
for -
for dĠ
for em
for ĠtheĠs
for Ġthem
for ĠaĠc
for Ġother
for Ġbusiness
for giveĠ
for given
ed ĠtheĠd
ed ical
ed .Ġi
ed Ġther
ed ,ĠtheĠ
ed ĠanyĠ
ed ward
ed Ġabout
ed ĠatĠtheĠ
ed ĠaĠh
ed ibleĠ
ed ĠtoĠse
ed .ĠthereĠar
ed ĠageĠ
ed edĠteam
ed es-b
Ġp c
Ġp in
Ġp en
Ġp ot
Ġp up
Ġp ri
Ġp ast
Ġp ageĠ
Ġp ress
Ġp aw
Ġp oin
Ġp ci
Ġp eac
Ġp rayer
Ġp unchĠballoon
Ġp upp
Ġw a
Ġw on
Ġw ent
Ġw ear
Ġw ard
Ġw ool
Ġw arm
Ġw orth
Ġw ordĠ
Ġw ww
Ġw rong
Ġw ritten
Ġw olf
Ġw iring,Ġ
Ġw ednesday
Ġw oocommerc
st ation
st ad
st res
st ain
st anc
st anceĠ
st air
st ead
st yl
st evi
st akeholder
edĠ $
edĠ if
edĠ itĠ
edĠ year
edĠ how
edĠ so
edĠ light
edĠ liv
edĠ itself
edĠ guidelin
edĠ specificallyĠ
ro g
ro v
ro yĠ
ro log
ro bin
ro leĠin
ro bertĠ
ch ut
ch ev
ch ap
ch anceĠof
ch ocolateĠ
ch amber
ch ines
Ġb c
Ġb el
Ġb our
Ġb eĠd
Ġb ask
Ġb rightĠ
Ġb atter
Ġb ert
Ġb apt
Ġb ecom
Ġb rok
Ġb uff
Ġb owl
Ġb reath
Ġb athroom
Ġb udget
Ġb yĠmeansĠof
Ġb rother
Ġb skyb
Ġm a
Ġm r
Ġm ol
Ġm am
Ġm ight
Ġm ass
Ġm yĠm
Ġm atch
Ġm app
Ġm enu
Ġm ountain
Ġm yster
Ġm istak
Ġm osfetĠ
ĠtoĠ $
ĠtoĠ g
ĠtoĠ over
ĠtoĠ go
ĠtoĠ bo
ĠtoĠ justĠ
ĠtoĠ play
ĠtoĠ putĠ
ĠtoĠ letĠ
ĠtoĠ goĠ
ĠtoĠ findĠ
ĠtoĠ grow
ĠtoĠ fix
ĠtoĠ optim
ĠtoĠ remain
ĠtoĠ removeĠ
ĠtoĠ buildĠ
ĠtoĠ pull
ĠtoĠ visitĠ
ĠtoĠ loseĠ
ĠtoĠ handleĠ
isĠ re
isĠ onĠtheĠ
isĠ currentlyĠ
isĠ fullĠof
isĠ wad
as eĠisĠ
Ġh ot
Ġh itĠ
Ġh andĠ
Ġh ub
Ġh eat
Ġh eĠisĠ
Ġh itch
Ġh ours
Ġh alf
Ġh eĠwasĠ
Ġh eĠsay
Ġh ormoneĠlevel
Ġh bv
ent .Ġ
ent anc
ent iallyĠ
ent ranc
ent alĠill
le ver
le ction
le af
le icĠacid
ct n
ct ang
Ġd er
Ġd ateĠ
Ġd ail
Ġd ong
Ġd itt
Ġd anceĠ
Ġd epend
Ġd iscus
Ġd utr
Ġd r.Ġ
Ġd atabas
Ġd rink
Ġd epos
Ġd ailyĠ
Ġd enali
Ġd oral
Ġd Ã¼ren
Ġd eposit
Ġd eduction
Ġd upre
Ġd Ã¼sseldorf
lo st
lo op
lo os
lo od
lo odĠ
us e.Ġ
us eĠtoĠ
us edĠin
us ingĠtheĠ
us ingĠm
us eĠand
us ually
et i
et .Ġ
et sĠareĠ
et abl
et ooth
ur d
ur tĠ
ur eĠin
ur eĠp
ur eĠto
ur iousĠ
Ġf ar
Ġf itĠ
Ġf lex
Ġf avor
Ġf ounder
Ġf avour
Ġf ederal
Ġf iber
Ġf rontĠof
Ġf itnessĠ
Ġf estival
Ġf antast
ation s.Ġ
ation ,ĠandĠ
ation ĠisĠ
ation sĠand
ation Ġbelow
ol en
ol um
ol esc
ver ageĠ
id a
id y
id ,Ġ
Ġin com
Ġin ĠtheĠt
Ġin Ġour
Ġin Ġmy
Ġin Ġaction
Ġin ĠtheĠsp
Ġin corpor
Ġin jur
Ġin ĠaĠsingleĠ
Ġin ĠmindĠ
Ġin boundĠmarket
Ġin ventor
Ġin jector
ig ger
ig atingĠevidenc
Ġto ĠtheĠc
Ġto ĠtheĠt
Ġto Ġadd
Ġto ĠaĠl
Ġto ĠanyĠ
Ġto Ġanother
Ġto Ġthre
Ġto Ġattend
Ġto Ġspeak
Ġto Ġshar
Ġto tal
im ult
im pos
im atedĠ
im edia
im possible
im inateĠ
esĠ g
esĠ up
esĠ your
esĠ haveĠ
esĠ isĠa
esĠ onĠ
esĠ willĠb
esĠ mad
esĠ willĠbeĠ
esĠ contain
ra ud
ra bleĠ
ra ham
un ning
un clean
em ia
em usic
em bar
em buf
atĠ on
atĠ for
Ġyou .Ġ
Ġyou Ġall
leĠ d
Ġof Ġan
Ġof ĠthisĠ
Ġof Ġthes
Ġof Ġthos
Ġof Ġwhich
Ġof Ġlong
Ġof Ġrest
am o
am an
am ic
ir resist
Ġg l
Ġg er
Ġg ear
Ġg ameĠ
Ġg rad
Ġg lobal
Ġg olf
if ĠitĠisĠ
Ġre d
Ġre pl
Ġre form
Ġre fin
Ġre duc
Ġre fund
Ġre lax
Ġre union
Ġre ctang
ul a
ul f
ul g
ul Ġ
ul um
ul lyĠ
ul ateĠ
ul ner
ul ationĠof
ul ky
ill edĠ
ill enn
ac on
ac ation
ac tĠof
ac ular
ec omeĠ
Ġal le
Ġal ter
Ġal most
Ġar eĠt
Ġar izon
Ġar eĠthre
Ġar rayĠof
wh om
wh os
wh elm
all ,Ġ
all el
all y.Ġ
all Ġover
all ery
Ġst ra
Ġst andĠ
Ġst ageĠ
Ġst ressĠ
Ġst eam
Ġst rug
Ġst erl
ne yĠ
ne ath
op eĠyou
eĠth ing
eĠth eĠa
eĠth eat
eĠth ank
eĠth oseĠ
eĠth eĠtrans
eĠth ingsĠ
with ĠthatĠ
with ĠtheĠb
with ĠaĠd
with stand
ad em
ad ly
ad ies
ad mission
ad dition
ad o,Ġ
ad ventur
ad fael
ad ventureĠ
ab ri
ab ov
ab aster
ab ins:
ab bingĠm
our Ġ
our se
our Ġcustomer
ag on
ag eĠin
ag es,Ġ
ag rang
ag gi
ex tĠ
ex ic
ex cal
ex emp
ex ampleĠ
ingĠ (
ingĠ .
ingĠ un
ingĠ ip
ingĠ itsĠ
ingĠ every
ingĠ each
ingĠ road
ingĠ event
ingĠ isĠtheĠ
ingĠ overĠ
ingĠ occur
ingĠ (london
ot tĠ
ot ic
ot im
ot ors
os session
ut om
ut ting
ay man
pl as
pl astic
pl c;
com f
com ingĠ
com esĠfrom
entĠ or
entĠ from
entĠ byĠ
entĠ hisĠ
Ġand ,Ġ
Ġand ĠtheĠm
Ġand Ġtheir
Ġand ĠtheĠb
Ġand ĠtheĠt
Ġand Ġtook
Ġand roidĠ
itĠ wouldĠ
itĠ forĠyou
res ent
res tĠof
res idenc
pro b
pro hib
pro claim
pro gres
pro xim
ak eĠ
ak ingĠs
ak eĠup
qu el
qu antitativeĠ
ha res
ha sĠfor
ha red
ha ven
eĠs um
eĠs ign
eĠs endĠ
eĠs mall
eĠs uchĠasĠ
eĠs kill
eĠs everal
eĠs impleĠ
eĠs kel
eĠs leep
eĠs ampleĠ
eĠs hares
eĠt ow
eĠt own
iv isĠ
iv eness
iv ely.Ġ
iv yĠleagu
Ġl d
Ġl y
Ġl or
Ġl ast
Ġl aur
Ġl aborator
Ġl aptop
Ġl atin
um Ġof
um per
um ination
um atoid
um stanc
ĠthatĠ m
ĠthatĠ our
ĠthatĠ isĠa
ĠthatĠ wasĠ
ĠthatĠ hasĠbeen
ĠthatĠ iĠam
ess ay
con vers
con version
con struct
con gres
per c
per s
rom e,Ġ
rom pt
and ĠtheĠ
and om
and ol
and erson
eĠof fic
eĠof Ġthos
eĠof Ġnorth
.ĠtheĠ v
.ĠtheĠ cl
.ĠtheĠ firstĠ
.ĠtheĠ data
.ĠtheĠ databas
ear lyĠs
up Ġof
up Ġfrom
up portĠ
up onĠs
up plement
ev il
ev olv
ev esham
ĠthisĠ st
ĠthisĠ isĠa
ĠthisĠ wouldĠ
ĠthisĠ person
ĠthisĠ willĠb
ĠthisĠ isĠtheĠ
ist ribut
s.Ġ âĢľ
s.Ġ itĠisĠ
s.Ġ pleaseĠ
s.Ġ peopleĠ
e.Ġ f
e.Ġ on
e.Ġ now
e.Ġ butĠ
e.Ġ âĢľ
e.Ġ but
e.Ġ itĠisĠ
e.Ġ pleas
e.Ġ pleaseĠ
e.Ġ voicecomputer
ĠareĠ in
ĠareĠ now
ĠareĠ availableĠ
ĠareĠ collect
ĠareĠ delet
lyĠ p
lyĠ recommend
enc od
enc eĠon
enc yĠandĠ
enc e:
enc ounter
Ġfor Ġl
Ġfor ĠthisĠ
Ġfor ĠtheĠs
Ġfor ĠaĠ
Ġfor Ġall
Ġfor Ġus
Ġfor giveĠ
Ġfor Ġsuch
Ġfor Ġsmall
Ġfor Ġexascal
Ġthe ft
Ġthe yĠoffer
asĠ re
ep p
ep ut
ep endĠ
ep Ġstation
iveĠ andĠ
s,Ġ us
s,Ġ our
s,Ġ car
s,Ġ it'sĠ
s,Ġ etc
s,Ġ however,Ġ
Ġn m
Ġn ic
Ġn ameĠ
Ġn atur
Ġn psĠandĠ
e,Ġ itĠ
e,Ġ itĠisĠ
e,Ġ however
e,Ġ jack
ud as
ud bur
ud den
be et
be ach
be ingĠc
Ġas id
Ġas ĠanĠ
Ġas par
Ġas ĠaĠre
Ġas shelp
sĠof Ġall
sĠof ĠtheĠd
sĠof Ġbe
Ġwith Ġall
Ġwith Ġtheir
Ġwith ĠaĠs
Ġwith ĠtheĠh
Ġwith ĠnoĠ
Ġwith Ġgod
Ġwith ĠlittleĠ
ayĠ for
ant s:
ant ageĠof
ĠtheĠs ec
ĠtheĠs ens
ĠtheĠs ystem
ĠtheĠs hap
ĠtheĠs mall
ĠtheĠs kin
ĠtheĠs uper
ĠtheĠs ubject
ĠtheĠs eller
est in
est amp
est ock
Ġon Ġg
Ġon eĠd
Ġon Ġour
Ġon eĠofĠtheĠ
Ġon ĠgivatĠhatachmoshet
Ġon Ġdietetic
Ġsh e
Ġsh oulder
Ġsh oulderĠpain
Ġsh utdown
Ġyour ĠfirstĠ
ri al
ri edĠ
ri es,Ġ
ĠasĠ h
ĠasĠ your
ĠasĠ âĢľ
ĠasĠ full
ĠasĠ soonĠasĠ
eĠc reat
eĠc anĠ
eĠc oll
eĠc ertain
eĠc apital
eĠc laim
anc e.
anc ientĠ
anc e.ĠthisĠ
,ĠandĠ isĠ
,ĠandĠ mor
ell a
ell en
ell isĠ
ell ilink
ap in
ap Ġof
ap art
ap abil
ap ston
your Ġhealth
your Ġbrowser
end sĠ
end ow
end ant
end ingĠd
end less
end ors
ĠaĠ videoĠ
ĠaĠ quick
ĠaĠ user
ĠaĠ very
ĠaĠ rangeĠof
ĠaĠ rental
ĠaĠ uniqueĠ
ork inâĢĻsĠ
sĠandĠ help
sĠandĠ sc
sĠandĠ bas
sĠandĠ staff
sĠandĠ cost
sĠandĠ film
od g
od ell
ateĠ a
ateĠ your
sĠin ĠtheĠm
sĠin sid
sĠin ĠaĠd
sĠin Ġplac
sĠin ĠtheĠgam
sĠin depend
sĠin ĠtheĠnationalĠpark
sĠin sect
s>Ġ<s> Ġm
s>Ġ<s> Ġh
s>Ġ<s> Ġg
s>Ġ<s> Ġal
s>Ġ<s> Ġon
s>Ġ<s> ĠatĠ
s>Ġ<s> ĠtheĠw
s>Ġ<s> Ġwhen
no aa.
du ff
du ĠcinÃ©
ip edia
Ġad equ
Ġad olesc
20 3
20 6
Ġor Ġb
Ġor Ġyour
Ġor Ġother
Ġor ĠmoreĠ
Ġor din
Ġor ĠpermissionĠofĠinstructor
Ġor Ġez
Ġwh eel
Ġwh oseĠ
Ġpro veĠ
Ġpro spect
Ġpro gress
Ġpro vinc
Ġat ĠthisĠ
Ġat ĠtheĠb
Ġat Ġthem
Ġat tain
Ġat ĠtheĠw
Ġat Ġthis
Ġat ĠtheĠn
Ġat Ġany
Ġat ĠtheĠtim
Ġat ĠtheĠtop
Ġat ĠageĠ
etĠ in
etĠ stor
etĠ polish
sh o
sh ell
sh own
sh ould
sh ield
sh ift
sh eetĠ
sh oulderĠpain
sh ookĠher
ard war
ĠtheĠc od
ĠtheĠc ook
ĠtheĠc oll
ĠtheĠc olor
ĠtheĠc alifornia
ĠtheĠc ampaign
ĠtheĠc entral
ĠtheĠc itizen
ĠtheĠc reationĠof
from Ġour
will Ġyou
will Ġinclud
will ĠnotĠbeĠ
ever Ġafter
ever yĠb
eĠin Ġorder
eĠin struction
form al
form ĠandĠ
form anc
new ,Ġ
new estĠ
new Ġzeal
eĠm y
eĠm ap
eĠm ous
eĠm ustĠ
eĠm ostĠ
eĠm ission
eĠm ask
eĠm atter
eĠm edia
eĠm useum
eĠm easure
ich otom
ich thyop
ly n
ly woodĠ
ish was
ish eriesĠ
out fit
Ġcon vert
Ġcon ferenc
Ġcon struction
Ġcon gress
Ġcon scienc
Ġcon vention
Ġcon vection
outĠ from
Ġcom eĠin
Ġcom mentĠ
Ġcom ingĠfrom
over ĠtheĠ
over Ġall
eĠd ivers
eĠd og
eĠd irect
eĠd igital
eĠd epart
eĠd iscuss
eĠd esi
eĠd ecision
eĠd onâĢĻtĠ
Ġall ĠtheĠ
Ġall Ġs
Ġall Ġm
Ġall Ġtheir
Ġall ĠaboutĠ
Ġall ĠmyĠ
Ġall Ġover
Ġall Ġday
Ġall ĠtheĠtim
Ġall ĠplanningĠapplication
ial Ġsweet
low n
low Ġ
low estĠ
low -up
low ers,
Ġ( s
Ġ( newĠyork
Ġ( map_
Ġ( p-value=
Ġ( ld
Ġ( iobuf_
Ġ( gradeĠ
Ġ( luk
Ġ( es_
Ġ( archiv
eal ership
ĠisĠ soĠ
ĠisĠ mad
ĠisĠ display
bu st
haveĠ som
haveĠ timeĠtoĠ
vi br
we igh
we âĢĻll
we 'veĠ
we âĢĻreĠ
Ġab oveĠth
Ġab oveĠtheĠ
Ġab leĠto
âĢĻsĠ mostĠ
âĢĻsĠ degreeĠin
ail sĠor
iz ationĠof
ind e
ind ian
ind eed,Ġ
ableĠ in
ableĠ or
,Ġs om
,Ġs and
,Ġs ervic
ew is
ew ard
ru itĠ
ru bb
Ġcan ĠhaveĠ
Ġcan Ġhelp
Ġcan field
int ens
int onĠset
Ġac rossĠ
Ġch ill
Ġch loris
aveĠ t
ef ront
ef initelyĠ
ef fortĠ
weĠ all
weĠ reallyĠ
Ġex cess
Ġex cessĠ
Ġex ecut
Ġex ecutiveĠ
Ġex pression
eĠa Ġf
eĠa rea
eĠa ĠgoodĠ
eĠa Ġfew
eĠandĠ i
eĠandĠ video
e. c
e. ĠandĠ
e. Ġsh
e. Ġsom
e. Ġso
e. ĠsheĠ
e. ĠthereĠar
ph ras
ph armaceut
ph Ġchloris
eĠtoĠ us
eĠtoĠ our
eĠtoĠ check
eĠtoĠ ge
ack sĠin
ack edĠwith
ack )Ġ-
ies ;
ies ,Ġs
ies .Ġi
ies ,Ġc
ies .Ġyou
Ġsp am
other Ġhealth
other wis
other wiseĠ
man if
man yĠs
now !
ens e,Ġ
ens ures
ens itiveĠ
ens .org
ens itiv
li dĠ
li ver
li ableĠ
Ġj u
Ġj er
Ġj os
Ġj anu
Ġj apan
edĠb ack
edĠb yĠb
eĠb od
eĠb usiness
eĠb iolog
eĠb ox
eĠb ring
eĠb lossom
ĠtheĠf iveĠ
ĠtheĠf ast
ĠtheĠf astĠ
ĠtheĠf und
ĠtheĠf alk
ĠtheĠf ellow
ĠtheĠf rench
ĠtheĠf ront-endĠ
ast r
ast ,Ġ
ast eĠof
ast eĠmaterial
ign ition
ĠatĠ myĠ
ĠatĠ som
ĠtheĠm ad
ĠtheĠm od
ĠtheĠm ask
ĠtheĠm oment
ĠtheĠm osfetĠ
ĠtheĠm cc
ĠtheĠm idstĠof
ĠtheĠm asterĠbedroom
Ġv irt
gra b
erv ed.Ġ
Ġtheir Ġservic
s. Ġsh
s. ĠasĠ
s. Ġall
s. Ġafter
s. org
s. ĠthereĠar
s. ĠthereĠareĠ
Ġi ot
Ġk n
Ġk or
Ġk err
Ġthat ĠthereĠ
Ġthat ĠtheyĠ
Ġthat âĢĻs
Ġthat ĠthereĠar
iss il
ĠtheĠp en
ĠtheĠp urchas
ĠtheĠp articular
ĠtheĠp remium
ĠtheĠp reviousĠ
ĠtheĠp elot
work ersĠ
work Ġexperienc
ĠtheĠb usinessĠ
ĠtheĠb athroom
ĠtheĠb eta-cell
estĠ b
cont raction
her eĠto
sp ection
sp read
eĠtheĠ websit
eĠtheĠ first
'sĠ fac
'sĠ lead
'sĠ firstĠ
can 'tĠ
can ĠhelpĠyou
ire mentĠag
ub mitt
19 0
19 1
Ġr entĠ
Ġr andom
own loadĠ
eg in
eg uard
ib les
ib ilityĠof
notĠ b
notĠ recommend
ĠtheĠd esign
ĠtheĠd ron
ĠtheĠd ifferentĠ
ĠtheĠd etail
ĠtheĠd ead
ĠtheĠd ragon
ĠtheĠd enali
ĠtheĠd epartmentĠof
edĠin ĠhisĠ
edĠin Ġorder
Ġpl ain
Ġpl ayĠwith
comm ut
log in
log os
log .t
Ġwill Ġget
Ġam or
ĠhaveĠ you
ĠhaveĠ question
eas tĠof
ers Ġto
ers ĠtoĠs
mak ingĠs
mak eĠyou
mak eĠit
mak eĠsureĠ
ĠtheĠg en
ĠtheĠg lo
ĠtheĠg reat
ĠtheĠg oodĠ
ĠtheĠg reatĠ
ĠtheĠg ather
ĠtheĠg overnment
ĠtheĠg litter
ĠtheĠg roup
ĠtheĠg roundĠ
ick Ġon
isĠa ustralia
isĠa Ġmajor
Ġtim esĠ
Ġtim eĠto
ass over
ass ign
comp actĠ
comp assion
comp romis
yĠs it
yĠs ervic
yĠs ession
yĠs cottish
yĠs uppl
yĠs creen
.. ...
eĠp ark
eĠp ost
eĠp ract
eĠp olic
eĠp articip
eĠp ublish
eĠp opular
eĠp romis
eĠp osition
eĠp aymentĠ
ĠtheĠt ot
ĠtheĠt rail
uch Ġmor
eb Ġ
ightĠ beĠ
iesĠ inĠthisĠ
Ġtak eĠin
Ġtak eĠm
Ġtak eĠb
Ġtak eĠyour
Ġtak eĠan
sĠs om
sĠs av
sĠs inc
sĠs oak
sĠs econdĠ
sĠs upport
av y
av ed
av e,
av igation
Ġte a
Ġtr ul
Ġtr outĠ
Ġtr yĠs
Ġtr yĠandĠ
sĠfor ĠtheĠs
sĠfor Ġyour
sĠfor ĠanyĠ
sĠfor ĠprostateĠhealth
Ġaf firm
yĠc ar
yĠc as
yĠc ustomer
act sĠ
act ually
ingĠs c
ingĠs it
ingĠs ession
ingĠs impleĠ
Ġlo cat
Ġlo veĠtheĠ
Ġus es
Ġus e.Ġ
Ġus eĠtheĠ
Ġus eĠthem
Ġus eĠit
Ġus eĠv
Ġus ersâĢĻ
sĠtoĠ you
sĠtoĠ provid
sĠtoĠ custom
sĠtoĠ helpĠyou
ous ewarmingĠpartyĠinvitesĠfreeĠtemplateĠ
ult iv
red itĠ
red ibleĠ
es,Ġ hdĠ
ound ation
do ĠthisĠ
do Ġtheir
do Ġthis
do zensĠof
ustĠ beĠ
mentĠ process
wasĠ s
Ġour Ġcompan
Ġour Ġprofessional
areĠ all
es.Ġ "
es.Ġ you
es.Ġ myĠ
y,Ġ from
Ġit .ĠtheĠ
Ġit sĠc
oneĠ week
oneĠ o'
s, ĠasĠ
s, Ġthough
âĢĿ )
eat ur
eat her
eat uresĠ
eat edĠtowel
eat tle
rat h
rec over
rec ycl
inc or
oodĠ processor
ĠaĠs ystem
ĠaĠs uper
ĠaĠs ignificantĠ
Ġthem ĠareĠ
Ġthem Ġfor
Ġthem Ġon
eng zh
Ġtra g
ĠandĠs an
ĠandĠs old
ĠandĠs uper
ĠandĠs alt
ĠandĠs oakĠup
not Ġallow
not ĠalwaysĠ
not Ġappear
ost er
ost ad
ĠtheĠl Ġ
ĠtheĠl at
ĠtheĠl if
ĠtheĠl and
ĠtheĠl ightĠ
ĠtheĠl istĠof
ĠtheĠl angu
ĠtheĠl aund
ov al
ember ship
view ĠandĠ
view ĠofĠtheĠ
.Ġs e
.Ġs am
.Ġs eeĠ
.Ġs o,Ġ
ersĠ haveĠ
ersĠ wereĠ
ersĠ donâĢĻtĠ
ersĠ whoĠareĠ
Ġres ort
Ġres idenc
ĠalsoĠ haveĠ
lik eĠc
lik eĠh
lik eĠtheĠs
rem ed
rem indĠ
rem oveĠth
rem ises.
ĠtoĠs ay
ĠtoĠs chool
ĠtoĠs witch
ĠtoĠs upport
ĠtoĠs orrent
help Ġfrom
to Ġs
to _assuan
youĠcan ĠdoĠ
plac esĠ
plac eĠin
e, ĠasĠ
e, Ġthen
Ġle agu
when ĠtheĠ
when ĠitĠ
when Ġbuy
af ik
sĠareĠ notĠ
sĠareĠ alsoĠ
sĠareĠ availableĠ
Ġadd s
Ġadd -on
eĠfor Ġit
eĠfor Ġwhich
io tĠ
eĠisĠ notĠ
eĠisĠ great
Ġthrough Ġ
eĠto ĠthisĠ
eĠto Ġallow
cal edonian
cal cul
cal ifornia
ĠaĠp ublic
ĠaĠp rior
ĠaĠp rofessional
ĠaĠp owerful
edĠwith ĠdifferentĠ
edĠwith inĠseven
ure lyĠ
Ġun ion
Ġun itĠ
Ġun iv
Ġun usual
ingĠtheĠ operation
he el
he im
he ight
ric ulum
ĠaĠb id
ĠaĠb ab
ĠaĠb itĠ
ĠaĠb reak
ĠaĠb ridg
Ġne g
Ġne edĠto
Ġne xt
ĠitĠ up
ĠitĠ off
ĠitĠ into
ĠitĠ canĠbeĠ
ĠaĠc ost
ĠaĠc lear
ĠaĠc areer
ĠaĠc oupleĠof
ection ĠofĠtheĠ
ton Ġfor
ingĠin formation
ingĠin itiativ
ingĠin vitation
lin eĠshopp
Ġthes eĠservic
Ġthes eĠday
ener get
la h
la wn
eĠf ill
eĠf our
eĠf resh
ĠaĠf riend
ĠaĠf utureĠ
ĠaĠf latĠ
ĠaĠf ullyĠ
go dĠof
ĠtheyĠ look
pa ul
ys util
sĠon Ġa
Ġsc ent
Ġsc ientific
Ġsc otlandĠ
ĠaboutĠ whatĠ
Ġis ĠtoĠ
Ġis Ġall
Ġis ĠtheĠp
Ġis ĠalsoĠ
Ġis lam
so lem
esĠandĠ can
esĠandĠ eli
esĠandĠ individual
Ġbe th
Ġbe aut
Ġbe yond
Ġacc es
Ġacc um
room Ġwith
Ġstud iesĠand
provid edĠ
provid esĠ
provid edĠfor
even Ġif
even ĠmoreĠ
rit ish
inter fac
inter vention
inter action
ood en
eĠw ater
eĠw alk
eĠw edd
ed.Ġ you
ed.Ġ if
ed.Ġ itĠ
yĠm ag
yĠm edia
pre val
pre viousĠ
sc ot
sc ientist
ingĠm ad
ingĠm arket
ingĠm anag
min er
min ister
min imum
eĠwith Ġ
eĠwith ĠaĠ
eĠwith ĠgreatĠ
Ġappl iedĠ
ĠaĠm over
ĠaĠm entalĠill
usĠ or
Ġe ightĠ
ĠtheĠw or
ĠtheĠw ind
ĠtheĠw ater
ĠtheĠw orl
ĠtheĠw edd
hasĠ itsĠown
hasĠ becomeĠa
don ation
don ald
iet aryĠ
edĠfor c
Ġafter Ġ
Ġafter ĠaboutĠ
aus eĠ
eĠyou Ġto
ĠaĠg ood
ĠaĠg limpseĠof
aryĠ hub
Ġcont emporaryĠ
but ter
but ton
ĠanĠ end
ĠanĠ emphas
ĠanĠ emergenc
ĠanĠ impressiveĠ
.ĠthisĠ p
.ĠthisĠ year
.ĠthisĠ was
eh old
ean whil
par is,Ġ
sid elo
,Ġand ĠaĠ
,Ġand Ġat
ry âĢĻsĠ
Ġnew Ġc
sĠwith outĠ
sĠwith Ġour
sĠwith Ġthem
edĠon lyĠ
edĠon Ġyour
edĠon ĠthisĠwebsit
e- keep
ary Ġteam
Ġass um
Ġass ault
eĠh ous
eĠh otel
ĠtheĠh all
ĠtheĠh ouston
ĠtheĠh ardwareĠ
look ingĠtoĠ
look ingĠto
look Ġlik
eĠon Ġyour
eĠon ly
eĠon Ġhow
eĠon Ġsal
eĠon ĠtheĠdron
ĠaĠd egreeĠin
ing,Ġ i
ing,Ġ butĠ
ing,Ġ which
und oĠ
eth nic
eth eless
ren al
ren own
Ġ* Ġd
Ġ* Ġasshelp
Ġther e.Ġ
are ful
ingĠc or
ingĠc ours
ingĠp ass
ingĠp aper
ingĠp hot
yĠb eli
yĠb iolog
yĠb elong
yĠb outiqu
sĠand Ġt
sĠand Ġa
Ġcomp ut
Ġcomp ens
Ġcomp actĠ
Ġcomp romis
eopleĠ whoĠ
know Ġwhat
,Ġm o
,Ġm ar
,Ġm ous
,Ġm ichelangelo
Ġatt raction
edĠby Ġa
edĠby ĠaĠ
edĠby ĠaĠc
edĠby ĠaĠw
edĠto gether
eĠthatĠ will
eĠthatĠ youĠcan
eĠthatĠ canĠbeĠ
Ġwork ing
Ġwork ĠisĠ
Ġmor mon
Ġher it
ing.Ġ in
wereĠ a
stor yĠof
ageĠ girl
Ġthis ĠarticleĠ
Ġthis ĠtypeĠof
Ġthis ĠactĠ
ĠwasĠ oneĠof
Ġup ĠtoĠ
Ġup ĠforĠtheĠ
ĠaĠl ist
ĠaĠl istĠof
ally ĠandĠ
ik ipedia
noĠ clin
noĠ longer
requ entĠ
ingĠd ist
ingĠd ollar
yĠd ear
yĠd ifferentĠ
yĠd ecor
co .
co log
ner )Ġ
ner oĠ(
ingĠb ut
ingĠb ecaus
ingĠb oard
ros eĠ
se a
Ġyear s
.Ġm ost
.Ġm arc
.Ġm ichael
.Ġm ostĠofĠtheĠ
Ġgr ass
Ġgr assĠ
ific ent
ific ialĠsweet
fin ix
fin nish
ath em
edĠandĠ sh
ash ion
ash board
open Ġup
open Ġsourc
fect iousĠ
inĠtheĠ stat
inĠtheĠ videoĠ
Ġse atĠ
Ġse eĠtheĠ
Ġse eĠyou
ĠofĠtheĠ th
ĠofĠtheĠ vehicleĠ
ĠofĠtheĠ newĠyouthĠprogram
atedĠ organiz
edĠbyĠ each
edĠbyĠ googleĠ
edĠbyĠ intel
getĠ your
Ġqu it
ator yĠdamag
ator Ġcuff
aut ion
gu il
ioĠ d
Ġhigh ĠqualityĠ
Ġhow Ġto
Ġhow Ġyou
Ġhow Ġman
Ġhow ĠyouĠcan
sĠd irect
sĠd ifferent
sĠd isposal
Ġart ĠandĠ
ed,Ġ or
ed,Ġ itĠ
Ġmon iesĠ
Ġmon aster
Ġmon ey.Ġ
Ġinter estĠ
Ġinter action
ret ch
ret ract
ret ty
oldĠ courseĠ
rac ial
Ġthink Ġabout
ĠtheĠn am
ĠtheĠn ym
ĠtheĠn on-
ĠtheĠn ba
.Ġh igh
.Ġh ereĠ
.Ġh ousewarmingĠpartyĠinvitesĠfreeĠtemplateĠ
Ġdo or
Ġdo ĠthisĠ
justĠ how
oneĠof ĠtheĠsp
Ġpr int
Ġpr ofession
ĠtoĠd ef
Ġapplication sĠforĠtheĠ
Ġapplication sĠrequir
Ġapplication ĠisĠcall
e.ĠtheĠ c
e.ĠtheĠ power
fl ash
fl avor
sĠthatĠ i
sĠthatĠ haveĠbeen
ĠtoĠbeĠ don
under taken
ementĠ ofĠtheĠ
ementĠ gap
byĠ clickingĠher
ron om
Ġy etĠ
Ġy ester
Ġact ual
experienc edĠprofessional
ingĠfor Ġ
12 1
12 3
cor eĠ
cor ner
cor dĠof
equ it
equ oia
high wayĠ
high light
high Ġbeam
med ic
med ium
ĠaĠw eb
ĠaĠw ritten
a,Ġ godd
fac eĠ
fac ilit
eĠl at
eĠl ight
eĠl ittleĠ
eĠl angu
eĠl iter
inĠ england
stat ist
stat ementĠ
stat e;
stat eâĢĻsĠ
vert eb
vert icalĠ
.Ġd ata
.Ġd esign
.Ġd uringĠtheĠ
Ġthey âĢĻr
,Ġc ar
,Ġc ountyĠcouncil
app Ġstor
app ucc
issu esĠ
issu es.
issu esĠwith
az ion
az aar
ryĠ christmas
chang esĠ
Ġrem over
Ġabout ĠtheĠd
Ġplan nedĠ
was Ġa
ym met
Ġcl assĠ
Ġcl uster
Ġhealth yĠm
Ġhealth Ġinformation
Ġhealth Ġtribunal
ameĠ #
person Ġor
person allyĠ
person nel
keep Ġyou
keep Ġtheir
sĠor Ġscience-interestedĠstudent
Ġhe zekiah
Ġhe avy
let ic
let âĢĻsĠ
let sĠyou
Ġdon 't
self -
tim eĠ
tim eĠi
.ĠifĠyou Ġknow
.ĠifĠyou âĢĻreĠ
.ĠifĠyou ĠhaveĠanyĠquestion
imp actĠof
ĠsoĠ manyĠ
ĠsoĠ excit
Ġman ner
rad ish
rad iolog
week Ġin
eĠand Ġthen
atur dayĠ
Ġany mor
ster eo
Ġbo ed
myĠ hous
som eĠofĠtheĠ
som eon
som etimesĠ
Ġother wis
,Ġor ĠyouĠcan
,Ġor Ġeven
commun ities
ech elp
ĠweĠ haveĠth
oper ator
ock tail
:Ġ il
each Ġof
rel ativeĠ
rel igiousĠ
,Ġd is
,Ġd ata
,Ġyou ĠshouldĠ
,Ġyou âĢĻreĠ
edd ar
lead er
lead sĠtoĠ
loc ateĠ
loc .gov/
Ġrec all
Ġrec reation
information ĠandĠ
information Ġabout
ingĠh all
Ġwe ap
road Ġamerica
Ġmak ingĠ
Ġmak ingĠs
Ġmak esĠitĠ
eĠsp end
ĠtwoĠ month
Ġout ĠtheĠ
Ġout sid
Ġout letĠ
ingĠa Ġresum
edĠs inc
edĠs ervic
tern ational
Ġwhen ĠtheĠ
Ġwhen ĠitĠ
willĠb enefitĠ
willĠb ecomeĠ
veh icl
war eĠof
dĠof ĠtheĠ
stud yĠof
oll er
ĠinĠ earning
ah iersĠ
aĠ event
air port
ures ĠtoĠ
ures ĠareĠ
.Ġin Ġorder
Ġint ag
Ġint ention
ext ent
plan Ġyour
Ġtrans l
Ġtrans mitt
ger manyĠ
ger anium
hisĠ s
mad eĠt
mad eĠitĠ
rid ic
rid ayĠ
ven il
.ĠthereĠ isĠa
.ĠthereĠ wereĠ
.ĠthereĠ isĠalso
mayĠ beĠtheĠ
.Ġc ar
.Ġc ut
.Ġc opyrightĠ
.Ġyou ĠhaveĠtoĠ
.Ġyou ĠdonâĢĻtĠ
,Ġi Ġam
,Ġi ĠhaveĠ
,Ġi ĠwasĠ
,Ġi âĢĻm
,Ġi ĠhadĠ
,Ġw alk
,Ġw pi
ĠtoĠc all
ĠtoĠc ook
ĠtoĠc los
ĠtoĠc ollect
Ġtop -
Ġtop p
Ġtop Ġ
Ġtop Ġof
complet eĠ
18 8
long -
long Ġbeach
eĠg am
eĠg reatĠ
eĠg oogleĠ
Ġthan ĠtheĠ
Ġthan Ġbefor
Ġthan ĠanyĠother
Ġallow Ġm
dec ideĠ
just ĠthatĠ
just ifi
just iceĠ
eĠor Ġsh
att y
.Ġb elow
.Ġb rows
.Ġb esid
.Ġb arth
.Ġb edroomĠ
Ġcar ol
Ġdis order
âĢĶ Ġbut
ĠandĠtheĠ other
ĠshouldĠ you
ĠshouldĠ notĠ
au thor
hom eĠteam
has ĠtoĠoffer
var iet
eĠsur eĠto
eĠsur fac
e! Ġi
atient sĠon
.ĠitĠ is
.ĠitĠ doesn'tĠ
ram atic
ram pianĠtelevision
Ġgu itar
Ġget sĠ
exc eptional
program s.Ġ
eak erĠoutput
list ingĠof
ingĠf ac
ingĠf arm
ingĠf irm
,Ġp op
ĠandĠf ind
Ġmill er
Ġstat us
Ġstat eĠof
Ġstat istic
Ġstat eĠco
Ġstat eĠcolleg
willĠbeĠ charg
run n
run away
Ġtelevision ĠandĠ
Ġtelevision Ġset
sĠyou Ġus
.Ġw eĠs
happ yĠm
happ yĠin
ax imum
ax imiz
ax miĠn
car bon
ier franc
les .ĠtheĠ
sm ooth
Ġanal yst
Ġanal ogu
,Ġh op
,Ġh andĠ
,Ġh eĠsaidĠ
ĠandĠp ool
ĠandĠp ush
email Ġlist
email ĠaddressĠ
Ġadv entĠcalendar
everyĠ other
everyĠ day
Ġappro val
Ġeach Ġyear
Ġeach Ġother
Ġeach ĠoneĠof
mal low
s,Ġs c
s,Ġs port
s,Ġs eriesĠ
ream yĠ
Ġsit e,Ġ
,Ġin Ġfilm
ict ure
Ġweb Ġpag
Ġstor ageĠdevic
pric eĠof
pric es,Ġ
haveĠa Ġs
Ġturn Ġon
Ġso ar
Ġso ,Ġ
yĠp at
Ġhom eland
Ġlif eĠ
Ġlif e.
eventĠ spac
Ġask Ġquestion
Ġask edĠtheĠt
Ġaccess Ġto
Ġaccess ib
kin dĠ
rang erĠstation
ĠaĠh uman
ĠaĠh otel
ĠaĠre ason
ĠaĠre cordĠof
Ġpar ap
ush room
what 'sĠyour
product sĠ
product sĠin
oogleĠ ser
di ag
di od
di etĠ
di abet
di agnos
iteĠ itsĠ
ideĠ open
ivid uallyĠ
Ġlik eĠm
ĠforĠtheĠ awesomeĠ
ĠtheĠsam eĠs
ĠtheĠmostĠ expensiveĠ
Ġtrain ingĠandĠ
Ġtrain ing.
Ġaut ophag
Ġaut ostad
Ġsign aturesĠ
,Ġf ather
,Ġf ranc
,Ġf tello
,Ġf lowers,
esĠon ly
ĠitsĠ uniqu
Ġstudent sĠwhoĠ
Ġtechnolog y.Ġ
e? Ġ+
e? Ġa:
vol unt
ĠaĠn on
ĠaĠn ic
ĠaĠn umber
ĠaĠn on-
alĠ econom
,Ġwhich Ġis
ĠbyĠ our
Ġbusiness es
Ġmember sĠ
Ġhuman Ġservic
Ġshow Ġin
Ġshow cas
-s ourc
-s ignificantĠ
-s emester
back Ġin
back ground
.ĠyouĠcan Ġalso
.ĠyouĠcan ĠfindĠ
ĠandĠc ustom
ĠandĠc ultural
leg oĠ
leg ac
leg allyĠ
leg isl
univers ities
Ġrequ estĠ
Ġaround ĠtheĠworld
ĠjustĠ needĠtoĠ
ordin aryĠ
head ingĠtoĠ
head light
ĠthoseĠ who
ĠthoseĠ whoĠareĠ
ĠanĠex ternal
,Ġwith ĠaĠm
,Ġwith Ġton
Ġby law
Ġby ĠtheĠcnpa
Ġby ĠthisĠact
esĠfor ĠtheĠ
becaus eĠ
!Ġi Ġam
!Ġi 'm
green sĠin
green Ġzomb
green Ġchill
hand sĠaway
Ġif ĠitĠisĠ
Ġif ĠanyoneĠ
.Ġp eopleĠ
Ġpart ner
Ġwas Ġtaken
Ġwas ĠableĠtoĠ
Ġdef ens
tt y_
Ġtru eĠ
inst antĠ
inst eadĠof
inst eadĠ
Ġpre v
Ġpre fer
Ġpre ferenc
edĠc ell
ĠdoĠ you
Ġstart up
ensur eĠtheĠ
ez uel
eĠis ĠalsoĠ
ins ight
onc eĠin
onc eĠagain
organiz ational
ĠpeopleĠ in
ĠpeopleĠ whoĠ
Ġbr assĠ
Ġtoday 'sĠ
imag esĠ
esĠwith ĠtheĠ
esĠwith inĠour
outĠof ĠtheĠbox
spect rum
full Ġret
24 3
call ed
pay ableĠto
pay ingĠ$
Ġo il
Ġo ak
Ġo ctober
ert ifi
theĠ children
edĠd own
edĠd iet
edĠd umpster
Ġinst ead
Ġinst eadĠof
control ĠofĠyour
creat iveĠ
feat uredĠ
ientĠ color
sĠthat ĠallowĠyou
Ġen hanc
Ġau thentic
Ġinformation Ġregard
conf ident
Ġnot esĠof
Ġnot ification
apt ur
apt cha
nextĠ week
nextĠ face-to-faceĠmeet
50 1
Ġ& Ġdi
onĠtheĠ âĢĺ
edĠp art
edĠp olish
hav ingĠtoĠ
ĠasĠtheĠ âĢľ
ĠasĠtheĠ company'sĠ
ĠaĠfew Ġother
ĠaĠfew Ġmonth
Ġmedia Ġplay
,Ġt x
,Ġt urin
,Ġt enn
kitchen Ġwith
only ĠtheĠ
only ĠaboutĠ
only ĠaĠfew
Ġmic roĠ
ĠtoĠm oveĠ
research Ġpaper
ĠthatĠyou Ġwill
ĠthatĠyou ĠcouldĠ
arden Ġwith
Ġcons ent
Ġcons ol
Ġcons ist
Ġcons umer
Ġmillion sĠof
Ġmillion Ġview
-f old
40 1
hon est
rew ardĠ
.Ġif Ġan
Ġco ordinator
Ġhas ĠaĠ
wher eĠtheĠb
eĠthat Ġtheir
result sĠof
version Ġ
everyth ingĠ
everyth ingĠin
everyth ingĠisĠ
giveĠ it
giveĠ us
ograph ical
sur round
Ġser ies
ĠtoĠre -
ĠtoĠre v
rain er
eĠtheĠs izeĠofĠyour
ĠwhoĠ iĠam
ĠwillĠb eĠdriv
'll ĠbeĠableĠtoĠ
)Ġ âĢľ
gl u
gl as
gl ass
gl itter
sup plementĠ
Ġtri edĠtoĠ
Ġtri umph
Ġsub jectĠ
Ġsub urb
.Ġf urther
esc op
ĠcouldĠ haveĠ
ĠcouldĠ doĠ
Ġcount iesĠinĠthisĠ
chi ev
Ġmar cos
irc uitĠ
Ġret urning
ĠareĠs oĠ
ĠareĠs ubject
beĠa ĠgoodĠ
manyĠ icesĠ
Ġjust iceĠ
ĠwillĠbeĠ receiv
ĠwillĠbeĠ ableĠto
ĠwillĠbeĠ homeĠteam
Ġscienc esĠ
ietaryĠa ide
-c ent
gi ant
Ġter ri
ician sĠandĠ
ĠandĠh uman
e.Ġi âĢĻm
ĠnoĠ wayĠ
ĠnoĠ matter
ĠnoĠ moreĠthan
ĠasĠa ĠresultĠof
priv ateĠsector
,ĠsoĠ ifĠyou
Ġunder graduateĠ
17 9
met a
Ġsur g
Ġsur pris
item /m
forĠ older
ĠtoĠmak eĠsur
Ġstrateg ies
contain s
afet yĠof
Ġthere âĢĻsĠ
ĠalwaysĠ been
-p ack)Ġ-
65 9
wa itĠ
sĠisĠ notĠ
sĠwill Ġinclud
erg onom
es,ĠandĠ other
offe eĠmak
raw l
.ĠtheĠc npa
ĠtheĠtim eĠ
ĠtheĠtim eĠtoĠ
ĠtheĠtim elin
employ ment
employ eeĠ
videoĠ contentĠ
Ġauthor ity
Ġauthor ities
bar tholomew
de /
de ad
hous eĠ
link edin
prom otion
s: ĠmuskegonĠ
Ġ" -
Ġro ck
ĠâĢľ fullĠret
real m
real ity
eton ,Ġred
etic s,Ġ
urpos e/charter
ify ĠtheĠ
resident sĠandĠ
resident sĠareĠ
resident sĠinĠtheĠ
eful lyĠ
e.ĠthisĠ isĠ
Ġplay list
Ġamaz ing,
ĠtheĠworld .ĠtheĠ
Ġassist ant
feel Ġlik
25 6
yn old
erĠ room
ref lect
challeng esĠof
ĠyouĠareĠ goingĠtoĠ
irst ĠaidĠ
Ġgo Ġthrough
Ġwhil eĠon
ĠtheĠbestĠ possibleĠ
canĠbeĠ foundĠ
Ġresearch Ġinstitut
guid anc
guid ebook
struct ure
struct ural
big Ġb
del icat
hear dĠ
ianc oĠeĠ
kindleĠ stor
oak hill
ĠifĠyou ĠareĠ
yĠisĠ wear
,ĠitĠ will
essĠof Ġflower
iceĠ chip
Ġpatient sĠ
Ġback ground
Ġback groundĠ
loveĠ your
being ĠableĠtoĠ
establish ment
phot os
Ġtherap yĠ
Ġtherap y,Ġ
Ġtherap yĠsession
communityĠ building
Ġanalys isĠof
cottish Ġg
less ĠthanĠ
mos pher
Ġel ement
Ġel iminateĠ
ingĠg ood
ingĠg lobal
ingĠg iftĠ
lov esĠ
lov elyĠ
ĠinĠs eptemberĠ
problem s.Ġ
epart mentĠ
ĠtheĠcount yĠof
ĠtheĠcount yĠofĠmeig
ĠtheĠcount ry,Ġ
eĠmor eĠthanĠ
lyĠs erv
board ingĠschool
invest ment
invest ingĠin
invest igat
flu entĠin
welcom eĠto
den ali
found Ġthat
gener allyĠ
sĠlik eĠtheĠ
ingĠt ableĠ
ofĠ education
Ġpos sibleĠ
edĠg irl
edĠg lob
lex ibilityĠ
ĠtheĠsh op
ĠtheĠsh ip
Ġext rem
energ y,Ġ
Ġattend ingĠphysician
Ġminut es
.h tm
.com .
lor enzo
matter Ġhow
ors e,Ġ
outh Ġregion
ingĠw rong
elf -harm
ĠtoĠhelp Ġpromot
Ġhous eholdĠ
acc eler
Ġliv es,Ġ
Ġadvertis ingĠdollar
Ġwhat ĠareĠ
izedĠ return
Ġexp and
special istĠ
ĠhaveĠtoĠ do
Ġperform anceĠof
ĠhasĠbeen Ġremov
econom y.Ġ
Ġmonth s
Ġplanning Ġpermission
a.Ġ with
far Ġfrom
ĠandĠb iological
step p
step sĠtoĠ
Ġbod yĠ
Ġbod yĠtoĠ
Ġmad eĠ
Ġinc identĠ
Ġinc rediblyĠ
Ġsty le
ĠwithĠ ocĠhumanĠrelation
ĠaĠv ast
ĠthereĠar eĠseveral
avor iteĠ
-b odi
member ship
part ner
ser veĠ
Ġaud re
ĠaĠcom mon
inĠs lic
inĠs atyamevĠsurya
Ġcor ner
Ġcor respond
Ġcas eĠandĠ
Ġcas esĠin
Ġcustomer sĠandĠ
ĠhadĠ noĠ
Ġhapp yĠf
user âĢĻsĠ
Ġfac ilities
Ġfac ebookĠpag
eĠtr ulyĠ
connect edĠ
connect edĠwith
ĠthisĠs eason
ĠonlyĠ beĠ
eĠco ach
duction Ġin
Ġspeak sĠ
ĠloveĠ your
engag ingĠandĠ
ixel ĠpartyĠdesign
ham edĠch
eĠag re
.Ġwhen ever
.Ġwhen Ġi
lot sĠof
Ġfunction al
Ġfunction .Ġ
Ġfunction ĠandĠ
Ġgreat er
Ġgreat estĠ
whyĠ w
whether ĠitĠ
whether ĠyouĠareĠ
Ġstar Ġplus
Ġstar ĠplusĠs
conc ret
conc eiv
begin ĠtoĠ
clus ion
ĠorĠbetter ,ĠandĠ
Ġprot ect
Ġprot ein
Ġvar ietyĠof
Ġappoint edĠ
cordĠ blood
him self
jam aic
ng Ġwomen
Ġtell sĠus
Ġcolor ado
oment ousĠ
youĠareĠ enjoy
Ġmus cl
Ġdist res
rais ingĠ
eĠtheĠd ut
condition alĠdischarg
Ġshop per
eĠmon eyĠ
ĠthereĠisĠ still
Ġ*Ġ estream
gress ivelyĠ
liveĠ andĠ
ma Ġ(paris
number sĠ
wes om
Ġsat elliteĠ
.Ġhowever ,Ġ
Ġcal endar
Ġcustom iz
Ġcustom ers
chr istĠ
Ġmet allic
whit e.Ġ
whit eĠskel
Ġform atĠ
ocĠhumanĠrelation sâĢĻ
ĠtheĠhigh -
ymptom sĠof
someth ing
effectiveĠ assistanceĠof
Ġblack Ġhistor
dem andĠ
hard war
me o
s- freeĠ
y- anderson
Ġtalk ĠaboutĠ
Ġsw eden
ateĠc ordĠbloodĠ
Ġant itrypsinĠdeficienc
Ġanimal sĠ
Ġcent re
Ġport ableĠ
ĠtoĠkeep Ġyour
leadĠ retriev
lock smith
Ġgd sm
Ġgrow ingĠin
ingĠitĠ from
Ġla you
prim aver
prim aril
occur red
viol entĠ
eĠaf ford
Ġvide os
regular lyĠ
regular Ġseason
risk Ġof
physical Ġretail
!Ġ /
ea red
kid 'sĠ
kind lyĠ
set ting
Ġtv Ġshow
enz ym
Ġcr Ġ
Ġcolleg eĠadmission
forĠm ostĠ
forĠyour Ġsin
Ġbelow .
Ġhad ĠtheĠ
Ġdel ay
Ġdel iciousĠ
iment s,Ġ
rail road
ĠtheĠsp ecial
ought ĠtoĠ
Ġchoos eĠtoĠ
ucc essĠof
increas eĠtheĠ
increas ingly
notic ed
Ġunt ilĠ
ollection Ġof
ĠaĠlarg eĠwindow
.c: Ġnew.Ġ
.c: Ġremoved.Ġ
.c: Ġnew.Ġtaken
community .
improv ement
improv ementĠ
improv edĠg
Ġinvest mentĠ
cent uryĠ
fun c
fun dĠ
nes sĠin
vot ing
Â® .
inf rastructur
inn ieĠl
ĠsetĠ of
ingĠan Ġin
ĠandĠw ip
Ġpain ting
Ġparticip ating
Ġparticip atingĠin
Ġbetween Ġ
Ġbetween ĠtheĠ
Ġmay ĠalsoĠ
Ġmov ement
Ġhear ing
Ġdid nâĢĻt
Ġdisc ount
Ġdisc ountĠ
Ġfeat ures
Ġgra b
Ġalcohol ĠorĠaceton
near lyĠ
proc eed
ruth ĠandĠrossĠ
rust rat
rust ration
effic iently
spir ationĠfor
Ġright sĠ
Ġteen Ġcounsel
Ġlet âĢĻsĠ
Ġlead sĠto
Ġlead ership
grand pa
scienc esĠandĠ
scienc eĠcenter
.ĠthisĠisĠ not
undayĠ herald
Ġclass esĠandĠ
Ġindepend enceĠwar
Ġfeel Ġlik
gen eĠexpression
Ġ,Ġ rome,Ġ
Ġever green
sĠwhen Ġyou
ilit ary
Ġpublic Ġadministration
Ġwrit ingĠservic
edĠf oodĠ
rot atorĠcuff
asc ular
Ġhon orĠof
leaveĠ m
ĠtoĠst op
Ġrest artĠ
Ġlin en
Ġlink edin
bever lyĠ
eĠcall edĠ
ĠtheĠcor rectĠ
ĠtheĠtop ic
prepa redĠto
Ġ*Ġs ysutil
respect ful
respect ively
ĠdonâĢĻtĠ haveĠtoĠ
ĠdonâĢĻtĠ likeĠtheĠ
-h our
da vidĠ
deal er
fund amental
general Ġtip
sĠag oĠ
Ġimag in
ĠthisĠa Ġb
ĠthisĠa rea
sĠup ĠtoĠ
oubleĠ with
ingĠtheĠd atabas
allo tĠ
.Ġn achĠbaliyeĠ
.Ġit 's
.Ġit âĢĻs
edit ĠandĠ
edit edĠonĠ
Ġwell -
Ġbott le
eĠthereĠ isĠ
eĠsoĠ constru
eĠservic esĠ
e,Ġwhich Ġwill
ĠshareĠ withĠyou
ĠtheĠfirst ĠtimeĠin
Ġthemselv es.Ġ
Ġthemselv esĠandĠs
ĠtheĠlatestĠ versionĠofĠsumoĠaffiliat
ĠaĠfull Ġsiz
Ġbeh indĠ
ĠaĠgoodĠ idea
key lessĠ
key board
ĠthermalĠresist anceĠ
eĠandĠtheĠ heatĠsink
running Ġboard
immun eĠdis
Ġmicro -
Ġmicro phoneĠ
chedul ed
dist rictĠ
dist inguish
flower s,Ġ
flower ,Ġhigh
north ĠpalmĠbeach
pri z
rateĠ wasĠ
tar ioĠ
villag eĠofĠnorth
yber securityĠ
rect ly
refer redĠto
Ġspr ink
ically -significantĠ
ĠcountyĠcouncil member
Ġprom otion
Ġpass word
Ġdeal er
Ġdirect lyĠ
ĠfiveĠ year
ĠinĠfilm Ġc
ĠinĠfilm sĠandĠfilm
amb ientĠcolor
Ġgiv en
Ġgener ousĠ
illion sĠof
Ġstruct ureĠ
eĠtheĠt op
ĠlastĠ for
class ic
ĠwhereĠ you
canĠb eĠa
ubsc rib
ingĠmor eĠthan
vehicle .Ġ
Ġintro duc
Ġintro ductor
electric ityĠ
Ġmarketing Ġagenc
Ġprepar ation
www. loc.gov/
-th em
determin edĠby
lay er
mightĠ b
mightĠ beĠ
particip ateĠin
rich ardĠ
zer o
Ġu sĠfor
eĠal ong
eĠal arm
ĠaĠcon ven
inoĠ guer
Ġsan Ġdieg
,Ġinclud ingĠtheĠ
Ġpaper s,ĠseriesĠ
strateg y.Ġ
Ġbiolog ical
ĠmightĠ beĠ
Ġhar v
Ġhar ass
Ġfund amental
esĠc els
ĠofĠm usic
propert yĠisĠ
.ĠtheĠg it
.ĠtheĠg plac
uppl yĠ
istr yĠcours
ĠyourĠf avorit
eĠcl ick
ociet y,Ġ
haveĠth eir
independ entĠ
independ entĠtelevision
,Ġsm ok
eath ĠandĠ
ĠisĠtheĠ legalĠbas
flor a,Ġgodd
improveĠ your
clear viewĠhorizon
direct ly
direct xĠ
foodĠ item
focus ingĠon
har sh
har mon
kb Ġflash
meal Ġplan
most lyĠ
pract icesĠ
victor ia
wish ĠtoĠ
yth on
orang eĠcount
Ġsport sĠ
Ġsoft wareĠ
Ġsoft ware
eleg ant
Ġpal ett
ĠtoĠensur eĠs
lect ual
Ġge orgeĠwashington
Ġrespect iveĠ
Ġrecogn iz
exper tĠ
earli erĠ
e.Ġyou ĠcouldĠ
eĠcor poration
eĠcor porateĠ
mention edĠ
Ġvalu ableĠ
removeĠ snow
ĠaĠper fectĠ
going Ġthrough
Ġaccept ingĠc
rontĠ door
equip mentĠ
expens esĠ
abilityĠ for
ĠcommunityĠ build
ĠsomeoneĠ whoĠ
Ġ*Ġmaperror .c:
ðŁĻ ģ
bel ong
bel gium
hop eĠtoĠ
laborator y
nau z
pain ting
pass over
tra bras
wood en
Ġip Ġaddres
ĠaĠhigh Ġlevel
inĠtheĠp ossession
enhanc eĠtheĠ
ingĠaĠs mall
ĠanĠinter view
aryĠc ardĠ
Ġcol on
Ġcol our
Ġpixel ĠpartyĠdesign
Ġpixel Ġminer
Ġwould nâĢĻtĠ
access Ġto
eĠther ap
combin edĠwith
bey ondĠ
appro ach
ending ĠanĠ
eĠaĠd ifferenc
ĠtheĠfollow ingĠd
ĠtheĠbod yâĢĻsĠ
soĠmuch Ġfun
Ġresult sĠin
Ġnear lyĠ
Ġnear ly
blu eĠpixelĠcloud
cert ification
sĠmayĠ beĠ
ideasĠ forĠolder
Ġannual izedĠreturn
wait ingĠfor
ĠactivitiesĠ of
definit elyĠ
Ġpresent sĠ
concern ingĠs
concern edĠaboutĠ
ĠtheĠshoulder Ġjoint
ĠtheĠshoulder ĠjointĠ
eĠtrans fer
emergenc yĠ
/m ixedĠm
depend ingĠon
mil k
Ġeas il
Ġeas ilyĠ
Ġ.. ..
Ġtend enc
Ġtax i
onto ĠtheĠlĠ
ane ously
Ġsusp end
Ġsusp ectĠ
Ġsusp ension
atis faction
ingĠst res
Ġcod ec
Ġwish ĠtoĠ
Ġmeal Ġplan
Ġfun dĠ
ĠgoĠ for
exclus iveĠ
exclus ively
exhib it
Ġlay erĠbambooĠplantĠ
Ġno Ġsens
eĠinclud esĠ
Ġspir itĠ
Ġspot if
libr aryĠ
libr ary
controll er
Ġrat es.Ġ
Ġrout in
likely ĠthatĠ
prett yĠs
managementĠ of
ĠsupportĠ for
held ĠatĠ
Ġtenn is
ĠstyleĠ kid'sĠ
ĠtherapeuticĠboardingĠschool sĠin
aĠg alsĠ
cru is
cru cial
eoĠ of
food ĠandĠ
gaveĠ m
listĠ for
major ityĠof
pack ageĠ
Ġengin eer
Ġtor ontoĠ
Ġtempl ateĠ
sĠ- ĠpixelĠminer
one,Ġ northĠpalmĠbeach
Ġcert ifiedĠ
omin antĠ
Ġwalk er
sty le
Ġdepart ment
ĠgoogleĠ analytic
Ġalask an
Ġlim it
umb ilical
ĠasĠaĠ âĢľ
ĠyourĠhom eĠisĠ
eĠmed ical
eĠmed ication
ĠtheĠmor ning
Ġamb ition
ĠtheĠgu est
ouseĠ command
moreĠthanĠ enough
Ġeu ropean
Ġassess mentĠ
Ġassign ment
Ġseem sĠtoĠ
Ġhigh- qualityĠ
ĠhighĠschool ĠbiologyĠwith
rett yĠ
expand edĠ
aidĠcount yĠofĠmeig
alĠill umination
oakridg eĠ(
ĠhopeĠyou ĠhaveĠa
entertainment Ġarea
origin alĠ
Ġadministrat iveĠ
uggest edĠthatĠ
Ġ*Ġmaperror.cĠ(map_ to_assuan
Ġ*Ġsimple-pwquery .c
ecosystem ,Ġ
(c udas
)Ġfor Ġpas
)Ġfor ĠnpsĠandĠ
burn er
beĠsur eĠto
lad der
mic rosoftĠ
pu ĠisĠ
rul esĠandĠ
zo om
Ġlog oĠ
eĠch ain
Ġtex tĠ
Ġare asĠof
sĠwillĠb eĠavailableĠ
outhern Ġcalifornia
Ġsant a
.Ġl uck
arra ,Ġuniv.ĠofĠtenn.Ġ
espres soĠ
Ġcamp usĠ
Ġcareer ĠhenanĠchemical
stuck Ġon
Ġmo z
ĠtoĠh un
Ġhis /her
Ġful lyĠ
Ġfranc isĠwad
eĠso ap
aintĠ elizabeth
ĠtheĠcountyĠc ourt
everyĠs ingleĠ
Ġ(b Ġ
built -in
Ġjour ney
ĠtheĠpar ent
Ġren am
assist ant
ĠneedĠ help
ĠaĠmin imum
ĠaĠmin orĠin
seek o.c
ĠmoneyĠ whenĠbuy
highlyĠ organiz
ĠrelatedĠ disciplin
sĠbetween Ġ
unchĠballoon sĠ-ĠpixelĠminer
ĠallowsĠyou ĠtoĠs
ĠstatementĠ fromĠfather
Ġadvoc ac
Ġadvoc atedĠfor
valueĠfor ĠmoneyĠwhenĠbuy
privac y
Ġalternat eĠshallĠbeĠ
-inch Ġ(
environmental Ġhealth
unitedĠkingdom 'sĠ
ewarmingĠpartyĠ invitation
Ġ*Ġmakefile.am :
_s ecure
aĠf ighter
bul ly
bak edĠglob
des erv
jur isdiction
lank ton
vil le,Ġ
xt ry
Ġaim sĠtoĠ
ĠaĠplac eĠforĠtheĠart
es.ĠthisĠ courseĠisĠdesignedĠfor
Ġcirc ular
Ġcirc uitĠ
ĠandĠlong ĠoperatingĠ
Ġpict ur
Ġmil eston
ĠholidayĠ reservation
Ġdigital Ġsignag
olymp ia
Ġinvolv edĠin
raz yĠ
amaz on
acredĠ calendar
acredĠ rh
ecolog y,Ġ
neg lect
eĠsc ienc
updat esĠon
encry pt
Ġtheat r
Ġtheat reĠ
s,Ġyou 'll
Ġnor mal
beaut yĠboutiqu
estĠandĠ mostĠ
ĠwhyĠ notĠ
ĠtheĠcurrentĠ s
eĠdetail sĠabout
Ġaccommod at
Ġexplain sĠ
Ġspect ator
manufactur er
ĠtheĠmin istryĠof
ĠtheĠbenefit sĠof
spec tĠof
'sĠm ill
ubeter reĠ
ĠtheĠdef ianc
fulfill ĠaĠnatural
obvious lyĠ
eĠpres ent
eĠpres enc
Ġtrail er
Ġscout sĠaustralia
Ġacceler ator
,ĠmayĠ .Ġm
everyon eĠshouldĠ
ĠmakeĠ buffer
.ĠthereĠisĠ noĠ
ript /mixedĠm
responsib ilityĠ
ĠaĠret urn
productiveĠ system
Ġbasic Ġmediation
!ĠiâĢĻm ĠsoĠsorryĠtoĠhearĠaboutĠyour
ĠscienceĠ electiveĠ
Ġtechnical Ġassistanc
concert sĠin
eĠdoes nâĢĻtĠ
ybersourc eĠpaymentĠ
experiment sĠthatĠ
)ĠhasĠbeen ĠwithĠocĠhumanĠrelation
-day sĠprior
-se atĠ
?Ġ icesĠ
brough t
cad fael
dev ilz
ej oĠ
godd ess
ie,Ġ whiteĠskel
jÃ¼lich -
lag rang
particular lyĠ
t,Ġ blueĠpixelĠcloud
zon emusic
Ġir v
Ġtn t,ĠblueĠpixelĠcloud
ĠaĠto tal
inct iveĠ
sĠcom eĠfrom
erĠw iring,Ġ
ĠsweetĠ word
itar ian
icl es,Ġ
Ġcur rent
elbour ne
Ġbec ameĠ
usc ript/mixedĠm
veryĠb estĠ
ĠinĠg hana
ĠinĠg ameĠ#
ĠgiveĠ you
Ġreput ation
adv antag
agre ens.org
exact lyĠwhatĠ
ĠtheyĠc ouldĠ
Ġnurs ing,Ġ
sĠofĠb ph
ĠonlineĠ atĠ
apableĠ of
ocean ograph
Ġ(t oward
viaĠ email
intellig entĠ
ĠtheĠfutur eĠof
ĠtheĠpart y!
ĠtheĠpeopleĠ of
yearsĠ old
logg edĠin
easil y
recip ient
Ġtraum atic
ĠtheĠlist ĠadministratorĠwill
ĠresultĠ in
ingĠinĠ etters,Ġpa
Ġapprec iateĠyour
related ĠtoĠtheĠ
riday ,ĠblogĠfriends!
vari ableĠ
excell ent
ross- media
ĠanĠext ensiveĠ
burg und
ĠincludesĠ greenĠzomb
rapp ingĠpaper
shallĠb eĠtheĠdut
ateĠcrim eĠreport
character iz
eĠinterest edĠin
soonĠasĠ possible
ĠthirdĠ row
ĠthirdĠ part
principlesĠof ĠbiologyĠwith
Ġfellowship ĠareĠnow
zydecoĠ danc
Ġgenetic s,Ġ
Ġspirit ual
Ġ*Ġsimple-pwquery.cĠ( agent_
aggressorĠsh ield
/t entĠsites:
blow n
col our
hug elyĠ
neĠ river
wentĠ pcnl
ëĭ ¤
ìĿ ´
Ġ@ Ġ
Ġtom ato
Ġtom orrow
Ġtank ardstown
theĠs ameĠ
Ġprec iousĠ
ĠpaidĠ $
Ġwait ingĠfor
edĠst emĠcell
Ġbrit ish
Ġbrown Ġsugar
ĠhotĠ coc
Ġdiss ection
Ġdegre esĠcels
Ġfocus esĠon
emal eĠ
Ġrev olution
acdon ald
acdon aldĠ
eco -friendlyĠ
Ġstopp edĠ
admin istrat
âĢĻsĠto p
prostat e,Ġ
eĠtra ditional
eĠtod ayĠ
eĠtyp esĠof
ĠthisĠis ĠtheĠcas
epid emic
thermalĠresist anceĠfrom
Ġjudg ment
eĠbeli ev
eĠbeli eveĠth
ĠtheĠtrans mission
ĠtheĠlordĠ wasĠnotĠ
affect edĠ
ĠaĠgroup Ġof
Ġcontra st
Ġcontra ctor
eĠhealth Ġexp
losĠangel es
ĠyearsĠag o
Ġarticle sĠ
umpst ersĠ
Ġintellig entĠ
qualif iesĠ
ĠaĠlov elyĠ
Ġappropri ateĠ
ĠaĠhand ful
ĠautoĠ headlight
legitimateĠ interest
ĠbasementĠ into
hands- on
,Ġgeneral Ġcorrespond
Ġoh mĠcab
necessaryĠ forĠtheĠ
ĠauthorityĠ planningĠdepart
refund sĠon
earnedĠher Ġb
earnedĠher Ġmaster
u.k .Ġtelevision
eĠmanyĠ other
rankf urt
rankf urtĠ
info @
Ġautomatic allyĠ
Ġbotticelli 'sĠ
expertis eĠtoĠ
edinburgh Ġcast
Ġtahlequah,Ġoklahom a,Ġ
preced ent
Ġ*Ġmakefile.amĠ( am
Ġ*Ġmakefile.amĠ( lib
Ġ*Ġttyio .cĠ(
orgeĠwashington ,ĠmayĠ.Ġm
-speak erĠb
_f d
cre ep
daxk o
