{"!":0,"\"":1,"#":2,"$":3,"%":4,"&":5,"'":6,"(":7,")":8,"*":9,"+":10,",":11,"-":12,".":13,"/":14,"0":15,"1":16,"2":17,"3":18,"4":19,"5":20,"6":21,"7":22,"8":23,"9":24,":":25,";":26,"<":27,"=":28,">":29,"?":30,"@":31,"[":32,"\\":33,"]":34,"_":35,"a":36,"b":37,"c":38,"d":39,"e":40,"f":41,"g":42,"h":43,"i":44,"j":45,"k":46,"l":47,"m":48,"n":49,"o":50,"p":51,"q":52,"r":53,"s":54,"t":55,"u":56,"v":57,"w":58,"x":59,"y":60,"z":61,"|":62,"¡":63,"¢":64,"£":65,"¤":66,"¥":67,"¦":68,"§":69,"¨":70,"©":71,"ª":72,"«":73,"¬":74,"®":75,"¯":76,"°":77,"±":78,"²":79,"³":80,"´":81,"µ":82,"¶":83,"·":84,"¸":85,"¹":86,"º":87,"»":88,"¼":89,"½":90,"¿":91,"Â":92,"Ã":93,"Ä":94,"È":95,"Î":96,"Ï":97,"á":98,"â":99,"ä":100,"å":101,"æ":102,"ç":103,"è":104,"é":105,"ê":106,"ë":107,"ì":108,"í":109,"ï":110,"ð":111,"Ċ":112,"č":113,"Ġ":114,"Ģ":115,"ģ":116,"Ĥ":117,"ĥ":118,"Ħ":119,"ħ":120,"Ĩ":121,"ĩ":122,"Ī":123,"ī":124,"Ĭ":125,"ĭ":126,"Į":127,"į":128,"İ":129,"ı":130,"Ĳ":131,"ĳ":132,"Ĵ":133,"ĵ":134,"Ķ":135,"ķ":136,"ĸ":137,"Ĺ":138,"ĺ":139,"Ļ":140,"ļ":141,"Ľ":142,"ľ":143,"Ŀ":144,"ŀ":145,"Ł":146,"ł":147,"Ń":148,"eĠ":149,"Ġt":150,"Ġa":151,"in":152,"Ġth":153,"sĠ":154,"er":155,"on":156,"dĠ":157,"tĠ":158,"or":159,"en":160,"ou":161,"ĠtheĠ":162,"an":163,"re":164,"Ġs":165,"at":166,"it":167,"ing":168,"Ġan":169,"yĠ":170,"al":171,".Ġ":172,"ar":173,",Ġ":174,"es":175,"oĠ":176,"of":177,"is":178,"ion":179,"ic":180,"Ġc":181,"om":182,"ĠandĠ":183,"el":184,"th":185,"il":186,"you":187,"for":188,"ed":189,"Ġp":190,"Ġw":191,"st":192,"edĠ":193,"ro":194,"ch":195,"Ġb":196,"Ġm":197,"ĠtoĠ":198,"isĠ":199,"as":200,"Ġh":201,"ent":202,"le":203,"ct":204,"Ġd":205,"lo":206,"veĠ":207,"us":208,"ith":209,"et":210,"âĢ":211,"ur":212,"Ġf":213,"ation":214,"ol":215,"ver":216,"id":217,"Ġin":218,"ig":219,"Ġto":220,"im":221,"esĠ":222,"ra":223,"un":224,"em":225,"atĠ":226,"Ġyou":227,"ow":228,"leĠ":229,"Ġof":230,"am":231,"ir":232,"Ġg":233,"if":234,"Ġre":235,"ul":236,"ill":237,"ac":238,"ec":239,"Ġal":240,"Ġar":241,"wh":242,"all":243,"Ġst":244,"ne":245,"op":246,"ter":247,"eĠth":248,"with":249,"ad":250,"ab":251,"our":252,"ag":253,"ex":254,"ingĠ":255,"ot":256,"os":257,"ut":258,"âĢĻ":259,"ay":260,"pl":261,"com":262,"entĠ":263,"s>":264,"Ġ<":265,"Ġand":266,"itĠ":267,"res":268,"pro":269,"ak":270,"qu":271,"ha":272,"eĠs":273,"eĠt":274,"oun":275,"iv":276,"igh":277,"Ġl":278,"um":279,"ĠthatĠ":280,"ess":281,"con":282,"per":283,"rom":284,"oo":285,"and":286,"eĠof":287,".ĠtheĠ":288,"ear":289,"up":290,"ev":291,"ĠthisĠ":292,"ist":293,"s.Ġ":294,"ain":295,"e.Ġ":296,"ĠareĠ":297,"ect":298,"lyĠ":299,"enc":300,"Ġfor":301,"andĠ":302,"Ġthe":303,"asĠ":304,"ep":305,"iveĠ":306,"s,Ġ":307,"Ġn":308,"ereĠ":309,"e,Ġ":310,"ud":311,"be":312,"Ġas":313,"sĠof":314,"Ġwith":315,"ayĠ":316,"ant":317,"ĠtheĠs":318,"est":319,"Ġon":320,"Ġsh":321,"Ġyour":322,"oul":323,"ri":324,"ĠasĠ":325,"eĠc":326,"anc":327,",ĠandĠ":328,"ell":329,"ap":330,"your":331,"ther":332,"beĠ":333,"end":334,"ĠaĠ":335,"ork":336,"sĠandĠ":337,"od":338,"pr":339,"ateĠ":340,"sĠin":341,"s>Ġ<":342,"Ġ</":343,"s>Ġ<s>":344,"gh":345,"no":346,"cl":347,"du":348,"ip":349,"Ġad":350,"20":351,"Ġor":352,"Ġwh":353,"Ġpro":354,"ach":355,"por":356,"Ġat":357,"etĠ":358,"sh":359,"ard":360,"ĠtheĠc":361,"from":362,"will":363,"art":364,"ever":365,"eĠin":366,"form":367,"new":368,"ber":369,"eĠm":370,"ich":371,"der":372,"ly":373,"ish":374,"out":375,"Ġcon":376,"oc":377,"outĠ":378,"Ġcom":379,"over":380,"eĠd":381,"ough":382,"Ġall":383,"ouldĠ":384,"ial":385,"low":386,"Ġ(":387,"eal":388,"ĠisĠ":389,"bu":390,"haveĠ":391,"vi":392,"we":393,"Ġab":394,"âĢĻsĠ":395,"ail":396,"iz":397,"fer":398,"ind":399,"ableĠ":400,",Ġs":401,"ew":402,"ple":403,"ru":404,"Ġcan":405,"ment":406,"int":407,"Ġac":408,"ityĠ":409,"Ġch":410,"aveĠ":411,"ef":412,"weĠ":413,"Ġex":414,"eĠa":415,"Ġap":416,"eĠandĠ":417,"e.":418,"ph":419,"ity":420,"eĠtoĠ":421,"ack":422,"ies":423,"Ġsp":424,"other":425,"tĠof":426,"man":427,"now":428,"ong":429,"ust":430,"ens":431,"li":432,"ition":433,"Ġj":434,"edĠb":435,"ction":436,"eĠb":437,"ĠtheĠf":438,"ast":439,"ign":440,"ĠatĠ":441,"ĠtheĠm":442,"port":443,"ang":444,"Ġv":445,"gra":446,"erv":447,"Ġtheir":448,"s.":449,"Ġi":450,"Ġk":451,"Ġthat":452,"iss":453,"ark":454,"ount":455,"ight":456,"ĠtheĠp":457,"work":458,"ĠtheĠb":459,"estĠ":460,"cont":461,"her":462,"allyĠ":463,"soĠ":464,"sp":465,"year":466,"edĠtoĠ":467,"eĠtheĠ":468,"'sĠ":469,"can":470,"ire":471,"ok":472,"ub":473,"vid":474,"19":475,"Ġr":476,"ink":477,"own":478,"eg":479,"ib":480,"notĠ":481,"ienc":482,"ĠtheĠd":483,"edĠin":484,"Ġpl":485,"comm":486,"elp":487,"log":488,"reat":489,"Ġwill":490,"cess":491,"Ġam":492,"ical":493,"ĠhaveĠ":494,"eas":495,"uc":496,"ers":497,"toĠ":498,"mak":499,"ĠtheĠg":500,"ick":501,"ia":502,"isĠa":503,"Ġtim":504,"ass":505,"ifĠyou":506,"comp":507,"yĠs":508,"adĠ":509,"ĠthereĠ":510,"..":511,"ful":512,"ob":513,"eĠp":514,"ĠtheĠt":515,"uch":516,"eb":517,"ightĠ":518,"201":519,"iesĠ":520,"Ġtak":521,"sĠs":522,"ook":523,"av":524,"Ġte":525,"Ġtr":526,"sĠfor":527,"rough":528,"Ġaf":529,"yĠc":530,"act":531,"ingĠs":532,"Ġlo":533,"Ġus":534,"butĠ":535,"idĠ":536,"yĠof":537,"ĠbeĠ":538,"sĠtoĠ":539,"ous":540,"ult":541,"pos":542,"red":543,"es,Ġ":544,"00":545,"ound":546,"do":547,"ustĠ":548,"),":549,"mentĠ":550,"wasĠ":551,"Ġour":552,"areĠ":553,"es.Ġ":554,"y,Ġ":555,"Ġit":556,"oneĠ":557,"âĢľ":558,"s,":559,"ication":560,"âĢĿ":561,"eat":562,"rat":563,"rec":564,"essĠ":565,"mor":566,"way":567,"inc":568,"Ġfrom":569,"how":570,"Ġag":571,"vers":572,"clud":573,"oodĠ":574,"ĠaĠs":575,"Ġthem":576,"ek":577,"sel":578,"ord":579,"eng":580,"Ġtra":581,"which":582,"ervic":583,"ĠandĠs":584,"been":585,"itt":586,"ostĠ":587,"not":588,"ost":589,"ĠtheĠl":590,"ov":591,"ember":592,"ool":593,".Ġi":594,"arg":595,"view":596,".Ġs":597,"ersĠ":598,"Ġres":599,"ĠalsoĠ":600,"lik":601,"rem":602,"ĠtoĠs":603,"help":604,"ning":605,"antĠ":606,"to":607,"youĠcan":608,"plac":609,"e,":610,"tion":611,"yst":612,"Ġle":613,"when":614,"ealth":615,"af":616,"ata":617,"sĠareĠ":618,"Ġadd":619,"eĠfor":620,"formation":621,"io":622,"pres":623,"eĠisĠ":624,"Ġthrough":625,"row":626,"eĠto":627,"cal":628,"ĠaĠp":629,"edĠwith":630,"ure":631,"Ġun":632,"ingĠtheĠ":633,"tain":634,"y.Ġ":635,"he":636,"ian":637,"ric":638,"ĠaĠb":639,"Ġne":640,"ĠitĠ":641,"ĠaĠc":642,"ection":643,"stĠ":644,"ton":645,"ingĠin":646,"lin":647,"Ġthes":648,"ener":649,"la":650,"ater":651,"eĠf":652,"ĠaĠf":653,"ank":654,"go":655,"ingĠtoĠ":656,"ousĠ":657,"ĠtheyĠ":658,"bo":659,"pa":660,"ys":661,"sĠon":662,"Ġsc":663,"ĠaboutĠ":664,"well":665,"gr":666,"ll":667,"Ġis":668,"ision":669,"so":670,"ual":671,"esĠandĠ":672,"Ġbe":673,"ĠtoĠtheĠ":674,"Ġacc":675,"day":676,"room":677,"Ġstud":678,"provid":679,"even":680,"jo":681,"rit":682,"inter":683,"ood":684,"gram":685,"ck":686,"eĠw":687,"ed.Ġ":688,"yĠm":689,"eop":690,"pre":691,"ans":692,"sc":693,"ingĠm":694,"ild":695,").":696,"fic":697,"min":698,"eĠwith":699,"elyĠ":700,"Ġappl":701,"ĠaĠm":702,"enter":703,"usin":704,"urn":705,"ystem":706,"usĠ":707,"Ġe":708,"ĠtheĠw":709,"hasĠ":710,"ission":711,"don":712,"iet":713,"ardĠ":714,"astĠ":715,"edĠfor":716,"Ġafter":717,"aus":718,"eĠyou":719,"ĠaĠg":720,"reg":721,"omeĠ":722,"perienc":723,"mon":724,"aryĠ":725,"Ġcont":726,"but":727,"ĠanĠ":728,".ĠthisĠ":729,"eh":730,"lic":731,"ean":732,"par":733,"sid":734,",Ġand":735,"br":736,"gan":737,"ry":738,"Ġnew":739,"sĠwith":740,"edĠon":741,"ott":742,"e-":743,"ary":744,"olle":745,"oundĠ":746,"Ġass":747,"ustom":748,"ient":749,"eĠh":750,"ĠtheĠh":751,"look":752,"whoĠ":753,"eĠon":754,"ĠaĠd":755,"âĢĻtĠ":756,"produ":757,"ship":758,"ke":759,"ing,Ġ":760,"und":761,"eth":762,"ren":763,"Ġ*":764,"Ġtw":765,"Ġther":766,"reen":767,"esĠof":768,"ular":769,",ĠtheĠ":770,"are":771,"oup":772,"ingĠc":773,"ingĠp":774,"yĠb":775,"isc":776,"sĠand":777,"esign":778,"eli":779,"Ġcomp":780,"eopleĠ":781,"Ġthen":782,"endĠ":783,"ident":784,"know":785,"lish":786,"sib":787,",Ġm":788,"utĠ":789,"Ġatt":790,"iat":791,"itch":792,"olut":793,"ower":794,"edĠby":795,"get":796,"ix":797,"son":798,"edĠto":799,"âĢĵ":800,"200":801,"arket":802,"fir":803,"chool":804,"eĠthatĠ":805,"includ":806,"Ġper":807,"Ġwork":808,"Ġmor":809,"Ġher":810,"itsĠ":811,"ing.Ġ":812,"iffer":813,"whatĠ":814,"10":815,"wereĠ":816,"elop":817,"stor":818,"ecial":819,"ageĠ":820,"riv":821,"sit":822,"Ġthis":823,"ĠwasĠ":824,"evelop":825,"Ġup":826,"ĠaĠl":827,"los":828,"ally":829,"ik":830,"noĠ":831,"ug":832,"requ":833,"ingĠd":834,"yĠd":835,"ession":836,"co":837,"ner":838,"ingĠandĠ":839,"ingĠb":840,"ros":841,"ational":842,"se":843,"Ġyear":844,".Ġm":845,"Ġgr":846,"Ġcomm":847,"Ġthos":848,"amp":849,"ific":850,"earch":851,"fin":852,"reatĠ":853,"read":854,"ath":855,"edĠandĠ":856,"ash":857,"open":858,"fect":859,"inĠtheĠ":860,"orl":861,"Ġse":862,"ital":863,"icleĠ":864,"ement":865,"ĠofĠ":866,"ĠofĠtheĠ":867,"compan":868,"bl":869,"atedĠ":870,"ĠanyĠ":871,"ĠhasĠ":872,"ectĠ":873,"Ġwhich":874,"every":875,"edĠbyĠ":876,"cer":877,"fe":878,"getĠ":879,"ivers":880,"vel":881,"Ġqu":882,"ator":883,"ureĠ":884,"ours":885,"aut":886,"gu":887,"vis":888,"yĠandĠ":889,"Ġsom":890,"itĠisĠ":891,"Ġapp":892,"'tĠ":893,"ioĠ":894,"Ġhigh":895,"whil":896,"land":897,"anĠ":898,"Ġhow":899,"econ":900,"iqu":901,"ting":902,"wouldĠ":903,"sĠd":904,"atch":905,"Ġreg":906,"Ġart":907,"uman":908,"olution":909,"):":910,"bec":911,"sĠm":912,"es.":913,"ed,Ġ":914,"Ġmon":915,"Ġinter":916,"ject":917,"otĠ":918,"yp":919,"ret":920,"stru":921,"oldĠ":922,"ollow":923,"rac":924,"hap":925,"Ġav":926,"Ġthink":927,"ĠtheĠn":928,".Ġh":929,"Ġdo":930,"veĠth":931,"pleas":932,"Ġtech":933,"justĠ":934,"ward":935,"inv":936,"oneĠof":937,"Ġpr":938,"ĠtoĠd":939,"emp":940,"plet":941,"Ġapplication":942,"eet":943,"e.ĠtheĠ":944,"fl":945,"mission":946,"sĠthatĠ":947,"s.ĠtheĠ":948,"val":949,"ĠmyĠ":950,"ĠtoĠbeĠ":951,"under":952,"ementĠ":953,"byĠ":954,"ey":955,"ron":956,"rist":957,"Ġy":958,"Ġact":959,"old":960,"experienc":961,"ingĠfor":962,"ump":963,"12":964,"iel":965,"oint":966,"ctor":967,"able":968,"resp":969,"cor":970,"equ":971,"sĠfrom":972,"anceĠ":973,"high":974,"med":975,"sĠto":976,"ĠaĠw":977,"artĠ":978,"rag":979,"unction":980,"...":981,"15":982,"a,Ġ":983,"fac":984,"eĠl":985,"inĠ":986,"stat":987,"vert":988,"veryĠ":989,"Ġrel":990,"ounc":991,"usiness":992,"dition":993,"fre":994,"ineĠ":995,"ĠtheĠpro":996,"Ġservic":997,".Ġd":998,"etter":999,"exp":1000,"Ġthey":1001,"artic":1002,"ityĠof":1003,"present":1004,"ganiz":1005,"ble":1006,"oic":1007,"ration":1008,"ativeĠ":1009,",Ġc":1010,"ract":1011,"umber":1012,"pert":1013,"app":1014,"issu":1015,"Ġagain":1016,".c":1017,"az":1018,"ether":1019,"ryĠ":1020,"chang":1021,"urch":1022,"Ġrem":1023,"eĠsh":1024,"Ġabout":1025,"Ġplan":1026,"was":1027,"ym":1028,"arm":1029,"Ġcl":1030,"Ġhealth":1031,"ameĠ":1032,"ingĠon":1033,"person":1034,"ailableĠ":1035,"keep":1036,"bas":1037,"sĠor":1038,"reas":1039,"ities":1040,"Ġhe":1041,"let":1042,"Ġdon":1043,"Ġdata":1044,"Ġfin":1045,"import":1046,"actĠ":1047,"199":1048,"self":1049,"14":1050,"aidĠ":1051,"cur":1052,"s,ĠandĠ":1053,"tim":1054,"Ġ-":1055,"Ġover":1056,"ali":1057,".ĠifĠyou":1058,"ĠwouldĠ":1059,"imp":1060,"whereĠ":1061,"play":1062,"ress":1063,",âĢĿ":1064,"vent":1065,"ĠsoĠ":1066,",ĠbutĠ":1067,"Ġman":1068,"Ġmed":1069,"ide":1070,"rad":1071,"ifi":1072,"Ġalso":1073,"ĠasĠwell":1074,"week":1075,"uf":1076,"eĠand":1077,"sĠc":1078,"atur":1079,"Ġany":1080,"istĠ":1081,"ster":1082,"Ġbo":1083,"lear":1084,"amil":1085,"ull":1086,"eck":1087,"erson":1088,"myĠ":1089,"mall":1090,"som":1091,"Ġother":1092,"eĠyour":1093,"inu":1094,"sĠb":1095,"alk":1096,",Ġor":1097,"ofession":1098,"ĠmayĠ":1099,"eter":1100,"option":1101,"ould":1102,"aster":1103,"commun":1104,"ech":1105,"orth":1106,"elev":1107,"ĠweĠ":1108,"rol":1109,"need":1110,"oper":1111,"ock":1112,":Ġ":1113,"each":1114,"health":1115,"Ġthank":1116,"rel":1117,",Ġd":1118,",Ġyou":1119,"ĠandĠd":1120,"ely":1121,"edd":1122,"Ġwant":1123,"lead":1124,"loc":1125,"Ġrec":1126,"ĠatĠtheĠ":1127,"Ġknow":1128,"ittleĠ":1129,"much":1130,"uter":1131,"information":1132,"onĠ":1133,"ather":1134,"ingĠh":1135,"Ġwe":1136,"road":1137,"Ġmak":1138,"ask":1139,"eĠsp":1140,"ween":1141,"manag":1142,"ĠtwoĠ":1143,"eyĠ":1144,"ium":1145,"reĠ":1146,"Ġout":1147,"onlyĠ":1148,"ingĠa":1149,"edĠs":1150,"tern":1151,"Ġwhen":1152,"willĠb":1153,"iousĠ":1154,"mer":1155,"veh":1156,"war":1157,"dĠof":1158,"edĠtheĠ":1159,"stud":1160,"lean":1161,"oll":1162,"ĠinĠ":1163,"impl":1164,"esĠin":1165,"unt":1166,"unch":1167,"befor":1168,"duc":1169,"Ġprogram":1170,"web":1171,"aff":1172,"ah":1173,"aĠ":1174,"air":1175,"ures":1176,".Ġin":1177,"etween":1178,"âĢĺ":1179,"Ġint":1180,"ext":1181,"plan":1182,"ept":1183,"ountyĠc":1184,"Ġtrans":1185,"ifferentĠ":1186,"ouncil":1187,"elevision":1188,"ger":1189,"hisĠ":1190,"mad":1191,"ral":1192,"rent":1193,"rid":1194,"ven":1195,"on-":1196,"Ġhelp":1197,"uccess":1198,".ĠthereĠ":1199,"30":1200,"dayĠ":1201,"mayĠ":1202,"ingĠof":1203,".Ġc":1204,".Ġyou":1205,".ĠweĠ":1206,",Ġi":1207,",Ġw":1208,"stand":1209,"ĠtoĠc":1210,"Ġtop":1211,"imple":1212,"abil":1213,"complet":1214,"oog":1215,"however":1216,"eneral":1217,"ofessional":1218,"18":1219,"long":1220,"eĠg":1221,"Ġthan":1222,"sĠ(":1223,"itor":1224,"ioni":1225,"Ġallow":1226,"estion":1227,"Ġcompan":1228,"orld":1229,"blem":1230,"dec":1231,"just":1232,"lif":1233,"eĠor":1234,"eĠfrom":1235,"Ġthough":1236,"att":1237,".Ġb":1238,"Ġcar":1239,"elect":1240,"Ġdis":1241,"âĢĶ":1242,"irstĠ":1243,"ĠandĠtheĠ":1244,"ĠshouldĠ":1245,"nolog":1246,"lower":1247,"vide":1248,"olleg":1249,"au":1250,"hom":1251,"has":1252,"var":1253,"Ġsup":1254,"itiesĠ":1255,"ingĠto":1256,"eĠsur":1257,"event":1258,"rip":1259,"eĠcan":1260,"ĠtheseĠ":1261,"sibleĠ":1262,"'s":1263,"aper":1264,"e!":1265,"mostĠ":1266,"rightĠ":1267,"uallyĠ":1268,"wayĠ":1269,"yĠtoĠ":1270,"erc":1271,"ort":1272,"atient":1273,".ĠitĠ":1274,"rop":1275,"olor":1276,"ram":1277,"Ġgu":1278,"Ġget":1279,"nex":1280,"exc":1281,"program":1282,"qual":1283,"perform":1284,"graph":1285,"Ġaddition":1286,"respon":1287,"eak":1288,"giv":1289,"list":1290,"vir":1291,"enjo":1292,"ingĠf":1293,",Ġp":1294,"ĠandĠf":1295,"educ":1296,"str":1297,"Ġmill":1298,"Ġday":1299,"ationĠof":1300,"Ġind":1301,"Ġstat":1302,"cons":1303,"riend":1304,"willĠbeĠ":1305,"e,ĠandĠ":1306,"oveĠ":1307,"run":1308,"ten":1309,"uk":1310,"Ġtelevision":1311,"sĠyou":1312,"atter":1313,"ingĠwith":1314,".Ġw":1315,"esĠtoĠ":1316,"Ġperson":1317,"Ġmin":1318,"epend":1319,"ĠaĠlo":1320,"Ġteam":1321,"happ":1322,"aj":1323,"ax":1324,"car":1325,"ier":1326,"les":1327,"ness":1328,"sm":1329,"sĠp":1330,"err":1331,"Ġanal":1332,",Ġh":1333,"off":1334,"ĠandĠp":1335,"Ġmarket":1336,"email":1337,"iful":1338,"ourc":1339,"âĢĻs":1340,"odel":1341,"Ġadv":1342,"everyĠ":1343,"Ġappro":1344,"Ġeach":1345,"ustomer":1346,"Ġgroup":1347,"light":1348,"mal":1349,"nâĢĻtĠ":1350,"s,Ġs":1351,"ream":1352,"Ġsit":1353,",Ġin":1354,"ict":1355,"Ġph":1356,"Ġweb":1357,"ĠhisĠ":1358,"Ġfil":1359,"ecur":1360,"Ġstor":1361,"ĠnotĠ":1362,"pric":1363,"haveĠa":1364,"indleĠ":1365,"autiful":1366,"umpster":1367,"13":1368,"odĠ":1369,"wel":1370,"Ġturn":1371,"rea":1372,"Ġso":1373,"Ġanton":1374,"yĠp":1375,"fort":1376,"Ġhom":1377,"olic":1378,"Ġlif":1379,"eĠofĠtheĠ":1380,"eventĠ":1381,"Ġask":1382,"Ġaccess":1383,"Ġspecial":1384,"Ġcommun":1385,"valu":1386,"80":1387,"kin":1388,"nam":1389,"rang":1390,"ĠisĠa":1391,"ĠaĠh":1392,"ĠaĠre":1393,"ingĠyour":1394,"Ġpar":1395,"ush":1396,"Ġalway":1397,"what":1398,"ublic":1399,"product":1400,"itchen":1401,"require":1402,"oogleĠ":1403,"by":1404,"di":1405,"fil":1406,"want":1407,"redĠ":1408,"iteĠ":1409,"ideĠ":1410,"ecess":1411,"ivid":1412,"Ġlik":1413,"ĠforĠtheĠ":1414,"ĠtheĠsam":1415,"s>Ġ<s>Ġ":1416,"effect":1417,"ĠtheĠmostĠ":1418,"Ġplac":1419,"rateg":1420,"rece":1421,"Ġtrain":1422,"iolog":1423,"usinessĠ":1424,"hasĠbeen":1425,"vertis":1426,".Ġst":1427,"uper":1428,"Ġaut":1429,"Ġsign":1430,",Ġf":1431,"esĠon":1432,"overn":1433,"ĠitsĠ":1434,"Ġstudent":1435,"Ġtechnolog":1436,"Ġrelation":1437,"blo":1438,"count":1439,"dis":1440,"e:":1441,"e?":1442,"right":1443,"vol":1444,"Ġown":1445,"ĠaĠn":1446,"alĠ":1447,",Ġwhich":1448,"offer":1449,"edĠm":1450,"ĠbyĠ":1451,"Ġbusiness":1452,"Ġmember":1453,"Ġhuman":1454,"leas":1455,"ĠinĠtheĠ":1456,"âĢĻll":1457,"resh":1458,"ĠsheĠ":1459,"Ġshow":1460,"duct":1461,"ottish":1462,"ross":1463,"urchas":1464,"-s":1465,"back":1466,"wer":1467,"eĠ(":1468,"Ġtyp":1469,"sĠcan":1470,".ĠyouĠcan":1471,"ĠandĠc":1472,"leg":1473,"etail":1474,"univers":1475,"Ġrequ":1476,"Ġaround":1477,"alleng":1478,"ounsel":1479,"ĠaĠnew":1480,"into":1481,"ĠjustĠ":1482,"198":1483,"uchĠasĠ":1484,"Ġlook":1485,"ordin":1486,"head":1487,"ildren":1488,"ĠthoseĠ":1489,"ountyĠcouncil":1490,"aw":1491,"bor":1492,"book":1493,"doĠ":1494,"design":1495,"iation":1496,"net":1497,"og":1498,"put":1499,"eĠitĠ":1500,"eric":1501,"ann":1502,"Ġschool":1503,"ĠanĠex":1504,"Ġanother":1505,",Ġwith":1506,"elow":1507,"Ġbl":1508,"Ġby":1509,"Ġbas":1510,"esĠfor":1511,"ĠofĠs":1512,"Ġalong":1513,"eliver":1514,"becaus":1515,"!Ġi":1516,"16":1517,"green":1518,"hand":1519,"oin":1520,"ris":1521,"y.":1522,"Ġif":1523,".Ġp":1524,"esĠthatĠ":1525,"ister":1526,"icesĠ":1527,"Ġpart":1528,"Ġwas":1529,"Ġbu":1530,"Ġdef":1531,"Ġfe":1532,"pris":1533,"print":1534,"sider":1535,"firstĠ":1536,"articip":1537,"!!":1538,"national":1539,"olog":1540,"tt":1541,"voic":1542,"eĠad":1543,"Ġtru":1544,"inst":1545,",Ġg":1546,",ĠweĠ":1547,"Ġpre":1548,"edĠc":1549,"check":1550,"ĠdoĠ":1551,"Ġstart":1552,"eĠthan":1553,"ensur":1554,"ublish":1555,"196":1556,"vehicleĠ":1557,"'veĠ":1558,"11":1559,"ez":1560,"pt":1561,"eĠis":1562,"ins":1563,"ination":1564,"Ġthing":1565,"onc":1566,"organiz":1567,"ouch":1568,"rest":1569,"reallyĠ":1570,",Ġb":1571,"esĠareĠ":1572,"ĠpeopleĠ":1573,"Ġbr":1574,"Ġdec":1575,"ett":1576,"Ġtoday":1577,"imag":1578,"impro":1579,"esĠwith":1580,"hadĠ":1581,"eĠtim":1582,"istration":1583,"anceĠof":1584,"dust":1585,"Ġorder":1586,"portĠ":1587,"outĠof":1588,"Ġexperienc":1589,"spect":1590,"irect":1591,"uck":1592,"full":1593,"Ġantonioni":1594,"100":1595,"24":1596,"call":1597,"eer":1598,"pay":1599,"Ġo":1600,"eĠan":1601,"inal":1602,"ert":1603,"ingĠfrom":1604,".Ġfor":1605,"esp":1606,"oft":1607,"eleb":1608,"theĠ":1609,"edg":1610,"edĠd":1611,"roll":1612,"usic":1613,"olid":1614,"Ġinst":1615,"ulation":1616,"ecific":1617,"ĠonĠtheĠ":1618,"control":1619,"aur":1620,"creat":1621,"eir":1622,"feat":1623,"follow":1624,"ior":1625,"ientĠ":1626,"mark":1627,"sĠthat":1628,"Ġen":1629,"Ġau":1630,"Ġsystem":1631,"es,":1632,"ism":1633,"stateĠ":1634,"christ":1635,"Ġhour":1636,"idenc":1637,"Ġinformation":1638,"ification":1639,"opport":1640,"question":1641,"conf":1642,"Ġnot":1643,"apt":1644,"redit":1645,"produc":1646,"websit":1647,"nextĠ":1648,"education":1649,"opportun":1650,"50":1651,"eeĠ":1652,"gether":1653,"witch":1654,"Ġ&":1655,"onĠtheĠ":1656,"enef":1657,"report":1658,"Ġsal":1659,"Ġset":1660,"ated":1661,"edĠp":1662,"edĠfrom":1663,"Ġbetter":1664,"loy":1665,"imm":1666,"amag":1667,"ecom":1668,"process":1669,"hav":1670,"istor":1671,"ĠasĠtheĠ":1672,"ĠwhatĠ":1673,"ableĠtoĠ":1674,"ĠhaveĠa":1675,"eason":1676,"Ġneed":1677,"ĠaĠfew":1678,"Ġmedia":1679,"ĠasĠwellĠasĠ":1680,"ividual":1681,",Ġt":1682,"eep":1683,"kitchen":1684,"oos":1685,"rim":1686,"only":1687,"ordĠ":1688,"thor":1689,"ed.":1690,"Ġmic":1691,"ĠtoĠm":1692,"level":1693,"research":1694,"ĠthatĠyou":1695,"sĠofĠtheĠ":1696,"arden":1697,"Ġcons":1698,"phys":1699,"continu":1700,"obil":1701,"000":1702,"Ġyork":1703,"uccessful":1704,"Ġmillion":1705,"-f":1706,"40":1707,"bur":1708,"hon":1709,"na":1710,"ww":1711,"win":1712,"rew":1713,"reak":1714,"ating":1715,".Ġif":1716,"icle":1717,"Ġco":1718,"ĠbutĠ":1719,"Ġhas":1720,"uring":1721,"igital":1722,"ĠyouĠcan":1723,"ĠgoodĠ":1724,"wher":1725,"eĠthat":1726,"eĠthisĠ":1727,"result":1728,"eĠofĠ":1729,"Ġprovid":1730,"shouldĠ":1731,"Ġspac":1732,"ibleĠ":1733,"version":1734,"everyth":1735,"Ġwebsit":1736,"bin":1737,"cas":1738,"ft":1739,"fectĠ":1740,"giveĠ":1741,"iallyĠ":1742,"ograph":1743,"putĠ":1744,"rentĠ":1745,"riveĠ":1746,"sur":1747,"water":1748,"order":1749,"Ġser":1750,"itedĠ":1751,"itâĢĻsĠ":1752,"forĠtheĠ":1753,"ĠtoĠre":1754,"letĠ":1755,"local":1756,"urther":1757,"rain":1758,"irl":1759,"ĠgetĠ":1760,"eĠtheĠs":1761,"otion":1762,"consider":1763,"eĠofĠc":1764,"river":1765,"ĠwhoĠ":1766,"build":1767,"haveĠbeen":1768,"indow":1769,"ĠwillĠb":1770,"group":1771,"aryĠa":1772,"iscus":1773,"econd":1774,"pleaseĠ":1775,"ĠthankĠyou":1776,"ajor":1777,"'ll":1778,")Ġ":1779,",Ġa":1780,".\"":1781,"aid":1782,"gl":1783,"job":1784,"lessĠ":1785,"sup":1786,"Ġtri":1787,"org":1788,"Ġsub":1789,"ativ":1790,".Ġf":1791,",Ġn":1792,"esc":1793,"ĠcouldĠ":1794,"Ġcount":1795,"ĠandĠm":1796,"elo":1797,"chi":1798,"Ġmar":1799,"load":1800,"using":1801,"urs":1802,"Ġfre":1803,"olish":1804,"irc":1805,"Ġret":1806,"ĠareĠs":1807,"opp":1808,"abor":1809,"appl":1810,"beĠa":1811,"click":1812,"Ġprocess":1813,"Ġchrist":1814,"manyĠ":1815,"ensiveĠ":1816,"Ġjust":1817,"ĠwillĠbeĠ":1818,"ĠtimeĠ":1819,"moreĠ":1820,"emberĠ":1821,"rown":1822,"Ġscienc":1823,"ietaryĠa":1824,"etermin":1825,"viron":1826,"Ġpersonal":1827,"-c":1828,"bal":1829,"cessĠ":1830,"fill":1831,"gi":1832,"goodĠ":1833,"Ġter":1834,"Ġarea":1835,"review":1836,"itut":1837,"itiveĠ":1838,"ing.":1839,".Ġour":1840,"arter":1841,"ician":1842,"ĠandĠh":1843,"election":1844,"Ġinclud":1845,"Ġoffer":1846,"util":1847,"âĢĻveĠ":1848,"ressĠ":1849,"e.Ġi":1850,"ĠnoĠ":1851,"ĠasĠa":1852,"priv":1853,",ĠsoĠ":1854,"ebook":1855,"Ġunder":1856,"whileĠ":1857,"Ġtechn":1858,"Ġweek":1859,"17":1860,"eveĠ":1861,"gin":1862,"kill":1863,"liv":1864,"met":1865,"necess":1866,"s?":1867,"sĠa":1868,"sĠtheĠ":1869,"writ":1870,"Ġthre":1871,"ondon":1872,"Ġsur":1873,"item":1874,"ingleĠ":1875,"Ġann":1876,"esĠtheĠ":1877,"esĠto":1878,"forĠ":1879,"ed,":1880,"ĠwereĠ":1881,"rok":1882,"ched":1883,"ĠtoĠb":1884,"ĠtoĠmak":1885,"Ġdi":1886,"identĠ":1887,"atĠs":1888,"ecaus":1889,"Ġstrateg":1890,"nect":1891,"prot":1892,"aintain":1893,"prof":1894,"ichel":1895,"ocial":1896,"ĠtheĠfirstĠ":1897,"contain":1898,"commend":1899,"inceĠ":1900,"afet":1901,"aterial":1902,"both":1903,"Ġaccord":1904,"Ġthere":1905,"until":1906,"ridg":1907,"ĠalwaysĠ":1908,"-p":1909,"32":1910,"65":1911,"data":1912,"post":1913,"wa":1914,"y,":1915,"sĠisĠ":1916,"sĠwill":1917,"erg":1918,"orm":1919,"atesĠ":1920,"itation":1921,"yĠwith":1922,"es,ĠandĠ":1923,"offe":1924,"ential":1925,"raw":1926,"Ġoffic":1927,"ĠgreatĠ":1928,"ourt":1929,"ingĠup":1930,"ummer":1931,".ĠtheĠc":1932,"shop":1933,"everal":1934,"Ġexam":1935,"irector":1936,"ĠtheĠtim":1937,"Ġteach":1938,"orldĠ":1939,"ĠavailableĠ":1940,"employ":1941,"Ġactiv":1942,"umberĠof":1943,"personal":1944,"atural":1945,"eddingĠ":1946,"videoĠ":1947,"ĠalongĠwith":1948,"Ġauthor":1949,"bar":1950,"bleĠ":1951,"de":1952,"def":1953,"hn":1954,"hous":1955,"lim":1956,"link":1957,"larg":1958,"masĠ":1959,"prom":1960,"puter":1961,"s:":1962,"yt":1963,"Ġ\"":1964,"Ġro":1965,"ĠâĢľ":1966,"Ġtreat":1967,"init":1968,"ern":1969,"er,Ġ":1970,"real":1971,"reateĠ":1972,"yĠin":1973,"alu":1974,"isĠtheĠ":1975,"ildĠ":1976,"still":1977,"ental":1978,"Ġdevelop":1979,"eton":1980,"etic":1981,"urpos":1982,"Ġinv":1983,"ify":1984,"Ġaltern":1985,"ingĠisĠ":1986,"osp":1987,"âĢĻreĠ":1988,"entĠin":1989,"resident":1990,"sĠinĠtheĠ":1991,"Ġproduct":1992,"ferenc":1993,"intoĠ":1994,"eful":1995,"e.ĠthisĠ":1996,"Ġveh":1997,"contactĠ":1998,"Ġplay":1999,"Ġamaz":2000,"mentĠof":2001,"ĠtheĠworld":2002,"Ġassist":2003,"Ġassoc":2004,"feel":2005,".cĠ(":2006,"impleĠ":2007,"Ġboth":2008,"enjoy":2009,"ecomputer":2010,"vironment":2011,"25":2012,"great":2013,"hel":2014,"ii":2015,"ious":2016,"nia":2017,"ovi":2018,"s!":2019,"yn":2020,"erĠ":2021,"ref":2022,"represent":2023,"alsoĠ":2024,".ĠâĢľ":2025,"esĠand":2026,"iseĠ":2027,"Ġcounsel":2028,"Ġcredit":2029,"thrit":2030,"fornia":2031,"challeng":2032,"rap":2033,"raph":2034,"ĠyouĠareĠ":2035,"irst":2036,"Ġgo":2037,"ultĠ":2038,"ingĠroom":2039,"quick":2040,"ipp":2041,"Ġwhil":2042,"shall":2043,"angelo":2044,"ĠtheĠbestĠ":2045,"canĠbeĠ":2046,"egre":2047,"Ġameric":2048,"Ġresearch":2049,"ĠneedĠtoĠ":2050,"ietyĠof":2051,"partĠof":2052,"ollect":2053,"ethod":2054,"guid":2055,"struct":2056,"ield":2057,"ĠtheyĠareĠ":2058,"articular":2059,"important":2060,"given":2061,"receiv":2062,"-in":2063,".Ġa":2064,"big":2065,"del":2066,"develop":2067,"eam":2068,"googleĠ":2069,"hol":2070,"hear":2071,"ianc":2072,"iateĠ":2073,"kindleĠ":2074,"lit":2075,"o.Ġ":2076,"oak":2077,"peopleĠ":2078,"ĠifĠyou":2079,"Ġeven":2080,"Ġten":2081,"sĠwereĠ":2082,"ĠsaidĠ":2083,"atestĠ":2084,"yĠisĠ":2085,",ĠitĠ":2086,"essĠof":2087,"iceĠ":2088,"Ġcall":2089,"Ġcours":2090,"ility":2091,"forc":2092,"Ġpatient":2093,"edĠup":2094,"Ġback":2095,"loveĠ":2096,"ĠfoodĠ":2097,"uniqu":2098,"who":2099,"eĠthem":2100,"ablish":2101,"ĠforĠ":2102,"Ġnow":2103,"being":2104,"beautiful":2105,"establish":2106,"ĠaddĠ":2107,"newĠyork":2108,"via":2109,"phot":2110,"possibleĠ":2111,"ength":2112,"english":2113,"Ġcontinu":2114,"Ġtherap":2115,"ieldĠ":2116,"Ġdon'tĠ":2117,"communityĠ":2118,"operation":2119,"Ġanalys":2120,"ordinator":2121,"ointĠ":2122,"ichelangelo":2123,"'m":2124,"cottish":2125,"down":2126,"ftĠ":2127,"less":2128,"mos":2129,"ox":2130,"ps":2131,"rong":2132,"sch":2133,"yc":2134,"Ã©":2135,"Ġel":2136,"ĠâĢĵ":2137,"eĠup":2138,"it.Ġ":2139,"it'sĠ":2140,"ing,":2141,"ingĠg":2142,"ingĠthatĠ":2143,"isit":2144,"Ġcell":2145,"ilar":2146,"edĠthatĠ":2147,"Ġpres":2148,"start":2149,"ĠbioĠ":2150,"Ġme":2151,"ĠtoĠyour":2152,"lov":2153,"ĠinĠs":2154,"imilar":2155,"ray":2156,"ĠofĠyour":2157,"ĠaroundĠ":2158,"eĠtheir":2159,"problem":2160,"Ġlist":2161,"epart":2162,"ĠtheĠcount":2163,"eĠmor":2164,"lyĠs":2165,"Ġchang":2166,"assion":2167,"ultur":2168,"remium":2169,"press":2170,"board":2171,"month":2172,"Ġtwo":2173,"ĠarticleĠ":2174,"struction":2175,"invest":2176,"Ġprofessional":2177,"flu":2178,"ĠfindĠ":2179,"error":2180,"Ġfilm":2181,"welcom":2182,"Ġrequire":2183,"den":2184,"found":2185,"gener":2186,"jun":2187,"jectĠ":2188,"oid":2189,"pop":2190,"power":2191,"ranc":2192,"sĠlik":2193,"enu":2194,"reach":2195,"ingĠt":2196,"ofĠ":2197,"Ġpos":2198,"edĠg":2199,"Ġhop":2200,"Ġhand":2201,"entlyĠ":2202,"lex":2203,"etim":2204,"ĠintoĠ":2205,"Ġstand":2206,"withĠtheĠ":2207,"abl":2208,"âĢĻm":2209,"Ġlong":2210,"concer":2211,".ĠtheĠs":2212,"earn":2213,"evidenc":2214,"ector":2215,"ĠtheĠsh":2216,"Ġshall":2217,"rib":2218,"rior":2219,"ribut":2220,"sĠandĠs":2221,"Ġchildren":2222,"Ġext":2223,"ity,Ġ":2224,"ĠtakeĠa":2225,"lineĠ":2226,"energ":2227,"Ġaccount":2228,"entertain":2229,"brid":2230,"known":2231,"Ġattend":2232,"first":2233,"Ġsome":2234,"alifornia":2235,"learn":2236,"Ġminut":2237,"bloodĠ":2238,"atĠsink":2239,".h":2240,".com":2241,"34":2242,"een":2243,"e,Ġs":2244,"friend":2245,"lor":2246,"lastĠ":2247,"market":2248,"matter":2249,"nal":2250,"s)":2251,"sĠatĠ":2252,"ually":2253,"wn":2254,"woĠ":2255,"xĠ":2256,"eĠit":2257,"ĠaĠt":2258,"sĠwhoĠ":2259,"ors":2260,"outh":2261,"recommend":2262,"Ġsection":2263,"atingĠ":2264,"ingĠw":2265,"ingĠyou":2266,"ingĠtheir":2267,"yĠfor":2268,"alt":2269,"elf":2270,"rob":2271,"ĠtoĠhelp":2272,"Ġhous":2273,"Ġdown":2274,"Ġdesign":2275,"ither":2276,"Ġinto":2277,"Ġoff":2278,"acc":2279,"ecut":2280,"needĠtoĠ":2281,"Ġliv":2282,"ument":2283,"ĠthatĠisĠ":2284,"e.ĠweĠ":2285,"eption":2286,"ĠwithĠtheĠ":2287,"professional":2288,"Ġadvertis":2289,"Ġorganiz":2290,"Ġwhat":2291,"Ġcondition":2292,"ocus":2293,"izedĠ":2294,"Ġexc":2295,"Ġexp":2296,"special":2297,"commission":2298,"ĠhaveĠtoĠ":2299,"compet":2300,"Ġtry":2301,"Ġlocal":2302,"ĠtoĠse":2303,"eĠtoĠtheĠ":2304,"join":2305,"donâĢĻtĠ":2306,"edĠbyĠtheĠ":2307,"Ġperform":2308,"ĠaĠlittleĠ":2309,"ĠhasĠbeen":2310,"econom":2311,"becom":2312,"Ġmonth":2313,"return":2314,"Ġplanning":2315,"importantĠ":2316,"uff":2317,"location":2318,"student":2319,"implement":2320,"varietyĠof":2321,"espec":2322,"iscuss":2323,"-t":2324,"-up":2325,"480":2326,"60":2327,"a.Ġ":2328,"cours":2329,"ead":2330,"far":2331,"function":2332,"iĠam":2333,"nessĠ":2334,"pi":2335,"uit":2336,"wid":2337,"yĠto":2338,"Ġz":2339,"Ġachi":2340,"onder":2341,"ourag":2342,",ĠâĢľ":2343,",Ġbut":2344,"omen":2345,"ĠandĠb":2346,"elin":2347,"ellow":2348,"ed.ĠtheĠ":2349,"edĠas":2350,"edroom":2351,"ston":2352,"step":2353,"rock":2354,"Ġbod":2355,"Ġbali":2356,"Ġmy":2357,"Ġmad":2358,"ention":2359,"Ġinc":2360,"imateĠ":2361,"Ġread":2362,"Ġarthrit":2363,"Ġsty":2364,"Ġstep":2365,"ĠstateĠ":2366,"eĠtheĠc":2367,"eĠtheĠb":2368,"eĠthanĠ":2369,"ĠandĠt":2370,"earlyĠ":2371,"ĠthisĠisĠ":2372,"ĠwithĠ":2373,"oulder":2374,"ender":2375,"ĠaĠv":2376,"Ġacross":2377,"ackag":2378,"Ġspecific":2379,"tĠofĠtheĠ":2380,"adĠof":2381,"ĠthereĠar":2382,"ĠthereĠareĠ":2383,"avor":2384,"Ġlevel":2385,"interest":2386,"rench":2387,"endĠof":2388,"ĠmoreĠ":2389,"Ġqual":2390,"wouldĠbeĠ":2391,"mediat":2392,"ability":2393,"voicecomputer":2394,"ichelangeloĠantonioni":2395,"Ġbaliy":2396,")ĠandĠ":2397,"-b":2398,".Ġsh":2399,".Ġall":2400,"714":2401,"din":2402,"dat":2403,"e;":2404,"fa":2405,"goĠ":2406,"got":2407,"jour":2408,"lu":2409,"london":2410,"map":2411,"member":2412,"part":2413,"ser":2414,"u.":2415,"Ã¼":2416,"Ġview":2417,"Ġtouch":2418,"Ġaud":2419,"ĠaĠcom":2420,"inĠs":2421,"sĠhaveĠ":2422,"ery":2423,"ertain":2424,"orig":2425,"environment":2426,"readĠ":2427,"Ġcor":2428,"Ġcas":2429,"Ġcreat":2430,"Ġcustomer":2431,"staff":2432,"Ġbut":2433,"ĠbusinessĠ":2434,"assĠ":2435,"ason":2436,"ĠhadĠ":2437,"Ġhapp":2438,"useĠ":2439,"user":2440,"Ġfac":2441,"igation":2442,"imat":2443,"imal":2444,"esĠs":2445,"esĠyou":2446,"unitedĠ":2447,"emb":2448,"emor":2449,"ampa":2450,"Ġstill":2451,"Ġstock":2452,"utr":2453,"plant":2454,"compl":2455,"eĠtr":2456,"connect":2457,"ĠthisĠs":2458,"istic":2459,"ĠonlyĠ":2460,"eĠco":2461,"duction":2462,"ĠorĠ":2463,"achĠbaliy":2464,"eĠinformation":2465,"eĠman":2466,"overĠ":2467,"buf":2468,"rug":2469,"iesĠandĠ":2470,"Ġspeak":2471,"edĠinĠtheĠ":2472,"committ":2473,"ĠtakeĠ":2474,"ĠloveĠ":2475,"possib":2476,"engag":2477,"Ġresist":2478,"goingĠtoĠ":2479,"ĠaĠgreatĠ":2480,"eanna":2481,"ixel":2482,"companyĠ":2483,"visit":2484,"eeting":2485,"ragon":2486,"roadc":2487,"planning":2488,"ĠhumanĠrelation":2489,"enefit":2490,"ietaryĠaid":2491,"eddingĠeventĠ":2492,"especiallyĠ":2493,"ampaign":2494,"'reĠ":2495,",Ġal":2496,"22":2497,"aim":2498,"bab":2499,"beli":2500,"eu":2501,"greatĠ":2502,"ham":2503,"littleĠ":2504,"mean":2505,"ror":2506,"eĠag":2507,"Ġtarg":2508,"Ġair":2509,"Ġaction":2510,"er.Ġ":2511,"ond":2512,"tĠs":2513,"organ":2514,"enough":2515,"oud":2516,"anu":2517,"Ġsm":2518,"atic":2519,".Ġwhen":2520,"arb":2521,"es.ĠtheĠ":2522,"ilt":2523,"youĠwill":2524,"ford":2525,"edĠasĠ":2526,"Ġpark":2527,"edĠher":2528,"Ġhill":2529,"lev":2530,"lot":2531,"Ġfollow":2532,"Ġfunction":2533,"Ġfamil":2534,"olv":2535,"older":2536,"ĠofĠp":2537,"Ġgreat":2538,"illag":2539,"whyĠ":2540,"whether":2541,"Ġstar":2542,"never":2543,"otton":2544,"otland":2545,"âĢĻt":2546,"quit":2547,"conc":2548,"aint":2549,"begin":2550,"sĠinĠ":2551,"clus":2552,"ĠorĠbetter":2553,"Ġprot":2554,"show":2555,"fromĠtheĠ":2556,"plex":2557,"ustral":2558,"ĠatĠle":2559,"Ġvar":2560,"grad":2561,"ĠkindleĠ":2562,"197":2563,"fullyĠ":2564,"posal":2565,"door":2566,"moreĠthan":2567,"incip":2568,"uredĠ":2569,"Ġbefor":2570,"company":2571,"Ġappoint":2572,"econdĠ":2573,"cordĠ":2574,"expect":2575,"Ġguid":2576,"Ġadditional":2577,"Ġapproach":2578,"Ġtechniqu":2579,"ospital":2580,"'t":2581,".,":2582,"clean":2583,"deliver":2584,"eveĠth":2585,"famil":2586,"gn":2587,"good":2588,"him":2589,"jam":2590,"ledg":2591,"ng":2592,"n'tĠ":2593,"oil":2594,"oot":2595,"pc":2596,"round":2597,"ritt":2598,"rank":2599,"vision":2600,"wear":2601,"word":2602,"Ġton":2603,"Ġtell":2604,"ership":2605,"ĠtheĠch":2606,"Ġsuch":2607,"ĠsomeĠ":2608,"ingĠthem":2609,"alf":2610,"offic":2611,"Ġcolor":2612,"oment":2613,"thatĠ":2614,"though":2615,"youĠareĠ":2616,"forĠyou":2617,"Ġway":2618,"star":2619,"edĠof":2620,"Ġmus":2621,"entir":2622,"Ġdist":2623,"ĠdifferentĠ":2624,"usp":2625,"urin":2626,"Ġtool":2627,"rais":2628,"amer":2629,"ift":2630,"Ġstaff":2631,"eĠtheĠd":2632,"ada":2633,"add":2634,"advertis":2635,"abas":2636,"aboutĠ":2637,"itĠc":2638,"eĠsom":2639,"condition":2640,"upport":2641,"evic":2642,"sĠofĠ":2643,"Ġshop":2644,"Ġadmin":2645,"Ġproject":2646,"Ġproblem":2647,"eĠmon":2648,"eĠdo":2649,"Ġabs":2650,"e.Ġs":2651,"phon":2652,"ervation":2653,"195":2654,"Ġamong":2655,"ĠthereĠisĠ":2656,"iesĠof":2657,"yĠofĠtheĠ":2658,"position":2659,"doesĠ":2660,"s,Ġand":2661,"remov":2662,"eople":2663,"enterpris":2664,"Ġ*Ġ":2665,"black":2666,"Ġregion":2667,"empt":2668,"Ġremov":2669,"Ġhead":2670,"idea":2671,"implyĠ":2672,"augh":2673,"ercis":2674,"malĠresist":2675,"ecurityĠ":2676,"ptom":2677,"aurant":2678,".ĠandĠ":2679,"21":2680,"better":2681,"disc":2682,"differentĠ":2683,"eel":2684,"eed":2685,"eâĢĻsĠ":2686,"gress":2687,"heĠ":2688,"hereĠ":2689,"lam":2690,"landĠ":2691,"liveĠ":2692,"ma":2693,"night":2694,"number":2695,"purchas":2696,"system":2697,"ured":2698,"wes":2699,"worth":2700,"yuk":2701,"inĠthisĠ":2702,"Ġthous":2703,"tĠon":2704,"anch":2705,"Ġsat":2706,"atform":2707,".Ġhowever":2708,"isod":2709,"Ġcal":2710,"Ġcustom":2711,"omain":2712,"edĠtoĠtheĠ":2713,"Ġpag":2714,"chr":2715,"chem":2716,"charg":2717,"Ġmet":2718,"ureĠandĠ":2719,"Ġfind":2720,"ĠtooĠ":2721,"Ġtook":2722,"Ġtoward":2723,"esĠfrom":2724,"leĠtoĠ":2725,"Ġarriv":2726,"whit":2727,"opy":2728,"otential":2729,"âĢĻr":2730,"resum":2731,"s.Ġi":2732,"Ġform":2733,"episod":2734,"anton":2735,"Ġshar":2736,"ancial":2737,"ellentĠ":2738,"nov":2739,"Ġpropert":2740,"achin":2741,"eĠmak":2742,"ocĠhumanĠrelation":2743,"haveĠtoĠ":2744,"weet":2745,"weightĠ":2746,"arketĠ":2747,"contentĠ":2748,"edĠinĠ":2749,"availableĠ":2750,"sĠforĠtheĠ":2751,"Ġlos":2752,"does":2753,"âĢĿ.":2754,"rather":2755,"record":2756,"Ġtrack":2757,"Ġunivers":2758,"law":2759,"oodn":2760,"ĠaĠgrad":2761,"regard":2762,"Ġnew.Ġ":2763,"ĠtheĠhigh":2764,"Ġ*Ġm":2765,"areer":2766,"requir":2767,"cohol":2768,"findĠ":2769,"ĠtheĠprocess":2770,"Ġagainst":2771,"ymptom":2772,"reason":2773,"Ġ--":2774,"Ġmanag":2775,"someth":2776,"extra":2777,"listen":2778,"ĠaĠlotĠof":2779,"effectiveĠ":2780,"annel":2781,"Ġblack":2782,"olidayĠ":2783,"utrition":2784,"ritten":2785,",ĠasĠ":2786,".Ġafter":2787,"//":2788,"://":2789,"dem":2790,"find":2791,"grow":2792,"hard":2793,"me":2794,"match":2795,"ring":2796,"r.Ġ":2797,"s-":2798,"vailableĠ":2799,"y-":2800,"eĠi":2801,"Ġtalk":2802,"oubl":2803,"anal":2804,"Ġsw":2805,"ateĠc":2806,"Ġant":2807,"Ġanimal":2808,".ĠbutĠ":2809,",Ġ(":2810,"ester":2811,"Ġcent":2812,"els":2813,"youĠhaveĠ":2814,"Ġport":2815,"ĠtoĠkeep":2816,"lec":2817,"leadĠ":2818,"lock":2819,"uringĠtheĠ":2820,"Ġfour":2821,"rack":2822,"ung":2823,"empl":2824,"ĠofĠin":2825,"Ġgd":2826,"Ġgam":2827,"Ġgrow":2828,"Ġgeneral":2829,"ulyĠ":2830,"withĠ":2831,"expl":2832,"ingĠitĠ":2833,"otel":2834,"oseĠ":2835,"Ġla":2836,"ooth":2837,"encourag":2838,"s,Ġc":2839,"e,Ġi":2840,"ĠoneĠ":2841,"ĠoneĠof":2842,"apital":2843,"thern":2844,"prim":2845,"occur":2846,"viol":2847,"individual":2848,"ableĠandĠ":2849,"eĠaf":2850,"Ġvide":2851,"iredĠ":2852,"ĠtheĠgplac":2853,"object":2854,"Ġtaken":2855,"sĠsuchĠasĠ":2856,"Ġresident":2857,"eĠforĠtheĠ":2858,"ĠtheyĠcan":2859,"ground":2860,"john":2861,"regular":2862,"Ġpermission":2863,"structor":2864,"invit":2865,"ĠaboutĠtheĠ":2866,"basedĠon":2867,"relation":2868,"ĠwantĠtoĠ":2869,"eĠspecial":2870,"mayĠbeĠ":2871,"ription":2872,"risk":2873,"eĠadmission":2874,"dustri":2875,"physical":2876,"ytic":2877,"achĠbaliyeĠ":2878,"!Ġ":2879,"45":2880,"bc":2881,"ci":2882,"ea":2883,"eum":2884,"eech":2885,"had":2886,"hib":2887,"human":2888,"kid":2889,"kind":2890,"o,Ġ":2891,"oidĠ":2892,"publish":2893,"set":2894,"w.":2895,"wareĠ":2896,"Ġroom":2897,"Ġtv":2898,"Ġtest":2899,"erĠb":2900,"enz":2901,"any":2902,"rev":2903,"relev":2904,"ing?":2905,"yĠf":2906,",ĠyouĠcan":2907,"is,Ġ":2908,"icens":2909,"icallyĠ":2910,"Ġcr":2911,"Ġcolleg":2912,"forĠm":2913,"forĠyour":2914,"edĠaĠ":2915,"edia":2916,"Ġbelow":2917,"Ġbecaus":2918,"ĠmustĠ":2919,"ĠtoĠgetĠ":2920,"Ġhad":2921,"Ġhav":2922,"Ġdel":2923,"ĠfirstĠ":2924,"Ġtogether":2925,"Ġtown":2926,"iment":2927,"rail":2928,"irth":2929,"Ġreason":2930,"Ġstation":2931,"netĠ":2932,"eĠsystem":2933,"ivelyĠ":2934,"const":2935,"ĠareĠyou":2936,"ĠtheĠsc":2937,"ĠtheĠsp":2938,"odd":2939,"eĠinĠ":2940,"ought":2941,"ableĠto":2942,"ruct":2943,"Ġchoos":2944,"weĠhaveĠ":2945,"Ġjo":2946,"Ġvis":2947,"Ġrun":2948,"ucc":2949,"ers,":2950,"obtain":2951,"actor":2952,"ingĠschool":2953,"increas":2954,"selv":2955,"notic":2956,"placeĠ":2957,"Ġthroughout":2958,"Ġunt":2959,"ĠitĠisĠ":2960,"launch":2961,"region":2962,"Ġcontrol":2963,"licens":2964,"ollection":2965,"lookingĠfor":2966,"production":2967,"Ġattack":2968,"ifferenc":2969,"ĠaĠlarg":2970,"Ġappear":2971,"ĠdoesĠ":2972,"equisit":2973,"ĠagainstĠ":2974,".c:":2975,"current":2976,"ĠsoĠmuch":2977,"radio":2978,"community":2979,"video":2980,"Ġsupport":2981,"Ġindividual":2982,"Ġphys":2983,"overnment":2984,"legal":2985,"improv":2986,"christmasĠ":2987,"Ġterm":2988,"Ġexample":2989,"Ġinvest":2990,"Ġorganization":2991,"ĠaĠgradeĠofĠc":2992,"-d":2993,"a.":2994,"ai":2995,"break":2996,"cat":2997,"cent":2998,"card":2999,"center":3000,"digital":3001,"fun":3002,"fix":3003,"fresh":3004,"iou":3005,"ipl":3006,"lat":3007,"lightĠ":3008,"later":3009,"mar":3010,"mov":3011,"maintain":3012,"nes":3013,"non-":3014,"oor":3015,"someĠ":3016,"uation":3017,"uitĠ":3018,"vot":3019,"xl":3020,"Â®":3021,"Ġ$":3022,"Ġ+":3023,"eĠasĠ":3024,"Ġtre":3025,"Ġtour":3026,"inf":3027,"inn":3028,"sĠ&":3029,"sĠw":3030,"sĠus":3031,"ersĠandĠ":3032,"erman":3033,"ons":3034,"orry":3035,"releas":3036,"Ġsha":3037,"ĠsetĠ":3038,"Ġsiz":3039,"Ġsens":3040,"itself":3041,"ingĠan":3042,"Ġang":3043,"also":3044,"arn":3045,"istĠof":3046,"icĠ":3047,"ĠandĠw":3048,"ilyĠ":3049,"Ġpain":3050,"Ġparticip":3051,"roadĠ":3052,"chair":3053,"choos":3054,"Ġbetween":3055,"Ġmay":3056,"Ġmod":3057,"Ġmov":3058,"Ġhear":3059,"Ġdin":3060,"Ġdid":3061,"ĠdidĠ":3062,"Ġdisc":3063,"Ġdomain":3064,"lobal":3065,"urg":3066,"urrentĠ":3067,"Ġfeat":3068,"ĠinĠc":3069,"Ġtoo":3070,"esĠ(":3071,"esĠor":3072,"raft":3073,"irm":3074,"Ġgra":3075,"Ġalcohol":3076,"near":3077,"eĠthrough":3078,"agn":3079,"ageĠd":3080,"ingĠor":3081,"playĠ":3082,"resolution":3083,"proc":3084,"eĠtak":3085,"ountĠ":3086,"ighbor":3087,"evalu":3088,"Ġnorth":3089,"Ġonlin":3090,"ĠyourĠd":3091,"prer":3092,"sĠinclud":3093,"noth":3094,"claim":3095,"outsid":3096,"ocument":3097,"Ġcomplet":3098,"buy":3099,"ruth":3100,"rust":3101,"ĠcanĠbeĠ":3102,"effic":3103,"weĠareĠ":3104,"phas":3105,"gradu":3106,"Ġkeep":3107,"ĠthatĠtheĠ":3108,"spir":3109,"Ġright":3110,"ifĠyouĠareĠ":3111,"Ġteen":3112,"ĠtheĠlarg":3113,"e,ĠtheĠ":3114,"Ġlet":3115,"Ġlead":3116,"Ġaddress":3117,"godĠ":3118,"pair":3119,"Ġscotland":3120,"grand":3121,"prepar":3122,"scienc":3123,"Ġapply":3124,".ĠthisĠisĠ":3125,"undayĠ":3126,"Ġcomputer":3127,"Ġinterest":3128,"veĠtheĠ":3129,"Ġclass":3130,"vention":3131,"locat":3132,"venu":3133,"Ġtopic":3134,"responsibleĠ":3135,"Ġindepend":3136,"ecurity":3137,"ĠtheĠsameĠtim":3138,"receiveĠ":3139,"Ġautom":3140,"Ġfeel":3141,"install":3142,"elebrat":3143,"aborator":3144,"application":3145,"Ġcredits.Ġ":3146,"!ĠthankĠyou":3147,"\",":3148,",Ġst":3149,",ĠtheĠc":3150,".m":3151,".ĠasĠ":3152,"500":3153,"bod":3154,"color":3155,"e)":3156,"eut":3157,"e'sĠ":3158,"gen":3159,"gressĠ":3160,"iam":3161,"king":3162,"nl":3163,"nor":3164,"npa":3165,"rum":3166,"s;":3167,"sĠar":3168,"tu":3169,"tal":3170,"viv":3171,"watch":3172,"yâĢĻsĠ":3173,"Ġ,Ġ":3174,"Ġever":3175,"Ġoper":3176,"eĠwasĠ":3177,"ĠthanĠ":3178,"sĠwhen":3179,"ers.Ġ":3180,"ers,Ġ":3181,"one.Ġ":3182,"ortĠ":3183,"oudĠ":3184,"reduc":3185,"Ġsin":3186,"Ġsmall":3187,"atabas":3188,"ingĠatĠ":3189,".Ġg":3190,"Ġcalifornia":3191,"ĠandĠyou":3192,"ilĠ":3193,"ilit":3194,"ilenc":3195,"eder":3196,"edĠatĠ":3197,"Ġpower":3198,"Ġpriv":3199,"Ġpublic":3200,"Ġwrit":3201,"Ġwindow":3202,"edĠf":3203,"rot":3204,"roy":3205,"char":3206,"Ġmuch":3207,"ĠtoĠprovid":3208,"asc":3209,"Ġhon":3210,"ĠhereĠ":3211,"leaveĠ":3212,"etwork":3213,"uryĠ":3214,"Ġfull":3215,"ideal":3216,"ĠtoĠst":3217,"iff":3218,"Ġreal":3219,"Ġrest":3220,"Ġalread":3221,"optim":3222,"eĠthey":3223,"ourtĠ":3224,"ageĠof":3225,"project":3226,"quarter":3227,"hael":3228,"Ġlin":3229,"Ġlink":3230,"umo":3231,"earth":3232,"ĠthisĠp":3233,"bever":3234,"ĠtheĠsameĠ":3235,"estination":3236,"eĠcall":3237,"ĠtheĠcor":3238,"eĠinter":3239,"overall":3240,",Ġsp":3241,"intro":3242,"eĠby":3243,"s.ĠthisĠ":3244,"egrat":3245,"ersĠareĠ":3246,"ĠtheĠtop":3247,"acter":3248,"ingĠservic":3249,"versation":3250,"engin":3251,"Ġresum":3252,"remain":3253,"ĠaboutĠyour":3254,"groundĠ":3255,"soon":3256,"eĠwas":3257,"prepa":3258,"bring":3259,"eĠhas":3260,"Ġ*Ġs":3261,"firm":3262,"ifferent":3263,"ugg":3264,"certain":3265,"Ġquestion":3266,"Ġregistration":3267,"ĠtheĠnational":3268,"understand":3269,"respect":3270,"freeĠ":3271,"ĠserviceĠ":3272,"letter":3273,"ĠdonâĢĻtĠ":3274,".ĠifĠyouĠareĠ":3275,"Ġboard":3276,"ollar":3277,"german":3278,".ĠthereĠar":3279,"ercial":3280,"happen":3281,"ictor":3282,"required":3283,"volv":3284,"Ġbuild":3285,"organization":3286,"having":3287,"necessary":3288,"chedu":3289,"Ġmeig":3290,"fluenc":3291,"Ġtarget":3292,"anuaryĠ":3293,"ustralia":3294,"antonioni":3295,"prerequisit":3296,"-h":3297,".ĠtoĠ":3298,".âĢĿ":3299,"/or":3300,"23":3301,"_c":3302,"between":3303,"cost":3304,"custom":3305,"da":3306,"deal":3307,"driv":3308,"eac":3309,"eek":3310,"flow":3311,"fund":3312,"general":3313,"hanc":3314,"hensiveĠ":3315,"ios":3316,"iĠhaveĠ":3317,"jes":3318,"kel":3319,"mc":3320,"mod":3321,"rink":3322,"sĠat":3323,"setĠ":3324,"sĠag":3325,"servic":3326,"tak":3327,"ues":3328,"wardĠ":3329,"yĠand":3330,"Ġimag":3331,"eĠv":3332,"eĠst":3333,"Ġtask":3334,"ĠaĠst":3335,"ina":3336,"inem":3337,"ĠthisĠa":3338,"sĠup":3339,"onĠs":3340,"onlin":3341,"oubleĠ":3342,"Ġsecond":3343,"its":3344,"ingĠtheĠd":3345,"Ġans":3346,"allo":3347,".Ġn":3348,".Ġit":3349,".ĠbeĠ":3350,"arc":3351,"ofĠtheĠ":3352,"ilityĠ":3353,"edit":3354,"Ġpric":3355,"Ġpoint":3356,"Ġpublish":3357,"Ġwin":3358,"Ġwell":3359,"edĠor":3360,"Ġbook":3361,"Ġbott":3362,"ascal":3363,"ĠhomeĠ":3364,"le,Ġ":3365,"Ġdu":3366,"Ġdiet":3367,"useĠof":3368,"Ġfl":3369,"ationĠfor":3370,"olk":3371,"ĠinĠm":3372,"esĠm":3373,"emerg":3374,"ĠreallyĠ":3375,"nection":3376,"term":3377,"eĠthereĠ":3378,"eĠtheĠm":3379,"eĠtheyĠ":3380,"withoutĠ":3381,"about":3382,"exam":3383,"ingĠit":3384,"ingĠour":3385,"pli":3386,"ĠandĠthen":3387,"itĠwasĠ":3388,"eĠsoĠ":3389,"eĠservic":3390,"Ġlarg":3391,"ĠthatĠw":3392,"essag":3393,"perfect":3394,"epar":3395,"e,Ġwhich":3396,"ĠshareĠ":3397,"ĠasĠyou":3398,"eĠcar":3399,"ellit":3400,"apac":3401,"yourself":3402,"ĠaĠveryĠ":3403,"ĠaĠvarietyĠof":3404,"ateĠin":3405,"s>Ġ<s>ĠtheĠ":3406,"Ġwher":3407,"eĠinĠtheĠ":3408,"eĠday":3409,"ĠallĠof":3410,"ĠableĠtoĠ":3411,"Ġchalleng":3412,"Ġexpert":3413,"Ġapart":3414,"ityĠandĠ":3415,"ension":3416,"ĠtheĠfirst":3417,"ignific":3418,"irection":3419,"common":3420,"easy":3421,"makeĠsur":3422,"ĠtheĠgreen":3423,"Ġitem":3424,"Ġthemselv":3425,"Ġtravel":3426,"ĠtheĠlatestĠ":3427,"uresĠ":3428,"ĠaĠfull":3429,"box":3430,"sĠonĠtheĠ":3431,"Ġbeh":3432,"don'tĠ":3433,"ĠaĠgoodĠ":3434,"eĠonĠtheĠ":3435,"key":3436,"ĠthermalĠresist":3437,"Ġcompet":3438,"storativeĠ":3439,"cogn":3440,"finish":3441,"Ġquick":3442,"Ġappeal":3443,"ĠhowĠtoĠ":3444,"ĠavoidĠ":3445,"ront":3446,"ĠactuallyĠ":3447,"ditional":3448,"ventur":3449,"weekend":3450,"eĠandĠtheĠ":3451,"Ġanyth":3452,"onĠxl":3453,"eptemberĠ":3454,"Ġthought":3455,"next":3456,"strong":3457,"running":3458,"ĠaĠnumberĠof":3459,"ological":3460,"vehicleĠadvertis":3461,"ĠthingsĠ":3462,"productĠ":3463,"immun":3464,"Ġmicro":3465,"chedul":3466,"protect":3467,"Ġcounselor":3468,"litter":3469,"Ġgdpr":3470,",ĠasĠwellĠasĠ":3471,"-year":3472,".ĠsheĠ":3473,"26":3474,"28":3475,"49":3476,"]:":3477,"aĠs":3478,"action":3479,"bol":3480,"bath":3481,"ctĠ":3482,"centĠ":3483,"caus":3484,"dist":3485,"didĠ":3486,"detail":3487,"fall":3488,"flower":3489,"gres":3490,"mĠ":3491,"meet":3492,"nic":3493,"north":3494,"ober":3495,"payĠ":3496,"pri":3497,"rateĠ":3498,"sâĢĻ":3499,"ty":3500,"tar":3501,"villag":3502,"wall":3503,"wqu":3504,"yl":3505,"yber":3506,"yĠandĠs":3507,"ðŁ":3508,"Ġer":3509,"Ġopen":3510,"eĠn":3511,"eĠwill":3512,"Ġaward":3513,"Ġthir":3514,"orĠof":3515,"rect":3516,"refer":3517,"reek":3518,"Ġspr":3519,"itiz":3520,"ingĠthisĠ":3521,"ingĠtheĠs":3522,"ingĠaĠ":3523,"ingĠher":3524,"es.Ġs":3525,"isĠtoĠ":3526,"icat":3527,"ically":3528,"Ġcand":3529,"Ġcup":3530,"ĠcountyĠcouncil":3531,"elcom":3532,"edĠat":3533,"Ġpay":3534,"Ġprom":3535,"Ġpass":3536,"Ġpurchas":3537,"edĠout":3538,"children":3539,"Ġbeg":3540,"Ġmethod":3541,"ctober":3542,"Ġdeal":3543,"Ġdirect":3544,"Ġdirector":3545,"etc":3546,"urb":3547,"ĠfiveĠ":3548,"oliveĠ":3549,"ĠinĠfilm":3550,"ĠtodayĠ":3551,"Ġtowel":3552,"immediat":3553,"empor":3554,"emotion":3555,"leĠof":3556,"amb":3557,"irt":3558,"Ġgiv":3559,"Ġgener":3560,"Ġreach":3561,"illion":3562,"Ġarch":3563,"Ġstruct":3564,"eĠtheĠt":3565,"abet":3566,"utur":3567,"plantĠ":3568,"plug":3569,"itĠen":3570,"ĠlastĠ":3571,"ĠthatĠi":3572,"ĠthatĠs":3573,"perfectĠ":3574,"andsĠof":3575,"eĠoffer":3576,"ĠthisĠyear":3577,"s,Ġor":3578,"Ġnetwork":3579,"e,Ġyou":3580,"e,Ġwith":3581,"udg":3582,"sĠofĠs":3583,"ĠwithoutĠ":3584,"princip":3585,"class":3586,"ĠwhereĠ":3587,"ailable":3588,"plement":3589,"Ġchar":3590,"Ġjun":3591,"eĠbyĠ":3592,"angu":3593,"ountain":3594,"estĠin":3595,"canĠb":3596,"ubsc":3597,"Ġrich":3598,"ĠtheĠdata":3599,"Ġplant":3600,"easier":3601,"ersĠtoĠ":3602,"Ġtime.Ġ":3603,"ĠtimeĠtoĠ":3604,"ĠthereĠis":3605,"Ġtroubl":3606,"Ġaffect":3607,"Ġtrad":3608,"likeĠtoĠ":3609,"remodel":3610,"helpĠyou":3611,"helpful":3612,"ĠthroughoutĠ":3613,"heatĠsink":3614,"Ġbeach":3615,"Ġbeautiful":3616,"eĠwouldĠ":3617,"prevent":3618,"ingĠmor":3619,"ĠtheĠworldĠ":3620,"rossĠ":3621,"ĠyearsĠ":3622,"ifiedĠ":3623,"uffer":3624,"ufact":3625,"vehicle":3626,"beforeĠ":3627,"Ġintro":3628,"decision":3629,"electric":3630,"excit":3631,"qualityĠ":3632,"Ġmarketing":3633,"overnmentĠ":3634,"ogn":3635,"Ġbuy":3636,"Ġprepar":3637,"Ġinstitut":3638,"stateĠhealth":3639,"www.":3640,"Ġmarch":3641,"Ġchristian":3642,"ĠvehicleĠ":3643,"Ġassociat":3644,"egreeĠin":3645,"ultural":3646,"possible":3647,"Ġabsolut":3648,"'r":3649,"(s":3650,",ĠthisĠ":3651,"-th":3652,"-co":3653,".Ġt":3654,".ĠtheyĠ":3655,"120":3656,"27":3657,"36":3658,"300":3659,"48":3660,"95":3661,"aĠandĠ":3662,"dsm":3663,"determin":3664,"eatĠ":3665,"either":3666,"father":3667,"fram":3668,"girl":3669,"histor":3670,"iedĠ":3671,"iec":3672,"lay":3673,"my":3674,"mightĠ":3675,"nâĢĻt":3676,"oon":3677,"pm":3678,"pat":3679,"polic":3680,"public":3681,"particip":3682,"q:":3683,"ras":3684,"rich":3685,"siz":3686,"sourc":3687,"world":3688,"ya":3689,"y.ĠtheĠ":3690,"y,ĠandĠ":3691,"zer":3692,"Ġ/":3693,"Ġu":3694,"Ġ...":3695,"eĠal":3696,"eĠour":3697,"eĠwhich":3698,"Ġtal":3699,"ĠaĠcon":3700,"Ġaway":3701,"inat":3702,"inoĠ":3703,"erĠfor":3704,"erĠor":3705,"enn":3706,"anyĠ":3707,"reation":3708,"revi":3709,"Ġsan":3710,"Ġskill":3711,"ate.Ġ":3712,"ings":3713,"ingĠand":3714,"ingĠtheĠp":3715,"ald":3716,".Ġnow":3717,".Ġbut":3718,".ĠitĠisĠ":3719,"aryĠs":3720,",Ġyour":3721,",ĠifĠyou":3722,",Ġinclud":3723,"es:":3724,"esk":3725,"ison":3726,"Ġclean":3727,"omb":3728,"ilities":3729,"youĠknow":3730,"edĠand":3731,"edition":3732,"Ġpaper":3733,"Ġpolic":3734,"Ġpleas":3735,"Ġpolish":3736,"Ġpeople":3737,"strateg":3738,"Ġbar":3739,"Ġbig":3740,"Ġbiolog":3741,"ĠmightĠ":3742,"Ġmaterial":3743,"Ġhar":3744,"entĠandĠ":3745,"ently":3746,"leep":3747,"Ġdumpster":3748,"Ġdocument":3749,"usedĠ":3750,"useful":3751,"Ġfund":3752,"olit":3753,"ĠinĠyour":3754,"ĠtoĠtak":3755,"esĠc":3756,"emper":3757,"emĠcell":3758,"emphas":3759,"Ġyouth":3760,"ĠofĠm":3761,"ĠofĠtheĠb":3762,"Ġgerman":3763,"Ġreview":3764,"Ġrepresent":3765,"eĠthes":3766,"within":3767,"expert":3768,"exercis":3769,"otor":3770,"ostĠof":3771,"utt":3772,"uture":3773,"âĢĻdĠ":3774,"comfort":3775,"itĠof":3776,"proper":3777,"propert":3778,"hasĠs":3779,"umer":3780,".ĠtheĠg":3781,"uppl":3782,"istr":3783,"s.ĠifĠyou":3784,"ainten":3785,"ĠforĠr":3786,"epos":3787,"Ġnon-":3788,"antlyĠ":3789,"ĠyourĠf":3790,"eĠcl":3791,"eĠcount":3792,"endedĠ":3793,"dueĠtoĠ":3794,"ĠprojectĠ":3795,"ĠtheĠcar":3796,"ĠtheĠcas":3797,"eĠint":3798,"ociet":3799,"haveĠth":3800,"vious":3801,"independ":3802,",Ġsm":3803,"eĠandĠs":3804,"lix":3805,"ĠtheĠmarket":3806,"ĠtheĠpower":3807,"spac":3808,"spaper":3809,"ĠtheĠgeneral":3810,"icken":3811,"Ġafford":3812,"activ":3813,"ingĠsystem":3814,"eath":3815,"to-":3816,"Ġleg":3817,"ĠthroughĠtheĠ":3818,"rict":3819,"rictĠ":3820,"ĠaĠbig":3821,"laim":3822,"paper":3823,"Ġscottish":3824,"ĠisĠtheĠ":3825,"registration":3826,"ingĠpart":3827,"getting":3828,"ĠmoreĠinformation":3829,"Ġcommitt":3830,"everyoneĠ":3831,"Ġsometh":3832,"Ġregard":3833,"flor":3834,":Ġ\"":3835,"Ġdiseas":3836,"respons":3837,"ajun":3838,"Ġadvic":3839,"Ġadvanc":3840,"Ġapprov":3841,"ĠpartĠof":3842,"Ġrelationship":3843,"born":3844,"designedĠfor":3845,"restaurant":3846,"improveĠ":3847,"sĠthatĠareĠ":3848,"Ġretail":3849,"657":3850,"limit":3851,"economic":3852,"map_":3853,"original":3854,"ĠatĠleastĠ":3855,"oodntĠ":3856,"analytic":3857,"ĠofĠinstructor":3858,"relationship":3859,"Ġanswer":3860,"-coordinator":3861,"(london":3862,",ĠthatĠ":3863,",Ġthen":3864,"44":3865,"_err":3866,"bestĠ":3867,"clear":3868,"createĠ":3869,"dom":3870,"deb":3871,"dumpster":3872,"direct":3873,"e_":3874,"easter":3875,"eadĠof":3876,"fit":3877,"fish":3878,"foodĠ":3879,"focus":3880,"gain":3881,"har":3882,"hot":3883,"hold":3884,"kb":3885,"las":3886,"mas":3887,"meal":3888,"mustĠ":3889,"mitt":3890,"most":3891,"nightĠ":3892,"natural":3893,"park":3894,"pick":3895,"pract":3896,"patient":3897,"roup":3898,"victor":3899,"wish":3900,"ware":3901,"would":3902,"y!":3903,"yth":3904,"yet":3905,"ycl":3906,"Ġ[":3907,"Ġissu":3908,"ĠâĢĶ":3909,"ĠeveryĠ":3910,"Ġepisod":3911,"eĠcon":3912,"Ġapr":3913,"ĠawayĠ":3914,"indĠ":3915,"inĠm":3916,"sĠwhich":3917,"orang":3918,"ĠtheĠcon":3919,"ana":3920,"aniel":3921,"re-":3922,"reetĠ":3923,"Ġsport":3924,"Ġsuper":3925,"Ġsoft":3926,"Ġseason":3927,"ĠsinceĠ":3928,"ateĠs":3929,"ingĠtheĠf":3930,",Ġl":3931,",Ġus":3932,"es?":3933,"oĠ(":3934,"isk":3935,"icienc":3936,"Ġcab":3937,"Ġcook":3938,"Ġcaus":3939,"ometh":3940,"ĠandĠi":3941,"eleg":3942,"Ġpat":3943,"Ġpal":3944,"Ġpost":3945,"edĠit":3946,"edĠinto":3947,"roeton":3948,"church":3949,"Ġbeli":3950,"ĠtoĠget":3951,"ĠtoĠensur":3952,"isĠs":3953,"isĠof":3954,"Ġhim":3955,"Ġhistor":3956,"entral":3957,"lect":3958,"lop":3959,"loor":3960,"loadĠ":3961,"usedĠtoĠ":3962,"useum":3963,"urt":3964,"urning":3965,"Ġfew":3966,"Ġfellow":3967,"ation.Ġ":3968,"ation,Ġ":3969,"very":3970,"Ġinf":3971,"imum":3972,"esĠwereĠ":3973,"unday":3974,"emon":3975,"Ġge":3976,"Ġgod":3977,"Ġgarden":3978,"Ġgirl":3979,"iftĠ":3980,"ifyĠ":3981,"Ġresp":3982,"Ġrelic":3983,"Ġrespect":3984,"Ġrecogn":3985,"ĠalmostĠ":3986,"ally,Ġ":3987,"Ġstop":3988,"ĠstartĠ":3989,"neighbor":3990,"eĠthen":3991,"abric":3992,"agaz":3993,"exper":3994,"comeĠ":3995,"entĠon":3996,"ĠandĠtheĠs":3997,"proof":3998,"probab":3999,"hair":4000,"eĠtwoĠ":4001,"ounder":4002,"ountĠof":4003,"ively":4004,"ootĠ":4005,"earli":4006,"istrat":4007,"s.Ġin":4008,"s.Ġif":4009,"e.Ġyou":4010,"lyĠd":4011,"eptĠ":4012,"eĠcor":4013,"ellig":4014,"endar":4015,"ateĠandĠ":4016,"Ġwho":4017,"Ġproduc":4018,"achel":4019,"ĠatĠtheĠsameĠtim":4020,"ĠtheĠco":4021,"Ġconcer":4022,"occas":4023,"ĠisĠs":4024,"ĠisĠnotĠ":4025,"weetĠ":4026,"weight":4027,"mention":4028,"effort":4029,"eĠaĠ":4030,"ĠtheĠmain":4031,"Ġvalu":4032,"ĠthatâĢĻsĠ":4033,"speak":4034,"egor":4035,"ĠtheĠday":4036,"ĠtheĠgam":4037,"compar":4038,"avour":4039,"dog":4040,"ĠourĠwebsit":4041,"recogn":4042,"Ġtrader":4043,"ĠtheĠlastĠ":4044,"removeĠ":4045,"ĠtoĠsaveĠ":4046,"e,Ġand":4047,"ĠaĠper":4048,"lax":4049,"going":4050,"Ġaccept":4051,"eĠwash":4052,"aryĠoption":4053,"ĠaĠdietaryĠaid":4054,"knowledg":4055,"ĠpercentĠ":4056,"seem":4057,"Ġgrand":4058,"ampleĠ":4059,"Ġmonroeton":4060,"rontĠ":4061,"ronic":4062,"equip":4063,"expens":4064,"ĠmanyĠ":4065,"aturday":4066,"Ġrece":4067,"Ġrecord":4068,"management":4069,"Ġprogramm":4070,"venienc":4071,"ĠhelpĠyou":4072,"imple-p":4073,"abilityĠ":4074,"however,Ġ":4075,"decor":4076,"ĠshouldĠbeĠ":4077,"aperror":4078,"quality":4079,"respond":4080,"ĠcommunityĠ":4081,"rangeĠof":4082,"requirement":4083,"ĠthoseĠwhoĠ":4084,"printf":4085,"marketĠ":4086,"opportunity":4087,"Ġreturn":4088,"ĠpersonalĠdata":4089,"ĠthreeĠ":4090,"promot":4091,"Ġvehicle":4092,"Ġamazon":4093,"bridgetĠ":4094,"ĠsomeoneĠ":4095,"ĠarthritisĠ":4096,"journal":4097,"ĠorĠbetter,Ġor":4098,"cordĠbloodĠ":4099,"removal":4100,"chemical":4101,"Ġ*Ġmaperror":4102,"ĠpermissionĠofĠinstructor":4103,"Ġuntil":4104,"Ġangel":4105,"Ġcredits.Ġprerequisit":4106,"tubeĠ":4107,"ederal":4108,"alloon":4109,".ĠbeĠitĠen":4110,"ðŁĻ":4111,"occasion":4112,"imple-pwqu":4113,".ĠbeĠitĠenact":4114,".Ġthis":4115,"64":4116,"75":4117,"88":4118,"90":4119,"ait":4120,"aith":4121,"aver":4122,"ba":4123,"bon":4124,"bel":4125,"bank":4126,"couldĠ":4127,"colleg":4128,"collect":4129,"during":4130,"ein":4131,"eon":4132,"fast":4133,"ffic":4134,"further":4135,"flix":4136,"hill":4137,"hop":4138,"i-":4139,"ieĠ":4140,"laborator":4141,"mit":4142,"mail":4143,"nail":4144,"nau":4145,"n't":4146,"o.":4147,"pg":4148,"pain":4149,"pass":4150,"ran":4151,"roundĠ":4152,"say":4153,"sĠasĠ":4154,"sĠtoĠtheĠ":4155,"switch":4156,"sĠareĠs":4157,"tra":4158,"top":4159,"ux":4160,"uan":4161,"vas":4162,"wo":4163,"wis":4164,"wood":4165,"zen":4166,"Ġip":4167,"ĠoutĠ":4168,"Ġrac":4169,"Ġevent":4170,"eĠar":4171,"Ġtit":4172,"Ġa:":4173,"ĠaĠhigh":4174,"ino":4175,"inĠa":4176,"inâĢĻ":4177,"inĠtheĠp":4178,"Ġthreat":4179,"sĠi":4180,"sĠis":4181,"sĠyour":4182,"sĠprogram":4183,"erveĠ":4184,"eriesĠ":4185,"ortĠof":4186,"eness":4187,"enhanc":4188,"ouston":4189,"ĠtheĠin":4190,"replac":4191,"Ġsearch":4192,"inger":4193,"ingĠat":4194,"ingĠaĠs":4195,"ĠanĠin":4196,"ĠanĠinter":4197,"alĠandĠ":4198,".Ġon":4199,"arch":4200,"aryĠc":4201,",Ġwhen":4202,",ĠwhoĠ":4203,"oftĠ":4204,"Ġcol":4205,"Ġcoffe":4206,"Ġcajun":4207,"ĠandĠin":4208,"ĠandĠmak":4209,"ely,Ġ":4210,"iltĠ":4211,"forĠall":4212,"edin":4213,"edĠtheĠp":4214,"Ġpixel":4215,"Ġwould":4216,"rode":4217,"Ġbre":4218,"Ġbrow":4219,"Ġbedroom":4220,"Ġbroadc":4221,"Ġmean":4222,"Ġmodel":4223,"ĠmarketĠ":4224,"leftĠ":4225,"ĠdayĠ":4226,"Ġdetail":4227,"usb":4228,"Ġfall":4229,"Ġfail":4230,"Ġfriend":4231,"idd":4232,"ĠtoĠa":4233,"ĠtoĠtheĠd":4234,"emic":4235,"ĠyouĠhaveĠ":4236,"ĠofĠtheĠc":4237,"Ġgood":4238,"iffic":4239,"Ġreport":4240,"ulousĠ":4241,"access":4242,"eĠther":4243,"agraph":4244,"âĢĻ.":4245,"combin":4246,"complex":4247,"itĠfor":4248,"quot":4249,"havi":4250,"ive,Ġ":4251,"Ġland":4252,"umn":4253,"eĠofĠyour":4254,"earning":4255,"s.ĠitĠ":4256,"e.Ġin":4257,"e.ĠitĠ":4258,"epper":4259,"Ġnam":4260,"Ġnatural":4261,"e,Ġw":4262,"bey":4263,"ĠwithĠaĠgradeĠofĠc":4264,"antag":4265,"ĠtheĠsit":4266,"ĠonĠtheĠs":4267,"Ġship":4268,",ĠandĠs":4269,"appro":4270,"ending":4271,"sĠintoĠ":4272,"clin":4273,"clas":4274,"eĠdata":4275,"haveĠtheĠ":4276,"Ġabus":4277,"ĠaboveĠ":4278,"izon":4279,"intag":4280,"Ġacqu":4281,"Ġaceton":4282,"Ġcheck":4283,"eĠaĠd":4284,"ies,Ġ":4285,"ĠspendĠ":4286,"ustain":4287,"Ġjob":4288,"eĠback":4289,"ĠtheĠfollow":4290,"Ġvol":4291,"Ġvoic":4292,"Ġkitchen":4293,"Ġthat'sĠ":4294,"workingĠwith":4295,"workshop":4296,"ĠtheĠbas":4297,"ĠtheĠbod":4298,"contribut":4299,"soĠmuch":4300,"canĠi":4301,"ibility":4302,"notĠbeĠ":4303,"Ġplatform":4304,"icalĠ":4305,"uccessĠ":4306,"computer":4307,"ĠthereĠisĠa":4308,"Ġaffil":4309,"activeĠ":4310,"Ġloc":4311,"postĠ":4312,"redĠto":4313,"doctor":4314,"mentĠin":4315,"ĠfromĠ":4316,"Ġagre":4317,"Ġagenc":4318,"note:":4319,"Ġresult":4320,"likeĠa":4321,"remember":4322,"placeĠtoĠ":4323,"Ġnear":4324,"ectionĠ":4325,"ĠtheseĠp":4326,"international":4327,"yĠmean":4328,"scap":4329,"Ġey":4330,"Ġequ":4331,"ottom":4332,"area":4333,"yĠbas":4334,"Ġattract":4335,"gett":4336,"eĠthatĠyou":4337,"whatĠyou":4338,"companies":4339,"blu":4340,"cert":4341,"visitor":4342,"sĠmayĠ":4343,"empower":4344,"ĠtheĠprogram":4345,"Ġremodel":4346,"eĠshall":4347,"eĠshouldĠ":4348,"basedĠ":4349,"ĠheatĠsink":4350,"Ġfinish":4351,"impactĠ":4352,"ideasĠ":4353,"ĠanyoneĠ":4354,"ĠweĠareĠ":4355,"manager":4356,"unteer":4357,"Ġtransmission":4358,"longer":4359,"ĠcompanyĠ":4360,"ropean":4361,"performanc":4362,"graphic":4363,"consum":4364,"Ġphot":4365,"ĠnotĠbeĠ":4366,"umpsterĠforĠr":4367,"Ġcommunication":4368,"Ġsignag":4369,"sĠcanĠbeĠ":4370,"ĠbrandĠ":4371,"hadĠbeen":4372,"oliday":4373,"christian":4374,"Ġmichael":4375,"Ġconsult":4376,"uccessfullyĠ":4377,"escrib":4378,"Ġjustic":4379,"Ġannual":4380,"wait":4381,"employe":4382,"ĠactivitiesĠ":4383,"definit":4384,"entĠinĠmonroeton":4385,"Ġamerican":4386,"kindleĠbook":4387,"whoĠareĠ":4388,"Ġpresent":4389,"Ġrequirement":4390,"Ġstandard":4391,"concern":4392,"ĠtheĠshoulder":4393,"bridg":4394,"ecutiveĠ":4395,"iscussion":4396,"onderful":4397,"u.s.Ġ":4398,"eĠtrans":4399,"arbageĠd":4400,"beginning":4401,"eutic":4402,"Ġ*Ġsimple-pwqu":4403,"ĠboardingĠschool":4404,"inema":4405,"emergenc":4406,"ĠthermalĠresistanc":4407,"ufactur":4408,"agazin":4409,".ĠbeĠitĠenacted,":4410,"umpsterĠforĠrentĠinĠmonroeton":4411,"arbageĠdumpsterĠforĠrentĠinĠmonroeton":4412,"\".":4413,"/m":4414,"/w":4415,"31":4416,"35":4417,"41":4418,"avi":4419,"bt":4420,"ball":4421,"beĠs":4422,"best":4423,"beĠtheĠ":4424,"cover":4425,"cĠ(":4426,"dr":4427,"depend":4428,"damag":4429,"e/":4430,"eo":4431,"flex":4432,"factor":4433,"gat":4434,"gun":4435,"gam":4436,"gov":4437,"iod":4438,"ky":4439,"kath":4440,"lan":4441,"last":4442,"mo":4443,"mil":4444,"mother":4445,"oter":4446,"past":4447,"roĠ":4448,"rick":4449,"rans":4450,"rush":4451,"stĠof":4452,"such":4453,"school":4454,"sĠabout":4455,"td":4456,"veg":4457,"won":4458,"weddingĠeventĠ":4459,"yz":4460,"yetĠ":4461,"y'sĠ":4462,"zy":4463,"Ġeas":4464,"Ġ..":4465,"eĠas":4466,"eĠatĠ":4467,"eĠall":4468,"eĠisĠa":4469,"eĠprovid":4470,"Ġtil":4471,"Ġtend":4472,"Ġtast":4473,"Ġtax":4474,"inĠtheĠs":4475,"inĠyour":4476,"sĠover":4477,"erĠof":4478,"ersĠof":4479,"erĠ(":4480,"on,Ġ":4481,"onth":4482,"onto":4483,"enar":4484,"enior":4485,"ĠtheĠres":4486,"ane":4487,"rear":4488,"Ġsinc":4489,"Ġseveral":4490,"Ġsusp":4491,"atal":4492,"atis":4493,"ategor":4494,"iter":4495,"itment":4496,"itness":4497,"itâĢĻs":4498,"ingsĠ":4499,"ingĠst":4500,"ingĠtoĠtheĠ":4501,"yĠ(":4502,"yĠw":4503,".Ġ\"":4504,".Ġof":4505,".Ġwith":4506,".Ġhow":4507,".Ġvoicecomputer":4508,",Ġ\"":4509,",Ġfor":4510,",ĠisĠ":4511,",Ġpleas":4512,"esĠar":4513,"esĠandĠs":4514,"es,Ġand":4515,"isĠan":4516,"Ġcod":4517,"Ġcard":4518,"Ġcover":4519,"Ġcli":4520,"Ġcertain":4521,"Ġclaim":4522,"ĠandĠweĠ":4523,"ĠandĠother":4524,"eler":4525,"thre":4526,"thes":4527,"ilver":4528,"edĠthem":4529,"edĠtoĠs":4530,"Ġpm":4531,"Ġpet":4532,"Ġwish":4533,"stra":4534,"stream":4535,"streetĠ":4536,"edĠch":4537,"cher":4538,"choic":4539,"channel":4540,"Ġbab":4541,"ĠbestĠ":4542,"Ġmeal":4543,"Ġmiss":4544,"ĠtoĠwork":4545,"loveĠth":4546,"usion":4547,"etric":4548,"ural":4549,"Ġfun":4550,"Ġfix":4551,"Ġfirm":4552,"olf":4553,"idnâĢĻtĠ":4554,"Ġindustri":4555,"imĠdomain":4556,"esĠd":4557,"atĠh":4558,"owl":4559,"ambo":4560,"iring,Ġ":4561,"Ġgen":4562,"ĠgoĠ":4563,"Ġgreen":4564,"Ġalthough":4565,"Ġarg":4566,"ĠartĠ":4567,"whol":4568,"allyĠs":4569,"ĠstoodntĠ":4570,"opular":4571,"ourtĠof":4572,"agu":4573,"agent":4574,"exist":4575,"express":4576,"exclus":4577,"exhib":4578,"otyp":4579,"comesĠ":4580,"processĠ":4581,"ounter":4582,"ival":4583,"ivil":4584,"Ġlay":4585,"ĠlittleĠ":4586,"conversation":4587,"upĠtoĠ":4588,"s.Ġh":4589,"e.Ġc":4590,"e.ĠyouĠcan":4591,"e.Ġwhen":4592,"ĠforĠm":4593,"ĠforĠyour":4594,"s,Ġwhich":4595,"Ġno":4596,"Ġnov":4597,"Ġnutrition":4598,"ĠnachĠbaliyeĠ":4599,"e,Ġor":4600,"udgetĠ":4601,"Ġshort":4602,"riendĠ":4603,"eĠcur":4604,"ance,Ġ":4605,"clar":4606,"Ġadult":4607,"202":4608,"Ġwhether":4609,"ĠtheĠcnpa":4610,"evergreen":4611,"eĠinclud":4612,"news":4613,"ocol":4614,"Ġcomplex":4615,"eĠdi":4616,"buildĠ":4617,"ailyĠ":4618,"izz":4619,"ization":4620,",Ġso":4621,"ework":4622,"ewarm":4623,"ment.Ġ":4624,"intel":4625,"ityĠin":4626,"Ġchild":4627,"Ġexist":4628,"Ġspir":4629,"Ġspot":4630,"libr":4631,"ĠjanuaryĠ":4632,"astic":4633,"Ġvot":4634,"ĠiĠam":4635,"contact":4636,"controll":4637,"Ġrat":4638,"Ġrout":4639,"Ġrhe":4640,"ĠtheĠdis":4641,"reath":4642,"ĠhaveĠbeen":4643,"isĠaĠgreatĠ":4644,"ĠtheĠtwoĠ":4645,"ebru":4646,"Ġlov":4647,"butĠi":4648,"sĠtoĠbeĠ":4649,"mentĠfor":4650,"ĠandĠsoundĠ":4651,"ĠtheĠlong":4652,"viewĠwith":4653,".ĠsoĠ":4654,"ersĠwhoĠ":4655,"likeĠ":4656,"likely":4657,"yster":4658,"ĠaĠpriv":4659,"headĠof":4660,"riction":4661,"ĠtheyĠwereĠ":4662,"Ġscreen":4663,"Ġstudio":4664,"yĠmember":4665,"prett":4666,"screen":4667,"minut":4668,"register":4669,"ĠcontentĠ":4670,"Ġcontact":4671,"ĠcontactĠ":4672,"paris":4673,"branch":4674,"sĠwithĠtheĠ":4675,"edĠonĠtheĠ":4676,"eĠthatĠisĠ":4677,"ĠmoreĠthanĠ":4678,"evelopmentĠ":4679,"ĠaĠlong":4680,"request":4681,"ingĠback":4682,"atedĠfrom":4683,"ĠwhichĠisĠ":4684,"visor":4685,"ĠsomeĠof":4686,"involv":4687,"oneĠofĠtheĠ":4688,"corpor":4689,"raginâĢĻ":4690,"Ġremain":4691,"Ġclick":4692,"impact":4693,"Ġbox":4694,"managementĠ":4695,"beforeĠtheĠ":4696,"ah,Ġ":4697,"rental":4698,"ĠcompaniesĠ":4699,"Ġdisplay":4700,"variousĠ":4701,"ĠsupportĠ":4702,"enjoyĠ":4703,"consult":4704,"fortun":4705,"Ġparagraph":4706,"ĠstudentsĠ":4707,"ĠtypeĠof":4708,"network":4709,"netflix":4710,"ttp":4711,"Ġtrust":4712,"Ġtruck":4713,"ĠdecemberĠ":4714,"dustryĠ":4715,"elebration":4716,"features":4717,"opportunitiesĠ":4718,"shouldĠbeĠ":4719,"Ġserver":4720,"building":4721,"util.h":4722,"Ġannounc":4723,"profit":4724,"Ġtherefor":4725,"Ġtreatment":4726,"held":4727,"Ġamerica":4728,"Ġtenn":4729,"photograph":4730,"Ġtherapeutic":4731,"Ġanalysis":4732,"juneĠ":4733,"junior":4734,"ĠstyleĠ":4735,"ĠstateĠunivers":4736,"journe":4737,"Ġbutton":4738,"committe":4739,"eĠagain":4740,"ottonĠtrader":4741,"amera":4742,"doesĠnotĠ":4743,"Ġ*Ġutil.h":4744,"yukon":4745,"ĠthousandsĠof":4746,"Ġarrival":4747,"explor":4748,"currentlyĠ":4749,"preparation":4750,"introduc":4751,"eastern":4752,"ĠaprilĠ":4753,"ambooĠ":4754,"raginâĢĻĠcajun":4755,"ĠparagraphĠ":4756,"ĠtherapeuticĠboardingĠschool":4757,"(andĠ":4758,",\"":4759,",Ġsh":4760,",ĠtheyĠ":4761,".;":4762,".Ġas":4763,".ĠatĠ":4764,".Ġtak":4765,"66":4766,";ĠandĠ":4767,"aic":4768,"aĠg":4769,"aul":4770,"bb":4771,"business":4772,"businessĠ":4773,"cru":4774,"cook":4775,"crit":4776,"dateĠ":4777,"deanna":4778,"eoĠ":4779,"eil":4780,"eedĠ":4781,"eem":4782,"four":4783,"few":4784,"food":4785,"foundĠ":4786,"god":4787,"gaveĠ":4788,"gplac":4789,"grown":4790,"host":4791,"hood":4792,"i.":4793,"iĠ":4794,"i,Ġ":4795,"iber":4796,"lab":4797,"lack":4798,"lamp":4799,"listĠ":4800,"major":4801,"nessĠof":4802,"ogu":4803,"oveĠth":4804,"pack":4805,"packag":4806,"sal":4807,"sĠas":4808,"serv":4809,"tre":4810,"usĠon":4811,"vest":4812,"written":4813,"yĠtheĠ":4814,"yĠst":4815,"zip":4816,"Ġent":4817,"ĠveryĠ":4818,"Ġoption":4819,"ĠâĢĺ":4820,"Ġemail":4821,"ĠxĠ":4822,"Ġradio":4823,"Ġengin":4824,"eĠat":4825,"eĠwork":4826,"eĠwhen":4827,"Ġtor":4828,"Ġtable":4829,"Ġtah":4830,"Ġtempl":4831,"Ġaustralia":4832,"inĠaĠ":4833,"inĠdef":4834,"sĠ-":4835,"sĠh":4836,"sĠitĠ":4837,"sĠbyĠ":4838,"er,":4839,"onic":4840,"one,Ġ":4841,"ouble":4842,"ĠtheĠam":4843,"anag":4844,"reet":4845,"Ġsol":4846,"Ġsay":4847,"Ġselection":4848,"ĠseptemberĠ":4849,"atelyĠ":4850,"itter":4851,"itud":4852,"itiat":4853,"ing.ĠtheĠ":4854,"ington":4855,"ingĠaboutĠ":4856,"ingĠspac":4857,"yĠon":4858,"als":4859,"allow":4860,".Ġeach":4861,".Ġwhat":4862,".Ġonc":4863,"aril":4864,"ary,Ġ":4865,"esi":4866,"esĠatĠ":4867,"isĠaĠ":4868,"icin":4869,"Ġcould":4870,"Ġcert":4871,"Ġcrim":4872,"omin":4873,"ĠandĠsp":4874,"eltĠ":4875,"eliz":4876,"ile.":4877,"edĠa":4878,"edom":4879,"edĠtheĠs":4880,"ed,ĠandĠ":4881,"edĠtheir":4882,"edĠthat":4883,"edĠaboutĠ":4884,"Ġput":4885,"Ġpick":4886,"Ġpract":4887,"Ġparticular":4888,"Ġpremium":4889,"ĠwayĠ":4890,"ĠwantĠ":4891,"Ġwater":4892,"Ġwinter":4893,"ĠwineĠ":4894,"Ġwalk":4895,"Ġworld":4896,"sty":4897,"stick":4898,"stock":4899,"edĠover":4900,"chos":4901,"chester":4902,"Ġmeet":4903,"Ġmusic":4904,"Ġmobil":4905,"ĠtoĠdo":4906,"ĠtoĠknow":4907,"Ġhospital":4908,"le.":4909,"le.Ġ":4910,"lequ":4911,"lesĠof":4912,"Ġdur":4913,"ĠdriveĠ":4914,"Ġdepart":4915,"usual":4916,"Ġfact":4917,"Ġfood":4918,"Ġfurther":4919,"Ġfrench":4920,"ationĠandĠ":4921,"verb":4922,"idat":4923,"ĠinĠb":4924,"ĠinĠtheĠm":4925,"ĠinĠtheĠp":4926,"igur":4927,"esĠwill":4928,"esĠinclud":4929,"raction":4930,"unn":4931,"univ":4932,"ĠyouĠwill":4933,"ĠofĠf":4934,"ĠofĠour":4935,"ĠgoogleĠ":4936,"ifĠi":4937,"Ġreleas":4938,"ecos":4939,"ecision":4940,"ecret":4941,"Ġalask":4942,"oph":4943,"opt":4944,"ablyĠ":4945,"abulousĠ":4946,"ageĠandĠ":4947,"ingĠout":4948,"ossib":4949,"utureĠ":4950,"âĢĻsĠin":4951,"plain":4952,"restĠ":4953,"queen":4954,"eĠsay":4955,"eĠshow":4956,"Ġlim":4957,"Ġlicens":4958,"umb":4959,"conduct":4960,"s.Ġ-":4961,"s.Ġw":4962,"s.Ġfor":4963,"e.Ġw":4964,"s,Ġinclud":4965,"Ġnumber":4966,"Ġnecess":4967,"e,ĠbutĠ":4968,"began":4969,"ĠasĠaĠ":4970,"antit":4971,"Ġon-":4972,"Ġshould":4973,"Ġshopp":4974,"ĠyourĠhom":4975,"anceĠb":4976,"s>Ġ<s>ĠthisĠ":4977,"dustr":4978,"Ġadapt":4979,"Ġwhit":4980,"Ġproc":4981,"etĠwith":4982,"ĠtheĠcountyĠcouncil":4983,"eĠinĠyour":4984,"eĠmed":4985,"ly.":4986,"lyĠandĠ":4987,"eĠdoĠ":4988,"eĠdown":4989,"Ġ($":4990,"ewayĠ":4991,"rubyĠ":4992,"Ġchem":4993,"efile.":4994,"phoneĠ":4995,"iesĠand":4996,"Ġspec":4997,"Ġspeech":4998,"edĠbyĠs":4999,"eĠbook":5000,"ĠtheĠfin":5001,"ĠtheĠmor":5002,"ĠtheirĠf":5003,"s.Ġs":5004,"Ġkid":5005,"Ġkind":5006,"ightĠandĠsoundĠ":5007,"workedĠwith":5008,"ĠtheĠback":5009,"ubject":5010,"commod":5011,"Ġamb":5012,"easyĠtoĠ":5013,"makeĠ":5014,"makesĠ":5015,"ĠtheĠgu":5016,"isĠavailableĠ":5017,"ĠtimeĠandĠ":5018,"assuan":5019,"ĠtheĠteam":5020,"Ġafric":5021,"ĠloveĠth":5022,"yĠofĠmeig":5023,"ouseĠ":5024,"moreĠthanĠ":5025,"Ġtraffic":5026,"argare":5027,"ĠleftĠ":5028,"presentĠ":5029,"eĠisĠs":5030,"eĠtoĠs":5031,"callop":5032,"headĠ":5033,"Ġnever":5034,"line.Ġ":5035,"ĠtheseĠs":5036,"gotĠ":5037,"ĠtheyĠhaveĠ":5038,"grant":5039,"ĠisĠan":5040,"Ġbeing":5041,"Ġbeam":5042,"ĠaccessĠ":5043,"Ġstudy":5044,"ĠstudyĠ":5045,"ĠstudentĠ":5046,"provides":5047,"prehensiveĠ":5048,"eĠwithĠtheĠ":5049,"Ġeu":5050,"Ġcontent":5051,",ĠandĠtheĠ":5052,"Ġassess":5053,"Ġassign":5054,"ientist":5055,"undred":5056,"esĠofĠtheĠ":5057,"Ġattach":5058,"Ġworkshop":5059,"seen":5060,"sequ":5061,"ampion":5062,"financial":5063,"Ġseem":5064,"companiesĠ":5065,"Ġquarter":5066,"visual":5067,"Ġhigh-":5068,"ĠhighĠschool":5069,"rett":5070,"Ġprof":5071,"Ġyuk":5072,"correct":5073,"mediation":5074,"expand":5075,"ymp":5076,"ingĠonĠtheĠ":5077,"aidĠcount":5078,"currentĠ":5079,"ĠasĠwellĠas":5080,"echnolog":5081,"relat":5082,"eĠspac":5083,"ingĠarea":5084,"ollabor":5085,"affil":5086,"Ġintel":5087,".ĠthereĠareĠ":5088,"standardĠ":5089,"completelyĠ":5090,"justic":5091,"ĠtheseĠar":5092,"Ġanalyz":5093,"ĠsoĠs":5094,"Ġcommunity":5095,"film":5096,".Ġstep":5097,"volum":5098,"alĠill":5099,"ĠanĠexc":5100,"Ġdecision":5101,"dustry":5102,"espit":5103,"featur":5104,"ĠmediaĠgroup":5105,"kitchenĠremodel":5106,"localĠauthor":5107,"supportĠ":5108,"ĠchristmasĠ":5109,"giada":5110,"utiliz":5111,"ocialĠmedia":5112,"afetyĠ":5113,"ĠaccordingĠtoĠ":5114,"personalĠdata":5115,".cĠ(map_":5116,"heldĠ":5117,"oakridg":5118,"ĠsaidĠcount":5119,"newĠyork,Ġ":5120,"rayer":5121,"ĠhopeĠyou":5122,"Ġextra":5123,"entertainment":5124,"ĠtryingĠtoĠ":5125,"ĠplanningĠapplication":5126,"ĠachieveĠ":5127,"Ġincreas":5128,"Ġarthritis":5129,"Ġaudienc":5130,"origin":5131,"unitedĠstat":5132,"believ":5133,"Ġprotection":5134,"Ġadministrat":5135,"aughter":5136,"eĠafter":5137,"invitesĠ":5138,"relevant":5139,"Ġjohn":5140,"Ġphysical":5141,"agnos":5142,"responsibleĠfor":5143,"kingdom":5144,"uggest":5145,"cheduleĠ":5146,"plugin":5147,"ubscription":5148,"ĠyouthĠprogram":5149,"Ġ*Ġmaperror.cĠ(map_":5150,"ðŁĻĤ":5151,"ifficult":5152,"ĠwithĠaĠgradeĠofĠc-":5153,"Ġaffiliat":5154,"Ġ*Ġsimple-pwquery":5155,"Ġclient":5156,"ah,Ġok":5157,"Ġtahlequ":5158,"ecosystem":5159,"efile.am":5160,"ightĠandĠsoundĠ(london":5161,"Ġtahlequah,Ġok":5162,"(c":5163,")Ġfor":5164,")Ġor":5165,",Ġan":5166,",Ġto":5167,",ĠtheĠs":5168,".ĠthatĠ":5169,"38":5170,"56":5171,"98":5172,"99":5173,"?Ġhow":5174,"aĠc":5175,"aĠm":5176,"aĠfor":5177,"burn":5178,"beĠsur":5179,"below":5180,"brok":5181,"birth":5182,"cut":5183,"cup":5184,"creen":5185,"care":5186,"court":5187,"e\"":5188,"ee":5189,"ees":5190,"eur":5191,"ey.Ġ":5192,"fail":5193,"gb":5194,"ge":5195,"gar":5196,"het":5197,"hardĠ":5198,"hospital":5199,"ias":5200,"iĠwouldĠ":5201,"lad":5202,"lich":5203,"length":5204,"mh":5205,"mat":5206,"mic":5207,"may":5208,"mind":5209,"material":5210,"movi":5211,"method":5212,"oth":5213,"p-":5214,"pu":5215,"pect":5216,"prec":5217,"pull":5218,"rĠ":5219,"rul":5220,"rant":5221,"ry.Ġ":5222,"rength":5223,"sl":5224,"sz":5225,"sman":5226,"section":5227,"session":5228,"solution":5229,"s:Ġ":5230,"usĠs":5231,"va":5232,"vin":5233,"west":5234,"woodĠ":5235,"york":5236,"zo":5237,"Ã³":5238,"Ġ'":5239,"Ġlog":5240,"Ġident":5241,"Ġevery":5242,"ĠoldĠ":5243,"eĠch":5244,"Ġtex":5245,"ĠtoldĠ":5246,"Ġtues":5247,"Ġare":5248,"Ġawar":5249,"Ġawes":5250,"inar":5251,"inform":5252,"inforc":5253,"sĠper":5254,"sĠwillĠb":5255,"erĠtoĠ":5256,"orĠin":5257,"ormon":5258,"outhern":5259,"oubt":5260,"an,Ġ":5261,"anel":5262,"anish":5263,"rep":5264,"reli":5265,"revenu":5266,"relax":5267,"Ġsant":5268,"Ġsong":5269,"Ġsav":5270,"Ġsourc":5271,"Ġsuccessful":5272,"Ġsummer":5273,"ĠsimplyĠ":5274,"ĠsecurityĠ":5275,"ato":5276,"atom":5277,"atingĠin":5278,"atellit":5279,"it's":5280,"ing,ĠandĠ":5281,"ingly":5282,"ingĠthat":5283,"ĠanyĠof":5284,"yĠor":5285,"alway":5286,".Ġl":5287,".Ġyour":5288,".Ġman":5289,".Ġher":5290,".Ġeven":5291,".Ġpleas":5292,".ĠpleaseĠ":5293,"arra":5294,"aries":5295,"arning":5296,",Ġon":5297,",Ġour":5298,",ĠnotĠ":5299,",ĠitĠisĠ":5300,"es,Ġs":5301,"espres":5302,"ofĠcours":5303,"Ġcred":5304,"Ġcost":5305,"Ġcenter":5306,"Ġclos":5307,"Ġcamp":5308,"Ġcollect":5309,"Ġcareer":5310,"ello":5311,"element":5312,"elyĠandĠ":5313,"them":5314,"through":5315,"ilityĠof":5316,"ilitiesĠ":5317,"edu":5318,"edĠthrough":5319,"ednes":5320,"ĠputĠ":5321,"Ġpassion":5322,"Ġpackag":5323,"Ġwood":5324,"Ġwomen":5325,"standĠ":5326,"stuck":5327,"edĠ(":5328,"edĠus":5329,"ĠbeĠs":5330,"Ġballoon":5331,"Ġmo":5332,"Ġmis":5333,"Ġmeas":5334,"ĠmostĠ":5335,"ĠmichelangeloĠantonioni":5336,"Ġmoment":5337,"ĠtoĠh":5338,"ĠtoĠour":5339,"isĠon":5340,"asprintf":5341,"ĠheĠ":5342,"Ġhis":5343,"entyĠof":5344,"ctiv":5345,"Ġdem":5346,"Ġdriv":5347,"Ġdriver":5348,"Ġdragon":5349,"lob":5350,"loth":5351,"losel":5352,"us,Ġ":5353,"usuallyĠ":5354,"eta":5355,"ureĠof":5356,"Ġful":5357,"Ġfranc":5358,"ationsĠ":5359,"vern":5360,"Ġinsur":5361,"ĠtoĠtheĠs":5362,"ĠtoĠtheir":5363,"imageĠ":5364,"impress":5365,"unal":5366,"ĠofĠc":5367,"ĠofĠb":5368,"ĠofĠtheĠp":5369,"amm":5370,"ament":5371,"amageĠ":5372,"ĠgodĠ":5373,"Ġrep":5374,"illust":5375,"ecor":5376,"Ġarm":5377,"needĠ":5378,"eĠthis":5379,"withĠyou":5380,"abit":5381,"aboveĠ":5382,"agar":5383,"exascal":5384,"ingĠoutĠ":5385,"otiv":5386,"platform":5387,"ĠandĠtheĠc":5388,"resourc":5389,"prostateĠhealth":5390,"akeh":5391,"quez":5392,"eĠso":5393,"eĠsolution":5394,"eĠteam":5395,"ĠliveĠ":5396,"Ġlater":5397,"Ġlaw":5398,"Ġlangu":5399,"ĠthatĠitĠ":5400,"ĠthatĠsh":5401,"romis":5402,"upgrad":5403,"evi":5404,"ĠthisĠwebsit":5405,"s.Ġc":5406,"s.Ġp":5407,"s.Ġyou":5408,"s.Ġour":5409,"s.ĠweĠ":5410,"aintĠ":5411,"e.Ġfor":5412,"Ġnational":5413,"e,Ġd":5414,"sĠofĠyour":5415,"ĠwithĠyou":5416,"antic":5417,"antly":5418,"ĠtheĠseason":5419,"ĠtheĠsecondĠ":5420,"Ġone-":5421,"ĠasĠweĠ":5422,"yourĠbusiness":5423,"sĠandĠother":5424,"sĠinĠyour":5425,"no.Ġ":5426,"club":5427,"ipleĠ":5428,"Ġadmission":5429,"Ġorgan":5430,"achineĠ":5431,"etĠc":5432,"etĠof":5433,"shin":5434,"ĠtheĠcountyĠc":5435,"william":5436,"everyĠs":5437,"newĠyouthĠprogram":5438,"outdoor":5439,"Ġconc":5440,"Ġconf":5441,"Ġcontain":5442,"Ġconnect":5443,"eĠdis":5444,"eĠdriv":5445,"Ġall-":5446,"ĠallĠyour":5447,"Ġ(b":5448,"built":5449,"ableĠfor":5450,"mentor":5451,"Ġchoic":5452,"Ġchurch":5453,"Ġexchang":5454,"ies.":5455,"ies.Ġ":5456,"lib":5457,"Ġjour":5458,"ĠtheĠfull":5459,"ignor":5460,"Ġvisit":5461,"grav":5462,"Ġi'm":5463,"ĠtheĠpar":5464,"ĠtheĠpres":5465,"ĠtheĠbook":5466,"content":5467,"specific":5468,"Ġren":5469,"ĠrightĠ":5470,"owner":5471,"commercial":5472,"easyĠ":5473,"ĠtheĠgarden":5474,"ia,Ġ":5475,"Ġtime,Ġ":5476,"assist":5477,"fully":5478,"sĠso":5479,"aven":5480,"redib":5481,"oundproof":5482,"ĠitâĢĻsĠ":5483,"s,ĠtheĠ":5484,"recentĠ":5485,"recordĠ":5486,"ĠfromĠtheĠ":5487,"Ġagric":5488,"ĠaĠsmall":5489,"Ġthem.":5490,"england":5491,"Ġtraditional":5492,"oven":5493,".Ġsom":5494,"ĠalsoĠbeĠ":5495,"whenĠyou":5496,"Ġaddres":5497,"calendar":5498,"ĠaĠperson":5499,"edĠwithĠtheĠ":5500,"Ġuniqu":5501,"ĠaĠbetter":5502,"ĠaĠbachel":5503,"ĠneedĠ":5504,"ĠitĠcom":5505,"boardĠ":5506,"Ġaccur":5507,"internet":5508,"prefer":5509,"ĠaĠmin":5510,"edĠforĠtheĠ":5511,"ĠafterĠtheĠ":5512,"moneyĠ":5513,"lictĠ":5514,"ryps":5515,"ottag":5516,"ientific":5517,"Ġ*Ġmak":5518,"sĠandĠtheir":5519,"Ġattempt":5520,"iator":5521,"ĠmoreĠthan":5522,"itsĠown":5523,"ally,":5524,"nership":5525,"seek":5526,"athroom":5527,"autom":5528,"visitĠ":5529,"Ġhighway":5530,"Ġregister":5531,"ĠmoneyĠ":5532,"Ġinternational":5533,"retail":5534,"Ġavoid":5535,"Ġavailable":5536,"Ġdoes":5537,"invitation":5538,"Ġprim":5539,"rontĠof":5540,"sĠfromĠtheĠ":5541,"higher":5542,"highlyĠ":5543,"media":5544,"ĠaĠwideĠ":5545,"ĠrelatedĠ":5546,"ymbol":5547,"ĠheadĠ":5548,"importanceĠof":5549,"ĠoverĠ":5550,"whereĠyouĠcan":5551,"radioĠ":5552,"uffic":5553,"sĠbetween":5554,"communication":5555,"Ġknowledg":5556,"informationĠon":5557,"ingĠhisĠ":5558,"ĠweightĠ":5559,"unchĠballoon":5560,"Ġtransform":5561,"ĠtoĠcreat":5562,"185":5563,"eĠglitter":5564,"ĠallowsĠyou":5565,"lifeĠ":5566,"electronic":5567,"Ġsuppl":5568,"programm":5569,"virt":5570,"ĠstatementĠ":5571,"ĠaĠlot":5572,"lessĠof":5573,"Ġadvoc":5574,"ĠgroupĠ":5575,"yĠpark":5576,"valueĠfor":5577,"kindĠof":5578,"Ġauto":5579,"blood":5580,"ĠtypesĠof":5581,"ĠlookĠatĠ":5582,"puteĠ":5583,"Ġblu":5584,"ĠbyĠtheĠ":5585,"handl":5586,"Ġdefin":5587,"ttps":5588,"restriction":5589,"fullĠof":5590,"elebr":5591,"Ġenough":5592,"nextĠyear":5593,"versionĠof":5594,"suppl":5595,"applic":5596,"balanc":5597,"privac":5598,"profil":5599,"ĠaccordingĠto":5600,"Ġalternat":5601,"ĠalternativeĠ":5602,"ĠtheĠworldâĢĻsĠ":5603,"quicklyĠ":5604,"guidelin":5605,"-inch":5606,"edĠupon":5607,"photoĠ":5608,"possibleĠtoĠ":5609,"cottishĠtelevision":5610,"yceal":5611,"population":5612,"ĠsectionĠ":5613,"specialist":5614,"implementation":5615,"avorit":5616,"Ã¼lich":5617,"environmental":5618,"unitedĠkingdom":5619,"complish":5620,"eĠcoordinator":5621,"eĠmanag":5622,"Ġspeaker":5623,"european":5624,"concept":5625,"ĠvariousĠ":5626,"official":5627,"entireĠ":5628,"ĠthereĠisĠnoĠ":5629,"Ġcalyceal":5630,"ureĠandĠfunction":5631,"doesn'tĠ":5632,"ratherĠthan":5633,"ĠtheĠhighestĠ":5634,"ĠtheĠprocessingĠof":5635,"objectiveĠ":5636,"iplin":5637,"umoĠaffiliat":5638,"examin":5639,"ctoberĠ":5640,"emotional":5641,"ĠassociatedĠwith":5642,"Ġtalent":5643,"reviousĠ":5644,"ingĠpartyĠ":5645,"Ġrecognition":5646,"earlier":5647,"Ġcredits.Ġprerequisite:":5648,"Ġbrowser":5649,"havior":5650,"ewarmingĠpartyĠ":5651,"Ġ*Ġutil.hĠ(":5652,".ĠstepĠ":5653,"oundproofĠwindow":5654,"Ġ*Ġmakefile.am":5655,"!Ġw":5656,"'dĠ":5657,",Ġat":5658,",ĠtheĠg":5659,",Ġantonioni":5660,"--":5661,"-on":5662,"-row":5663,"-endĠ":5664,".Ġand":5665,".Ġat":5666,".ĠalsoĠ":5667,".ĠaĠp":5668,".org":5669,"29":5670,"37":5671,"334":5672,"46":5673,"47":5674,"85":5675,";Ġ":5676,"_s":5677,"a-":5678,"aĠd":5679,"aĠf":5680,"away":5681,"bed":5682,"bul":5683,"bour":5684,"bak":5685,"beĠc":5686,"bound":5687,"broadc":5688,"costĠ":5689,"cardĠ":5690,"cry":5691,"clos":5692,"coffe":5693,"dal":5694,"des":5695,"degreeĠin":5696,"eetĠ":5697,"eadĠ":5698,"eautiful":5699,"ff":5700,"fol":5701,"fiveĠ":5702,"fetĠ":5703,"fitt":5704,"franc":5705,"ga":5706,"hour":5707,"handĠ":5708,"iver":5709,"iĠcan":5710,"jur":5711,"jack":5712,"junction":5713,"ka":5714,"keg":5715,"lank":5716,"miss":5717,"nectĠ":5718,"nameĠ":5719,"norm":5720,"osĠ":5721,"pil":5722,"peter":5723,"polish":5724,"sa":5725,"sf":5726,"sw":5727,"sess":5728,"tm":5729,"tleĠ":5730,"uel":5731,"usĠof":5732,"vil":5733,"wd":5734,"wild":5735,"wash":5736,"window":5737,"xt":5738,"yam":5739,"yĠsh":5740,"yes,Ġ":5741,"ynam":5742,"Ġ=":5743,"Ġenter":5744,"ĠusĠ":5745,"ĠoutĠof":5746,"Ġeducation":5747,"ĠocĠhumanĠrelation":5748,"Ġrail":5749,"Ġtip":5750,"Ġtick":5751,"Ġtty":5752,"Ġath":5753,"Ġaim":5754,"ĠaidĠ":5755,"ĠaĠplac":5756,"intĠ":5757,"inner":5758,"inĠorder":5759,"influenc":5760,"inaryĠoption":5761,"Ġthurs":5762,"sĠher":5763,"sĠwillĠbeĠ":5764,"ertĠ":5765,"ersĠin":5766,"ondĠ":5767,"tĠisĠ":5768,"orĠsh":5769,"orrow":5770,"orryĠ":5771,"enan":5772,"enic":5773,"enali":5774,"oudĠof":5775,"ĠtheĠst":5776,"ĠtheĠinformation":5777,"restorativeĠ":5778,"Ġsam":5779,"Ġsoul":5780,"Ġserv":5781,"Ġsaf":5782,"Ġsolution":5783,"Ġswitch":5784,"ĠsimpleĠ":5785,"Ġself":5786,"Ġsaturday":5787,"atĠtheĠ":5788,"atach":5789,"ately":5790,"itv":5791,"itiv":5792,"itect":5793,"itnessĠ":5794,"itimateĠ":5795,"ingĠasĠ":5796,"ingĠtheĠc":5797,"ingĠtheĠg":5798,"ingful":5799,"ingĠwasĠ":5800,"Ġansel":5801,"ĠanĠun":5802,"ĠanyĠm":5803,"alsĠ":5804,".Ġj":5805,".Ġfrom":5806,".ĠinĠ":5807,".ĠitâĢĻsĠ":5808,".Ġq:":5809,"arant":5810,"areĠa":5811,",Ġif":5812,",Ġwe":5813,",Ġmak":5814,",Ġeven":5815,"es;":5816,"esĠasĠ":5817,"es.ĠthisĠ":5818,"es,ĠtheĠ":5819,"isl":5820,"isation":5821,"isĠalso":5822,"icell":5823,"Ġcap":5824,"Ġcirc":5825,"Ġcollection":5826,"Ġcraft":5827,"ĠandĠour":5828,"ĠandĠeven":5829,"ĠandĠlong":5830,"elder":5831,"ely.Ġ":5832,"thisĠ":5833,"thetic":5834,"edĠthisĠ":5835,"edĠtheĠt":5836,"edback":5837,"Ġpool":5838,"Ġpict":5839,"Ġpiec":5840,"Ġwind":5841,"Ġword":5842,"Ġwedd":5843,"stall":5844,"stag":5845,"stitut":5846,"roof":5847,"root":5848,"robo":5849,"cheĠ":5850,"Ġblo":5851,"Ġbenefit":5852,"Ġmen":5853,"Ġmil":5854,"ĠmyĠc":5855,"Ġmult":5856,"Ġmaster":5857,"ĠtoĠyou":5858,"ĠtoĠoffer":5859,"isĠfor":5860,"isĠnotĠ":5861,"Ġhall":5862,"Ġhost":5863,"ĠholidayĠ":5864,"Ġhttp":5865,"entenc":5866,"entryĠ":5867,"leav":5868,"left":5869,"Ġdrop":5870,"Ġdamag":5871,"Ġdigital":5872,"useĠa":5873,"etting":5874,"âĢ¢":5875,"urger":5876,"Ġfound":5877,"Ġfeet":5878,"Ġfather":5879,"oln":5880,"olymp":5881,"Ġins":5882,"Ġinvolv":5883,"igg":5884,"igat":5885,"igraph":5886,"ĠtoĠtheĠp":5887,"rav":5888,"raz":5889,"unk":5890,"unlessĠ":5891,"Ġyou'll":5892,"leĠandĠ":5893,"ĠofĠtheĠw":5894,"among":5895,"amousĠ":5896,"amaz":5897,"amental":5898,"Ġgot":5899,"Ġgraph":5900,"Ġgovernment":5901,"Ġrepair":5902,"uls":5903,"ulin":5904,"ultĠof":5905,"acqu":5906,"acredĠ":5907,"ecolog":5908,"Ġallec":5909,"why":5910,"Ġston":5911,"Ġstress":5912,"neg":5913,"needĠto":5914,"eĠthe":5915,"withĠyour":5916,"ado":5917,"abin":5918,"abeth":5919,"ables":5920,"ingĠi":5921,"ingĠexperienc":5922,"oteĠ":5923,"otlandĠ":5924,"ositiveĠ":5925,"utri":5926,"comple":5927,"ĠandĠan":5928,"resultĠ":5929,"reservation":5930,"quiteĠ":5931,"haw":5932,"eĠsc":5933,"eĠsal":5934,"eĠsaid":5935,"eĠtempl":5936,"ivision":5937,"Ġlab":5938,"Ġless":5939,"perhap":5940,"ander":5941,".ĠtheĠm":5942,".ĠtheĠt":5943,"early":5944,"upon":5945,"updat":5946,"evolution":5947,"istak":5948,"s.Ġd":5949,"s.Ġm":5950,"e.Ġour":5951,"e.ĠifĠyou":5952,"ĠareĠnotĠ":5953,"lyĠon":5954,"enceĠ":5955,"enceĠw":5956,"encry":5957,"Ġforc":5958,"Ġtheat":5959,"ĠtheyĠs":5960,"s,Ġd":5961,"s,Ġyou":5962,"Ġnu":5963,"Ġnor":5964,"Ġnav":5965,"udget":5966,"beh":5967,"beaut":5968,"ĠasĠtheyĠ":5969,"ĠasĠaĠdietaryĠaid":5970,"Ġwithin":5971,"estĠandĠ":5972,"estim":5973,"ĠyourĠapplication":5974,"ell-":5975,"yourĠown":5976,"ĠaĠyear":5977,"odern":5978,"s>Ġ<s>Ġd":5979,"Ġadjust":5980,"Ġorang":5981,"ĠwhyĠ":5982,"achi":5983,"porter":5984,"portĠof":5985,"ĠtheĠcurrentĠ":5986,"newĠrelic":5987,"eĠmin":5988,"eĠmyĠ":5989,"eĠmayĠ":5990,"eĠmov":5991,"eĠmarket":5992,"eĠmeet":5993,"ly,":5994,"outcom":5995,"Ġconnection":5996,"Ġcommon":5997,"eĠdetail":5998,"ealer":5999,"builtĠ":6000,"âĢĻsĠs":6001,"ailor":6002,",Ġsc":6003,"ment,Ġ":6004,"integ":6005,"Ġaccommod":6006,"Ġaccomplish":6007,"Ġchannel":6008,"effectĠ":6009,"weĠwill":6010,"Ġexercis":6011,"Ġexplain":6012,"eĠaĠb":6013,"pher":6014,"phil":6015,"eĠtoĠyour":6016,"ies.ĠtheĠ":6017,"Ġspect":6018,"manufactur":6019,"uster":6020,"Ġjes":6021,"ĠjulyĠ":6022,"eĠbas":6023,"ĠtheĠfinal":6024,"ĠtheĠfuture":6025,"ĠtheĠmin":6026,"Ġvision":6027,"Ġvillag":6028,"ĠtheirĠ":6029,"ĠiĠhaveĠa":6030,"ĠtheĠbridg":6031,"ĠtheĠbenefit":6032,"ĠtheĠbottom":6033,"spec":6034,"'sĠm":6035,"ubeter":6036,"Ġrid":6037,"Ġrank":6038,"Ġrisk":6039,"ownedĠ":6040,"ĠtheĠdef":6041,"reativeĠ":6042,"Ġamand":6043,"eastĠ":6044,"ersâĢĻ":6045,"ersĠand":6046,"ĠtheĠgpc":6047,"ĠtimeĠin":6048,"assess":6049,"comput":6050,"ĠthereĠwas":6051,"fulfill":6052,"obvious":6053,"eĠpres":6054,"ĠtheĠtyp":6055,"Ġtaking":6056,"ĠtakesĠ":6057,"ĠtakeĠtheĠ":6058,"ĠtryĠtoĠ":6059,"yĠcours":6060,"ĠlotĠof":6061,"ulture":6062,"y,Ġor":6063,"moreĠf":6064,"incipl":6065,"incoln":6066,"howĠtoĠ":6067,"ĠageĠ":6068,"ĠaĠsingleĠ":6069,"Ġtrail":6070,"notĠtoĠ":6071,".ĠiĠam":6072,"ersĠcan":6073,"likeĠto":6074,"Ġleah":6075,"ĠaddedĠ":6076,"iodĠof":6077,"rows":6078,"ĠaĠbeautiful":6079,"ĠaĠcar":6080,"ingĠinto":6081,"ĠtheseĠl":6082,"goal":6083,"ĠtheyĠwill":6084,"boot":6085,"paidĠ":6086,"Ġscout":6087,"Ġacceler":6088,"joint":6089,"interestĠ":6090,"eĠwant":6091,"prep":6092,"Ġeither":6093,"money":6094,"parent":6095,"ottleĠ":6096,"aryland":6097,"lookĠfor":6098,"keyĠ":6099,"esĠofĠ":6100,"iscover":6101,",ĠmayĠ":6102,"iates.":6103,"includes":6104,"yĠdayĠ":6105,"yĠdesign":6106,"Ġcommand":6107,"Ġcommercial":6108,"ĠseeĠ":6109,"Ġseek":6110,"everyon":6111,"Ġregular":6112,"sĠmustĠ":6113,"racingĠp":6114,"ĠproĠ":6115,"valle":6116,"able.Ġ":6117,"mediateĠ":6118,"150":6119,"vertical":6120,"freez":6121,"freedom":6122,"Ġservices,Ġ":6123,"appoint":6124,"Ġfinanc":6125,"ĠwouldĠbeĠ":6126,"whereĠyou":6127,"echn":6128,"relatedĠ":6129,"ĠwantĠto":6130,"leadership":6131,"ĠatĠtheĠendĠof":6132,"ĠmakeĠ":6133,"studentĠ":6134,"ahn":6135,"Ġinteg":6136,"Ġtransfer":6137,"Ġtransformation":6138,".ĠthereĠisĠ":6139,"abilityĠof":6140,"oogle":6141,"Ġcompany":6142,"aux":6143,"ript":6144,"wayĠof":6145,".ĠitĠwasĠ":6146,"Ġguest":6147,"excellentĠ":6148,"responsib":6149,"consist":6150,"smith":6151,"ĠandĠpepper":6152,"lightlyĠ":6153,"ĠaccessĠtoĠ":6154,"Ġcommunities":6155,"ĠaĠret":6156,"productiveĠ":6157,"requiredĠ":6158,"s>Ġ<s>ĠifĠyou":6159,"iological":6160,"diseas":6161,"display":6162,"volunteer":6163,"universityĠof":6164,"doĠyou":6165,"Ġbasic":6166,"!ĠiâĢĻm":6167,"Ġbrand":6168,"spectiveĠ":6169,"oftwareĠ":6170,"Ġinstall":6171,"feature":6172,"aptop":6173,"opportunities":6174,"enefitĠ":6175,"Ġsetting":6176,"ordĠbloodĠ":6177,"physiolog":6178,"honor":6179,"ĠseriesĠ":6180,"letĠusĠ":6181,")Ġ[":6182,"orge":6183,"Ġsubsc":6184,"ĠfreeĠtoĠ":6185,"ĠscienceĠ":6186,"ietaryĠaideĠ":6187,"filledĠwith":6188,"privateĠ":6189,"Ġtechnical":6190,"ormoneĠ":6191,"ĠroadĠ":6192,"initelyĠ":6193,"ernel":6194,"ĠassociateĠ":6195,"Ġcalligraph":6196,"moshet":6197,"ĠinĠsightĠandĠsoundĠ(london":6198,"Ġposition":6199,"etimesĠ":6200,"concert":6201,"entertainmentĠ":6202,"knownĠasĠ":6203,"competition":6204,"-tech":6205,"piec":6206,"Ġachiev":6207,"interestedĠin":6208,"ĠqualityĠ":6209,"faction":6210,"lux":6211,"ĠstockĠexchang":6212,"buffer":6213,"ĠatĠleast":6214,"Ġappointment":6215,"eĠmonth":6216,"eĠdoes":6217,"yukonĠxl":6218,"Ġuniversity":6219,"Ġmanagement":6220,"Ġcentur":6221,"explain":6222,"ĠvideoĠ":6223,"eĠadmissionĠcounselor":6224,"relevantĠ":6225,"Ġvisitor":6226,"Ġphysician":6227,"legalĠbas":6228,"orryĠtoĠ":6229,"Ġshare":6230,"rustic":6231,"ĠtheĠlargestĠ":6232,"grandma":6233,"locatedĠin":6234,"ĠindependentĠ":6235,"ĠcaliforniaĠstateĠunivers":6236,"eĠtheyĠareĠ":6237,"umoaffil":6238,"jesus":6239,"ĠinĠmind":6240,"ĠapartmentĠ":6241,"Ġbehind":6242,"ybersourc":6243,"itizen":6244,"immediatelyĠ":6245,"abetesĠ":6246,"ĠmarchĠ":6247,"aintenanc":6248,"Ġcommitte":6249,"laser":6250,"experiment":6251,"probablyĠ":6252,"ĠorĠbetter,ĠorĠpermissionĠofĠinstructor":6253,"laboratoryĠ":6254,"nailĠpolish":6255,"nauzer":6256,"vasquez":6257,"Ġthreaten":6258,"yĠmeansĠof":6259,"atĠhatach":6260,"ambooĠplantĠ":6261,"inĠdeficienc":6262,"elizabeth":6263,"chosen":6264,"undredsĠof":6265,"ampionship":6266,"ĠyukonĠxl":6267,"rediblyĠ":6268,"rypsinĠdeficienc":6269,"icelli":6270,"enceĠwar":6271,"iates.zip":6272,"umoaffiliates.zip":6273,"atĠhatachmoshet":6274,"%),":6275,")Ġin":6276,")Ġwith":6277,")ĠhasĠbeen":6278,",ĠtoĠ":6279,",ĠtheĠm":6280,",ĠtoĠbeĠ":6281,",Ġshall":6282,"-m":6283,"-day":6284,"-se":6285,"-tim":6286,"-war":6287,"-term":6288,"-basedĠ":6289,".a":6290,".p":6291,".Ġth":6292,".Ġto":6293,".Ġthey":6294,".Ġalso":6295,".ĠthankĠyou":6296,".Ġamazon":6297,"03":6298,"43":6299,"400":6300,"55":6301,"86":6302,"?Ġ":6303,"?Ġyou":6304,"?Ġ+":6305,"aĠb":6306,"aâĢĻsĠ":6307,"badĠ":6308,"brough":6309,"boundĠ":6310,"byĠd":6311,"cm":6312,"cad":6313,"cial":6314,"countyĠcouncil":6315,"culation":6316,"crim":6317,"circ":6318,"campaign":6319,"dur":6320,"dev":6321,"dry":6322,"drop":6323,"e=":6324,"ej":6325,"eap":6326,"eoneĠ":6327,"e:Ġ":6328,"fci":6329,"gor":6330,"grat":6331,"garden":6332,"godd":6333,"gdsm":6334,"hy":6335,"han":6336,"hir":6337,"hall":6338,"hoodĠ":6339,"iar":6340,"ires":6341,"ie,Ġ":6342,"ietĠ":6343,"iantĠ":6344,"i'veĠ":6345,"jÃ¼lich":6346,"kernel":6347,"ler":6348,"lag":6349,"lip":6350,"lass":6351,"men":6352,"mitĠ":6353,"martĠ":6354,"model":6355,"non":6356,"ndĠ":6357,"nation":6358,"nav":6359,"nutrition":6360,"oh":6361,"oal":6362,"pin":6363,"pet":6364,"pleĠ":6365,"point":6366,"push":6367,"particular":6368,"potential":6369,"rd":6370,"rand":6371,"randĠ":6372,"rout":6373,"rical":6374,"rash":6375,"s\"":6376,"s'":6377,"sĠaboutĠ":6378,"simpl":6379,"simple":6380,"sĠaround":6381,"suit":6382,"t,Ġ":6383,"vinc":6384,"westĠ":6385,"walk":6386,"wrong":6387,"xtĠ":6388,"yri":6389,"y.Ġi":6390,"zon":6391,"Ãł":6392,"Ġ:":6393,"Ġx":6394,"Ġ|":6395,"Ġir":6396,"Ġell":6397,"Ġlow":6398,"Ġeveryth":6399,"eĠhasĠ":6400,"Ġtn":6401,"Ġtur":6402,"ĠtableĠ":6403,"ĠtestĠ":6404,"Ġtrip":6405,"Ġaz":6406,"ĠaĠto":6407,"ĠaĠch":6408,"Ġareas":6409,"ĠaĠspecial":6410,"in.Ġ":6411,"inct":6412,"inĠtheĠm":6413,"inĠour":6414,"iningĠroom":6415,"Ġthick":6416,"sĠf":6417,"sĠcom":6418,"sĠwasĠ":6419,"sĠâĢľ":6420,"sĠâĢĵ":6421,"sĠunder":6422,"sĠhaveĠa":6423,"sĠshouldĠ":6424,"erĠandĠ":6425,"erĠw":6426,"onĠb":6427,"onent":6428,"oneĠs":6429,"onĠour":6430,"onian":6431,"oryĠ":6432,"oral":6433,"orsĠin":6434,"orizon":6435,"ena":6436,"en,Ġ":6437,"enabl":6438,"enalt":6439,"ĠtheĠyear":6440,"ĠtheĠrightĠ":6441,"anic":6442,"ansp":6443,"reform":6444,"Ġsell":6445,"ĠsaveĠ":6446,"Ġseat":6447,"Ġsimpl":6448,"Ġskin":6449,"Ġsaid":6450,"ĠsingleĠ":6451,"Ġsector":6452,"Ġsweet":6453,"Ġsecurity":6454,"ĠsweetĠ":6455,"ateĠtheĠ":6456,"atedĠin":6457,"ature":6458,"itar":6459,"itĠalsoĠ":6460,"ing/":6461,"ingle":6462,"ingsĠandĠ":6463,"ingĠandĠs":6464,"ingsĠareĠ":6465,"ingĠthrough":6466,"ingĠaĠp":6467,"ingĠstrateg":6468,"ingĠproject":6469,"ĠanĠintro":6470,"Ġanatom":6471,"yĠwin":6472,"aldĠ":6473,"alĠd":6474,".Ġch":6475,".ĠbridgetĠ":6476,"ary.Ġ":6477,"arĠhill":6478,",Ġj":6479,",Ġk":6480,",Ġfrom":6481,",Ġmor":6482,"esĠat":6483,"often":6484,"isedĠ":6485,"isĠanĠ":6486,"island":6487,"icl":6488,"Ġcur":6489,"Ġcity":6490,"Ġcool":6491,"Ġcare":6492,"Ġcouncil":6493,"Ġcourt":6494,"Ġcopy":6495,"Ġcelebrat":6496,"ĠandĠyour":6497,"ĠandĠwill":6498,"ĠandĠhasĠ":6499,"ĠandĠcontinu":6500,"elic":6501,"elyĠs":6502,"elbour":6503,"ilm":6504,"ilead":6505,"youth":6506,"youĠlik":6507,"youĠneedĠtoĠ":6508,"forward":6509,"ed;":6510,"edic":6511,"edicat":6512,"edarĠhill":6513,"Ġpink":6514,"ĠpostĠ":6515,"Ġpath":6516,"Ġpoll":6517,"Ġp.m":6518,"Ġpolit":6519,"Ġpanel":6520,"Ġwar":6521,"Ġwid":6522,"Ġwest":6523,"Ġwelcom":6524,"steadĠof":6525,"edĠ\"":6526,"edĠh":6527,"edĠoff":6528,"edĠintoĠ":6529,"edĠstudent":6530,"rook":6531,"chand":6532,"Ġbec":6533,"ĠbyĠs":6534,"Ġmer":6535,"Ġmain":6536,"Ġmother":6537,"Ġmajor":6538,"Ġmemor":6539,"Ġmeeting":6540,"ĠtoĠus":6541,"ĠtoĠhisĠ":6542,"isĠb":6543,"Ġhi":6544,"ĠhardĠ":6545,"Ġhair":6546,"Ġhotel":6547,"Ġdat":6548,"Ġdes":6549,"Ġdev":6550,"Ġdeliver":6551,"Ġdeep":6552,"Ġduring":6553,"Ġdetermin":6554,"Ġdestination":6555,"lotĠ":6556,"lovel":6557,"usc":6558,"usyĠ":6559,"usal":6560,"usesĠ":6561,"usedĠfor":6562,"Ġfast":6563,"ĠfoundĠ":6564,"Ġflower":6565,"Ġfram":6566,"Ġfirst":6567,"ĠfieldĠ":6568,"Ġfloor":6569,"veryĠs":6570,"veryĠb":6571,"ĠinĠg":6572,"ĠinĠtheĠs":6573,"Ġinsid":6574,"igel":6575,"Ġtot":6576,"ĠtoĠall":6577,"ĠtoĠtheĠf":6578,"ĠtoĠaĠc":6579,"imiz":6580,"esĠwhich":6581,"rak":6582,"rastruct":6583,"union":6584,"unfortun":6585,"leĠin":6586,"Ġoften":6587,"americ":6588,"ird":6589,"irdĠ":6590,"irror":6591,"Ġgar":6592,"ĠgiveĠ":6593,"Ġgplac":6594,"Ġglam":6595,"ĠgovernmentĠ":6596,"ifĠitĠ":6597,"Ġreplac":6598,"Ġreput":6599,"ullet":6600,"illboard":6601,"acific":6602,"opulation":6603,"eĠthre":6604,"eĠthink":6605,"adv":6606,"adeĠ":6607,"ademic":6608,"abs":6609,"abbath":6610,"agre":6611,"age,Ġ":6612,"agnet":6613,"aggress":6614,"exact":6615,"exchang":6616,"ingĠ&":6617,"ingĠnew":6618,"otiveĠ":6619,"utton":6620,"ay.Ġ":6621,"ay,Ġ":6622,"ayĠalsoĠ":6623,"plication":6624,"plusĠ":6625,"entĠof":6626,"ĠandĠall":6627,"itĠseem":6628,"proposal":6629,"aker":6630,"quiet":6631,"eĠsureĠ":6632,"eĠsaidĠ":6633,"eĠsortĠof":6634,"eĠtour":6635,"eĠtru":6636,"eĠtrain":6637,"ĠlightĠ":6638,"Ġluck":6639,"Ġlondon":6640,"ĠlatestĠ":6641,"Ġltd":6642,"umentĠ":6643,"ĠthatĠitĠisĠ":6644,"essential":6645,"congressĠ":6646,"confirm":6647,"oost":6648,"oodo":6649,"upg":6650,"upp":6651,"evĠsur":6652,"ĠthisĠweek":6653,"s.Ġl":6654,"e.Ġb":6655,"e.Ġh":6656,"enceĠof":6657,"ĠforĠtheir":6658,"Ġformer":6659,"ĠtheyĠc":6660,"asĠof":6661,"Ġnurs":6662,"e,Ġin":6663,"ĠasĠan":6664,"ĠasĠaĠs":6665,"sĠofĠb":6666,"ĠtheĠsid":6667,"ĠtheĠservic":6668,"estimat":6669,"estroy":6670,"Ġonc":6671,"ĠonĠ":6672,"ĠonĠyour":6673,"Ġonly":6674,"ĠonlineĠ":6675,"Ġshipp":6676,"ĠshortĠ":6677,"ĠyourĠcomputer":6678,"rief":6679,"eĠcas":6680,"eĠcell":6681,"ancell":6682,",ĠandĠother":6683,"apableĠ":6684,"sĠandĠd":6685,"proud":6686,"proudĠof":6687,"ateĠfor":6688,"sĠinĠour":6689,"sĠinto":6690,"s>Ġ<s>Ġs":6691,"s>Ġ<s>Ġc":6692,"s>Ġ<s>Ġour":6693,"cloudĠ":6694,"dueĠto":6695,"ductor":6696,"Ġadopt":6697,"Ġorient":6698,"Ġprostat":6699,"Ġproposal":6700,"achen":6701,"poration":6702,"ĠatĠall":6703,"etĠup":6704,"ĠtheĠcirc":6705,"willingĠtoĠ":6706,"everĠyou":6707,"former":6708,"formĠof":6709,"newspaper":6710,"bert":6711,"eĠmeeting":6712,"Ġconduc":6713,"ĠcongressĠ":6714,"ocean":6715,"ocusĠon":6716,"occup":6717,"Ġ(t":6718,"Ġ(âĢľ":6719,"ealĠplan":6720,"viaĠ":6721,",Ġsinc":6722,"mentĠandĠ":6723,"intellig":6724,"Ġacros":6725,"Ġacknowledg":6726,"ĠchildĠ":6727,"Ġexascal":6728,"eĠavailableĠ":6729,"Ġspend":6730,"Ġjoint":6731,"Ġjoin":6732,"edĠbyĠc":6733,"ĠtheĠfutur":6734,"portion":6735,"anger":6736,"s.h":6737,"s.ĠsheĠ":6738,"Ġi'veĠ":6739,"Ġke":6740,"Ġkill":6741,"Ġknew":6742,"ĠthatĠareĠ":6743,"ĠtheĠpart":6744,"ĠtheĠpeopleĠ":6745,"ĠtheĠbest":6746,"contest":6747,"here.":6748,"yearsĠ":6749,"edĠtoĠbeĠ":6750,"'sĠs":6751,"'sĠmostĠ":6752,"irectĠ":6753,"Ġrental":6754,"ownersĠ":6755,"egg":6756,"ĠtheĠdevelopmentĠ":6757,"edĠinformation":6758,"commandĠ":6759,"logg":6760,"ĠamĠi":6761,"easil":6762,"easure":6763,"ĠtimeĠyou":6764,"compa":6765,"compens":6766,"yĠson":6767,"obl":6768,"eĠpre":6769,"eĠpeopleĠ":6770,"eĠpower":6771,"eĠpixel":6772,"uchĠas":6773,"iesĠin":6774,"Ġtakes":6775,"sĠservic":6776,"sĠsinceĠ":6777,"ooki":6778,"ĠtryĠ":6779,"Ġtrim":6780,"Ġtrend":6781,"sĠforĠsal":6782,"Ġaff":6783,"yĠcolleg":6784,"ĠusingĠ":6785,"yĠoffer":6786,"doing":6787,"ĠourĠl":6788,"oneĠisĠ":6789,"recip":6790,"recentlyĠ":6791,"Ġtraum":6792,"ĠtheĠlist":6793,".Ġi'veĠ":6794,".ĠsomeĠ":6795,"Ġresourc":6796,"ĠresultĠ":6797,"Ġreservation":6798,"remin":6799,"ĠtoĠseeĠ":6800,"antĠs":6801,"tooĠ":6802,"Ġlearn":6803,"iobuf":6804,"eĠisĠdesignedĠfor":6805,"rowdĠ":6806,"ĠitĠwas":6807,"ectionĠof":6808,"ingĠinĠ":6809,"eĠfamil":6810,"eĠfeel":6811,"boy":6812,"Ġaccident":6813,"ĠstudioĠ":6814,"Ġstudios":6815,"evenĠthough":6816,"pre-":6817,"ingĠmyĠ":6818,"ĠaĠmed":6819,"urnit":6820,"usĠ(":6821,"ĠaĠgreat":6822,"monitor":6823,"Ġcontract":6824,"ĠnewĠyork":6825,"sĠwithin":6826,"e-to-":6827,"eĠhigh":6828,"ĠaĠdifferentĠ":6829,"producer":6830,"renew":6831,"Ġ*Ġtty":6832,"ingĠcustom":6833,"ingĠcampaign":6834,"sĠandĠtheĠ":6835,"endĠup":6836,"Ġattention":6837,"iatric":6838,"ixt":6839,"includeĠ":6840,"whatĠi":6841,"storag":6842,"evelopment":6843,"Ġupdat":6844,"loseĠ":6845,"ugar":6846,"ingĠdata":6847,"ingĠdirector":6848,".Ġmr":6849,"Ġcommission":6850,"final":6851,"ĠanyĠother":6852,"guest":6853,"guard":6854,"Ġapprec":6855,"landscap":6856,"Ġregulation":6857,"Ġartist":6858,"Ġmoney":6859,"ractĠ":6860,"Ġdog":6861,"flag":6862,"medical":6863,"156":6864,"eĠliv":6865,"status":6866,"ĠtheĠproblem":6867,"expensiveĠ":6868,"Ġremember":6869,"basic":6870,"Ġfinal":6871,"Ġfinancial":6872,"147":6873,"aidĠcommission":6874,"Ġmedical":6875,"Ġmediation":6876,"ĠmayĠbeĠ":6877,"ĠweĠwill":6878,"needsĠtoĠ":6879,"related":6880,",ĠyouâĢĻll":6881,"ingĠhand":6882,"ĠoutputĠ":6883,"ĠwhenĠyou":6884,".ĠinĠaddition":6885,"Ġintegrat":6886,"plann":6887,"madeĠ":6888,"riday":6889,".ĠweĠhaveĠ":6890,",ĠweĠcan":6891,"ĠtoĠcreateĠ":6892,"eĠgoodĠ":6893,"decoĠ":6894,"ĠthoughtĠ":6895,"vari":6896,"Ġsupplement":6897,"erciseĠ":6898,"excell":6899,"qualifi":6900,"educational":6901,"riendlyĠ":6902,"ĠmindĠ":6903,"happy":6904,"happyĠ":6905,"axk":6906,"nessĠandĠ":6907,"smartĠ":6908,"sĠpag":6909,"sĠprior":6910,"Ġadvantag":6911,"Ġapprox":6912,"132":6913,"133":6914,"yĠpeopleĠ":6915,"value=":6916,"Ġparent":6917,"wantĠtoĠ":6918,"effectiv":6919,"Ġtraining":6920,"uperb":6921,"block":6922,",ĠwhichĠisĠ":6923,"ross-":6924,"universityĠ":6925,"university":6926,"Ġrequir":6927,"Ġrequest":6928,"ounselor":6929,"doĠnotĠ":6930,"ĠanĠext":6931,",ĠwithĠtheĠ":6932,"ĠofĠsumoĠaffiliat":6933,"becauseĠitĠ":6934,"Ġdefianc":6935,"!!!":6936,",ĠweĠwill":6937,"Ġpre-":6938,"ĠdoĠnotĠ":6939,"Ġdecor":6940,"eĠtimeĠtoĠ":6941,"featureĠ":6942,"Ġenvironment":6943,"confession":6944,"opportunityĠ":6945,"obileĠ":6946,"-fi":6947,"burg":6948,"burgh":6949,"Ġco-coordinator":6950,"ographic":6951,"ĠgetĠyour":6952,"ursu":6953,"-cell":6954,"electionĠof":6955,"ĠincludesĠ":6956,"Ġunderstand":6957,"Ġsurviv":6958,"ĠtoĠmakeĠa":6959,"profitĠ":6960,"658":6961,"ĠtreatmentĠ":6962,"ospel":6963,"contactĠus":6964,"Ġassociation":6965,"iously":6966,"representativeĠ":6967,"representativ":6968,"rapp":6969,"shallĠb":6970,"delet":6971,"hearĠaboutĠyour":6972,"uniqueĠ":6973,"mostĠof":6974,"ĠpresidentĠ":6975,"assionateĠ":6976,"Ġrequired":6977,"popular":6978,"Ġpossib":6979,"earned":6980,"ribution":6981,"Ġsomeon":6982,"friendly":6983,"lastĠyear":6984,"robot":6985,"Ġhouse.Ġ":6986,"ĠintoĠtheĠ":6987,"eptional":6988,"ĠachieveĠth":6989,",ĠâĢľantonioni":6990,"eĠtheĠbestĠ":6991,"oulderĠpain":6992,"faith":6993,"Ã¼ren":6994,"ĠcreativeĠ":6995,"embrac":6996,",Ġalthough":6997,"believeĠth":6998,"meansĠ":6999,"ottonĠsw":7000,"company'sĠ":7001,"Ġmuskeg":7002,"urinaryĠs":7003,"addock":7004,"itĠcardĠ":7005,"Ġadministration":7006,"Ġregional":7007,"Ġremoved.Ġ":7008,"aughtĠ":7009,"Ġsatis":7010,"ĠpropertyĠ":7011,"weightĠlos":7012,"doesnâĢĻtĠ":7013,"oodnt":7014,"regardlessĠof":7015,"means":7016,"ateĠcrim":7017,"Ġgrowth":7018,"objectiv":7019,"basedĠonĠtheĠ":7020,"anyoĠ":7021,"reveal":7022,"ĠtheĠscreen":7023,"Ġrunning":7024,"regional":7025,"ĠdoesĠnotĠ":7026,"Ġparticipant":7027,"ĠdiningĠroom":7028,"Ġgradu":7029,"proced":7030,"eĠtaken":7031,"graduatedĠfrom":7032,"Ġletter":7033,"Ġclassic":7034,"normal":7035,"ĠprivateĠ":7036,"character":7037,"ĠalreadyĠ":7038,"beverly":7039,"eĠinterest":7040,"soonĠasĠ":7041,"certainlyĠ":7042,"ĠtheĠnationalĠpark":7043,"jesusĠ":7044,"taken":7045,"eparat":7046,"ignificantĠ":7047,"payĠfor":7048,"Ġthird":7049,"ĠthirdĠ":7050,"Ġbegin":7051,"oliveĠtre":7052,"immediately":7053,"emporaryĠ":7054,"Ġarchitect":7055,"principlesĠof":7056,"ĠjuneĠ":7057,"ĠabsolutelyĠ":7058,"-the-":7059,"Ġrepresentativ":7060,"uttg":7061,"eposit":7062,"ĠscottishĠtelevision":7063,"Ġsomething":7064,"victorian":7065,"Ġsoftwar":7066,"elegantĠ":7067,"Ġpalm":7068,"Ġfellowship":7069,"Ġrespons":7070,"Ġconcern":7071,"recogniz":7072,"journalist":7073,"Ġbroadcaster":7074,"ĠtheĠbasic":7075,"veget":7076,"zydecoĠ":7077,"Ġgenetic":7078,"expression":7079,"Ġlayer":7080,"eĠcurrent":7081,"ocolateĠ":7082,"Ġspirit":7083,"Ġrhea":7084,"ebruaryĠ":7085,"itiativ":7086,"Ġchemical":7087,"ĠquarterlyĠ":7088,"oakridgeĠ":7089,"Ġ*Ġsimple-pwquery.cĠ(":7090,"p-value=":7091,"Ã³n":7092,"ĠawesomeĠ":7093,"ednesday":7094,"eta-cell":7095,"akeholder":7096,"etĠcityĠ":7097,"ufficientĠ":7098,"puteĠresolution":7099,"normallyĠ":7100,"yamevĠsur":7101,"Ġthursday":7102,"robotĠ":7103,"ĠtheĠgpca":7104,"incolnĠindustri":7105,"ietaryĠaideĠresum":7106,"orryĠtoĠhearĠaboutĠyour":7107,"boundĠmarket":7108,"anspar":7109,"aggressorĠsh":7110,"oodooĠ":7111,"e-to-fac":7112,"ottonĠswab":7113,"\"s":7114,"%Ġ(":7115,"%ci":7116,"(t":7117,"(newĠyork":7118,",Ġth":7119,",ĠtheĠb":7120,",ĠaĠb":7121,",ĠaĠf":7122,",ĠanĠ":7123,",Ġturn":7124,"-Ġ":7125,"-mak":7126,"-oldĠ":7127,"-to-":7128,"-nightĠ":7129,"-antit":7130,".t":7131,".Ġthen":7132,".ĠtwoĠ":7133,".Ġtaken":7134,"/.":7135,"/t":7136,"04":7137,"07":7138,"33":7139,"52":7140,"54":7141,"600":7142,"??":7143,"ault":7144,"award":7145,"ben":7146,"ban":7147,"bum":7148,"blow":7149,"blog":7150,"batter":7151,"cp":7152,"col":7153,"cam":7154,"cop":7155,"cos":7156,"cast":7157,"careĠ":7158,"customer":7159,"capt":7160,"capac":7161,"danc":7162,"driveĠ":7163,"driver":7164,"draw":7165,"dragon":7166,"dollar":7167,"describ":7168,"difficult":7169,"eightĠ":7170,"eâĢĿ":7171,"eed,Ġ":7172,"fig":7173,"field":7174,"founder":7175,"federal":7176,"goneĠ":7177,"gift":7178,"government":7179,"gcry":7180,"gorge":7181,"hk":7182,"hin":7183,"hub":7184,"hys":7185,"hug":7186,"ien":7187,"ially":7188,"iâĢĻm":7189,"i-fi":7190,"jan":7191,"jud":7192,"jump":7193,"januaryĠ":7194,"kh":7195,"kast":7196,"ld":7197,"lil":7198,"mb":7199,"meĠ":7200,"mis":7201,"mid":7202,"mart":7203,"myĠd":7204,"moveĠ":7205,"michelangeloĠantonioni":7206,"np":7207,"neĠ":7208,"ningĠ":7209,"o'":7210,"oat":7211,"p)":7212,"pal":7213,"pag":7214,"pha":7215,"pointĠ":7216,"premium":7217,"prior":7218,"risĠ":7219,"rud":7220,"rareĠ":7221,"rys":7222,"rofessional":7223,"ranch":7224,"s/":7225,"sr":7226,"seĠof":7227,"sell":7228,"saveĠ":7229,"sĠtheĠm":7230,"saf":7231,"sĠthrough":7232,"season":7233,"safet":7234,"simpleĠ":7235,"simplyĠ":7236,"ugh":7237,"usĠfor":7238,"uimĠdomain":7239,"wir":7240,"wad":7241,"wentĠ":7242,"wedd":7243,"weĠcan":7244,"worldĠ":7245,"women":7246,"x-":7247,"xasprintf":7248,"yardĠ":7249,"yself":7250,"yĠstor":7251,"ygi":7252,"zh":7253,"Â©":7254,"Â·":7255,"Ã¶":7256,"ëĭ":7257,"ìĿ":7258,"Ġ@":7259,"Ġru":7260,"Ġeat":7261,"ĠeventĠ":7262,"Ġversion":7263,"Ġvia":7264,"Ġerror":7265,"Ġenterpris":7266,"ĠðŁĻĤ":7267,"eĠ-":7268,"eĠwhatĠ":7269,"eĠuntil":7270,"eĠstudent":7271,"Ġtom":7272,"Ġtel":7273,"Ġtab":7274,"Ġtap":7275,"Ġtank":7276,"Ġtext":7277,"Ġtemper":7278,"Ġax":7279,"Ġara":7280,"ĠaĠhealth":7281,"Ġa.m":7282,"ini":7283,"inum":7284,"insid":7285,"inĠmyĠ":7286,"inĠaddition":7287,"Ġthus":7288,"sĠen":7289,"sĠif":7290,"sĠout":7291,"sĠprovid":7292,"sĠwouldĠ":7293,"sĠwer":7294,"sĠhaveĠbeen":7295,"erĠf":7296,"erĠv":7297,"erton":7298,"eremon":7299,"ont":7300,"ontoĠ":7301,"onĠtheĠt":7302,"onâĢĻtĠ":7303,"orb":7304,"orf":7305,"oreĠ":7306,"orsĠ":7307,"orĠother":7308,"enedĠ":7309,"ench":7310,"ouis":7311,"ouple":7312,"ĠtheĠ\"":7313,"ĠtheĠa":7314,"ĠtheĠnew":7315,"ĠtheĠway":7316,"ĠtheĠnextĠ":7317,"ĠtheĠendĠof":7318,"anĠansel":7319,"really":7320,"reput":7321,"repair":7322,"rehensiveĠ":7323,"reinforc":7324,"Ġsk":7325,"ĠsayĠ":7326,"Ġscal":7327,"ĠsoundĠ":7328,"Ġsimilar":7329,"atit":7330,"atoĠ":7331,"ateĠtoĠ":7332,"atesĠandĠ":7333,"attooĠ":7334,"atyamevĠsur":7335,"ingu":7336,"ings,Ġ":7337,"ingĠall":7338,"ing,Ġs":7339,"ingĠpl":7340,"ingĠaĠb":7341,"ingĠwork":7342,"ingĠaround":7343,"ĠanyĠs":7344,"ĠanĠhour":7345,"yĠwasĠ":7346,"alanc":7347,".Ġk":7348,".Ġis":7349,".Ġun":7350,".ĠoneĠ":7351,".Ġnot":7352,".Ġwhil":7353,".Ġcheck":7354,".ĠwhileĠ":7355,".Ġit'sĠ":7356,"artĠof":7357,"aria":7358,",Ġbe":7359,",Ġpa":7360,",ĠinĠ":7361,",ĠpleaseĠ":7362,"esh":7363,"esĠas":7364,"estĠof":7365,"estern":7366,"esthetic":7367,"oĠdi":7368,"of-":7369,"isan":7370,"isition":7371,"isĠalsoĠ":7372,"icateĠ":7373,"iction":7374,"Ġcop":7375,"Ġcut":7376,"ĠcareĠ":7377,"Ġclear":7378,"ĠcreateĠ":7379,"Ġcampaign":7380,"ĠcurrentĠ":7381,"Ġcategor":7382,"oman":7383,"omeĠof":7384,"omination":7385,"ĠandĠprovid":7386,"elim":7387,"elong":7388,"elessĠ":7389,"theĠs":7390,"ilber":7391,"forum":7392,"forĠtheir":7393,"forsch":7394,"forwardĠ":7395,"ed!":7396,"edĠall":7397,"edĠandĠs":7398,"edĠaĠc":7399,"edonian":7400,"Ġpo":7401,"Ġpound":7402,"Ġprec":7403,"ĠpaidĠ":7404,"ĠpointĠ":7405,"Ġprior":7406,"ĠweĠcan":7407,"ĠworldĠ":7408,"Ġwonder":7409,"Ġwait":7410,"stant":7411,"startĠ":7412,"edĠst":7413,"edĠoutĠ":7414,"edĠunder":7415,"edĠproduct":7416,"chain":7417,"chip":7418,"child":7419,"chicken":7420,"Ġbrit":7421,"Ġbreak":7422,"Ġbrown":7423,"Ġmal":7424,"Ġmind":7425,"Ġmph":7426,"Ġmachin":7427,"ĠtoĠhaveĠ":7428,"ĠtoĠcomplet":7429,"ĠtoĠperform":7430,"ĠtoĠhaveĠa":7431,"ĠtoĠcheck":7432,"isĠin":7433,"Ġhol":7434,"Ġhir":7435,"Ġhard":7436,"ĠhotĠ":7437,"entre":7438,"entic":7439,"entrum":7440,"Ġdr":7441,"Ġdet":7442,"Ġdiss":7443,"Ġdeb":7444,"Ġdivers":7445,"Ġdegre":7446,"ĠduringĠtheĠ":7447,"Ġdiscussion":7448,"ĠdamageĠ":7449,"loom":7450,"looseĠ":7451,"uses":7452,"usingĠ":7453,"uroĠ":7454,"urpris":7455,"Ġfresh":7456,"Ġfield":7457,"Ġfocus":7458,"Ġfabric":7459,"Ġfaith":7460,"ation.":7461,"ationsĠof":7462,"ationsĠfor":7463,"olveĠ":7464,"veryĠm":7465,"ideas":7466,"Ġinch":7467,"Ġinstruction":7468,"igration":7469,"igiousĠ":7470,"iginal":7471,"Ġtow":7472,"ĠtoĠthisĠ":7473,"ĠtoĠspendĠ":7474,"imb":7475,"imul":7476,"immediateĠ":7477,"esĠover":7478,"esĠcan":7479,"esĠlik":7480,"esĠinĠtheĠ":7481,"esĠprogram":7482,"emal":7483,"embl":7484,"emester":7485,"ĠyoutubeĠ":7486,"oward":7487,"ĠofĠa":7488,"ĠofĠw":7489,"ĠofĠtheĠg":7490,"ameĠs":7491,"amber":7492,"ameĠa":7493,"Ġgain":7494,"Ġgrac":7495,"Ġgather":7496,"Ġgender":7497,"ifĠtheĠ":7498,"ifies":7499,"Ġref":7500,"Ġrev":7501,"Ġrefer":7502,"Ġreli":7503,"Ġrestor":7504,"ulator":7505,"acu":7506,"acdon":7507,"account":7508,"eco":7509,"ecid":7510,"ecureĠ":7511,"Ġalign":7512,"Ġaldi":7513,"Ġarrang":7514,"ĠstayĠ":7515,"Ġstamp":7516,"Ġstopp":7517,"Ġstrong":7518,"ĠstemĠcell":7519,"Ġstuttg":7520,"ney":7521,"needĠfor":7522,"withĠb":7523,"withĠaĠ":7524,"admin":7525,"ada,Ġ":7526,"ourĠf":7527,"ourĠteam":7528,"exerciseĠ":7529,"ingĠn":7530,"ingĠyear":7531,"ingĠissu":7532,"ota":7533,"otom":7534,"osĠandĠ":7535,"osition":7536,"osfetĠ":7537,"utor":7538,"utral":7539,"âĢĻ,":7540,"âĢĻsĠto":7541,"plus":7542,"ĠandĠa":7543,"ĠandĠaĠc":7544,"resist":7545,"reserv":7546,"prov":7547,"prostat":7548,"proven":7549,"projectĠ":7550,"hawa":7551,"eĠsit":7552,"eĠsuch":7553,"eĠsomeĠ":7554,"eĠsupport":7555,"eĠtra":7556,"eĠtod":7557,"eĠtyp":7558,"eĠteach":7559,"eĠtechnolog":7560,"ivity":7561,"ĠlistĠof":7562,"umph":7563,"ĠthatĠwill":7564,"ĠthatĠweĠ":7565,"conclud":7566,"construction":7567,"connection":7568,"permitt":7569,"period":7570,"romotion":7571,".ĠtheĠb":7572,".ĠtheĠd":7573,"ĠthisĠis":7574,"istan":7575,"s.Ġ\"":7576,"s.ĠyouĠcan":7577,"s.Ġwhen":7578,"e.Ġif":7579,"e.ĠwhatĠ":7580,"ence,Ġ":7581,"asĠwell":7582,"epid":7583,"epatit":7584,"s,Ġb":7585,"s,Ġwith":7586,"s,ĠweĠ":7587,"s,ĠbutĠ":7588,"Ġnigel":7589,"e,Ġf":7590,"e,Ġour":7591,"e,Ġbut":7592,"beat":7593,"Ġash":7594,"ĠasĠtheir":7595,"sĠoffic":7596,"ĠwithĠa":7597,"ĠwithĠyour":7598,"ĠtheĠshow":7599,"eston":7600,"Ġshin":7601,"Ġshower":7602,"rik":7603,"rier":7604,"riev":7605,"rivers":7606,"eĠcenter":7607,"eĠcolleg":7608,"ancer":7609,"elliteĠ":7610,"apan":7611,"yourĠ":7612,"yourĠf":7613,"thermalĠresist":7614,"sĠandĠb":7615,"odimm":7616,"sĠint":7617,"s>Ġ<s>ĠtheĠc":7618,"s>Ġ<s>Ġi":7619,"s>Ġ<s>ĠhereĠ":7620,"noon":7621,"clip":7622,"classĠ":7623,"duck":7624,"Ġadoption":7625,"ĠorĠbioĠ":7626,"Ġproper":7627,"ĠprocessĠ":7628,"Ġproduction":7629,"Ġprobab":7630,"ĠprostateĠhealth":7631,"porateĠ":7632,"ardwareĠ":7633,"ĠtheĠcenter":7634,"ĠtheĠcareer":7635,"willĠ":7636,"willĠnotĠ":7637,"articleĠ":7638,"berkel":7639,"eĠmod":7640,"outputĠ":7641,"Ġconduct":7642,"Ġconsider":7643,"Ġcongres":7644,"Ġconvenienc":7645,"outĠgroup":7646,"ĠcomprehensiveĠ":7647,"eĠdesign":7648,"ialogu":7649,"ĠisĠf":7650,"ĠisĠoneĠof":7651,"buck":7652,"haveĠs":7653,"haveĠyou":7654,"Ġabb":7655,"Ġabid":7656,"ewel":7657,"ruit":7658,"ĠcanĠb":7659,"mental":7660,"ment,ĠandĠ":7661,"intention":7662,"integrat":7663,"ĠactĠ":7664,"Ġcharg":7665,"Ġchina":7666,"eĠandĠd":7667,"e.Ġa":7668,"e.ĠsoĠ":7669,"otherĠ":7670,"otherĠhand":7671,"mann":7672,"many":7673,"manchester":7674,"ensureĠ":7675,"Ġjam":7676,"Ġjudg":7677,"edĠbetween":7678,"eĠbeli":7679,"eĠbetween":7680,"ĠtheĠfour":7681,"ĠtheĠfact":7682,"Ġval":7683,"Ġvoter":7684,"grac":7685,"Ġi-war":7686,"Ġken":7687,"ĠkeyĠ":7688,"ĠthatĠthisĠ":7689,"Ġthat's":7690,"workĠwith":7691,"ĠtheĠbox":7692,"contract":7693,"herald":7694,"spot":7695,"speech":7696,"edĠtoĠb":7697,"edĠtoĠmak":7698,"ired":7699,"194":7700,"Ġrang":7701,"ĠratesĠ":7702,"ibr":7703,"notĠonlyĠ":7704,"ĠtheĠdamag":7705,"ĠtheĠdirection":7706,"ĠtheĠdecision":7707,"Ġplus":7708,"commit":7709,"command":7710,"logger":7711,"ĠamountĠof":7712,"ĠhaveĠtheĠ":7713,"ĠhaveĠanyĠ":7714,"easel":7715,"makeĠa":7716,"Ġtime,":7717,"ĠtimeĠwith":7718,"assoc":7719,"comprehensiveĠ":7720,"ĠthereĠwasĠ":7721,"....":7722,"obahn":7723,"eĠpoint":7724,"ĠtheĠtown":7725,"ĠtheĠtrans":7726,"ookĠher":7727,"ook-up":7728,"Ġtrick":7729,"ĠtrustĠ":7730,"Ġtrash":7731,"sĠforĠ":7732,"ĠaffectĠ":7733,"yĠcall":7734,"yĠcard":7735,"actuallyĠ":7736,"ingĠsoĠ":7737,"ingĠsomeĠ":7738,"Ġusing":7739,"ĠusedĠ":7740,"butĠitĠ":7741,"ĠbeĠableĠtoĠ":7742,"ouslyĠ":7743,"ously":7744,"ultipleĠ":7745,"postĠon":7746,"es,Ġwhich":7747,"es.Ġc":7748,"es.ĠitĠ":7749,"Ġit.Ġ":7750,"ĠitĠall":7751,"Ġit'sĠ":7752,"Ġit's":7753,"s,ĠthisĠ":7754,"rectĠ":7755,"inceĠthen":7756,"ĠandĠservic":7757,"ĠtheĠlordĠ":7758,".ĠiĠhaveĠ":7759,".ĠiĠthink":7760,".Ġi'm":7761,"argin":7762,"arget":7763,"viewĠh":7764,"viewĠof":7765,".ĠsectionĠ":7766,"likeĠtheĠ":7767,"likelyĠ":7768,"helpsĠtoĠ":7769,"together":7770,"ystal":7771,"ĠleaveĠ":7772,"Ġlemon":7773,"Ġlearning":7774,"affect":7775,"sĠareĠnot":7776,"ĠaddressĠ":7777,"ĠaĠpat":7778,"ĠaĠbas":7779,"ĠaĠcustom":7780,"ingĠinĠtheĠ":7781,"ingĠintoĠ":7782,"ĠtheseĠf":7783,"laidĠ":7784,"lahom":7785,"eĠfind":7786,"eĠfurther":7787,"sĠonĠyour":7788,"well-":7789,"grill":7790,"Ġisland":7791,"ĠstudiesĠ":7792,"internetĠ":7793,"eĠwatch":7794,"answer":7795,"ficer":7796,"minor":7797,"eĠwithin":7798,"ĠaĠman":7799,"ĠaĠmult":7800,"ĠaĠmajor":7801,"Ġez":7802,"ĠaĠgroup":7803,"Ġcontra":7804,"ehous":7805,"lict":7806,"eaningful":7807,"parentĠ":7808,"sidi":7809,"bras":7810,"ĠnewĠmember":7811,"Ġnewspaper":7812,"Ġnew.Ġtaken":7813,"edĠonĠ":7814,"e-interest":7815,"ĠassistĠ":7816,"Ġassemb":7817,"eĠhim":7818,"eĠhealth":7819,"ĠtheĠhealth":7820,"ĠtheĠhuman":7821,"whoĠisĠ":7822,"undredĠ":7823,"renov":7824,",ĠtheĠapplic":7825,"yĠback":7826,",ĠmichelangeloĠantonioni":7827,"ĠattendĠ":7828,"Ġattitud":7829,"includedĠ":7830,"Ġhere.Ġ":7831,"Ġhere.":7832,"evelopmentĠof":7833,"Ġupgrad":7834,"losĠangel":7835,"noĠmatter":7836,"ugust":7837,"co-":7838,"ĠyearsĠag":7839,"Ġsea":7840,"Ġsequ":7841,"ĠofĠother":7842,"company,Ġ":7843,"feedback":7844,"Ġhighlight":7845,"wouldĠbeĠa":7846,"sĠduring":7847,"Ġarticle":7848,"es.ĠsheĠ":7849,"Ġavenu":7850,".ĠheĠ":7851,"justĠbecaus":7852,"Ġprincip":7853,"ĠtoĠdoĠ":7854,"ĠtoĠdevelop":7855,"ĠtoĠbeĠa":7856,"ementĠof":7857,"umpst":7858,"umption":7859,"128":7860,"equal":7861,"equipp":7862,"sĠfromĠ":7863,"ĠaĠwarm":7864,"ĠaĠweek":7865,"ĠaĠwell-":7866,"unctional":7867,"eĠlist":7868,"freeĠtempl":7869,"ĠtheĠpropert":7870,".ĠdoĠ":7871,".Ġdeanna":7872,".c.Ġ":7873,"eĠshar":7874,"eĠshopp":7875,"ĠclimateĠ":7876,"Ġcloud":7877,"letting":7878,"ventor":7879,"ifiedĠin":7880,"learning":7881,"myĠf":7882,"sĠback":7883,"sĠbook":7884,"sĠbrok":7885,"ĠmayĠhaveĠ":7886,"relativ":7887,",ĠyouĠwill":7888,"ĠrecentlyĠ":7889,"Ġknown":7890,"ĠknowĠthatĠ":7891,"asksĠ":7892,"Ġoutcom":7893,"ĠwhenĠyouĠareĠ":7894,"willĠbeĠs":7895,"beforeĠyou":7896,"aĠâĢĵ":7897,"Ġintellig":7898,".ĠyouĠwill":7899,"standard":7900,"Ġcompanies":7901,"eĠfromĠ":7902,"attend":7903,"lowerĠcalyceal":7904,"hasĠtheĠ":7905,"eĠsureĠtoĠ":7906,"rightĠnow":7907,"Ġgett":7908,"Ġgetting":7909,"exceptĠ":7910,"qualif":7911,"ĠdaysĠof":7912,"ĠaĠlov":7913,"ĠaĠlocal":7914,"carry":7915,"Ġanalytic":7916,"Ġappropri":7917,"Ġsituation":7918,"ĠfilesĠ":7919,"ĠaskĠfor":7920,"Ġspecialist":7921,"nament":7922,"ĠaĠhand":7923,"wantĠto":7924,"ĠlikeĠ":7925,"s>Ġ<s>Ġ\"":7926,".Ġstill":7927,"ĠautoĠ":7928,"ĠsignĠup":7929,"ĠtechnologyĠ":7930,"ĠrelationsĠ":7931,"Ġmembership":7932,"legitimateĠ":7933,"annual":7934,"ĠanotherĠ":7935,"ĠbasementĠ":7936,"becauseĠof":7937,"becauseĠi":7938,"hands-":7939,"ĠpartyĠmember":7940,"ĠpartyĠdesign":7941,"printable":7942,"eĠadd":7943,",Ġgeneral":7944,",ĠweĠareĠ":7945,"117":7946,"eĠisĠaĠ":7947,"ins:":7948,"Ġdecid":7949,"ĠtodayâĢĻsĠ":7950,"outĠofĠtheĠ":7951,"fullĠepisod":7952,"Ġoh":7953,".ĠforĠmoreĠinformation":7954,"oftwar":7955,"auric":7956,"created":7957,"config":7958,"edĠfromĠ":7959,"ĠtoĠmeet":7960,"physician":7961,"406":7962,"buryĠpark":7963,"rewĠmichael":7964,"whereĠtheĠ":7965,"eĠofĠ$":7966,"giveĠyou":7967,"ĠthankĠyouĠsoĠmuch":7968,"orgeĠwash":7969,"Ġscience-interest":7970,"metal":7971,"necessaryĠ":7972,"sĠaway":7973,"protectĠ":7974,"container":7975,"Ġaccordanc":7976,"Ġthere's":7977,".ĠtheĠcours":7978,"Ġexamination":7979,"Ġteacher":7980,"ĠavailableĠfor":7981,"Ġactivities":7982,"ĠauthorityĠ":7983,"defin":7984,"realiz":7985,"ĠdevelopmentĠ":7986,"Ġinvit":7987,"ĠalternateĠ":7988,"residential":7989,"refund":7990,"refresh":7991,".ĠâĢľantonioni":7992,"Ġcredits.":7993,"ĠwhileĠ":7994,"shallĠbeĠ":7995,"received":7996,"bigĠdata":7997,"googleĠanalytic":7998,"ĠfoodĠitem":7999,"oxy":8000,"schnauzer":8001,"ycleĠ":8002,"Ġlisten":8003,"epartmentĠof":8004,"ĠrequiredĠ":8005,"etimes":8006,"ĠstandardĠ":8007,"concerning":8008,"earnedĠher":8009,"lineĠvot":8010,".com/":8011,"sĠwhoĠhaveĠ":8012,"needĠtoĠbeĠ":8013,"Ġadvertising":8014,"Ġexcit":8015,"ĠexcellentĠ":8016,"Ġexpect":8017,"Ġperformanc":8018,"becomeĠa":8019,"uffolk":8020,"diningĠroom":8021,"fael":8022,"u.k":8023,"imatelyĠ":8024,"emoryĠ":8025,"eĠmanyĠ":8026,"Ġsmil":8027,"ĠfamilyĠ":8028,"whetherĠyou":8029,"clusiveĠ":8030,"ustralian":8031,"ĠkindleĠebook":8032,"Ġguidanc":8033,"pcnl":8034,"rankf":8035,"Ġtonight":8036,"Ġmuseum":8037,"uspend":8038,"discover":8039,"disciplin":8040,"western":8041,"ĠthousandĠ":8042,"Ġsatellit":8043,"chrisĠ":8044,"novation":8045,"novativeĠ":8046,"ĠuniversityĠ":8047,"ateĠcl":8048,"ungsz":8049,"violenc":8050,"Ġvideo":8051,"Ġresidential":8052,"eĠspecialistĠ":8053,"constitut":8054,"constantlyĠ":8055,"Ġvisual":8056,"ĠtermsĠof":8057,"digitalĠsignag":8058,"fixt":8059,"info":8060,"ĠsensitiveĠ":8061,"Ġheart":8062,"ĠdidĠyou":8063,"Ġdiscover":8064,"ĠinĠcinema":8065,"evaluation":8066,"graduateĠ":8067,"ĠletsĠyou":8068,"Ġautomatic":8069,"!ĠthankĠyouĠsoĠmuch":8070,"Ġprivac":8071,"introduction":8072,"prepared":8073,"mcĠyukonĠxl":8074,"ĠthisĠact":8075,"Ġbotticelli":8076,"Ġflash":8077,"makeĠsureĠyou":8078,"ĠtheĠgreenĠpart":8079,"Ġcompetitor":8080,"ĠquicklyĠ":8081,"ront-endĠ":8082,"tario":8083,"orĠofĠart":8084,"Ġpromot":8085,"ĠgivatĠhatachmoshet":8086,"ĠlastĠyear":8087,"esktop":8088,"ĠpleaseĠ":8089,"ĠbiologyĠwith":8090,"eĠtheseĠ":8091,"expertis":8092,"umerousĠ":8093,"ĠtheĠgeneralĠassemb":8094,"practic":8095,"ĠpercentĠof":8096,"Ġgrandmother":8097,"Ġreceiv":8098,"edinburgh":8099,"rodeoĠ":8100,"usband":8101,"Ġacquir":8102,"Ġvoicecomputer":8103,"Ġlocation":8104,"definitely":8105,".ĠbeĠitĠenacted,Ġthat":8106,"rushĠproĠ":8107,"won'tĠ":8108,"Ġ../":8109,"atisf":8110,"ĠnovemberĠ":8111,"eiling":8112,"ĠradioĠstation":8113,"ecretary":8114,"Ġnecessary":8115,"ĠadaptiveĠ":8116,"rubyĠlaser":8117,"ĠspeechĠrecognition":8118,"Ġprofil":8119,"ĠanĠexcellentĠ":8120,"localĠauthority":8121,"Ġadministrator":8122,"invitesĠfreeĠtempl":8123,"ĠwithĠaĠgradeĠofĠc-ĠorĠbetter,ĠorĠpermissionĠofĠinstructor":8124,"Ġtahlequah,Ġoklahom":8125,"mhz":8126,"preced":8127,"va_c":8128,"Ġtuesday":8129,"espresso":8130,"eduction":8131,"loselyĠwith":8132,"lictĠresolution":8133,"ĠaĠwideĠrangeĠof":8134,"ĠweightĠlos":8135,"virtual":8136,"Ġcredits.Ġprerequisite:ĠbioĠ":8137,"ewarmingĠpartyĠinvitesĠfreeĠtempl":8138,"Ġ*Ġmakefile.amĠ(":8139,"Ġticket":8140,"arante":8141,"Ġgraphic":8142,"behind":8143,"achiev":8144,"ĠtheĠtypeĠof":8145,"ĠleahyĠ":8146,"prepareĠ":8147,"racingĠpost":8148,"simple_":8149,"yĠwineĠb":8150,"rastructur":8151,"ĠtheĠdevelopmentĠuimĠdomain":8152,"iobuf_":8153,"Ġ*Ġttyio":8154,"urinaryĠsymptom":8155,"ĠpalmĠbeach":8156,"%ciĠ=":8157,"hinagar":8158,"kastner":8159,"forschungsz":8160,"looseĠkindleĠbook":8161,"ĠhaveĠanyĠquestion":8162,"orgeĠwashington":8163,"Ġscience-interestedĠstudent":8164,"ewarmingĠpartyĠinvitesĠfreeĠtemplateĠ":8165,"forschungszentrum":8166,"!Ġyou":8167,"%)":8168,"%Ġof":8169,"%Ġoff":8170,"(icesĠ":8171,"(ii":8172,"(berkel":8173,");":8174,",Ġar":8175,",ĠaĠ":8176,",Ġall":8177,",ĠtheĠf":8178,",ĠtheĠd":8179,"-st":8180,"-Ġb":8181,"-and":8182,"-speak":8183,".Ġthank":8184,".ĠtheyĠareĠ":8185,".gov":8186,"01":8187,"05":8188,"08":8189,"09":8190,"39":8191,"42":8192,"57":8193,"59":8194,"68":8195,":ĠtheĠ":8196,":Ġnew":8197,";Ġand":8198,"?!":8199,"?Ġa:":8200,"__":8201,"_f":8202,"_fil":8203,"a,":8204,"aĠp":8205,"aĠin":8206,"aĠor":8207,"aĠ(":8208,"avid":8209,"auc":8210,"bind":8211,"bunal":8212,"bhk":8213,"cb":8214,"cc":8215,"cu":8216,"cre":8217,"cul":8218,"coc":8219,"council":8220,"crib":8221,"dt":8222,"dig":8223,"dish":8224,"diet":8225,"degre":8226,"daniel":8227,"daxk":8228,"dorf":8229,"eâĢĻ":8230,"eableĠ":8231,"east":8232,"ey,Ġ":8233,"eâĢĻs":8234,"e,ĠsoĠ":8235,"fastĠ":8236,"fieldĠ":8237,"fĠgdpr":8238,"floor":8239,"fabric":8240,"gg":8241,"gre":8242,"gear":8243,"greg":8244,"gott":8245,"gold":8246,"gather":8247,"governmentĠ":8248,"google":8249,"hsĠ":8250,"hdĠ":8251,"hor":8252,"hes":8253,"hitĠ":8254,"heat":8255,"homeĠ":8256,"hana":8257,"houston":8258,"holiday":8259,"ius":8260,"ira":8261,"iĠwill":8262,"iersĠ":8263,"iĠfeel":8264,"ju":8265,"jon":8266,"j.Ġ":8267,"juryĠ":8268,"judg":8269,"kdt":8270,"lid":8271,"lateĠ":8272,"latestĠ":8273,"mg":8274,"mm":8275,"mw":8276,"myĠs":8277,"master":8278,"music":8279,"machin":8280,"mauric":8281,"nol":8282,"nap":8283,"natur":8284,"nachĠbaliyeĠ":8285,"o!":8286,"ole":8287,"oir":8288,"oâĢĻ":8289,"obe":8290,"oard":8291,"ochr":8292,"oveĠtheĠ":8293,"octoberĠ":8294,"pod":8295,"ption":8296,"pian":8297,"path":8298,"patch":8299,"poll":8300,"purpos":8301,"people":8302,"polit":8303,"rh":8304,"rdĠ":8305,"rth":8306,"rus":8307,"rig":8308,"ry,Ġ":8309,"rhe":8310,"ssĠ":8311,"send":8312,"spr":8313,"snow":8314,"sport":8315,"sight":8316,"sĠthem":8317,"sĠtoĠs":8318,"small":8319,"super":8320,"suchĠasĠ":8321,"s!Ġi":8322,"sĠtri":8323,"tun":8324,"uz":8325,"vey":8326,"vintag":8327,"weĠc":8328,"wast":8329,"wire":8330,"wantĠ":8331,"wonderful":8332,"y:":8333,"ych":8334,"yellow":8335,"âĨ":8336,"íķ":8337,"Ġ.":8338,"Ġ>":8339,"Ġic":8340,"Ġest":8341,"Ġvers":8342,"Ġimple":8343,"Ġoperation":8344,"Ġoptim":8345,"Ġemphas":8346,"ĠenjoyĠ":8347,"eĠher":8348,"eĠatt":8349,"eĠcontinu":8350,"eĠoperation":8351,"eĠrestaurant":8352,"Ġtich":8353,"Ġtier":8354,"Ġaw":8355,"ĠadĠ":8356,"Ġaver":8357,"inyĠ":8358,"inĠc":8359,"incom":8360,"inĠl":8361,"iness":8362,"inĠfor":8363,"ine,Ġ":8364,"insp":8365,"inatedĠ":8366,"Ġthrow":8367,"Ġthriv":8368,"sĠg":8369,"sĠv":8370,"sĠnow":8371,"sĠpresent":8372,"sĠnational":8373,"sĠregard":8374,"sĠrequir":8375,"sĠwhoĠareĠ":8376,"erl":8377,"eryĠ":8378,"erĠisĠ":8379,"eries":8380,"eriousĠ":8381,"onor":8382,"onĠc":8383,"onom":8384,"onĠf":8385,"onĠyour":8386,"oneĠandĠ":8387,"onĠtheĠp":8388,"onĠaĠs":8389,"onym":8390,"oneyĠ":8391,"tĠbranch":8392,"orn":8393,"orough":8394,"orient":8395,"enth":8396,"ousĠandĠ":8397,"ĠtheĠcompanyĠ":8398,"ĠtheĠarea":8399,"anz":8400,"anĠj":8401,"restor":8402,"reportĠ":8403,"referenc":8404,"Ġsound":8405,"Ġseven":8406,"Ġslic":8407,"Ġshap":8408,"Ġselect":8409,"Ġsocial":8410,"Ġsafet":8411,"Ġsyn":8412,"Ġsuit":8413,"Ġsymptom":8414,"Ġsleep":8415,"Ġsugar":8416,"atent":8417,"atedĠbyĠ":8418,"atures":8419,"it!":8420,"itl":8421,"itis":8422,"itableĠ":8423,"ings.Ġ":8424,"inglyĠ":8425,"ingĠcom":8426,"ingĠsp":8427,"ings.":8428,"ingred":8429,"ings,":8430,"ingĠofĠ":8431,"ingĠregion":8432,"ĠanĠamaz":8433,"yĠfrom":8434,"aliz":8435,"alys":8436,"alread":8437,"alanceĠ":8438,"allot":8439,".Ġ(":8440,".Ġv":8441,".Ġwe":8442,".Ġwell":8443,".Ġinter":8444,".ĠnoĠ":8445,".ĠinĠtheĠ":8446,".ĠwithĠtheĠ":8447,".ĠdonâĢĻtĠ":8448,".Ġjam":8449,".Ġnote:":8450,"ari":8451,"arv":8452,"aren":8453,"aroundĠ":8454,"arrang":8455,",Ġla":8456,",Ġll":8457,",ĠinĠtheĠ":8458,",ĠwhereĠ":8459,",Ġhealth":8460,",Ġright":8461,",ĠwhileĠ":8462,",ĠespeciallyĠ":8463,",ĠgodĠ":8464,"esid":8465,"esĠthrough":8466,"esĠtoĠtheĠ":8467,"isnâĢĻtĠ":8468,"ioneer":8469,"icro":8470,"ice,Ġ":8471,"ichael":8472,"Ġcle":8473,"ĠcityĠ":8474,"Ġcast":8475,"Ġcrown":8476,"Ġcamer":8477,"Ġcapital":8478,"Ġcreation":8479,"Ġcelebr":8480,"omet":8481,"ĠandĠfor":8482,"ĠandĠst":8483,"ĠandĠisĠ":8484,"ĠandĠun":8485,"ĠandĠitĠ":8486,"ĠandĠend":8487,"ĠandĠcan":8488,"ĠandĠitsĠ":8489,"ĠandĠwater":8490,"elm":8491,"elveĠ":8492,"eless":8493,"eland":8494,"electĠ":8495,"th,Ġ":8496,"theĠm":8497,"think":8498,"thĠcentur":8499,"ilk":8500,"ileg":8501,"youĠwith":8502,"youĠshouldĠ":8503,"young":8504,"youĠwantĠtoĠ":8505,"youtubeĠ":8506,"fortĠ":8507,"forget":8508,"forĠmoreĠinformation":8509,"eden":8510,"edal":8511,"edel":8512,"edĠtheĠf":8513,"edĠaĠd":8514,"edium":8515,"edĠteen":8516,"Ġpil":8517,"Ġpub":8518,"ĠpastĠ":8519,"Ġpunch":8520,"Ġpush":8521,"Ġpurpos":8522,"Ġwing":8523,"ĠweĠs":8524,"ĠwestĠ":8525,"ĠweĠw":8526,"Ġwash":8527,"Ġwatch":8528,"ĠweddingĠeventĠ":8529,"Ġwestern":8530,"st,Ġ":8531,"stop":8532,"stoodnt":8533,"edĠjustĠ":8534,"edĠhigh":8535,"edĠmyĠ":8536,"edĠprofessional":8537,"roc":8538,"roveĠ":8539,"roidĠ":8540,"rovers":8541,"rozen":8542,"cha":8543,"chor":8544,"Ġbed":8545,"Ġband":8546,"ĠbyĠc":8547,"Ġbik":8548,"ĠbudgetĠ":8549,"ĠbinaryĠoption":8550,"ĠmeĠ":8551,"Ġment":8552,"Ġmid":8553,"Ġmap":8554,"Ġmart":8555,"Ġmark":8556,"Ġmission":8557,"Ġmaintain":8558,"Ġmovi":8559,"Ġmotor":8560,"Ġmagazin":8561,"Ġmargare":8562,"ĠtoĠcom":8563,"ĠtoĠnot":8564,"ĠtoĠitsĠ":8565,"ĠtoĠgiveĠ":8566,"ĠtoĠconsider":8567,"asp":8568,"as,Ġ":8569,"asĠandĠ":8570,"asersĠareĠ":8571,"Ġhenan":8572,"ĠhundredĠ":8573,"entr":8574,"entim":8575,"lem":8576,"leyĠ":8577,"lemon":8578,"ctuallyĠ":8579,"ctually":8580,"Ġde":8581,"Ġdry":8582,"Ġdream":8583,"Ġdrug":8584,"ĠdietaryĠaid":8585,"Ġdifferenc":8586,"Ġdifferent":8587,"Ġdollar":8588,"Ġdaniel":8589,"lod":8590,"lol":8591,"usi":8592,"useĠtheĠ":8593,"usedĠto":8594,"uringĠs":8595,"urfac":8596,"Ġfir":8597,"Ġfish":8598,"Ġflow":8599,"Ġfitness":8600,"ĠfeltĠ":8601,"ationĠand":8602,"ationsĠandĠ":8603,"ationĠofĠtheĠ":8604,"olidĠ":8605,"verd":8606,"veryĠd":8607,"idstĠof":8608,"ĠinĠa":8609,"ĠinĠtheĠc":8610,"igor":8611,"igibleĠ":8612,"ĠtoĠtheĠg":8613,"ĠtoĠaĠp":8614,"ĠtoĠtry":8615,"ĠtoĠappeal":8616,"ĠtoĠavoidĠ":8617,"ĠtoĠachieveĠ":8618,"esĠ&":8619,"esĠisĠ":8620,"esĠmayĠbeĠ":8621,"rait":8622,"raight":8623,"ragr":8624,"raiseĠ":8625,"unit":8626,"unkin":8627,"unableĠtoĠ":8628,"eman":8629,"atĠb":8630,"atĠof":8631,"atĠread":8632,"ĠyouĠget":8633,"ĠyouĠneedĠtoĠ":8634,"leĠthatĠ":8635,"ĠofĠg":8636,"ĠofĠart":8637,"amar":8638,"amper":8639,"amountĠof":8640,"iron":8641,"Ġgn":8642,"Ġgre":8643,"Ġgat":8644,"Ġgall":8645,"ĠgoldĠ":8646,"Ġgrew":8647,"ĠgmcĠyukonĠxl":8648,"ifĠyour":8649,"ĠreportĠ":8650,"Ġrecommend":8651,"Ġreferenc":8652,"ĠrestorativeĠ":8653,"accur":8654,"aceut":8655,"ecological":8656,"Ġalik":8657,"ĠalertĠ":8658,"Ġalbum":8659,"Ġalpha":8660,"Ġaren":8661,"wheel":8662,"Ġstay":8663,"Ġstres":8664,"Ġstick":8665,"Ġstalk":8666,"Ġstream":8667,"Ġstuff":8668,"Ġstreet":8669,"Ġstrength":8670,"opeĠof":8671,"eĠtheĠin":8672,"eĠtheĠaĠ":8673,"adm":8674,"ador":8675,"adoĠ":8676,"adder":8677,"adian":8678,"advis":8679,"abur":8680,"abol":8681,"ourĠwebsit":8682,"agg":8683,"agstaff":8684,"expos":8685,"exclud":8686,"exual":8687,"exactĠ":8688,"ingĠ$":8689,"ingĠquestion":8690,"utter":8691,"utual":8692,"ayn":8693,"aymentĠ":8694,"aylor":8695,"plat":8696,"plentyĠof":8697,"comb":8698,"comeĠin":8699,"comingĠfrom":8700,"entĠsit":8701,"entĠcalendar":8702,"ĠandĠto":8703,"ĠandĠalsoĠ":8704,"ĠandĠaĠp":8705,"ĠandĠtwoĠ":8706,"Ġandrew":8707,"pros":8708,"propos":8709,"prostateĠ":8710,"que":8711,"quietĠ":8712,"eĠset":8713,"eĠsqu":8714,"eĠturn":8715,"eĠtelevision":8716,"eĠtrack":8717,"eĠtwo":8718,"ivor":8719,"ightĠof":8720,"Ġlb":8721,"Ġli":8722,"Ġlak":8723,"Ġlind":8724,"Ġlux":8725,"Ġlibr":8726,"umm":8727,"ĠthatĠis":8728,"ĠthatĠmak":8729,"ĠthatĠyouĠcan":8730,"ĠthatĠwouldĠ":8731,"essageĠ":8732,"consc":8733,"conven":8734,"conferenc":8735,"convenienc":8736,"rome":8737,"oocomm":8738,"andon":8739,"andal":8740,"andid":8741,"andhinagar":8742,"eĠoften":8743,".ĠtheĠp":8744,"upcom":8745,"updateĠ":8746,"upportĠof":8747,"ĠthisĠd":8748,"ĠthisĠmonth":8749,"istryĠ":8750,"s.Ġhow":8751,"ĠareĠa":8752,"ĠareĠall":8753,"encyĠ":8754,"enceĠin":8755,"Ġforward":8756,"ĠfortĠbranch":8757,"epth":8758,"epas":8759,"s,ĠitĠ":8760,"s,Ġmak":8761,"s,Ġbut":8762,"Ġnail":8763,"Ġnight":8764,"Ġno.Ġ":8765,"e,Ġinclud":8766,"beingĠm":8767,"behavior":8768,"Ġaspect":8769,"sĠofĠm":8770,"sĠofĠpeopleĠ":8771,"ĠwithĠan":8772,"ĠwithĠit":8773,"ayĠwith":8774,"ĠtheĠspr":8775,"ĠtheĠsign":8776,"esty":8777,"estream":8778,"estival":8779,"ĠonĠtheĠb":8780,"Ġsho":8781,"ĠsheĠisĠ":8782,"ĠyourĠus":8783,"Ġyourself":8784,"ridĠof":8785,"ĠasĠmuch":8786,"ĠasĠpartĠof":8787,"eĠcal":8788,"eĠcard":8789,"eĠcouldĠ":8790,"eĠclean":8791,"eĠcolor":8792,"ance,":8793,",ĠandĠd":8794,",ĠandĠi":8795,",ĠandĠm":8796,",ĠandĠitĠ":8797,",ĠandĠweĠ":8798,"eller":8799,"apost":8800,"yourĠapplication":8801,"endit":8802,"endingĠ":8803,"sĠandĠst":8804,"profession":8805,"ateĠyou":8806,"sĠinter":8807,"sĠinĠorder":8808,"sĠinĠfl":8809,"sĠinĠfortĠbranch":8810,"s>Ġ<s>Ġb":8811,"s>Ġ<s>Ġin":8812,"s>Ġ<s>ĠweĠareĠ":8813,"nois":8814,"nock":8815,"Ġadvis":8816,"Ġadventur":8817,"Ġadvisor":8818,"Ġwhol":8819,"ĠprostateĠ":8820,"ĠatĠtheĠg":8821,"etĠyour":8822,"etĠofĠ":8823,"willĠhelpĠyou":8824,"everyĠdayĠ":8825,"eĠinĠs":8826,"eĠintoĠ":8827,"format":8828,"bern":8829,"berryĠ":8830,"eĠmad":8831,"eĠmeal":8832,"eĠmember":8833,"deriv":8834,"ly,Ġ":8835,"outiqu":8836,"Ġconversation":8837,"oci":8838,"Ġcomment":8839,"Ġcombin":8840,"eĠdel":8841,"eĠdet":8842,"eĠdeal":8843,"eĠdef":8844,"eĠdeliver":8845,"eĠdamag":8846,"eĠdriveĠ":8847,"eĠdidnâĢĻtĠ":8848,"Ġallerg":8849,"ouldĠbeĠ":8850,"lowĠdown":8851,"Ġ(c":8852,"ĠisĠnot":8853,"ĠisĠveryĠ":8854,"ĠisĠcall":8855,"ĠisĠcurrentlyĠ":8856,"viousĠ":8857,"weather":8858,"we'r":8859,"Ġabov":8860,"izeĠyour":8861,"india":8862,",ĠsuchĠasĠ":8863,"eway":8864,"ewalk":8865,"rub":8866,"ments,Ġ":8867,"Ġacid":8868,"Ġacademic":8869,"Ġchron":8870,"Ġchicken":8871,"Ġexact":8872,"eĠawar":8873,"Ġapt":8874,"eĠandĠmor":8875,"e.Ġall":8876,"phic":8877,"ackageĠ":8878,"iestĠ":8879,"Ġspar":8880,"Ġspark":8881,"Ġspread":8882,"manageĠ":8883,"manner":8884,"ens.":8885,"liber":8886,"Ġjul":8887,"Ġjunction":8888,"ĠjointĠ":8889,"Ġjewel":8890,"edĠbelow":8891,"eĠbyĠs":8892,"eĠbecaus":8893,"ĠtheĠfac":8894,"ĠtheĠfall":8895,"ĠtheĠfrontĠ":8896,"ĠtheĠmon":8897,"ĠtheĠmusic":8898,"ĠtheĠmarketĠ":8899,"Ġven":8900,"graveĠ":8901,"ĠtheirĠb":8902,"ĠtheirĠown":8903,"s.Ġand":8904,"s.ĠtheyĠ":8905,"s.Ġsom":8906,"s.cĠ(":8907,"Ġii":8908,"Ġkm":8909,"Ġk/w":8910,"ĠtheĠpastĠ":8911,"ĠtheĠpoint":8912,"ĠtheĠpict":8913,"ĠtheĠbre":8914,"controvers":8915,"here!":8916,"spok":8917,"eĠtheĠf":8918,"ubtleĠ":8919,"ubstant":8920,"Ġrul":8921,"egment":8922,"ibod":8923,"ibilityĠ":8924,"notĠhaveĠ":8925,"ĠtheĠdatabas":8926,"Ġplc":8927,"Ġplug":8928,"commendĠ":8929,"commitment":8930,"logĠhop":8931,"logĠfriend":8932,"Ġwilliam":8933,"Ġamount":8934,"ĠhaveĠs":8935,"ĠhaveĠan":8936,"ucsf":8937,"ersĠthatĠ":8938,"maker":8939,"ĠtheĠgrow":8940,"ĠtheĠgovern":8941,"iah":8942,"ĠtimeĠof":8943,"Ġtime.":8944,"ĠtimeĠtheĠ":8945,"compil":8946,"compos":8947,"compass":8948,"component":8949,"ĠthereĠwillĠb":8950,"observ":8951,"eĠpointĠ":8952,"ĠtheĠtrain":8953,"ĠtakeĠcar":8954,"ĠtakeĠtheĠaĠ":8955,"avender":8956,"available":8957,"ĠtrulyĠ":8958,"Ġtranspar":8959,"actic":8960,"actual":8961,"ingĠsom":8962,"ingĠsupport":8963,"ingĠsometh":8964,"Ġlot":8965,"Ġloy":8966,"ĠloadĠ":8967,"ĠuseĠ":8968,"Ġuser":8969,"ĠusersĠ":8970,"ĠusuallyĠ":8971,"yĠofĠ":8972,"sĠtoĠm":8973,"sĠtoĠmak":8974,"ultimateĠ":8975,"positiveĠ":8976,"possess":8977,"redict":8978,"reditĠcardĠ":8979,"wasĠnotĠ":8980,"Ġital":8981,"ĠitsĠs":8982,"Ġitself":8983,"oneĠf":8984,"oneĠon":8985,"oneĠor":8986,"oneĠwith":8987,"s,Ġan":8988,"s,Ġthen":8989,"s,ĠandĠtheĠ":8990,"âĢĿ,":8991,"recall":8992,"recently":8993,"moreĠs":8994,"morning":8995,"mormon":8996,"mortal":8997,"mortar":8998,"wayĠto":8999,"inctĠ":9000,"incur":9001,"incident":9002,"incrediblyĠ":9003,"Ġagend":9004,"Ġaggrav":9005,"ĠaĠsolution":9006,"ĠaĠsecond":9007,"Ġtradition":9008,"oston":9009,"ĠtheĠliv":9010,"ĠtheĠlast":9011,"ĠtheĠlink":9012,"ĠtheĠlaw":9013,"ovoĠ(":9014,".ĠiĠcan":9015,".ĠiâĢĻveĠ":9016,".ĠiĠdon'tĠ":9017,"viewĠtheĠ":9018,".Ġsc":9019,".Ġsilenc":9020,"Ġreserv":9021,"ĠresultĠof":9022,"remeĠ":9023,"ĠtoĠsign":9024,"helpsĠyou":9025,"toĠtheĠ":9026,"ĠletĠ":9027,"ĠleadĠ":9028,"sĠareĠin":9029,"heav":9030,"ĠaĠbadĠ":9031,"Ġneighbor":9032,"ĠnextĠ":9033,"ĠitĠwasĠ":9034,"ĠaĠcertain":9035,"ĠaĠclass":9036,"laugh":9037,"eĠfin":9038,"eĠfac":9039,"eĠfirstĠ":9040,"goes":9041,"goĠtoĠ":9042,"goingĠto":9043,"paredĠ":9044,"Ġscrap":9045,"Ġbeen":9046,"Ġstudies":9047,"provided.Ġ":9048,"evening":9049,"joel":9050,"interview":9051,"internal":9052,"eĠwindow":9053,"eĠweddingĠeventĠ":9054,"yĠmonth":9055,"preferenc":9056,"previous":9057,"ansion":9058,"scottish":9059,"ingĠmusic":9060,"ingĠmachin":9061,"Ġapplic":9062,"ĠaĠmor":9063,"ĠaĠmember":9064,"Ġeth":9065,"ĠtheĠwayĠ":9066,"eĠyouĠareĠ":9067,"ĠanĠen":9068,"ĠanĠover":9069,"ĠanĠoldĠ":9070,"ĠanĠideal":9071,",ĠandĠthen":9072,"Ġnews":9073,"sĠwithĠ":9074,"ollectĠ":9075,"iently":9076,"eĠhand":9077,"eĠhear":9078,"ĠtheĠhear":9079,"ĠtheĠhous":9080,"looking":9081,"lookĠatĠ":9082,"lookingĠatĠ":9083,"ĠtwelveĠ":9084,"oupleĠof":9085,"ingĠcenter":9086,"ingĠpag":9087,"ingĠpeopleĠ":9088,"ingĠphys":9089,"yĠby":9090,"identity":9091,"identification":9092,"edĠtoĠtheĠc":9093,"includesĠ":9094,"Ġperhap":9095,"ĠworkĠin":9096,"ĠworkingĠwith":9097,"ĠmoreĠfrom":9098,"whatĠwill":9099,"101":9100,"ageĠwasĠ":9101,"ĠaĠlink":9102,"ĠaĠlicens":9103,"ugustĠ":9104,"requestĠ":9105,"ingĠdown":9106,"ingĠdesign":9107,"coach":9108,"nerĠof":9109,"ingĠandĠd":9110,"ingĠbyĠ":9111,"rosoftĠ":9112,"see":9113,"ĠyearsĠof":9114,".ĠmyĠ":9115,".ĠmostĠ":9116,"financ":9117,"athlet":9118,"Ġseen":9119,"ĠseeĠa":9120,"bladder":9121,"ĠwhichĠis":9122,"edĠbyĠyour":9123,"autinoĠ":9124,"autobahn":9125,"guer":9126,"guess":9127,"guarante":9128,"itĠisĠsometh":9129,"whileĠtheĠ":9130,"whileĠyou":9131,"ĠhowĠmuch":9132,"sĠdoĠ":9133,"ĠartistĠ":9134,"becomeĠ":9135,"sĠmyĠ":9136,"ed,ĠbutĠ":9137,"Ġmone":9138,"Ġinterfac":9139,"ĠinterviewĠwith":9140,"retriev":9141,"Ġavail":9142,"ĠthinkĠof":9143,"ĠthinkĠthatĠ":9144,"ĠthinkĠaboutĠ":9145,"ĠtheĠnumber":9146,"ĠtheĠnorth":9147,"ĠtheĠnumberĠof":9148,"invitor":9149,"oneĠofĠour":9150,"oneĠofĠtheĠmostĠ":9151,"ĠtoĠdetail":9152,"valid":9153,"ementĠmeansĠ":9154,"ĠactiveĠ":9155,"Ġactually":9156,"ingĠforĠtheĠ":9157,"ieldĠof":9158,"respir":9159,"anceĠfrom":9160,"sĠtogether":9161,"151":9162,"155":9163,"face-to-fac":9164,"eĠlif":9165,"eĠlong":9166,"stateĠof":9167,"statement":9168,"ĠservicesĠ":9169,"Ġservices.Ġ":9170,"ractition":9171,"Ġremot":9172,"eĠshop":9173,"armaceut":9174,"Ġclub":9175,"basically":9176,"Ġheaven":9177,"ĠfinallyĠ":9178,"time.":9179,"Ġoverlook":9180,"ĠwouldĠlikeĠtoĠ":9181,"ventureĠ":9182,",ĠbutĠi":9183,"ĠmanyĠs":9184,"Ġmedicin":9185,"ified":9186,"weekendĠ":9187,"sĠcall":9188,"sĠcenter":9189,"Ġanyon":9190,"Ġanyway":9191,"echanic":9192,"ĠweĠhaveĠ":9193,"neededĠfor":9194,"eachĠother":9195,"ĠthanksĠtoĠ":9196,",ĠyouĠhaveĠtoĠ":9197,"ĠandĠdin":9198,"leadersĠ":9199,"located":9200,"ĠrecentĠ":9201,"ĠweâĢĻll":9202,"ĠmakeĠa":9203,"eĠspecific":9204,"managingĠdirector":9205,"Ġoutput":9206,"edĠsomeĠ":9207,"ternal":9208,"edĠtheĠin":9209,"eptember":9210,"madeĠwith":9211,"uccessorsĠin":9212,"ingĠoff":9213,".ĠyouâĢĻll":9214,".ĠweĠar":9215,".ĠweĠwill":9216,".ĠweĠareĠ":9217,"abilities":9218,"itorĠgeneral":9219,"ĠallowĠyou":9220,"decid":9221,"justĠasĠ":9222,"lift":9223,"attle":9224,".ĠbyĠtheĠ":9225,"Ġcarry":9226,"electrical":9227,"Ġdischarg":9228,"ĠdisplayĠ":9229,"videos":9230,"Ġsuppli":9231,"ĠtheseĠareĠ":9232,".ĠitĠwas":9233,"ropbox":9234,"excessĠ":9235,"performanceĠ":9236,"givesĠyou":9237,"virgin":9238,"ĠandĠfollow":9239,"striveĠ":9240,"Ġindia":9241,"runner":9242,"ĠteamĠstoodntĠ":9243,"sĠpeopleĠ":9244,",Ġhuman":9245,"offsetĠ":9246,"ĠgroupsĠ":9247,"s,Ġsp":9248,"Ġstorag":9249,"134":9250,"ĠantonioĠ":9251,"Ġlife.Ġ":9252,"Ġlife,Ġ":9253,"ĠaccessĠandĠ":9254,"ĠisĠactiv":9255,"ĠaĠhalf":9256,"ĠpartĠofĠtheĠ":9257,"whatever":9258,"productiv":9259,"ĠlikelyĠ":9260,"ĠplaceĠ":9261,"Ġsignific":9262,"ĠstudentsĠin":9263,"-sizedĠ":9264,"eĠ(s":9265,"sĠcanĠb":9266,"ordinating":9267,"designedĠtoĠ":9268,"ogenic":9269,"ĠanĠextra":9270,"ĠofĠsaidĠcount":9271,"Ġalongsid":9272,"greenĠpartyĠmember":9273,"handleĠ":9274,"printableĠ":9275,"eĠadv":9276,"institut":9277,",ĠweĠhaveĠ":9278,"ĠdoĠi":9279,"ensureĠthatĠ":9280,"ptun":9281,"onceĠtheĠ":9282,",ĠblogĠfriend":9283,"etti":9284,"improveĠth":9285,"ĠexperienceĠin":9286,"irectly":9287,"fullerton":9288,"eĠanalys":9289,".ĠforĠexample":9290,"oftware":9291,"following":9292,"Ġsystems,Ġ":9293,"christmas":9294,"istoryĠof":9295,"honeyĠ":9296,"eĠthatĠtheĠ":9297,"resultsĠin":9298,"resultingĠin":9299,"Ġprovides":9300,"ĠprovidesĠ":9301,"versionĠofĠsumoĠaffiliat":9302,"binaryĠoption":9303,"surviv":9304,"eĠofĠcalifornia":9305,"ĠwillĠbeĠs":9306,"glor":9307,"Ġtrial":9308,"escap":9309,"ĠcountyĠ":9310,"Ġcountri":9311,"Ġcountrys":9312,"chief":9313,"Ġchristmas":9314,"ĠasĠaĠresult":9315,"privat":9316,"privileg":9317,"177":9318,"livingĠroom":9319,"necessaril":9320,"writing.Ġ":9321,"Ġthree-":9322,"ĠtoĠmakeĠ":9323,"ĠdiabetesĠ":9324,"ĠaccordingĠtoĠtheĠ":9325,"Ġthere'sĠ":9326,"untilĠtheĠ":9327,"rawĠmaterial":9328,"Ġofficer":9329,"Ġexamin":9330,"promin":9331,"promis":9332,"ĠtreatmentĠin":9333,"initial":9334,"contactĠusĠ":9335,"ĠassistantĠ":9336,"structureĠandĠfunction":9337,"receivedĠ":9338,".ĠaĠstud":9339,"delic":9340,"holder":9341,"heart":9342,"oakĠup":9343,"ĠfoodĠpreparation":9344,"ĠcontinueĠtoĠ":9345,"ĠanalysisĠ":9346,"lessĠthan":9347,"ĠâĢĵĠ":9348,"imilarĠtoĠ":9349,"eĠmoreĠ":9350,"monthlyĠ":9351,"investig":9352,"investigation":9353,"errors.h":9354,"foundĠthatĠ":9355,"ablesĠandĠ":9356,"ĠtakeĠaĠlook":9357,"Ġattende":9358,"learnĠmoreĠ":9359,"ĠminutesĠ":9360,"ĠminuteĠdriveĠ":9361,"loris":9362,"atingĠevidenc":9363,"elf-":9364,"robatĠread":9365,"ĠtoĠhelpĠyou":9366,"Ġdownload":9367,"accept":9368,"e.ĠweĠareĠ":9369,"ĠexpensiveĠ":9370,"ĠperformanceĠ":9371,"ĠmonthlyĠ":9372,"courseĠ":9373,"courseĠisĠdesignedĠfor":9374,"functional":9375,"widelyĠ":9376,"Ġzomb":9377,"Ġmyth":9378,"databas":9379,"ĠaĠcomplet":9380,"ĠaĠcomfort":9381,"ĠhadĠbeen":9382,"goingĠtoĠbeĠ":9383,"planningĠapplication":9384,"planningĠdepart":9385,"believeĠ":9386,"organism":9387,"Ġsmart":9388,"ĠsmartĠ":9389,"Ġfamily":9390,"quiteĠa":9391,"gradeĠ":9392,"Ġguidebook":9393,"familyĠ":9394,"gooden":9395,"jamesĠ":9396,"roundabout":9397,"ĠtellĠyou":9398,"ĠtheĠchurch":9399,"Ġdistrict":9400,"Ġabsorb":9401,"phone,Ġ":9402,"Ġ*Ġerrors.h":9403,"emptyĠ":9404,"Ġremoval":9405,"ĠtowardsĠ":9406,"ĠlosĠangel":9407,"findĠoutĠ":9408,"demand":9409,"meant":9410,"analys":9411,"Ġantiqu":9412,"Ġantibod":9413,"Ġlaunch":9414,"basedĠonĠ":9415,"kindsĠof":9416,"ĠmustĠbeĠ":9417,"constantĠ":9418,"ĠthroughoutĠtheĠ":9419,"productionĠu":9420,"ĠaĠlargeĠ":9421,"Ġinvestig":9422,"cats":9423,"latin":9424,"marri":9425,"ĠsetĠup":9426,"Ġdinner":9427,"Ġtoo!":9428,"nothingĠ":9429,"efficac":9430,"grandfather":9431,"locatedĠon":9432,"nlĠwith":9433,"ilitaryĠ":9434,"Ġpowerful":9435,"royal":9436,"Ġrestaurant":9437,"ĠtheĠcorner":9438,"uggestĠ":9439,"ĠserviceĠprovid":9440,"chedule":9441,"-harm":9442,"eaceful":9443,"modern":9444,"ĠaĠstrong":9445,".ĠitĠalsoĠ":9446,"ĠhomeĠremodel":9447,"Ġdietetic":9448,"example":9449,"ĠlargeĠ":9450,"perfectlyĠ":9451,"apacity":9452,"makeĠsureĠthatĠ":9453,"Ġbehalf":9454,"Ġcompetition":9455,"Ġquickly":9456,"stronglyĠ":9457,"vehicleĠadvertisingĠ":9458,"immuneĠsystem":9459,"-year-oldĠ":9460,"bathroom":9461,"wallpaper":9462,"Ġerul":9463,"ĠspringĠ":9464,"ĠcountyĠcouncilĠmember":9465,"Ġbegan":9466,"urban":9467,"oliveĠoil":9468,"amboo":9469,"Ġcharacter":9470,"ĠtroubledĠteen":9471,"ĠmarketingĠstrateg":9472,"Ġinstitution":9473,"framework":9474,"historic":9475,"rasp":9476,"comfortableĠ":9477,"istryĠof":9478,"independenceĠwar":9479,",Ġsmg":9480,"ĠaffordableĠ":9481,"Ġlegal":9482,"ĠcommitteeĠ":9483,"florid":9484,"createĠa":9485,"focusedĠon":9486,"mustĠbeĠ":9487,"ĠawayĠfrom":9488,"ĠbelieveĠ":9489,"Ġrespon":9490,"ĠproductĠ":9491,"ĠatĠtheĠsameĠtime,Ġ":9492,"ĠreceiveĠ":9493,"opportunityĠtoĠ":9494,"ĠthreeĠyear":9495,"sĠprogramsĠinĠfl":9496,"rodeo":9497,"Ġbreed":9498,"ĠfallĠ":9499,"iddleĠ":9500,"Ġlandscap":9501,"beyond":9502,"ĠtheĠsituation":9503,"clinical":9504,"ustainableĠ":9505,"canĠiĠdo":9506,"Ġequip":9507,"eĠshallĠbeĠ":9508,"Ġphoto":9509,"uccessfullyĠcomplet":9510,"avidĠ":9511,"flexibleĠ":9512,"gatewayĠ":9513,"kathyĠ":9514,"enarios":9515,"atalog":9516,".ĠofĠtenn":9517,"threeĠ":9518,"thesis":9519,"Ġpetition":9520,"straight":9521,"Ġbaby'sĠ":9522,"ourtĠofĠmeig":9523,"ĠaĠprivateĠ":9524,"ĠaĠprivateĠcl":9525,"easternĠchristian":9526,"669":9527,"label":9528,".ĠonceĠyou":9529,"ĠwinterĠ":9530,"ĠwineĠvideoĠ":9531,"styleĠ":9532,"Ġalaska":9533,"s,Ġincluding":9534,"Ġon-lineĠvot":9535,"anceĠbrok":9536,"dustry.Ġ":9537,"assuan_err":9538,"ĠstudentĠbod":9539,"Ġeurop":9540,"standardĠschnauzer":9541,"ĠsoĠsorryĠtoĠhearĠaboutĠyour":9542,"ĠarthritisĠtreatmentĠin":9543,"broken":9544,"hardĠwork":9545,"Ġcampus":9546,"impressiveĠ":9547,"illustrat":9548,"exascaleĠ":9549,"Ġlanguag":9550,"ĠadmissionĠconsult":9551,"williamĠhill":9552,"Ġagricultural":9553,"ĠitĠcomesĠtoĠ":9554,"automobil":9555,"ĠregisteredĠ":9556,"ĠdoesnâĢĻtĠ":9557,"eĠglitteryĠwineĠb":9558,"Ġdefinition":9559,"specialist,Ġ(":9560,"oundproofĠwindowsĠinĠfortĠbranch":9561,"ynamic":9562,"restorativeĠjustic":9563,"ĠbloodĠ":9564,"negativeĠ":9565,"completion":9566,"encryption":9567,"ĠnuovoĠ(":9568,"Ġjesus":9569,"ĠrankedĠ":9570,"verticalĠmill":9571,"letĠusĠknow":9572,")Ġ[w":9573,"Ġsubscription":9574,"ormoneĠlevel":9575,"luxuryĠ":9576,"legalĠbasisĠfor":9577,"rusticĠglam":9578,"elizabethĠell":9579,"gorith":9580,"ĠanĠintroduction":9581,"edicatedĠtoĠ":9582,"Ġpolitical":9583,"american":9584,"absolut":9585,"ĠluckyĠb":9586,"ĠconductĠ":9587,"reminder":9588,"eĠfeelĠfreeĠtoĠ":9589,"ingĠhandgun":9590,"Ġsatisfaction":9591,"anyoĠelectric":9592,"victorianĠcand":9593,"ĠquarterlyĠ(berkel":9594,"etĠcityĠhouston":9595,"puteĠresolutionĠprogram":9596,"-antitrypsinĠdeficienc":9597,"oatmeal":9598,"ygien":9599,"Ġarab":9600,"atyamevĠsurya":9601,"uroĠverd":9602,"acuum":9603,"hawaii":9604,"ĠprobablyĠ":9605,"easelgraveĠ":9606,"associat":9607,"ĠinĠcinemaĠnuovoĠ(":9608,"atisfi":9609,"va_copy":9610,".gov/":9611,"bhkĠapartmentĠ":9612,"gotten":9613,"kdtemp":9614,"âĨĳ":9615,"ĠversusĠ":9616,"Ġtichonic":9617,"ingredient":9618,"unkin'":9619,"ĠgrewĠup":9620,"agstaffĠaz":9621,"oocommerc":9622,"ingĠphysician":9623,"uccessorsĠinĠoffic":9624,"productionĠuimĠdomain":9625,"sĠprogramsĠinĠflagstaffĠaz":9626,".ĠofĠtenn.Ġ":9627,"ĠarthritisĠtreatmentĠinĠken":9628,"ĠquarterlyĠ(berkeley":9629,"!\"":9630,"!ĠtheĠ":9631,"!Ġh":9632,"!ĠsoĠ":9633,"!Ġhapp":9634,"\"Ġhigh":9635,"%ĠinĠ":9636,"%ĠsinceĠ":9637,"&b":9638,"'.":9639,"(i":9640,")Ġwhich":9641,")Ġ-":9642,")ĠgrewĠup":9643,"*.":9644,"+book":9645,",Ġas":9646,",ĠtheĠt":9647,",Ġthrough":9648,",ĠaĠd":9649,",Ġapp":9650,",ĠshouldĠ":9651,",Ġstart":9652,",ĠalongĠwith":9653,",ĠtheyĠareĠ":9654,",ĠthereĠareĠ":9655,",ĠaccordingĠtoĠ":9656,"-view":9657,"-to":9658,"-person":9659,"-bas":9660,"-mad":9661,"-click":9662,"-lit":9663,"-relatedĠ":9664,"-classĠ":9665,".ĠaĠ":9666,".Ġther":9667,".Ġstudent":9668,".ĠthatâĢĻsĠ":9669,"/person":9670,"113":9671,"350":9672,"61":9673,"62":9674,"67":9675,"70":9676,"786":9677,"810":9678,"860":9679,"900":9680,":-":9681,":Ġfor":9682,";Ġth":9683,";ĠtheĠ":9684,"?âĢĿ":9685,"?ĠweĠ":9686,"?Ġif":9687,"?ĠareĠyou":9688,"a_":9689,"aar":9690,"aund":9691,"aik":9692,"bs":9693,"bv":9694,"bre":9695,"bit":9696,"bow":9697,"bag":9698,"beĠtoĠ":9699,"byĠs":9700,"byĠm":9701,"bioĠ":9702,"benef":9703,"bbc":9704,"bought":9705,"bitĠof":9706,"boost":9707,"ca":9708,"cle":9709,"cap":9710,"cod":9711,"cool":9712,"cutĠ":9713,"camp":9714,"creas":9715,"cientĠ":9716,"clock":9717,"collection":9718,"craft":9719,"cycl":9720,"ceĠagain":9721,"cottonĠtrader":9722,"collabor":9723,"cottag":9724,"counselor":9725,"dl":9726,"did":9727,"dim":9728,"discuss":9729,"devic":9730,"duringĠtheĠ":9731,"destination":9732,"didnâĢĻtĠ":9733,"despit":9734,"doubt":9735,"directĠ":9736,"eor":9737,"eiv":9738,"eersĠ":9739,"eantĠ":9740,"eans":9741,"ewhatĠ":9742,"egraph":9743,"fad":9744,"fitĠ":9745,"fair":9746,"french":9747,"folder":9748,"fasc":9749,"favour":9750,"futureĠ":9751,"famousĠ":9752,"gium":9753,"grip":9754,"govern":9755,"hd":9756,"hen":9757,"hal":9758,"heal":9759,"heĠisĠ":9760,"holidayĠ":9761,"habit":9762,"https":9763,"iusĠ":9764,"iedĠto":9765,"ianceĠ":9766,"ieĠl":9767,"iâĢĻll":9768,"iâĢĻveĠ":9769,"iada":9770,"iÃ³n":9771,"ji":9772,"jul":9773,"jection":9774,"kn":9775,"kĠ":9776,"kit":9777,"kitĠ":9778,"kick":9779,"kob":9780,"knight":9781,"ksw":9782,"knock":9783,"lc":9784,"lun":9785,"latĠ":9786,"lak":9787,"layĠ":9788,"lap":9789,"lication":9790,"limp":9791,"luk":9792,"luck":9793,"lantic":9794,"moĠ":9795,"mem":9796,"mill":9797,"mph":9798,"meĠtoĠ":9799,"meeting":9800,"mooth":9801,"motiv":9802,"nan":9803,"nel":9804,"nedĠ":9805,"nas":9806,"nak":9807,"nship":9808,"neck":9809,"nurs":9810,"numberĠof":9811,"oa":9812,"oqu":9813,"oardĠ":9814,"pp":9815,"pĠ":9816,"pour":9817,"psĠandĠ":9818,"pink":9819,"pool":9820,"pursu":9821,"rv":9822,"rup":9823,"reĠc":9824,"rity":9825,"rass":9826,"ryĠs":9827,"rantĠ":9828,"sk":9829,"seĠ":9830,"sor":9831,"sen":9832,"sĠan":9833,"sam":9834,"sex":9835,"sect":9836,"sign":9837,"sĠtheĠb":9838,"seat":9839,"ssel":9840,"scal":9841,"sĠafter":9842,"sureĠ":9843,"skin":9844,"sĠasĠwellĠasĠ":9845,"singleĠ":9846,"summer":9847,"securityĠ":9848,"sundayĠ":9849,"security":9850,"sky":9851,"tail":9852,"town":9853,"typ":9854,"ule":9855,"uallyĠs":9856,"vdĠ":9857,"vit":9858,"vic":9859,"weĠs":9860,"wool":9861,"wineĠ":9862,"wiseĠ":9863,"wors":9864,"worry":9865,"xx":9866,"xim":9867,"y_":9868,"yach":9869,"yĠthat":9870,"yĠaboutĠ":9871,"yes,":9872,"zek":9873,"zayn":9874,"½Ġk":9875,"¿½":9876,"Â£":9877,"Â±":9878,"Â»":9879,"ÂŃ":9880,"Ã¡":9881,"Ã½Ġk":9882,"Äį":9883,"ä»":9884,"ï¿½":9885,"Ġì":9886,"Ġvi":9887,"Ġuc":9888,"Ġeb":9889,"Ġroad":9890,"Ġriver":9891,"Ġelection":9892,"Ġestablish":9893,"Ġevidenc":9894,"Ġedit":9895,"Ġoven":9896,"eĠk":9897,"eĠareĠ":9898,"eĠlik":9899,"eĠla":9900,"eĠâĢĵ":9901,"eĠitsĠ":9902,"eĠstor":9903,"eĠwillĠbeĠ":9904,"eĠhasĠbeen":9905,"eĠreport":9906,"Ġtu":9907,"Ġtun":9908,"Ġtough":9909,"Ġtire":9910,"Ġtass":9911,"ĠtreatĠ":9912,"Ġtweet":9913,"Ġturning":9914,"Ġtailor":9915,"ĠtattooĠ":9916,"Ġtutor":9917,"ĠaĠrel":9918,"ĠaĠcompan":9919,"Ġahead":9920,"ĠaĠtru":9921,"ines":9922,"inth":9923,"inentĠ":9924,"inĠon":9925,"inĠtheĠc":9926,"inĠtheir":9927,"inĠtheĠt":9928,"ina,Ġ":9929,"inÃ©":9930,"inĠtouch":9931,"inĠport":9932,"inĠfact":9933,"Ġthorough":9934,"sĠn":9935,"sĠre":9936,"sĠit":9937,"sĠsh":9938,"sĠsoĠ":9939,"sĠbutĠ":9940,"sĠbefor":9941,"sĠlist":9942,"sĠshall":9943,"sĠlater":9944,"sĠrelat":9945,"erĠd":9946,"erver":9947,"er.ĠtheĠ":9948,"erial":9949,"ers.":9950,"ery.":9951,"erĠthanĠ":9952,"onyĠ":9953,"on.Ġ":9954,"onus":9955,"onation":9956,"one.":9957,"onĠher":9958,"tĠ(":9959,"tĠout":9960,"orph":9961,"orship":9962,"orrent":9963,"envi":9964,"enable":9965,"enĠintoĠ":9966,"enĠhill":9967,"eneur":9968,"oux":9969,"ousĠs":9970,"ous.cĠ(":9971,"ĠtheĠr":9972,"ĠtheĠon":9973,"ĠtheĠro":9974,"ĠtheĠform":9975,"ĠtheĠâĢľ":9976,"ĠtheĠright":9977,"ĠtheĠjob":9978,"ĠtheĠapplication":9979,"anor":9980,"anĠc":9981,"anim":9982,"anium":9983,"rees":9984,"reational":9985,"reporter":9986,"Ġsl":9987,"Ġsid":9988,"Ġsun":9989,"Ġsqu":9990,"Ġsight":9991,"Ġsession":9992,"Ġsold":9993,"ĠsideĠ":9994,"ĠsundayĠ":9995,"Ġschedul":9996,"Ġsenior":9997,"Ġsilver":9998,"Ġsymbol":9999,"atĠa":10000,"atin":10001,"attĠ":10002,"ated.Ġ":10003,"atedĠfor":10004,"atedĠby":10005,"atientĠ":10006,"atĠtheĠsameĠtim":10007,"aturesĠ":10008,"itz":10009,"itĠtoĠ":10010,"itsĠof":10011,"itĠall":10012,"itial":10013,"iteĠisĠ":10014,"itans":10015,"ing:":10016,"ingĠre":10017,"ingâĢĻsĠ":10018,"ingĠaĠc":10019,"ingĠaĠf":10020,"ingĠaĠm":10021,"ingĠaĠg":10022,"ingĠaĠd":10023,"ingĠofĠtheĠ":10024,"ingĠhigh":10025,"ingĠcompan":10026,"ingĠaĠnew":10027,"ingĠproduct":10028,"Ġana":10029,"ĠanĠincreas":10030,"ĠancientĠ":10031,"yĠreg":10032,"yĠhasĠbeen":10033,"yĠhous":10034,"alition":10035,"alĠdischarg":10036,".Ġr":10037,".Ġus":10038,".Ġne":10039,".Ġcom":10040,".Ġcon":10041,".Ġhe":10042,".Ġla":10043,".Ġbr":10044,".Ġren":10045,".ĠwhatĠ":10046,".ĠjustĠ":10047,".ĠwhyĠ":10048,".Ġchoos":10049,".ĠphotoĠ":10050,"arth":10051,"areĠs":10052,"aryĠm":10053,"arthrit":10054,"arilyĠ":10055,",Ġre":10056,",Ġis":10057,",Ġun":10058,",Ġnew":10059,",Ġher":10060,",Ġred":10061,",Ġdo":10062,",ĠwasĠ":10063,",Ġwell":10064,",ĠwereĠ":10065,",ĠbyĠ":10066,",Ġprofessional":10067,",Ġuniv":10068,",ĠoakridgeĠ":10069,",ĠÂ·":10070,",ĠkathyĠ":10071,"es)":10072,"es_":10073,"esisĠ":10074,"esĠall":10075,"essĠs":10076,"escal":10077,"esomeĠ":10078,"esĠthen":10079,"esĠatĠtheĠ":10080,"esĠteam":10081,"esĠaround":10082,"oĠeĠ":10083,"oĠkitchenĠremodel":10084,"oĠmortar":10085,"isĠthatĠ":10086,"isorder":10087,"isĠalwaysĠ":10088,"isposal":10089,"ic,Ġ":10090,"icol":10091,"ics,Ġ":10092,"icatedĠ":10093,"iciousĠ":10094,"Ġcow":10095,"Ġcart":10096,"Ġcapt":10097,"Ġcyt":10098,"Ġcavi":10099,"Ġcounter":10100,"Ġcamera":10101,"Ġcloth":10102,"Ġculture":10103,"Ġcsr":10104,"Ġceremon":10105,"omest":10106,"omew":10107,"omatic":10108,"ĠandĠon":10109,"ĠandĠch":10110,"ĠandĠbeĠ":10111,"ĠandĠmor":10112,"ĠandĠplac":10113,"ĠandĠchang":10114,"ĠandĠhealth":10115,"ĠandĠwhit":10116,"ĠandĠphysical":10117,"ĠandĠrossĠ":10118,"ĠandĠinternational":10119,"ela":10120,"elan":10121,"elep":10122,"else":10123,"thol":10124,"thĠof":10125,"theĠc":10126,"theĠp":10127,"theat":10128,"thank":10129,"their":10130,"thirdĠ":10131,"thentic":10132,"theor":10133,"ila":10134,"illegal":10135,"youâĢĻll":10136,"forĠf":10137,"forĠthisĠ":10138,"forĠexample":10139,"ed?":10140,"edĠan":10141,"edlyĠ":10142,"edĠtheĠc":10143,"edly":10144,"ed,Ġs":10145,"edĠtheĠb":10146,"edication":10147,"ed.Ġs":10148,"edĠaĠb":10149,"edĠafter":10150,"edĠanĠ":10151,"ed.ĠthisĠ":10152,"edĠthis":10153,"edĠtwoĠ":10154,"editor":10155,"edĠteam":10156,"edĠanother":10157,"edĠasĠa":10158,"edĠagainst":10159,"edĠthatĠtheĠ":10160,"edĠtheĠcor":10161,"Ġpas":10162,"Ġpow":10163,"Ġpeer":10164,"Ġpotential":10165,"Ġpoor":10166,"Ġpopular":10167,"Ġpaul":10168,"Ġprett":10169,"Ġpopulation":10170,"Ġpaddock":10171,"ĠwentĠ":10172,"ĠwoodĠ":10173,"Ġwild":10174,"stown":10175,"strat":10176,"stantĠ":10177,"stamp":10178,"edĠour":10179,"edĠwhen":10180,"edĠitsĠ":10181,"edĠhim":10182,"roid":10183,"rother":10184,"rocer":10185,"chol":10186,"chill":10187,"chrom":10188,"cheer":10189,"charter":10190,"childĠ":10191,"championship":10192,"ĠbadĠ":10193,"Ġbank":10194,"ĠbusĠ":10195,"Ġbath":10196,"Ġbed,Ġ":10197,"Ġmc":10198,"Ġmm":10199,"Ġmw":10200,"Ġmag":10201,"Ġmary":10202,"ĠmyĠb":10203,"ĠmyĠd":10204,"ĠmoveĠ":10205,"Ġmax":10206,"Ġmental":10207,"Ġmessag":10208,"ĠmostĠof":10209,"Ġmpg":10210,"ĠtoĠin":10211,"ĠtoĠmyĠ":10212,"ĠtoĠmanag":10213,"ĠtoĠcontrol":10214,"ĠtoĠfollow":10215,"ĠtoĠjoin":10216,"ĠtoĠbecom":10217,"ĠtoĠreturn":10218,"ĠtoĠfind":10219,"ĠtoĠlaunch":10220,"ĠtoĠprevent":10221,"ĠtoĠimproveĠ":10222,"ĠtoĠpromot":10223,"isĠplay":10224,"Ġhel":10225,"Ġhang":10226,"Ġhors":10227,"Ġholiday":10228,"Ġhepatit":10229,"Ġhygien":10230,"entleĠ":10231,"entry":10232,"entĠtelevision":10233,"entina":10234,"entitl":10235,"least":10236,"leather":10237,"leagu":10238,"le+book":10239,"cture":10240,"Ġdan":10241,"Ġdell":10242,"Ġdang":10243,"Ġdark":10244,"Ġdiscuss":10245,"Ġdevic":10246,"Ġdirection":10247,"Ġdespit":10248,"Ġdrivers":10249,"lostĠ":10250,"loveĠtheĠ":10251,"usa":10252,"useĠandĠ":10253,"useĠofĠtheĠ":10254,"etal":10255,"âĢ²":10256,"uri":10257,"url":10258,"urder":10259,"ureĠisĠ":10260,"urbur":10261,"urround":10262,"urviv":10263,"Ġfig":10264,"Ġfoc":10265,"Ġfarm":10266,"Ġflor":10267,"Ġfactor":10268,"Ġfinger":10269,"ĠfabulousĠ":10270,"ationĠin":10271,"ations,Ġ":10272,"ationĠwill":10273,"olt":10274,"id-":10275,"idol":10276,"idden":10277,"ĠinĠtheir":10278,"ĠinĠaĠc":10279,"ĠinĠorder":10280,"Ġinfluenc":10281,"ĠindustryĠ":10282,"Ġindustry":10283,"igious":10284,"igrantĠ":10285,"ĠtoĠthatĠ":10286,"ĠtoĠaĠ":10287,"ĠtoĠthem":10288,"ĠtoĠanĠ":10289,"ĠtoĠacquir":10290,"imit":10291,"immortal":10292,"esĠus":10293,"esĠitĠ":10294,"esĠhigh":10295,"esĠcount":10296,"esĠi.":10297,"raq":10298,"rayĠ":10299,"rael":10300,"rayĠof":10301,"raftĠ":10302,"emm":10303,"emil":10304,"atĠyou":10305,"ĠyouĠwant":10306,"ĠyouĠshouldĠ":10307,"Ġyoung":10308,"ĠyouĠreach":10309,"ĠyouĠwantĠ":10310,"owenĠhill":10311,"leĠisĠ":10312,"leĠto":10313,"ĠofĠaĠd":10314,"ĠofĠtheseĠ":10315,"ĠofĠinformation":10316,"ĠofĠtheĠgplac":10317,"amous":10318,"ammer":10319,"irwell":10320,"irĠcondition":10321,"Ġgun":10322,"Ġglitter":10323,"ifetim":10324,"ĠreadĠ":10325,"Ġreally":10326,"ĠrecordĠ":10327,"Ġrevenu":10328,"Ġrebound":10329,"ulat":10330,"illi":10331,"illar":10332,"illness":10333,"illino":10334,"acro":10335,"acet":10336,"ecad":10337,"ecure":10338,"Ġalum":10339,"Ġalert":10340,"Ġaltogether":10341,"whiteĠ":10342,"whoseĠ":10343,"allen":10344,"allic":10345,"Ġstag":10346,"Ġstuck":10347,"Ġstability":10348,"Ġstucc":10349,"Ġstimul":10350,"neither":10351,"needĠof":10352,"neaker":10353,"neutral":10354,"terior":10355,"eĠtheĠsh":10356,"withĠthisĠ":10357,"withĠtheĠs":10358,"withĠaĠf":10359,"withinĠ":10360,"withĠother":10361,"ably":10362,"ourĠl":10363,"agen":10364,"again":10365,"existĠ":10366,"exually":10367,"execut":10368,"executiveĠ":10369,"ingĠl":10370,"ingĠus":10371,"ingĠif":10372,"ingĠover":10373,"ingĠoutĠof":10374,"ingĠjob":10375,"os;":10376,"ossibleĠ":10377,"osĠandĠm":10378,"ostĠofĠtheĠ":10379,"utiesĠ":10380,"utdown":10381,"âĢĻc":10382,"aybeĠ":10383,"comment":10384,"comesĠwith":10385,"ĠandĠal":10386,"ĠandĠaĠb":10387,"ĠandĠaĠd":10388,"ĠandĠaccess":10389,"itĠwill":10390,"resid":10391,"prospect":10392,"akistan":10393,"quak":10394,"eĠsiz":10395,"eĠserv":10396,"eĠsection":10397,"eĠschool":10398,"eĠseem":10399,"eĠtri":10400,"eĠtreat":10401,"eĠtook":10402,"ivin":10403,"ive,":10404,"ighter":10405,"Ġlac":10406,"ĠlateĠ":10407,"Ġlight":10408,"ĠlessĠ":10409,"Ġlunch":10410,"Ġliter":10411,"ĠlincolnĠindustri":10412,"umans":10413,"ĠthatĠyour":10414,"ĠthatĠcan":10415,"ĠthatĠmyĠ":10416,"ĠthatĠhas":10417,"ĠthatĠheĠ":10418,"essayĠ":10419,"confir":10420,"constru":10421,"consequ":10422,"connectĠ":10423,"permission":10424,"periodĠof":10425,"ooter":10426,"andle":10427,"eĠoff":10428,"eĠofĠall":10429,"eĠofĠour":10430,".ĠtheĠnew":10431,"earl":10432,"upd":10433,"upre":10434,"upper":10435,"evot":10436,"ĠthisĠlif":10437,"ĠthisĠplugin":10438,"s.Ġyour":10439,"s.Ġnow":10440,"s.Ġhowever":10441,"ainting":10442,"e.ĠifĠyouĠareĠ":10443,"e.Ġhowever,Ġ":10444,"lyĠwhatĠ":10445,"ency":10446,"enceĠandĠ":10447,"ence,":10448,"enclos":10449,"ĠforĠan":10450,"ĠforĠit":10451,"ĠforĠthos":10452,"ĠforĠeach":10453,"ĠforĠshar":10454,"Ġtheor":10455,"eprom":10456,"eploy":10457,"ephy":10458,"s,Ġin":10459,"s,ĠisĠ":10460,"s,Ġcan":10461,"s,ĠâĢľ":10462,"s,ĠyouĠcan":10463,"s,Ġpa":10464,"s,ĠwhoĠ":10465,"s,ĠpleaseĠ":10466,"Ġnun":10467,"Ġnuc":10468,"Ġnutri":10469,"e,Ġnow":10470,"e,Ġboth":10471,"e,ĠyouĠwill":10472,"e,ĠitĠc":10473,"udienc":10474,"uditorĠgeneral":10475,"bean":10476,"beam":10477,"beingĠs":10478,"Ġasc":10479,"Ġasian":10480,"ĠasĠtheyĠareĠ":10481,"ĠasburyĠpark":10482,"sĠoff":10483,"sĠofĠh":10484,"sĠofĠthisĠ":10485,"sĠofĠtheĠs":10486,"sĠoffer":10487,"sĠofĠour":10488,"ĠwithĠaĠ":10489,"ĠwithĠour":10490,"anti":10491,"antast":10492,"antastic":10493,"ĠtheĠsun":10494,"ĠtheĠscallop":10495,"est-":10496,"estra":10497,"ĠoneĠs":10498,"ĠonĠthisĠ":10499,"ĠonĠtheĠc":10500,"ĠonĠmyĠ":10501,"Ġontario":10502,"Ġshad":10503,"Ġshoot":10504,"riber":10505,"ĠasĠi":10506,"ĠasĠsh":10507,"ĠasĠlong":10508,"ĠasĠusual":10509,"eĠcam":10510,"eĠcop":10511,"eĠcustom":10512,"eĠcamp":10513,"eĠcours":10514,"eĠclear":10515,"eĠcustomer":10516,"eĠcounsel":10517,"eĠcox":10518,"eĠcelebrat":10519,"anceĠon":10520,"ellane":10521,"yourĠsit":10522,"yourĠneed":10523,"yourĠlocal":10524,"yourĠbusinessĠ":10525,"ĠaĠâĢľ":10526,"ĠaĠâĢĺ":10527,"sĠandĠnew":10528,"oda":10529,"odi":10530,"printĠ":10531,"principl":10532,"preneur":10533,"proĠkitchenĠremodel":10534,"ateĠisĠ":10535,"ateĠwith":10536,"sĠinĠs":10537,"sĠinĠtheir":10538,"sĠinĠtheĠd":10539,"sĠinĠmyĠ":10540,"sĠinvolv":10541,"s>Ġ<s>Ġfor":10542,"s>Ġ<s>ĠtheĠs":10543,"ghana":10544,"client":10545,"climateĠ":10546,"cloud":10547,"cluster":10548,"climb":10549,"ducer":10550,"ipul":10551,"Ġadam":10552,"ĠadjustĠ":10553,"ĠadultĠ":10554,"ĠorĠin":10555,"ĠorĠnon-":10556,"ĠorĠaceton":10557,"Ġoriginal":10558,"Ġwhom":10559,"ĠwhiteĠ":10560,"Ġpropos":10561,"Ġproven":10562,"Ġprovision":10563,"Ġproducer":10564,"porsch":10565,"ĠatĠa":10566,"ĠatĠtheĠs":10567,"etĠoutĠ":10568,"shelp":10569,"shower":10570,"short":10571,"shieldĠ":10572,"ardstown":10573,"ĠtheĠcityĠ":10574,"ĠtheĠcost":10575,"ĠtheĠcours":10576,"ĠtheĠcityĠof":10577,"ĠtheĠcair":10578,"ĠtheĠcoffe":10579,"ĠtheĠcrushĠproĠ":10580,"fromĠ":10581,"fromĠfather":10582,"willĠhaveĠ":10583,"artinvitor":10584,"eĠinf":10585,"eĠinform":10586,"eĠinĠtheir":10587,"eĠinvolv":10588,"formatĠ":10589,"formsĠof":10590,"bertĠ":10591,"eĠmaterial":10592,"eĠmayĠalsoĠ":10593,"ly,ĠtheĠ":10594,"lyĠsit":10595,"lymph":10596,"outĠther":10597,"Ġcond":10598,"Ġconjunction":10599,"ocumentĠ":10600,"ĠcomesĠ":10601,"Ġcompl":10602,"Ġcompa":10603,"Ġcompar":10604,"eĠdayĠ":10605,"eĠdisc":10606,"eĠdepend":10607,"eĠdecor":10608,"oughtĠ":10609,"low-":10610,"lowĠcook":10611,"Ġ(f":10612,"Ġ(h":10613,"Ġ(or":10614,"Ġ(andĠ":10615,"Ġ(paris":10616,"Ġ(wild":10617,"ealedĠ":10618,"ĠisĠd":10619,"ĠisĠin":10620,"ĠisĠjustĠ":10621,"buyĠ":10622,"haveĠto":10623,"vidĠ":10624,"weak":10625,"weâĢĻveĠ":10626,"we'reĠ":10627,"Ġabund":10628,"Ġabroad":10629,"Ġabandon":10630,"âĢĻsĠm":10631,"ailyĠbas":10632,"izeĠofĠyour":10633,"index":10634,"ableĠt":10635,",Ġsouth":10636,",ĠscottishĠtelevision":10637,"ewu":10638,"plementĠ":10639,"ruis":10640,"ruby":10641,"rucial":10642,"ĠcanĠyou":10643,"ĠcanĠi":10644,"mentĠag":10645,"intend":10646,"ĠacrobatĠread":10647,"ityĠmentor":10648,"ityĠlun":10649,"ĠcheĠ":10650,"Ġchev":10651,"Ġchip":10652,"Ġchees":10653,"ĠchocolateĠ":10654,"weĠar":10655,"weĠprovid":10656,"weĠwereĠ":10657,"Ġexper":10658,"Ġexpos":10659,"Ġexhib":10660,"eĠaĠnew":10661,"eĠaward":10662,"eĠactiv":10663,"eĠandĠhealth":10664,"phereĠ":10665,"eĠtoĠbeĠ":10666,"eĠtoĠgetĠ":10667,"iesĠthatĠ":10668,"ies,ĠandĠ":10669,"ĠspentĠ":10670,"Ġspanish":10671,"tĠoff":10672,"manual":10673,"ongo":10674,"ensor":10675,"enseĠof":10676,"liqu":10677,"liament":10678,"Ġjan":10679,"Ġjack":10680,"Ġjeb":10681,"edĠbyĠm":10682,"edĠbyĠd":10683,"edĠbecaus":10684,"eĠbelow":10685,"eĠboth":10686,"ĠtheĠfre":10687,"ĠtheĠfound":10688,"ĠtheĠfamil":10689,"ĠtheĠfather":10690,"ĠtheĠfield":10691,"ĠtheĠfaith":10692,"ĠtheĠfrontĠof":10693,"ĠatĠm":10694,"ĠatĠwork":10695,"ĠatĠhom":10696,"ĠtheĠmess":10697,"ĠtheĠmost":10698,"ĠtheĠmenu":10699,"portal":10700,"portrait":10701,"Ġvir":10702,"Ġvenu":10703,"Ġvictor":10704,"ĠvoodooĠ":10705,"grap":10706,"s.com":10707,"s.ĠanyĠ":10708,"s.ĠthisĠisĠ":10709,"ĠiotĠ":10710,"ĠiĠwouldĠ":10711,"ĠiĠdon'tĠ":10712,"ĠiĠtryĠtoĠ":10713,"Ġka":10714,"Ġkal":10715,"Ġkey":10716,"ĠthatĠall":10717,"ĠthatĠtheyĠcan":10718,"ĠtheĠpet":10719,"ĠtheĠpath":10720,"ĠtheĠpolish":10721,"ĠtheĠpurpos":10722,"ĠtheĠpossib":10723,"ĠtheĠpacific":10724,"workingĠon":10725,"ĠtheĠbig":10726,"ĠtheĠbutton":10727,"contempor":10728,"herb":10729,"soĠfar":10730,"spend":10731,"speedĠ":10732,"edĠtoĠget":10733,"eĠtheĠfirstĠ":10734,"'sĠyour":10735,"'sĠown":10736,"cannotĠ":10737,"canĠhelp":10738,"ubmission":10739,"ubmit":10740,"193":10741,"Ġrh":10742,"Ġrent":10743,"Ġround":10744,"ownload":10745,"ible":10746,"notĠjustĠ":10747,"ĠtheĠdist":10748,"ĠtheĠdumpster":10749,"ĠtheĠdifferenc":10750,"edĠinĠyour":10751,"ĠplusĠs":10752,"ĠplentyĠof":10753,"ĠwillĠnotĠ":10754,"Ġamp":10755,"Ġamewu":10756,"ĠhaveĠto":10757,"ĠhaveĠsom":10758,"easonĠ":10759,"easilyĠ":10760,"ers'":10761,"makeĠm":10762,"makingĠitĠ":10763,"ĠtheĠglobal":10764,"ĠtheĠgreek":10765,"ĠtheĠgoal":10766,"isĠactuallyĠ":10767,"ĠtimeĠfor":10768,"assag":10769,"yĠsystem":10770,"ĠthereĠwereĠ":10771,"obed":10772,"eĠpart":10773,"eĠpartĠ":10774,"eĠpurchas":10775,"eĠpurpos":10776,"ĠtheĠtemper":10777,"ebr":10778,"iesĠwith":10779,"ĠtakeĠonĠtheĠ":10780,"ĠtakeĠhim":10781,"sĠsuchĠas":10782,"avoid":10783,"sĠforĠkindleĠ":10784,"sĠforĠgirl":10785,"yĠco":10786,"yĠclean":10787,"ingĠsolution":10788,"ingĠsuppl":10789,"Ġload":10790,"Ġlock":10791,"Ġusb":10792,"ĠusĠatĠ":10793,"idĠwater":10794,"sĠtoĠgetĠ":10795,"ultureĠ":10796,"ultimat":10797,"redĠtoĠ":10798,"redĠtoĠtheĠ":10799,"es,Ġin":10800,"es,Ġor":10801,"es,ĠbutĠ":10802,"es,Ġbut":10803,"wasĠpost":10804,"es.Ġ-":10805,"es.Ġre":10806,"y,ĠbutĠ":10807,"ĠitsĠm":10808,"âĢľforschungszentrum":10809,"s,ĠtoĠ":10810,"s,Ġst":10811,"s,ĠasĠwellĠasĠ":10812,"âĢĿĠ(":10813,"eature":10814,"reception":10815,"more.Ġ":10816,"way.Ġ":10817,"wayĠtoĠgetĠ":10818,"wayĠtoĠst":10819,"incidentĠ":10820,"howĠyou":10821,"Ġagility":10822,"Ġaggreg":10823,"verseĠ":10824,"ĠaĠsur":10825,"ĠaĠsimpleĠ":10826,"ĠaĠsolidĠ":10827,"ĠthemĠall":10828,"ekoĠ":10829,"select":10830,"ordon":10831,"ordpres":10832,"Ġtrac":10833,"whichĠisĠ":10834,"ervicesĠ":10835,"ĠandĠset":10836,"ĠandĠsoul":10837,"ĠandĠserv":10838,"ĠandĠseeĠ":10839,"notifi":10840,"ĠtheĠlateĠ":10841,"ĠtheĠlack":10842,"ĠtheĠlight":10843,"ĠtheĠlicens":10844,"oolingĠsystem":10845,".ĠiĠalsoĠ":10846,".ĠiĠwasĠ":10847,".ĠiĠwouldĠ":10848,".ĠiĠjustĠ":10849,".ĠiĠloveĠ":10850,"argo":10851,"viewer":10852,".ĠsaveĠ":10853,".ĠsinceĠthen":10854,"ersĠ(":10855,"ersĠwith":10856,"ersĠshall":10857,"Ġresolution":10858,"ĠalsoĠwork":10859,"likeĠw":10860,"likeĠyou":10861,"remind":10862,"remoteĠ":10863,"ĠtoĠsell":10864,"ĠtoĠserv":10865,"helpsĠ":10866,"helpingĠtoĠ":10867,"place.Ġ":10868,"e,ĠtoĠ":10869,"ystery":10870,"Ġleav":10871,"Ġleft":10872,"whenĠi":10873,"after":10874,"ĠaddsĠ":10875,"eĠforĠyou":10876,"eĠforĠtheĠs":10877,"eĠforĠyour":10878,"eĠforĠall":10879,"eĠforĠfre":10880,"iotĠs":10881,"prescrib":10882,"eĠisĠwear":10883,"eĠtooĠ":10884,"eĠtogether":10885,"ĠaĠpart":10886,"ĠaĠparticular":10887,"ĠaĠpremium":10888,"ĠaĠphot":10889,"edĠwithĠ":10890,"edĠwithĠyour":10891,"ĠunitsĠ":10892,"y.Ġour":10893,"y.ĠifĠyou":10894,"heatĠ":10895,"he'll":10896,"heaven":10897,"ĠaĠbit":10898,"ĠaĠbusiness":10899,"ĠaĠblank":10900,"Ġneed.Ġ":10901,"Ġnegot":10902,"ĠitĠis":10903,"ĠitĠhasĠbeen":10904,"ĠitĠmayĠbeĠ":10905,"ĠaĠco":10906,"ĠaĠcours":10907,"ĠaĠcultur":10908,"ectional":10909,"tonĠ":10910,"ĠtheseĠm":10911,"ĠtheseĠtwoĠ":10912,"laur":10913,"eĠfunction":10914,"eĠfram":10915,"ĠaĠfresh":10916,"goĠtoĠd":10917,"ingĠtoĠbeĠ":10918,"ĠtheyĠwer":10919,"sĠonly":10920,"sĠonĠour":10921,"Ġscor":10922,"Ġscientist":10923,"ĠscoutĠgroup":10924,"grandĠ":10925,"Ġisrael":10926,"ĠbeingĠb":10927,"Ġbehavior":10928,"Ġaccredit":10929,"ĠaccidentĠ":10930,"ĠaccountĠ":10931,"providedĠon":10932,"providedĠby":10933,"ritor":10934,"ritic":10935,"ritain":10936,"ritical":10937,"interior":10938,"interestĠin":10939,"ed.Ġin":10940,"ed.ĠyouĠcan":10941,"prest":10942,"prejud":10943,"scor":10944,"scop":10945,"mini":10946,"minn":10947,"eĠwithoutĠ":10948,"Ġapplies":10949,"Ġapplianc":10950,"ĠaĠmaster":10951,"ĠaĠmonth":10952,"urnish":10953,"Ġe-":10954,"Ġeeprom":10955,"donâĢĻt":10956,"ardĠcount":10957,"edĠforĠtheir":10958,"ĠafterĠa":10959,"ĠafterĠyou":10960,"ĠaĠgu":10961,"regulation":10962,"mond":10963,"ĠcontentĠandĠ":10964,"ĠanĠemail":10965,"ĠanĠeffectiveĠ":10966,".ĠthisĠis":10967,".ĠthisĠisĠtheĠ":10968,"eholdĠ":10969,"eanut":10970,",ĠandĠall":10971,"brand":10972,"brandĠ":10973,"ĠnewĠrelic":10974,"sĠwithĠyour":10975,"e-up":10976,"e-bas":10977,"oundĠof":10978,"Ġassembl":10979,"eĠhisĠ":10980,"eĠhold":10981,"ĠtheĠhom":10982,"ĠtheĠhol":10983,"looksĠlik":10984,"whoĠhaveĠ":10985,"eĠonĠ":10986,"eĠonlyĠ":10987,"ĠaĠdailyĠbas":10988,"keys":10989,"ing,Ġm":10990,"ethodĠ":10991,"Ġ**":10992,"Ġ*.":10993,"Ġ*Ġf":10994,"Ġ*Ġget":10995,"Ġtwitter":10996,",ĠtheĠcompanyĠ":10997,"arefullyĠ":10998,"oupleĠ":10999,"ingĠco":11000,"ingĠcap":11001,"ingĠcard":11002,"ingĠpublic":11003,"yĠbyĠ":11004,"yĠbear":11005,"iscellane":11006,"sĠand/or":11007,"eliber":11008,"eliosĠandĠm":11009,"ĠthenĠbeĠ":11010,"identif":11011,"identifi":11012,"identify":11013,"knowĠthat":11014,"knowĠabout":11015,"knowĠhowĠtoĠ":11016,"owerful":11017,"ixedĠm":11018,"edĠtowel":11019,"ĠperfectĠ":11020,"ĠperĠweek":11021,"Ġperiod":11022,"ĠworksĠ":11023,"ĠworkĠwith":11024,"ĠworkingĠon":11025,"storm":11026,"storageĠ":11027,"rival":11028,"siteĠ":11029,"situation":11030,"Ġthis?":11031,"Ġupper":11032,"ĠaĠlifetim":11033,"loss":11034,"lossom":11035,"ugeĠ":11036,"ugal":11037,"ingĠday":11038,"ingĠdayĠ":11039,"ingĠdisorder":11040,"yĠdevelop":11041,"yĠdamag":11042,"ingĠbas":11043,"ingĠbutĠ":11044,"ingĠbusiness":11045,"ingĠballoon":11046,"seyĠhous":11047,"Ġyears,Ġ":11048,"Ġgran":11049,"Ġgrill":11050,"ĠgrandĠ":11051,"Ġground":11052,"Ġcommitment":11053,"earchĠfor":11054,"fineĠ":11055,"finallyĠ":11056,"readingĠ":11057,"readyĠtoĠ":11058,"athan":11059,"athes":11060,"openĠplan":11061,"openĠroadĠ":11062,"inĠtheĠeastern":11063,"Ġsee":11064,"italian":11065,"companion":11066,"bless":11067,"ĠwhichĠtheĠ":11068,"edĠbyĠus":11069,"iverseĠ":11070,"Ġquot":11071,"ureĠand":11072,"guilt":11073,"yĠandĠf":11074,"yĠandĠphysiolog":11075,"ĠsomeĠp":11076,"ĠsomeĠsortĠof":11077,"Ġhigh-tech":11078,"whileĠs":11079,"whileĠin":11080,"ĠhowĠtheyĠ":11081,"ĠhowĠdoĠi":11082,"sĠdown":11083,"sĠdesign":11084,"sĠduringĠtheĠ":11085,"Ġregim":11086,"becam":11087,"sĠmad":11088,"es.com":11089,"ĠmondayĠ":11090,"ĠinternetĠ":11091,"Ġintervention":11092,"ĠinterestĠin":11093,"jector":11094,"raceĠ":11095,"racistĠ":11096,"racism":11097,"Ġavoc":11098,"Ġthinking":11099,"ĠtheĠnor":11100,"ĠtheĠnecess":11101,".Ġhi":11102,".ĠheĠisĠ":11103,"invent":11104,"Ġprincipl":11105,"ĠtoĠdriveĠ":11106,"ĠtoĠdetermin":11107,"flick":11108,"flamm":11109,"sĠthatĠmayĠ":11110,"validĠ":11111,"validat":11112,"ĠmyĠf":11113,"understandĠ":11114,"byĠusing":11115,"eym":11116,"experience.Ġ":11117,"experienceĠandĠ":11118,"125":11119,"able,Ġ":11120,"corn":11121,"equival":11122,"highestĠ":11123,"highĠschool":11124,"medicin":11125,"ĠaĠway":11126,"ĠaĠweak":11127,"artĠfrom":11128,"...\"":11129,"veryĠimportant":11130,"Ġrelativ":11131,"ineĠand":11132,"ĠtheĠproc":11133,"ĠtheĠproject":11134,"ĠtheĠprostateĠ":11135,".ĠdidĠ":11136,"etters,Ġpa":11137,"expedition":11138,"expendit":11139,"expansion":11140,"ĠtheyâĢĻll":11141,"presentation":11142,"ganization":11143,"appear":11144,"issues,Ġ":11145,"issuesĠandĠ":11146,"azz":11147,"changeĠof":11148,"ĠremoveĠ":11149,"eĠshould":11150,"eĠshoot":11151,"wasĠtheĠ":11152,"Ġclar":11153,"ĠcloudĠ":11154,"ĠhealthĠprofessional":11155,"keepĠinĠmind":11156,"reasur":11157,"Ġheight":11158,"ĠheightĠ":11159,"lett":11160,"ĠdataĠprotection":11161,"144":11162,"145":11163,"148":11164,"timeĠtoĠ":11165,"Ġ-Ġ":11166,".ĠifĠyouĠwant":11167,".ĠifĠyouâĢĻr":11168,"ĠwouldĠyouĠlik":11169,"whereĠels":11170,",ĠbutĠhow":11171,"Ġmanufactur":11172,"Ġmedic":11173,"ifiedĠs":11174,"amilton":11175,"eĠyourself":11176,"sĠby":11177,"sĠbelow":11178,"ĠmayĠb":11179,"ĠmayĠnotĠ":11180,"optional":11181,"asterĠbedroom":11182,"ĠweĠar":11183,"neededĠ":11184,"needsĠof":11185,"healthbridg":11186,"ĠthanksĠfor":11187,",ĠyouĠmayĠ":11188,",Ġyou'll":11189,",ĠyouĠneedĠtoĠ":11190,"ĠandĠdesign":11191,"eddyĠbear":11192,"ĠwantedĠtoĠ":11193,"muchĠmor":11194,"informationĠaboutĠ":11195,"onĠisĠa":11196,"ingĠhook-up":11197,"Ġwe'veĠ":11198,"Ġmaking":11199,"eĠspot":11200,"eĠspotĠ":11201,"ĠtwoĠ(":11202,"ĠtwoĠof":11203,"ĠtwoĠyear":11204,"ĠoutĠto":11205,"edĠsal":11206,"ĠwhenĠi":11207,"willĠbeĠp":11208,"merc":11209,"warrant":11210,"studyĠ":11211,"studyĠofĠtheĠ":11212,"leanlin":11213,"webĠsit":11214,"webinar":11215,"aho":11216,"airĠof":11217,"ures.Ġ":11218,"extrem":11219,"extract":11220,"ountyĠcourtĠofĠmeig":11221,"Ġtransition":11222,"ĠtransportĠ":11223,".ĠthereĠwillĠbeĠ":11224,"dayĠof":11225,",ĠweĠs":11226,",Ġwater":11227,"completeĠwith":11228,"180":11229,"sĠ(andĠ":11230,"lifetim":11231,"lifesty":11232,"eĠfromĠtheĠ":11233,"attach":11234,"attract":11235,"electedĠ":11236,"electiveĠ":11237,"ollegeĠadmission":11238,"auer":11239,"variation":11240,"eĠsureĠyou":11241,"eĠsurpris":11242,"mostĠimportant":11243,"atients.Ġ":11244,"Ġguy":11245,"Ġguilt":11246,"qualityĠof":11247,"enjoys":11248,"ingĠfoodĠ":11249,"string":11250,"strass":11251,"strength":11252,"strument":11253,"Ġdays.Ġ":11254,"Ġstatement":11255,"ĠstatusĠof":11256,"ingĠwithĠtheĠ":11257,"Ġminer":11258,"ĠaĠlotĠ":11259,"happyĠtoĠ":11260,"axpay":11261,"carri":11262,"lesh":11263,"nesseeĠ":11264,"sm/":11265,"smell":11266,"sĠparticip":11267,"ĠmarketingĠ":11268,"emailĠaddress":11269,"everyĠweek":11270,"lightlyĠs":11271,"s,ĠsoĠ":11272,"s,ĠsuchĠasĠ":11273,"Ġphon":11274,"Ġphil":11275,"ecurityĠof":11276,"ĠturnĠyour":11277,"ĠturnĠright":11278,"ĠturnĠleft":11279,"ĠhomeĠisĠ":11280,"Ġlift":11281,"Ġlife?":11282,"Ġaccessor":11283,"ĠaccessibleĠ":11284,"name.Ġ":11285,"rangingĠfrom":11286,"ĠaĠrest":11287,"ingĠyourĠown":11288,"Ġalways":11289,"ĠalwaysĠs":11290,"whatĠtheĠ":11291,"redĠwith":11292,".Ġstand":11293,".Ġstart":11294,"Ġautumn":11295,"Ġsignal":11296,",Ġfriend":11297,"ĠitsĠown":11298,"Ġtechnology":11299,"Ġtechnology,Ġ":11300,"ĠtechnologyĠandĠ":11301,"ĠtechnologiesĠandĠ":11302,"countryĠ":11303,"disorder":11304,"disabl":11305,"disappoint":11306,"volksw":11307,"Ġownership":11308,"ĠaĠnatural":11309,"Ġbusiness.Ġ":11310,".ĠyouĠcanĠalsoĠ":11311,"universitiesĠ":11312,"ĠlookingĠfor":11313,"awesomeĠ":11314,"ĠbasedĠon":11315,"Ġbasement":11316,"becauseĠyou":11317,"y.Ġtopic":11318,"ĠifĠtheĠ":11319,"icesĠresearch":11320,"Ġpartnership":11321,"ĠdefinitelyĠ":11322,"ĠfeetĠ":11323,"ology,Ġ":11324,"voiceĠ":11325,",Ġgdsm":11326,"ĠdoĠyouĠhaveĠ":11327,"ĠstartedĠ":11328,"ensureĠyou":11329,"onceĠyou":11330,"restaur":11331,"esĠareĠnotĠ":11332,"esĠareĠavailableĠ":11333,"ĠpeopleĠtoĠ":11334,"Ġbring":11335,"Ġtoday!":11336,"Ġtoday?":11337,"improveĠtheĠ":11338,"Ġexperience.Ġ":11339,"ĠexperienceĠwith":11340,"240":11341,"calledĠ":11342,"payment":11343,"Ġochr":11344,"ĠoctoberĠ":11345,"eĠanyĠ":11346,"edĠduring":11347,"controlĠof":11348,"ientĠportal":11349,"ĠhoursĠof":11350,"ĠinformationĠaboutĠ":11351,"conflictĠresolution":11352,"Ġnotic":11353,"websiteĠ":11354,"onĠtheĠotherĠhand":11355,"Ġsalt":11356,"Ġseti":11357,"edĠpower":11358,"edĠfromĠtheĠ":11359,"immens":11360,"immigrantĠ":11361,"processor":11362,"ĠwhatĠisĠ":11363,"ĠaĠfewĠmoment":11364,"Ġmicrob":11365,"ĠthatĠyouĠareĠ":11366,"obileĠthem":11367,"ĠmillionĠandĠ":11368,"-fram":11369,"-friendlyĠ":11370,"bury,Ġ":11371,"hone":11372,"honour":11373,"Ġcoach":11374,"ĠhasĠalsoĠ":11375,"eĠthisĠisĠ":11376,"eĠthisĠyear":11377,"rentĠwasĠ":11378,"surpris":11379,"ĠserveĠ":11380,"eĠtheĠsam":11381,"ĠwillĠbeĠin":11382,"ajorityĠof":11383,"support":11384,"Ġtribunal":11385,"Ġsubject":11386,"Ġsubsidi":11387,".Ġfind":11388,",Ġnorth":11389,"escription":11390,"ĠcouldĠbeĠ":11391,"ircular":11392,"apply":11393,"beĠaĠpartĠof":11394,"clickingĠher":11395,"balay":11396,"goodĠnew":11397,"Ġterritor":11398,"ĠincludeĠ":11399,"e.ĠiĠam":11400,"e.ĠiĠwasĠ":11401,"e.ĠiĠhop":11402,"ĠnoĠlonger":11403,"ebookĠpag":11404,"ĠunderstandĠ":11405,"ĠweeklyĠ":11406,"killedĠ":11407,"sĠaustralia":11408,"write":11409,"esĠtheĠimportanceĠof":11410,"Ġdieg":11411,"Ġstrategic":11412,"prototyp":11413,"ocialĠjustic":11414,"ĠtheĠfirstĠs":11415,"ĠthereâĢĻs":11416,"waitĠfor":11417,"ormousĠ":11418,"ormsĠnational":11419,"rawĠmill":11420,"rawfish":11421,"ĠofficeĠ":11422,"Ġofficial":11423,"ingĠupĠon":11424,"ĠavailableĠtoĠ":11425,"ĠactivityĠ":11426,"eddingĠevent":11427,"limitĠ":11428,"limitedĠ":11429,"linkedĠtoĠ":11430,"linkĠinsur":11431,"largeĠ":11432,"largestĠ":11433,"er,Ġ(":11434,"yĠinĠp":11435,"Ġdevelopment":11436,"Ġinvitation":11437,"Ġalternativ":11438,"âĢĻreĠhaving":11439,"Ġassistanc":11440,"253":11441,"alsoĠoffer":11442,"rapid":11443,"Ġgoal":11444,"quickly":11445,"delay":11446,"development":11447,"heard":11448,"iateĠyour":11449,"kindleĠcloudĠ":11450,"ĠifĠyouĠwant":11451,"ĠcalledĠ":11452,"possibleĠfor":11453,"englishĠandĠsp":11454,"cottishĠmediaĠgroup":11455,"ycle":11456,"Ġelder":11457,"ĠelementĠmeansĠ":11458,"eĠupĠwith":11459,"Ġcellular":11460,"ĠaroundĠ$":11461,"ĠtheĠcountryĠ":11462,"ĠtheĠcountiesĠof":11463,"pression":11464,"ĠprofessionalĠcolleg":11465,"deniedĠ":11466,"generateĠ":11467,"generally":11468,"earnĠcred":11469,"ĠshallĠbeĠ":11470,"ribunal":11471,"sĠandĠservic":11472,"ĠchildrenĠandĠ":11473,"Ġextent":11474,"energyĠ":11475,"energyĠandĠ":11476,".h.Ġ":11477,"348":11478,"e,ĠsuchĠasĠ":11479,"friendlyĠ":11480,"recommendation":11481,"yĠforĠyou":11482,"altĠandĠpepper":11483,"accord":11484,"accidentĠ":11485,"Ġorganizational":11486,"Ġwhatever":11487,"Ġexceptional":11488,"Ġexpens":11489,"commissioners,":11490,"competitor":11491,"competitiveĠ":11492,"ĠtoĠseeĠtheĠ":11493,"jointĠ":11494,"-up:":11495,"Ġzeal":11496,",ĠbutĠtheĠ":11497,"edĠasĠaĠ":11498,"edroomĠ":11499,"Ġreader":11500,"Ġstylish":11501,"ĠaĠvoid":11502,"ĠacrossĠtheĠ":11503,"ĠthereĠareĠnoĠ":11504,"Ġquality":11505,"Ġqualifi":11506,"mediator":11507,"abilityĠtoĠ":11508,"Ã¼ssel":11509,"Ġaudi":11510,"Ġaudit":11511,"ĠaĠcombin":11512,"ĠaĠcomprehensiveĠ":11513,"inĠseven":11514,"ĠcasesĠ":11515,"ĠcustomerĠservic":11516,"Ġhappen":11517,"ĠhappyĠ":11518,"Ġfacilit":11519,"unitedĠlinkĠinsur":11520,"emorial":11521,"committedĠtoĠ":11522,"possiblyĠ":11523,"engagement":11524,"eannaâĢĻsĠ":11525,"greatĠfor":11526,"tĠseat":11527,"organis":11528,"organic":11529,"ĠstarĠ":11530,"conception":11531,"Ġprototyp":11532,"ĠbeforeĠyou":11533,"ĠappointedĠby":11534,"expectedĠto":11535,"Ġguidelin":11536,"family":11537,"familiar":11538,"gnupg":11539,"ngormsĠnational":11540,"ĠtheĠchildren":11541,"ĠdistrictĠ":11542,"Ġdistribution":11543,"urinaryĠ":11544,"eĠtheĠday":11545,"eĠsometh":11546,"eĠdoesĠ":11547,"e.Ġsumoaffiliates.zip":11548,"Ġheadquarter":11549,"Ġthousand":11550,"ĠcustomersĠ":11551,"Ġmetal":11552,"ĠtooĠmuch":11553,"Ġtowards":11554,"opyrightĠ":11555,"ĠuniversityĠof":11556,"Ġ*Ġmiscellane":11557,"ĠtheĠprocessor":11558,"ĠagainstĠtheĠ":11559,"somethingĠi":11560,"olidayĠonĠ":11561,"demon":11562,"growth":11563,"lecular":11564,"ĠgamesĠ":11565,"ĠlaĠcount":11566,"encouragement":11567,"s,Ġcivil":11568,"eĠforĠtheĠart":11569,"johnson":11570,"eĠspecialist":11571,"dustrial":11572,"erĠbambooĠplantĠ":11573,"enzo":11574,"revolution":11575,"revardĠcount":11576,"Ġcrash":11577,"Ġcrystal":11578,"ĠbecauseĠ":11579,"ĠbecauseĠitĠ":11580,"ĠdelayĠ":11581,"currently":11582,"Ġsupport,Ġ":11583,"ĠaĠgradeĠofĠcĠorĠbetter,Ġor":11584,"cardstock":11585,"freshlyĠ":11586,"freshĠstudio":11587,"iousĠandĠ":11588,"iousĠs":11589,"eĠasĠwell":11590,"Ġsensor":11591,"Ġmodern":11592,"Ġdidn'tĠ":11593,"Ġfeatur":11594,"Ġfeature":11595,"Ġgraham":11596,"ageĠdevic":11597,"ĠnorthĠameric":11598,"efficienc":11599,"efficientĠ":11600,"ifĠyouĠareĠa":11601,"godĠhasĠ":11602,"scienceĠstudent":11603,"ĠautomotiveĠ":11604,"northern":11605,"rumlov":11606,"Ġ,ĠnewĠyork,Ġ":11607,"ĠoperatingĠ":11608,"ĠthanĠever":11609,"ĠtoĠprovideĠ":11610,"ascii":11611,"ĠhoneyĠ":11612,"ĠfullĠepisod":11613,"idealĠfor":11614,"Ġrealiz":11615,"earthquak":11616,"beverag":11617,"s.ĠthisĠcours":11618,"engineer":11619,"prepare":11620,"preparedĠ":11621,"ĠregistrationĠstatusĠof":11622,"respectiveĠ":11623,"necessaryĠtoĠ":11624,".ĠtoĠrequest":11625,"_cflag":11626,"betweenĠ":11627,"ĠbottleĠ":11628,"ĠdueĠtoĠ":11629,"eĠtheĠmostĠ":11630,"plianceĠof":11631,"eparateĠ":11632,"ĠwhereĠtheĠ":11633,"Ġexpertis":11634,"ignificantlyĠ":11635,"ĠtheĠgreenĠerul":11636,"ĠcompetitiveĠ":11637,"vehicleĠadvertising":11638,"498":11639,"aĠsay":11640,"eĠnumberĠof":11641,"referral":11642,"itizens":11643,"Ġcandid":11644,"Ġcandidat":11645,"ĠpaymentĠ":11646,"Ġpromis":11647,"Ġpassed":11648,"Ġdirectly":11649,"irtyĠ":11650,"ĠstructureĠandĠ":11651,"ĠstructureĠandĠfunction":11652,"ĠthatĠsaid":11653,"principal":11654,"classroom":11655,"Ġrichard":11656,"ĠrichardĠ":11657,"Ġtroublesh":11658,"heatĠsinkĠthermalĠresistanc":11659,"ufferĠfrom":11660,"es:ĠbioĠ":11661,"eskÃ½Ġk":11662,"ĠbigĠdata":11663,"usefulĠfor":11664,"properlyĠ":11665,"properly":11666,"aintenanceĠ":11667,"eĠclass":11668,"endedĠconstitut":11669,"eĠintegrat":11670,"ĠtheĠpowerĠsector":11671,"Ġlegisl":11672,"ĠscottishĠmediaĠgroup":11673,"registrationĠguidebook":11674,"ĠadvancedĠ":11675,"ĠapprovedĠ":11676,"447":11677,"debtĠ":11678,"directlyĠ":11679,"haraĠsay":11680,"ythm":11681,"Ġ[w":11682,"re-ownedĠ":11683,"ateĠsector":11684,",ĠusuallyĠ":11685,"Ġcabin":11686,"edĠintoĠtheĠ":11687,"ĠbelieveĠth":11688,"ĠtoĠensureĠthat":11689,"Ġhistoric":11690,"Ġinfection":11691,"Ġgeforc":11692,"neighborhood":11693,"probably":11694,"ĠtheĠco-coordinator":11695,"Ġconcerning":11696,"recognis":11697,"ĠaĠperiodĠof":11698,"Ġgrandma":11699,"equipment":11700,"cordĠbloodĠbank":11701,"Ġcredits.Ġprerequisites:ĠbioĠ":11702,"888":11703,"averageĠ":11704,"zensĠof":11705,"ĠtitleĠ":11706,"archiv":11707,"Ġbroadcast":11708,"approv":11709,"ĠtheĠfollowing":11710,"Ġvolunteer":11711,"Ġequity":11712,"Ġphotograph":11713,"arbageĠdumpsterĠforĠrentĠinĠmonroeton,Ġpa":11714,"e/charter":11715,"gatehous":11716,"ransfer":11717,"wonâĢĻtĠ":11718,"weddingĠeventĠinvitesĠ":11719,"inĠtheĠspr":11720,"ĠtheĠrestĠof":11721,"itâĢĻsĠtheĠ":11722,"ĠmissingĠsometh":11723,"ĠtoĠworkĠwith":11724,"usionĠmedia":11725,"Ġargentina":11726,"agent_":11727,"exclusivelyĠ":11728,"exhibition":11729,"s,ĠwhichĠisĠ":11730,"clarify":11731,"ĠadultsĠandĠ":11732,"evergreenĠcontentĠ":11733,"ĠlovelyĠ":11734,"opportunitiesĠfor":11735,"ĠthereforeĠ":11736,"ĠtherapeuticĠboardingĠschoolĠfor":11737,"critic":11738,"critical":11739,"deannaâĢĻsĠ":11740,"ĠtemplatesĠ":11741,"Ġcertific":11742,"Ġcriminal":11743,"Ġpractic":11744,"ĠtoĠdoĠso":11745,"ophag":11746,"s.ĠforĠexample":11747,"antitativeĠ":11748,"dustry,Ġ":11749,"Ġproced":11750,"eĠdownload":11751,"eĠbooksĠforĠkindleĠ":11752,"ĠkindsĠof":11753,"ĠtheĠbackgroundĠ":11754,"ĠchristmasĠdecor":11755,"ĠsaidĠcounty":11756,"ĠsaidĠcountyĠofĠmeig":11757,"ĠhopeĠyouâĢĻreĠhaving":11758,"originallyĠ":11759,"Ġ*Ġmaperror.cĠ(map_assuan_err":11760,"eeper":11761,"Ġidentification":11762,"Ġawaren":11763,"repeat":11764,"ĠsummerĠ":11765,"atelliteĠtelevision":11766,".ĠpleaseĠfeelĠfreeĠtoĠ":11767,"arrayĠof":11768,"ofĠcourse,Ġ":11769,"Ġdemand":11770,"verneĠcox":11771,"ĠinsuranceĠ":11772,"upgradeĠto":11773,"eview":11774,"ĠtheĠcountyĠcourtĠof":11775,"Ġjournal":11776,"specificallyĠ":11777,"assistanceĠof":11778,"ĠaĠbachelor":11779,"ĠaĠbachelorĠofĠart":11780,"Ġaccurat":11781,"preferred":11782,"seeking":11783,"reviousĠmonth":11784,"oundproofĠwindowĠguy":11785,"broadcast":11786,"broadcastĠ":11787,"folio":11788,"Ġcaptain":11789,"Ġcraftsman":11790,"elderly":11791,"entryĠwasĠpost":11792,"olympic":11793,"razil":11794,"acquisition":11795,"Ġnorthern":11796,"Ġnavigation":11797,"ĠorangeĠcount":11798,"eĠminister":11799,"effectĠon":11800,"philip":11801,"ĠtheĠbridgesĠprogram":11802,"ubeterr":11803,"Ġamanda":11804,"ĠtakingĠplac":11805,"notĠtoĠmention":11806,"sĠmustĠbeĠ":11807,"freezer":11808,"Ġintegral":11809,"auxĠcalligraph":11810,"consistentlyĠ":11811,"ĠaĠretro":11812,"ĠcaliforniaĠstateĠuniversity,Ġ":11813,".a.Ġin":11814,".Ġalso,Ġ":11815,"cadden":11816,"criminal":11817,"grateful":11818,"ohio":11819,"rashes.Ġ":11820,"Ġturm":11821,"enaltyĠ":11822,"ingĠaĠpre-ownedĠ":11823,"elbourn":11824,"Ġpollack":11825,"ĠbecameĠa":11826,"ĠdevicesĠ":11827,"unfortunatelyĠ":11828,"eĠtruck":11829,"ĠtheĠsidewalk":11830,"contestant":11831,"obligation":11832,"eĠpixelĠcloud":11833,"ĠaĠmediator":11834,"status_":11835,"aidĠcommissionersĠshall":11836,"ĠoutputĠpower":11837,"ĠtoĠcreateĠa":11838,"eĠgoodĠprostateĠhealth":11839,"ĠapproximatelyĠ":11840,"opportunityĠfor":11841,"assionateĠaboutĠ":11842,"ĠmuskegonĠ":11843,"weightĠlossĠprogramsĠinĠflagstaffĠaz":11844,"ĠgraduatedĠfrom":11845,"Ġthird-row":11846,"Ġbeginning":11847,"ĠsoftwareĠmod":11848,"elegantĠwedd":11849,"ĠlayerĠluckyĠb":11850,"eĠcurrentlyĠ":11851,"ietaryĠaideĠresumeĠ":11852,",ĠturnĠleftĠ":11853,"describedĠin":11854,"gcry_err":11855,"Â©Ġ":11856,"anĠanselmoĠ":11857,"reputation":11858,"inguish":11859,"isanĠstucc":11860,"ominationĠpetition":11861,"ilberlin":11862,"entrepreneur":11863,"Ġstuttgart":11864,"ourĠteamĠof":11865,"Ġnigel:Ġ\"":11866,"ĠtheĠcareerĠorĠnon-":11867,"Ġabbrevi":11868,"ĠabideĠby":11869,"ĠtheĠfourth":11870,"viewĠhorizon":11871,"eĠwatchĠonlin":11872,"ĠtheĠhumanĠbod":11873,",ĠtheĠapplicantĠ":11874,"lettingĠyou":11875,"ĠrelationsĠspecialist,Ġ(":11876,"ĠaccordanceĠwith":11877,"oxygen":11878,"ĠtheĠgeneralĠassembly":11879,"ĠadministratorĠwill":11880,"simple_p":11881,"%ciĠ=Ġ-":11882,"kastnerĠcup":11883,"digit":11884,"hsĠcordĠbloodĠbank":11885,"nolan":11886,"pianĠtelevision":11887,"ĠimplementĠ":11888,".ĠinterviewĠwith":11889,"ĠhenanĠchemical":11890,"usiast":11891,"Ġrecommendation":11892,"abolism":11893,"entĠsites:":11894,"queez":11895,"andhinagarĠhighway":11896,"eĠcalculation":11897,"phicĠinter":11898,"Ġvenus":11899,"controversial":11900,"ĠtheĠdatabaseĠcoordinator":11901,"ĠwilliamĠhill":11902,"ĠtheĠgovernor":11903,"eĠfinish":11904,"face-to-faceĠmeet":11905,"time.cĠ(":11906,",ĠhumanĠrelationsĠspecialist,Ġ(":11907,",ĠblogĠfriends!":11908,"Ġcountrysid":11909,"structureĠandĠfunctionĠof":11910,"ĠaĠcomfortableĠ":11911,"Ġsmartphon":11912,"ĠtowardsĠjÃ¼lich":11913,"efficacyĠandĠs":11914,"eĠglitteryĠwineĠbottleĠ":11915,"oundproofĠwindowsĠinĠfortĠbranch,Ġin":11916,"easelgraveĠsay":11917,"ĠversusĠlowerĠcalyceal":11918,"ĠarthritisĠtreatmentĠinĠkenya":11919,"%ĠinĠq":11920,"/person/":11921,"aikatoĠ":11922,"limpseĠof":11923,"skyb":11924,"yachtĠ":11925,"zekiah":11926,"ÄįeskÃ½Ġk":11927,",Ġuniv.ĠofĠtenn.Ġ":11928,"Ġcytomet":11929,"Ġcaviar":11930,"tholomew":11931,"ĠhepatitisĠb":11932,"urburgr":11933,"esĠi.e.Ġsumoaffiliates.zip":11934,"Ġaluminum":11935,"confirmed":11936,"ĠtheĠcairngormsĠnational":11937,"ĠtheĠfaithful":11938,"ĠiĠtryĠtoĠrun":11939,"Ġnegotiation":11940,"Ġ*Ġgettime.cĠ(":11941,"eliosĠandĠmathes":11942,"openĠroadĠpackag":11943,"equivalentĠ":11944,"nesseeĠriver":11945,"kindleĠcloudĠread":11946,"englishĠandĠspanish":11947,"ĠprofessionalĠcollegeĠadmissionĠcounselor":11948,"earnĠcreditĠfor":11949,"Ã¼sseldorf":11950,"unitedĠlinkĠinsuranceĠbrok":11951,"Ġ*Ġmiscellaneous.cĠ(":11952,"Ġtroubleshoot":11953,"endedĠconstitution":11954,"ĠaĠbachelorĠofĠartsĠin":11955,"ĠlayerĠluckyĠbambooĠplantĠ":11956,"isanĠstuccoĠmortar":11957,"ĠtheĠcareerĠorĠnon-scienceĠstudent":11958,"ÄįeskÃ½Ġkrumlov":11959,"ĠtheĠcairngormsĠnationalĠpark":11960,"!Ġb":11961,"!Ġyour":11962,"!),":11963,"!).":11964,"!ĠweĠ":11965,"!ĠyouĠcan":11966,"!Ġnow":11967,"!Ġamand":11968,"\"Ġwid":11969,"$Ġ":11970,"%ĠinĠtheĠp":11971,"%Ġblu":11972,"&ap":11973,"'oĠ":11974,"'sĠin":11975,"'sĠto":11976,"'sĠoffic":11977,"(no":11978,"(p-value=":11979,")!":11980,")?":11981,")Ġof":11982,")Ġl":11983,")ĠwasĠ":11984,")ĠandĠd":11985,")ĠbyĠ":11986,")Ġdi":11987,")Ġjoin":11988,")ĠgraduatedĠfrom":11989,",ĠatĠ":11990,",ĠtheĠp":11991,",Ġtak":11992,",ĠaĠs":11993,",ĠalsoĠ":11994,",ĠasĠwell":11995,",ĠatĠtheĠ":11996,",Ġtelevision":11997,",Ġask":11998,",ĠarticleĠ":11999,",ĠthisĠisĠ":12000,",ĠtodayĠ":12001,",ĠthereĠis":12002,",ĠthereĠisĠa":12003,",ĠatĠtheĠendĠof":12004,",smartĠ":12005,"->":12006,"-j":12007,"-l":12008,"-Ġand":12009,"-out":12010,"-sp":12011,"-lin":12012,"-stor":12013,"-fac":12014,"-fre":12015,"-lead":12016,"-dayĠ":12017,"-back":12018,"-head":12019,"-doĠ":12020,"-edg":12021,"-given":12022,"-month":12023,"-error":12024,"-minut":12025,".)":12026,".d":12027,".Ġar":12028,".Ġab":12029,".Ġthrough":12030,".Ġthos":12031,".ĠanyĠ":12032,".ĠatĠtheĠ":12033,".Ġthough":12034,".ĠtheseĠ":12035,".Ġaddition":12036,".Ġtelevision":12037,".Ġspecial":12038,".Ġanother":12039,".ĠasĠtheĠ":12040,".ĠtoĠre":12041,".Ġtogether":12042,".Ġalcohol":12043,".Ġtopic":12044,".ĠandĠthen":12045,".Ġthat'sĠ":12046,".ĠtheseĠp":12047,".Ġallec":12048,".ĠamĠi":12049,".ĠthereâĢĻs":12050,"/c":12051,"/her":12052,"/resum":12053,"130":12054,"250":12055,"336":12056,"460":12057,"585":12058,"69":12059,"650":12060,"71":12061,"74":12062,"700":12063,"81":12064,"800":12065,"91":12066,":Ġw":12067,":Ġd":12068,":Ġf":12069,":Ġin":12070,":ĠaddĠ":12071,":ĠmichelangeloĠantonioni":12072,":ĠaddedĠ":12073,";Ġhol":12074,"?Ġor":12075,"?Ġi":12076,"?Ġy":12077,"?ĠifĠyou":12078,"?Ġnigel:Ġ\"":12079,"@c":12080,"_t":12081,"_is":12082,"_assuan":12083,"_status":12084,"_a_":12085,"_string":12086,"aĠh":12087,"aĠof":12088,"aĠisĠ":12089,"aĠv":12090,"a,Ġm":12091,"aultĠ":12092,"aa.":12093,"aachen":12094,"bp":12095,"bil":12096,"bĠd":12097,"bra":12098,"beĠth":12099,"bitĠ":12100,"bear":12101,"bach":12102,"bish":12103,"bph":12104,"bang":12105,"bingĠm":12106,"byĠb":12107,"beĠsh":12108,"breadĠ":12109,"bootĠ":12110,"bowl":12111,"c;":12112,"cg":12113,"cdĠ":12114,"cel":12115,"cell":12116,"caf":12117,"cater":12118,"catch":12119,"cold":12120,"coll":12121,"cross":12122,"credit":12123,"celebrat":12124,"cinem":12125,"cloth":12126,"caughtĠ":12127,"d-":12128,"det":12129,"dpr":12130,"dber":12131,"dick":12132,"differ":12133,"dress":12134,"dream":12135,"dna":12136,"director":12137,"doubl":12138,"differenc":12139,"direction":12140,"death":12141,"double":12142,"dedic":12143,"diction":12144,"dialogu":12145,"eof":12146,"eant":12147,"eover":12148,"eign":12149,"eight":12150,"eâĢĶ":12151,"eaper":12152,"ehead":12153,"fu":12154,"fan":12155,"fing":12156,"fet":12157,"fatĠ":12158,"fum":12159,"fell":12160,"fight":12161,"fact":12162,"fection":12163,"fold":12164,"foot":12165,"folk":12166,"fals":12167,"feltĠ":12168,"focusĠon":12169,"font":12170,"gp":12171,"gs":12172,"gw":12173,"gum":12174,"gap":12175,"global":12176,"greek":12177,"giftĠ":12178,"gpg":12179,"glob":12180,"gospel":12181,"gdpr":12182,"hur":12183,"hun":12184,"heĠs":12185,"hook":12186,"honeĠ":12187,"hotĠ":12188,"hann":12189,"half":12190,"hotel":12191,"heĠwouldĠ":12192,"husband":12193,"hidden":12194,"iit":12195,"i.Ġ":12196,"iom":12197,"iem":12198,"iĠn":12199,"iov":12200,"iĠwasĠ":12201,"iedĠandĠ":12202,"iationĠof":12203,"iĠweb":12204,"iĠneed":12205,"ifornia":12206,"i'm":12207,"iĠloveĠ":12208,"iĠdonâĢĻtĠ":12209,"iabet":12210,"iagnos":12211,"iĠvision":12212,"jk":12213,"jim":12214,"jos":12215,"jayĠ":12216,"jail":12217,"jaw":12218,"janu":12219,"juredĠ":12220,"jr.Ġ":12221,"japan":12222,"km":12223,"ks":12224,"ken":12225,"kat":12226,"ket":12227,"kok":12228,"krist":12229,"kĠpink":12230,"lar":12231,"lord":12232,"lung":12233,"listĠof":12234,"ltd":12235,"laptop":12236,"mf":12237,"mp":12238,"mr":12239,"mus":12240,"mag":12241,"mand":12242,"meas":12243,"midĠ":12244,"mult":12245,"messag":12246,"million":12247,"mountain":12248,"mĠcab":12249,"museum":12250,"magazin":12251,"myster":12252,"metĠwith":12253,"machineĠ":12254,"maryland":12255,"maintenanc":12256,"measure":12257,"murder":12258,"miĠn":12259,"nc":12260,"nd":12261,"nĠandĠ":12262,"nish":12263,"nack":12264,"nood":12265,"nik":12266,"nath":12267,"nineĠ":12268,"nutri":12269,"oy":12270,"oĠa":12271,"oen":12272,"oia":12273,"ointer":12274,"oĠservic":12275,"o.c":12276,"o,ĠbutĠ":12277,"october":12278,"obey":12279,"p.":12280,"pĠandĠ":12281,"pur":12282,"pir":12283,"pul":12284,"pec":12285,"petĠ":12286,"pĠsp":12287,"punch":12288,"pez":12289,"peer":12290,"paint":12291,"peon":12292,"pizz":12293,"prayer":12294,"predict":12295,"passionateĠaboutĠ":12296,"qlit":12297,"rt":12298,"rof":12299,"rus,Ġ":12300,"sol":12301,"sĠthisĠ":12302,"sep":12303,"sayĠ":12304,"sĠaĠ":12305,"sĠtheĠc":12306,"sĠall":12307,"sĠthereĠ":12308,"shap":12309,"sĠaĠw":12310,"sĠatĠtheĠ":12311,"sgiv":12312,"sett":12313,"second":12314,"several":12315,"sĠavailableĠ":12316,"sĠacross":12317,"sung":12318,"sĠtheyĠcan":12319,"sĠagainstĠ":12320,"safetyĠ":12321,"sĠaĠlot":12322,"sulin":12323,"softwareĠ":12324,"sych":12325,"sĠalik":12326,"ta":12327,"tr":12328,"tle":12329,"tip":12330,"t'sĠ":12331,"tool":12332,"turin":12333,"truth":12334,"tello":12335,"techn":12336,"tĠtrim":12337,"uw":12338,"uent":12339,"uard":12340,"uĠpart":12341,"vd":12342,"ve":12343,"vill":12344,"vag":12345,"vex":12346,"vasĠ":12347,"viveĠ":12348,"vection":12349,"vastĠ":12350,"vary":12351,"vitation":12352,"void":12353,"voodooĠ":12354,"wisĠ":12355,"wet":12356,"wim":12357,"wif":12358,"wip":12359,"wind":12360,"wordĠ":12361,"wrap":12362,"wonder":12363,"wrapp":12364,"xic":12365,"y;":12366,"yop":12367,"yĠthatĠ":12368,"yard":12369,"yĠac":12370,"yĠtr":12371,"y.ĠthisĠ":12372,"y,ĠtheĠ":12373,"y,Ġa":12374,"yĠtimeĠ":12375,"yond":12376,"zz":12377,"zephy":12378,"µŃ":12379,"Ã±":12380,"ÃŃ":12381,"Î±":12382,"âĤ":12383,"êµŃ":12384,"ìļ":12385,"Ġ#":12386,"Ġí":12387,"Ġem":12388,"Ġram":12389,"Ġroll":12390,"Ġeconom":12391,"ĠearlyĠ":12392,"Ġviol":12393,"Ġobtain":12394,"Ġedition":12395,"Ġoccasion":12396,"ĠimpactĠ":12397,"Ġemploye":12398,"Ġu.s.Ġ":12399,"ĠopportunitiesĠ":12400,"ĠimageĠ":12401,"ĠradioĠ":12402,"ĠobjectiveĠ":12403,"Ġoccup":12404,"Ġideas":12405,"Ġecological":12406,"Ġencryption":12407,"Ġingredient":12408,"ľë":12409,"eĠr":12410,"eĠz":12411,"eĠne":12412,"eĠifĠyou":12413,"eĠhelp":12414,"eĠlook":12415,"eĠchang":12416,"eĠplay":12417,"eĠstud":12418,"eĠhadĠ":12419,"eĠchem":12420,"eĠvideo":12421,"eĠcommitte":12422,"eĠexpression":12423,"Ġti":12424,"Ġtul":12425,"Ġtall":12426,"Ġtum":12427,"Ġtail":12428,"Ġtight":12429,"Ġtuck":12430,"ĠtableĠandĠ":12431,"Ġtamar":12432,"Ġtaylor":12433,"Ġaid":12434,"ĠaĠsh":12435,"ĠaĠplan":12436,"ĠaĠrec":12437,"ĠaĠstat":12438,"ĠaĠteam":12439,"ĠaĠproblem":12440,"ĠaĠhead":12441,"ĠawardĠ":12442,"ĠaĠcompanyĠ":12443,"ĠaheadĠof":12444,"ĠaheadĠ":12445,"Ġaachen":12446,"inĠan":12447,"inĠb":12448,"inos":12449,"insĠandĠ":12450,"inateĠ":12451,"inach":12452,"inâĢĻsĠ":12453,"inĠch":12454,"inĠtheĠg":12455,"inessĠ":12456,"inĠtheĠl":12457,"industryĠ":12458,"inclusiveĠ":12459,"Ġthin":12460,"Ġthom":12461,"sĠ\"":12462,"sĠpro":12463,"sĠoutĠ":12464,"sĠmak":12465,"sĠisĠa":12466,"sĠifĠyou":12467,"sĠmor":12468,"sĠgo":12469,"sĠwell":12470,"sĠusĠ":12471,"sĠopen":12472,"sĠwhil":12473,"sĠstat":12474,"sĠveryĠ":12475,"sĠeach":12476,"sĠâĢĶ":12477,"sĠhom":12478,"sĠperform":12479,"sĠright":12480,"sĠfirst":12481,"sĠwouldĠbeĠ":12482,"sĠoverĠ":12483,"sĠleadĠ":12484,"sĠoutsid":12485,"sĠbegan":12486,"sĠfeatur":12487,"sĠlastĠyear":12488,"er/":12489,"eri":12490,"erk":12491,"erĠt":12492,"er,ĠandĠ":12493,"eria":12494,"erob":12495,"ersĠs":12496,"er,ĠtheĠ":12497,"erveĠth":12498,"er,Ġc":12499,"ercur":12500,"erĠshall":12501,"eriesĠof":12502,"erĠstation":12503,"erĠbox":12504,"erĠoutput":12505,"onĠof":12506,"onĠtheĠc":12507,"onĠall":12508,"onĠ(":12509,"oneĠtoĠ":12510,"onĠaĠm":12511,"one-":12512,"onĠhow":12513,"onĠfil":12514,"onĠset":12515,"onĠme":12516,"oneĠday":12517,"dĠfor":12518,"tĠfor":12519,"tĠwater":12520,"orĠ":12521,"orĠc":12522,"orch":12523,"or.ĠtheĠ":12524,"ors,Ġ":12525,"orĠisĠ":12526,"eno":12527,"enĠs":12528,"enableĠ":12529,"enities":12530,"enitiesĠ":12531,"enomen":12532,"enrich":12533,"encompass":12534,"ennesseeĠriver":12535,"outer":12536,"ĠtheĠj":12537,"ĠtheĠat":12538,"ĠtheĠper":12539,"ĠtheĠbe":12540,"ĠtheĠexperienc":12541,"ĠtheĠonlyĠ":12542,"ĠtheĠcomplet":12543,"ĠtheĠcondition":12544,"ĠtheĠidea":12545,"anl":12546,"anĠof":12547,"anitation":12548,"anĠincreas":12549,"resĠof":12550,"reens":12551,"reass":12552,"retion":12553,"retain":12554,"reward":12555,"reationĠof":12556,"repli":12557,"reboot":12558,"recommendĠ":12559,"Ġsu":12560,"Ġsent":12561,"Ġspl":12562,"ĠsentĠ":12563,"Ġsend":12564,"Ġseg":12565,"ĠsameĠ":12566,"Ġsaw":12567,"Ġsouth":12568,"Ġsociet":12569,"Ġsunday":12570,"Ġsustain":12571,"ĠsuccessĠ":12572,"ĠsocialĠmedia":12573,"ĠsafetyĠ":12574,"ĠscheduleĠ":12575,"ĠsorryĠ":12576,"ĠsufficientĠ":12577,"Ġsodimm":12578,"Ġsuffolk":12579,"ĠselectĠ":12580,"ĠsufferĠfrom":12581,"atig":12582,"ate,Ġ":12583,"atedĠtoĠ":12584,"ates.Ġ":12585,"ate,":12586,"atedĠandĠ":12587,"atron":12588,"atograph":12589,"atoid":12590,"atedĠbyĠtheĠ":12591,"atingĠsystem":12592,"atfish":12593,"atelliteĠ":12594,"atlantic":12595,"ita":12596,"itam":12597,"itsĠs":12598,"itual":12599,"it,ĠbutĠ":12600,"itrypsinĠdeficienc":12601,"itateĠtoĠ":12602,"ing!":12603,"ing;":12604,"ingâĢĻ":12605,"ingap":12606,"ingĠtheĠb":12607,"ingĠtim":12608,"ingĠtr":12609,"ingsĠfor":12610,"ingĠtoĠs":12611,"ingual":12612,"ingĠbe":12613,"ingĠafter":12614,"ingĠanĠ":12615,"ing.ĠthisĠ":12616,"ingĠthos":12617,"ingĠaĠw":12618,"ingĠabout":12619,"ingĠrec":12620,"ingĠwhen":12621,"ingĠshouldĠ":12622,"ingĠstudent":12623,"ingert":12624,"ing,Ġt":12625,"ingĠwillĠb":12626,"ingĠprocess":12627,"ingĠread":12628,"ingĠstaff":12629,"ingĠprogramm":12630,"ingĠplatform":12631,"ingĠcompaniesĠ":12632,"ĠanĠs":12633,"ĠanĠag":12634,"ĠanyĠb":12635,"ĠanĠattack":12636,"ĠanĠannual":12637,"ĠanĠassociateĠ":12638,"ĠanĠalternateĠ":12639,"yĠ-":12640,"yĠday":12641,"yĠleagu":12642,"alex":12643,"along":12644,"altim":12645,"alask":12646,"almostĠ":12647,".Ġ*":12648,".Ġ-":12649,".Ġno":12650,".Ġwork":12651,".Ġlog":12652,".Ġlook":12653,".ĠwhoĠ":12654,".ĠoneĠof":12655,".Ġusing":12656,".Ġclick":12657,".Ġkind":12658,".Ġprerequisit":12659,".ĠeveryoneĠ":12660,".Ġgiada":12661,".Ġearlier":12662,".Ġjesus":12663,".Ġvasquez":12664,".Ġcompa":12665,"arl":12666,"arri":12667,"arsh":12668,"ariesĠ":12669,"arrat":12670,"ario":12671,"arship":12672,"ar-view":12673,"aromatic":12674,",Ġo":12675,",Ġch":12676,",Ġman":12677,",Ġcan":12678,",ĠisĠa":12679,",Ġeat":12680,",Ġnot":12681,",ĠhasĠ":12682,",Ġbr":12683,",ĠwhatĠ":12684,",Ġopen":12685,",ĠoneĠof":12686,",Ġhigh":12687,",Ġfac":12688,",ĠhisĠ":12689,",Ġhowever":12690,",Ġhead":12691,",Ġonly":12692,",Ġwher":12693,",ĠitâĢĻsĠ":12694,",Ġclick":12695,",Ġuntil":12696,",Ġfeel":12697,",Ġchalleng":12698,",Ġwho":12699,",Ġfirst":12700,",Ġlondon":12701,",Ġjohn":12702,",Ġeither":12703,",ĠjuneĠ":12704,",ĠnewĠyork,Ġ":12705,",Ġno.Ġ":12706,",Ġimplementation":12707,",ĠbuiltĠ":12708,",Ġflorid":12709,",Ġohio":12710,"es!":12711,"es/":12712,"esir":12713,"esâĢĻ":12714,"esĠtheĠs":12715,"essĠfor":12716,"esyĠof":12717,"eshow":12718,"esĠthem":12719,"esĠaĠd":12720,"esco":12721,"esĠallow":12722,"esâĢĶ":12723,"es.ĠtheĠs":12724,"es-b":12725,"esham":12726,"es.ĠthisĠisĠ":12727,"esĠthatĠareĠ":12728,"esameĠs":12729,"oĠin":12730,"oĠâĢĵ":12731,"oĠhas":12732,"ofĠyour":12733,"ofĠtheir":12734,"ofĠthem":12735,"ofĠlif":12736,"isp":12737,"is,ĠandĠ":12738,"isĠatĠ":12739,"iseas":12740,"isĠthereĠ":12741,"iscal":12742,"ises.":12743,"isedĠs":12744,"iscons":12745,"isĠalway":12746,"isĠarticleĠ":12747,"isnâĢĻt":12748,"isdiction":12749,"ionĠof":12750,"ions,Ġ":12751,"ica":12752,"icĠb":12753,"icag":12754,"icial":12755,"iceĠandĠ":12756,"icles":12757,"icĠacid":12758,"Ġcam":12759,"Ġcob":12760,"ĠcostĠ":12761,"Ġclin":12762,"ĠcameĠ":12763,"Ġcream":12764,"Ġcris":12765,"Ġcuff":12766,"Ġcrack":12767,"Ġchair":12768,"Ġcinema":12769,"Ġcivil":12770,"ĠcedarĠhill":12771,"Ġcancell":12772,"ĠcottonĠswab":12773,"Ġcouple":12774,"ĠcinÃ©":12775,"omentĠ":12776,"omla":12777,"omewhatĠ":12778,"ĠandĠen":12779,"ĠandĠus":12780,"ĠandĠne":12781,"ĠandĠsh":12782,"ĠandĠnew":12783,"ĠandĠover":12784,"ĠandĠhaveĠ":12785,"ĠandĠman":12786,"ĠandĠwasĠ":12787,"ĠandĠhow":12788,"ĠandĠyouĠcan":12789,"ĠandĠwell":12790,"ĠandĠinter":12791,"ĠandĠreg":12792,"ĠandĠstor":12793,"ĠandĠhigh":12794,"ĠandĠhisĠ":12795,"ĠandĠhas":12796,"ĠandĠmostĠ":12797,"ĠandĠhasĠbeen":12798,"ĠandĠnational":12799,"ĠandĠgiveĠ":12800,"ĠandĠclick":12801,"ĠandĠshall":12802,"ĠandĠloveĠ":12803,"ĠandĠenglish":12804,"ĠandĠcommunityĠ":12805,"ĠandĠreach":12806,"ĠandĠeasy":12807,"ĠandĠnatural":12808,"ĠandĠchemical":12809,"ĠandĠreplac":12810,"ĠandĠevaluation":12811,"elt":12812,"elle":12813,"elter":12814,"elot":12815,"elsĠandĠ":12816,"elek":12817,"eligibleĠ":12818,"elegraph":12819,"than":12820,"thĠb":12821,"thos":12822,"thereĠ":12823,"thew":12824,"theĠb":12825,"thĠmayĠ":12826,"thĠjun":12827,"thyop":12828,"ilz":12829,"ileĠ":12830,"ilink":12831,"ilical":12832,"youtĠ":12833,"youĠus":12834,"youĠhav":12835,"for-":12836,"fordĠ":12837,"forem":12838,"forĠtheĠs":12839,"forĠthem":12840,"forĠaĠc":12841,"forĠother":12842,"forĠbusiness":12843,"forgiveĠ":12844,"forgiven":12845,"edĠtheĠd":12846,"edical":12847,"ed.Ġi":12848,"edĠther":12849,"ed,ĠtheĠ":12850,"edĠanyĠ":12851,"edward":12852,"edĠabout":12853,"edĠatĠtheĠ":12854,"edĠaĠh":12855,"edibleĠ":12856,"edĠtoĠse":12857,"ed.ĠthereĠar":12858,"edĠageĠ":12859,"ededĠteam":12860,"edes-b":12861,"Ġpc":12862,"Ġpin":12863,"Ġpen":12864,"Ġpot":12865,"Ġpup":12866,"Ġpri":12867,"Ġpast":12868,"ĠpageĠ":12869,"Ġpress":12870,"Ġpaw":12871,"Ġpoin":12872,"Ġpci":12873,"Ġpeac":12874,"Ġprayer":12875,"ĠpunchĠballoon":12876,"Ġpupp":12877,"Ġwa":12878,"Ġwon":12879,"Ġwent":12880,"Ġwear":12881,"Ġward":12882,"Ġwool":12883,"Ġwarm":12884,"Ġworth":12885,"ĠwordĠ":12886,"Ġwww":12887,"Ġwrong":12888,"Ġwritten":12889,"Ġwolf":12890,"Ġwiring,Ġ":12891,"Ġwednesday":12892,"Ġwoocommerc":12893,"station":12894,"stad":12895,"stres":12896,"stain":12897,"stanc":12898,"stanceĠ":12899,"stair":12900,"stead":12901,"styl":12902,"stevi":12903,"stakeholder":12904,"edĠ$":12905,"edĠif":12906,"edĠitĠ":12907,"edĠyear":12908,"edĠhow":12909,"edĠso":12910,"edĠlight":12911,"edĠliv":12912,"edĠitself":12913,"edĠguidelin":12914,"edĠspecificallyĠ":12915,"rog":12916,"rov":12917,"royĠ":12918,"rolog":12919,"robin":12920,"roleĠin":12921,"robertĠ":12922,"chut":12923,"chev":12924,"chap":12925,"chanceĠof":12926,"chocolateĠ":12927,"chamber":12928,"chines":12929,"Ġbc":12930,"Ġbel":12931,"Ġbour":12932,"ĠbeĠd":12933,"Ġbask":12934,"ĠbrightĠ":12935,"Ġbatter":12936,"Ġbert":12937,"Ġbapt":12938,"Ġbecom":12939,"Ġbrok":12940,"Ġbuff":12941,"Ġbowl":12942,"Ġbreath":12943,"Ġbathroom":12944,"Ġbudget":12945,"ĠbyĠmeansĠof":12946,"Ġbrother":12947,"Ġbskyb":12948,"Ġma":12949,"Ġmr":12950,"Ġmol":12951,"Ġmam":12952,"Ġmight":12953,"Ġmass":12954,"ĠmyĠm":12955,"Ġmatch":12956,"Ġmapp":12957,"Ġmenu":12958,"Ġmountain":12959,"Ġmyster":12960,"Ġmistak":12961,"ĠmosfetĠ":12962,"ĠtoĠ$":12963,"ĠtoĠg":12964,"ĠtoĠover":12965,"ĠtoĠgo":12966,"ĠtoĠbo":12967,"ĠtoĠjustĠ":12968,"ĠtoĠplay":12969,"ĠtoĠputĠ":12970,"ĠtoĠletĠ":12971,"ĠtoĠgoĠ":12972,"ĠtoĠfindĠ":12973,"ĠtoĠgrow":12974,"ĠtoĠfix":12975,"ĠtoĠoptim":12976,"ĠtoĠremain":12977,"ĠtoĠremoveĠ":12978,"ĠtoĠbuildĠ":12979,"ĠtoĠpull":12980,"ĠtoĠvisitĠ":12981,"ĠtoĠloseĠ":12982,"ĠtoĠhandleĠ":12983,"isĠre":12984,"isĠonĠtheĠ":12985,"isĠcurrentlyĠ":12986,"isĠfullĠof":12987,"isĠwad":12988,"aseĠisĠ":12989,"Ġhot":12990,"ĠhitĠ":12991,"ĠhandĠ":12992,"Ġhub":12993,"Ġheat":12994,"ĠheĠisĠ":12995,"Ġhitch":12996,"Ġhours":12997,"Ġhalf":12998,"ĠheĠwasĠ":12999,"ĠheĠsay":13000,"ĠhormoneĠlevel":13001,"Ġhbv":13002,"ent.Ġ":13003,"entanc":13004,"entiallyĠ":13005,"entranc":13006,"entalĠill":13007,"lever":13008,"lection":13009,"leaf":13010,"leicĠacid":13011,"ctn":13012,"ctang":13013,"Ġder":13014,"ĠdateĠ":13015,"Ġdail":13016,"Ġdong":13017,"Ġditt":13018,"ĠdanceĠ":13019,"Ġdepend":13020,"Ġdiscus":13021,"Ġdutr":13022,"Ġdr.Ġ":13023,"Ġdatabas":13024,"Ġdrink":13025,"Ġdepos":13026,"ĠdailyĠ":13027,"Ġdenali":13028,"Ġdoral":13029,"ĠdÃ¼ren":13030,"Ġdeposit":13031,"Ġdeduction":13032,"Ġdupre":13033,"ĠdÃ¼sseldorf":13034,"lost":13035,"loop":13036,"loos":13037,"lood":13038,"loodĠ":13039,"use.Ġ":13040,"useĠtoĠ":13041,"usedĠin":13042,"usingĠtheĠ":13043,"usingĠm":13044,"useĠand":13045,"usually":13046,"eti":13047,"et.Ġ":13048,"etsĠareĠ":13049,"etabl":13050,"etooth":13051,"urd":13052,"urtĠ":13053,"ureĠin":13054,"ureĠp":13055,"ureĠto":13056,"uriousĠ":13057,"Ġfar":13058,"ĠfitĠ":13059,"Ġflex":13060,"Ġfavor":13061,"Ġfounder":13062,"Ġfavour":13063,"Ġfederal":13064,"Ġfiber":13065,"ĠfrontĠof":13066,"ĠfitnessĠ":13067,"Ġfestival":13068,"Ġfantast":13069,"ations.Ġ":13070,"ation,ĠandĠ":13071,"ationĠisĠ":13072,"ationsĠand":13073,"ationĠbelow":13074,"olen":13075,"olum":13076,"olesc":13077,"verageĠ":13078,"ida":13079,"idy":13080,"id,Ġ":13081,"Ġincom":13082,"ĠinĠtheĠt":13083,"ĠinĠour":13084,"ĠinĠmy":13085,"ĠinĠaction":13086,"ĠinĠtheĠsp":13087,"Ġincorpor":13088,"Ġinjur":13089,"ĠinĠaĠsingleĠ":13090,"ĠinĠmindĠ":13091,"ĠinboundĠmarket":13092,"Ġinventor":13093,"Ġinjector":13094,"igger":13095,"igatingĠevidenc":13096,"ĠtoĠtheĠc":13097,"ĠtoĠtheĠt":13098,"ĠtoĠadd":13099,"ĠtoĠaĠl":13100,"ĠtoĠanyĠ":13101,"ĠtoĠanother":13102,"ĠtoĠthre":13103,"ĠtoĠattend":13104,"ĠtoĠspeak":13105,"ĠtoĠshar":13106,"Ġtotal":13107,"imult":13108,"impos":13109,"imatedĠ":13110,"imedia":13111,"impossible":13112,"iminateĠ":13113,"esĠg":13114,"esĠup":13115,"esĠyour":13116,"esĠhaveĠ":13117,"esĠisĠa":13118,"esĠonĠ":13119,"esĠwillĠb":13120,"esĠmad":13121,"esĠwillĠbeĠ":13122,"esĠcontain":13123,"raud":13124,"rableĠ":13125,"raham":13126,"unning":13127,"unclean":13128,"emia":13129,"emusic":13130,"embar":13131,"embuf":13132,"atĠon":13133,"atĠfor":13134,"Ġyou.Ġ":13135,"ĠyouĠall":13136,"leĠd":13137,"ĠofĠan":13138,"ĠofĠthisĠ":13139,"ĠofĠthes":13140,"ĠofĠthos":13141,"ĠofĠwhich":13142,"ĠofĠlong":13143,"ĠofĠrest":13144,"amo":13145,"aman":13146,"amic":13147,"irresist":13148,"Ġgl":13149,"Ġger":13150,"Ġgear":13151,"ĠgameĠ":13152,"Ġgrad":13153,"Ġglobal":13154,"Ġgolf":13155,"ifĠitĠisĠ":13156,"Ġred":13157,"Ġrepl":13158,"Ġreform":13159,"Ġrefin":13160,"Ġreduc":13161,"Ġrefund":13162,"Ġrelax":13163,"Ġreunion":13164,"Ġrectang":13165,"ula":13166,"ulf":13167,"ulg":13168,"ulĠ":13169,"ulum":13170,"ullyĠ":13171,"ulateĠ":13172,"ulner":13173,"ulationĠof":13174,"ulky":13175,"illedĠ":13176,"illenn":13177,"acon":13178,"acation":13179,"actĠof":13180,"acular":13181,"ecomeĠ":13182,"Ġalle":13183,"Ġalter":13184,"Ġalmost":13185,"ĠareĠt":13186,"Ġarizon":13187,"ĠareĠthre":13188,"ĠarrayĠof":13189,"whom":13190,"whos":13191,"whelm":13192,"all,Ġ":13193,"allel":13194,"ally.Ġ":13195,"allĠover":13196,"allery":13197,"Ġstra":13198,"ĠstandĠ":13199,"ĠstageĠ":13200,"ĠstressĠ":13201,"Ġsteam":13202,"Ġstrug":13203,"Ġsterl":13204,"neyĠ":13205,"neath":13206,"opeĠyou":13207,"eĠthing":13208,"eĠtheĠa":13209,"eĠtheat":13210,"eĠthank":13211,"eĠthoseĠ":13212,"eĠtheĠtrans":13213,"eĠthingsĠ":13214,"withĠthatĠ":13215,"withĠtheĠb":13216,"withĠaĠd":13217,"withstand":13218,"adem":13219,"adly":13220,"adies":13221,"admission":13222,"addition":13223,"ado,Ġ":13224,"adventur":13225,"adfael":13226,"adventureĠ":13227,"abri":13228,"abov":13229,"abaster":13230,"abins:":13231,"abbingĠm":13232,"ourĠ":13233,"ourse":13234,"ourĠcustomer":13235,"agon":13236,"ageĠin":13237,"ages,Ġ":13238,"agrang":13239,"aggi":13240,"extĠ":13241,"exic":13242,"excal":13243,"exemp":13244,"exampleĠ":13245,"ingĠ(":13246,"ingĠ.":13247,"ingĠun":13248,"ingĠip":13249,"ingĠitsĠ":13250,"ingĠevery":13251,"ingĠeach":13252,"ingĠroad":13253,"ingĠevent":13254,"ingĠisĠtheĠ":13255,"ingĠoverĠ":13256,"ingĠoccur":13257,"ingĠ(london":13258,"ottĠ":13259,"otic":13260,"otim":13261,"otors":13262,"ossession":13263,"utom":13264,"utting":13265,"ayman":13266,"plas":13267,"plastic":13268,"plc;":13269,"comf":13270,"comingĠ":13271,"comesĠfrom":13272,"entĠor":13273,"entĠfrom":13274,"entĠbyĠ":13275,"entĠhisĠ":13276,"Ġand,Ġ":13277,"ĠandĠtheĠm":13278,"ĠandĠtheir":13279,"ĠandĠtheĠb":13280,"ĠandĠtheĠt":13281,"ĠandĠtook":13282,"ĠandroidĠ":13283,"itĠwouldĠ":13284,"itĠforĠyou":13285,"resent":13286,"restĠof":13287,"residenc":13288,"prob":13289,"prohib":13290,"proclaim":13291,"progres":13292,"proxim":13293,"akeĠ":13294,"akingĠs":13295,"akeĠup":13296,"quel":13297,"quantitativeĠ":13298,"hares":13299,"hasĠfor":13300,"hared":13301,"haven":13302,"eĠsum":13303,"eĠsign":13304,"eĠsendĠ":13305,"eĠsmall":13306,"eĠsuchĠasĠ":13307,"eĠskill":13308,"eĠseveral":13309,"eĠsimpleĠ":13310,"eĠskel":13311,"eĠsleep":13312,"eĠsampleĠ":13313,"eĠshares":13314,"eĠtow":13315,"eĠtown":13316,"ivisĠ":13317,"iveness":13318,"ively.Ġ":13319,"ivyĠleagu":13320,"Ġld":13321,"Ġly":13322,"Ġlor":13323,"Ġlast":13324,"Ġlaur":13325,"Ġlaborator":13326,"Ġlaptop":13327,"Ġlatin":13328,"umĠof":13329,"umper":13330,"umination":13331,"umatoid":13332,"umstanc":13333,"ĠthatĠm":13334,"ĠthatĠour":13335,"ĠthatĠisĠa":13336,"ĠthatĠwasĠ":13337,"ĠthatĠhasĠbeen":13338,"ĠthatĠiĠam":13339,"essay":13340,"convers":13341,"conversion":13342,"construct":13343,"congres":13344,"perc":13345,"pers":13346,"rome,Ġ":13347,"rompt":13348,"andĠtheĠ":13349,"andom":13350,"andol":13351,"anderson":13352,"eĠoffic":13353,"eĠofĠthos":13354,"eĠofĠnorth":13355,".ĠtheĠv":13356,".ĠtheĠcl":13357,".ĠtheĠfirstĠ":13358,".ĠtheĠdata":13359,".ĠtheĠdatabas":13360,"earlyĠs":13361,"upĠof":13362,"upĠfrom":13363,"upportĠ":13364,"uponĠs":13365,"upplement":13366,"evil":13367,"evolv":13368,"evesham":13369,"ĠthisĠst":13370,"ĠthisĠisĠa":13371,"ĠthisĠwouldĠ":13372,"ĠthisĠperson":13373,"ĠthisĠwillĠb":13374,"ĠthisĠisĠtheĠ":13375,"istribut":13376,"s.ĠâĢľ":13377,"s.ĠitĠisĠ":13378,"s.ĠpleaseĠ":13379,"s.ĠpeopleĠ":13380,"e.Ġf":13381,"e.Ġon":13382,"e.Ġnow":13383,"e.ĠbutĠ":13384,"e.ĠâĢľ":13385,"e.Ġbut":13386,"e.ĠitĠisĠ":13387,"e.Ġpleas":13388,"e.ĠpleaseĠ":13389,"e.Ġvoicecomputer":13390,"ĠareĠin":13391,"ĠareĠnow":13392,"ĠareĠavailableĠ":13393,"ĠareĠcollect":13394,"ĠareĠdelet":13395,"lyĠp":13396,"lyĠrecommend":13397,"encod":13398,"enceĠon":13399,"encyĠandĠ":13400,"ence:":13401,"encounter":13402,"ĠforĠl":13403,"ĠforĠthisĠ":13404,"ĠforĠtheĠs":13405,"ĠforĠaĠ":13406,"ĠforĠall":13407,"ĠforĠus":13408,"ĠforgiveĠ":13409,"ĠforĠsuch":13410,"ĠforĠsmall":13411,"ĠforĠexascal":13412,"Ġtheft":13413,"ĠtheyĠoffer":13414,"asĠre":13415,"epp":13416,"eput":13417,"ependĠ":13418,"epĠstation":13419,"iveĠandĠ":13420,"s,Ġus":13421,"s,Ġour":13422,"s,Ġcar":13423,"s,Ġit'sĠ":13424,"s,Ġetc":13425,"s,Ġhowever,Ġ":13426,"Ġnm":13427,"Ġnic":13428,"ĠnameĠ":13429,"Ġnatur":13430,"ĠnpsĠandĠ":13431,"e,ĠitĠ":13432,"e,ĠitĠisĠ":13433,"e,Ġhowever":13434,"e,Ġjack":13435,"udas":13436,"udbur":13437,"udden":13438,"beet":13439,"beach":13440,"beingĠc":13441,"Ġasid":13442,"ĠasĠanĠ":13443,"Ġaspar":13444,"ĠasĠaĠre":13445,"Ġasshelp":13446,"sĠofĠall":13447,"sĠofĠtheĠd":13448,"sĠofĠbe":13449,"ĠwithĠall":13450,"ĠwithĠtheir":13451,"ĠwithĠaĠs":13452,"ĠwithĠtheĠh":13453,"ĠwithĠnoĠ":13454,"ĠwithĠgod":13455,"ĠwithĠlittleĠ":13456,"ayĠfor":13457,"ants:":13458,"antageĠof":13459,"ĠtheĠsec":13460,"ĠtheĠsens":13461,"ĠtheĠsystem":13462,"ĠtheĠshap":13463,"ĠtheĠsmall":13464,"ĠtheĠskin":13465,"ĠtheĠsuper":13466,"ĠtheĠsubject":13467,"ĠtheĠseller":13468,"estin":13469,"estamp":13470,"estock":13471,"ĠonĠg":13472,"ĠoneĠd":13473,"ĠonĠour":13474,"ĠoneĠofĠtheĠ":13475,"ĠonĠgivatĠhatachmoshet":13476,"ĠonĠdietetic":13477,"Ġshe":13478,"Ġshoulder":13479,"ĠshoulderĠpain":13480,"Ġshutdown":13481,"ĠyourĠfirstĠ":13482,"rial":13483,"riedĠ":13484,"ries,Ġ":13485,"ĠasĠh":13486,"ĠasĠyour":13487,"ĠasĠâĢľ":13488,"ĠasĠfull":13489,"ĠasĠsoonĠasĠ":13490,"eĠcreat":13491,"eĠcanĠ":13492,"eĠcoll":13493,"eĠcertain":13494,"eĠcapital":13495,"eĠclaim":13496,"ance.":13497,"ancientĠ":13498,"ance.ĠthisĠ":13499,",ĠandĠisĠ":13500,",ĠandĠmor":13501,"ella":13502,"ellen":13503,"ellisĠ":13504,"ellilink":13505,"apin":13506,"apĠof":13507,"apart":13508,"apabil":13509,"apston":13510,"yourĠhealth":13511,"yourĠbrowser":13512,"endsĠ":13513,"endow":13514,"endant":13515,"endingĠd":13516,"endless":13517,"endors":13518,"ĠaĠvideoĠ":13519,"ĠaĠquick":13520,"ĠaĠuser":13521,"ĠaĠvery":13522,"ĠaĠrangeĠof":13523,"ĠaĠrental":13524,"ĠaĠuniqueĠ":13525,"orkinâĢĻsĠ":13526,"sĠandĠhelp":13527,"sĠandĠsc":13528,"sĠandĠbas":13529,"sĠandĠstaff":13530,"sĠandĠcost":13531,"sĠandĠfilm":13532,"odg":13533,"odell":13534,"ateĠa":13535,"ateĠyour":13536,"sĠinĠtheĠm":13537,"sĠinsid":13538,"sĠinĠaĠd":13539,"sĠinĠplac":13540,"sĠinĠtheĠgam":13541,"sĠindepend":13542,"sĠinĠtheĠnationalĠpark":13543,"sĠinsect":13544,"s>Ġ<s>Ġm":13545,"s>Ġ<s>Ġh":13546,"s>Ġ<s>Ġg":13547,"s>Ġ<s>Ġal":13548,"s>Ġ<s>Ġon":13549,"s>Ġ<s>ĠatĠ":13550,"s>Ġ<s>ĠtheĠw":13551,"s>Ġ<s>Ġwhen":13552,"noaa.":13553,"duff":13554,"duĠcinÃ©":13555,"ipedia":13556,"Ġadequ":13557,"Ġadolesc":13558,"203":13559,"206":13560,"ĠorĠb":13561,"ĠorĠyour":13562,"ĠorĠother":13563,"ĠorĠmoreĠ":13564,"Ġordin":13565,"ĠorĠpermissionĠofĠinstructor":13566,"ĠorĠez":13567,"Ġwheel":13568,"ĠwhoseĠ":13569,"ĠproveĠ":13570,"Ġprospect":13571,"Ġprogress":13572,"Ġprovinc":13573,"ĠatĠthisĠ":13574,"ĠatĠtheĠb":13575,"ĠatĠthem":13576,"Ġattain":13577,"ĠatĠtheĠw":13578,"ĠatĠthis":13579,"ĠatĠtheĠn":13580,"ĠatĠany":13581,"ĠatĠtheĠtim":13582,"ĠatĠtheĠtop":13583,"ĠatĠageĠ":13584,"etĠin":13585,"etĠstor":13586,"etĠpolish":13587,"sho":13588,"shell":13589,"shown":13590,"should":13591,"shield":13592,"shift":13593,"sheetĠ":13594,"shoulderĠpain":13595,"shookĠher":13596,"ardwar":13597,"ĠtheĠcod":13598,"ĠtheĠcook":13599,"ĠtheĠcoll":13600,"ĠtheĠcolor":13601,"ĠtheĠcalifornia":13602,"ĠtheĠcampaign":13603,"ĠtheĠcentral":13604,"ĠtheĠcitizen":13605,"ĠtheĠcreationĠof":13606,"fromĠour":13607,"willĠyou":13608,"willĠinclud":13609,"willĠnotĠbeĠ":13610,"everĠafter":13611,"everyĠb":13612,"eĠinĠorder":13613,"eĠinstruction":13614,"formal":13615,"formĠandĠ":13616,"formanc":13617,"new,Ġ":13618,"newestĠ":13619,"newĠzeal":13620,"eĠmy":13621,"eĠmap":13622,"eĠmous":13623,"eĠmustĠ":13624,"eĠmostĠ":13625,"eĠmission":13626,"eĠmask":13627,"eĠmatter":13628,"eĠmedia":13629,"eĠmuseum":13630,"eĠmeasure":13631,"ichotom":13632,"ichthyop":13633,"lyn":13634,"lywoodĠ":13635,"ishwas":13636,"isheriesĠ":13637,"outfit":13638,"Ġconvert":13639,"Ġconferenc":13640,"Ġconstruction":13641,"Ġcongress":13642,"Ġconscienc":13643,"Ġconvention":13644,"Ġconvection":13645,"outĠfrom":13646,"ĠcomeĠin":13647,"ĠcommentĠ":13648,"ĠcomingĠfrom":13649,"overĠtheĠ":13650,"overĠall":13651,"eĠdivers":13652,"eĠdog":13653,"eĠdirect":13654,"eĠdigital":13655,"eĠdepart":13656,"eĠdiscuss":13657,"eĠdesi":13658,"eĠdecision":13659,"eĠdonâĢĻtĠ":13660,"ĠallĠtheĠ":13661,"ĠallĠs":13662,"ĠallĠm":13663,"ĠallĠtheir":13664,"ĠallĠaboutĠ":13665,"ĠallĠmyĠ":13666,"ĠallĠover":13667,"ĠallĠday":13668,"ĠallĠtheĠtim":13669,"ĠallĠplanningĠapplication":13670,"ialĠsweet":13671,"lown":13672,"lowĠ":13673,"lowestĠ":13674,"low-up":13675,"lowers,":13676,"Ġ(s":13677,"Ġ(newĠyork":13678,"Ġ(map_":13679,"Ġ(p-value=":13680,"Ġ(ld":13681,"Ġ(iobuf_":13682,"Ġ(gradeĠ":13683,"Ġ(luk":13684,
[...]
