{"!":0,"\"":1,"#":2,"$":3,"%":4,"&":5,"'":6,"(":7,")":8,"*":9,"+":10,",":11,"-":12,".":13,"/":14,"0":15,"1":16,"2":17,"3":18,"4":19,"5":20,"6":21,"7":22,"8":23,"9":24,":":25,";":26,"<":27,"=":28,">":29,"?":30,"@":31,"[":32,"\\":33,"]":34,"^":35,"_":36,"`":37,"a":38,"b":39,"c":40,"d":41,"e":42,"f":43,"g":44,"h":45,"i":46,"j":47,"k":48,"l":49,"m":50,"n":51,"o":52,"p":53,"q":54,"r":55,"s":56,"t":57,"u":58,"v":59,"w":60,"x":61,"y":62,"z":63,"|":64,"}":65,"~":66,"¡":67,"¢":68,"£":69,"¤":70,"¥":71,"¦":72,"§":73,"¨":74,"©":75,"ª":76,"«":77,"¬":78,"®":79,"¯":80,"°":81,"±":82,"²":83,"³":84,"´":85,"µ":86,"¶":87,"·":88,"¸":89,"¹":90,"º":91,"»":92,"¼":93,"½":94,"¾":95,"¿":96,"Â":97,"Ã":98,"Ä":99,"Å":100,"Æ":101,"Ç":102,"È":103,"É":104,"Ê":105,"Ë":106,"Ì":107,"Í":108,"Î":109,"Ï":110,"Ð":111,"Ñ":112,"Ò":113,"Ó":114,"Ô":115,"Ö":116,"×":117,"Ø":118,"Ù":119,"Ú":120,"Û":121,"Ü":122,"à":123,"á":124,"â":125,"ã":126,"ä":127,"å":128,"æ":129,"ç":130,"è":131,"é":132,"ê":133,"ë":134,"ì":135,"í":136,"î":137,"ï":138,"ð":139,"ó":140,"ă":141,"ą":142,"Ć":143,"ć":144,"Ĉ":145,"Ċ":146,"č":147,"Ĕ":148,"Ę":149,"ę":150,"Ġ":151,"ġ":152,"Ģ":153,"ģ":154,"Ĥ":155,"ĥ":156,"Ħ":157,"ħ":158,"Ĩ":159,"ĩ":160,"Ī":161,"ī":162,"Ĭ":163,"ĭ":164,"Į":165,"į":166,"İ":167,"ı":168,"Ĳ":169,"ĳ":170,"Ĵ":171,"ĵ":172,"Ķ":173,"ķ":174,"ĸ":175,"Ĺ":176,"ĺ":177,"Ļ":178,"ļ":179,"Ľ":180,"ľ":181,"Ŀ":182,"ŀ":183,"Ł":184,"ł":185,"Ń":186,"eĠ":187,"Ġt":188,"Ġa":189,"in":190,"Ġth":191,"sĠ":192,"er":193,"tĠ":194,"on":195,"dĠ":196,"or":197,"en":198,"ĠtheĠ":199,"ou":200,"an":201,"re":202,"yĠ":203,"at":204,"ing":205,"it":206,".Ġ":207,"oĠ":208,"Ġan":209,",Ġ":210,"al":211,"st":212,"ar":213,"of":214,"es":215,"ic":216,"om":217,"Ġc":218,"ion":219,"th":220,"Ġs":221,"ĠandĠ":222,"il":223,"Ġw":224,"el":225,"is":226,"ĠtoĠ":227,"for":228,"Ġp":229,"edĠ":230,"you":231,"ed":232,"ch":233,"ro":234,"Ġm":235,"isĠ":236,"Ġb":237,"as":238,"Ġh":239,"âĢ":240,"ec":241,"ent":242,"ow":243,"le":244,"Ġd":245,"us":246,"veĠ":247,"ac":248,"ol":249,"Ġf":250,"ur":251,"esĠ":252,"im":253,"Ġin":254,"atĠ":255,"ver":256,"id":257,"ith":258,"ig":259,"et":260,"em":261,"am":262,"un":263,"ation":264,"ir":265,"ingĠ":266,"lo":267,"leĠ":268,"wh":269,"ad":270,"op":271,"Ġof":272,"if":273,"lyĠ":274,"âĢĻ":275,"Ġal":276,"Ġto":277,"Ġar":278,"ill":279,"ex":280,"ul":281,"ha":282,"eĠth":283,"itĠ":284,"ter":285,"ay":286,"Ġg":287,"Ġyou":288,"res":289,"ag":290,"os":291,"ab":292,"Ġn":293,"with":294,"our":295,"ut":296,"Ġl":297,"eĠt":298,"Ġand":299,"ĠthatĠ":300,"com":301,"ri":302,"ot":303,"entĠ":304,"ak":305,"Ġ<":306,"s>":307,"pro":308,"eĠs":309,"pl":310,"eĠof":311,"ear":312,"igh":313,"all":314,"qu":315,"up":316,"rom":317,"Ġre":318,"ain":319,"Ġthe":320,"con":321,"s.Ġ":322,"ect":323,"asĠ":324,"ĠthisĠ":325,"oun":326,"um":327,"ew":328,"per":329,"s,Ġ":330,"e.Ġ":331,".ĠtheĠ":332,"and":333,"sh":334,"est":335,"uc":336,"iv":337,"oo":338,"andĠ":339,"ĠareĠ":340,"ev":341,"sĠa":342,"ap":343,"Ġst":344,"ist":345,"be":346,"Ġfor":347,"ther":348,"ayĠ":349,"ep":350,"ereĠ":351,"e,Ġ":352,"sĠof":353,"ess":354,"iveĠ":355,"Ġtr":356,"enc":357,"Ġwh":358,"ud":359,"der":360,"oul":361,"ell":362,"anc":363,"ant":364,"Ġon":365,"otĠ":366,"Ġall":367,"eĠw":368,"ĠtheĠs":369,"oc":370,"Ġwith":371,"por":372,"gh":373,"eĠin":374,"ĠasĠ":375,"ial":376,"your":377,"eĠc":378,"Ġac":379,"ip":380,"sĠandĠ":381,"ever":382,"out":383,"art":384,"from":385,",ĠandĠ":386,"âĢĻsĠ":387,"ork":388,"eĠm":389,"etĠ":390,"gr":391,"cl":392,"over":393,"tion":394,"haveĠ":395,"bu":396,"20":397,"ack":398,"eĠd":399,"ea":400,"end":401,"outĠ":402,"sĠin":403,"ough":404,"Ġpro":405,"od":406,"Ġ</":407,"s>Ġ<":408,"s>Ġ<s>":409,"soĠ":410,"ouldĠ":411,"eĠa":412,"own":413,"pr":414,"Ġv":415,"fer":416,"Ġyour":417,"Ġcon":418,"Ġad":419,"ust":420,"other":421,"li":422,"ich":423,"Ġat":424,"eĠtoĠ":425,"ef":426,"Ġr":427,"ber":428,"Ġcom":429,"ĠtheĠm":430,"Ġch":431,"Ġas":432,"ableĠ":433,"ityĠ":434,"ub":435,"Ġab":436,"ĠisĠ":437,"edĠtoĠ":438,"ly":439,"Ġor":440,"tĠof":441,"ail":442,"rec":443,"form":444,"ard":445,"ind":446,"eĠb":447,"ment":448,"Ġthat":449,"we":450,"eĠandĠ":451,"ĠtheĠf":452,"notĠ":453,"iz":454,"ĠtheĠc":455,"ĠtheĠb":456,"Ġcan":457,"act":458,"ang":459,"se":460,"ong":461,"eĠp":462,"ies":463,"Ġj":464,"Ġha":465,"sp":466,"now":467,"Ġk":468,"her":469,"Ġtheir":470,"ok":471,"port":472,"estĠ":473,"ra":474,"Ġi":475,"ity":476,"ign":477,"Ġex":478,"edĠin":479,"Ġlo":480,"ĠtheĠp":481,"edĠb":482,"ical":483,"ish":484,"will":485,"toĠ":486,"eĠf":487,"sĠtoĠ":488,"erv":489,"ast":490,"Ġsh":491,"Ġap":492,"year":493,"ight":494,"ition":495,"su":496,"can":497,"comp":498,"man":499,"vi":500,"ĠatĠ":501,"Ġis":502,"duc":503,"ĠtheĠt":504,"Ġtim":505,"reat":506,"Ġ(":507,"ib":508,"eĠh":509,"ens":510,"..":511,"ick":512,"00":513,"ark":514,"ĠtheĠd":515,"'sĠ":516,"ĠtheyĠ":517,"ne":518,"butĠ":519,"work":520,"ia":521,"iesĠ":522,"s.":523,"av":524,"beĠ":525,"cont":526,"ult":527,"lin":528,"eal":529,"Ġam":530,"ustĠ":531,"ob":532,"allyĠ":533,"âĢľ":534,"og":535,"ĠaĠs":536,"int":537,".Ġi":538,"e.":539,"201":540,"âĢĿ":541,"ightĠ":542,"weĠ":543,"ost":544,"lik":545,"ĠhaveĠ":546,"eas":547,"ateĠ":548,"mor":549,"str":550,"red":551,"essĠ":552,"Ġwill":553,"eg":554,"ersĠ":555,"eb":556,"when":557,"Ġit":558,"eĠtheĠ":559,"y,Ġ":560,"mak":561,"es,Ġ":562,"ass":563,"vid":564,"mentĠ":565,"Ġpl":566,"ingĠa":567,"ostĠ":568,"som":569,"which":570,"inc":571,"ĠthereĠ":572,"ach":573,"es.Ġ":574,"been":575,"Ġle":576,"new":577,"oll":578,"ound":579,"ater":580,"Ġaf":581,"ov":582,"ingĠs":583,"rough":584,"comm":585,"ĠtheĠw":586,"eng":587,"Ġthem":588,"Ġfrom":589,"elp":590,"ingĠtoĠ":591,"Ġper":592,"ure":593,"idĠ":594,"son":595,"Ġus":596,"sĠfor":597,"ous":598,"wasĠ":599,"ook":600,"Ġacc":601,"Ġun":602,"eat":603,"eop":604,"ount":605,"eĠfor":606,"how":607,"Ġour":608,"go":609,"pos":610,"ĠalsoĠ":611,"ervic":612,"itt":613,"Ġthes":614,"ian":615,"Ġthan":616,"ple":617,"y.Ġ":618,"ifĠyou":619,"clud":620,"s,":621,"Ġtak":622,"sĠareĠ":623,"elyĠ":624,"stĠ":625,"ienc":626,"not":627,"do":628,"ingĠtheĠ":629,"hasĠ":630,"ful":631,"oneĠ":632,"âĢĵ":633,"to":634,"Ġte":635,"aus":636,"arg":637,"ink":638,"way":639,"pres":640,"âĢĻtĠ":641,"fic":642,"usĠ":643,"row":644,"each":645,"sel":646,"but":647,"even":648,"so":649,"ool":650,"ord":651,"areĠ":652,"antĠ":653,"yĠof":654,"ans":655,"Ġsp":656,"astĠ":657,"la":658,"Ġmor":659,"ingĠin":660,"ĠtoĠtheĠ":661,"ĠitĠ":662,"oodĠ":663,"uch":664,"ild":665,"Ġag":666,"vers":667,"ual":668,"e,":669,").":670,"Ġpr":671,"19":672,"ek":673,"ection":674,"rem":675,"sc":676,"inter":677,"sid":678,"ĠaĠf":679,"ousĠ":680,"af":681,"ĠanĠ":682,"ĠmyĠ":683,"ĠwasĠ":684,"eopleĠ":685,"myĠ":686,"Ġres":687,"well":688,"aryĠ":689,"veryĠ":690,"ph":691,"Ġthrough":692,"ication":693,"ug":694,"ureĠ":695,"ĠtheĠh":696,"ardĠ":697,"yst":698,"ener":699,"loc":700,"fl":701,"ll":702,"whoĠ":703,"ret":704,"ower":705,"ember":706,"rat":707,"urn":708,"rit":709,"day":710,"ĠtheĠl":711,"edĠwith":712,"ing,Ġ":713,"ĠaĠb":714,"esign":715,"byĠ":716,"Ġadd":717,"Ġnew":718,"Ġtw":719,"ood":720,"adĠ":721,".ĠthisĠ":722,"esĠandĠ":723,"ĠbeĠ":724,"youĠcan":725,"ey":726,"let":727,"ĠaĠc":728,"ĠaĠ":729,"ĠanyĠ":730,"bec":731,"ik":732,"ĠaboutĠ":733,"br":734,"fin":735,"look":736,"ectĠ":737,"edĠon":738,"Ġcont":739,"read":740,"oundĠ":741,"get":742,"whatĠ":743,"bo":744,"eth":745,"pa":746,"ire":747,"sĠon":748,"dis":749,"Ġafter":750,"eĠthatĠ":751,"min":752,"Ġthen":753,"Ġne":754,"dĠof":755,"reg":756,"provid":757,"ĠtheĠg":758,"e-":759,"eel":760,"ĠaĠm":761,"ĠaĠp":762,"usin":763,"jo":764,"10":765,"ed.Ġ":766,"anyĠ":767,"ĠtheĠn":768,"edĠbyĠ":769,"reas":770,"ing.Ġ":771,"under":772,"formation":773,"Ġcomp":774,"ystem":775,"orl":776,"ingĠandĠ":777,"itsĠ":778,"yĠandĠ":779,"esĠof":780,"noĠ":781,"ular":782,"ational":783,"Ġbe":784,"eĠisĠ":785,"Ġass":786,"ash":787,"Ġyear":788,"elop":789,"view":790,"sĠwith":791,"ert":792,"mon":793,"ement":794,"room":795,"arn":796,"Ġher":797,"eĠto":798,",Ġand":799,"ryĠ":800,"utĠ":801,"vis":802,"ĠaĠd":803,"eĠwith":804,"evelop":805,"ext":806,"eĠon":807,"eyĠ":808,"plac":809,"iffer":810,"eli":811,"olog":812,"irstĠ":813,"know":814,"eep":815,"help":816,"sit":817,"ship":818,"yp":819,"yĠtoĠ":820,"Ġact":821,"ean":822,"Ġthis":823,"are":824,"esĠin":825,"sĠthatĠ":826,"ĠaĠl":827,",ĠtheĠ":828,"ingĠm":829,"ĠaĠg":830,"Ġwork":831,"sĠand":832,".Ġh":833,"Ġapp":834,"ubl":835,"los":836,"earch":837,"ner":838,"old":839,"Ġatt":840,"ĠasĠa":841,"'tĠ":842,"produc":843,"ix":844,"ric":845,"iss":846,"oup":847,",Ġs":848,"perienc":849,"Ġsom":850,"atedĠ":851,"ingĠb":852,"Ġthey":853,"doĠ":854,"oldĠ":855,"hap":856,"wereĠ":857,"ingĠc":858,"amil":859,"don":860,"econ":861,"reatĠ":862,"ingĠfor":863,"emp":864,"ĠhisĠ":865,"ari":866,"Ġup":867,"ros":868,".Ġin":869,"Ġqu":870,"),":871,"ath":872,"was":873,",Ġm":874,"ibleĠ":875,"riv":876,"ution":877,"atch":878,"ĠofĠtheĠ":879,"justĠ":880,"gram":881,"urr":882,"ingĠd":883,"ageĠ":884,"par":885,"cess":886,"ustom":887,"edĠby":888,"sup":889,"ĠhasĠ":890,"gan":891,"every":892,"di":893,"Ġther":894,"imp":895,"chn":896,"ject":897,"ingĠp":898,"Ġthos":899,"ient":900,"ific":901,"eĠyou":902,"getĠ":903,"Ġwhich":904,"self":905,"stor":906,"whil":907,"ren":908,"alk":909,"ry":910,"requ":911,"chool":912,"200":913,"itĠisĠ":914,"amp":915,"ether":916,"stat":917,"Ġinter":918,"bl":919,"Ġgr":920,"ealth":921,",Ġi":922,"ally":923,"ron":924,"ank":925,"ecial":926,"edĠfor":927,"Ġhow":928,"includ":929,"fect":930,"Ġrec":931,"ident":932,"mer":933,"car":934,"eĠg":935,"vel":936,"Ġany":937,"ingĠon":938,"Ġthink":939,"und":940,"Ġother":941,"hisĠ":942,"stud":943,"esĠtoĠ":944,"ata":945,"ementĠ":946,"eck":947,"part":948,"ator":949,"Ġ-":950,"sur":951,"endĠ":952,"Ġop":953,"ingĠof":954,"chang":955,"sĠm":956,"aw":957,"ead":958,"edĠto":959,"stand":960,"rip":961,"ict":962,"co":963,"leg":964,"play":965,"ru":966,"ed,Ġ":967,"umber":968,"Ġabout":969,"air":970,"ax":971,"bas":972,"back":973,"wouldĠ":974,"inĠtheĠ":975,"s.ĠtheĠ":976,"ann":977,"ett":978,"creat":979,"pre":980,"onlyĠ":981,"enter":982,"Ġav":983,"antĠtoĠ":984,"such":985,"Ġsc":986,"Ġart":987,"fac":988,"pon":989,"dayĠ":990,"ional":991,"...":992,"gu":993,"app":994,"Ġmon":995,"struc":996,"ĠandĠs":997,"ĠtwoĠ":998,".Ġs":999,".Ġm":1000,"ities":1001,"az":1002,"ĠbyĠ":1003,"rel":1004,"ital":1005,"ollow":1006,"arm":1007,"actĠ":1008,"exp":1009,"Ġtrans":1010,"Ġind":1011,"pert":1012,"inĠ":1013,"sĠs":1014,"ĠaĠh":1015,"alu":1016,"ameĠ":1017,",ĠbutĠ":1018,"atur":1019,"sĠfrom":1020,"eĠwill":1021,"import":1022,"ten":1023,"oneĠof":1024,"ativeĠ":1025,"rect":1026,"Ġwhen":1027,"Ġse":1028,"ble":1029,"ityĠof":1030,"Ġdis":1031,"Ġen":1032,",Ġh":1033,".Ġw":1034,"oth":1035,"ween":1036,"eĠl":1037,"ton":1038,"mall":1039,"Ġy":1040,"istĠ":1041,"etween":1042,"Ġcl":1043,"Ġtechn":1044,"becaus":1045,"âĢĶ":1046,"much":1047,"down":1048,"ationĠof":1049,"ĠaĠw":1050,"ould":1051,"veĠth":1052,"e.ĠtheĠ":1053,"rop":1054,"oint":1055,"Ġph":1056,"eter":1057,"ull":1058,"able":1059,"Ġdo":1060,"ys":1061,"whereĠ":1062,"Ġ\"":1063,"eĠcan":1064,"everyĠ":1065,"aid":1066,"Ġmak":1067,"Ġover":1068,"Ġfin":1069,"edĠandĠ":1070,"ivers":1071,"Ġman":1072,".ĠitĠ":1073,"ier":1074,"ort":1075,"Ġservic":1076,"equ":1077,"high":1078,"ĠtheseĠ":1079,"Ġappl":1080,"atter":1081,"uf":1082,"artĠ":1083,"Ġmin":1084,"ock":1085,"ĠwhatĠ":1086,"befor":1087,"sĠto":1088,"Ġthough":1089,"Ġro":1090,",Ġc":1091,"ourc":1092,"Ġcomm":1093,"ept":1094,"portĠ":1095,"Ġhom":1096,"by":1097,"uallyĠ":1098,"ĠwouldĠ":1099,"12":1100,"es.":1101,"iel":1102,"att":1103,"ingĠf":1104,"30":1105,"estion":1106,"abil":1107,"aseĠ":1108,"olution":1109,"nâĢĻtĠ":1110,"s,ĠandĠ":1111,"arket":1112,",Ġd":1113,"Ġthank":1114,"orld":1115,"cons":1116,"reĠ":1117,"fort":1118,"iat":1119,"eĠsh":1120,"urch":1121,"orth":1122,"sĠd":1123,"just":1124,"hadĠ":1125,"Ġproduc":1126,"ittleĠ":1127,"eĠor":1128,"50":1129,"unt":1130,"Ġsup":1131,"eĠis":1132,"need":1133,"etter":1134,"mad":1135,"sĠc":1136,"ĠtoĠb":1137,"ress":1138,"log":1139,"uth":1140,"iqu":1141,"riend":1142,"Ġim":1143,"elect":1144,"lif":1145,"Ġcar":1146,"ailableĠ":1147,"nam":1148,"ofess":1149,"Ġteam":1150,"inv":1151,"sĠor":1152,"ven":1153,"experienc":1154,"med":1155,"itch":1156,"fre":1157,"ures":1158,"Ġdon":1159,"open":1160,"Ġbr":1161,"Ġpart":1162,"hom":1163,"edĠtheĠ":1164,",Ġw":1165,".Ġd":1166,"start":1167,"eĠand":1168,"ump":1169,"keep":1170,"ĠofĠ":1171,"kin":1172,"eĠyour":1173,"ĠtoĠs":1174,"Ġwas":1175,"eĠwasĠ":1176,"ision":1177,"wayĠ":1178,"Ġallow":1179,"eet":1180,"ublic":1181,"loy":1182,"Ġagain":1183,"reen":1184,"Ġwe":1185,"person":1186,"Ġknow":1187,"off":1188,"ingsĠ":1189,",Ġwhich":1190,"aveĠ":1191,"ĠandĠtheĠ":1192,"ingĠwith":1193,"long":1194,"ours":1195,"peopleĠ":1196,"aint":1197,"18":1198,"ifferentĠ":1199,"manyĠ":1200,"eĠofĠtheĠ":1201,"inu":1202,"ger":1203,"Ġout":1204,"ingĠto":1205,"blem":1206,"learn":1207,"vir":1208,"aph":1209,"dec":1210,"land":1211,"cal":1212,"Ġdi":1213,"sider":1214,"ĠasĠwell":1215,"wer":1216,"Ġlik":1217,"eric":1218,"itor":1219,"still":1220,",Ġyou":1221,"ĠinĠtheĠ":1222,"usinessĠ":1223,"ram":1224,"ern":1225,"Ġown":1226,"edg":1227,"Ġstud":1228,"redĠ":1229,"olic":1230,"eĠthan":1231,"ingĠh":1232,"edĠs":1233,"ward":1234,"tim":1235,"ĠnotĠ":1236,"exc":1237,"run":1238,"sĠtheĠ":1239,"extĠ":1240,"ĠâĢĵ":1241,"col":1242,"event":1243,"Ġthre":1244,"show":1245,"ĠmayĠ":1246,"Ġter":1247,"eer":1248,"vent":1249,"Ġreg":1250,",Ġa":1251,"io":1252,"edĠm":1253,"sĠ(":1254,"irst":1255,"Ġtop":1256,"cle":1257,"ission":1258,"national":1259,"ather":1260,"happ":1261,"itiesĠ":1262,"mostĠ":1263,"Ġanother":1264,"inal":1265,"Ġare":1266,"cover":1267,"giv":1268,"ivid":1269,"low":1270,"ĠatĠtheĠ":1271,"ĠweĠ":1272,"educ":1273,"what":1274,"entlyĠ":1275,"ifi":1276,"eĠfrom":1277,"Ġtyp":1278,":Ġ":1279,"real":1280,"rol":1281,"effect":1282,"uck":1283,"inst":1284,",Ġor":1285,"Ġgo":1286,"cor":1287,"web":1288,"esp":1289,"ris":1290,"itâĢĻsĠ":1291,"Ġdec":1292,"Ġlif":1293,"onĠtheĠ":1294,"ream":1295,"ĠpeopleĠ":1296,"ential":1297,"15":1298,"illion":1299,"overn":1300,"has":1301,"moreĠ":1302,"however":1303,"oic":1304,"ĠdoĠ":1305,"Ġhelp":1306,"ush":1307,"design":1308,"ĠinĠ":1309,"leas":1310,"mayĠ":1311,"ertain":1312,"Ġappro":1313,"âĢĺ":1314,"week":1315,"war":1316,"000":1317,"Ġtrad":1318,"commun":1319,"esĠareĠ":1320,",Ġp":1321,"esĠfor":1322,"qual":1323,"Ġalway":1324,"Ġperson":1325,"Ġday":1326,"ization":1327,"abl":1328,"conc":1329,"eĠitĠ":1330,"esc":1331,"ustomer":1332,"light":1333,"Ġgu":1334,"Ġbu":1335,"rightĠ":1336,"dition":1337,"ism":1338,"ah":1339,"ox":1340,"Ġaddition":1341,"Ġalso":1342,"rist":1343,"inn":1344,".Ġyou":1345,"servic":1346,"aj":1347,",Ġf":1348,"Ġcol":1349,"e!":1350,"present":1351,"ĠitsĠ":1352,"iteĠ":1353,"Ġhigh":1354,"oper":1355,"unc":1356,"Ġlook":1357,"anceĠ":1358,"call":1359,"Ġnot":1360,"ildren":1361,"ingĠyour":1362,"istor":1363,"compan":1364,"kill":1365,"ĠandĠd":1366,"right":1367,"lead":1368,"ior":1369,"Ġif":1370,"employ":1371,"Ġmed":1372,"ĠtheĠmostĠ":1373,".Ġb":1374,"gl":1375,"Ġtrain":1376,"program":1377,"ral":1378,"rid":1379,"outĠof":1380,"lock":1381,"eed":1382,"ineĠ":1383,"Ġweb":1384,"haveĠa":1385,"poss":1386,"ium":1387,"ym":1388,"Ġann":1389,"rang":1390,"pons":1391,"eâĢĻsĠ":1392,"pric":1393,"sĠb":1394,"mo":1395,".Ġf":1396,"plan":1397,"oin":1398,"uk":1399,"outh":1400,"ser":1401,"olv":1402,"ofessional":1403,"eh":1404,"ĠâĢľ":1405,"reallyĠ":1406,"eĠi":1407,"Ġturn":1408,"complet":1409,"Ġadv":1410,"aidĠ":1411,"11":1412,",Ġb":1413,"manag":1414,"eĠthat":1415,"edĠa":1416,"orn":1417,"ribut":1418,"âĢĻveĠ":1419,"ary":1420,"ĠsoĠ":1421,"sĠwill":1422,".ĠweĠ":1423,"fil":1424,"!!":1425,"Ġorder":1426,"Ġdesign":1427,"uss":1428,"Ġfre":1429,"offer":1430,"shouldĠ":1431,"gener":1432,"action":1433,"eĠsp":1434,"lessĠ":1435,"Ġinst":1436,"ract":1437,"usic":1438,"etail":1439,"e.Ġi":1440,"ocial":1441,"ely":1442,"kn":1443,"haveĠbeen":1444,"cas":1445,"odel":1446,"eu":1447,"sĠyou":1448,"âĢĻs":1449,"net":1450,"oil":1451,",Ġt":1452,"oft":1453,"ĠjustĠ":1454,"aterial":1455,"Ġplac":1456,"a,Ġ":1457,"Ġunder":1458,"oci":1459,"check":1460,"ration":1461,"pect":1462,"ister":1463,"ĠtheĠbestĠ":1464,"develop":1465,"icallyĠ":1466,"ask":1467,"actic":1468,"au":1469,".Ġc":1470,"ott":1471,"ableĠtoĠ":1472,".Ġp":1473,"itedĠ":1474,"ounc":1475,"sĠf":1476,"e,ĠandĠ":1477,"hasĠbeen":1478,"graph":1479,"eak":1480,"goĠ":1481,"uring":1482,"book":1483,"eir":1484,"ĠaĠre":1485,"ft":1486,"build":1487,"hav":1488,"te":1489,"consider":1490,"100":1491,".\"":1492,"press":1493,"ĠthoseĠ":1494,"issu":1495,"ĠaĠn":1496,"dep":1497,"sĠar":1498,"ĠaĠlo":1499,"ferenc":1500,"wher":1501,"uthor":1502,"ĠandĠm":1503,"Ġtechnolog":1504,"ecur":1505,"giveĠ":1506,".ĠifĠyou":1507,"law":1508,"sĠcan":1509,"aster":1510,"Ġstat":1511,"ĠbutĠ":1512,"ĠmoreĠ":1513,"dat":1514,"leĠof":1515,"Ġair":1516,"esĠthatĠ":1517,"ividual":1518,"bal":1519,"tyĠ":1520,"ĠandĠf":1521,"Ġpre":1522,"ĠwhoĠ":1523,"rain":1524,",âĢĿ":1525,"Ġbl":1526,"no":1527,"enef":1528,"fectĠ":1529,"Ġfl":1530,"eĠan":1531,"Ġschool":1532,"Ġpar":1533,"25":1534,"unch":1535,"orldĠ":1536,"Ġask":1537,"n'tĠ":1538,"ide":1539,"becom":1540,"organ":1541,"sĠofĠtheĠ":1542,"Ġprovid":1543,"struct":1544,"proc":1545,"perform":1546,"roll":1547,"14":1548,"oryĠ":1549,"Ġsystem":1550,"iousĠ":1551,"reak":1552,"oos":1553,"Ġneed":1554,".ĠthereĠ":1555,"16":1556,"es,":1557,"ster":1558,"ĠandĠp":1559,"never":1560,"aut":1561,"prov":1562,"lim":1563,"e?":1564,"gether":1565,"Ġpres":1566,"Ġbec":1567,"eĠthisĠ":1568,"option":1569,"ĠandĠc":1570,"eĠsom":1571,"âĢĻll":1572,"theĠ":1573,"aĠ":1574,"alsoĠ":1575,"Ġcommun":1576,"ĠtheyĠareĠ":1577,"Ġalong":1578,"Ġdown":1579,"unction":1580,"viron":1581,"product":1582,"Ġeach":1583,"valu":1584,"ated":1585,"load":1586,"joy":1587,"Ġactiv":1588,"ingĠthatĠ":1589,"rad":1590,"ulation":1591,"âĢĻsĠa":1592,"Ġprogram":1593,"rece":1594,"portun":1595,"both":1596,"Ġsal":1597,"order":1598,"âĢĻm":1599,"on-":1600,"chi":1601,"esĠwith":1602,"ĠaĠt":1603,"omen":1604,"group":1605,"list":1606,"ck":1607,"ioĠ":1608,"him":1609,"imag":1610,"elow":1611,"Ġameric":1612,"level":1613,".Ġfor":1614,"information":1615,"irm":1616,"gam":1617,"disc":1618,"yĠs":1619,"y.":1620,"Ġexperienc":1621,"entsĠ":1622,"ingĠw":1623,"efin":1624,"ientĠ":1625,"ason":1626,"rib":1627,".,":1628,"pris":1629,"bin":1630,"everal":1631,"avor":1632,"ĠandĠh":1633,"Ġsit":1634,",ĠitĠ":1635,"ĠtoĠm":1636,"raw":1637,"continu":1638,"ateg":1639,"Ġstr":1640,"yl":1641,"put":1642,"e:":1643,"uman":1644,"question":1645,"Ġco":1646,"writ":1647,"ajor":1648,"ĠshouldĠ":1649,"eĠtim":1650,"iful":1651,"enn":1652,"energ":1653,"ĠtheĠsam":1654,"ing.":1655,"mentĠof":1656,"ingĠt":1657,"ification":1658,"usiness":1659,"eĠ(":1660,"Ġinformation":1661,"nal":1662,"eĠofĠ":1663,"firstĠ":1664,"dr":1665,"lex":1666,"icip":1667,"conf":1668,"amilyĠ":1669,"univers":1670,"cent":1671,"ĠcouldĠ":1672,"ental":1673,"grad":1674,"grow":1675,"Ġcons":1676,"jectĠ":1677,"sĠthat":1678,"acter":1679,"conn":1680,"vest":1681,"i-":1682,"iredĠ":1683,"ĠandĠt":1684,"oto":1685,"ng":1686,"Ġhealth":1687,"24":1688,"oh":1689,"likeĠ":1690,"edĠfrom":1691,"aff":1692,"onc":1693,"research":1694,"cr":1695,"ityĠtoĠ":1696,"findĠ":1697,"Ġthing":1698,"Ġhas":1699,"Ġthere":1700,"ĠtheĠfirstĠ":1701,"river":1702,"oot":1703,"alleng":1704,"email":1705,"econom":1706,"ed.":1707,"imat":1708,"apt":1709,"esĠon":1710,"mar":1711,"prot":1712,"17":1713,"post":1714,"Ġeng":1715,"eliver":1716,"istic":1717,"icular":1718,"Ġback":1719,"ĠaĠfew":1720,"beĠa":1721,"Ġaut":1722,"suchĠasĠ":1723,"step":1724,"ĠtheĠch":1725,"ildĠ":1726,"Ġwhat":1727,"alf":1728,"couldĠ":1729,"ĠavailableĠ":1730,"ech":1731,"ledg":1732,"iec":1733,"sub":1734,"count":1735,"ina":1736,"ĠhadĠ":1737,"nes":1738,"liv":1739,"road":1740,"cur":1741,"mark":1742,"umberĠof":1743,"goodĠ":1744,"hear":1745,"13":1746,"Ġstor":1747,"lat":1748,"ĠaĠv":1749,"everyth":1750,"version":1751,"earlyĠ":1752,"someth":1753,",Ġwith":1754,"ibil":1755,"Ġby":1756,"Ġtoday":1757,"Ġel":1758,"Ġfil":1759,"Ġplay":1760,"problem":1761,"Ġbas":1762,"ention":1763,"pri":1764,"Ġapplication":1765,",Ġin":1766,"Ġsub":1767,"sĠab":1768,"ĠandĠw":1769,"ingĠup":1770,"ĠtoĠf":1771,"Ġtrav":1772,"ĠanĠex":1773,"who":1774,"'m":1775,"hand":1776,"Ġarea":1777,"someĠ":1778,"Ġaccess":1779,"readyĠ":1780,"vari":1781,"oveĠ":1782,"heĠ":1783,"ouch":1784,"ĠthatĠyou":1785,"ideĠ":1786,".com":1787,"esĠtheĠ":1788,"link":1789,"mal":1790,"ww":1791,"ordĠ":1792,"ĠtheĠworld":1793,"ostĠof":1794,"ftĠ":1795,"Ġdevelop":1796,"ĠanĠin":1797,"expl":1798,"vide":1799,"ĠmanyĠ":1800,"unn":1801,"shop":1802,"'veĠ":1803,"itiveĠ":1804,"Ġrequ":1805,"Ġmar":1806,"erc":1807,"onder":1808,"urther":1809,"tt":1810,"Ġ&":1811,"ilyĠ":1812,"Ġcompan":1813,"uccess":1814,"edĠup":1815,"ither":1816,"sĠw":1817,"âĢĻreĠ":1818,"org":1819,"Ġproduct":1820,"ĠifĠyou":1821,"indow":1822,"obil":1823,"ross":1824,"icleĠ":1825,"larg":1826,"ĠaĠnew":1827,"edĠd":1828,"Ġget":1829,"bab":1830,"Ġaround":1831,"s:":1832,"struction":1833,"letĠ":1834,"ĠtoĠd":1835,"s.Ġi":1836,"job":1837,"eĠmor":1838,"ipp":1839,"rew":1840,"Ġmonth":1841,"urchas":1842,"199":1843,"local":1844,",Ġn":1845,"hol":1846,"ingĠfrom":1847,"oss":1848,"whenĠyou":1849,"Ġaccord":1850,"sĠp":1851,"lastĠ":1852,"needĠtoĠ":1853,"hous":1854,"atural":1855,"resh":1856,"ield":1857,"education":1858,"result":1859,"'ll":1860,"ultĠ":1861,"ural":1862,"vert":1863,"-s":1864,"Ġvi":1865,"uter":1866,"less":1867,"Ġcr":1868,"idenc":1869,"eĠtheĠs":1870,"Ġsur":1871,"Ġreal":1872,"Ġhour":1873,"Ġnow":1874,"ĠtoĠmak":1875,"it'sĠ":1876,"ountĠ":1877,"edĠc":1878,"beg":1879,"Ġplan":1880,"ĠtheĠtim":1881,"ĠandĠi":1882,"econdĠ":1883,"ength":1884,"ĠneedĠtoĠ":1885,"Ġfac":1886,"ecific":1887,"door":1888,"tr":1889,"edĠf":1890,"lov":1891,"willĠb":1892,"eveĠ":1893,"Ġz":1894,"goingĠtoĠ":1895,"Ġexam":1896,"had":1897,",Ġbut":1898,"Ġcount":1899,"Ġwhil":1900,"ĠonĠtheĠ":1901,"Ġteach":1902,"atic":1903,"ĠtoĠbeĠ":1904,"ĠgetĠ":1905,"eful":1906,"ors":1907,"sm":1908,"respons":1909,"odyĠ":1910,"pleas":1911,"edĠp":1912,"âĢĻr":1913,"vironment":1914,"evic":1915,"ĠwantĠtoĠ":1916,"Ġbefor":1917,"reason":1918,"Ġboth":1919,"Ġqual":1920,"Ġshow":1921,"landĠ":1922,"sĠhaveĠ":1923,"aracter":1924,"entĠof":1925,"eĠsur":1926,"Ġanal":1927,"ancial":1928,"sĠatĠ":1929,"direct":1930,"Ġser":1931,"ĠthatĠtheĠ":1932,"eĠtheir":1933,"pair":1934,"Ġoffer":1935,"Ġminut":1936,"Ġso":1937,"mean":1938,"greatĠ":1939,"plat":1940,"ument":1941,"yn":1942,"Ġweek":1943,".Ġif":1944,"ĠtoĠp":1945,"Ġtell":1946,"ired":1947,"Ġrem":1948,"Ġeven":1949,".Ġsh":1950,"Ġcomple":1951,"opportun":1952,"increas":1953,"known":1954,"though":1955,"Ġtalk":1956,"Ġoff":1957,"ecess":1958,"expect":1959,"-f":1960,"les":1961,"onlin":1962,"add":1963,"Ġcreat":1964,"s!":1965,"olit":1966,"rest":1967,"eĠit":1968,"ĠandĠb":1969,"beaut":1970,"edĠthatĠ":1971,"whyĠ":1972,"40":1973,"seem":1974,"only":1975,"until":1976,"forĠtheĠ":1977,"Ġhad":1978,"ĠthatĠisĠ":1979,"into":1980,"far":1981,"gen":1982,"Ġproc":1983,"isĠtheĠ":1984,"water":1985,"ensiveĠ":1986,"astic":1987,"Ġvis":1988,"ingĠyou":1989,"achin":1990,"control":1991,"good":1992,"loveĠ":1993,"isĠa":1994,"report":1995,"sĠwereĠ":1996,"ĠallĠof":1997,"oor":1998,"Ġdata":1999,"sĠisĠ":2000,"ĠaroundĠ":2001,"importantĠ":2002,"Ġmillion":2003,"ai":2004,"ĠtooĠ":2005,"quick":2006,"eetĠ":2007,"val":2008,"ĠnoĠ":2009,"bleĠ":2010,"reach":2011,"feel":2012,"idea":2013,"hon":2014,"sign":2015,"Ġwebsit":2016,"Ġcor":2017,"ingleĠ":2018,"dern":2019,"gett":2020,"idd":2021,"Ġhand":2022,"urs":2023,"curr":2024,"Ġway":2025,".Ġa":2026,"review":2027,"eĠtheyĠ":2028,"Ġcas":2029,"ait":2030,"etim":2031,"user":2032,"Ġform":2033,"Ġtreat":2034,"Ġchang":2035,"eĠn":2036,"a.Ġ":2037,",Ġj":2038,"Ġtest":2039,"Ġwater":2040,"osp":2041,"support":2042,"u.":2043,"aper":2044,"follow":2045,"eadĠ":2046,"Ġtravel":2047,"esĠfrom":2048,"happen":2049,"Ġret":2050,"lot":2051,"es.ĠtheĠ":2052,"otel":2053,"fter":2054,"Ġorgan":2055,"âĢĻt":2056,"partĠof":2057,"star":2058,"sol":2059,"sĠinĠtheĠ":2060,"econd":2061,"student":2062,"ogn":2063,"rac":2064,"ativ":2065,"Ġwant":2066,"Ġfeel":2067,"spir":2068,"enough":2069,"eople":2070,"Ġstart":2071,"win":2072,"Ġtogether":2073,"Ġgam":2074,"Ġtry":2075,"click":2076,"augh":2077,"either":2078,"Ġbook":2079,"ublish":2080,"Ġamaz":2081,"ift":2082,"Ġterm":2083,"icat":2084,"Ġinto":2085,"Ġtru":2086,"abor":2087,"ĠasĠwellĠasĠ":2088,"ror":2089,"Ġaccount":2090,"60":2091,"Ġ$":2092,"seeĠ":2093,"vol":2094,"Ġmanag":2095,"websit":2096,"ointĠ":2097,"say":2098,"Ġant":2099,"Ġoffic":2100,"coll":2101,"ĠtheĠsp":2102,"ĠbusinessĠ":2103,"lean":2104,"umer":2105,"Ġlevel":2106,"opular":2107,"Ġcent":2108,"actor":2109,"stop":2110,"sw":2111,"Ġinclud":2112,"eĠtr":2113,"eatĠ":2114,".ĠâĢľ":2115,"ĠalwaysĠ":2116,"loor":2117,"eĠup":2118,"ination":2119,"erg":2120,"Ġbo":2121,"ĠloveĠ":2122,"head":2123,"Ġmember":2124,"ers,Ġ":2125,",\"":2126,"riveĠ":2127,"doesĠ":2128,"imil":2129,"Ġlead":2130,"eral":2131,"'s":2132,"forc":2133,"uation":2134,"youĠwill":2135,"whether":2136,"impleĠ":2137,"loadĠ":2138,"ĠhaveĠa":2139,"ĠasĠtheĠ":2140,"europ":2141,"emberĠ":2142,"ify":2143,"ector":2144,"uff":2145,"ond":2146,"offic":2147,"Ġtool":2148,"lation":2149,"health":2150,"angu":2151,"canĠb":2152,"enjoy":2153,"sĠat":2154,"does":2155,"reduc":2156,"pay":2157,"withĠtheĠ":2158,"eĠch":2159,"Ġagre":2160,"ingĠisĠ":2161,"hereĠ":2162,"Ġbut":2163,"ently":2164,"esĠand":2165,"irl":2166,"system":2167,"een":2168,"sĠasĠ":2169,"woĠ":2170,".ĠbutĠ":2171,"Ġdep":2172,"Ġint":2173,"find":2174,"Ġcours":2175,"etc":2176,"eĠtheĠb":2177,".Ġ\"":2178,"irc":2179,"eĠwork":2180,"ĠthisĠisĠ":2181,"ension":2182,"sk":2183,"Ġchildren":2184,"Ġonlin":2185,"got":2186,"Ġhim":2187,"Ġliv":2188,"Ġlong":2189,"ortĠ":2190,"eĠtheĠf":2191,"Ġx":2192,"orig":2193,"ĠforĠtheĠ":2194,"ez":2195,"aur":2196,"pleaseĠ":2197,"yleĠ":2198,"given":2199,"Ġread":2200,"eĠthem":2201,"Ġdr":2202,"otential":2203,"ĠthereĠar":2204,"s?":2205,"sĠlik":2206,"atient":2207,"feat":2208,"mission":2209,"aboutĠ":2210,"Ġcall":2211,"compl":2212,"playĠ":2213,"selv":2214,"imilar":2215,"ummer":2216,"recomm":2217,"itchen":2218,"moreĠthan":2219,"ung":2220,"ival":2221,"eĠwas":2222,"eĠinĠtheĠ":2223,"imal":2224,"project":2225,"sĠac":2226,"onĠ":2227,"ĠgreatĠ":2228,"uredĠ":2229,".ĠtheyĠ":2230,"ĠgoodĠ":2231,"clos":2232,"professional":2233,"ible":2234,".m":2235,"interest":2236,"edd":2237,"iesĠof":2238,"yĠin":2239,"emb":2240,"Ġtrack":2241,"ucc":2242,"eĠtheĠm":2243,"Ġconc":2244,"netĠ":2245,"forĠ":2246,"ĠyouĠcan":2247,"itĠis":2248,"iffic":2249,"special":2250,"Ġgroup":2251,"etermin":2252,"Ġgener":2253,"nor":2254,"Ġpersonal":2255,"Ġtem":2256,"inat":2257,"personal":2258,"indust":2259,"er,Ġ":2260,"Ġsuch":2261,"weĠhaveĠ":2262,"Ġpric":2263,"practic":2264,"endĠof":2265,"!Ġi":2266,"aim":2267,"wr":2268,"romot":2269,"serv":2270,"releas":2271,"process":2272,"friend":2273,"great":2274,"edĠinĠtheĠ":2275,"employe":2276,"Ġwell":2277,"rep":2278,"ness":2279,"companyĠ":2280,"ĠtimeĠ":2281,"ĠtheĠtop":2282,"22":2283,"ufact":2284,"establ":2285,"establish":2286,"implyĠ":2287,"itĠwasĠ":2288,"s)":2289,"acc":2290,"fr":2291,"understand":2292,"exam":2293,".Ġour":2294,"sinc":2295,"Ġeas":2296,"choos":2297,"power":2298,"Ġtour":2299,"eĠbyĠ":2300,"set":2301,"return":2302,"ĠwereĠ":2303,"ireĠ":2304,"lobal":2305,"uccessful":2306,"ux":2307,"wantĠtoĠ":2308,"Ġcoll":2309,"ched":2310,"Ġmad":2311,"Ġtow":2312,"invest":2313,"met":2314,"donâĢĻtĠ":2315,"y,":2316,"Ġcam":2317,"possibleĠ":2318,"creas":2319,"want":2320,"readĠ":2321,"ĠonlyĠ":2322,"whileĠ":2323,"ĠveryĠ":2324,"appl":2325,"edĠbyĠtheĠ":2326,"ĠhasĠbeen":2327,"liveĠ":2328,"tal":2329,"istanc":2330,",ĠsoĠ":2331,"Ġpost":2332,"fromĠtheĠ":2333,"Ġperform":2334,"effic":2335,"igital":2336,"Ġresearch":2337,"ĠthatĠi":2338,"tor":2339,"Ðµ":2340,"ityĠandĠ":2341,"setĠ":2342,"ecut":2343,"Ġmo":2344,"ouslyĠ":2345,"assĠ":2346,"Ġalthough":2347,"Ġbetween":2348,"ĠtakeĠ":2349,"lear":2350,"ĠwithĠtheĠ":2351,"eĠinter":2352,"eciallyĠ":2353,"urpos":2354,"ingĠthem":2355,"prof":2356,"ĠaĠr":2357,"Ġlearn":2358,"ession":2359,"Ġtri":2360,"buil":2361,"willĠbeĠ":2362,"o-":2363,"Ġsign":2364,"edĠasĠ":2365,"roduc":2366,"ĠthereĠisĠ":2367,"sal":2368,"iter":2369,"elf":2370,"Ġmarket":2371,"older":2372,"23":2373,"equip":2374,"Ġproject":2375,"Ġlaw":2376,"Ġstand":2377,"arden":2378,"contain":2379,"rown":2380,"ĠaĠgreatĠ":2381,"Ð¾":2382,"Ġfind":2383,"ing,":2384,"Ġbecaus":2385,"cam":2386,"my":2387,"gleĠ":2388,"Ġproblem":2389,"ĠhaveĠtoĠ":2390,"ĠdonâĢĻtĠ":2391,"eadĠof":2392,"ĠdifferentĠ":2393,"afet":2394,"ebook":2395,"plement":2396,".âĢĿ":2397,"bur":2398,"e'sĠ":2399,"Ġvari":2400,"Ġlin":2401,"sĠofĠ":2402,"outĠtheĠ":2403,"bor":2404,".Ġn":2405,"atesĠ":2406,".Ġwhen":2407,",Ġg":2408,"eptĠ":2409,"bon":2410,"standĠ":2411,"ĠthankĠyou":2412,"arter":2413,"shar":2414,"ocus":2415,"eath":2416,"contactĠ":2417,"data":2418,"condition":2419,"inner":2420,".Ġt":2421,"agu":2422,"ĠwillĠb":2423,"ĠoutĠ":2424,"ess.Ġ":2425,"Ġsm":2426,"eĠtheĠc":2427,"ĠtoĠyour":2428,"canĠbeĠ":2429,"beautiful":2430,"ethod":2431,"visit":2432,"install":2433,"irement":2434,"join":2435,"compet":2436,"class":2437,"especiallyĠ":2438,"Ġanyth":2439,"Ġmuch":2440,"ĠareĠs":2441,"erĠ":2442,"Ġcli":2443,".ĠandĠ":2444,"Ġamerican":2445,"isc":2446,"eĠdo":2447,"eption":2448,"Ġarch":2449,"-d":2450,"Ġtook":2451,"haveĠtoĠ":2452,"age.Ġ":2453,"ĠthisĠp":2454,"gain":2455,"full":2456,"ers":2457,"knowledg":2458,"yĠm":2459,"aintain":2460,"elcom":2461,"Ġhous":2462,"izedĠ":2463,"Ġob":2464,"Ġcustomer":2465,"important":2466,"Ġext":2467,"eleb":2468,"Ġaction":2469,"edĠinĠ":2470,"bar":2471,"school":2472,"ender":2473,"perfectĠ":2474,"buy":2475,"ally,Ġ":2476,"Ġapproach":2477,"21":2478,"Ġfeat":2479,"propert":2480,"ĠforĠ":2481,"eĠwouldĠ":2482,"lookingĠfor":2483,".Ġwith":2484,"eĠst":2485,"Ġamong":2486,"ĠaĠsp":2487,"bestĠ":2488,"leastĠ":2489,"-in":2490,"80":2491,"lic":2492,"pass":2493,"Ã©":2494,"Ġappear":2495,"Ġpropert":2496,"spect":2497,"es,ĠandĠ":2498,"christ":2499,"Ġjust":2500,"Ġauthor":2501,"Ġmil":2502,"lesĠ":2503,"emon":2504,"ingĠtheir":2505,"Ġdid":2506,"remain":2507,"term":2508,"clus":2509,"charg":2510,"irdĠ":2511,"Ġhop":2512,"ers.Ġ":2513,"Ġtax":2514,"itĠof":2515,".Ġl":2516,"Ġprofessional":2517,"nic":2518,"ription":2519,"Ġleg":2520,"month":2521,"Ġyork":2522,"position":2523,"Ġfamil":2524,"ĠtheĠtr":2525,"minist":2526,"Ġexc":2527,"aĠs":2528,"ity,Ġ":2529,"Ġpower":2530,"Ġwrit":2531,"anceĠof":2532,"rok":2533,"Ġview":2534,",ĠasĠ":2535,"eam":2536,"ball":2537,"Ġbuild":2538,"flu":2539,"osition":2540,"rais":2541,"ford":2542,"ageĠof":2543,"du":2544,"rev":2545,"Ġissu":2546,"risk":2547,"effort":2548,"Ġoc":2549,"mov":2550,"item":2551,"ĠaĠlittleĠ":2552,"clear":2553,"Ġaud":2554,"Ġcap":2555,"ĠwhereĠ":2556,"itten":2557,"ensur":2558,"den":2559,"sor":2560,"imm":2561,"impl":2562,"ĠreallyĠ":2563,"big":2564,"Ġhear":2565,"ĠactuallyĠ":2566,"wid":2567,"leĠtoĠ":2568,"egre":2569,"ingĠitĠ":2570,"ooth":2571,"Ġcal":2572,"empt":2573,"ifferent":2574,"tern":2575,"epend":2576,"eason":2577,"dom":2578,".ĠasĠ":2579,"yĠf":2580,"startĠ":2581,"bit":2582,"odĠ":2583,"receiv":2584,"Ġtoo":2585,"eĠman":2586,"enu":2587,"itional":2588,"ĠfindĠ":2589,"bi":2590,"ocument":2591,"edĠatĠ":2592,"ity.Ġ":2593,"pt":2594,"sĠinclud":2595,"emor":2596,"Ġachi":2597,"Ġmy":2598,"ĠthisĠis":2599,"Ġsw":2600,"often":2601,"Ġlocal":2602,"hop":2603,"Ġrece":2604,"rock":2605,"rectĠ":2606,"ĠintoĠ":2607,"unitedĠ":2608,"s>Ġ<s>Ġ":2609,"raft":2610,"claim":2611,"cred":2612,"eĠinformation":2613,"itation":2614,"umb":2615,"ester":2616,"gar":2617,"ingĠor":2618,"uresĠ":2619,"whol":2620,"areer":2621,"cap":2622,".ĠyouĠcan":2623,"identĠ":2624,"whit":2625,"goal":2626,"s,Ġand":2627,"ounter":2628,"fill":2629,"'t":2630,"util":2631,"tĠofĠtheĠ":2632,"Ġsay":2633,"beĠs":2634,"els":2635,"'sĠa":2636,"ird":2637,"iction":2638,"e)":2639,"ĠtheĠcount":2640,"ĠaĠst":2641,"ins":2642,"ston":2643,"Ġent":2644,"color":2645,"tain":2646,"indĠ":2647,"ĠallĠtheĠ":2648,"deal":2649,"'reĠ":2650,"ĠthereĠareĠ":2651,"eav":2652,"strong":2653,"member":2654,"Ġfr":2655,"Ġprot":2656,"ĠmoreĠthan":2657,"hn":2658,"number":2659,"children":2660,"epar":2661,"-p":2662,"\".":2663,"Ġsmall":2664,"etwork":2665,"lish":2666,"reet":2667,"Ġcondition":2668,"environment":2669,"Ġspecial":2670,"Ġcomplet":2671,"putĠ":2672,"wardĠ":2673,"ulat":2674,"Ġstill":2675,"rettyĠ":2676,"ĠitĠisĠ":2677,"Ġfriend":2678,"eĠtheĠd":2679,"ecurityĠ":2680,"strateg":2681,"basedĠon":2682,"nov":2683,"stit":2684,"Ġans":2685,"ĠmustĠ":2686,"lightĠ":2687,"better":2688,"ersĠandĠ":2689,"some":2690,"sĠwhoĠ":2691,"ĠtoĠc":2692,".Ġj":2693,"esĠto":2694,"ĠmightĠ":2695,"encyĠ":2696,"Ġspac":2697,"dist":2698,"urrentĠ":2699,".Ġit":2700,"etyĠof":2701,"weĠareĠ":2702,"ĠwillĠbeĠ":2703,"Ġquestion":2704,"Ġmedia":2705,"ĠfirstĠ":2706,"Ġjob":2707,"-t":2708,"hib":2709,"ington":2710,",Ġthen":2711,"27":2712,"imum":2713,"sheĠ":2714,"found":2715,"yd":2716,"ipleĠ":2717,"Ġthought":2718,"intoĠ":2719,"watch":2720,"represent":2721,"ountĠof":2722,"Ġadvanc":2723,"most":2724,"ingĠit":2725,"ge":2726,"littleĠ":2727,"economic":2728,"guid":2729,"pril":2730,"regard":2731,"govern":2732,"eĠasĠ":2733,"sĠis":2734,"Ġopen":2735,"ifferenc":2736,"adv":2737,"quit":2738,"hard":2739,"ingĠthisĠ":2740,"speak":2741,"Ġmark":2742,"between":2743,"agesĠ":2744,"beli":2745,"ground":2746,"Ġstudent":2747,"effectiveĠ":2748,"26":2749,"Ġright":2750,"prim":2751,"encour":2752,",ĠtheyĠ":2753,"oon":2754,"rection":2755,"ĠaĠgoodĠ":2756,"Ġdist":2757,"e,ĠbutĠ":2758,".Ġafter":2759,"improv":2760,"spac":2761,"olid":2762,"198":2763,"wis":2764,"ugg":2765,"word":2766,"Ġmet":2767,"ĠalreadyĠ":2768,"s.Ġin":2769,"qualityĠ":2770,"agn":2771,"ĠofĠs":2772,"earn":2773,"Ġprocess":2774,"ĠaĠch":2775,"matter":2776,"....":2777,"igation":2778,"eĠtheĠp":2779,"enefit":2780,"Ġanswer":2781,"chem":2782,"key":2783,"rather":2784,"ĠthingsĠ":2785,"eventĠ":2786,"Ġindividual":2787,"recommend":2788,"yĠfor":2789,"ĠdidĠ":2790,"Ġ...":2791,"market":2792,"ĠmostĠ":2793,"ĠaĠlotĠof":2794,"ĠtheĠsameĠ":2795,"youĠareĠ":2796,"likeĠtoĠ":2797,"phon":2798,"aĠb":2799,"urb":2800,"eĠtak":2801,"til":2802,"Ġinvest":2803,"del":2804,"eĠtoĠtheĠ":2805,"ĠaddĠ":2806,"//":2807,"yĠc":2808,"network":2809,".Ġall":2810,"challeng":2811,"ĠthatâĢĻsĠ":2812,"Ġcontinu":2813,"Ġgovern":2814,"location":2815,"Ġmean":2816,"adem":2817,"near":2818,"Ġunivers":2819,"dur":2820,"ually":2821,"edĠof":2822,"differentĠ":2823,"ivelyĠ":2824,"mightĠ":2825,"eĠoffer":2826,"Ġpay":2827,"Ġfull":2828,"ref":2829,"olar":2830,"finish":2831,"anch":2832,"Ġindust":2833,"s.ĠthisĠ":2834,"ondon":2835,"Ġexample":2836,"ifficult":2837,"sl":2838,"Ġhav":2839,"famil":2840,"iou":2841,"Ġbetter":2842,"vision":2843,"sĠus":2844,"bablyĠ":2845,"ingĠand":2846,"âĢĻdĠ":2847,"tĠin":2848,"ocusĠ":2849,"Ġhistor":2850,"sâĢĻ":2851,"ĠthereĠis":2852,"ĠtakeĠa":2853,"Ġadditional":2854,"later":2855,",ĠthisĠ":2856,"box":2857,"anĠ":2858,"Ġconf":2859,"Ð°":2860,"yĠisĠ":2861,"season":2862,"sy":2863,"letter":2864,"paper":2865,"john":2866,"eek":2867,"ineer":2868,"irth":2869,"Ġvalu":2870,"Ġconn":2871,"exist":2872,"Ġsaid":2873,"ingĠour":2874,"ies,Ġ":2875,"Ġsid":2876,"emerg":2877,"esĠ(":2878,"elt":2879,"plann":2880,".Ġ(":2881,"ieldĠ":2882,"sĠaboutĠ":2883,"ee":2884,"pack":2885,"record":2886,"Ġautom":2887,"Ġpark":2888,"explor":2889,"Ġreview":2890,"u.s.Ġ":2891,"seen":2892,"rot":2893,"ess,Ġ":2894,"Ġcover":2895,"card":2896,"worth":2897,"necess":2898,"common":2899,"night":2900,"Ġoper":2901,"individual":2902,"kid":2903,"election":2904,"--":2905,".Ġon":2906,"Ġnam":2907,"defin":2908,"Ġtre":2909,"ellow":2910,"eĠwereĠ":2911,"ma":2912,"esĠyou":2913,"90":2914,"jour":2915,"oftw":2916,"doĠnotĠ":2917,"500":2918,"print":2919,"irt":2920,"ĠusĠ":2921,"small":2922,"oud":2923,"relation":2924,"'r":2925,"Ġbusiness":2926,"oph":2927,"ĠtheĠsc":2928,"sĠh":2929,"yĠb":2930,"ribution":2931,"escrib":2932,"yc":2933,"Ġlarg":2934,"Ġpublic":2935,"connect":2936,"-c":2937,"Ġest":2938,"Ġpass":2939,"useĠof":2940,".ĠitĠisĠ":2941,"gg":2942,"amag":2943,"ĠoneĠof":2944,"comfort":2945,"sell":2946,"ĠtoĠgetĠ":2947,"essential":2948,"nessĠ":2949,"rich":2950,"Ġgl":2951,"ĠsomeĠ":2952,"-m":2953,"ison":2954,"eaut":2955,"Ġcolor":2956,".ĠsoĠ":2957,",Ġl":2958,"ada":2959,"ronic":2960,"eĠatĠ":2961,"ultipleĠ":2962,"28":2963,"uit":2964,"sĠbyĠ":2965,"resourc":2966,"onderful":2967,"fall":2968,"kindĠof":2969,"uniqu":2970,"ĠlittleĠ":2971,"owner":2972,"clean":2973,".Ġhowever":2974,"ĠaĠveryĠ":2975,"ĠtoĠus":2976,"âĢĿ.":2977,"ysical":2978,"ufactur":2979,"weĠcan":2980,"east":2981,"didĠ":2982,"utt":2983,"everyon":2984,"earth":2985,"black":2986,"35":2987,"atedĠin":2988,"ĠandĠthen":2989,"eĠhow":2990,"legal":2991,".Ġg":2992,"Ġmov":2993,"ĠableĠtoĠ":2994,"soon":2995,"iod":2996,"oment":2997,"artment":2998,"ingĠatĠ":2999,"committ":3000,"pond":3001,"original":3002,"ospital":3003,"elin":3004,"walk":3005,"groundĠ":3006,"outsid":3007,"ttp":3008,"Ġhapp":3009,"supportĠ":3010,"ustral":3011,"inĠs":3012,"ĠtheĠfirst":3013,"whenĠi":3014,"Ġannounc":3015,"point":3016,"esĠor":3017,"paign":3018,"me":3019,"ĠeveryĠ":3020,"Ġbar":3021,"caus":3022,"Ġtrip":3023,"recogn":3024,"Ġshop":3025,"rivat":3026,"na":3027,"era":3028,"iam":3029,"international":3030,"eur":3031,"ham":3032,"ideal":3033,"har":3034,"Ġkeep":3035,"Ġdisc":3036,"etic":3037,"Ġdon'tĠ":3038,"fun":3039,"lev":3040,"Ġlov":3041,"eĠsoĠ":3042,"ĠalongĠwith":3043,"videoĠ":3044,"icle":3045,"ĠtoĠhelp":3046,"concern":3047,"oogleĠ":3048,"Ġpag":3049,"ayer":3050,"anguag":3051,"Ġavo":3052,"did":3053,"again":3054,"e,Ġi":3055,"sometim":3056,"70":3057,"Ġtouch":3058,"remember":3059,"Ġpoint":3060,"ountain":3061,"yâĢĻsĠ":3062,"Ġgrow":3063,"Ġnetwork":3064,")Ġ":3065,"ating":3066,"ĠdayĠ":3067,"rial":3068,"otion":3069,"sequ":3070,"iesĠandĠ":3071,"Ġperc":3072,"main":3073,"eĠhas":3074,"ĠsaidĠ":3075,"usedĠtoĠ":3076,"ed.ĠtheĠ":3077,"Ġvide":3078,"arch":3079,"Ġmusic":3080,"ĠtheĠhigh":3081,"ociet":3082,"Ġloc":3083,"Ġtime.Ġ":3084,"mediat":3085,"Ġpolic":3086,"ideasĠ":3087,"atis":3088,"hair":3089,"combin":3090,"overĠ":3091,"Ġinternational":3092,"volv":3093,"itter":3094,"offe":3095,"break":3096,"hel":3097,"y.ĠtheĠ":3098,"Ġdirect":3099,"may":3100,"impro":3101,"viousĠ":3102,"hold":3103,"mustĠ":3104,"esh":3105,"runn":3106,"Ġevent":3107,"eĠat":3108,"ĠtheĠnextĠ":3109,"Ġsupport":3110,"said":3111,"Ġton":3112,"noth":3113,"ious":3114,",Ġfor":3115,"suit":3116,"replac":3117,"ĠlastĠ":3118,"ãģ":3119,"ĠheĠ":3120,"e.ĠthisĠ":3121,"stant":3122,"fullyĠ":3123,"ouse":3124,"ingĠsom":3125,"Ġmay":3126,"Ġlet":3127,"suranc":3128,"29":3129,"Ġang":3130,"ĠtheĠlastĠ":3131,",ĠwhoĠ":3132,"withoutĠ":3133,"unitedĠstat":3134,"ĠthatĠtheyĠ":3135,"ii":3136,"beĠd":3137,"someĠof":3138,"45":3139,"uleĠ":3140,"Ġimag":3141,"ana":3142,"reli":3143,",ĠyouĠcan":3144,"via":3145,"Ġlist":3146,"haveĠth":3147,"public":3148,"Ġsocial":3149,"Ġnever":3150,"Ġdel":3151,"eĠsaid":3152,"Ġcontrol":3153,"Ġbeg":3154,"nia":3155,"rap":3156,"Ġgiv":3157,"ofĠtheĠ":3158,"nextĠ":3159,"staff":3160,"Ġoption":3161,"istĠof":3162,"ociat":3163,"eĠmon":3164,"electric":3165,"uel":3166,"anel":3167,"ellentĠ":3168,"octor":3169,"ĠcompanyĠ":3170,"iĠhaveĠ":3171,"Ġsinc":3172,"otor":3173,"easyĠtoĠ":3174,"Ġanalys":3175,"leep":3176,"sĠwhich":3177,"edĠor":3178,"yle":3179,"Ġdes":3180,"half":3181,"Ġchrist":3182,"ĠaboutĠtheĠ":3183,"eap":3184,"Ġtown":3185,"projectĠ":3186,"Ġtherefor":3187,"inf":3188,"sĠas":3189,"udg":3190,"Ġinterest":3191,"avorit":3192,"edĠtoĠtheĠ":3193,"being":3194,"verag":3195,"uneĠ":3196,"spec":3197,"ability":3198,".Ġk":3199,"eac":3200,"vailableĠ":3201,"ingĠis":3202,"engag":3203,"eĠcall":3204,"ĠaĠsmall":3205,"Ġmaterial":3206,"otograph":3207,"://":3208,"yt":3209,"Ġfollow":3210,"iff":3211,"jur":3212,"ourt":3213,"ĠgiveĠ":3214,"ca":3215,"ĠthisĠyear":3216,"particular":3217,",ĠweĠ":3218,"ureĠof":3219,"Ġclos":3220,"loth":3221,"first":3222,"operation":3223,"Ġtoward":3224,"ĠisĠtheĠ":3225,".ĠwhatĠ":3226,"itĠwas":3227,"romis":3228,"ĠoneĠ":3229,"sa":3230,"Ġaccept":3231,"Ġattend":3232,"ĠalmostĠ":3233,"Ġcheck":3234,"icket":3235,"Ġplat":3236,"Ġclass":3237,")ĠandĠ":3238,"launch":3239,"ĠaĠlarg":3240,"ociation":3241,"energyĠ":3242,"histor":3243,"Ġmic":3244,"oman":3245,"isk":3246,".ĠthisĠisĠ":3247,"oubleĠ":3248,"ing,ĠandĠ":3249,"ilit":3250,"Ġmind":3251,"cup":3252,"Ġfron":3253,".ĠtoĠ":3254,"Ġcustom":3255,"ines":3256,"ĠtheĠpres":3257,"ĠtheĠph":3258,"ĠtimeĠtoĠ":3259,"neyĠ":3260,"iftĠ":3261,"zz":3262,"Ġtel":3263,"olitical":3264,"ifor":3265,"mit":3266,"esĠs":3267,"Ġafric":3268,"mitt":3269,"meet":3270,"Ġmodel":3271,"extra":3272,"sĠup":3273,"eĠmak":3274,"eveĠth":3275,"ju":3276,",Ġk":3277,"arant":3278,"Ġfew":3279,"iĠam":3280,"Ġ--":3281,"refer":3282,"Ġresult":3283,"attern":3284,"ouncil":3285,"rup":3286,"Ġcred":3287,"edroom":3288,"Ġfact":3289,"ĠfromĠtheĠ":3290,"he":3291,"âĢ¢":3292,"Ġcenter":3293,"lack":3294,"ĠyearsĠ":3295,"born":3296,"y-":3297,"ĠorĠ":3298,"des":3299,"ed,":3300,"repair":3301,"expert":3302,"Ġpractic":3303,"inger":3304,"owl":3305,"joyĠ":3306,"excit":3307,"vertis":3308,"def":3309,"eĠour":3310,"Ġuntil":3311,"197":3312,"wor":3313,"yet":3314,"Ġdetail":3315,"organization":3316,"Ġclient":3317,"Ġwar":3318,"leftĠ":3319,"ingĠtheĠs":3320,"usuallyĠ":3321,"iar":3322,"ĠyourĠb":3323,"particip":3324,"-up":3325,"Ġexp":3326,"ĠthroughĠtheĠ":3327,"green":3328,"about":3329,"ancer":3330,"ifiedĠ":3331,"Ġtotal":3332,"anu":3333,"production":3334,"Ġrelation":3335,"Ġcomputer":3336,"annel":3337,"wall":3338,"ing.ĠtheĠ":3339,"essag":3340,"inoĠ":3341,"eĠthrough":3342,"pm":3343,"eĠcar":3344,"roadĠ":3345,"Ġarm":3346,"eĠthereĠ":3347,"discover":3348,"Ġsome":3349,"Ġbeli":3350,"music":3351,"Ġdem":3352,"Ġrespons":3353,"ampleĠ":3354,"sĠinĠ":3355,"ĠtoĠse":3356,"s,ĠbutĠ":3357,"arget":3358,"ifornia":3359,"beingĠ":3360,"Ġrun":3361,"eĠsup":3362,"Ġshar":3363,"ĠtheĠway":3364,"leader":3365,"ance,Ġ":3366,"Ġkn":3367,"fluenc":3368,"nâĢĻt":3369,"eĠback":3370,"athroom":3371,"yĠand":3372,"appro":3373,"e,ĠtheĠ":3374,"dem":3375,"ipl":3376,"choic":3377,"abilityĠ":3378,"limit":3379,"sha":3380,"enior":3381,"youĠhaveĠ":3382,"Ġlight":3383,"blog":3384,"don'tĠ":3385,"updat":3386,"receiveĠ":3387,"Ġtom":3388,"Ġaw":3389,"forĠyou":3390,"rior":3391,"apan":3392,"Ġprof":3393,"super":3394,"Ġcost":3395,"Ġlos":3396,"vention":3397,"edĠher":3398,"s;":3399,"ino":3400,"prilĠ":3401,"sĠâĢĵ":3402,"eĠtheĠt":3403,"Ġrat":3404,"depend":3405,"-bas":3406,"Ġhead":3407,"character":3408,"siz":3409,"tober":3410,"ĠqualityĠ":3411,"Ġtwo":3412,"venu":3413,"ĠdoesĠ":3414,"communityĠ":3415,"Ġtit":3416,"notic":3417,"aĠandĠ":3418,"edĠasĠa":3419,"Ġvol":3420,"ederal":3421,"grat":3422,"ais":3423,"mm":3424,"mic":3425,"regular":3426,"essĠof":3427,"Ġaltern":3428,"kitchen":3429,"eĠmyĠ":3430,"Ġgrad":3431,"beh":3432,"ideas":3433,"thatĠ":3434,"commerc":3435,"productĠ":3436,"cost":3437,"ingĠan":3438,"lower":3439,"plant":3440,"ocol":3441,"?Ġi":3442,"onâĢĻtĠ":3443,"urround":3444,"ĠatĠleastĠ":3445,"relationship":3446,"eĠpeopleĠ":3447,"eĠhasĠ":3448,"eĠpart":3449,"Ġaddres":3450,"Ġwomen":3451,"ultural":3452,"gres":3453,"gotĠ":3454,"aĠc":3455,"e,Ġand":3456,"lax":3457,"Ġsearch":3458,"ecaus":3459,"eĠinĠ":3460,"urnit":3461,"ĠagainstĠ":3462,"e;":3463,"ĠtheĠworldĠ":3464,"olf":3465,"ĠaĠlong":3466,"eĠpres":3467,"solution":3468,"eĠall":3469,"leav":3470,"Ġdef":3471,"princ":3472,"young":3473,"Ġdur":3474,"Ġnov":3475,"ĠhereĠ":3476,"register":3477,"Ġwindow":3478,"Ġtaken":3479,"Ġblack":3480,"esĠthat":3481,"required":3482,"sĠtoĠtheĠ":3483,"Ġdeal":3484,"ingĠaboutĠ":3485,"ician":3486,"deliver":3487,"iation":3488,"merc":3489,"cop":3490,"americ":3491,"Ġfour":3492,"eĠmad":3493,"ly,Ġ":3494,"alway":3495,"Ġkid":3496,"weĠd":3497,"ings,Ġ":3498,"Ġbig":3499,"ĠitâĢĻsĠ":3500,"ablyĠ":3501,"longer":3502,".ĠmyĠ":3503,"fromĠ":3504,"pression":3505,"edĠat":3506,"lu":3507,"ingĠst":3508,"ĠarticleĠ":3509,"solut":3510,"ĠtheĠmain":3511,"Ġitem":3512,"ingĠsystem":3513,"earli":3514,"evalu":3515,"eryĠ":3516,"ĠtheĠnew":3517,"wear":3518,"eĠar":3519,"agg":3520,"Ġchoos":3521,"ry.Ġ":3522,"Ġsometh":3523,"begin":3524,"31":3525,".Ġbut":3526,"relat":3527,"alt":3528,"echan":3529,"echn":3530,"Ġgett":3531,"protect":3532,"ry,Ġ":3533,"edĠthat":3534,"ama":3535,"eĠday":3536,"polic":3537,"e.Ġin":3538,"sugg":3539,"havi":3540,"uct":3541,"thern":3542,"Ġacros":3543,"Ġval":3544,"ingĠtoĠtheĠ":3545,"oftĠ":3546,"pick":3547,"eĠhad":3548,"keyĠ":3549,"popular":3550,"itect":3551,"ruit":3552,"www":3553,"Ġword":3554,"Ġskill":3555,"few":3556,"yĠt":3557,"fortun":3558,"ĠorderĠtoĠ":3559,"ĠtryingĠtoĠ":3560,"egg":3561,"ercis":3562,"ĠofĠyour":3563,"eĠbetween":3564,"bum":3565,"woodĠ":3566,"beforeĠ":3567,"Ġassist":3568,"sec":3569,"ĠthoseĠwhoĠ":3570,"idg":3571,"extrem":3572,"businessĠ":3573,"eedĠ":3574,",Ġsh":3575,"ĠartĠ":3576,"ussion":3577,"iĠ":3578,"ingĠsp":3579,"stay":3580,"Ġcompet":3581,"four":3582,"board":3583,"ature":3584,"Ġwalk":3585,"Ġadminist":3586,"Ġstrong":3587,"respond":3588,"Ġtraditional":3589,"fund":3590,"Ġhuman":3591,"eĠcl":3592,"ĠhowĠtoĠ":3593,"Ġscienc":3594,"explain":3595,"yetĠ":3596,"within":3597,"ĠinĠs":3598,"van":3599,"Ġpeople":3600,"remov":3601,"asc":3602,"ĠcanĠb":3603,"ein":3604,"yĠto":3605,"eĠcouldĠ":3606,"Ġgod":3607,"recip":3608,"ĠisĠa":3609,"consist":3610,"oudĠ":3611,"ĠforĠyour":3612,"ies.Ġ":3613,"itud":3614,"Ġjour":3615,"Ġgoal":3616,"edĠand":3617,"inaryĠ":3618,"ĠtheĠfut":3619,"ological":3620,"esĠm":3621,"eĠservic":3622,"da":3623,"ĠawayĠ":3624,"inglyĠ":3625,"ingĠg":3626,"eltĠ":3627,"natural":3628,"duct":3629,"er.Ġ":3630,"Ġpack":3631,"ought":3632,"ailyĠ":3633,"Ġresourc":3634,"flow":3635,"ategor":3636,"fair":3637,"orĠof":3638,"eĠmayĠ":3639,"ĠthreeĠ":3640,"-b":3641,"-year":3642,"certain":3643,"mod":3644,"yĠthatĠ":3645,"Â£":3646,"eĠind":3647,"ottom":3648,"erveĠ":3649,"s,Ġwhich":3650,"Ġadvis":3651,"Ġchoic":3652,"park":3653,"Ġport":3654,"Ġfun":3655,"implement":3656,"Ġattention":3657,"weĠwill":3658,"edĠit":3659,"ees":3660,"ationĠandĠ":3661,".ĠthatĠ":3662,"iĠwasĠ":3663,"andid":3664,"cod":3665,"opt":3666,"doĠyou":3667,"ationsĠ":3668,"Ġnor":3669,"otoĠ":3670,"Ġaward":3671,"Ġmeet":3672,"idential":3673,"moveĠ":3674,"Ġreport":3675,"s>Ġ<s>ĠtheĠ":3676,"sure":3677,"yĠofĠtheĠ":3678,"veĠtheĠ":3679,".Ġand":3680,"ianc":3681,"ĠhaveĠbeen":3682,"involv":3683,"draw":3684,"pag":3685,"itiz":3686,"Ġgood":3687,"blu":3688,"sych":3689,"Ġroom":3690,"Ġcod":3691,"Ġnational":3692,"Ġthemselv":3693,"alm":3694,"ĠbestĠ":3695,"further":3696,"o,Ġ":3697,"ilm":3698,"ĠtheĠcor":3699,"sett":3700,"Ġhar":3701,"anger":3702,"ĠtheirĠown":3703,"s,ĠtheĠ":3704,"eum":3705,"eign":3706,"exact":3707,"english":3708,"Ġreturn":3709,"Ġacadem":3710,"tak":3711,"encourag":3712,"ĠtheĠback":3713,"196":3714,"ificantĠ":3715,"sĠthatĠareĠ":3716,"ograph":3717,"Ġuniqu":3718,"beach":3719,"ĠlotĠof":3720,"Ġtechniqu":3721,"stock":3722,"iceĠ":3723,"scor":3724,"ĠfamilyĠ":3725,"ĠhelpĠyou":3726,"evidenc":3727,"Ġunderstand":3728,"itial":3729,"introduc":3730,"wood":3731,"ĠtodayĠ":3732,"many":3733,"Ġfinancial":3734,"ires":3735,"Ġsk":3736,"ĠwithĠ":3737,"ingĠservic":3738,"select":3739,"eautiful":3740,"leyĠ":3741,"Ġwher":3742,"club":3743,"object":3744,"usb":3745,"Ġcharg":3746,"model":3747,"Ġanimal":3748,"ailable":3749,"whoĠareĠ":3750,"%Ġof":3751,"36":3752,"sourc":3753,"edĠh":3754,"men":3755,"ues":3756,"Ġstep":3757,"notĠonlyĠ":3758,"rob":3759,"region":3760,"vil":3761,"Ġwall":3762,",ĠandĠtheĠ":3763,"Ġla":3764,"Ġcolleg":3765,"Ġfound":3766,"Ġwhit":3767,"ation,Ġ":3768,"ingĠat":3769,"rench":3770,"rant":3771,"forĠyour":3772,"edĠout":3773,"variousĠ":3774,"ustain":3775,"99":3776,"Ġten":3777,"stream":3778,"eĠtheĠw":3779,"ectionĠof":3780,"hanc":3781,"ingĠout":3782,"e,Ġwhich":3783,"ebru":3784,"Ġuser":3785,"eĠshouldĠ":3786,"abin":3787,"quot":3788,"Ġ'":3789,"estern":3790,"to-":3791,"non-":3792,"forĠm":3793,"weĠar":3794,"Ġorganization":3795,"Ġposs":3796,"optim":3797,"platform":3798,"www.":3799,"inĠyour":3800,"estival":3801,".ĠiĠam":3802,"Ġguid":3803,"32":3804,"itelyĠ":3805,"Ġclean":3806,"sĠago":3807,"rout":3808,"ifyĠ":3809,"Ġattack":3810,"ĠaĠhigh":3811,"ĠaccordingĠtoĠ":3812,"ycl":3813,"Ġaug":3814,"Ġseveral":3815,"ootĠ":3816,"obtain":3817,"Ġtext":3818,"useĠ":3819,"european":3820,"eil":3821,"oftwar":3822,"uat":3823,"steel":3824,"bey":3825,"overall":3826,"Ġinstall":3827,"function":3828,"gress":3829,"Ġmus":3830,",ĠtoĠ":3831,"comment":3832,"lam":3833,"Ġfut":3834,"unk":3835,"host":3836,"publish":3837,"Ġever":3838,"Ġsiz":3839,"ashion":3840,"Ġinstit":3841,"icon":3842,"inte":3843,"Ġtopic":3844,"irect":3845,"eĠthes":3846,",ĠthatĠ":3847,"ings.Ġ":3848,"Ġset":3849,"upĠtoĠ":3850,"sĠmayĠ":3851,"Ġbelow":3852,"ĠtheĠmon":3853,"Ġend":3854,"Ġexpl":3855,"computer":3856,"boardĠ":3857,"Ġtrust":3858,"performanc":3859,"Ġgeneral":3860,"Ġtip":3861,",Ġinclud":3862,"Ġpaper":3863,"client":3864,"a.":3865,"Ġannual":3866,"refl":3867,"Ġfund":3868,"umn":3869,"edĠinto":3870,"veh":3871,"ation.Ġ":3872,"execut":3873,"weet":3874,"ĠtheĠlat":3875,"custom":3876,"sĠonĠtheĠ":3877,"erĠandĠ":3878,"âĢĿ,":3879,"contract":3880,"ieĠ":3881,"vot":3882,"ingĠroom":3883,"application":3884,"aurant":3885,"using":3886,"visitĠ":3887,"author":3888,"fix":3889,"ĠtoĠget":3890,"eĠsureĠ":3891,"electronic":3892,"88":3893,"veg":3894,"wait":3895,"yourself":3896,"hour":3897,"raz":3898,"Ġrecord":3899,"beginn":3900,",Ġch":3901,"Ġdat":3902,"Ġnumber":3903,"allow":3904,"Ġconsider":3905,"likeĠa":3906,"during":3907,"estĠof":3908,"eĠdesign":3909,"commod":3910,"imatelyĠ":3911,"'dĠ":3912,"kind":3913,"Ġcop":3914,"utter":3915,"north":3916,"quarter":3917,"last":3918,"ollar":3919,"equipment":3920,"lor":3921,"sĠthrough":3922,"film":3923,"Ġland":3924,"search":3925,"Ġtv":3926,"Ġagainst":3927,"eĠas":3928,"Ġinf":3929,"Ġincreas":3930,"75":3931,"customer":3932,".ĠthisĠis":3933,"emonstr":3934,"ĠsetĠ":3935,"Ġblog":3936,"operat":3937,"ĠâĢĶ":3938,"edĠhisĠ":3939,"beĠin":3940,"left":3941,"sĠafter":3942,"aith":3943,"ingĠnew":3944,"agram":3945,"eĠdown":3946,"ondĠ":3947,"reh":3948,"Ġlim":3949,"Ġtransfer":3950,"miss":3951,"pat":3952,"Ġperformanc":3953,"foundĠ":3954,"roy":3955,"rank":3956,"top":3957,"perhap":3958,"Ġem":3959,"Ġdu":3960,"s,Ġor":3961,"rother":3962,"Ġmod":3963,"Ġnorth":3964,".ĠtheĠs":3965,"ritical":3966,"Ġed":3967,"material":3968,"iment":3969,"Ġchalleng":3970,"iesĠin":3971,"ĠtryĠtoĠ":3972,"ĠthisĠs":3973,"eĠph":3974,"suf":3975,"??":3976,"iĠcan":3977,"y,ĠandĠ":3978,"Ġwin":3979,"Ġcharacter":3980,"ouldnâĢĻtĠ":3981,"general":3982,"probablyĠ":3983,"Ġbecom":3984,"Ġtast":3985,"ĠtheĠday":3986,"Ġcertain":3987,"ingĠher":3988,"olk":3989,"perfect":3990,"ifĠyouĠareĠ":3991,"ĠthoughtĠ":3992,"it.Ġ":3993,"s>Ġ<s>Ġi":3994,"content":3995,"oseĠ":3996,"mention":3997,"error":3998,"stateĠ":3999,"makeĠ":4000,"laim":4001,"Ġapprec":4002,"reetĠ":4003,"iblyĠ":4004,"masĠ":4005,"ofĠcours":4006,"Ġcontain":4007,"ĠoutĠof":4008,"esom":4009,"Ġpat":4010,"ĠtheĠsit":4011,"ĠtheĠbas":4012,"ingĠoutĠ":4013,"vill":4014,"atureĠ":4015,"olor":4016,"eĠthey":4017,"standard":4018,"eem":4019,"fi":4020,"edia":4021,"morn":4022,"requirement":4023,"surv":4024,"ĠxĠ":4025,"ĠyouĠareĠ":4026,"tionĠof":4027,"ĠtheĠcar":4028,"ler":4029,"itĠin":4030,"everyoneĠ":4031,"doesĠnotĠ":4032,"american":4033,"s,Ġs":4034,"Ġwhether":4035,"Ġcombin":4036,"ĠtheĠwayĠ":4037,"Ġeducation":4038,"Ġsolution":4039,"respect":4040,"e,Ġor":4041,"voic":4042,"esĠa":4043,"entir":4044,"provideĠ":4045,"Ġaddress":4046,"ĠandĠa":4047,"eĠdec":4048,"Ġpatient":4049,"leaseĠ":4050,"specific":4051,"mail":4052,"yth":4053,"ĠgoĠ":4054,"world":4055,"ĠtheĠbo":4056,"edic":4057,"Ġbeen":4058,"makesĠ":4059,"entr":4060,"reeĠ":4061,"match":4062,"ilver":4063,"proper":4064,"Ġthous":4065,"lab":4066,"mil":4067,"Ġbillion":4068,"usedĠ":4069,"construction":4070,"oupleĠof":4071,"universityĠof":4072,"erĠin":4073,"ureĠandĠ":4074,"loan":4075,"avour":4076,"Ġartist":4077,"ĠandĠin":4078,"oub":4079,"Ġabil":4080,"arante":4081,"ĠtheĠth":4082,"eĠthis":4083,"Ġreason":4084,"sĠandĠs":4085,"ĠtimesĠ":4086,"fortunat":4087,"Ġattempt":4088,"inion":4089,"ĠtheĠbig":4090,"Ġtherap":4091,"urg":4092,"Ġtime,Ġ":4093,"ĠandĠother":4094,"rateg":4095,"escription":4096,"ynam":4097,"Ġsourc":4098,"whatĠyou":4099,"iet":4100,"godĠ":4101,"-tim":4102,"ially":4103,"plyĠ":4104,"t.Ġ":4105,"eĠhigh":4106,"piec":4107,"Ġsens":4108,"Ġgreat":4109,"ĠareĠyou":4110,"eĠweĠ":4111,"ĠanyoneĠ":4112,"aughter":4113,"empor":4114,"buildĠ":4115,"beĠableĠtoĠ":4116,"suppl":4117,"createĠa":4118,"Ġmain":4119,"Ġno":4120,"familyĠ":4121,"ementĠof":4122,"ĠcommunityĠ":4123,"Ġpurchas":4124,"Ġrang":4125,"ĠtheĠman":4126,"ĠthanksĠfor":4127,"fast":4128,"s-":4129,"chair":4130,"church":4131,"Ġveh":4132,"eâĢĿ":4133,"ĠâĢĺ":4134,"Ġsha":4135,"Ġadvertis":4136,"ras":4137,"Â®":4138,"ingĠthrough":4139,"eĠdis":4140,"complex":4141,"financial":4142,"detail":4143,"quir":4144,"Ġo":4145,"ĠasĠyou":4146,"activ":4147,"elyĠtoĠ":4148,"iron":4149,"former":4150,"engineer":4151,"ridg":4152,".Ġhow":4153,"enceĠ":4154,"ĠtypeĠof":4155,"rea":4156,"Ġju":4157,"Ġonc":4158,"makeĠa":4159,"sĠap":4160,"strength":4161,"rontĠ":4162,"sĠwhen":4163,"Ġworld":4164,"leaveĠ":4165,"Ġmobil":4166,"imateĠ":4167,"impactĠ":4168,"tegr":4169,"tm":4170,"ĠtryĠ":4171,"driv":4172,"ingĠaĠs":4173,"doesnâĢĻtĠ":4174,"human":4175,"intĠ":4176,"ĠtheĠsecondĠ":4177,"Ġtal":4178,"uthent":4179,"Ġpartner":4180,"ĠtoĠhaveĠ":4181,"sĠofĠs":4182,"antastic":4183,"atal":4184,",Ġif":4185,"Ġbank":4186,"ĠtheĠfact":4187,"Ġfunction":4188,"uryĠ":4189,"immediat":4190,"download":4191,".Ġso":4192,"comeĠ":4193,"ured":4194,"Ġdevic":4195,"video":4196,"beĠp":4197,"girl":4198,"porat":4199,"ableĠandĠ":4200,"ript":4201,"decid":4202,"ran":4203,"rand":4204,"Ġyoung":4205,"meĠ":4206,"sĠi":4207,"Ġlink":4208,"builtĠ":4209,"care":4210,"ingĠmyĠ":4211,"Ġwish":4212,"edĠthrough":4213,"Ġlow":4214,"availableĠ":4215,"onĠyour":4216,"processĠ":4217,"re-":4218,"responsibleĠ":4219,"vict":4220,"ĠtechnologyĠ":4221,".Ġthes":4222,"cc":4223,"sens":4224,"Ġbal":4225,"colleg":4226,"elebrat":4227,"roĠ":4228,"wa":4229,"stayĠ":4230,"withĠ":4231,"possible":4232,"mus":4233,"pet":4234,"sĠ-":4235,"Ġwhol":4236,"Ġpict":4237,"artmentĠ":4238,"Ġmarch":4239,"ĠofĠc":4240,"ĠofĠf":4241,"eĠsystem":4242,"Ġamerica":4243,"currentlyĠ":4244,"beĠf":4245,"bank":4246,"buyĠ":4247,"rim":4248,"ĠcanĠbeĠ":4249,"Ġprim":4250,"element":4251,"igur":4252,".ĠheĠ":4253,"iateĠ":4254,"ĠtheĠbook":4255,"conferenc":4256,"Ġtrail":4257,"Ġafford":4258,"ĠoverĠ":4259,"commercial":4260,"cook":4261,"ĠaĠsh":4262,"sĠt":4263,"Ġquick":4264,"ampion":4265,"ledĠ":4266,"Ġsecond":4267,"opp":4268,"otos":4269,"ĠprojectĠ":4270,"communication":4271,"Ġletter":4272,"ĠworldĠ":4273,"loodĠ":4274,"Ġgen":4275,"eph":4276,"understandĠ":4277,"erĠthan":4278,"Ġassess":4279,"Ġenvironment":4280,"Ġregard":4281,"oftwareĠ":4282,"300":4283,"aud":4284,",ĠisĠ":4285,"age,Ġ":4286,"sĠ&":4287,"stanc":4288,"Ġstar":4289,"ĠaccountĠ":4290,"scap":4291,".Ġnow":4292,"decision":4293,"Ġarchitect":4294,"Ġsouth":4295,"estĠin":4296,".ĠthereĠar":4297,"ĠwhyĠ":4298,"udget":4299,"ĠpartĠof":4300,"cast":4301,"df":4302,"thisĠ":4303,"usp":4304,"entĠin":4305,"sĠyour":4306,"ely,Ġ":4307,"usher":4308,"surpris":4309,"Ġplatform":4310,"ersĠin":4311,"propos":4312,"enceĠof":4313,"wayĠtoĠ":4314,"phas":4315,"andsĠof":4316,"ney":4317,"screen":4318,"casion":4319,"sĠsuchĠasĠ":4320,"Ġwho":4321,"ritish":4322,"Ġactivities":4323,"ustralia":4324,"promot":4325,"abric":4326,"arketĠ":4327,"Ġsuper":4328,"purchas":4329,"orrow":4330,"ĠnextĠ":4331,"request":4332,"Ġarriv":4333,"social":4334,"leagu":4335,"a-":4336,"ivil":4337,"clin":4338,"ĠitĠcom":4339,"Ġknowledg":4340,"e/":4341,"mas":4342,",ĠtheĠs":4343,"Ġarrang":4344,"Ġcommerc":4345,"exper":4346,"ĠaboveĠ":4347,"Ġversion":4348,"ableĠto":4349,"Ġrel":4350,"one.Ġ":4351,"ĠandĠg":4352,"Ġp.m":4353,"Ġhon":4354,"ida":4355,"ingĠ(":4356,"ĠtheĠcas":4357,"isation":4358,"evil":4359,"ĠdoĠyou":4360,"ighbor":4361,"shall":4362,"partner":4363,"Ġmen":4364,"helpĠyou":4365,"iâĢĻm":4366,"actical":4367,"ĠwhenĠyou":4368,"Ġassociat":4369,"determin":4370,"Ġmag":4371,"soĠmuch":4372,"Ġthat'sĠ":4373,"ĠtheyĠcan":4374,"ĠdoĠnotĠ":4375,"prior":4376,"written":4377,"ocusĠon":4378,"Ġbuy":4379,"eparat":4380,".ĠitâĢĻsĠ":4381,"useful":4382,"char":4383,"eĠsc":4384,"requir":4385,"meas":4386,"Ġspr":4387,"fordĠ":4388,"Ġdeb":4389,"spend":4390,"ĠtheĠgam":4391,"wouldĠbeĠ":4392,"/or":4393,"ourtĠ":4394,"best":4395,",Ġon":4396,"Ġseason":4397,"Ġbreak":4398,"Ġcompl":4399,"ĠaccessĠ":4400,"nightĠ":4401,"station":4402,"ivision":4403,"oneĠofĠtheĠ":4404,"occur":4405,"ĠfromĠ":4406,"below":4407,"aintĠ":4408,"ologyĠ":4409,"unteer":4410,"itĠwill":4411,"ĠonĠ":4412,"rangeĠof":4413,"Ġindia":4414,"listen":4415,"stra":4416,"edĠoutĠ":4417,"edĠmyĠ":4418,"Ġfe":4419,"udd":4420,"ightĠof":4421,"Ġstrateg":4422,"Ġcommon":4423,"?Ġ":4424,"Ġsett":4425,"ilt":4426,"ront":4427,"mat":4428,"epis":4429,"eĠbas":4430,"cours":4431,"Ġtask":4432,"inar":4433,"ĠthirdĠ":4434,"ingred":4435,"itĠfor":4436,"Ġnatural":4437,"Ġabsolut":4438,"eĠmanag":4439,"-w":4440,"-th":4441,"r.Ġ":4442,"ingĠback":4443,"byĠtheĠ":4444,"opportunityĠtoĠ":4445,"Ġey":4446,"eĠtwoĠ":4447,"ayĠof":4448,"ly.Ġ":4449,"icken":4450,"cool":4451,"ive,Ġ":4452,"sĠad":4453,"Ġforc":4454,"eĠtrans":4455,"beĠc":4456,"Ġtraf":4457,"ĠtheĠfollow":4458,"notĠbeĠ":4459,",Ġwhen":4460,"Ġregular":4461,"ing!":4462,"oy":4463,"Ġcell":4464,"eĠmin":4465,"48":4466,"55":4467,"ĠvariousĠ":4468,"unit":4469,"reath":4470,"contact":4471,"standardĠ":4472,"ingĠtheĠd":4473,"urt":4474,"lineĠ":4475,"Ġenjoy":4476,"recogniz":4477,"Ġpiec":4478,"access":4479,"ellig":4480,"antag":4481,"ĠwithoutĠ":4482,"moneyĠ":4483,"episod":4484,"ingĠthat":4485,"ĠtoĠdoĠ":4486,"ityĠin":4487,"lyĠandĠ":4488,"ĠanyĠother":4489,"cardĠ":4490,"ifĠi":4491,"riesĠ":4492,"newĠyork":4493,"Ġcaus":4494,"s,Ġinclud":4495,"eĠafter":4496,"Ġmedical":4497,"Ġfilm":4498,"ĠliveĠ":4499,"Ġtechnical":4500,"utiliz":4501,"ically":4502,"edĠthisĠ":4503,"Ġhard":4504,"short":4505,"sch":4506,"isher":4507,"rief":4508,"seek":4509,"styleĠ":4510,"eĠsay":4511,"ĠneedĠ":4512,"amin":4513,"rik":4514,"ĠaĠsingleĠ":4515,"ĠaĠbig":4516,"impact":4517,"enterpris":4518,"sayĠ":4519,"payĠ":4520,"Ġbod":4521,"saf":4522,"lotĠ":4523,"Ġdecid":4524,"ulator":4525,"agon":4526,"Ġassociation":4527,"ratherĠthan":4528,"ĠtheyĠwereĠ":4529,"eightĠ":4530,"becauseĠof":4531,"ĠareasĠ":4532,"ĠtoĠour":4533,"overĠtheĠ":4534,"needĠ":4535,"ba":4536,"ander":4537,"ĠisĠnotĠ":4538,"auc":4539,"ĠtoĠh":4540,"Ġstaff":4541,"Ġplant":4542,"lad":4543,"easier":4544,"sĠasĠwell":4545,".Ġwhil":4546,"jack":4547,"Ġtrump":4548,"Ġaffect":4549,"Ġalbum":4550,"ĠtypesĠof":4551,"Ġadvic":4552,"Ġangel":4553,"Ġposition":4554,"oven":4555,"Ġappoint":4556,"e\"":4557,"ractĠ":4558,"Ġsun":4559,"Ñģ":4560,"ĠtheĠsub":4561,"ĠasĠan":4562,"eĠhisĠ":4563,"contentĠ":4564,"organiz":4565,"moreĠthanĠ":4566,"ynamic":4567,"38":4568,"anceĠtoĠ":4569,"ĠtheĠtwoĠ":4570,"ĠactiveĠ":4571,"prepar":4572,"vit":4573,"Ġfood":4574,"Ġtraffic":4575,"ingĠtheĠp":4576,"hadĠbeen":4577,"ersĠtoĠ":4578,"Ġjoh":4579,"ashington":4580,"Ġdevelopment":4581,"pret":4582,"s/":4583,"enhanc":4584,"eĠcas":4585,"Ġlat":4586,"ĠmoreĠinformation":4587,"ared":4588,"ingĠtheĠc":4589,"rivateĠ":4590,"earlier":4591,"):":4592,".ĠiĠhaveĠ":4593,"importantĠtoĠ":4594,"mis":4595,"began":4596,"activeĠ":4597,"cut":4598,"iber":4599,"zen":4600,"ĠofĠm":4601,"improveĠ":4602,"\",":4603,".Ġyour":4604,".Ġthis":4605,"ecom":4606,"Ġgreen":4607,"Ġadjust":4608,"reveal":4609,"relev":4610,"ĠwantĠ":4611,"ednes":4612,"minut":4613,"requiredĠ":4614,"Ġclick":4615,"à¤":4616,"managementĠ":4617,"journal":4618,"committe":4619,"ĠtheĠin":4620,"essĠin":4621,"ĠandĠisĠ":4622,"ider":4623,"eĠthen":4624,"ĠtheĠmor":4625,"readyĠtoĠ":4626,"ificant":4627,"ĠsupportĠ":4628,"anuaryĠ":4629,"__":4630,"oly":4631,"ĠtheĠsup":4632,"-term":4633,"different":4634,"floor":4635,"ĠtoĠkeep":4636,"ĠinĠyour":4637,"ĠproductĠ":4638,"Ġapprox":4639,"maintain":4640,"pict":4641,"Ġless":4642,"raftĠ":4643,"equipmentĠ":4644,"!Ġ":4645,"ĠtoĠyou":4646,"roleĠ":4647,"istration":4648,".Ġthen":4649,"spr":4650,"ule":4651,"least":4652,"ework":4653,"Ġrad":4654,"Ġkitchen":4655,"entryĠ":4656,"aximum":4657,"center":4658,"iver":4659,"Ġbusin":4660,"entertain":4661,"ĠfoodĠ":4662,".ĠtheĠt":4663,"recentĠ":4664,"po":4665,"Ġcard":4666,"Ġdefin":4667,"libr":4668,"eĠmoreĠ":4669,"zer":4670,"referenc":4671,"emal":4672,"otiv":4673,"food":4674,"ĠtimeĠandĠ":4675,"Ġpresent":4676,"iger":4677,"Ġexpert":4678,"ĠcontactĠ":4679,"afetyĠ":4680,"Ġ/":4681,"s.Ġw":4682,"profess":4683,"Ġspec":4684,"ĠtheĠlarg":4685,"Ġtransport":4686,"Ġachiev":4687,"focus":4688,"Ġcur":4689,"ibr":4690,"ĠtoĠa":4691,"e.ĠitĠ":4692,"Ġbrand":4693,"Ġparticular":4694,"Ġblu":4695,"havior":4696,"44":4697,"ĠanĠun":4698,"Ġhis":4699,"eĠmanyĠ":4700,"ĠtheĠnational":4701,"gin":4702,"Ġpick":4703,"lyĠin":4704,"reserv":4705,"recentlyĠ":4706,"ĠtheĠpastĠ":4707,"Ġ-Ġ":4708,"player":4709,"headĠ":4710,"stick":4711,"ationĠin":4712,"bring":4713,"Ġtemper":4714,"i,Ġ":4715,"Ġrest":4716,"eĠhom":4717,"Ġit'sĠ":4718,"locat":4719,"e,Ġyou":4720,"ĠitĠwasĠ":4721,"growth":4722,"edĠt":4723,"ĠisĠtoĠ":4724,"sav":4725,"sĠout":4726,"eĠwant":4727,"Ġreceiv":4728,"fit":4729,"Ð¸":4730,"ationĠfor":4731,"Ġrepair":4732,"eĠby":4733,"studentsĠ":4734,"integr":4735,"difficult":4736,"yĠwith":4737,"Ġaren":4738,"viouslyĠ":4739,"downloadĠ":4740,"s'":4741,"several":4742,"ily":4743,"ĠtheĠpart":4744,"field":4745,"major":4746,"ĠandĠyour":4747,"why":4748,"ĠhomeĠ":4749,"rum":4750,"edĠintoĠ":4751,"remium":4752,"Ġproduction":4753,"riday":4754,"33":4755,"Ġcert":4756,"conv":4757,"Ġenough":4758,"Ġsurv":4759,"god":4760,"Ġcontract":4761,"pared":4762,"chedul":4763,"avi":4764,"iesĠareĠ":4765,"ĠtheĠgovern":4766,"priat":4767,"deb":4768,"ĠtoĠwork":4769,"Ġstock":4770,"completelyĠ":4771,"ectĠof":4772,"opulation":4773,"e.Ġw":4774,"non":4775,"ench":4776,"Ġwatch":4777,"sĠforĠtheĠ":4778,"Ġdoes":4779,"iddleĠ":4780,"ebruaryĠ":4781,"cu":4782,"mag":4783,"successful":4784,"Ġaway":4785,"entyĠof":4786,",ĠitĠisĠ":4787,"ositiveĠ":4788,"ĠtheĠwater":4789,"area":4790,"ugh":4791,"icl":4792,"Ġbox":4793,"conven":4794,"ĠtheĠmarket":4795,"equal":4796,"itizen":4797,"bag":4798,"vin":4799,"Ġthurs":4800,"ingĠall":4801,"ingĠhisĠ":4802,"Ġsport":4803,"edĠtheir":4804,"ingĠl":4805,"195":4806,"lookĠfor":4807,"cer":4808,"Ġnon-":4809,"Ġconferenc":4810,"consult":4811,"Ġcommunication":4812,"Ġtreatment":4813,"ingredient":4814,"official":4815,"Ġwithin":4816,"ĠtheyĠhaveĠ":4817,"fail":4818,"Ġge":4819,"agre":4820,"likelyĠtoĠ":4821,"lotsĠof":4822,"orĠ":4823,",ĠâĢľ":4824,"artĠof":4825,"Ġpm":4826,"ĠofĠp":4827,"!!!":4828,"ĠaĠvari":4829,"toberĠ":4830,"compar":4831,"consumer":4832,"Ġmodern":4833,"Ġrelationship":4834,"imb":4835,"iantĠ":4836,"Ġplann":4837,"providesĠ":4838,"Ġscreen":4839,"hood":4840,"sen":4841,"eeper":4842,"fortĠ":4843,"rastruct":4844,"simplyĠ":4845,"Ġcook":4846,"e.Ġh":4847,"aĠm":4848,"fig":4849,"ĠofĠd":4850,"oughtĠ":4851,"ibilityĠ":4852,"Ġacross":4853,"clas":4854,",ĠtheĠc":4855,"i'm":4856,"lip":4857,"mix":4858,".ĠitĠis":4859,"Ġvisit":4860,"s.Ġh":4861,"edĠwithĠtheĠ":4862,"Ġjohn":4863,"bodyĠ":4864,"odern":4865,"won":4866,"eĠk":4867,"versation":4868,"400":4869,";Ġ":4870,"n't":4871,"lood":4872,"sometimesĠ":4873,"women":4874,"orsĠ":4875,"ĠtoĠtheĠs":4876,"ĠthereâĢĻsĠ":4877,"medical":4878,"sĠall":4879,"Ġcult":4880,"isĠof":4881,"ĠofĠb":4882,"illust":4883,"ĠtheĠbest":4884,"cheduleĠ":4885,",Ġan":4886,"sim":4887,"Ġcurr":4888,"Ġsqu":4889,"s.Ġfor":4890,"ĠtakesĠ":4891,"ĠtheĠhous":4892,"ĠtoĠtak":4893,"Ġattract":4894,"Ġsuppl":4895,"Ġconcern":4896,"ica":4897,"upon":4898,"ĠonĠyour":4899,"eĠforĠtheĠ":4900,".ĠtheseĠ":4901,"eight":4902,"rical":4903,"yĠd":4904,"Ġsept":4905,"ulti-":4906,"Ġexpect":4907,"skill":4908,"eĠal":4909,"ĠthatĠitĠ":4910,"Ġspecific":4911,"ĠmoreĠthanĠ":4912,"necessar":4913,"omb":4914,"Ġlondon":4915,"rav":4916,"ĠnewĠyork":4917,"usion":4918,"contribut":4919,"rong":4920,"Ġopportun":4921,"ĠavoidĠ":4922,"Ġu":4923,"ed,ĠandĠ":4924,".ĠinĠ":4925,"Ġdecision":4926,"foodĠ":4927,"expos":4928,"outdoor":4929,",ĠwhichĠisĠ":4930,"Ġaudienc":4931,"ing.Ġi":4932,",Ġall":4933,"next":4934,"Ġrac":4935,"eĠhelp":4936,"internetĠ":4937,"brand":4938,"ĠtestĠ":4939,"ingĠdown":4940,"hotel":4941,"rill":4942,"raction":4943,"vac":4944,"ingsĠandĠ":4945,"exhib":4946,"ĠitĠis":4947,"ĠaĠnumberĠof":4948,".Ġwe":4949,"es:":4950,"ĠwithĠyour":4951,"easilyĠ":4952,"Ġpercent":4953,"ĠmoneyĠ":4954,"ato":4955,"eĠsub":4956,"scal":4957,"eoĠ":4958,"las":4959,",Ġr":4960,"shareĠ":4961,"ĠtheĠfin":4962,"commission":4963,"Ġtarget":4964,"enjoyĠ":4965,"artmentĠof":4966,"Ġspeak":4967,"bour":4968,"bod":4969,"Ġself":4970,"Ġgrowth":4971,"hael":4972,"Ġaccommod":4973,"Ġengin":4974,"eĠj":4975,"Ġfirm":4976,"ĠgotĠ":4977,"Ġreleas":4978,"ance.Ġ":4979,"ingĠinĠtheĠ":4980,"suranceĠ":4981,"reportĠ":4982,"riendĠ":4983,"umm":4984,"ĠtheĠpeopleĠ":4985,"relax":4986,"exercis":4987,"eĠonĠtheĠ":4988,"really":4989,"Ġdom":4990,"izon":4991,"easyĠ":4992,"makeĠsur":4993,"connection":4994,"nation":4995,"welcom":4996,"ecurity":4997,"ritten":4998,"edit":4999,"ĠofĠtheĠs":5000,"ĠaĠfull":5001,"amountĠof":5002,"Ġclub":5003,"companiesĠ":5004,"suggest":5005,"37":5006,"eĠagain":5007,"Ġfirst":5008,"porter":5009,"grand":5010,"Ġfurther":5011,"ĠareĠt":5012,"Ġhair":5013,"iĠs":5014,"nut":5015,"eĠoften":5016,"ableĠfor":5017,"Ġorig":5018,"Ġanyon":5019,"atingĠ":5020,"eĠther":5021,"otic":5022,"ĠtheĠpublic":5023,"Ġme":5024,"Ġdeliver":5025,"ĠthatĠwill":5026,"ĠaĠpart":5027,"extremelyĠ":5028,"block":5029,"ĠkeyĠ":5030,"becauseĠ":5031,"ĠanĠext":5032,"drop":5033,".Ġch":5034,"ĠanĠa":5035,"eastĠ":5036,"worldĠ":5037,"early":5038,"Ġloan":5039,"edĠonĠtheĠ":5040,"eĠthatĠyou":5041,"Ġ[":5042,"alreadyĠ":5043,"Ġrisk":5044,"rivac":5045,",Ġit":5046,"Ġins":5047,"antic":5048,"Ġadult":5049,"espit":5050,"modern":5051,"ĠtrulyĠ":5052,"urban":5053,"gestĠ":5054,"Ġsection":5055,"Ġchurch":5056,"ĠatĠall":5057,"recover":5058,"esĠinĠtheĠ":5059,".)":5060,"iseĠ":5061,"ĠthatĠh":5062,"eĠshow":5063,"Ġcontent":5064,"Ġfinish":5065,"prettyĠ":5066,"Ġgar":5067,"Ġmajor":5068,"Ġreduc":5069,"shouldĠbeĠ":5070,"sam":5071,"Ġcamp":5072,"Ġbi":5073,"visitor":5074,"relatedĠ":5075,"ouldn'tĠ":5076,"ff":5077,"ingĠtheĠb":5078,"estic":5079,"monitor":5080,"95":5081,"eld":5082,"s,Ġm":5083,"Ġlot":5084,"stitution":5085,"esĠwereĠ":5086,"here.Ġ":5087,"Ġaccur":5088,"Ġleader":5089,"clusion":5090,"judg":5091,"Ġmal":5092,"Ġrepresent":5093,"ĠthisĠweek":5094,"Ġprinc":5095,"Ġrequirement":5096,"ycleĠ":5097,"gre":5098,"rateĠ":5099,"ingĠtheĠm":5100,"Ġkey":5101,"-h":5102,"s,Ġp":5103,"eller":5104,"Ġhalf":5105,"istak":5106,"ĠtheĠsameĠtim":5107,"ga":5108,"bol":5109,"abas":5110,"company":5111,"business":5112,"sn":5113,"Ġemail":5114,"ateĠin":5115,"Ġjer":5116,"sĠtoĠbeĠ":5117,"benef":5118,"sĠhaveĠbeen":5119,"isĠnotĠ":5120,"conduct":5121,"s.ĠitĠ":5122,"period":5123,"toĠtheĠ":5124,"Ġparticip":5125,"ray":5126,"Ġtend":5127,"ensureĠ":5128,"ĠsomeĠof":5129,"noon":5130,"eĠinterest":5131,"wish":5132,"ocrat":5133,"Ġseem":5134,"Ġdoor":5135,"fresh":5136,"aller":5137,"ootball":5138,"eldĠ":5139,"ĠmarketĠ":5140,",Ġhowever":5141,"stag":5142,"Ġskin":5143,"ilos":5144,"inĠthisĠ":5145,"street":5146,"Ġmill":5147,"ĠlightĠ":5148,"Ġadvent":5149,"ĠaĠvarietyĠof":5150,"father":5151,"edĠitĠ":5152,"stitut":5153,"oter":5154,"pal":5155,"ĠaprilĠ":5156,"Ġdigital":5157,"umin":5158,"ĠprocessĠ":5159,"150":5160,"ĠfiveĠ":5161,"ĠofĠtheĠc":5162,"ypt":5163,"det":5164,"Ġtur":5165,".Ġonc":5166,",Ġis":5167,"ĠasĠi":5168,"programm":5169,"estination":5170,"master":5171,"Ġhotel":5172,"Ġfactor":5173,"manyĠof":5174,"sĠandĠtheĠ":5175,"ovi":5176,"rul":5177,"sound":5178,"edition":5179,"Ġcomment":5180,"intend":5181,"retail":5182,"Ġconnection":5183,"Ġdegre":5184,"bert":5185,"vious":5186,"numberĠof":5187,"Ġcirc":5188,"whichĠisĠ":5189,"internet":5190,"clusiveĠ":5191,"ĠrightĠ":5192,"controll":5193,"Ġbeh":5194,"ĠservicesĠ":5195,"window":5196,"ĠaĠyear":5197,"ĠassistĠ":5198,"realiz":5199,"sĠabout":5200,"bel":5201,"i.":5202,"impress":5203,"Ġinch":5204,"eĠdevelop":5205,"39":5206,"itar":5207,"eĠfin":5208,"proced":5209,"cert":5210,"pur":5211,"rink":5212,"ely.Ġ":5213,"ĠasĠtheyĠ":5214,"ĠreceiveĠ":5215,"p.Ġ":5216,"ingĠtheĠf":5217,"editor":5218,"oppos":5219,"800":5220,"describ":5221,"fiveĠ":5222,"pren":5223,"Ġstruct":5224,"ĠvideoĠ":5225,"luck":5226,",Ġso":5227,"Ġmeas":5228,"shown":5229,"bridg":5230,"ĠthereĠisĠnoĠ":5231,"king":5232,"grap":5233,"eĠdep":5234,"Ġtwitter":5235,"Ġcommercial":5236,"viol":5237,"director":5238,"ĠtoldĠ":5239,"itself":5240,"Ġmachin":5241,"Ġdog":5242,"Ġchild":5243,"azin":5244,"Ġcare":5245,"undred":5246,"cm":5247,"igat":5248,"ive.Ġ":5249,"eĠcor":5250,"tg":5251,"town":5252,"ya":5253,"Ġreach":5254,"ĠrecentĠ":5255,"educational":5256,"eousĠ":5257,"eĠbecaus":5258,"iĠthink":5259,"ÑĢ":5260,"Ġclear":5261,"chain":5262,"ecret":5263,"umentĠ":5264,"etĠof":5265,"weather":5266,"ĠtheĠdep":5267,"eedback":5268,"exactlyĠ":5269,"pointĠ":5270,"erĠfor":5271,"aticallyĠ":5272,",Ġeven":5273,"virt":5274,"sĠcanĠb":5275,"ole":5276,"edom":5277,"ĠthatĠis":5278,"otal":5279,"sĠoffer":5280,"Ġconsult":5281,"fe":5282,"ersĠareĠ":5283,"ont":5284,"Ġfall":5285,".Ġat":5286,"Ð½":5287,"eĠwhen":5288,"usual":5289,"howĠtoĠ":5290,"stuff":5291,"Ġlanguag":5292,"eĠcr":5293,"ĠappleĠ":5294,"amm":5295,"Ġprint":5296,"community":5297,"mostĠof":5298,"eĠâĢĵ":5299,"edĠthem":5300,"ĠnumberĠof":5301,"ĠanĠexc":5302,"exter":5303,"bertĠ":5304,"Ġrespect":5305,"parent":5306,"Ġlocation":5307,"ainlessĠ":5308,"rictĠ":5309,"inĠtheĠm":5310,"Ġpleas":5311,"lostĠ":5312,"Ġtrend":5313,"sĠintoĠ":5314,"izz":5315,"final":5316,"ara":5317,"amesĠ":5318,"plusĠ":5319,"tein":5320,"eut":5321,"Ġaim":5322,"Ġexist":5323,"65":5324,"mother":5325,"onent":5326,"Ġonly":5327,".ĠitĠwasĠ":5328,"Ġlegal":5329,"-to-":5330,"usingĠ":5331,"eĠofĠyour":5332,"s>Ġ<s>Ġw":5333,"lop":5334,"flor":5335,"vironmentĠ":5336,"Ġacademic":5337,"hi":5338,"Ġgarden":5339,",ĠtheĠf":5340,"edĠhim":5341,"reflect":5342,".c":5343,"stall":5344,"ĠcityĠ":5345,"Ġrock":5346,"marketĠ":5347,"careĠ":5348,"ien":5349,"rub":5350,"osen":5351,"Ġtruck":5352,"ĠapplyĠ":5353,"sĠfromĠtheĠ":5354,"universityĠ":5355,"risĠ":5356,"round":5357,"Ġdriv":5358,"eĠinclud":5359,"ĠtheĠlatestĠ":5360,"similar":5361,"roof":5362,"anceĠandĠ":5363,"ure.Ġ":5364,"appoint":5365,"rehensiveĠ":5366,"erman":5367,"entĠon":5368,"quiteĠ":5369,"highlyĠ":5370,"Ġamazon":5371,"normal":5372,"34":5373,"anal":5374,"ingĠanĠ":5375,"rh":5376,"Ġremember":5377,"prec":5378,"saidĠ":5379,"simpleĠ":5380,"icsĠ":5381,"icator":5382,"iven":5383,"e.Ġyou":5384,"ĠareĠnotĠ":5385,"Ġregion":5386,"efficienc":5387,"aĠin":5388,"inĠa":5389,"esĠatĠ":5390,"Ġsch":5391,"gon":5392,"Ġ:":5393,"Ġemploye":5394,"owder":5395,"riev":5396,"Ġshort":5397,"consum":5398,"behind":5399,"mind":5400,"Ġmethod":5401,"roughtĠ":5402,"licens":5403,".ĠatĠ":5404,"iedĠ":5405,"wordĠ":5406,"Ġpotential":5407,"eĠtheĠh":5408,"Ġattach":5409,"lightlyĠ":5410,"Ġtub":5411,"ingĠofĠtheĠ":5412,"bul":5413,"ventĠ":5414,"exchang":5415,"ĠyearsĠof":5416,"craft":5417,"osĠ":5418,"proof":5419,"ingĠasĠ":5420,"eĠcreat":5421,"management":5422,"Ġstandard":5423,"path":5424,"more.Ġ":5425,"chief":5426,"ĠaccordingĠto":5427,"Ġgovernment":5428,"ĠfoundĠ":5429,"russ":5430,"Ġtues":5431,"Ġbab":5432,"answer":5433,"ertĠ":5434,"Ġcareer":5435,"istan":5436,"Ġcomfort":5437,"sideĠ":5438,"riter":5439,"Ġcommitt":5440,"repren":5441,"wheel":5442,"ĠtheĠpast":5443,"Ġscor":5444,"ĠsecurityĠ":5445,"Ġheat":5446,"prevent":5447,"Ġlak":5448,"eĠser":5449,"ersĠcan":5450,"scienc":5451,"studyĠ":5452,".Ġthey":5453,"bill":5454,"Ġmix":5455,"Ġglobal":5456,"aĠd":5457,"Ġtor":5458,"onesĠ":5459,"arc":5460,"irit":5461,"berg":5462,"freeĠ":5463,"aughtĠ":5464,"Ġticket":5465,"usedĠfor":5466,"ingĠi":5467,"weetĠ":5468,"sâĢĿ":5469,"inceĠ":5470,"ault":5471,"hes":5472,"entral":5473,",ĠtheĠm":5474,"fish":5475,"es.Ġi":5476,"s>Ġ<s>ĠthisĠ":5477,"ĠcreditĠ":5478,"dog":5479,"Ñĸ":5480,"ĠtheĠhom":5481,"eĠwillĠb":5482,"decor":5483,"ourse":5484,"beat":5485,"rael":5486,"ersĠwhoĠ":5487,"ingĠonĠtheĠ":5488,"ympt":5489,"ighter":5490,"s,Ġc":5491,"Ġprotection":5492,"64":5493,"lyĠon":5494,"independ":5495,"extend":5496,"Ġnotic":5497,"oubt":5498,"fastĠ":5499,",ĠwhereĠ":5500,"eĠway":5501,"Ġconstruction":5502,"rict":5503,"innov":5504,"icin":5505,"eĠthing":5506,"ally.Ġ":5507,"Ġagenc":5508,"aturday":5509,"ĠitĠcomesĠtoĠ":5510,"http":5511,"edical":5512,"ĠinĠthisĠ":5513,"Ġtheor":5514,"Ġjoin":5515,"umerousĠ":5516,"efficient":5517,"mom":5518,"uringĠtheĠ":5519,"s.ĠweĠ":5520,"otherwis":5521,"ĠperfectĠ":5522,"prefer":5523,"eĠsomeĠ":5524,"Ġsol":5525,"ĠthatĠwasĠ":5526,"s,Ġbut":5527,"e.ĠifĠyou":5528,"pressĠ":5529,"restaurant":5530,"mobil":5531,"edĠaboutĠ":5532,"Ġoften":5533,".ĠtheĠc":5534,"ĠforĠm":5535,"endar":5536,"eĠfeel":5537,"ĠtheĠdevelop":5538,"ĠaĠser":5539,"heart":5540,"aĠp":5541,"y!":5542,"Ġsam":5543,"Ġrev":5544,"ĠstyleĠ":5545,"instit":5546,"ymptom":5547,"ĠinĠtheĠm":5548,"occasion":5549,"ĠamountĠof":5550,"abilityĠtoĠ":5551,"Ġanti-":5552,",Ġst":5553,"esĠasĠ":5554,"ĠcurrentĠ":5555,"Ġimprov":5556,"repreneur":5557,"âĤ":5558,"erĠof":5559,"ĠtoĠdo":5560,"Ġfar":5561,"union":5562,"Ġasp":5563,"observ":5564,"Ġcentur":5565,"industryĠ":5566,"Ġfresh":5567,"exic":5568,"e.g":5569,"presentĠ":5570,"visual":5571,"ĠaĠhug":5572,"discuss":5573,"Ġremain":5574,"Ġavoid":5575,",Ġwhil":5576,"Ġwedd":5577,"usedĠin":5578,"restĠof":5579,"194":5580,"sĠbetween":5581,"means":5582,"ãĤ":5583,"uls":5584,"ĠupĠtoĠ":5585,"Ġflor":5586,"beĠb":5587,"succ":5588,"essay":5589,"armac":5590,"Ġapply":5591,"sĠwillĠb":5592,"ĠtoĠtheir":5593,"oker":5594,"expensiveĠ":5595,"mr":5596,"rug":5597,"iti":5598,"coach":5599,"them":5600,"Ġwid":5601,"Ġpain":5602,"apter":5603,"excellentĠ":5604,"development":5605,"mc":5606,"designedĠtoĠ":5607,"Ġareas":5608,"Ġthom":5609,".ĠnoĠ":5610,"Ġsong":5611,"Ġhol":5612,"sĠandĠother":5613,"ĠtheĠteam":5614,"Ġfacebook":5615,"han":5616,"yz":5617,"reation":5618,"ĠyouĠwill":5619,"complish":5620,"fut":5621,"ios":5622,"tub":5623,"sĠover":5624,"imension":5625,"eĠcount":5626,"ĠiĠam":5627,"e.Ġfor":5628,"ainlessĠsteel":5629,"Ġcash":5630,"youĠknow":5631,"origin":5632,"rack":5633,"evision":5634,"Ġappeal":5635,"facil":5636,"calledĠ":5637,"roken":5638,"Ġthrow":5639,"sĠbefor":5640,".Ġy":5641,"es?":5642,"ĠwayĠ":5643,"Ġpath":5644,"ĠthatĠw":5645,"compos":5646,"yĠor":5647,"ingĠmor":5648,"ingĠabout":5649,"itâĢĻsĠa":5650,"olleg":5651,"ĠinĠa":5652,"Ġalmost":5653,"hab":5654,"retch":5655,"ĠtheĠlong":5656,"expand":5657,"Ġcollection":5658,"bre":5659,"ey,Ġ":5660,"Ã¼":5661,",ĠifĠyou":5662,"rian":5663,"sĠasĠa":5664,"ĠforĠyou":5665,"eĠdoĠ":5666,"neg":5667,"Ġassign":5668,"ĠwouldĠlikeĠtoĠ":5669,"rick":5670,",Ġyour":5671,"also":5672,"esusĠ":5673,"Ġfail":5674,"ĠtreatmentĠ":5675,"fol":5676,"potential":5677,"esĠwill":5678,"withĠyour":5679,"eĠgu":5680,"Ã¢":5681,"Ġident":5682,"Ġserv":5683,"Ġduring":5684,"verageĠ":5685,"eĠse":5686,"possibleĠtoĠ":5687,"edĠas":5688,"Ġdream":5689,"ultĠof":5690,"display":5691,"expens":5692,",ĠtheĠd":5693,"devic":5694,"Ġfarm":5695,"Ġfloor":5696,"igger":5697,".ĠiâĢĻm":5698,"people":5699,"icens":5700,"isĠtoĠ":5701,"edlyĠ":5702,"Ġlater":5703,"Ġrunn":5704,"ientific":5705,"Ġdiscover":5706,"Ġknown":5707,"aâĢĻsĠ":5708,"ileĠ":5709,"Ġattor":5710,"hoodĠ":5711,"Ġfan":5712,"ĠstartĠ":5713,",ĠandĠi":5714,"Ġtech":5715,"becomeĠa":5716,"Ġclaim":5717,"s.ĠifĠyou":5718,"bc":5719,"garden":5720,"ĠoldĠ":5721,"ĠsimplyĠ":5722,"ilk":5723,"Ġwer":5724,"itiat":5725,"youâĢĻll":5726,"Ġdirector":5727,"doneĠ":5728,"Ġ.":5729,".Ġeven":5730,"Ġkind":5731,"ĠaĠcoupleĠof":5732,"suchĠas":5733,"ey.Ġ":5734,"hen":5735,"without":5736,"ĠjuneĠ":5737,"oneĠofĠtheĠmostĠ":5738,"ingĠch":5739,"ary,Ġ":5740,"storyĠ":5741,"exception":5742,"alwaysĠ":5743,"Ġtot":5744,"Ġgot":5745,"ĠthatĠyouĠcan":5746,"perc":5747,"whatĠi":5748,"ĠaĠmin":5749,"âĢĻveĠbeen":5750,"generallyĠ":5751,"dateĠ":5752,"any":5753,"ing:":5754,"Ġdet":5755,"Ġgirl":5756,"plastic":5757,"emporaryĠ":5758,"global":5759,".Ġher":5760,"Ġphon":5761,"Ġprogramm":5762,"Ġofficial":5763,"built":5764,"ĠalternativeĠ":5765,"ndĠ":5766,"sun":5767,"sureĠ":5768,"ingsĠof":5769,".Ġwhat":5770,"Ġseat":5771,"Ġflow":5772,"ĠofĠa":5773,"shor":5774,"weightĠ":5775,"competition":5776,"pred":5777,"ÂŃ":5778,"Ġver":5779,"amousĠ":5780,"ĠachieveĠ":5781,"restr":5782,"itment":5783,",Ġour":5784,"ĠstateĠ":5785,"eĠintoĠ":5786,"ĠtheĠfinal":5787,"situation":5788,"ĠwhichĠisĠ":5789,"someoneĠ":5790,"Ġadministration":5791,"holdĠ":5792,"ĠofĠour":5793,".ĠhisĠ":5794,"media":5795,"essayĠ":5796,"eĠdetail":5797,"paul":5798,"ĠdevelopmentĠ":5799,"volum":5800,"fieldĠ":5801,"es!":5802,"Ġwood":5803,"Ġhost":5804,"ĠinĠtheĠs":5805,"serveĠ":5806,"onlineĠ":5807,"Ġjournal":5808,"Ġthreat":5809,"Ġsav":5810,"ĠtoĠfindĠ":5811,"ager":5812,"Ġnear":5813,"umpster":5814,"Ġdecor":5815,"qualityĠof":5816,"Ġelement":5817,"Ġacqu":5818,".ĠthereĠareĠ":5819,"ing?":5820,"rook":5821,"udgetĠ":5822,"poration":5823,"Ġtradition":5824,"ï¿":5825,"ĠanyĠof":5826,"arrow":5827,"Ġpurpos":5828,"drink":5829,"features":5830,"heldĠ":5831,"Ñķ":5832,"Ġeffect":5833,"eleg":5834,"ifĠtheĠ":5835,"eĠdid":5836,"eĠaĠb":5837,"Ġaspect":5838,"ban":5839,"past":5840,"shap":5841,"Ġtex":5842,"ĠtableĠ":5843,"gric":5844,"ĠtheĠpre":5845,"collect":5846,"Ġsociet":5847,"ĠweĠcan":5848,"eĠthink":5849,"plus":5850,"eĠhim":5851,"locatedĠin":5852,"Ġassum":5853,"âĤ¬":5854,"sĠper":5855,"restĠ":5856,"s.Ġour":5857,"eĠfoundĠ":5858,"Ġcountri":5859,"ĠaĠspecial":5860,"ĠdidnâĢĻtĠ":5861,"ï¿½":5862,"ãĥ":5863,"orough":5864,"unfortunat":5865,"ogether":5866,"ficial":5867,"esĠofĠtheĠ":5868,"carri":5869,"ĠatĠtheĠendĠof":5870,".ĠasĠa":5871,"occup":5872,"see":5873,"Ġinstitution":5874,"ĠtoĠtheĠc":5875,"edĠtoĠbeĠ":5876,"olden":5877,"section":5878,"s,Ġd":5879,"icag":5880,"Ġrecomm":5881,"ĠloveĠth":5882,"diseas":5883,"Ġteacher":5884,"atĠtheĠ":5885,"Ġsing":5886,"eĠfac":5887,"madeĠ":5888,"ingĠtheĠt":5889,"ĠpostĠ":5890,"ĠputĠ":5891,"resultĠ":5892,"ĠasĠwellĠas":5893,"reek":5894,"ingĠsh":5895,"ingĠitsĠ":5896,"ĠplantĠ":5897,"193":5898,"ibility":5899,"ĠwhileĠ":5900,"Ġvisitor":5901,"ĠgovernmentĠ":5902,"amaz":5903,"lob":5904,"eĠoff":5905,"eĠmustĠ":5906,"mayĠbeĠ":5907,"Ġcalifornia":5908,"aĠisĠ":5909,"otional":5910,"plentyĠof":5911,"e,Ġbut":5912,"Ġchina":5913,"server":5914,"listĠ":5915,"esid":5916,"ley":5917,"leĠandĠ":5918,"effectĠ":5919,"ĠaĠgr":5920,"abilityĠof":5921,"cult":5922,"isĠin":5923,"Ġbag":5924,"url":5925,"ĠareĠtheĠ":5926,"ĠtheĠmin":5927,"ĠtheĠhear":5928,"sinceĠ":5929,"itâĢĻs":5930,"embr":5931,"ritic":5932,"basic":5933,"agnos":5934,"rag":5935,"enth":5936,"youĠmayĠ":5937,"eĠavailableĠ":5938,"Ġavailable":5939,"ĠmarchĠ":5940,"le,Ġ":5941,"ĠtheĠdis":5942,"ilosoph":5943,"sĠlikeĠ":5944,"ureĠtoĠ":5945,"utor":5946,"Ġlab":5947,"Ġliter":5948,".ĠtheĠf":5949,"eĠbook":5950,"eneral":5951,"ublication":5952,"Ġarticle":5953,"Ġroad":5954,"-basedĠ":5955,"capt":5956,"jection":5957,"inform":5958,"ĠtheĠother":5959,"restor":5960,"Ġwould":5961,"ĠtoĠknow":5962,"ureĠin":5963,"eĠsign":5964,"indian":5965,"ravel":5966,"eastern":5967,"purpos":5968,"Ġfig":5969,"emper":5970,"likelyĠ":5971,"iodĠ":5972,"Ġsituation":5973,"ĠcompaniesĠ":5974,"liter":5975,"would":5976,"yĠ(":5977,"Ġsaf":5978,"utom":5979,"ĠserviceĠ":5980,"Ġplayer":5981,"Ġfacil":5982,"veget":5983,"career":5984,"roidĠ":5985,"adian":5986,"ersĠwith":5987,"ure,Ġ":5988,"idden":5989,"sĠg":5990,"Ġsl":5991,"Ġfavorit":5992,"Ġfranc":5993,"ĠpercentĠ":5994,"sĠwasĠ":5995,"elim":5996,"Ġmiss":5997,"studentĠ":5998,"classic":5999,"opinion":6000,"Ġren":6001,"iesĠtoĠ":6002,"ĠtheĠpower":6003,"eĠforĠyour":6004,"finallyĠ":6005,"ĠcontentĠ":6006,"ĠweĠhaveĠ":6007,"Ġcommunity":6008,"mitĠ":6009,"sĠinter":6010,"ĠtheirĠ":6011,"Ġserver":6012,"ald":6013,"edĠoff":6014,"urv":6015,".Ġfrom":6016,"omin":6017,"usc":6018,"Ġnight":6019,"grant":6020,"photo":6021,"aurantĠ":6022,"method":6023,"paint":6024,"ĠÐ":6025,"outhern":6026,"Ġsaw":6027,"express":6028,"eff":6029,"Ġrout":6030,"butĠi":6031,"building":6032,"ĠthousandsĠof":6033,"warm":6034,"Ġfix":6035,"ament":6036,"ounder":6037,"spiredĠ":6038,"ĠactivitiesĠ":6039,"Ġrequest":6040,"ĠstandardĠ":6041,"Ġhappen":6042,"lak":6043,"Ġmatch":6044,"Ġneg":6045,"sĠoff":6046,"ocal":6047,"ogu":6048,"Ġasset":6049,"Ġrecogn":6050,"confirm":6051,"Ġcomplex":6052,",ĠtheĠb":6053,"driveĠ":6054,"rail":6055,"Ġbill":6056,"Ġholid":6057,"loom":6058,"eĠtechn":6059,"estimat":6060,"Ġunit":6061,"ĠtoĠfind":6062,"christian":6063,"beĠh":6064,"beĠtheĠ":6065,"ring":6066,"oulder":6067,"azz":6068,"tu":6069,"anish":6070,"edĠunder":6071,"ĠsheĠ":6072,"handĠ":6073,"esĠhaveĠ":6074,"ingĠexperienc":6075,"eĠcoll":6076,"makeĠsureĠ":6077,"ĠtheĠgu":6078,"Ġroll":6079,"burg":6080,"beĠw":6081,"odd":6082,"ĠwhatĠyou":6083,"protection":6084,"andidat":6085,"jew":6086,"etal":6087,"irror":6088,"ageĠandĠ":6089,"encounter":6090,"rativeĠ":6091,"Ġupdat":6092,"Ð¾Ð":6093,"o.Ġ":6094,"ĠthusĠ":6095,"ĠanĠinter":6096,"iciousĠ":6097,"addition":6098,"ressĠ":6099,"Ġchar":6100,"currentĠ":6101,"ĠmanagementĠ":6102,"primaryĠ":6103,".ĠiĠthink":6104,"whatĠisĠ":6105,"paidĠ":6106,"ĠtheĠnumberĠof":6107,"study":6108,"myself":6109,"comfortableĠ":6110,"ĠapproximatelyĠ":6111,"camp":6112,"factor":6113,"Ġsucc":6114,"eĠmov":6115,"ĠiĠhaveĠ":6116,"rows":6117,"ĠmyĠf":6118,"eliveryĠ":6119,"ĠtoĠlearn":6120,"resolution":6121,"ively":6122,"epper":6123,"ĠdownloadĠ":6124,"wrong":6125,"ĠjulyĠ":6126,"inder":6127,"ignor":6128,"manufactur":6129,"Ġitself":6130,"document":6131,"eup":6132,"saveĠ":6133,"Ġprior":6134,"edĠover":6135,"Ġmis":6136,"photograph":6137,"uggl":6138,"ruth":6139,"pool":6140,"Ġoil":6141,"Ġtab":6142,"ota":6143,"Ġproper":6144,"eĠwithĠtheĠ":6145,"ingĠoff":6146,"aul":6147,"meetĠ":6148,"six":6149,"Ġpublish":6150,"Ġbeach":6151,"iph":6152,"eĠwillĠbeĠ":6153,"ĠtermsĠof":6154,"Ġfeatures":6155,"Ġeveryth":6156,",Ġbecaus":6157,"Ġphoto":6158,"Ġdownload":6159,"spectiveĠ":6160,"ĠtheĠcountry":6161,"-year-":6162,"nav":6163,"wif":6164,"resident":6165,"ĠtheĠbottom":6166,"Ġyears.Ġ":6167,"example":6168,"ĠtheĠtrans":6169,"oftware":6170,"deep":6171,"Ġcould":6172,"notĠtoĠ":6173,"ĠtheĠnam":6174,"esĠinclud":6175,"guarante":6176,"ka":6177,"map":6178,"Ġwon":6179,"cheap":6180,"Ġhold":6181,"ingĠus":6182,"compared":6183,"eĠhop":6184,"ĠaĠdec":6185,"Ġengineer":6186,"uggest":6187,",ĠthereĠ":6188,"erâĢĻsĠ":6189,"Ġfield":6190,"Ġtime.":6191,"engin":6192,"Ġbeing":6193,"correct":6194,"49":6195,"ryĠandĠ":6196,".Ġus":6197,"s,Ġh":6198,"ĠaĠbitĠ":6199,"eĠsureĠtoĠ":6200,"ĠboardĠ":6201,"particularlyĠ":6202,"Ġbre":6203,"Ġlibr":6204,"incor":6205,"rowser":6206,"Ġthroughout":6207,"lan":6208,"pc":6209,"onsor":6210,"ingĠover":6211,"physical":6212,",ĠbutĠi":6213,"quality":6214,"lessĠthan":6215,"Ġtemplat":6216,"apanes":6217,"46":6218,"s\"":6219,"orm":6220,"ullyĠ":6221,"ounsel":6222,"eball":6223,"collection":6224,"Ġsix":6225,"Ġpaint":6226,"child":6227,"sĠinto":6228,"imagin":6229,"Ġboard":6230,"governmentĠ":6231,"responsibleĠfor":6232,"eech":6233,"Ġdocument":6234,"immer":6235,"removeĠ":6236,"ĠwhenĠi":6237,".ĠifĠyouĠareĠ":6238,"Ã¤":6239,"sĠcom":6240,"Ġsell":6241,"ĠtheĠcurrentĠ":6242,"ĠtheyĠwill":6243,"provideĠa":6244,"partĠ":6245,"ĠlikeĠ":6246,"âĢ²":6247,"ingĠinto":6248,"Ġhowever":6249,"ĠonlineĠ":6250,"Ġcampaign":6251,"georg":6252,"sĠass":6253,"natur":6254,"postĠ":6255,"weĠw":6256,"ĠreadĠ":6257,"endor":6258,"iesĠthatĠ":6259,"Ġhaven":6260,"oupon":6261,"calc":6262,"continueĠtoĠ":6263,"ĠdoesĠnotĠ":6264,"Ġstreet":6265,"ordin":6266,"provides":6267,"legis":6268,"47":6269,"birth":6270,"ĠwithĠa":6271,"ĠasĠmuch":6272,"eĠdon":6273,"quicklyĠ":6274,"Ġawesom":6275,"rush":6276,"elessĠ":6277,"olish":6278,"eĠaĠfew":6279,"eather":6280,"helpful":6281,"sĠmustĠ":6282,"efficientĠ":6283,"ĠsomeoneĠ":6284,"sĠwouldĠ":6285,"Ġpanel":6286,"oday":6287,"creditĠ":6288,"Ġconnect":6289,"es,Ġand":6290,"soĠi":6291,"phoneĠ":6292,"electrical":6293,"definitelyĠ":6294,"circ":6295,"si":6296,"inĠb":6297,"ersĠfor":6298,"Ġapprov":6299,"ifficultĠ":6300,"environmental":6301,"ĠyouĠhaveĠ":6302,"ĠtrustĠ":6303,"scen":6304,"interview":6305,".ĠinĠaddition":6306,"includesĠ":6307,"ÑĤ":6308,"ĠandĠfor":6309,"asp":6310,"Ġjun":6311,"Ġextra":6312,"rupt":6313,"else":6314,"Ġpast":6315,"eĠweb":6316,"ateĠwith":6317,"interior":6318,"appear":6319,"Ġtransform":6320,"rig":6321,"Ġmer":6322,"esĠisĠ":6323,"rowd":6324,"eĠthatĠtheĠ":6325,"interestedĠin":6326,"09":6327,"eableĠ":6328,"mos":6329,"Ġpal":6330,"Ġdriver":6331,"Ġreplac":6332,"ivor":6333,"rast":6334,"argetĠ":6335,"giveĠyou":6336,"Ġsn":6337,"Ġmotor":6338,"entireĠ":6339,"ĠtoĠtheĠp":6340,"shad":6341,"eĠbeli":6342,"eachĠother":6343,"Ġdiseas":6344,"ĠmultipleĠ":6345,"Ġindepend":6346,"ramework":6347,"Ġcrim":6348,".Ġan":6349,"ysĠ":6350,"estim":6351,"apital":6352,"burn":6353,"e:Ġ":6354,"ken":6355,"pull":6356,"Ġden":6357,"aker":6358,"eĠspecial":6359,"uxur":6360,"eĠwhich":6361,"Ġa.m":6362,"edĠus":6363,"quant":6364,"eĠdata":6365,"Ġknew":6366,"ethodĠ":6367,"Ġguest":6368,"sĠwillĠbeĠ":6369,"Ġclin":6370,"Ġpet":6371,"Ġdamag":6372,"eĠinto":6373,"Ġapplic":6374,"eĠtheĠbestĠ":6375,"42":6376,"bus":6377,"eĠ-":6378,"enabl":6379,"oster":6380,"equipp":6381,"discus":6382,"85":6383,"imiz":6384,"ĠinĠb":6385,"amber":6386,"ĠofĠthisĠ":6387,"believ":6388,"gift":6389,"squ":6390,"ĠforĠa":6391,"Ġshould":6392,"ĠaĠmon":6393,"oupleĠ":6394,",ĠyouĠwill":6395,"sĠareĠs":6396,"ĠabsolutelyĠ":6397,"01":6398,"Ġtea":6399,",Ġv":6400,"Ġwear":6401,"s,Ġi":6402,"ĠafterĠtheĠ":6403,"Ġtermin":6404,"Ġenglish":6405,"recommendĠ":6406,",Ġ\"":6407,"ĠprobablyĠ":6408,"ĠtheĠdata":6409,"phys":6410,"sport":6411,"omet":6412,"ĠcareĠ":6413,"edĠan":6414,"edicat":6415,"Ġdifferenc":6416,"ĠtheĠservic":6417,"Ġabov":6418,"eĠfre":6419,"Ġperiod":6420,"eĠgam":6421,"suffer":6422,"machin":6423,".ĠbyĠ":6424,"Ġdollar":6425,"Ġtwo-":6426,"ĠgodĠ":6427,"eĠtaken":6428,"bad":6429,"ortĠof":6430,"Ġfish":6431,"haw":6432,"ĠtheĠfac":6433,"Ġexecut":6434,"assion":6435,"provider":6436,"Ġeither":6437,"Ġmc":6438,"Ġintegr":6439,"ĠofĠtheĠm":6440,"ĠofĠtheĠp":6441,"eĠint":6442,"ĠasĠitĠ":6443,"eĠco":6444,"Ġvia":6445,"Ġprofil":6446,"grapher":6447,"120":6448,"aĠ(":6449,"aultĠ":6450,"conserv":6451,"concept":6452,"mart":6453,"singleĠ":6454,"Ġtap":6455,"entĠtoĠ":6456,"mental":6457,"yearsĠ":6458,"Ġprepar":6459,"doesn'tĠ":6460,"death":6461,"ini":6462,"oubl":6463,",Ġwe":6464,"ĠandĠyou":6465,"ĠtheĠcours":6466,"ĠaĠman":6467,"Ġconsist":6468,"ĠbyĠtheĠ":6469,"sĠatĠtheĠ":6470,"ocolat":6471,",Ġas":6472,":ĠtheĠ":6473,"pic":6474,"satis":6475,"Â°":6476,"Ġblock":6477,"Ġdeath":6478,"haveĠtheĠ":6479,"eĠdi":6480,"Ġtransaction":6481,"urchaseĠ":6482,"arri":6483,"Ġcity":6484,"Ġbeautiful":6485,"Ġhy":6486,"âĢĻ.":6487,"sĠofĠyour":6488,"ies.":6489,".Ġi'm":6490,"after":6491,"registration":6492,"Ġcommission":6493,"aveĠth":6494,"styl":6495,"ĠlookingĠfor":6496,"skin":6497,"ĠandĠj":6498,"eĠsit":6499,"ĠatĠa":6500,"ednesday":6501,",Ġthough":6502,"beĠt":6503,"dream":6504,"Ġcha":6505,"leadĠ":6506,"ĠfreeĠ":6507,"royal":6508,"ky":6509,"pan":6510,"inĠour":6511,"ingu":6512,"Ġbedroom":6513,"Ġfinal":6514,"propertyĠ":6515,"ed!":6516,"construct":6517,"umstanc":6518,"Ġjo":6519,"ynth":6520,"edĠour":6521,"estin":6522,"eĠhous":6523,"lett":6524,"Ġcompar":6525,"coin":6526,"attleĠ":6527,"ĠtoĠbeĠa":6528,"profit":6529,"ĠfrontĠof":6530,".d":6531,".ĠpleaseĠ":6532,"aryĠof":6533,"ĠandĠn":6534,"Ġnic":6535,"apor":6536,"spar":6537,"graphic":6538,"princip":6539,"beyond":6540,",ĠasĠwellĠasĠ":6541,"beĠm":6542,"Ġ*":6543,"Ġevery":6544,"ĠtoĠcreat":6545,"ĠtoĠtheĠm":6546,"ĠactĠ":6547,"ĠtheĠdayĠ":6548,"oston":6549,"surfac":6550,"pop":6551,"eĠspac":6552,"250":6553,"Ġalread":6554,"osit":6555,"upgrad":6556,"ivesĠ":6557,"ingĠmachin":6558,"Ġmanagement":6559,"cityĠ":6560,"pen":6561,"wo":6562,"ĠandĠhisĠ":6563,"Ġmg":6564,"itĠfrom":6565,"Ġdrug":6566,"hill":6567,"Ġath":6568,"inĠtheĠs":6569,"sĠagain":6570,"ified":6571,"dev":6572,"es.ĠthisĠ":6573,"Ġwor":6574,"Ġmac":6575,"Ġinsuranc":6576,"sĠavailableĠ":6577,"Ġstop":6578,"ĠjanuaryĠ":6579,"assiveĠ":6580,"191":6581,"Ġmoney":6582,"whatever":6583,"espec":6584,".Ġalthough":6585,"digital":6586,"daughter":6587,"usi":6588,".ĠiĠwasĠ":6589,"eĠthatĠisĠ":6590,"ĠaĠway":6591,"gb":6592,"yself":6593,"uction":6594,"ized":6595,"ĠaugustĠ":6596,".ĠthankĠyou":6597,"hardĠ":6598,"Ġpc":6599,"Ġmemor":6600,"Ġchannel":6601,"ityĠfor":6602,".ĠinĠtheĠ":6603,"somethingĠ":6604,"Ġproced":6605,"his":6606,"orĠin":6607,".Ġit'sĠ":6608,"ĠandĠitĠ":6609,"Ġpo":6610,"Ġdeep":6611,"192":6612,"regn":6613,"Ġexplor":6614,"Ġdrop":6615,"aboveĠ":6616,"eĠsuch":6617,"ĠweĠareĠ":6618,".ĠthereĠisĠ":6619,"summer":6620,"Ġson":6621,"identify":6622,"rightĠnow":6623,"firm":6624,"enz":6625,"channel":6626,"eĠtyp":6627,"eĠpoint":6628,"graduat":6629,"dust":6630,"headĠof":6631,"ĠsaveĠ":6632,"elig":6633,"ĠtoĠthisĠ":6634,"grav":6635,"remier":6636,"sequenc":6637,"vehicleĠ":6638,"Ġanc":6639,"icial":6640,"e.ĠweĠ":6641,"should":6642,"e,Ġs":6643,"ia,Ġ":6644,"regulation":6645,"require":6646,"ĠaĠwideĠ":6647,"ocket":6648,"usband":6649,"undredsĠof":6650,"Ġthick":6651,"elm":6652,"Ġadapt":6653,"edĠback":6654,"ĠtheĠdesign":6655,"ĠpropertyĠ":6656,"executiveĠ":6657,"iphoneĠ":6658,"ml":6659,"rent":6660,"ĠandĠhow":6661,"Ġmaster":6662,"shot":6663,"ĠallĠyour":6664,"Ġaccomplish":6665,"abilities":6666,"Ġregister":6667,"dueĠtoĠ":6668,"damag":6669,"y?":6670,"Ġenerg":6671,"ictĠ":6672,"used":6673,"eĠbut":6674,"actual":6675,"eĠfeat":6676,"umption":6677,"ula":6678,"ĠtheĠfull":6679,"ĠaĠâĢľ":6680,"ublisher":6681,"facebook":6682,"ĠaĠweek":6683,"loveĠtoĠ":6684,"Ġtrial":6685,",Ġafter":6686,"pain":6687,"eĠv":6688,"Ġreli":6689,"ĠtheĠschool":6690,"Ġacknowledg":6691,"Ġpropos":6692,"Ġamount":6693,"noĠlonger":6694,".ĠweĠareĠ":6695,"emergencyĠ":6696,"ustralian":6697,"heĠwasĠ":6698,"slow":6699,"uzz":6700,"yer":6701,"ensu":6702,"Ġfocus":6703,"igan":6704,"agr":6705,"Ġtran":6706,"Ġwheel":6707,"udden":6708,"eĠcover":6709,"Ġvot":6710,"cohol":6711,"Ġclas":6712,"holid":6713,"stopp":6714,"ĠawayĠfrom":6715,"hang":6716,"Ġ#":6717,"ameter":6718,"202":6719,"eĠpark":6720,"ĠaĠph":6721,"rossĠ":6722,"ĠbeforeĠ":6723,"profil":6724,");":6725,"600":6726,"lass":6727,"esk":6728,"lastĠyear":6729,"aboration":6730,"Ġthursday":6731,")Ġand":6732,"bell":6733,"fitĠ":6734,"Â·":6735,"Ñĥ":6736,"abb":6737,"Ġrid":6738,"weight":6739,"neighbor":6740,"s.ĠtheyĠ":6741,"ĠyearsĠago":6742,"havingĠa":6743,".ĠsheĠ":6744,"Ġoperation":6745,"Ġjerse":6746,"Ã¡":6747,"ouble":6748,"Ġwonder":6749,"rought":6750,"eĠforĠ":6751,"paredĠ":6752,"relig":6753,"movi":6754,"spirit":6755,",Ġal":6756,"arian":6757,"ĠtoĠmyĠ":6758,"Ġfill":6759,"esĠcan":6760,"Ġinnov":6761,"uper":6762,"ĠtheĠbod":6763,"icketĠ":6764,"preventĠ":6765,"itiesĠof":6766,"ointĠof":6767,"manager":6768,"connectĠ":6769,"crim":6770,",ĠtheĠp":6771,"Ġthus":6772,"ĠtoĠseeĠ":6773,"ĠpleaseĠ":6774,"ĠbodyĠ":6775,"ampaign":6776,"habit":6777,"needsĠtoĠ":6778,"no.Ġ":6779,"Ġremov":6780,"volunteer":6781,"es.Ġin":6782,"Ġheart":6783,"och":6784,"Ġawar":6785,".Ġst":6786,"ĠandĠch":6787,"ĠpartĠ":6788,"resum":6789,"Ġshall":6790,"ĠaĠmajor":6791,"googleĠ":6792,"Ø§":6793,"Ġaustralia":6794,"ĠtheĠsystem":6795,"yourĠown":6796,"makes":6797,"balanc":6798,"knownĠasĠ":6799,"duringĠtheĠ":6800,"onom":6801,",ĠnotĠ":6802,"Ġcloth":6803,"Ġrelat":6804,"undayĠ":6805,"uffer":6806,"Ġmetal":6807,"Ġexplain":6808,"eon":6809,"gameĠ":6810,"gather":6811,"priateĠ":6812,"iant":6813,"Ġtheat":6814,"Ġvict":6815,"lar":6816,".Ġ.Ġ":6817,"riz":6818,"ĠisĠin":6819,"ĠtheĠgreat":6820,"e-mail":6821,"ĠaĠreal":6822,"sĠcanĠbeĠ":6823,"leadership":6824,"frequ":6825,"sĠshouldĠ":6826,"edĠ(":6827,"s,Ġb":6828,"Ġjack":6829,"likeĠtheĠ":6830,"ridayĠ":6831,"latestĠ":6832,"Ġafrican":6833,".Ġalso":6834,"forĠa":6835,"Ġalon":6836,"eĠpre":6837,"Ġappar":6838,"becomeĠ":6839,"farm":6840,"heat":6841,"oveĠth":6842,"sĠher":6843,"shin":6844,"Ġtrick":6845,"practical":6846,"Ġvill":6847,"ĠaĠbetter":6848,"ĠstudentsĠ":6849,"mp":6850,"sĠv":6851,"constant":6852,"ĠtheĠnorth":6853,"shipp":6854,"partyĠ":6855,"ĠtheĠhighestĠ":6856,"greg":6857,"prom":6858,"push":6859,"y'sĠ":6860,",ĠmyĠ":6861,"Ġvoic":6862,"ĠtimeĠfor":6863,"ĠseeĠ":6864,"sĠaround":6865,"yr":6866,"ĠtheĠmajor":6867,"makeĠitĠ":6868,"directlyĠ":6869,"sĠact":6870,"07":6871,"fir":6872,"edĠw":6873,"eder":6874,"eĠsaidĠ":6875,"ĠletĠ":6876,"190":6877,"ĠtheĠgreatĠ":6878,".ĠhereĠ":6879,"environmentĠ":6880,"ingĠhow":6881,"Ġcool":6882,"Ġsummer":6883,"osh":6884,"Ġexchang":6885,"âĢľth":6886,"flower":6887,".ĠitĠwas":6888,"opportunities":6889,"ĠpercentĠof":6890,"sĠunder":6891,"sĠwer":6892,"eĠso":6893,"fully":6894,"eĠtooĠ":6895,"placeĠ":6896,"eavyĠ":6897,"ates":6898,"Ġhor":6899,"workĠwith":6900,"Ġspend":6901,"money":6902,"ingĠpart":6903,"ĠweĠar":6904,".com/":6905,"quickly":6906,"examin":6907,"root":6908,"ĠgoogleĠ":6909,"s,Ġwith":6910,"portion":6911,"retriev":6912,"creativeĠ":6913,"ĠsoĠmuch":6914,"ativelyĠ":6915,",ĠatĠ":6916,"sĠbutĠ":6917,"ary.Ġ":6918,"Ġselect":6919,"ĠsingleĠ":6920,"olveĠ":6921,"ientist":6922,"university":6923,"Ġcapital":6924,".org":6925,"cell":6926,"jump":6927,"roundĠ":6928,"Ġsim":6929,"eler":6930,"Ġpromot":6931,"industrial":6932,"certainlyĠ":6933,"66":6934,"memor":6935,"south":6936,"sĠsoĠ":6937,"ateĠandĠ":6938,"Ġbenefit":6939,"Ġhug":6940,"shortĠ":6941,"outcom":6942,"ĠtheĠwall":6943,"Ġzeal":6944,"08":6945,"ua":6946,"usĠin":6947,"Ġeffort":6948,"revenu":6949,"yĠis":6950,"Ġfire":6951,"identĠof":6952,"aps":6953,"ogen":6954,"holder":6955,":Ġ\"":6956,"london":6957,"wash":6958,"ingly":6959,"ationsĠof":6960,"upper":6961,"apos":6962,"ĠallĠover":6963,"Ġlock":6964,"ĠtheĠdec":6965,"iesĠfor":6966,"becam":6967,"ingĠhim":6968,"Ġintroduc":6969,"a)":6970,"bow":6971,"eo":6972,",ĠitâĢĻsĠ":6973,"esus":6974,"Ġsession":6975,"roid":6976,"incred":6977,"yster":6978,"tenanc":6979,"higher":6980,"invit":6981,"ĠgoingĠtoĠ":6982,"intoĠtheĠ":6983,"xx":6984,"liqu":6985,"weak":6986,"ingĠintoĠ":6987,"sĠmad":6988,"iran":6989,"eĠsal":6990,"eĠfound":6991,"Ġphys":6992,"hospital":6993,"youĠshouldĠ":6994,"rod":6995,"igration":6996,"ailor":6997,"ĠtimeĠin":6998,"Ġafrica":6999,".Ġthank":7000,"ki":7001,"ingĠthis":7002,"Ġcut":7003,"Ġsimilar":7004,"Ġarg":7005,"Ġvir":7006,"Ġexper":7007,"Ġphysical":7008,"Ġquality":7009,"arilyĠ":7010,"forget":7011,"Ġhouse":7012,"ĠthatĠareĠ":7013,"spendĠ":7014,"howĠmuch":7015,"Ġphotograph":7016,"protectĠ":7017,"norm":7018,"believeĠ":7019,"ĠindustryĠ":7020,"hor":7021,"oz":7022,"Ġfurnit":7023,"Ġgain":7024,"eĠdidĠ":7025,"interestĠ":7026,"Ġassistanc":7027,"ĠminutesĠ":7028,"dam":7029,"pin":7030,"rear":7031,"ably":7032,"utch":7033,"ĠiâĢĻm":7034,"Ġlog":7035,"Ġanyway":7036,"Ġprefer":7037,"shopp":7038,"ingĠwork":7039,"Ġbel":7040,"Ġbest":7041,"eĠsens":7042,"Ġparent":7043,"eĠtheĠmostĠ":7044,"enableĠ":7045,"ĠthatĠcan":7046,"ucial":7047,"printĠ":7048,"Ġrich":7049,"ĠiĠwasĠ":7050,"subject":7051,"Ġanalysis":7052,"cash":7053,"ĠtoĠall":7054,"Ġred":7055,"ĠthisĠsit":7056,"well-":7057,"homeĠ":7058,"song":7059,"inspir":7060,"edĠafter":7061,"acific":7062,"porateĠ":7063,"ĠshortĠ":7064,"uresĠof":7065,"Ġaccident":7066,"ĠtheĠhistor":7067,".ĠweĠhaveĠ":7068,"kick":7069,"mill":7070,"influenc":7071,"stead":7072,"ofĠ":7073,"edĠn":7074,"Ġfavor":7075,"anta":7076,"rett":7077,"escap":7078,"pot":7079,"wal":7080,"through":7081,"plug":7082,"ĠredĠ":7083,"achineĠ":7084,".Ġsinc":7085,"'veĠbeen":7086,"ĠsocialĠmedia":7087,"patient":7088,"y:":7089,"ate,Ġ":7090,"Ġdoctor":7091,"behavior":7092,"ensen":7093,"faction":7094,"ĠwhatĠisĠ":7095,"german":7096,".Ġsom":7097,".Ġeach":7098,"Ġhttp":7099,"Ġargu":7100,"Ġlower":7101,"provision":7102,"eĠpay":7103,"ersĠhaveĠ":7104,"Ġmanufactur":7105,"neededĠtoĠ":7106,"ĠbrandĠ":7107,"Ġrecommend":7108,"second":7109,"sĠwork":7110,"ate.Ġ":7111,"ĠheĠsaid":7112,"ificallyĠ":7113,"ĠlessĠ":7114,"ĠthatĠyour":7115,"eaven":7116,"Ġstrength":7117,".Ġas":7118,"length":7119,"yellow":7120,"Ġthorough":7121,"spot":7122,"likeĠm":7123,"ĠleftĠ":7124,"Ġcentral":7125,"Ġtalent":7126,"77":7127,"mun":7128,"eĠus":7129,"inĠmyĠ":7130,"Ġcup":7131,"Ġsound":7132,"Ġwait":7133,"Ġpattern":7134,"ed?":7135,"ĠfebruaryĠ":7136,"ĠofĠtheĠb":7137,"Ġrefer":7138,"Ġveg":7139,"ĠaĠsign":7140,"ystal":7141,"aptop":7142,"ĠaccordingĠtoĠtheĠ":7143,"ĠseriesĠ":7144,"Ġappreciat":7145,"eover":7146,"y.Ġi":7147,"Ã¶":7148,"Ġprivat":7149,"Ġmatter":7150,"laugh":7151,"ĠhighĠschool":7152,"ĠuniversityĠ":7153,"es;":7154,"plantĠ":7155,"ĠtheĠfilm":7156,"Ġcanada":7157,"sĠforĠ":7158,",ĠandĠthen":7159,"directĠ":7160,"self-":7161,"ĠeasilyĠ":7162,"especially":7163,"eeĠ":7164,"wast":7165,"wantĠ":7166,"Ġput":7167,"Ġinc":7168,"ira":7169,"ingĠn":7170,"antageĠof":7171,"Ġteen":7172,"lexibleĠ":7173,"behindĠ":7174,"echanism":7175,"%.":7176,"Ġsan":7177,"Ġsuit":7178,"Ġwinter":7179,"edĠdown":7180,"ageĠd":7181,"ĠleaveĠ":7182,".l":7183,"keptĠ":7184,"session":7185,"westĠ":7186,",Ġetc":7187,"entrepreneur":7188,"oward":7189,"Ġdetermin":7190,"ulatedĠ":7191,"grac":7192,"rator":7193,"minister":7194,"isĠon":7195,"ations.Ġ":7196,"Ġstay":7197,"octoberĠ":7198,"Ġrental":7199,"Ġleagu":7200,"ingĠsoĠ":7201,"statement":7202,"Ġscal":7203,"serviceĠ":7204,"jan":7205,"jun":7206,"simpl":7207,"in-":7208,"Ġhall":7209,"Ġinvolv":7210,"withĠa":7211,"ĠtheĠmost":7212,"partĠofĠtheĠ":7213,"td":7214,"Ġprec":7215,"ĠdailyĠ":7216,"Ġrecip":7217,"insteadĠof":7218,"Ġadvoc":7219,"Ġconsumer":7220,"Ġbon":7221,"Ġfestival":7222,"ĠtoĠtheĠf":7223,"eĠteam":7224,"Ġisland":7225,"iodĠof":7226,"developmentĠ":7227,"powerful":7228,"iĠwouldĠ":7229,"Ġtable":7230,".Ġnot":7231,".ĠwhenĠyou":7232,"edĠtheĠs":7233,"Ġdraw":7234,"very":7235,"india":7236,"spok":7237,"04":7238,"rdĠ":7239,"ĠandĠst":7240,"eĠtalk":7241,"sĠandĠc":7242,"inct":7243,"guest":7244,"eĠdoesĠ":7245,"didnâĢĻtĠ":7246,"demonstr":7247,"gor":7248,"rific":7249,"sem":7250,",Ġun":7251,"Ġcabin":7252,"Ġfair":7253,"sĠam":7254,"carryĠ":7255,"colour":7256,"uthentic":7257,"ĠtoĠgiveĠ":7258,"Ġpsych":7259,"ĠmeĠ":7260,"cloudĠ":7261,"Ġrather":7262,"Ġamb":7263,"ĠtheseĠs":7264,"Ġtakes":7265,".ĠthereĠis":7266,"perfectĠfor":7267,"villeĠ":7268,"Ġtuesday":7269,",Ġto":7270,"languag":7271,"itĠcan":7272,"ocean":7273,"direction":7274,"sĠcouldĠ":7275,"Ġbutton":7276,"christmasĠ":7277,"hall":7278,"iouslyĠ":7279,"vic":7280,"Ġinsid":7281,"ĠinĠmyĠ":7282,"emphas":7283,"emotional":7284,"s.Ġ\"":7285,"ĠisĠan":7286,"Ġleav":7287,"ing,ĠbutĠ":7288,"noĠmatter":7289,"Ġbegin":7290,"&apos":7291,"yber":7292,"als":7293,"edĠwhen":7294,"Ġhill":7295,"olym":7296,"pers":7297,"ĠtheĠcity":7298,"ĠplayĠ":7299,"scription":7300,"saw":7301,"eĠnew":7302,"ationĠisĠ":7303,"ridĠ":7304,"apon":7305,"sugar":7306,"Ġital":7307,"wasĠpost":7308,"ĠitĠwas":7309,"Ġgraph":7310,"ĠaĠlotĠ":7311,"eĠsometh":7312,"wareĠ":7313,"arr":7314,"forward":7315,"Ġfriday":7316,"ĠalsoĠbeĠ":7317,"edĠonĠ":7318,"glas":7319,"bably":7320,"Ġagreement":7321,"repeat":7322,"es,ĠtheĠ":7323,"eĠmarket":7324,"ĠchildĠ":7325,"orldĠof":7326,"Ġassoci":7327,"ampleĠof":7328,"limitedĠ":7329,"ĠtheĠfuture":7330,"eâĢĻ":7331,"oir":7332,"inem":7333,"Ġcoffe":7334,"amental":7335,"lyĠwith":7336,"Ġvac":7337,"lesson":7338,"packag":7339,"send":7340,"ĠtheĠrightĠ":7341,"itness":7342,"happyĠ":7343,"ling":7344,"mooth":7345,"among":7346,"Ġreferenc":7347,"format":7348,"eĠhand":7349,"ĠtheĠdist":7350,"eholder":7351,"-year-oldĠ":7352,"retĠ":7353,"roc":7354,"le-":7355,"sĠinĠyour":7356,"oga":7357,"ĠbeingĠ":7358,"ymbol":7359,"gradu":7360,"varietyĠof":7361,"benefit":7362,"mir":7363,"sĠhasĠ":7364,"esĠtoĠtheĠ":7365,"thĠof":7366,"whos":7367,"eĠdoes":7368,"Ġobject":7369,"-the-":7370,"bear":7371,",ĠespeciallyĠ":7372,"ed.Ġi":7373,"ĠyouĠtoĠ":7374,"es,ĠbutĠ":7375,"Ġscen":7376,"Ġdisplay":7377,"Ġmovi":7378,"government":7379,"stantial":7380,"Ġoriginal":7381,"-Ġ":7382,"oĠd":7383,"ĠsimpleĠ":7384,"itĠon":7385,"ingĠmon":7386,"aturdayĠ":7387,"gotten":7388,"necessaryĠ":7389,"Ġpackag":7390,"eater":7391,"mid":7392,"stĠof":7393,"aniel":7394,"Ġpolitical":7395,"ĠtoĠtheĠb":7396,"ĠandĠall":7397,"Ġvision":7398,"ĠiĠcan":7399,"Ġviol":7400,"ĠwantedĠtoĠ":7401,"anguageĠ":7402,"Ġmyself":7403,"Ġinstitut":7404,"&apos;":7405,"catch":7406,"gun":7407,"len":7408,"wonderful":7409,",Ġwher":7410,"aroundĠ":7411,"ĠandĠwill":7412,"lyn":7413,"workshop":7414,"s.com":7415,"ultimat":7416,"ugar":7417,"servicesĠ":7418,"Ġaccessor":7419,"oard":7420,"sent":7421,"ĠandĠareĠ":7422,"iveĠandĠ":7423,"ackag":7424,"Ġchem":7425,"spaper":7426,"eĠandĠtheĠ":7427,"ĠbelieveĠ":7428,"ĠaffordableĠ":7429,"].":7430,"securityĠ":7431,"atelyĠ":7432,"Ġformer":7433,"ĠatĠhom":7434,"financ":7435,"endĠup":7436,"having":7437,"kar":7438,"Ġemploy":7439,".ĠjustĠ":7440,"e,Ġin":7441,"eĠmightĠ":7442,"earedĠ":7443,"Ġvan":7444,"ĠaĠmember":7445,"largestĠ":7446,"wholeĠ":7447,"Ġbegan":7448,"Ġincom":7449,"ivity":7450,"owerful":7451,"ĠaĠbeautiful":7452,"Ġactual":7453,",ĠheĠ":7454,"meansĠ":7455,"avidĠ":7456,"ifĠyour":7457,"Ġlength":7458,"ottĠ":7459,".ĠtheĠd":7460,"Ġkin":7461,"straight":7462,"Ġpan":7463,"chosen":7464,"conversation":7465,"stateĠof":7466,"Ġindian":7467,"Ġappli":7468,"metal":7469,"ĠestateĠ":7470,"ĠvehicleĠ":7471,"05":7472,"76":7473,"edĠtheĠc":7474,"ĠhardĠ":7475,"ĠandĠalsoĠ":7476,"ĠstreetĠ":7477,"portĠof":7478,"Ġrais":7479,"raditional":7480,"ĠtellĠyou":7481,"ustainableĠ":7482,"Ġthird":7483,"its":7484,"itat":7485,",Ġfrom":7486,",Ġmak":7487,"esĠar":7488,"ĠhotĠ":7489,"s.ĠbutĠ":7490,"recently":7491,"raf":7492,"ingĠtogether":7493,"ĠâĢĵĠ":7494,"Ġprotect":7495,"ginia":7496,"nameĠ":7497,"Ġcancer":7498,"Ġmother":7499,"Ġbirth":7500,"imageĠ":7501,"Ġkm":7502,"ĠtypicallyĠ":7503,"immediatelyĠ":7504,"pn":7505,"rust":7506,".Ġor":7507,"forĠexample":7508,"leather":7509,"ationĠofĠtheĠ":7510,"marri":7511,"Ġcollect":7512,"approach":7513,"relatedĠtoĠ":7514,"ampionship":7515,"ranch":7516,"ola":7517,"e.ĠbutĠ":7518,"ĠaĠdifferentĠ":7519,"ensureĠthatĠ":7520,"Ġtun":7521,"rog":7522,"Ġmom":7523,"proveĠ":7524,"e,Ġw":7525,"ĠtheĠtyp":7526,"ĠmakesĠ":7527,"high-":7528,"Ġdrink":7529,"knew":7530,"ansĠ":7531,"ingĠwasĠ":7532,"lement":7533,"lost":7534,"Ġnut":7535,"s.Ġyou":7536,"ĠyourĠown":7537,"whetherĠyou":7538,"chemical":7539,"cp":7540,"oid":7541,"ĠideasĠ":7542,"ĠtoĠtheĠd":7543,"repl":7544,"yĠon":7545,"thĠcentur":7546,"Ġpur":7547,"oog":7548,"ĠautoĠ":7549,"olitic":7550,"ĠcustomersĠ":7551,"beyondĠ":7552,"initial":7553,"whiteĠ":7554,"iphon":7555,"handleĠ":7556,"Ġdidn'tĠ":7557,"ket":7558,"Ġeconom":7559,"Ġcourse":7560,"ĠwestĠ":7561,"entire":7562,"eĠsolution":7563,"s,Ġw":7564,"ĠtheĠsouth":7565,"contin":7566,"Ġplastic":7567,"Ġactually":7568,"ĠmakeĠa":7569,"didĠnotĠ":7570,"degre":7571,"edĠitsĠ":7572,"Ġdifferent":7573,"emoryĠ":7574,"sĠagoĠ":7575,"eĠdisc":7576,"ĠnovemberĠ":7577,".ĠtheyĠareĠ":7578,"ij":7579,"nel":7580,"sd":7581,"Ġhospital":7582,"resist":7583,"located":7584,"ĠtotallyĠ":7585,"arin":7586,"ĠtheĠsun":7587,"Ġyourself":7588,"ĠthereĠwasĠ":7589,"Ġhigh-":7590,"hal":7591,"Ġchair":7592,"that":7593,"Ġbit":7594,"Ġbath":7595,"urfac":7596,"ĠinĠtheir":7597,"ĠofĠtheir":7598,"beingĠa":7599,"e.com":7600,"Ġprofess":7601,"remot":7602,"ĠtwoĠyear":7603,"ĠenjoyĠ":7604,"Ġfinanc":7605,"beforeĠyou":7606,"checkĠoutĠ":7607,"ĠassociatedĠwith":7608,"nger":7609,"wonder":7610,"another":7611,"spection":7612,"obl":7613,"regional":7614,"ression":7615,"180":7616,"grown":7617,"Ġelection":7618,"advantag":7619,"costĠ":7620,"atil":7621,"isĠthatĠ":7622,"Ġtruth":7623,"actuallyĠ":7624,"letâĢĻsĠ":7625,"becauseĠi":7626,".ĠyouĠwill":7627,"expectedĠtoĠ":7628,"insid":7629,".Ġv":7630,"cher":7631,"Ġone-":7632,"ĠlotĠ":7633,"ĠtheseĠf":7634,"manyĠpeopleĠ":7635,"processĠof":7636,"ibilityĠof":7637,"78":7638,"cameĠ":7639,"eĠareĠ":7640,"sĠitĠ":7641,"Ġwithout":7642,"s>Ġ<s>Ġs":7643,"ĠinternetĠ":7644,"Ġlife.Ġ":7645,"ĠtooĠmuch":7646,"ofĠcourse,Ġ":7647,"usĠfor":7648,"eĠher":7649,"Ġmult":7650,"uringĠ":7651,"Ġlicens":7652,"Ġforeign":7653,"Ġtra":7654,"ĠtheĠco":7655,"ingĠsit":7656,"ureĠisĠ":7657,"checkĠout":7658,"Ġsoon":7659,"ĠtheĠlargestĠ":7660,"sĠalsoĠ":7661,"erĠtoĠ":7662,"ers.":7663,"Ġmat":7664,"etĠal":7665,"loveĠth":7666,"ĠtheĠfour":7667,"ĠtheĠtown":7668,"ĠthereĠwas":7669,"Ġagent":7670,"iplin":7671,"58":7672,"sing":7673,"Ġmid":7674,"oung":7675,"ayĠfor":7676,"reditĠ":7677,"placeĠtoĠ":7678,"Ġrecover":7679,"ĠstudentĠ":7680,"companies":7681,"Ġengag":7682,"someon":7683,"ĠgiveĠyou":7684,"worry":7685,"randĠ":7686,"ware":7687,"Ġber":7688,"ĠandĠtheir":7689,"eĠoffic":7690,"Ġjew":7691,"laz":7692,"ĠmoreĠaboutĠ":7693,"eĠmonth":7694,"Ġbehind":7695,"41":7696,"s.Ġd":7697,"Ġstuff":7698,"ĠtheĠser":7699,"william":7700,"achel":7701,"sĠwithĠtheĠ":7702,",Ġthey":7703,"oak":7704,"pi":7705,"sleep":7706,"esĠthrough":7707,"Ġshap":7708,"Ġmm":7709,"progress":7710,"ĠaĠsimpleĠ":7711,"phil":7712,"Ġtwic":7713,"rival":7714,"regardles":7715,"iev":7716,"secondĠ":7717,"yĠp":7718,"ĠandĠitsĠ":7719,"Ġmission":7720,"Ġnecess":7721,"comb":7722,"comeĠtoĠ":7723,"sho":7724,"e,Ġwith":7725,"ĠtheĠsid":7726,"Ġshopp":7727,"yal":7728,"eĠover":7729,"ingĠprogram":7730,"Ġpen":7731,"sĠandĠp":7732,"ĠtheĠdi":7733,"ĠthisĠtim":7734,"findĠoutĠ":7735,"onĠs":7736,"oral":7737,"Ġwal":7738,"usa":7739,"Ġalcohol":7740,"consc":7741,"s.Ġb":7742,"shir":7743,"Ġadopt":7744,"eĠpar":7745,"Ġthere.Ġ":7746,"Ġautomatic":7747,"messag":7748,"witch":7749,"erĠisĠ":7750,"ing-":7751,"amb":7752,".ĠtheĠb":7753,"eĠinĠyour":7754,"identifi":7755,"generation":7756,"techn":7757,"switch":7758,"Ġcompetition":7759,"ct":7760,"mac":7761,"Ġtag":7762,"ĠandĠl":7763,"usesĠ":7764,"account":7765,"ador":7766,"eĠtax":7767,"ĠwithĠour":7768,"seat":7769,"eag":7770,"sĠtheyĠ":7771,"etaryĠ":7772,"amic":7773,"itĠwith":7774,"apac":7775,"ersĠwill":7776,"Ġresum":7777,"lifeĠ":7778,":ĠâĢľ":7779,"ĠdidĠnotĠ":7780,"castĠ":7781,"Ġder":7782,"usingĠa":7783,"Ġstyle":7784,"formĠof":7785,"ificantlyĠ":7786,"Ġti":7787,",ĠjustĠ":7788,"Ġwast":7789,"ĠdriveĠ":7790,"eĠdayĠ":7791,"eĠhealth":7792,"rosoftĠ":7793,"Ġroof":7794,"Ġconcept":7795,"passion":7796,"brother":7797,"san":7798,"Ġideas":7799,"chanc":7800,"imple":7801,"eĠtrain":7802,"ence,Ġ":7803,"atoryĠ":7804,"ĠtoĠsay":7805,"ĠcontinueĠtoĠ":7806,"ĠaĠparticular":7807,"Ġcommitte":7808,"ni":7809,"west":7810,"ingĠanyĠ":7811,"th,Ġ":7812,"iltĠ":7813,"Ġinjur":7814,"progres":7815,"eĠofĠs":7816,"s.ĠyouĠcan":7817,"classĠ":7818,"Ġkor":7819,"chapter":7820,"useĠtheĠ":7821,"usingĠtheĠ":7822,"eĠwell":7823,"Ġrail":7824,"index":7825,"Ġresident":7826,"ĠdecemberĠ":7827,"Ġcolour":7828,"Ġanalyz":7829,"eĠindust":7830,"ĠseptemberĠ":7831,"datedĠ":7832,"isedĠ":7833,"esĠbyĠ":7834,"e.Ġour":7835,"ansion":7836,"onĠtheĠother":7837,"Ġappropriat":7838,"organic":7839,"Ġtomorrow":7840,"hot":7841,"hug":7842,"ryĠof":7843,"itz":7844,"Ġworth":7845,"ĠtoĠprovid":7846,"eĠinvest":7847,"Ġacid":7848,"ĠtheseĠar":7849,"weekend":7850,"Ġdesk":7851,"ographic":7852,"ĠaĠgroup":7853,"cutĠ":7854,"ja":7855,"meal":7856,"moment":7857,"rition":7858,"Ġaverag":7859,"Ġcouncil":7860,"le.Ġ":7861,"eĠschool":7862,"shower":7863,"Ġround":7864,"ĠaĠsub":7865,"startedĠ":7866,"edĠfromĠtheĠ":7867,"suffic":7868,"Ġpip":7869,"positiveĠ":7870,"ingĠinter":7871,"ĠaccessĠtoĠ":7872,"\"Ġ(":7873,"-of":7874,"driver":7875,"ÃŃ":7876,"ĠaĠperson":7877,"Ġagric":7878,"ĠandĠcan":7879,"eless":7880,"emotion":7881,"quer":7882,"ĠatĠtheĠsameĠtim":7883,"ateĠfor":7884,"ersĠfrom":7885,"myĠf":7886,"lookingĠtoĠ":7887,"Ġsometim":7888,"pre-":7889,"relevantĠ":7890,"gaveĠ":7891,"ateĠtheĠ":7892,"streetĠ":7893,"Ġcourt":7894,"ĠwentĠ":7895,"ĠinĠour":7896,"abul":7897,"ityĠisĠ":7898,"flict":7899,"Ġhigher":7900,"republic":7901,"profitĠ":7902,"ydro":7903,"ĠabilityĠtoĠ":7904,"yard":7905,"ena":7906,"Ġsea":7907,"Ġpopular":7908,"Ġdeck":7909,"Ġalt":7910,"evolution":7911,"Ġjul":7912,"arioĠ":7913,"Ġoutdoor":7914,")Ġin":7915,"zon":7916,"ĠtheĠonlyĠ":7917,",Ġcan":7918,",ĠwasĠ":7919,"evenĠif":7920,"co-":7921,"Ġmonitor":7922,"happyĠtoĠ":7923,"levelĠof":7924,"69":7925,"critical":7926,"max":7927,"ĠcostĠ":7928,"Ġchap":7929,"Ġsu":7930,"island":7931,"mindĠ":7932,"Ġyears,Ġ":7933,"ĠinterestĠ":7934,"himself":7935,"ideaĠof":7936,"ĠanythingĠ":7937,"olin":7938,"Ġinspir":7939,"pray":7940,"proud":7941,"ĠtheĠpar":7942,"needĠfor":7943,"Ġafternoon":7944,"ologist":7945,"storag":7946,"Ġcoach":7947,"u.s.":7948,"Ġbuilding":7949,"Ġvideo":7950,"dg":7951,"Ġ=":7952,"Ġ..":7953,"Ġpeac":7954,"ifĠtheyĠ":7955,"Ġnext":7956,"ancyĠ":7957,"eĠboth":7958,"ersĠon":7959,"Ġstatement":7960,"Ġtelevision":7961,"fact":7962,".Ġpleas":7963,"itĠwouldĠ":7964,"Ġli":7965,"eĠseveral":7966,"indicat":7967,"enger":7968,"lookĠatĠ":7969,"Ġavail":7970,"couldĠbeĠ":7971,"Ġdepend":7972,"familiar":7973,"ĠsinceĠ":7974,"ĠanalysisĠ":7975,"esĠthatĠareĠ":7976,"ĠacrossĠtheĠ":7977,"inĠtheir":7978,"alc":7979,"is,Ġ":7980,"Ġmessag":7981,"ĠhandĠ":7982,"s.Ġwhen":7983,"sĠoffic":7984,"ĠtheĠcenter":7985,"ĠusuallyĠ":7986,"sĠareĠnotĠ":7987,"ingĠman":7988,"ĠroleĠ":7989,"ĠeachĠother":7990,"confidenc":7991,"Ġsurfac":7992,"-friend":7993,"?\"":7994,"Ġball":7995,"emin":7996,"akeĠ":7997,"mentĠandĠ":7998,"ĠisĠalsoĠ":7999,"Ġleft":8000,"scop":8001,"ĠaĠgreat":8002,"Ġoutsid":8003,"letĠusĠ":8004,"Ġsomeon":8005,"categor":8006,"mi":8007,"ueĠtoĠ":8008,"itĠalsoĠ":8009,"stantĠ":8010,"Ġbrown":8011,"otton":8012,"Ġstation":8013,"ocumentĠ":8014,"Ġapartment":8015,"comput":8016,"eĠcanĠb":8017,"accept":8018,"expertis":8019,"ĠtheĠboardĠ":8020,"59":8021,"ati":8022,"Ġrep":8023,"ĠcanâĢĻtĠ":8024,"ĠisĠthatĠ":8025,"ĠaĠfre":8026,"ĠaĠhom":8027,"Ġbasic":8028,",ĠtheĠt":8029,"din":8030,"dig":8031,"sight":8032,"tc":8033,"Ġsatis":8034,"elv":8035,"âĢĭ":8036,"shoot":8037,"locatedĠ":8038,"ruitĠ":8039,"excell":8040,"Ġthere'sĠ":8041,"juic":8042,"jer":8043,"Ġgal":8044,"upload":8045,"s,Ġf":8046,"ableĠof":8047,"ĠhereĠtoĠ":8048,"urrentlyĠ":8049,"divers":8050,"importanceĠof":8051,"Ġdiscussion":8052,"avourit":8053,"sĠasĠwellĠasĠ":8054,"!)":8055,"Ġ+":8056,"ĠaĠcon":8057,"Ġcross":8058,"olec":8059,"Ġnon":8060,"boy":8061,"ryingĠtoĠ":8062,"eventuallyĠ":8063,"ĠlookĠatĠ":8064,"structor":8065,"ingĠwater":8066,"ytic":8067,".Ġanother":8068,"ss":8069,"residential":8070,"withĠyou":8071,"Ġprov":8072,"sĠforĠyour":8073,"goingĠon":8074,"Ġtaking":8075,"Ġteeth":8076,"ology":8077,"Ġmany":8078,"cription":8079,"steadĠof":8080,"you'll":8081,"edĠatĠtheĠ":8082,"eĠofĠthisĠ":8083,"allyĠandĠ":8084,"eah":8085,"ĠthinkĠaboutĠ":8086,"atoĠ":8087,"bean":8088,"ervis":8089,"negot":8090,"ĠaĠlif":8091,"ingĠpeopleĠ":8092,"ĠprovidesĠ":8093,"Ġswitch":8094,"contractor":8095,"victor":8096,"Ġwarm":8097,"accur":8098,"roman":8099,"Ġi'm":8100,"Ġthem.Ġ":8101,"includes":8102,"ruis":8103,"operator":8104,"sĠbelow":8105,"Ġcompanies":8106,"tml":8107,"negativeĠ":8108,"metĠ":8109,"Ġalter":8110,"ĠgameĠ":8111,"Ġlast":8112,"sĠandĠb":8113,"ackĠof":8114,"izeĠ":8115,"ĠatĠleast":8116,"ĠthemĠtoĠ":8117,"underĠtheĠ":8118,"eĠlif":8119,"equival":8120,"Ġguy":8121,"Ġwhatever":8122,"ĠaroundĠtheĠ":8123,"industry":8124,"de":8125,"wentĠ":8126,"around":8127,"Ġcapt":8128,"âĢĻ,":8129,"Ġlabor":8130,"sĠatt":8131,"ĠatĠtheĠtim":8132,"Ġruss":8133,"Ġship":8134,"Ġtimes":8135,"ĠuseĠ":8136,"selectĠ":8137,"athem":8138,"ĠtheĠcountryĠ":8139,"entryĠwasĠpost":8140,"Ġtransportation":8141,"Ġathlet":8142,"rin":8143,"sendĠ":8144,"sâĢĶ":8145,"ersĠof":8146,"oupl":8147,"edĠall":8148,"china":8149,"Ġasia":8150,"ĠanĠimportantĠ":8151,"Ġreserv":8152,"youĠtoĠ":8153,"lesĠof":8154,"esĠwhich":8155,"ence.Ġ":8156,"ĠhaveĠth":8157,"ĠtheĠlif":8158,"brain":8159,"Ġneighbor":8160,"highlight":8161,"nament":8162,"ĠallowsĠyou":8163,"rar":8164,"reward":8165,"strik":8166,"Ġpor":8167,"ĠgoldĠ":8168,"eĠweek":8169,"storm":8170,"setĠup":8171,"credibleĠ":8172,"ji":8173,"outer":8174,"comesĠwith":8175,"ĠtheĠdoor":8176,"es,Ġwhich":8177,"Ġcontact":8178,"Ġseek":8179,"Ġlisten":8180,"ilitaryĠ":8181,"?Ġhow":8182,"bitĠ":8183,"ker":8184,"ane":8185,"itĠall":8186,"ĠandĠon":8187,"emplat":8188,"ĠofĠtheĠf":8189,"eĠarea":8190,"willĠnotĠ":8191,"ingĠbutĠ":8192,".ĠweĠwill":8193,".ĠweĠar":8194,"capital":8195,"Ġgiven":8196,"Ġlaunch":8197,"kingdom":8198,"celebrat":8199,"pleĠ":8200,"vital":8201,"ycle":8202,"childĠ":8203,"adium":8204,"Ġarab":8205,"whereĠyou":8206,"ĠthereâĢĻsĠa":8207,"Ġfilter":8208,"opportunity":8209,"encourageĠ":8210,"ascinat":8211,"clinical":8212,",Ġalthough":8213,"Â©":8214,"eĠ&":8215,"Ġbur":8216,"Ġbathroom":8217,"cloud":8218,"bug":8219,"weâĢĻveĠ":8220,"eĠfil":8221,"eteran":8222,"iddleĠof":8223,"improvement":8224,"lay":8225,"tag":8226,"Ġtank":8227,"onym":8228,"ense":8229,".Ġcan":8230,"Ġcm":8231,"Ġpress":8232,"edĠg":8233,"Ġatl":8234,"ĠtheseĠp":8235,"ĠmindĠ":8236,"ooĠ":8237,"ranc":8238,"Ġenter":8239,"edĠabout":8240,"olina":8241,"eĠtoday":8242,"Ġref":8243,"Ġstick":8244,"ĠthinkĠof":8245,".ĠmostĠ":8246,"ĠshouldĠbeĠ":8247,"ĠhadĠbeen":8248,"ĠtheĠfirstĠtim":8249,"eĠtheyĠareĠ":8250,"hum":8251,"Ġpop":8252,"edication":8253,"unter":8254,"ation.":8255,"s,Ġin":8256,"Ġtrac":8257,"eĠwater":8258,"sĠandĠf":8259,"ĠtheĠcustomer":8260,"Ġleather":8261,"sĠandĠtheir":8262,"ĠmayĠbeĠ":8263,"gettingĠ":8264,"uxuryĠ":8265,"----":8266,"ĠtitleĠ":8267,"-r":8268,"cross":8269,"yardĠ":8270,".Ġun":8271,"Ġsector":8272,"Ġsenior":8273,"ĠprettyĠ":8274,"useum":8275,"grandĠ":8276,"otherĠthan":8277,"ĠthatĠthisĠ":8278,"ĠifĠyouĠareĠ":8279,"olarship":8280,"virtual":8281,"43":8282,"sil":8283,"ĠtextĠ":8284,"eĠfamil":8285,"eĠhear":8286,"remark":8287,"eĠfromĠtheĠ":8288,"drug":8289,"ĠintoĠtheĠ":8290,"ĠagreementĠ":8291,"riteria":8292,"spl":8293,"inĠm":8294,"sĠoutĠ":8295,".Ġclick":8296,"Ġanx":8297,"acleĠ":8298,"ĠandĠtoĠ":8299,"eĠsinc":8300,"ĠatĠtheĠm":8301,"eĠfl":8302,"ĠtheĠgeneral":8303,"carry":8304,"weĠdoĠ":8305,")ĠisĠ":8306,"ĠaĠj":8307,"urder":8308,"adeĠ":8309,"abet":8310,"soĠfar":8311,"ingĠaĠnew":8312,"esĠinĠ":8313,"itiesĠandĠ":8314,"however,Ġ":8315,"possiblyĠ":8316,"ocratic":8317,"yan":8318,"itiv":8319,"elev":8320,"Ġbear":8321,"Ġand/or":8322,"ĠasĠpossible":8323,"Ġchi":8324,"contactĠus":8325,"edĠaĠs":8326,"convert":8327,"iestĠ":8328,"goesĠ":8329,"brandĠ":8330,"ieldĠof":8331,"lac":8332,"rental":8333,"sea":8334,"Ġsuccessful":8335,"evenĠthough":8336,"wayĠof":8337,"Ġterror":8338,"ossibleĠ":8339,"Ġmicro":8340,"label":8341,"fire":8342,"thre":8343,"edĠyour":8344,"Ġmr":8345,"Ġmention":8346,"ĠfeetĠ":8347,"Ġgre":8348,"ĠisĠnot":8349,"ĠaĠcertain":8350,"ĠtogetherĠwith":8351,",ĠareĠ":8352,"?âĢĿ":8353,"eremon":8354,"Ġselection":8355,"ĠpointĠ":8356,"e,Ġm":8357,"Ġvirt":8358,"line.Ġ":8359,"ĠresultĠof":8360,"facilit":8361,"Ġmonday":8362,"campaign":8363,"elebration":8364,"advanc":8365,"Ġestat":8366,"eveĠthatĠ":8367,"Ġappointment":8368,"professor":8369,"eligibleĠ":8370,"nd":8371,"uin":8372,"Ġq":8373,"er.":8374,"ĠheĠwasĠ":8375,"ichigan":8376,"ventional":8377,"Ġairport":8378,"proceed":8379,"exhibition":8380,"e'":8381,"weĠwereĠ":8382,"es)":8383,"ĠtoĠgoĠ":8384,"Ġfaith":8385,"adoĠ":8386,"s.ĠâĢľ":8387,"ĠasĠsoon":8388,"artin":8389,"manufact":8390,"ĠacceptĠ":8391,"ratch":8392,"Ġtwent":8393,"eĠliv":8394,"esterday":8395,"06":8396,"rd":8397,"Ġpool":8398,"ĠandĠthatĠ":8399,"asĠwell":8400,"liber":8401,"putt":8402,"Ġrequir":8403,"trans":8404,"valid":8405,"sorb":8406,"ĠchristmasĠ":8407,"cat":8408,"aryĠandĠ":8409,"edĠtheĠp":8410,"edĠaĠ":8411,"Ġbenef":8412,"ĠtoĠt":8413,"ays":8414,"withĠour":8415,"istryĠ":8416,"Ġtrigger":8417,"ĠtheĠword":8418,"itiesĠfor":8419,"ĠuniqueĠ":8420,"?ĠwhatĠ":8421,"council":8422,"sletter":8423,"sĠhow":8424,"Ġsem":8425,"Ġsand":8426,"Ġwelcom":8427,"ĠandĠtheĠs":8428,"component":8429,"ĠtheĠtechn":8430,"ĠwillĠnotĠ":8431,"ĠtheĠlast":8432,"ĠcomprehensiveĠ":8433,"ificial":8434,"Ġtransition":8435,"Ġbring":8436,"echanical":8437,"56":8438,"could":8439,"enem":8440,",ĠpleaseĠ":8441,"forum":8442,"Ġbowl":8443,"Ġdescription":8444,"ulum":8445,"estroy":8446,"uclear":8447,"e,ĠitĠ":8448,"recordĠ":8449,"eĠpolic":8450,"story":8451,"oxid":8452,"friger":8453,"reliableĠ":8454,"ĠfutureĠ":8455,"divid":8456,"jam":8457,"pĠ":8458,"soundĠ":8459,"Ġtil":8460,"iceĠc":8461,"ĠtoĠre":8462,"roph":8463,"useĠa":8464,"shotĠ":8465,"Ġkill":8466,"contribution":8467,"ingĠbyĠ":8468,"ĠaĠweb":8469,"ategoryĠ":8470,"Ġsubject":8471,"ĠrangeĠof":8472,"hy":8473,"sman":8474,",Ġnew":8475,",Ġhow":8476,"ariesĠ":8477,"haven":8478,"comesĠ":8479,"probably":8480,"ĠtheĠfield":8481,"Ġexact":8482,"Ġexercis":8483,"whenĠtheĠ":8484,"ĠthereĠwereĠ":8485,"muchĠmor":8486,"able.Ġ":8487,"dueĠto":8488,"mosp":8489,",Ġpleas":8490,"oma":8491,"ĠwonâĢĻtĠ":8492,"eĠtogether":8493,"s.ĠitĠisĠ":8494,"sĠofĠthisĠ":8495,"eĠhead":8496,"Ġinterview":8497,"Ġtypical":8498,"ĠpeopleĠwhoĠ":8499,"generat":8500,"uniqueĠ":8501,"ville":8502,"broad":8503,"dark":8504,"lit":8505,"sĠhisĠ":8506,"atell":8507,"elter":8508,"sheet":8509,"photoĠ":8510,"Ġseen":8511,"eliminat":8512,"350":8513,"wich":8514,"ĠtoĠother":8515,"Ġprom":8516,"actĠof":8517,"ations,Ġ":8518,"Ġgift":8519,"eway":8520,"eston":8521,"ĠtimeĠwith":8522,"ixel":8523,".ĠforĠexample":8524,"track":8525,"Ġleadership":8526,"viously":8527,"ta":8528,"tail":8529,"Ġmountain":8530,"Ġdish":8531,"endedĠ":8532,"likely":8533,"italian":8534,"exceptĠ":8535,"Ġthree-":8536,"investmentĠ":8537,"ĠduringĠtheĠ":8538,"Ġmeans":8539,"eiv":8540,"gal":8541,"lect":8542,"multipleĠ":8543,"onĠour":8544,".Ġse":8545,"ĠtoĠgo":8546,"aser":8547,"ĠheadĠ":8548,"ĠgasĠ":8549,"haveĠan":8550,"Ġaffil":8551,"ixt":8552,"filter":8553,"iac":8554,"udĠ":8555,"Ġalex":8556,"elic":8557,"ĠtoĠoffer":8558,"clientĠ":8559,"oneĠisĠ":8560,"Ġcarbon":8561,"videos":8562,"eĠpresent":8563,"proposal":8564,"russian":8565,"Ġ|":8566,"youĠneedĠtoĠ":8567,"edĠtheĠb":8568,"oost":8569,"ĠforĠall":8570,"strument":8571,"previousĠ":8572,"whereĠtheĠ":8573,"ĠactivityĠ":8574,"o.":8575,"ers,":8576,"tĠfor":8577,"itl":8578,"style":8579,"Ġhors":8580,"eĠtook":8581,"sheĠwasĠ":8582,"eĠcost":8583,"button":8584,"ĠbeĠableĠtoĠ":8585,"renew":8586,"ĠcompletelyĠ":8587,"demand":8588,"additional":8589,"!\"":8590,"busin":8591,"Ã³":8592,"isĠan":8593,"chester":8594,"Ġmust":8595,"Ġnav":8596,"ĠexampleĠ":8597,"edĠforĠtheĠ":8598,"ĠanywhereĠ":8599,"givesĠ":8600,"ĠbuyĠ":8601,"ĠfreeĠtoĠ":8602,"ĠbasedĠon":8603,"Ġpayment":8604,"irector":8605,"ĠaĠmonth":8606,"hotĠ":8607,"iĠwas":8608,"mult":8609,"uro":8610,"sĠby":8611,"aries":8612,"Ġmass":8613,"embl":8614,"s>Ġ<s>Ġin":8615,"ĠaddedĠ":8616,"able,Ġ":8617,"landscap":8618,"Ġadvantag":8619,"ĠavailableĠfor":8620,"largeĠ":8621,"sĠlikeĠa":8622,",ĠaĠs":8623,"02":8624,"peac":8625,"wan":8626,"âĨ":8627,"ĠenergyĠ":8628,"Ġtoy":8629,"ulner":8630,"eĠturn":8631,"Ġstag":8632,"manner":8633,"whoĠisĠ":8634,"ĠtheĠlow":8635,"Ġinterior":8636,"ingĠhigh":8637,"Ġcalc":8638,"Ġclassic":8639,"taken":8640,",ĠthereĠar":8641,"badĠ":8642,"house":8643,"wedd":8644,"ĠsayĠ":8645,"acular":8646,"otyp":8647,"eĠare":8648,"spread":8649,"Ġit.Ġ":8650,"ingĠsc":8651,"Ġspirit":8652,"ĠaĠwonderful":8653,"Ġbrain":8654,"ĠlifeĠ":8655,"Ġminutes.Ġ":8656,"ĠincludesĠ":8657,"Ġcapac":8658,"Ġrelig":8659,",Ġof":8660,"ĠandĠk":8661,"elet":8662,"Ġbatter":8663,"esth":8664,"ellect":8665,"berryĠ":8666,"central":8667,"ĠtowardĠ":8668,"ĠadvancedĠ":8669,"labor":8670,"insuranc":8671,"reput":8672,"oĠ(":8673,"ĠanĠhour":8674,"yout":8675,"ed-":8676,"Ġdev":8677,"Ġdark":8678,"Ġlad":8679,"antsĠ":8680,"iaĠ":8681,"s.Ġall":8682,"ersĠ(":8683,"ĠaĠspecific":8684,"ingĠsometh":8685,"usbandĠ":8686,"ingsĠin":8687,"ĠpageĠ":8688,"ulf":8689,"e.Ġif":8690,"eĠdevic":8691,"formal":8692,"ĠthroughoutĠtheĠ":8693,"ĠtheyâĢĻreĠ":8694,"ĠsupplyĠ":8695,"Ġdirection":8696,"Ġexcit":8697,"Ġpred":8698,"eman":8699,"ĠofĠmyĠ":8700,"Ġfort":8701,"eĠwrit":8702,"Ġshot":8703,"manentĠ":8704,"makeĠyour":8705,"ingĠsup":8706,"ladĠ":8707,"Ġworkshop":8708,".ĠinĠthisĠ":8709,"manyĠother":8710,"orgeousĠ":8711,"eparateĠ":8712,"layer":8713,"nearlyĠ":8714,"Â»":8715,"Ġill":8716,",Ġy":8717,"illegal":8718,"Ġwashington":8719,"edĠthatĠtheĠ":8720,"Ġbik":8721,"Ġdin":8722,"Ġgerman":8723,"ordinat":8724,"ĠtheĠbiggestĠ":8725,"ĠkindĠof":8726,"ĠeventĠ":8727,"Ġcategor":8728,"ĠsecondĠ":8729,"ileg":8730,"isition":8731,"ĠreportĠ":8732,"and-":8733,"shell":8734,"ultra":8735,"ĠtheseĠm":8736,"aredĠ":8737,"eĠyouĠareĠ":8738,"lift":8739,"life.Ġ":8740,"corner":8741,"somethingĠthatĠ":8742,"Ġrestaurant":8743,".Ġmor":8744,"thirdĠ":8745,"Ġsec":8746,"edĠtheĠm":8747,"ĠmoveĠ":8748,"comingĠ":8749,"allel":8750,"eĠtoĠyour":8751,"cann":8752,"e,Ġthen":8753,"internal":8754,"ĠaĠcar":8755,"ingĠph":8756,"eptemberĠ":8757,"Ġretail":8758,"Ġanticip":8759,"competitiveĠ":8760,"ĠautomaticallyĠ":8761,"frontĠ":8762,"sĠthan":8763,"sung":8764,"uv":8765,"sĠdown":8766,"Ġsend":8767,"role":8768,"Ġfit":8769,"Ġfir":8770,"undĠ":8771,"ĠtoĠtheĠt":8772,".ĠtheĠm":8773,"s>Ġ<s>Ġh":8774,"eĠfollow":8775,"edĠwithĠ":8776,"Ġintellig":8777,"Ġextrem":8778,"'.":8779,"57":8780,"Ġ.Ġ":8781,",ĠnoĠ":8782,"edĠanĠ":8783,"Ġmoment":8784,"Ġfeet":8785,"igu":8786,"Ġstra":8787,"Ġaffair":8788,"ĠtheseĠt":8789,"ĠstudyĠ":8790,"discussion":8791,"eĠtimeĠtoĠ":8792,"gat":8793,"hit":8794,"sum":8795,"exual":8796,"ĠthatĠwouldĠ":8797,"s.Ġwith":8798,"Ġston":8799,"sĠtoĠb":8800,"empower":8801,"previouslyĠ":8802,"ĠlikeĠa":8803,"Ġannivers":8804,"eĠanother":8805,"fullĠof":8806,"Ġgeorg":8807,"ĠanĠexcellentĠ":8808,"onĠthisĠ":8809,"ĠfeltĠ":8810,"ĠinĠwhich":8811,"evolv":8812,"eĠtoĠbeĠ":8813,"Ġassemb":8814,"sĠwithin":8815,"supplyĠ":8816,"ĠweightĠ":8817,"ĠavailableĠin":8818,"Ġmarri":8819,"aa":8820,"s:Ġ":8821,"yĠtheĠ":8822,"ĠarriveĠ":8823,"exactĠ":8824,"plateĠ":8825,"eĠmostĠ":8826,"whatĠtheyĠ":8827,"enoughĠtoĠ":8828,"Ġchristian":8829,"ĠaĠseriesĠof":8830,"promis":8831,"Ġtutor":8832,"ĠawardĠ":8833,"itleĠ":8834,"ĠofĠhisĠ":8835,"Ġyouth":8836,"ĠasĠpartĠof":8837,"s>Ġ<s>Ġb":8838,"sponsor":8839,"retain":8840,"Ġhome.Ġ":8841,"clearlyĠ":8842,"Ġconfidenc":8843,"ingĠspac":8844,"strengthen":8845,"ĠtheĠdevelopmentĠof":8846,"sĠthisĠ":8847,"enforc":8848,".ĠâĢ¢":8849,".Ġretriev":8850,",ĠwhatĠ":8851,"stress":8852,"Ġalleg":8853,"ĠtheĠsmall":8854,"okay":8855,"ĠtheĠwar":8856,"101":8857,"visibleĠ":8858,"havingĠ":8859,"ĠoffersĠ":8860,"Ġjustic":8861,"idealĠfor":8862,"Ġdemand":8863,",Ġtoo":8864,"hir":8865,"oam":8866,"woman":8867,"eĠanyĠ":8868,"Ġsafet":8869,"chest":8870,"whelm":8871,"eĠofĠour":8872,"queen":8873,"s.Ġif":8874,"prais":8875,"ĠplusĠ":8876,"flat":8877,"ĠasĠwellĠasĠa":8878,"ĠlastĠyear":8879,"Ġsunday":8880,"72":8881,"coffe":8882,"tleĠ":8883,"istsĠ":8884,"gran":8885,"Ġconv":8886,"reader":8887,"ĠrecentlyĠ":8888,"guy":8889,"Ġnormal":8890,"impressiveĠ":8891,"nc":8892,"ĠinĠm":8893,"expression":8894,"ĠusedĠtoĠ":8895,"ĠaĠquick":8896,"concret":8897,"rapid":8898,"appropriat":8899,"!ĠtheĠ":8900,"jon":8901,"vd":8902,"wind":8903,"ĠandĠhaveĠ":8904,"ĠofĠtheĠt":8905,"notĠbeen":8906,"oneĠor":8907,"external":8908,"eras":8909,"ouis":8910,"Ġfashion":8911,"s,ĠsoĠ":8912,"ĠallĠofĠtheĠ":8913,"eĠpict":8914,"edĠinter":8915,"ĠaĠsc":8916,"ifĠyouĠhaveĠ":8917,"Ġbehalf":8918,"Ġoptim":8919,"Ġenforc":8920,"ĠwouldĠbeĠ":8921,"invent":8922,"ĠandĠdevelop":8923,"Ġorganiz":8924,"wantedĠtoĠ":8925,"ĠvarietyĠof":8926,"ĠtheĠgovernmentĠ":8927,"ĠthomasĠ":8928,"aver":8929,"ietĠ":8930,"oardĠ":8931,"usually":8932,"Ġfoot":8933,"sĠofĠour":8934,"eĠwalk":8935,"eĠclos":8936,"Ġprotein":8937,"hereĠtoĠ":8938,"Ġcontroll":8939,".ĠinĠfact":8940,"ĠunderstandĠ":8941,"ĠaĠlocal":8942,"ĠcertainlyĠ":8943,"institut":8944,"!Ġw":8945,"dd":8946,"iĠwill":8947,"pu":8948,"vailable":8949,"one-":8950,"ingĠwhatĠ":8951,"it.":8952,".ĠnotĠ":8953,"Ġwritten":8954,"Ġdescrib":8955,"akistan":8956,"e,ĠyouĠcan":8957,"ĠtheĠsal":8958,"eĠcours":8959,"workĠon":8960,"ĠaffectĠ":8961,"waysĠtoĠ":8962,"ĠtheĠnumber":8963,"ĠtheyâĢĻr":8964,"Ġavenu":8965,"Ġmanual":8966,"attack":8967,"ĠdirectĠ":8968,"employmentĠ":8969,"chiev":8970,"unnel":8971,"Ġpartnership":8972,"victim":8973,")Ġor":8974,"les,Ġ":8975,"ing,Ġand":8976,"stair":8977,"Ġmeal":8978,"Ġbrother":8979,"Ġinstruction":8980,"illow":8981,"enceĠandĠ":8982,"eared":8983,"ĠtheĠcityĠ":8984,"spe":8985,"Ġexhib":8986,"ĠtheĠpark":8987,"Ġ($":8988,"neither":8989,"Ġunion":8990,"ordinaryĠ":8991,"Ġresolution":8992,"extension":8993,"ĠtheĠworldâĢĻsĠ":8994,"houseĠ":8995,"ĠpossibleĠ":8996,"Ġdomain":8997,"electĠ":8998,"academ":8999,"ulationĠof":9000,"eĠtheĠin":9001,"residenc":9002,"eĠtru":9003,"e,Ġh":9004,"Ġadam":9005,"someĠs":9006,"eĠforĠyou":9007,"presidentĠ":9008,"ĠthroughoutĠ":9009,"ingĠdis":9010,"eĠgreatĠ":9011,"restaurantĠ":9012,"ĠaudioĠ":9013,"ĠtheĠbasic":9014,"embrac":9015,"-fre":9016,"cancer":9017,"fection":9018,"goldĠ":9019,"esal":9020,"chines":9021,"esĠd":9022,"imon":9023,"eĠtreat":9024,"estr":9025,"Ġstyl":9026,"eĠwer":9027,"ĠadultĠ":9028,"vidĠ":9029,"ĠageĠ":9030,"ĠaĠ\"":9031,"irelessĠ":9032,"ĠaĠdis":9033,"espiteĠ":9034,"teen":9035,"Ġflower":9036,"valuableĠ":9037,"Ġalternativ":9038,"03":9039,"fa":9040,"faith":9041,"giftĠ":9042,"yrightĠ":9043,"à´":9044,"Ġestablish":9045,"ani":9046,"ĠsiteĠ":9047,"isĠnot":9048,"ifier":9049,"Ġnoth":9050,"Ġlayer":9051,"Ġconven":9052,"Ġabus":9053,"ingĠday":9054,"logg":9055,"aqu":9056,"ben":9057,"jud":9058,"martĠ":9059,"uis":9060,"went":9061,"sĠwhereĠ":9062,"Ġschem":9063,"Ġsleep":9064,"acyĠ":9065,"ĠtoĠthem":9066,"Ġlunch":9067,"ateĠyour":9068,"ology,Ġ":9069,"Ġquit":9070,"rivileg":9071,"requires":9072,"Ġgrand":9073,"createĠ":9074,"ĠphotoĠ":9075,"Ġvolunteer":9076,")Ġis":9077,"bound":9078,"fashion":9079,"atientĠ":9080,"Ġwrot":9081,"esĠsuchĠasĠ":9082,"eĠthingsĠ":9083,"outstand":9084,"eĠdat":9085,"Ġcompos":9086,"e.ĠandĠ":9087,"easy":9088,"eĠshipp":9089,"wayĠfrom":9090,"countryĠ":9091,"knownĠfor":9092,"held":9093,"'sĠin":9094,"Ġaid":9095,".Ġ^":9096,"ĠandĠwasĠ":9097,"Ġfram":9098,"ĠofĠtheĠd":9099,"eĠserv":9100,"bust":9101,"eĠaĠlotĠof":9102,"Ġrub":9103,"weâĢĻll":9104,"weâĢĻreĠ":9105,"seeĠtheĠ":9106,"regulator":9107,"wasĠtheĠ":9108,"becauseĠitĠ":9109,"unctional":9110,"efullyĠ":9111,"ĠcreativeĠ":9112,"secret":9113,"fear":9114,"harm":9115,"ÙĦ":9116,"Ġcitizen":9117,"edĠaĠb":9118,"chicken":9119,"Ġham":9120,"Ġde":9121,"Ġfabric":9122,"e,ĠsoĠ":9123,"strang":9124,"scri":9125,"ĠresultĠ":9126,"Ġtempor":9127,"eĠcrusher":9128,"ql":9129,"Ġep":9130,"on,Ġ":9131,"alifornia":9132,"Ġsoftwar":9133,"utyĠ":9134,"ĠstainlessĠsteel":9135,"eĠcolor":9136,"Ġexpos":9137,"workingĠwith":9138,"ingĠinĠ":9139,"mont":9140,"knowĠhow":9141,"sĠfromĠ":9142,"attention":9143,"ingĠfac":9144,"Ġimplement":9145,"decad":9146,"ramatic":9147,"corn":9148,"corporat":9149,"ushion":9150,"Ġapproval":9151,"ĠsalesĠ":9152,"significantĠ":9153,"Ġsmart":9154,"illustrat":9155,"700":9156,"eâĢĻsĠa":9157,"winn":9158,"Ġash":9159,"inĠwhich":9160,"sĠyouĠcan":9161,"alanc":9162,"Ġcivil":9163,"than":9164,"ĠwoodĠ":9165,"Ġnation":9166,"ourselv":9167,"s.Ġs":9168,"eĠcertain":9169,"Ġrank":9170,"ingĠinformation":9171,"photos":9172,"annual":9173,"expectĠ":9174,"ĠteamĠof":9175,"payment":9176,"ĠtheĠscen":9177,"Ġvolum":9178,"villag":9179,"cloth":9180,"focusĠon":9181,"tv":9182,"western":9183,"Ġcounter":9184,"ĠandĠmor":9185,"Ġpull":9186,"esĠlik":9187,"igg":9188,"conver":9189,"essel":9190,"ĠtheĠpict":9191,"eĠhereĠ":9192,"sĠonĠyour":9193,",ĠiĠam":9194,"identifyĠ":9195,"ĠlookĠat":9196,"ĠaĠrang":9197,"360":9198,"nĠ":9199,"Ġtold":9200,"sĠl":9201,"Ġanim":9202,"Ġcast":9203,"foreign":9204,"ĠpayĠ":9205,"edĠtheĠd":9206,"robertĠ":9207,"periodĠ":9208,"eĠonlyĠ":9209,",Ġhigh":9210,"glass":9211,"!!!!":9212,"edĠupon":9213,"ĠtheĠfactĠthatĠ":9214,"ĠdefinitelyĠ":9215,"pg":9216,"poor":9217,"ui":9218,"ĠaĠstrong":9219,"ĠwideĠ":9220,"acqu":9221,"Ġrain":9222,"Ġshower":9223,"ĠtimeĠto":9224,"uggleĠ":9225,"backĠtoĠ":9226,"guard":9227,"concent":9228,"ĠpresidentĠ":9229,"lastĠweek":9230,"Ġuniversity":9231,"Ġindustrial":9232,"routin":9233,"68":9234,"900":9235,":Ġi":9236,"uspect":9237,"Ġinfluenc":9238,"unlessĠ":9239,"Ġalumin":9240,"etĠup":9241,"effortĠ":9242,"ĠroundĠ":9243,"tĠoff":9244,"speed":9245,"ava":9246,"ollection":9247,"ingĠsolution":9248,"ĠtheĠhotel":9249,"ĠaĠcall":9250,"ingĠdi":9251,"sĠtogether":9252,"ĠthanksĠtoĠ":9253,"wardĠtoĠ":9254,"Ġconserv":9255,"ĠclientĠ":9256,"ĠinvestmentĠ":9257,"Ġself-":9258,"stunn":9259,"stretch":9260,"Ġwestern":9261,"Ġbroad":9262,"ĠandroidĠ":9263,"ĠtheĠseason":9264,"ĠapartĠ":9265,"whenĠtheyĠ":9266,"Ġbehavior":9267,"ificat":9268,"announc":9269,"ĠartistĠ":9270,"justic":9271,"Ġimmediat":9272,"Ġregulation":9273,"directly":9274,"Ġchapter":9275,"caseĠ":9276,"dish":9277,"enĠ":9278,"ĠtheĠv":9279,"ĠtheĠâĢľ":9280,"along":9281,"ĠcameĠ":9282,"ĠandĠsh":9283,"aylor":9284,"utton":9285,"e.ĠyouĠcan":9286,"estyleĠ":9287,"ancell":9288,"haveĠyou":9289,"Ġsho":9290,"suitĠ":9291,"Ġisrael":9292,"eĠonlin":9293,"configur":9294,"Ġinvestment":9295,"convinc":9296,",Ġar":9297,"differenc":9298,"oop":9299,"sĠit":9300,"er'sĠ":9301,",ĠbyĠ":9302,"edĠaĠp":9303,"ifĠitĠ":9304,"ella":9305,"Ġindex":9306,"beforeĠtheĠ":9307,"lovelyĠ":9308,"ivorc":9309,"doubt":9310,"eâĢĶ":9311,"eĠaboutĠ":9312,"revers":9313,"stak":9314,"ĠtoĠbr":9315,"Ġfather":9316,"Ġnatur":9317,"ĠthatĠhasĠ":9318,"eĠseem":9319,"Ġwhom":9320,"ĠtheĠsummer":9321,"eĠcam":9322,"eĠdifferentĠ":9323,"ĠtheĠfl":9324,"eĠpost":9325,"ĠperĠc":9326,"itsĠown":9327,"sĠwithoutĠ":9328,"ĠhighlyĠ":9329,"heartĠ":9330,"Ġcrusher":9331,"Ġfoundation":9332,"Ġcontractor":9333,"fan":9334,"ristĠ":9335,"sĠshow":9336,"strip":9337,"Ġpol":9338,"esĠâĢĵ":9339,"igator":9340,"ingĠstrateg":9341,"eĠthos":9342,"osc":9343,"protein":9344,"eĠmuch":9345,"eĠbestĠ":9346,"avid":9347,"ĠaboutĠyour":9348,"extensiveĠ":9349,"suppos":9350,"Ġcarri":9351,"Ġorganic":9352,"burgh":9353,"Ġfront":9354,"ĠfrontĠ":9355,"ĠyearsĠold":9356,"Ġlimit":9357,"mel":9358,"inyĠ":9359,"ĠandĠun":9360,"oliveĠ":9361,"ingĠâĢĵ":9362,"Ġstream":9363,"Ġasid":9364,"Ġjapan":9365,"Ġattitud":9366,"radioĠ":9367,"ĠtheĠpreviousĠ":9368,"aug":9369,"brown":9370,"privat":9371,"usĠof":9372,"eĠad":9373,",Ġinc":9374,"Ġsil":9375,"ĠmostĠof":9376,"Ġbul":9377,"imulation":9378,"ĠallĠ":9379,"eĠdeliver":9380,"ĠtheĠmarketĠ":9381,"es,Ġor":9382,"fulfill":9383,"ĠtheĠhelp":9384,"willĠbeĠa":9385,"Ġhum":9386,"Ġdam":9387,"ingĠoutĠof":9388,"Ġall-":9389,"herit":9390,"iesĠwith":9391,"e.ĠtheyĠ":9392,"Ġplug":9393,"Ġperhap":9394,"carbon":9395,"eĠcanĠbeĠ":9396,"ĠoverĠtheĠ":9397,"euro":9398,"ski":9399,"ĠexcellentĠ":9400,"ĠpaymentĠ":9401,"andidatesĠ":9402,"edicatedĠ":9403,"gent":9404,"pil":9405,"Ġwinn":9406,"ĠinĠc":9407,"easter":9408,"Ġconduct":9409,"ĠtheĠbank":9410,"ureĠand":9411,"includingĠ":9412,"Ġopinion":9413,"eadlin":9414,"becauseĠtheyĠ":9415,"Ġphotos":9416,"Ġcommitment":9417,"eĠshop":9418,"eĠsome":9419,"centur":9420,"heĠhasĠ":9421,"sortĠof":9422,"Ġflorida":9423,"gorith":9424,"!ĠthisĠ":9425,"(s":9426,".Ġtheir":9427,"eersĠ":9428,"heĠisĠ":9429,"winter":9430,"ĠtargetĠ":9431,"onĠmyĠ":9432,"Ġmaintain":9433,"ationĠwith":9434,"ifth":9435,"eĠsett":9436,"ĠonĠs":9437,"eĠfund":9438,"Ġ(c":9439,"intellig":9440,"requestĠ":9441,"ĠcasinoĠ":9442,"Ġmuseum":9443,"olympic":9444,"doctor":9445,"fram":9446,"secur":9447,"onĠa":9448,"estĠandĠ":9449,"Ġsteel":9450,"ĠasĠlong":9451,"Ġactor":9452,"config":9453,"smith":9454,"honor":9455,"ĠrightsĠ":9456,"itiativ":9457,"odĠof":9458,"Ġthin":9459,"ouredĠ":9460,"itableĠ":9461,"Ġburn":9462,"Ġfear":9463,"ĠonĠthisĠ":9464,"Ġexter":9465,"compat":9466,"urement":9467,"ĠusedĠ":9468,"suchĠasĠa":9469,"attle":9470,"Ġactivity":9471,"evaluation":9472,"Ġlandscap":9473,"-on":9474,"petĠ":9475,"Ġriver":9476,"orient":9477,"chees":9478,"Ġdivers":9479,"illa":9480,"agic":9481,"ĠthatĠweĠ":9482,"anda":9483,"eĠpower":9484,"ĠtheĠdifferenc":9485,"y,ĠbutĠ":9486,"remind":9487,"Ġcontribut":9488,"place.Ġ":9489,"Ġoverall":9490,"california":9491,"whatâĢĻsĠ":9492,"Ġtherefore,Ġ":9493,"ĠwindowsĠ":9494,"kindsĠof":9495,"inguish":9496,"city":9497,"itĠandĠ":9498,".Ġ&":9499,"Ġsuggest":9500,"ĠpositiveĠ":9501,"chor":9502,"Ġmess":9503,"âĢĻsĠtheĠ":9504,"Ġalign":9505,"Ġrefl":9506,"antlyĠ":9507,"climb":9508,"getĠtheĠ":9509,"riculum":9510,"Ġquot":9511,"peopleĠwhoĠ":9512,"Ġformat":9513,"greater":9514,"ĠoctoberĠ":9515,"edicatedĠtoĠ":9516,".ĠthatâĢĻsĠ":9517,"craftĠ":9518,"furnit":9519,"sf":9520,".Ġis":9521,"esĠat":9522,"Ġmax":9523,"oler":9524,"eĠthre":9525,"Ġrevenu":9526,"ency":9527,"recruit":9528,"everyĠday":9529,"tech":9530,"featur":9531,"Ġpassion":9532,"eĠsupport":9533,"ĠprimaryĠ":9534,"sĠprovid":9535,"ed:":9536,"Ġdanc":9537,"impression":9538,"emark":9539,"irish":9540,"s.Ġhowever":9541,"eĠmember":9542,"Ġcan'tĠ":9543,"ultimatelyĠ":9544,"Ġspeed":9545,"flamm":9546,"Ġattraction":9547,"Ġartic":9548,"ĠitsĠown":9549,"ĠaĠlot":9550,"march":9551,"iously":9552,"figureĠ":9553,"-dayĠ":9554,"sĠthem":9555,"Ġtu":9556,"sĠâĢĶ":9557,".Ġother":9558,".Ġboth":9559,"ĠandĠtheyĠ":9560,"eĠsid":9561,"grab":9562,"eĠaf":9563,"Ġperfect":9564,"goingĠto":9565,"ĠthanĠtheĠ":9566,"ĠtakeĠtheĠ":9567,"ĠanĠopen":9568,"ed,ĠbutĠ":9569,"ĠaĠhand":9570,"Ġalways":9571,"consideredĠ":9572,"organis":9573,"Ġmanager":9574,"distribut":9575,"ophistic":9576,"didn'tĠ":9577,"archĠ":9578,"ĠtheĠmonth":9579,"perhapsĠ":9580,"cak":9581,"motiv":9582,"Ġeconomic":9583,"eĠcenter":9584,"struggl":9585,"ure.":9586,"ĠtheĠhealth":9587,"Ġcomponent":9588,"ingĠcar":9589,".ĠifĠyouĠhaveĠ":9590,"ness,Ġ":9591,"ynd":9592,"Ġsignal":9593,"Ġadvisor":9594,"\"Ġ":9595,"Ġec":9596,"Ġca":9597,"ĠandĠher":9598,"Ġdinner":9599,"Ġfederal":9600,"eĠofĠtheir":9601,"ĠstayĠ":9602,"Ġrul":9603,"sĠareĠavailableĠ":9604,"eĠisĠtheĠ":9605,"Ġmedicin":9606,"Ġvisual":9607,"ĠunderstandingĠof":9608,"ĠareasĠof":9609,"ãĢ":9610,"Ġtough":9611,"onto":9612,",Ġnot":9613,"Ġwonderful":9614,"olour":9615,"ĠofĠh":9616,"eĠtest":9617,"Ġrepublic":9618,"ĠtheĠfil":9619,"rare":9620,"assess":9621,"Ġacceler":9622,"statistic":9623,"includeĠ":9624,"Ġphil":9625,"justĠasĠ":9626,"itiesĠin":9627,"ĠwayĠtoĠ":9628,"advantageĠof":9629,"regardlessĠof":9630,"ellectual":9631,"bedroom":9632,"ci":9633,"counter":9634,"lunch":9635,"sĠn":9636,"forĠall":9637,"Ġpair":9638,"youth":9639,"ĠinsuranceĠ":9640,"oseph":9641,"Ġnurs":9642,"Ġram":9643,"cannotĠ":9644,"s.Ġa":9645,"Ġspot":9646,"Ġtranslation":9647,"highĠschool":9648,"Ġsurger":9649,"ĠthankĠyouĠfor":9650,"esthetic":9651,"cel":9652,"yon":9653,"Ġe":9654,"ingĠhom":9655,"Ġseven":9656,"isit":9657,"ĠprivateĠ":9658,"Ġfast":9659,"ado":9660,"exclusiveĠ":9661,"itĠhasĠ":9662,"ighbour":9663,"ongo":9664,"e.Ġafter":9665,"ĠaĠbitĠof":9666,"eĠwithoutĠ":9667,"ĠroadĠ":9668,"sĠdesign":9669,"seriesĠ":9670,"Ġprovides":9671,"chooseĠfrom":9672,"applic":9673,"random":9674,"ĠexecutiveĠ":9675,"hr":9676,"seven":9677,"vas":9678,"zip":9679,"ership":9680,"esâĢĻ":9681,"ĠbadĠ":9682,"ureĠfor":9683,"ĠofĠthem":9684,"ive-":9685,"enseĠof":9686,"ingĠasĠa":9687,"ingĠarea":9688,"president":9689,"ritain":9690,"ĠcountryĠ":9691,"christmas":9692,"ĠarenâĢĻtĠ":9693,"\"th":9694,".ĠalsoĠ":9695,"elyĠandĠ":9696,"Ġdivision":9697,"ĠlistĠof":9698,"eĠtool":9699,"e.ĠitĠisĠ":9700,"eĠclear":9701,"ĠtheĠpurpos":9702,"looksĠ":9703,"ĠtheĠglobal":9704,"loss":9705,"diagnos":9706,"mediateĠ":9707,"effectivelyĠ":9708,"Ġeasier":9709,"exactly":9710,"888":9711,"court":9712,"ei":9713,"eâĢĻs":9714,"fight":9715,"surround":9716,"Ġwir":9717,"chip":9718,"ĠyouĠmayĠ":9719,"intens":9720,"brid":9721,"ĠaĠday":9722,"atholic":9723,"ĠlikelyĠ":9724,"ĠpreviousĠ":9725,"writer":9726,"Ġip":9727,"etch":9728,"ĠofĠall":9729,"sĠoften":9730,"s>Ġ<s>Ġour":9731,"proĠ":9732,"Ġload":9733,"sĠtoĠhelp":9734,"siteĠ":9735,"sĠthatĠyou":9736,"getĠin":9737,"ĠrecordĠ":9738,"ocketĠ":9739,"onceĠyou":9740,"something":9741,"ociatedĠwith":9742,"referred":9743,"Ġenvironmental":9744,"necessaryĠtoĠ":9745,"listĠof":9746,"political":9747,"Ġthread":9748,"ing/":9749,",Ġwill":9750,"Ġcat":9751,"Ġcart":9752,"elleĠ":9753,"Ġband":9754,"conduc":9755,"Ġcompared":9756,"weal":9757,"Ġjudg":9758,"mann":9759,"ĠtheseĠareĠ":9760,"Ġapplianc":9761,"holster":9762,"committedĠtoĠ":9763,"participat":9764,"51":9765,"feed":9766,"pp":9767,"xic":9768,"ĠcardĠ":9769,"Ġcris":9770,"ĠandĠre":9771,"Ġpin":9772,"Ġbeaut":9773,"e.Ġwhen":9774,"Ġchees":9775,"ies.ĠtheĠ":9776,"contractĠ":9777,"Ġspect":9778,".Ġmay":9779,"Ġtransmission":9780,"nois":9781,"ĠanĠincreas":9782,"eĠasĠwell":9783,"ĠdecidedĠtoĠ":9784,"cad":9785,"fli":9786,"oom":9787,"pattern":9788,"omic":9789,"forwardĠ":9790,"Ġpot":9791,"edĠaĠc":9792,"ĠinĠhisĠ":9793,"ationsĠandĠ":9794,"aboutĠtheĠ":9795,"notĠjustĠ":9796,"Ġ(or":9797,"Ġwilliam":9798,"underst":9799,"eĠspec":9800,"ocialĠmedia":9801,"aught":9802,"itiativeĠ":9803,"53":9804,"ings":9805,"Ġmap":9806,"Ġbudget":9807,"Ġdimension":9808,"urtĠ":9809,"ĠtoĠtakeĠ":9810,"ulpt":9811,"constitution":9812,"Ġii":9813,"compens":9814,"flavor":9815,"eĠyouĠwith":9816,"ĠhowĠmuch":9817,"Ġrob":9818,"team":9819,"ĠtodayâĢĻsĠ":9820,"ruption":9821,"originallyĠ":9822,"Ùİ":9823,"Ġsilver":9824,"cha":9825,"asm":9826,"Ġhab":9827,"ingĠ&":9828,"hak":9829,"hare":9830,"plain":9831,"enceĠin":9832,"clip":9833,"Ġrh":9834,"angel":9835,"ĠtimeĠi":9836,"Ġamend":9837,"argin":9838,"awn":9839,"ĠaĠhealth":9840,"ĠlikeĠtoĠ":9841,"nessĠof":9842,"Ġrealiz":9843,"smart":9844,"Ġproceed":9845,"independentĠ":9846,"gorithm":9847,",ĠanĠ":9848,"67":9849,"broughtĠ":9850,"wonâĢĻtĠ":9851,"inĠtheĠc":9852,"ingĠaroundĠ":9853,"comeĠup":9854,"prox":9855,"sĠandĠservic":9856,"formatĠ":9857,"raid":9858,"ĠtheĠdetail":9859,"e.Ġa":9860,"command":9861,"finally":9862,"basedĠ":9863,"Ġyet":9864,"ness.Ġ":9865,"ĠachieveĠth":9866,"ĠholidayĠ":9867,",ĠaĠp":9868,"bat":9869,"broken":9870,"turn":9871,"erĠor":9872,"Ġwind":9873,"Ġwoman":9874,"ĠtoĠhisĠ":9875,"Ġmenu":9876,"Ġbad":9877,"entin":9878,"olidĠ":9879,"ingĠun":9880,"ĠlandĠ":9881,"ĠandĠtheĠc":9882,"sĠandĠd":9883,"comprehensiveĠ":9884,"manual":9885,"ersĠwereĠ":9886,"Ġtechnician":9887,"Ġcommunities":9888,".ĠitâĢĻsĠa":9889,"Ġglas":9890,"constantlyĠ":9891,"oogle":9892,"%,":9893,"Ġer":9894,"sĠlater":9895,"stuck":9896,"Ġwednesday":9897,"ĠtoĠ$":9898,"esĠonĠtheĠ":9899,"eĠteach":9900,"eĠdist":9901,"someĠofĠtheĠ":9902,"llc":9903,"madeĠa":9904,"Ġcarolina":9905,"netic":9906,"eĠmoreĠthan":9907,"ĠtoĠmakeĠa":9908,"ĠwantĠto":9909,"eĠtheĠfirstĠ":9910,"eĠclass":9911,"razil":9912,"Ġgreater":9913,"enthusi":9914,"agraph":9915,"eor":9916,"hou":9917,"ingĠcan":9918,"romantic":9919,"articleĠ":9920,"clar":9921,"eau":9922,"eĠfull":9923,"yearsĠof":9924,"Ġtimes.Ġ":9925,"yĠoffer":9926,"Ġresidenc":9927,"lookĠat":9928,"Ġhere.Ġ":9929,"Ġgrant":9930,"eĠlong":9931,"highestĠ":9932,"completeĠ":9933,"Ġtechnology":9934,"appli":9935,"friendĠ":9936,"onĠtheir":9937,"think":9938,"isĠalsoĠ":9939,"ley,Ġ":9940,"Ġdestination":9941,"us,Ġ":9942,"eaper":9943,"Ġprogres":9944,"eĠbetter":9945,"edĠinĠthisĠ":9946,"Ġshad":9947,"edĠforĠ":9948,"Ġartificial":9949,"ĠaĠhalf":9950,".ĠweĠcan":9951,"ĠcountyĠ":9952,"smok":9953,"mostlyĠ":9954,",ĠaĠc":9955,"iĠknow":9956,"ĠaĠmor":9957,"orang":9958,"omain":9959,"roveĠ":9960,"roleĠof":9961,"Ġmel":9962,"ĠinĠtheĠc":9963,"ria":9964,"Ġchines":9965,"ubject":9966,"ĠtheĠhuman":9967,"Ġcontribution":9968,"sĠthatĠwill":9969,"ingĠforĠtheĠ":9970,"Ġinteraction":9971,"ingĠtool":9972,"smooth":9973,"Ġprocess.Ġ":9974,"ĠtheĠspac":9975,"Ġmovement":9976,"54":9977,"bm":9978,"coĠ":9979,"iâĢĻveĠ":9980,"ordĠof":9981,"ings.":9982,"igen":9983,"ĠandĠan":9984,"eĠpiec":9985,"soĠthatĠ":9986,"scrib":9987,"flash":9988,"irementĠ":9989,",Ġsinc":9990,"eĠissu":9991,"offersĠ":9992,"Ġcamera":9993,"eĠminister":9994,"Ġsquar":9995,"ĠtexasĠ":9996,"mospher":9997,"52":9998,"sĠan":9999,"tri":10000,"Ġpremium":10001,"Ġdig":10002,"Ġfellow":10003,"Ġvit":10004,"eĠbusinessĠ":10005,"evenĠmor":10006,"eĠisĠnotĠ":10007,"ĠaccessibleĠ":10008,"unnyĠ":10009,"sĠacc":10010,"Ġoperat":10011,"haviour":10012,"pursu":10013,"eez":10014,"lid":10015,"ĠÎ":10016,"Ġear":10017,"Ġequipment":10018,"ing.ĠthisĠ":10019,"icro":10020,"sĠofĠall":10021,"grain":10022,"seeĠhow":10023,"sured":10024,"ersĠor":10025,"ingĠafter":10026,"urelyĠ":10027,"Ġpressur":10028,"eĠsomeĠof":10029,"Ġimagin":10030,"fly":10031,"fitt":10032,"nap":10033,"Ġearn":10034,"forĠthisĠ":10035,"Ġpoll":10036,"Ġpush":10037,"lemon":10038,"eĠtoldĠ":10039,"ridĠof":10040,"upĠandĠ":10041,"s,ĠsuchĠasĠ":10042,"ĠstoryĠ":10043,"beingĠs":10044,"weâĢĻr":10045,"e.Ġall":10046,"ĠitsĠs":10047,"ĠtheseĠc":10048,"butĠtheĠ":10049,"relativelyĠ":10050,"ĠallowsĠ":10051,"glad":10052,"ottish":10053,"Ġmilit":10054,"Ġconfirm":10055,"sĠapp":10056,"institution":10057,",Ġat":10058,"Ġtack":10059,"incom":10060,"inĠaddition":10061,"enomen":10062,"ĠtoĠchang":10063,"ĠdoubleĠ":10064,"ingĠoption":10065,"ĠgaveĠ":10066,"Ġadmission":10067,"ĠhaveĠtheĠ":10068,"getsĠ":10069,"boot":10070,"mayĠnotĠ":10071,"maybeĠ":10072,"Ġinstallation":10073,"normallyĠ":10074,"entirelyĠ":10075,"foot":10076,"jul":10077,"kel":10078,"sand":10079,"it's":10080,"stres":10081,"ichael":10082,"Ġben":10083,"uses":10084,"ĠforĠthisĠ":10085,"Ġforum":10086,"ghan":10087,"canâĢĻtĠ":10088,"ateĠon":10089,"ingĠagain":10090,"butter":10091,"atedĠfrom":10092,"edĠservic":10093,"asket":10094,"Ġtravell":10095,"Ġhimself":10096,"eĠatĠtheĠ":10097,"Ġgraphic":10098,"front":10099,"pas":10100,".Ġ-":10101,".ĠoneĠof":10102,"Ġweather":10103,"Ġpil":10104,"lew":10105,"entĠwith":10106,"ĠasĠweĠ":10107,"we'll":10108,"ĠtheĠfederal":10109,"edĠbas":10110,"worksĠ":10111,"âĢĿĠandĠ":10112,"ĠaĠbook":10113,"knowĠthatĠ":10114,"Ġsee":10115,"ĠmakeĠ":10116,"companyâĢĻsĠ":10117,"issuesĠ":10118,"Ġalongsid":10119,"investor":10120,"ĠattractiveĠ":10121,"predict":10122,"schedul":10123,"ĠØ":10124,"Ġtall":10125,"isa":10126,"s.Ġon":10127,"ĠtheĠmaterial":10128,"eĠhour":10129,"egypt":10130,"sĠsinc":10131,"ĠaĠwell":10132,"depth":10133,"liveĠin":10134,"functional":10135,"ĠlessĠthan":10136,"Ġvictor":10137,"89":10138,"cd":10139,"doubleĠ":10140,"pol":10141,"warn":10142,"Ġsa":10143,"Ġwa":10144,"Ġbed":10145,"entĠandĠ":10146,"Ġgather":10147,"eĠtravel":10148,"conclud":10149,"ivityĠ":10150,"pract":10151,"edĠbelow":10152,"urnish":10153,"paid":10154,"everythingĠ":10155,"eĠmoneyĠ":10156,"____":10157,"ĠcomfortableĠ":10158,"Ġtranspar":10159,"psĠ":10160,"Ġ>":10161,",Ġher":10162,"Ġmental":10163,"imit":10164,"unableĠtoĠ":10165,"umentsĠ":10166,"approv":10167,"ancel":10168,"sĠinvolv":10169,"eĠair":10170,"Ġconversation":10171,"Ġabsorb":10172,"ies,ĠandĠ":10173,"bright":10174,"helpsĠ":10175,"Ġguarante":10176,"mustĠbeĠ":10177,"Ġveget":10178,"sr":10179,"Ġelectric":10180,".Ġnew":10181,"esĠyour":10182,"Ġinform":10183,"ĠyouĠneedĠtoĠ":10184,"eĠsmall":10185,"otherap":10186,"workingĠon":10187,"redit":10188,"ously":10189,"ĠneedĠto":10190,"ario":10191,"valueĠof":10192,"ĠvisitĠ":10193,"Ġaugust":10194,"Ġfutur":10195,"ĠwholeĠ":10196,"ensen,Ġj":10197,"**":10198,".Ġto":10199,"band":10200,"mess":10201,"patch":10202,"twoĠ":10203,"yĠatĠ":10204,"yes,Ġ":10205,"ĠaĠk":10206,"Ġfolk":10207,"imental":10208,"lover":10209,"resp":10210,"Ġnature":10211,"otiveĠ":10212,"s,Ġetc":10213,"pron":10214,"ĠasĠanĠ":10215,"edĠbetween":10216,"ultimateĠ":10217,"more,Ġ":10218,"commitment":10219,"Ġservices.Ġ":10220,"organisation":10221,"continuesĠtoĠ":10222,"Ġsurpris":10223,"Ġindustry":10224,"dependingĠon":10225,"icagoĠ":10226,"ĠtheĠheartĠof":10227,"iĠhadĠ":10228,"junction":10229,"mb":10230,"sweet":10231,"Ġsent":10232,"Ġhit":10233,"ingĠv":10234,"ĠofĠg":10235,"ries":10236,"upĠwith":10237,"e.ĠâĢľ":10238,"eĠmod":10239,"Ġabstr":10240,"ies,":10241,"eĠfun":10242,"ĠinsteadĠof":10243,"feature":10244,"specializ":10245,"refus":10246,"infrastruct":10247,"Ġedition":10248,"museum":10249,"ĠaspectsĠof":10250,"Ġproposal":10251,"gold":10252,"kit":10253,"ed.ĠthisĠ":10254,"chand":10255,"Ġfrench":10256,"eĠset":10257,"s,Ġyou":10258,"outlin":10259,"odg":10260,"seal":10261,"sideĠof":10262,"rican":10263,",ĠweĠcan":10264,"currently":10265,"metic":10266,"elf-":10267,"ersâĢĻ":10268,"Ġoccur":10269,"immun":10270,"refresh":10271,"ĠtheĠscreen":10272,"decidedĠtoĠ":10273,"Ġzealand":10274,"hat":10275,"nin":10276,"Ġros":10277,"Ġidea":10278,"inĠhisĠ":10279,"sĠnow":10280,"ingham":10281,"ali":10282,"Ġwent":10283,"amel":10284,"osystem":10285,"proven":10286,".ĠtheĠfirstĠ":10287,"sĠinĠour":10288,"Ġcheap":10289,"edĠbecaus":10290,"ingĠaĠb":10291,"ordan":10292,"remis":10293,"eĠshar":10294,"ĠairĠcondition":10295,"ĠaroundĠtheĠworld":10296,"expectedĠ":10297,"paymentĠ":10298,"requiredĠtoĠ":10299,"Ġexpertis":10300,"ĠindependentĠ":10301,"hl":10302,"yĠwasĠ":10303,"alesĠ":10304,"Ġsecur":10305,"forĠour":10306,"Ġfuel":10307,"ura":10308,"eta":10309,"loop":10310,"eĠsam":10311,"portfol":10312,"ĠtheĠtotal":10313,"iah":10314,"strain":10315,",ĠiâĢĻm":10316,"capac":10317,"recommendation":10318,"mistak":10319,"neck":10320,"senior":10321,"Ðº":10322,"Ġtabl":10323,"enroll":10324,"ĠtheĠwork":10325,"icateĠ":10326,"Ġsor":10327,"Ġsof":10328,"Ġpump":10329,"ireĠtoĠ":10330,"eĠincreas":10331,"Ġacquir":10332,"Ġris":10333,"ĠisĠanĠ":10334,"communicat":10335,"uggestion":10336,"ĠtoĠhelpĠyou":10337,"profession":10338,"convenienc":10339,"ĠcurrentlyĠ":10340,"ĠaĠrangeĠof":10341,"km":10342,"led":10343,"eĠbutĠ":10344,"ĠaĠplac":10345,"esĠall":10346,"Ġwis":10347,"ĠweĠwill":10348,"withĠthisĠ":10349,"shift":10350,"ĠonĠmyĠ":10351,"ĠtheĠfre":10352,"ĠtheĠfloor":10353,"Ġshipp":10354,"flag":10355,"ĠaĠgu":10356,"Ġquarter":10357,"studiesĠ":10358,",ĠyouâĢĻll":10359,"removal":10360,"convenient":10361,".;":10362,"luc":10363,"Ġtill":10364,"acrific":10365,"Ġfootball":10366,"sĠind":10367,"uster":10368,"eĠfriend":10369,"whenĠitĠcomesĠtoĠ":10370,"brush":10371,"Ġotherwis":10372,"Ġinfrastruct":10373,".l.m":10374,")ĠtoĠ":10375,".g":10376,"?ĠtheĠ":10377,"dial":10378,"oneĠthatĠ":10379,".Ġwell":10380,"eden":10381,"Ġmail":10382,"Ġflight":10383,"resid":10384,"umbl":10385,"e.Ġ\"":10386,"eĠpass":10387,"maker":10388,"ollect":10389,"s,ĠthisĠ":10390,"Ġinterfac":10391,"Ġartwork":10392,"Ġimm":10393,",ĠitĠwasĠ":10394,"ecessaryĠ":10395,"beginningĠof":10396,"Ġbusiness.Ġ":10397,"ĠthursdayĠ":10398,"ĠtheĠdepartmentĠof":10399,"danc":10400,"pastĠ":10401,"rĠ":10402,"oĠisĠ":10403,"icatedĠ":10404,"Ġpup":10405,"Ġpdf":10406,"Ġpopulation":10407,"eĠinf":10408,"ĠtimeĠyou":10409,"ingĠskill":10410,"interpret":10411,"undredĠ":10412,"explo":10413,"Ġyard":10414,"Ġbecam":10415,"Ġstorag":10416,"Ġmembership":10417,"-in-":10418,"Ġexcell":10419,"makesĠitĠ":10420,"expertĠ":10421,"110":10422,"bik":10423,"lb":10424,"wideĠ":10425,"inĠc":10426,"oudĠof":10427,"Ġspl":10428,"Ġwest":10429,"Ġhir":10430,"esĠis":10431,"sĠinĠthisĠ":10432,"ĠtheĠfamil":10433,"Ġirel":10434,"e.ĠasĠ":10435,"âĢĿĠ(":10436,"versatil":10437,"ritor":10438,"ĠtheĠnation":10439,"mondĠ":10440,"decreas":10441,"ĠacrossĠ":10442,"Ġarrival":10443,"ĠanĠextra":10444,"equippedĠwith":10445,",ĠasĠa":10446,"aĠl":10447,"syl":10448,"inĠd":10449,"it!":10450,"edĠâĢľ":10451,"rootĠ":10452,"Ġbus":10453,"haz":10454,"utual":10455,"plication":10456,"alleryĠ":10457,"sĠtoĠyour":10458,"sĠareĠa":10459,"displayĠ":10460,"storyĠof":10461,"ruleĠ":10462,"priceĠ":10463,"ibilities":10464,"variet":10465,"ĠanĠint":10466,"strategic":10467,"share":10468,"-timeĠ":10469,"illustration":10470,"Ġprincip":10471,".Ġadd":10472,"fantastic":10473,"Ġeat":10474,"Ġenterpris":10475,",ĠhisĠ":10476,"Ġsecurity":10477,"Ġmexic":10478,"Ġgun":10479,"everĠyou":10480,"sĠtoĠmak":10481,"canada":10482,"ĠitâĢĻsĠa":10483,"making":10484,"Ġpractical":10485,"ĠtheĠnor":10486,"eĠgoodĠ":10487,"Ġregional":10488,"Ġregistration":10489,"ĠdoĠi":10490,"installation":10491,"Ġlegis":10492,"onĠtheĠotherĠhand":10493,"jac":10494,"japanes":10495,"numerousĠ":10496,".ĠwhyĠ":10497,"Ġsimpl":10498,"ĠandĠgetĠ":10499,"Ġpriz":10500,"Ġmost":10501,"urd":10502,"Ġalp":10503,"spic":10504,"obama":10505,"esĠofĠ":10506,"ĠworkĠwith":10507,"ingĠdata":10508,"ĠaskedĠ":10509,"performanceĠ":10510,"acteria":10511,"receivedĠ":10512,"wallpaper":10513,"feltĠ":10514,"juneĠ":10515,"lord":10516,"ingĠwhen":10517,".Ġ*":10518,"iscal":10519,"ĠtoĠensur":10520,"entry":10521,"untĠ":10522,"irr":10523,"irtyĠ":10524,"andon":10525,"ĠwhiteĠ":10526,"izer":10527,"sĠonĠ":10528,"prison":10529,"icipal":10530,"goingĠtoĠbeĠ":10531,"Ġdistrict":10532,".Ġthat":10533,"mok":10534,"panel":10535,"ĠaidĠ":10536,"Ġapril":10537,"sĠif":10538,"essĠa":10539,"forĠtheir":10540,"Ġpound":10541,"Ġprivac":10542,"ĠofĠl":10543,"comeĠin":10544,"prop":10545,"updateĠ":10546,"permission":10547,"enseĠ":10548,"needĠto":10549,"youĠcanĠse":10550,"ĠaĠmuch":10551,"ĠfinallyĠ":10552,"virginia":10553,"Ġdecad":10554,"warrant":10555,"rightĠtoĠ":10556,"classroom":10557,"ĠaĠlargeĠ":10558,"ĠtheĠgovernment":10559,"âĨĳ":10560,"golf":10561,"Ġtro":10562,"Ġtreas":10563,"sĠwhil":10564,"sĠhadĠ":10565,"ingĠwill":10566,"beatĠ":10567,"ĠtheĠbar":10568,"contemporaryĠ":10569,"moreĠs":10570,"ĠitâĢĻs":10571,"placeĠin":10572,"sĠthatĠhaveĠ":10573,"ĠaĠgood":10574,"related":10575,"ityĠofĠtheĠ":10576,"186":10577,"189":10578,"ĠaĠnic":10579,"ĠbutĠi":10580,"i-fi":10581,"investment":10582,"unitedĠstatesĠ":10583,",Ġthat":10584,"fc":10585,"folk":10586,"rationĠof":10587,"uitĠ":10588,"ones":10589,"Ġpoly":10590,"Ġhot":10591,"oli":10592,"ĠfieldĠ":10593,"ĠfridayĠ":10594,"leĠto":10595,"administ":10596,"Ġgold":10597,"pros":10598,"eĠandĠi":10599,"selection":10600,"phereĠ":10601,"ingĠmaterial":10602,"athan":10603,"Ġgram":10604,"ĠtransportĠ":10605,"medium":10606,"ĠbuildĠ":10607,"ĠairportĠ":10608,"heard":10609,"lamic":10610,"izza":10611,"wealth":10612,".ĠanĠ":10613,"easĠ":10614,"keeper":10615,"nurs":10616,"Ġahead":10617,"iner":10618,"onyĠ":10619,"esĠasĠa":10620,"ĠandĠv":10621,"Ġbott":10622,"amount":10623,"ĠforĠtheir":10624,"occer":10625,"eĠmain":10626,"eĠpurchas":10627,"spark":10628,"ibl":10629,"ĠtheĠdem":10630,"ĠtheĠwindow":10631,"Ġprison":10632,"wouldĠyou":10633,"Ġtransformation":10634,"ĠwouldĠhaveĠ":10635,"Ġbridg":10636,"ĠwebĠsit":10637,"neverth":10638,"vertical":10639,"Ġarrangement":10640,"ĠdoesnâĢĻtĠ":10641,".ĠaĠs":10642,"bird":10643,"itle":10644,"ĠandĠhasĠ":10645,"Ġpaul":10646,"ĠforĠour":10647,"ĠtheĠmanyĠ":10648,"recycl":10649,"weigh":10650,"ĠcannotĠ":10651,"strict":10652,"Ġattribut":10653,"coast":10654,"eĠlastĠ":10655,"instead":10656,"Ġairlin":10657,"Ġflavor":10658,"process.Ġ":10659,"ĠtalkĠaboutĠ":10660,"Ġantiqu":10661,"specificallyĠ":10662,"ĠtowardsĠ":10663,",ĠalongĠwith":10664,"79":10665,"jesusĠ":10666,"kil":10667,"oat":10668,"Ġingredient":10669,"elder":10670,"lott":10671,"compris":10672,"eĠsiz":10673,"Ġwhy":10674,"ĠonĠour":10675,"sĠinĠtheir":10676,"ĠisĠoneĠof":10677,"s.ĠandĠ":10678,"easil":10679,"inctĠ":10680,"commonlyĠ":10681,"ĠtheseĠb":10682,"ĠtheĠhol":10683,"ĠamazingĠ":10684,"roker":10685,"dealĠwith":10686,"ĠlargeĠ":10687,"eĠtheseĠ":10688,"lc":10689,"rs":10690,"stain":10691,"forĠus":10692,"ulateĠ":10693,"haredĠ":10694,"ries.Ġ":10695,"shock":10696,"shirt":10697,"Ġstrip":10698,"iesĠand":10699,"ĠtheĠdef":10700,"ĠtheĠwordĠ":10701,"Ġpermission":10702,"ĠtwoĠof":10703,".ĠyouĠareĠ":10704,"desk":10705,"ĠtheĠsituation":10706,"simple":10707,"ĠancientĠ":10708,"hitĠ":10709,"ueĠto":10710,"ĠearlyĠ":10711,"ori":10712,"ing;":10713,"ita":10714,".Ġof":10715,"ĠsendĠ":10716,"Ġpromis":10717,"ĠtoĠavoidĠ":10718,"Ġrelax":10719,"e,Ġd":10720,"ĠasĠh":10721,"buff":10722,"Ġ(t":10723,"edĠwithin":10724,"edĠtogether":10725,",ĠbutĠitĠ":10726,"attend":10727,"journe":10728,"ĠdueĠtoĠ":10729,"analys":10730,"legislation":10731,",ĠaĠ":10732,"million":10733,"pip":10734,"Ġev":10735,"enâĢĻtĠ":10736,"ingful":10737,"ingĠmoreĠ":10738,"itely":10739,",ĠsuchĠasĠ":10740,",ĠweĠhaveĠ":10741,"icated":10742,"ifer":10743,"exampleĠ":10744,"resort":10745,"ĠnearlyĠ":10746,"earl":10747,"ĠtheĠland":10748,"coal":10749,"unct":10750,"Ġinstanc":10751,"ĠtoĠmaintain":10752,"sĠaboutĠtheĠ":10753,",ĠbutĠtheĠ":10754,"ĠtrueĠ":10755,"sĠacross":10756,"Ġentertain":10757,"Ġbalanc":10758,"Ġcertification":10759,"iceĠcream":10760,")Ġfor":10761,"oidĠ":10762,"yleĠof":10763,"sĠregard":10764,"eness":10765,"ingsĠareĠ":10766,"it'sĠa":10767,"thew":10768,"roch":10769,"amera":10770,"ingĠother":10771,"rescu":10772,"utral":10773,"Ġvent":10774,"edĠtoĠb":10775,"Ġjan":10776,"egel":10777,"Ġspe":10778,"ĠtheĠgoodĠ":10779,",ĠweĠwill":10780,"Ġdecember":10781,".Ġfollow":10782,"provinc":10783,"grateful":10784,"Ġdatabas":10785,"Ġassessment":10786,"(or":10787,",ĠthereĠareĠ":10788,".j":10789,"motor":10790,"nail":10791,"Ġelect":10792,"iness":10793,"ĠandĠmak":10794,"is.Ġ":10795,"ĠtoĠanyĠ":10796,"ĠthatĠsh":10797,"e.Ġd":10798,"e,Ġc":10799,"antas":10800,"ĠtheĠcostĠof":10801,"ĠtheĠpolic":10802,"e-up":10803,"awar":10804,"eĠshall":10805,"ĠavailableĠtoĠ":10806,"ĠallĠofĠyour":10807,"umni":10808,",ĠaĠf":10809,".ĠthanksĠfor":10810,"bil":10811,"lamp":10812,"eĠwhereĠ":10813,"ĠtreatĠ":10814,"sĠback":10815,"it,Ġ":10816,"es/":10817,"isan":10818,"edin":10819,"ĠinĠtheĠb":10820,"eĠtoo":10821,"Ġjam":10822,"ĠisĠaĠp":10823,"Ġ(âĢľ":10824,"assist":10825,"someĠp":10826,"ing,Ġor":10827,"Ġtranslat":10828,"Ġdiet":10829,"Ġpre-":10830,"neverĠbeen":10831,"Ġcoast":10832,"livingĠin":10833,"julyĠ":10834,"Ġholiday":10835,"Ġalready":10836,".Ġal":10837,"bandĠ":10838,"softwar":10839,"Ġutil":10840,"ontoĠ":10841,"anz":10842,"aldĠ":10843,"elong":10844,"imper":10845,"eĠsection":10846,"quiet":10847,"beer":10848,"ĠtheĠsiz":10849,"s>Ġ<s>Ġd":10850,"edĠtoĠyour":10851,"eĠbelow":10852,"eĠfind":10853,"ĠisĠaĠs":10854,"ĠleadĠ":10855,"oneĠwith":10856,"e,ĠthisĠ":10857,"ĠprintĠ":10858,"veryĠwell":10859,"ĠtheĠliv":10860,"providedĠ":10861,"wouldĠhaveĠ":10862,"prep":10863,",Ġcall":10864,"e!Ġi":10865,"Ġmedium":10866,"Ġflu":10867,"spectiv":10868,"novel":10869,"relief":10870,"ĠcombinationĠof":10871,"ednesdayĠ":10872,"ĠtheĠfinancial":10873,"principal":10874,"ae":10875,"federal":10876,"kat":10877,"wild":10878,"Ġemb":10879,".Ġkeep":10880,"eĠsearch":10881,".ĠtheĠnew":10882,"andĠtheĠ":10883,"eĠmaterial":10884,"Ġchanc":10885,"Ġapple":10886,"s.Ġafter":10887,"ingĠcost":10888,"rule":10889,"ĠdonâĢĻt":10890,"ĠbehindĠ":10891,"innovativeĠ":10892,"dos":10893,"nas":10894,"va":10895,"vc":10896,"Ġtar":10897,"Ġtissu":10898,"on.Ġ":10899,"onest":10900,"ingĠcompan":10901,"ĠandĠis":10902,"Ġbuck":10903,"advis":10904,"ĠtoĠan":10905,"ourish":10906,"eĠtell":10907,"eĠtrad":10908,"prob":10909,"eĠofĠa":10910,"ĠtheĠdat":10911,"association":10912,"Ġplus":10913,"ingĠindust":10914,"ĠupĠwith":10915,"eĠtheĠsam":10916,"ĠquicklyĠ":10917,"bb":10918,"ĠimportantĠ":10919,"Ġepisod":10920,"anth":10921,"animal":10922,"Ġslow":10923,"ĠtoĠhaveĠa":10924,"rovers":10925,"ĠbloodĠ":10926,"eĠtop":10927,"ĠtheĠsign":10928,"eĠbar":10929,"workĠin":10930,"Ġamen":10931,"likeĠto":10932,"ingĠsuch":10933,"ĠperiodĠof":10934,"sĠonlin":10935,"ĠtheĠnext":10936,"impactĠof":10937,"havingĠtoĠ":10938,"sĠaroundĠ":10939,"Ġco-":10940,"Ġbaseball":10941,"improveĠth":10942,"evaluat":10943,"ĠaĠwideĠrangeĠof":10944,"Ġanxiet":10945,"bak":10946,"oa":10947,"Ġago":10948,"reaction":10949,".Ġcall":10950,"Ġwash":10951,"ĠfactĠ":10952,"Ġaris":10953,"abel":10954,"Ġlb":10955,"ĠthatĠin":10956,"congres":10957,"eĠmodel":10958,"ĠtheĠpotential":10959,"ĠtheĠtrain":10960,"s,Ġthen":10961,"changesĠ":10962,"ĠtwoĠweek":10963,"crucial":10964,"canĠbeĠa":10965,"ĠexactlyĠ":10966,",ĠaĠm":10967,"separat":10968,",ĠwhileĠ":10969,"ecast":10970,"ĠinĠmind":10971,"Ġgas":10972,"ĠisĠnow":10973,"ĠtimeĠof":10974,"ĠtheseĠday":10975,"Ġresidential":10976,"ĠbeingĠa":10977,"everydayĠ":10978,"whileĠtheĠ":10979,"legend":10980,"eĠorgan":10981,"ĠtoĠsaveĠ":10982,"Ġinstagram":10983,",ĠitĠis":10984,"ww.":10985,"participateĠin":10986,"Ġnovember":10987,"ĠassistantĠ":10988,"ĠthreeĠyear":10989,"libraryĠ":10990,"opposit":10991,"ĠratherĠthan":10992,".ĠanyĠ":10993,"eans":10994,"les.Ġ":10995,"psych":10996,"pdf":10997,"ril":10998,"ĠtoĠshow":10999,"edĠtheĠf":11000,"Ġfrequ":11001,"e.Ġwith":11002,"estyle":11003,"eĠfirstĠ":11004,"kindĠ":11005,"ĠtechnologiesĠ":11006,"ĠtoĠmakeĠ":11007,"builder":11008,"-inch":11009,"optimiz":11010,"Ġthreaten":11011,"entryĠwasĠpostedĠin":11012,"(s)":11013,"-g":11014,"oem":11015,"xĠ":11016,".ĠmanyĠ":11017,"esĠandĠtheĠ":11018,"edĠaĠf":11019,"Ġhensen,Ġj":11020,"ĠonĠa":11021,"ĠoneĠofĠtheĠ":11022,"eĠdeal":11023,"Ġshor":11024,"intag":11025,"ĠthisĠarticleĠ":11026,"ingĠdesign":11027,"long-term":11028,"eĠany":11029,"140":11030,"involvedĠin":11031,"ĠradioĠ":11032,"Ġaccommodation":11033,"eĠinterestedĠin":11034,"makeĠsureĠyou":11035,",ĠaĠb":11036,"63":11037,",Ġus":11038,"eĠcustom":11039,"eĠclean":11040,"ĠatĠthisĠ":11041,"eĠpleas":11042,"Ġherit":11043,"ĠaĠlow":11044,"ĠmakeĠyour":11045,"Ġweight":11046,"rama":11047,"webĠsit":11048,"Ġprevent":11049,"ĠwhoĠisĠ":11050,"Ġseries":11051,"impactĠon":11052,"incorporat":11053,"ageĠdoor":11054,"-friendlyĠ":11055,"%Ġoff":11056,"130":11057,"dress":11058,"heav":11059,"ĠsafetyĠ":11060,"islandĠ":11061,"ureĠthatĠ":11062,"ĠgiftĠ":11063,"s.Ġm":11064,"ownersĠ":11065,"Ġadequ":11066,"ĠtheĠfrontĠ":11067,"intention":11068,"ĠcontractĠ":11069,"ĠtopĠof":11070,"eĠspeak":11071,"ĠclientsĠ":11072,"Ġoccasion":11073,"regularlyĠ":11074,"ĠappreciateĠ":11075,"restrict":11076,"wesom":11077,"alon":11078,"ĠandĠeven":11079,"forest":11080,"ĠislandĠ":11081,".ĠiĠknow":11082,"ĠitĠwill":11083,",ĠiĠwasĠ":11084,"abilityĠandĠ":11085,"eĠfromĠ":11086,"iscoĠ":11087,"Ġdistribution":11088,"Ġinvestor":11089,"eĠdecid":11090,"pump":11091,"sister":11092,"it?":11093,"opher":11094,"asĠof":11095,"percent":11096,"october":11097,"reception":11098,"ĠjesusĠ":11099,"ĠtheĠpost":11100,"ĠtheĠposs":11101,"ĠaĠlistĠof":11102,",Ġsay":11103,"ingĠwithĠtheĠ":11104,"communities":11105,"Ġtraining":11106,"eĠspecific":11107,"Ġtechnology,Ġ":11108,"Ġbutter":11109,"Ġconcret":11110,"eĠindividual":11111,"Ġhonor":11112,"exterior":11113,"obligation":11114,"\"ĠandĠ":11115,"ped":11116,"weĠs":11117,"Ð»":11118,"en,Ġ":11119,"th-":11120,"ingĠusĠ":11121,"shoulder":11122,"ĠtheĠsea":11123,"ĠtheĠskin":11124,"ĠatĠtheĠc":11125,"Ġrap":11126,"notĠonly":11127,"spentĠ":11128,"ratedĠ":11129,"studio":11130,"ĠcloudĠ":11131,"everyĠyear":11132,"uresĠandĠ":11133,"mayĠb":11134,"experiment":11135,"Ġmagazin":11136,"florida":11137,"Ġcomparison":11138,"sylvan":11139,"dry":11140,"eesĠ":11141,"i)":11142,"ora":11143,"ingĠprocess":11144,"Ġcounsel":11145,"ĠinĠd":11146,"abyĠ":11147,"withĠm":11148,"e.Ġhowever":11149,"ity.":11150,"Ġexpression":11151,"s.ĠasĠ":11152,"easily":11153,"remend":11154,"ablesĠ":11155,"outĠofĠtheĠ":11156,"ĠtoĠdetermin":11157,"gender":11158,"ĠtriedĠtoĠ":11159,"hardĠtoĠ":11160,"fundĠ":11161,"Ġchemical":11162,"Ġkorea":11163,"?!":11164,"Ġaer":11165,".Ġdo":11166,"ĠandĠour":11167,"ĠtoĠthatĠ":11168,"ivin":11169,"we'reĠ":11170,"spotĠ":11171,"es,Ġinclud":11172,"note:":11173,"ethodĠof":11174,"ĠmanyĠof":11175,"salesĠ":11176,"ĠdistrictĠ":11177,"breath":11178,"heal":11179,"eĠhasĠbeen":11180,"erĠ(":11181,"Ġsuccess":11182,"Ġped":11183,"edly":11184,"Ġinitial":11185,"commentĠ":11186,"ĠaĠsecondĠ":11187,"ĠthemĠin":11188,"ĠusingĠ":11189,"veryĠbestĠ":11190,"knowĠwhatĠ":11191,"esĠintoĠ":11192,"bless":11193,"ĠphoneĠ":11194,"sĠduring":11195,"ennsylvan":11196,"reduction":11197,"Ġappearanc":11198,"ĠlotsĠof":11199,"(andĠ":11200,"fold":11201,"y)":11202,"eĠif":11203,"Ġtower":11204,"ingĠatĠtheĠ":11205,",Ġre":11206,",Ġlik":11207,"Ġbey":11208,"ageĠofĠ":11209,"eĠbox":11210,"emptyĠ":11211,"Ġopt":11212,"playersĠ":11213,"Ġphas":11214,".Ġduring":11215,",ĠwhichĠis":11216,"188":11217,".ĠyouĠmayĠ":11218,"ĠtheĠchurch":11219,"ĠthatĠyouĠareĠ":11220,"ĠeasyĠ":11221,"chedule":11222,"ĠaĠshortĠ":11223,"overĠtheĠyear":11224,"Ġlesson":11225,"Ġopportunities":11226,"holidayĠ":11227,",ĠtheĠl":11228,".uk":11229,"tb":11230,"Ġetc":11231,"Ġtear":11232,"Ġtemp":11233,"age.":11234,"eĠmean":11235,"ĠasĠtoĠ":11236,"ĠapartmentĠ":11237,"ansasĠ":11238,"washer":11239,"stories":11240,"renov":11241,"guitar":11242,"medicin":11243,"187":11244,"Ġmedic":11245,"Ġaccordanc":11246,"revolution":11247,"primarilyĠ":11248,"ascular":11249,"properlyĠ":11250,"straightĠ":11251,"eĠdoesĠnotĠ":11252,"achelor":11253,"62":11254,"dal":11255,"hz":11256,"hors":11257,"lag":11258,"ty":11259,"vendor":11260,"ĠnightĠ":11261,"s.ĠsoĠ":11262,"s,ĠitĠ":11263,"eĠwe":11264,"s>Ġ<s>Ġc":11265,"Ġtimes,Ġ":11266,"Ġ(andĠ":11267,"ĠaĠsimilar":11268,"Ġdon't":11269,"department":11270,"ĠthingsĠthatĠ":11271,"letĠmeĠ":11272,"sĠacros":11273,"ĠsaysĠ":11274,"Ġcredit":11275,"participant":11276,"Ġbeliev":11277,"Ġclinical":11278,"Ġvirtual":11279,"danger":11280,"mount":11281,"oĠandĠ":11282,"à¥":11283,"Ġerror":11284,"Ġthrill":11285,"ĠmeetĠ":11286,"ĠandĠtheĠm":11287,"Ġkong":11288,"weĠalsoĠ":11289,"ĠuseĠof":11290,"Ġspok":11291,"pharmac":11292,"ĠafterĠ":11293,"ĠaĠdi":11294,"Ġinternal":11295,"company.Ġ":11296,"ĠsignificantĠ":11297,"jointĠ":11298,"dm":11299,"fy":11300,"nar":11301,"societ":11302,"inforc":11303,"ingâĢĿ":11304,"arah":11305,"Ġsq":11306,"ed,ĠtheĠ":11307,"acros":11308,"Ġfantastic":11309,"Ġlan":11310,"Ġluck":11311,"Ġrestor":11312,",ĠandĠother":11313,"grind":11314,"elph":11315,"ĠperiodĠ":11316,"goĠtoĠ":11317,"storiesĠ":11318,"ĠdisplayĠ":11319,"ingĠwell":11320,"iami":11321,"Ġreveal":11322,",ĠtheyĠareĠ":11323,"87":11324,"c.Ġ":11325,"dp":11326,"jamesĠ":11327,"ĠcaseĠ":11328,"ĠfullyĠ":11329,"irtĠ":11330,"ĠthatĠwas":11331,"seg":11332,"compil":11333,"ĠhaveĠyou":11334,"ĠaĠfun":11335,"ĠmyĠown":11336,"disappoint":11337,"camera":11338,"riskĠof":11339,"atellit":11340,"Ġaluminum":11341,",Ġallow":11342,"-to":11343,"cycleĠ":11344,"hyd":11345,"sentĠ":11346,"snow":11347,"safet":11348,"Ġtam":11349,".ĠitsĠ":11350,"Ġdry":11351,"usersĠ":11352,"ingĠâĢľ":11353,"exclud":11354,"convention":11355,"eptĠof":11356,"encil":11357,"deriv":11358,"eĠdirect":11359,"ĠtheĠbusinessĠ":11360,"ĠtheĠdes":11361,"ingĠag":11362,"ingĠtoĠdoĠ":11363,"Ġquant":11364,"render":11365,"wereĠs":11366,",ĠaprilĠ":11367,"ĠifĠi":11368,"Ġfreedom":11369,"whereĠtheyĠ":11370,"representativ":11371,"Ġtitle":11372,"suggestion":11373,"favor":11374,"feedback":11375,"hub":11376,"jar":11377,".ĠâĢĵ":11378,"isnâĢĻtĠ":11379,"Ġarrest":11380,"agenc":11381,"rier":11382,"ĠtheĠsk":11383,"spin":11384,"eĠfloor":11385,"y,Ġor":11386,"departmentĠof":11387,"160":11388,"ĠexperienceĠin":11389,"ĠifĠyouĠhaveĠ":11390,"collabor":11391,"ĠlevelĠof":11392,"frank":11393,"Ġcollaboration":11394,"kidsĠ":11395,"integrat":11396,"audienc":11397,"eĠdoĠnotĠ":11398,"galler":11399,"ĠtheĠa":11400,".ĠâĨĳ":11401,"Ġsort":11402,"ĠsoftwareĠ":11403,"ilder":11404,"iga":11405,"andom":11406,"ĠstandĠ":11407,"ĠwithĠm":11408,"artist":11409,"grill":11410,"ownedĠ":11411,"lient":11412,"eĠandĠmor":11413,"Ġkil":11414,"ĠtheĠtool":11415,".ĠiâĢĻveĠ":11416,"ĠagencyĠ":11417,".ĠthisĠwill":11418,"branch":11419,"iousĠandĠ":11420,"focusedĠon":11421,"graduateĠ":11422,"frigerator":11423,"mass":11424,"mountain":11425,"oder":11426,"soldĠ":11427,"y;":11428,"Ġ,Ġ":11429,"Ġold":11430,"ingĠareĠ":11431,"ingĠaround":11432,"ĠandĠnotĠ":11433,"isĠfor":11434,"sĠofĠtheĠc":11435,",ĠandĠitĠ":11436,"comple":11437,"iatric":11438,"ĠtheĠfollowingĠ":11439,"ĠtheĠmoreĠ":11440,"restriction":11441,"Ġtexas":11442,"Ġcriminal":11443,"hawk":11444,"holiday":11445,"scriber":11446,"',":11447,".h":11448,"ois":11449,"sector":11450,"inch":11451,"oneĠth":11452,"Ġdifficult":11453,"Ġin-":11454,"explan":11455,"ĠwithĠthisĠ":11456,"ĠthatĠall":11457,"ĠtheĠfound":11458,"ensuring":11459,"areful":11460,"wouldĠb":11461,"oneĠofĠour":11462,",ĠyouĠareĠ":11463,",ĠyouĠmayĠ":11464,"ĠwaysĠtoĠ":11465,"Ġfeature":11466,"perfectlyĠ":11467,"detect":11468,"ordinator":11469,"%)":11470,"i'veĠ":11471,"nik":11472,"oâĢĻsĠ":11473,"esĠareĠs":11474,"Ġfemal":11475,"ĠtoĠallow":11476,"Ġarr":11477,"quil":11478,"conclusion":11479,"eĠinvolv":11480,"Ġvoter":11481,"ĠisĠveryĠ":11482,"eĠbl":11483,"ĠtheĠdown":11484,"ĠtakeĠcar":11485,"ĠproĠ":11486,"getĠyour":11487,"experienceĠin":11488,"effectsĠof":11489,"designedĠfor":11490,"ĠappropriateĠ":11491,"discount":11492,"ĠtoĠmeetĠ":11493,"needĠtoĠbeĠ":11494,"ĠperformanceĠ":11495,"Ġobtain":11496,"Ġfeatur":11497,"difficultĠ":11498,"lav":11499,"mg":11500,"eĠout":11501,"sĠwhoĠareĠ":11502,"Ġanth":11503,"Ġdaughter":11504,"haust":11505,"absolut":11506,"Ġrepl":11507,"s.Ġp":11508,"eĠcap":11509,"ĠcanĠi":11510,"iesel":11511,"ĠiĠthink":11512,"ifĠyouĠwantĠtoĠ":11513,"lookedĠ":11514,"ingĠpower":11515,"ĠtoĠbeĠs":11516,"edĠmeĠtoĠ":11517,"ribleĠ":11518,"appropriateĠ":11519,"Ġjourne":11520,"riminal":11521,"ĠassistĠyou":11522,"-level":11523,"rc":11524,"y,Ġand":11525,"âģ":11526,"itan":11527,"omentĠ":11528,"leaf":11529,"rix":11530,"andal":11531,"ocrac":11532,"enda":11533,"recall":11534,"Ġkar":11535,"raud":11536,"ĠisĠaĠm":11537,"ĠtheĠnight":11538,".ĠheĠwasĠ":11539,"eĠlist":11540,"knock":11541,"reasonableĠ":11542,"ĠsuchĠasĠ":11543,"ĠaddressĠ":11544,"Ġrenew":11545,"Ġagricult":11546,"hu":11547,"iĠhad":11548,"oen":11549,"ually,Ġ":11550,"Ġaz":11551,"ousĠandĠ":11552,"refin":11553,",Ġbr":11554,",Ġit'sĠ":11555,"Ġcd":11556,"theyĠ":11557,"Ġhat":11558,"esĠ-":11559,"etooth":11560,"embleĠ":11561,"Ġgolf":11562,"withĠtheir":11563,"ively.Ġ":11564,"ĠtryĠandĠ":11565,"eĠcook":11566,"fromĠyour":11567,"Ġvin":11568,"preserv":11569,"script":11570,"finally,Ġ":11571,"sĠwithĠ":11572,"mond":11573,",Ġmay":11574,"changeĠ":11575,"attach":11576,"consolid":11577,"Ġorigin":11578,"tgag":11579,"Ġinnovation":11580,"Ġsatisfaction":11581,"solv":11582,"uz":11583,"sĠmor":11584,",Ġboth":11585,"omatic":11586,"Ġsnow":11587,"Ġpas":11588,"ed,Ġand":11589,"Ġindoor":11590,"ingĠlik":11591,"ĠyouâĢĻll":11592,"Ġliqu":11593,"eĠtryingĠtoĠ":11594,"consequenc":11595,"ĠtheĠsurfac":11596,"ĠcanĠyou":11597,"ĠtheĠhand":11598,"ĠtheĠlist":11599,"ĠtheĠgarden":11600,"ĠworkingĠwith":11601,"prepared":11602,"oneĠofĠtheĠbestĠ":11603,"educator":11604,"compani":11605,"handl":11606,"ĠhopeĠyou":11607,"credit":11608,"ĠmaybeĠ":11609,"Ġchristmas":11610,"iconic":11611,"ĠthirdĠpart":11612,"eutical":11613,".a":11614,"i.Ġ":11615,"iĠcouldĠ":11616,"sĠso":11617,"adjust":11618,"coming":11619,"ries,Ġ":11620,"eĠofĠtheĠc":11621,"Ġtheater":11622,"Ġtroubl":11623,"Ġven":11624,"ĠunitedĠ":11625,"notĠtheĠ":11626,"usiness.Ġ":11627,"athon":11628,"edĠbyĠa":11629,"ropical":11630,"decemberĠ":11631,"employer":11632,"seemsĠtoĠ":11633,"signal":11634,"ĠcompleteĠ":11635,"drawn":11636,"alloween":11637,"division":11638,"nos":11639,"pac":11640,"Ġelectronic":11641,"ĠsureĠ":11642,"edĠandĠs":11643,"chant":11644,"roth":11645,"eĠcustomer":11646,"ustin":11647,"ĠtheĠball":11648,"compromis":11649,"Ġuseful":11650,"esĠandĠother":11651,"ryan":11652,"blow":11653,"ementĠin":11654,"coat":11655,"Ġphilosoph":11656,"Ġservices,Ġ":11657,"ĠnotĠonlyĠ":11658,"moreĠaboutĠ":11659,"planet":11660,"priz":11661,"readyĠfor":11662,"volunt":11663,"Ġantib":11664,"basedĠonĠtheĠ":11665,"guidelin":11666,"vehicle":11667,"uthentication":11668,"relevant":11669,"entertainmentĠ":11670,"eĠwebsit":11671,"dollar":11672,"softwareĠ":11673,"ðŁ":11674,"ĠÙ":11675,"oneĠin":11676,"esâĢĿ":11677,"ĠandĠover":11678,"Ġpublication":11679,"Ġdail":11680,"esĠwhen":11681,"expres":11682,"s,ĠwhoĠ":11683,"ĠforĠanyĠ":11684,"Ġconcent":11685,"Ġorang":11686,"ĠtheĠtruth":11687,"achus":11688,"ĠtheĠwinter":11689,"ĠaboutĠhow":11690,"ĠcontemporaryĠ":11691,"ĠappearedĠ":11692,",ĠmostĠ":11693,"riven":11694,"basis":11695,"appleĠ":11696,"ĠstudiesĠ":11697,"ĠallĠofĠour":11698,"ĠthereĠareĠmanyĠ":11699,"suitableĠfor":11700,"ĠthereforeĠ":11701,"micro":11702,"echanic":11703,"davidĠ":11704,"Ġparticipant":11705,"iform":11706,"security":11707,"Ġ//":11708,"Ġtenn":11709,"ingĠproduct":11710,"Ġsy":11711,"ĠandĠnew":11712,"ello":11713,"edĠyou":11714,"etnam":11715,"Ġger":11716,"endedĠup":11717,"Ġchamber":11718,"ĠorĠnot":11719,"we'veĠ":11720,"ĠisĠaĠf":11721,"Ġits":11722,"e,ĠasĠ":11723,"interaction":11724,"ĠyearsĠandĠ":11725,"eĠwithĠ":11726,"requireĠ":11727,"Ġmont":11728,"Ġenhanc":11729,"Ġbranch":11730,"ĠwasĠtheĠ":11731,".ĠweĠalsoĠ":11732,"heardĠ":11733,"ĠmanyĠyear":11734,"eĠnumber":11735,"Ġdepartment":11736,".ĠitâĢĻs":11737,"recognition":11738,"Ġexpens":11739,"ĠdemandĠ":11740,"objectiveĠ":11741,"eĠdecor":11742,"ythm":11743,"96":11744,"crib":11745,"goneĠ":11746,"lon":11747,"mith":11748,"mouth":11749,"vdĠ":11750,"sĠsh":11751,"onor":11752,"retion":11753,"isĠnow":11754,"Ġbreath":11755,"urk":11756,"ĠinĠtheĠf":11757,"atĠleastĠ":11758,"eĠofĠc":11759,"speedĠ":11760,"ianoĠ":11761,"rosoft":11762,"Ġground":11763,",ĠiĠthink":11764,"ĠalwaysĠa":11765,"ĠguessĠ":11766,"rangingĠfrom":11767,"eĠiĠwasĠ":11768,"ĠandĠwomen":11769,"Ġcountry":11770,"ependingĠon":11771,"ĠhavenâĢĻtĠ":11772,"ĠaĠsignificantĠ":11773,"budget":11774,"yesterday":11775,"inentĠ":11776,"ellyĠ":11777,"ĠtoĠher":11778,"ĠtoĠreach":11779,"Ġbak":11780,"exclus":11781,"Ġgrat":11782,"agazin":11783,"s.Ġwhil":11784,"ephon":11785,"Ġjanu":11786,"portableĠ":11787,"rah":11788,"vibr":11789,"removeĠth":11790,"Ġrespond":11791,"ĠtheĠgrow":11792,",ĠmayĠ":11793,"eptember":11794,"ospel":11795,"biggestĠ":11796,"foundation":11797,"Ġlarger":11798,",Ġtheir":11799,"fam":11800,"hik":11801,"mw":11802,"Ġequ":11803,"Ġty":11804,"inĠorderĠtoĠ":11805,"eramic":11806,".Ġcar":11807,",Ġnow":11808,"ĠsoundĠ":11809,"Ġwild":11810,"Ġpowder":11811,"edĠaĠd":11812,"edium":11813,"chocolat":11814,"Ġalert":11815,"Ġalgorithm":11816,"Ġgear":11817,"ĠandĠtheĠb":11818,"s.Ġc":11819,"elloĠ":11820,"eĠwall":11821,"eĠdonâĢĻtĠ":11822,"Ġprogress":11823,"lookĠlik":11824,"whatĠhappen":11825,"Ġupgrad":11826,"ĠotherĠword":11827,"Ġpharmac":11828,"iograph":11829,"Ġadditionally,Ġ":11830,".Ġfurther":11831,"casinoĠ":11832,"marin":11833,"versionĠof":11834,"clickĠon":11835,"advic":11836,"ĠcompetitiveĠ":11837,"ĠadministrativeĠ":11838,"exceptional":11839,".ĠretrievedĠ":11840,"âģĦ":11841,",ĠaccordingĠtoĠ":11842,"lap":11843,"nativeĠ":11844,"sĠanĠ":11845,"Ġevidenc":11846,"sĠeach":11847,"ingĠtim":11848,"isco":11849,"youĠmightĠ":11850,"lem":11851,"usedĠto":11852,"ayak":11853,"eĠtour":11854,"eĠworld":11855,"eĠinĠa":11856,"ĠatĠany":11857,"eĠpublic":11858,"Ġjesus":11859,"negl":11860,"ĠaĠclear":11861,"itĠisĠnotĠ":11862,"ocktail":11863,"eĠisĠa":11864,"185":11865,"Ġtrademark":11866,"obileĠ":11867,"Ġremot":11868,"esĠfromĠtheĠ":11869,"Ġextension":11870,"Ġdiscuss":11871,"waitĠ":11872,"eĠfinish":11873,"98":11874,"differ":11875,"hil":11876,"iov":11877,"pageĠ":11878,"privac":11879,"vm":11880,"injur":11881,"sĠun":11882,"itativeĠ":11883,"ĠanĠindividual":11884,"esisĠ":11885,"Ġcandidat":11886,"isĠthat":11887,"ĠtoĠcreateĠa":11888,"ĠpastĠ":11889,"Ġdemonstr":11890,"Ġfeedback":11891,"ĠinĠorderĠtoĠ":11892,"igureĠ":11893,"ingĠ-":11894,"ingĠk":11895,"s.Ġsh":11896,"eĠcod":11897,"spreadĠ":11898,"ĠamountĠ":11899,"ĠitsĠm":11900,"ingĠaĠ":11901,"Ġprayer":11902,"donâĢĻt":11903,"freedom":11904,"Ġweapon":11905,",Ġfollow":11906,"Ġsmooth":11907,"Ġcalendar":11908,"ĠlosĠangel":11909,"eutic":11910,"Ġvacation":11911,"athematic":11912,"-off":11913,"ryĠtoĠ":11914,"sĠitsĠ":11915,"erver":11916,"one,Ġ":11917,".Ġre":11918,"album":11919,"ioneer":11920,"forth":11921,"ursu":11922,"ĠlistĠ":11923,"e.Ġb":11924,"sĠaf":11925,"sĠare":11926,"sĠofĠm":11927,"Ġtrim":11928,"Ġtram":11929,"eĠdel":11930,"ĠtheĠmid":11931,"ĠtheĠmusic":11932,"Ġjump":11933,"spell":11934,"canĠhelp":11935,"ensor":11936,"ĠitsĠc":11937,"butĠalsoĠ":11938,"scientific":11939,"eĠonĠ":11940,"ĠasĠwellĠasĠtheĠ":11941,"onceĠ":11942,"larger":11943,"ĠbecauseĠof":11944,"betterĠthan":11945,"betweenĠ":11946,"Ġcabinet":11947,".Ġtak":11948,"dynamic":11949,"lateĠ":11950,"instruction":11951,"stamp":11952,"edĠaĠm":11953,"chatĠ":11954,"ecution":11955,"Ġinn":11956,"eĠtheĠa":11957,"Ġyoutub":11958,"eĠwantĠtoĠ":11959,"ĠtheĠgameĠ":11960,"statementĠ":11961,"e.ĠiĠam":11962,"ĠaĠlov":11963,"optional":11964,"Ġthere'sĠa":11965,"ĠtoĠputĠ":11966,"Ġtourism":11967,"filledĠwith":11968,"Ġinvestigation":11969,"sometimes":11970,"sequentĠ":11971,"belong":11972,"elegantĠ":11973,"stylish":11974,"ĠtheĠgreatestĠ":11975,"republican":11976,"cleĠ":11977,"faster":11978,"ouisĠ":11979,"Ġcraft":11980,"thĠ":11981,"ĠandĠsoĠ":11982,"edyĠ":11983,"rozen":11984,"eĠsw":11985,"ooter":11986,"istry":11987,"udienc":11988,"liver":11989,"Ġric":11990,"ĠableĠto":11991,"ongĠkong":11992,"eĠheldĠ":11993,"ultane":11994,"obodyĠ":11995,"ĠaĠ$":11996,"ĠtheĠgreen":11997,"ĠtheĠnatural":11998,"doĠnot":11999,"ingĠpag":12000,"qualifi":12001,"oxy":12002,"edĠaĠnew":12003,"âĢ²âĢ²":12004,"plugin":12005,"diction":12006,"iâĢĻsĠ":12007,"pens":12008,"sĠmak":12009,"ing,ĠtheĠ":12010,"stack":12011,"Ġsurround":12012,"ĠandĠus":12013,"ĠinĠp":12014,"Ġarth":12015,"uly":12016,"uma":12017,"beam":12018,"e,Ġb":12019,"eĠmeas":12020,"seeĠa":12021,"Ġamp":12022,"whenĠh":12023,"eatur":12024,"ĠlookĠfor":12025,"Ġmedication":12026,"Ġdesigner":12027,"ĠmonthlyĠ":12028,"Ġcentr":12029,"Ġtowel":12030,"containsĠ":12031,"ĠdonâĢĻtĠknow":12032,"sharp":12033,"recognis":12034,"ĠaĠminimum":12035,"eĠdidnâĢĻtĠ":12036,"(c":12037,"favorit":12038,"hid":12039,"ĠtheĠk":12040,"ĠcutĠ":12041,"ĠandĠmyĠ":12042,"ĠtoĠdevelop":12043,"Ġmp":12044,"impos":12045,"ĠinĠh":12046,"ĠtoĠadd":12047,"agent":12048,"Ġandroid":12049,"riedĠ":12050,"quietĠ":12051,"ĠonĠtheir":12052,"eĠdegre":12053,"Ġkick":12054,"manageĠ":12055,"veryĠmuch":12056,",ĠiĠhaveĠ":12057,"eĠtimeĠ":12058,"ĠhandleĠ":12059,"agnific":12060,"ĠpolicyĠ":12061,"achusett":12062,",ĠthisĠisĠ":12063,"ares":12064,"Ã¨":12065,"sĠweĠ":12066,"ĠtheĠper":12067,"youĠcouldĠ":12068,"ĠofĠn":12069,"ourĠ":12070,"rient":12071,"eĠsav":12072,"sĠofĠtheĠs":12073,"whenĠw":12074,"Ġtwist":12075,"ĠaĠcor":12076,"looksĠlik":12077,"greatĠfor":12078,"olitician":12079,"Ġhandl":12080,".ĠwhenĠi":12081,".Ġhowever,Ġ":12082,"Ġapplicant":12083,"ĠsometimesĠ":12084,"/c":12085,"jectĠof":12086,"vulner":12087,"inĠl":12088,"inĠorder":12089,"altern":12090,"eless,Ġ":12091,"edĠtheĠt":12092,"Ġban":12093,"Ġbrowser":12094,"Ġhi":12095,"whoseĠ":12096,"itĠhas":12097,"resolv":12098,"yourĠneed":12099,"sĠandĠcondition":12100,"ody":12101,"eĠawar":12102,"liament":12103,"Ġrent":12104,"spent":12105,"Ġshoot":12106,"arelyĠ":12107,"donald":12108,"parentsĠ":12109,"timeĠ":12110,"ĠnoĠlonger":12111,"ĠstartedĠ":12112,"ĠeastĠ":12113,"Ġsmith":12114,"Ġsmok":12115,"geon":12116,"eĠclick":12117,"effectĠof":12118,"Ġrecogniz":12119,"raffic":12120,"!âĢĿ":12121,"gear":12122,"ius":12123,"wir":12124,"ylin":12125,"Ġimpact":12126,".Ġr":12127,"stein":12128,"arth":12129,"Ġcatch":12130,"Ġsolar":12131,"edĠ\"":12132,"rogen":12133,"ecision":12134,"updatedĠ":12135,"e.ĠsoĠ":12136,"Ġstak":12137,"eĠbig":12138,"england":12139,"Ġresistanc":12140,"ingĠbetween":12141,"studioĠ":12142,"preparedĠ":12143,",Ġpp.Ġ":12144,"directorĠof":12145,"ĠtheĠspecial":12146,"Ġgeneration":12147,"domain":12148,"michael":12149,"objectiv":12150,"patientĠ":12151,"spiritual":12152,"ennsylvania":12153,"famousĠ":12154,"hook":12155,"hidden":12156,"ingĠhasĠ":12157,"altĠ":12158,"Ġsuffer":12159,"isĠaĠm":12160,"Ġdistanc":12161,"Ġfat":12162,"ĠinĠorder":12163,"ĠofĠher":12164,"ourag":12165,"e,Ġp":12166,"eĠcurrentlyĠ":12167,"eĠmay":12168,"overwhelm":12169,"sĠint":12170,"ĠatĠyour":12171,".ĠiĠwouldĠ":12172,"assemb":12173,"ĠtheĠwestĠ":12174,"son,Ġ":12175,"ĠaĠfriend":12176,"ethic":12177,"ĠaĠpar":12178,"ingĠpool":12179,"esĠforĠtheĠ":12180,"ownership":12181,"ĠtheĠcorner":12182,"entranc":12183,"Ġtutorial":12184,"description":12185,"heatĠ":12186,"ings,":12187,"Ġwarn":12188,"chat":12189,"Ġfly":12190,"comeĠfrom":12191,"eĠselection":12192,"eĠmet":12193,"eĠdem":12194,"s>Ġ<s>Ġm":12195,"ĠtheĠbenefit":12196,"here.":12197,"s.ĠthisĠisĠ":12198,"objectĠ":12199,"ingĠare":12200,"ĠtheĠwood":12201,"ĠtheĠwrong":12202,"diet":12203,"sĠmightĠ":12204,"experienceĠ":12205,"experiencedĠ":12206,"ĠpartyĠ":12207,"ĠsoĠmanyĠ":12208,"Ġpreferenc":12209,"Ġflash":12210,"ĠthingsĠtoĠ":12211,"belief":12212,"ĠhavingĠa":12213,"ocolateĠ":12214,"brought":12215,"festival":12216,"mand":12217,"ntĠ":12218,"susp":12219,"Ġ@":12220,"sĠâĢľ":12221,"onn":12222,"enjo":12223,",ĠsheĠ":12224,"stim":12225,"es,Ġt":12226,"Ġsum":12227,"ĠandĠnow":12228,"elevision":12229,"Ġfruit":12230,"respon":12231,"e.Ġsh":12232,"elli":12233,"eĠphon":12234,"ĠshareĠ":12235,"reatment":12236,"working":12237,"egon":12238,"y,Ġwhich":12239,"e,Ġa":12240,"ĠaĠfair":12241,"ĠtheĠhead":12242,"flight":12243,"extract":12244,"ĠsomeĠcas":12245,"Ġupon":12246,",Ġi'm":12247,"endĠon":12248,"suchĠasĠtheĠ":12249,"dayĠof":12250,"Ġsequ":12251,"ĠnotĠsureĠ":12252,"Ġinstance,Ġ":12253,"becomesĠ":12254,"ingĠfromĠtheĠ":12255,"ĠthisĠpag":12256,"ĠtheĠboard":12257,"ĠanyoneĠwhoĠ":12258,"Ġterminal":12259,"-minut":12260,"cos":12261,"might":12262,"wil":12263,"ingsĠthatĠ":12264,"Ġsusp":12265,"edĠoutĠof":12266,"esĠus":12267,"idi":12268,"ulin":12269,"Ġnet":12270,"prohib":12271,"Ġformal":12272,"Ġador":12273,"eĠbr":12274,"ĠtheĠcan":12275,"ishop":12276,"contest":12277,".ĠiĠloveĠ":12278,"tooĠ":12279,"scientist":12280,"lookingĠatĠ":12281,"boat":12282,"minimum":12283,"ingĠcount":12284,"needsĠof":12285,"ĠaĠreason":12286,"confus":12287,"universal":12288,"ĠheartĠ":12289,"Ġfrank":12290,"architect":12291,"-winn":12292,"vitamin":12293,"b)":12294,"bed":12295,"husband":12296,"nick":12297,"sad":12298,"sustain":12299,"à¸":12300,"ĠtheĠright":12301,"releaseĠ":12302,".Ġbr":12303,"icit":12304,"Ġcrew":12305,"ĠandĠwhatĠ":12306,"ĠbitĠ":12307,"imin":12308,"Ġandrew":12309,"ĠasĠpossibleĠ":12310,"s>Ġ<s>Ġa":12311,"raeli":12312,"edĠinformation":12313,"verseĠ":12314,"mini":12315,"minor":12316,"ĠalongĠtheĠ":12317,"radio":12318,"Ġsalt":12319,"ĠtoĠmeet":12320,"Ġrequire":12321,"validĠ":12322,"wrap":12323,"ĠtheĠtrail":12324,"eĠdownload":12325,"immediately":12326,"Ġwon'tĠ":12327,"Â©Ġ":12328,"dc":12329,"sĠtheĠs":12330,"Ñĭ":12331,"ĠaĠmoreĠ":12332,"reationĠof":12333,"alent":12334,"esmer":12335,"ility":12336,"edĠhow":12337,"Ġdumpster":12338,"ĠfocusĠon":12339,"ingĠ\"":12340,"eĠthoseĠ":12341,"ivan":12342,"sĠofĠc":12343,"ĠtroubleĠ":12344,"eĠdifficult":12345,"fertil":12346,"eĠbecom":12347,"ĠtheĠdark":12348,"e.ĠthisĠisĠ":12349,"weĠall":12350,"s,ĠasĠwellĠasĠ":12351,"anyĠquestion":12352,"eĠonĠyour":12353,",Ġsup":12354,"disclos":12355,"ĠtheĠtopic":12356,"setĠof":12357,"characteristic":12358,"abinet":12359,"fixt":12360,"supplier":12361,"necessarilyĠ":12362,"bourn":12363,",ĠaĠd":12364,"doc":12365,"eĠun":12366,"inĠtheĠb":12367,"ouston":12368,"ing)":12369,".ĠeveryĠ":12370,"Ġpoor":12371,"edĠbefor":12372,"Ġdos":12373,"emen":12374,"lose":12375,"Ġgat":12376,"Ġghost":12377,"Ġreally":12378,"conutĠ":12379,"sĠofĠb":12380,"eĠinstall":12381,"Ġchicken":12382,"Ġ(th":12383,"obviouslyĠ":12384,"ĠusersĠ":12385,"fiction":12386,"joint":12387,"Ġscot":12388,"Ġscientific":12389,"series":12390,"ĠsmartĠ":12391,"umbia":12392,"insight":12393,"ĠagainstĠtheĠ":12394,"Ġvehicle":12395,"Ġfunctional":12396,"ĠrelatedĠ":12397,"compatibleĠ":12398,",Ġtak":12399,"bloodĠ":12400,"cutt":12401,"gasĠ":12402,"yoga":12403,"sĠhaveĠa":12404,"rost":12405,"usical":12406,"etical":12407,"loos":12408,"e.ĠmyĠ":12409,"eĠword":12410,"Ġasian":12411,"obviousĠ":12412,"sĠareĠin":12413,"e,ĠtheyĠ":12414,"remeĠc":12415,"ologyĠandĠ":12416,"status":12417,"sĠtooĠ":12418,"largelyĠ":12419,"Ġboy":12420,"eĠsuppl":12421,"ĠlatestĠ":12422,"agreement":12423,"lessĠthanĠ":12424,"shadow":12425,"religion":12426,"ĠfavoriteĠ":12427,"Ġchief":12428,",ĠalsoĠ":12429,",Ġadd":12430,"citizen":12431,"femal":12432,"voc":12433,"Ð²":12434,"eĠla":12435,"Ġtailor":12436,"arrang":12437,"ĠtoĠitsĠ":12438,"ed)":12439,"Ġmirror":12440,"as,Ġ":12441,"usal":12442,"Ġful":12443,"amentĠ":12444,"ifĠw":12445,"ositĠ":12446,"Ġlaptop":12447,"conversion":12448,"s,ĠyouĠcan":12449,"e.Ġbut":12450,".ĠtheĠp":12451,"sher":12452,"beingĠd":12453,"ĠallĠaboutĠ":12454,",ĠandĠin":12455,"endantĠ":12456,"eĠtoĠour":12457,"notĠhaveĠ":12458,"ĠandĠsocial":12459,"sĠsay":12460,"keepĠyour":12461,"gives":12462,"givesĠyou":12463,"ĠaĠnon-":12464,"imagesĠ":12465,"ĠcreateĠa":12466,"Ġcorporation":12467,"investigation":12468,"oliday":12469,"emergenc":12470,"optimal":12471,"eĠdoesnâĢĻtĠ":12472,"ervisor":12473,"\"ĠxĠ":12474,"61":12475,"nn":12476,"ptĠ":12477,"success":12478,"uum":12479,"vitation":12480,"voter":12481,"Ġoh":12482,"eĠâĢľ":12483,"ouple":12484,".ĠdonâĢĻtĠ":12485,"stem":12486,"Ġhang":12487,"ingĠunder":12488,"ingĠgroup":12489,"eaf":12490,"ĠgetĠtheĠ":12491,"babyĠ":12492,"ĠtoĠbeĠableĠtoĠ":12493,"Ġorganisation":12494,"Ġfamily":12495,"Ġspecialist":12496,"heim":12497,"Ġcopper":12498,"socialĠmedia":12499,"estinian":12500,"uddenlyĠ":12501,"sĠamong":12502,"ĠrightsĠreserv":12503,"fuel":12504,"fabric":12505,"jim":12506,"must":12507,"sever":12508,"tw":12509,"typ":12510,"x-":12511,"ĠendĠ":12512,"eĠwhoĠ":12513,",ĠhasĠ":12514,"Ġsecret":12515,"Ġwil":12516,"ĠheatĠ":12517,"imentĠ":12518,"abeth":12519,"withinĠtheĠ":12520,"ewayĠ":12521,"permitt":12522,"Ġtrash":12523,"eĠmeet":12524,"eĠduring":12525,"eĠbank":12526,"ĠtheĠfund":12527,".ĠiĠcan":12528,"pressur":12529,"ĠmyĠlif":12530,"ĠaĠcl":12531,"surger":12532,"expansion":12533,"uffic":12534,"ingĠtooĠ":12535,"ĠplaceĠtoĠ":12536,"Ġcorner":12537,"Ġintend":12538,"ĠfeaturesĠ":12539,"capableĠof":12540,"delet":12541,"relatedĠto":12542,"eĠguid":12543,"buck":12544,"cycl":12545,"fat":12546,"iusĠ":12547,"q:":12548,"Ġeurop":12549,"Ġtight":12550,"ĠticketĠ":12551,"reject":12552,"icul":12553,"ĠinĠl":12554,"ation.ĠtheĠ":12555,"ewer":12556,"beingĠin":12557,"eĠmark":12558,"edĠtoĠhaveĠ":12559,"Ġjapanes":12560,"ĠtheĠwor":12561,"Ġattain":12562,"riptĠ":12563,"ponent":12564,"ĠclassĠ":12565,"realistic":12566,"productiveĠ":12567,"Ġwell-":12568,"nessĠandĠ":12569,"outsideĠof":12570,"replacementĠ":12571,"ĠtotalĠofĠ":12572,"ĠthemselvesĠ":12573,"bulb":12574,"russia":12575,"-hour":12576,".ĠandĠi":12577,"ingsĠfor":12578,"itnessĠ":12579,".ĠsomeĠ":12580,"omestic":12581,"Ġsugar":12582,"ilet":12583,"youĠwantĠtoĠ":12584,"rov":12585,"Ġmight":12586,"Ġalumni":12587,"eĠcould":12588,"ĠcommentĠ":12589,"ĠtheĠcentral":12590,"ĠiĠhadĠ":12591,"ĠtakeĠon":12592,"Ġtwin":12593,"basedĠin":12594,"becauseĠtheĠ":12595,"ĠaĠwoman":12596,"consin":12597,"ingĠhealth":12598,"right?":12599,"ynch":12600,"Ġwebsite.Ġ":12601,"closeĠtoĠ":12602,"endĠofĠtheĠ":12603,"processor":12604,"s.ĠinĠaddition":12605,"Ġconfigur":12606,"Ġgraduat":12607,"Ġp.m.Ġ":12608,"Ġmagic":12609,"won'tĠ":12610,"Ġseptember":12611,"ĠbabyĠ":12612,"Ġacquisition":12613,"requiresĠ":12614,"ĠapartĠfrom":12615,"dinner":12616,"destination":12617,"iatedĠ":12618,"rentĠ":12619,"rud":12620,"soul":12621,"wak":12622,"Ã§":12623,"ĠequipmentĠ":12624,"ĠaheadĠof":12625,"inspiredĠ":12626,"ingĠthes":12627,"omination":12628,"forĠmyĠ":12629,"Ġheav":12630,"loat":12631,"lovel":12632,"seatĠ":12633,"canĠyou":12634,"eĠhold":12635,"Ġmorn":12636,"ĠmoreĠdetail":12637,"ĠagentĠ":12638,"interfac":12639,"let'sĠ":12640,"ingĠbecaus":12641,"eĠyouĠhaveĠ":12642,"ĠaboutĠthisĠ":12643,"ĠwhenĠtheĠ":12644,"Ġmakes":12645,"neededĠ":12646,"startedĠtoĠ":12647,"Ġtechnologies":12648,"eĠofĠ$":12649,"healthyĠ":12650,"romotion":12651,"delic":12652,"ĠanalysisĠof":12653,"eĠsuper":12654,"partnership":12655,"ĠattorneyĠ":12656,"Ġargument":12657,"a'sĠ":12658,"dens":12659,"oof":12660,"Äģ":12661,"orĠher":12662,".ĠisĠ":12663,"icienc":12664,"ĠwordĠ":12665,"isĠaĠp":12666,"ed;":12667,"chef":12668,"igrant":12669,"whom":12670,"ĠtoĠachieveĠ":12671,"Ġliber":12672,"prayer":12673,"ĠisĠstill":12674,"eĠpartĠof":12675,"Ġking":12676,"reatmentĠ":12677,"ostic":12678,"makeĠtheĠ":12679,"s,ĠandĠtheĠ":12680,"Ġsponsor":12681,"ĠwasĠborn":12682,"philosoph":12683,"minimiz":12684,"ology.Ġ":12685,"ingĠboth":12686,",ĠwhichĠwasĠ":12687,"glor":12688,".ĠifĠyour":12689,"Ġincludes":12690,"Ġtourist":12691,"knowledgeĠof":12692,"Ġobserv":12693,".ĠitĠalsoĠ":12694,"ĠkindsĠof":12695,"civil":12696,"gp":12697,"nt":12698,"ryp":12699,"eĠitsĠ":12700,"enessĠ":12701,"atl":12702,"attĠ":12703,".ĠpeopleĠ":12704,".ĠdoĠyou":12705,"omach":12706,"israel":12707,"chrom":12708,"ami":12709,"congrat":12710,"sĠofĠtheĠm":12711,"overcom":12712,"outĠin":12713,"raven":12714,"Ġextr":12715,"ĠtheĠtour":12716,"ibly":12717,"ĠaĠfreeĠ":12718,"ĠtheĠhospital":12719,"sĠonlyĠ":12720,"mineral":12721,"Ġartistic":12722,".ĠmostĠof":12723,"eĠlarg":12724,"declin":12725,"educt":12726,"ĠtradeĠ":12727,"ĠaskĠfor":12728,"Ġdowntown":12729,"ĠaccessĠto":12730,"domin":12731,"ĠsideĠof":12732,"necessary":12733,"ĠthereâĢĻsĠnoĠ":12734,"yptoc":12735,"Ġaspir":12736,"estimatedĠ":12737,"abulousĠ":12738,"beĠmad":12739,"cream":12740,"Ġegg":12741,"enator":12742,"ingĠteam":12743,"Ġsle":12744,"leaveĠth":12745,"Ġdial":12746,"unicipal":12747,"irrit":12748,"ingĠgam":12749,"ĠnameĠ":12750,"epic":12751,"cler":12752,"eĠaĠc":12753,"Ġconvention":12754,"ĠtheĠfall":12755,"ĠtheĠbox":12756,"ĠtheĠpaper":12757,"compon":12758,"ĠthereĠisĠa":12759,"lossĠ":12760,"ĠtheyĠalsoĠ":12761,"ĠofĠtheĠyear":12762,"ĠandĠsub":12763,",Ġdec":12764,"madeĠof":12765,"itâĢĻsĠnotĠ":12766,"Ġlife,Ġ":12767,"qualification":12768,"ĠalwaysĠb":12769,"glassĠ":12770,"everything":12771,"ĠtoĠdeliver":12772,"ensureĠthat":12773,"ĠfriendsĠandĠ":12774,"Ġhistorical":12775,"ĠtouchĠwith":12776,"Ġmichael":12777,"Ġjuic":12778,"eĠtransfer":12779,"Ġattorney":12780,".ĠaccordingĠtoĠ":12781,"critic":12782,"uan":12783,"thes":12784,"charm":12785,"Ġhyp":12786,"Ġdynamic":12787,"unitĠ":12788,"Ġtooth":12789,"ĠtoĠtell":12790,"export":12791,"eĠsaw":12792,"s.Ġbut":12793,"ĠforĠsal":12794,"sĠofĠtheir":12795,"eĠwin":12796,"eĠclaim":12797,"willingĠtoĠ":12798,"eĠhar":12799,"ĠtheĠdisc":12800,"assistanc":12801,"argain":12802,"losĠangel":12803,"storageĠ":12804,"protocol":12805,"ĠengineĠ":12806,"Ġrequired":12807,"Ġanalytic":12808,"friendlyĠ":12809,",ĠsoĠi":12810,"olidayĠ":12811,"family":12812,"Ġnovel":12813,"worldwid":12814,"Â°c":12815,"e'sĠa":12816,"Â«":12817,"oust":12818,"stoneĠ":12819,"younger":12820,"Ġbay":12821,"Ġhusband":12822,"withĠmyĠ":12823,"ĠlanguageĠ":12824,"Ġre-":12825,"ĠasĠw":12826,"spired":12827,"ĠtheĠdifferentĠ":12828,"inton":12829,"weĠknow":12830,"sĠforĠyou":12831,"eĠgotĠ":12832,"apprec":12833,"Ġtransc":12834,"calendar":12835,"exceed":12836,"Ġguard":12837,"ĠbeforeĠyou":12838,"hereĠar":12839,"Ġsmil":12840,"movement":12841,"Ġsmaller":12842,"johnson":12843,"Ġnorthern":12844,"Ġpresentation":12845,"bitĠof":12846,"kal":12847,"pitch":12848,"Ġenc":12849,"ona":12850,"ingoĠ":12851,"Ġsin":12852,"youâĢĻreĠ":12853,"Ġdent":12854,"advent":12855,"advertis":12856,"ĠofĠtheseĠ":12857,"iller":12858,"eĠsourc":12859,"eart":12860,"Ġreput":12861,"eĠcard":12862,"proudĠof":12863,"Ġcongres":12864,"lywoodĠ":12865,"iesĠor":12866,"ĠattendĠ":12867,"supplement":12868,"eĠgener":12869,"ures,Ġ":12870,"company,Ġ":12871,"ĠifĠtheĠ":12872,"ĠtrainingĠandĠ":12873,"sĠfollow":12874,"ennial":12875,"sĠthatĠtheĠ":12876,"countyĠ":12877,"livingĠroom":12878,"ĠserveĠ":12879,"websiteĠ":12880,"ĠfundĠ":12881,"Ġfuture":12882,"ĠthousandĠ":12883,",Ġthis":12884,"-and-":12885,".ĠaĠc":12886,".Ġthough":12887,"away":12888,"jesus":12889,"rab":12890,"sĠwas":12891,"Ġseg":12892,"iser":12893,"Ġpublisher":12894,"Ġmeter":12895,"isĠveryĠ":12896,"Ġbritish":12897,"ĠdryĠ":12898,"Ġfaster":12899,"ĠinĠall":12900,"adol":12901,"eĠthank":12902,"Ġrelev":12903,"e.Ġon":12904,"ĠwithĠaĠs":12905,"s>Ġ<s>Ġ\"":12906,"eĠtoĠus":12907,"ĠisĠitĠ":12908,"ĠtheĠblu":12909,"eĠfram":12910,"ateral":12911,"s,Ġa":12912,"undertak":12913,"noĠon":12914,"monday":12915,"ĠhisĠown":12916,"Ġanywher":12917,".Ġmr":12918,"sĠtoday":12919,"instagram":12920,"mayĠhaveĠ":12921,"âĢĻllĠb":12922,".ĠforĠmoreĠinformation":12923,"ibilityĠtoĠ":12924,"wholesal":12925,"ĠtheĠcountry.Ġ":12926,"somehow":12927,"richardĠ":12928,"historic":12929,"eĠmanagementĠ":12930,"Ġaffiliat":12931,"-n":12932,"bn":12933,"courtĠ":12934,"ke":12935,"lens":12936,"lesĠandĠ":12937,"veil":12938,",Ġz":12939,"steam":12940,"edĠtwoĠ":12941,"entor":12942,"uron":12943,"ingĠevent":12944,"Ġalarm":12945,"hasĠin":12946,"umor":12947,"Ġster":12948,"eĠwayĠ":12949,"climat":12950,"lyĠtoĠ":12951,"ĠtheĠbetter":12952,"eĠpack":12953,"ĠatĠour":12954,".ĠiĠalsoĠ":12955,"newspaper":12956,"ĠaĠdayĠ":12957,"oldier":12958,"Ġthey'reĠ":12959,"surg":12960,"basicallyĠ":12961,"facult":12962,"importanc":12963,"Ġcarry":12964,"ĠofĠusĠ":12965,"eĠanĠ":12966,"ĠaĠfewĠday":12967,"ĠtheĠchildren":12968,"oubtĠ":12969,"convey":12970,"Ġsupplier":12971,"Ġ=Ġ":12972,"Ġprovinc":12973,"bath":12974,"batter":12975,"y.ĠthisĠ":12976,"ĠâĢ¢":12977,"Ġà¤":12978,"sĠdoĠnotĠ":12979,"itĠtoĠ":12980,",ĠweĠareĠ":12981,"icles":12982,"Ġmos":12983,"allyĠtoĠ":12984,"ĠwithĠmyĠ":12985,"sĠinĠtheĠm":12986,"weep":12987,"edĠinĠa":12988,"context":12989,"ingĠsession":12990,"oneĠwhoĠ":12991,"whoĠhaveĠ":12992,"urrent":12993,"aza":12994,"madeĠfrom":12995,".Ġdr":12996,"ĠpeopleĠtoĠ":12997,"buildingĠ":12998,"Ġconsum":12999,"stepp":13000,"ĠhadĠtoĠ":13001,"Ġtestimon":13002,"ĠfamilyĠandĠ":13003,"slid":13004,"ĠtheĠcorrectĠ":13005,"comparison":13006,"Ġaccurat":13007,"mosphereĠ":13008,"yptocurr":13009,"craz":13010,"dead":13011,"sĠour":13012,"ĠtheĠ\"":13013,"their":13014,"Ġsaturday":13015,"forĠanyĠ":13016,"Ġmatt":13017,"Ġheal":13018,"Ġdress":13019,"Ġfight":13020,"eĠseen":13021,"eĠmusic":13022,"outĠfor":13023,"eĠandĠother":13024,"Ġcanadian":13025,"ollower":13026,"presidentĠof":13027,"ĠaĠbusinessĠ":13028,"iki":13029,"ingĠbook":13030,"eptor":13031,"Ġterritor":13032,"weekendĠ":13033,"ukrain":13034,"edĠduring":13035,"address":13036,"eĠtrack":13037,"featuredĠ":13038,"Ġoccup":13039,"representativeĠ":13040,"Ġtablet":13041,"ied":13042,"rapp":13043,"y,ĠtheĠ":13044,"Ġax":13045,"sĠbasedĠon":13046,"erson":13047,".Ġz":13048,",ĠinĠ":13049,"esĠandĠt":13050,"ĠcouldnâĢĻtĠ":13051,"Ġpac":13052,"youĠhaveĠtoĠ":13053,"entur":13054,"ĠinĠon":13055,"emission":13056,"reserveĠ":13057,"eĠtri":13058,"e.ĠwhatĠ":13059,"Ġabandon":13060,"ly-":13061,"ĠtheĠblack":13062,"angleĠ":13063,"ĠtheĠpath":13064,"ĠisnâĢĻtĠ":13065,"es.Ġour":13066,"ĠusingĠtheĠ":13067,"remodel":13068,"screw":13069,"ĠaĠfin":13070,"regulat":13071,"ageĠor":13072,"ĠprovideĠ":13073,"country":13074,"eĠsurpris":13075,".ĠifĠtheĠ":13076,",ĠforĠexample":13077,"Ġwarrant":13078,"ĠapplyĠfor":13079,"bathroom":13080,"kg":13081,"oal":13082,"rantĠ":13083,"sin":13084,"Ġedg":13085,"aria":13086,"ecosystem":13087,"esĠf":13088,"unish":13089,"ationĠtoĠ":13090,"Ġstopp":13091,"beingĠp":13092,",ĠandĠh":13093,"willĠalsoĠ":13094,"Ġ(d":13095,"ovel":13096,"ĠtheĠworldĠof":13097,"ureĠon":13098,"boostĠ":13099,"minimal":13100,"ed.Ġin":13101,"ĠtheĠnear":13102,"helpedĠ":13103,"sĠthatĠcan":13104,"emptĠ":13105,"Ġthere,Ġ":13106,"blank":13107,"Ġarticl":13108,"Ġclimb":13109,"logical":13110,"showcas":13111,"efinition":13112,"crack":13113,"gettingĠa":13114,"ĠmustĠbeĠ":13115,"ĠhappyĠ":13116,"Ġsharp":13117,"ĠaĠhigher":13118,"ĠsetĠup":13119,"Ġshare":13120,"entertainment":13121,"legisl":13122,"ynthetic":13123,"iraq":13124,"ĠmilitaryĠ":13125,"dryĠ":13126,"hp":13127,"nan":13128,"safetyĠ":13129,"Ġu.s.Ġ":13130,"ĠtheĠperfectĠ":13131,".ĠoneĠ":13132,"Ġmount":13133,"Ġfer":13134,"adelph":13135,"istur":13136,"occurr":13137,"printer":13138,"mentor":13139,"we'r":13140,"izationĠof":13141,"eĠpartĠ":13142,"Ġhaw":13143,"Ġtime,":13144,"eĠheĠ":13145,".Ġhop":13146,"identical":13147,"Ġscript":13148,"ĠmondayĠ":13149,"levelsĠof":13150,"startĠof":13151,"Ġdefens":13152,"ingĠspecial":13153,"Ġno.Ġ":13154,"driven":13155,"Ġarchitectural":13156,"ĠtheĠsuper":13157,"Ġcircumstanc":13158,",ĠthereĠis":13159,"e's":13160,"sĠjustĠ":13161,"ingĠplac":13162,"oĠin":13163,"stitch":13164,"icĠandĠ":13165,"champion":13166,"Ġheight":13167,"irk":13168,"ĠtoĠanother":13169,"agh":13170,"ĠareĠa":13171,"eĠinĠthisĠ":13172,"eĠfilm":13173,"ĠshotĠ":13174,"egu":13175,"noteĠthatĠ":13176,"lair":13177,"Ġcontrast":13178,"esĠoffer":13179,",Ġsouth":13180,"award":13181,"Ġrot":13182,"sĠdep":13183,"deploy":13184,"ĠrequestĠ":13185,"responsibilityĠ":13186,"ync":13187,"ĠhouseĠ":13188,"esterdayĠ":13189,"eĠpartner":13190,"introduction":13191,"chairman":13192,"Ġtemperature":13193,"ometric":13194,"Ġitalian":13195,"ĠtheĠboardĠof":13196,",Ġam":13197,"iaryĠ":13198,"rt":13199,"sle":13200,"soft":13201,"Ġputt":13202,"entitl":13203,"Ġalik":13204,"eĠthought":13205,"ĠnumerousĠ":13206,"conventional":13207,"ĠforĠmoreĠinformation":13208,"weapon":13209,".ĠiĠwas":13210,"likeĠyou":13211,"makingĠa":13212,"Ġspeech":13213,"ĠanĠover":13214,"expandĠ":13215,"Ġdisorder":13216,"abilitiesĠ":13217,"home":13218,"Ġdieg":13219,"colleagu":13220,"Ġtopp":13221,"presentation":13222,"operational":13223,"ĠtheĠspir":13224,"believeĠth":13225,"Ġbelief":13226,"sharedĠ":13227,"incredibleĠ":13228,"excellent":13229,".Ġtoday":13230,"/.":13231,"/m":13232,"desc":13233,"fox":13234,"ias":13235,"Ġpixel":13236,"youâĢĻr":13237,"ĠfocusĠ":13238,"ingĠneed":13239,"s.ĠmyĠ":13240,"s,Ġfor":13241,"Ġstrik":13242,"ĠtheĠsecond":13243,"âĢĻsĠc":13244,"Ġjon":13245,".ĠiĠwill":13246,"struggleĠ":13247,"ĠtheĠwestern":13248,"Ġaggress":13249,"ĠtheyĠar":13250,"Ġanytim":13251,"Ġdiscount":13252,"ĠthanksĠto":13253,"eĠsurv":13254,"vol.Ġ":13255,"wantsĠtoĠ":13256,"ĠthisĠpoint":13257,"againstĠ":13258,"ĠsetĠof":13259,"milk":13260,".ĠthereĠisĠnoĠ":13261,")ĠtheĠ":13262,"golden":13263,"sĠtheir":13264,"sgiv":13265,".Ġby":13266,",Ġcreat":13267,"Ġcle":13268,"Ġsym":13269,"asĠa":13270,"entially":13271,"olph":13272,"lodg":13273,"ulk":13274,"resultĠof":13275,"eĠofĠtheĠm":13276,"Ġreaction":13277,"eĠwar":13278,"grantĠ":13279,"ableĠt":13280,"eĠbec":13281,"ĠtheĠbritish":13282,"ĠlostĠ":13283,"ĠtheĠtre":13284,"e.Ġand":13285,"ĠusingĠa":13286,"aryĠschool":13287,"brill":13288,"brightĠ":13289,"ethnic":13290,"ĠthoseĠof":13291,"sĠservic":13292,"ropp":13293,"electron":13294,",ĠyouĠshouldĠ":13295,"ĠstudioĠ":13296,"ĠnotĠbeĠ":13297,"ĠpartĠofĠtheĠ":13298,"ĠtheĠspecific":13299,"embedd":13300,"ĠtheĠtopĠ":13301,"Ġocean":13302,"dependentĠ":13303,"Ġdefinition":13304,",ĠthereĠisĠ":13305,"kor":13306,"kept":13307,"sĠtheĠm":13308,"Ġeveryon":13309,"Ġtin":13310,"onial":13311,"striveĠ":13312,"iclesĠ":13313,"Ġsymptom":13314,"Ġwav":13315,"edĠaround":13316,"ĠyouĠhaveĠtoĠ":13317,"Ġongo":13318,"eĠwatch":13319,"ĠwithĠtheir":13320,"outputĠ":13321,"indoor":13322,"ĠisĠavailableĠ":13323,"ĠaĠsuper":13324,"ĠitĠall":13325,"ĠaĠgam":13326,"ingĠcl":13327,"Ġyes,Ġ":13328,"risp":13329,"smartĠ":13330,"ĠwebsiteĠ":13331,"ĠfeelĠlik":13332,"winner":13333,"understandĠtheĠ":13334,"dropp":13335,"beneficial":13336,"windowsĠ":13337,"Ġlabel":13338,"vegetabl":13339,"ĠnegativeĠ":13340,"jewish":13341,"Ġremoval":13342,".p":13343,"kitĠ":13344,"population":13345,"ĠtheĠopportunityĠtoĠ":13346,"ingsĠtoĠ":13347,"ingĠwhich":13348,"ingĠtheseĠ":13349,"ingĠtheĠbestĠ":13350,"ingĠtechniqu":13351,"steer":13352,"theĠs":13353,"ĠwayĠof":13354,"edĠisĠ":13355,"edĠwork":13356,"Ġma":13357,"Ġbang":13358,"expressĠ":13359,"Ġnin":13360,"asĠveg":13361,"ĠwithĠan":13362,"eĠinsuranc":13363,"article":13364,"eĠdes":13365,"odcast":13366,"ĠatĠtheĠtop":13367,"izabeth":13368,"ĠtheĠtrad":13369,"uge":13370,"ratesĠ":13371,"ethical":13372,"Ġneed.Ġ":13373,"providingĠ":13374,"Ġcompon":13375,"ingĠmethod":13376,"Ġgrill":13377,"eĠlittleĠ":13378,"ĠimproveĠ":13379,"ĠaĠreallyĠ":13380,"Ġstatistic":13381,"databas":13382,"ĠtheĠchalleng":13383,"Ġcorporat":13384,"windĠ":13385,"ĠgamesĠ":13386,"website.Ġ":13387,"widelyĠ":13388,"........":13389,"Ġbeginn":13390,"Ġadministrator":13391,"survey":13392,"liquidĠ":13393,"aysia":13394,"boundĠ":13395,"flex":13396,"iew":13397,"japan":13398,"nature":13399,"oveĠtheĠ":13400,"Ã¥":13401,"onion":13402,"ĠandĠwith":13403,"Ġbet":13404,"Ġborn":13405,"losure":13406,"opy":13407,"ĠtoĠthink":13408,"Ġgall":13409,"ĠnativeĠ":13410,"istical":13411,"acket":13412,"Ġchocolat":13413,"makeĠit":13414,"newĠyear":13415,"ĠaĠbit":13416,"doĠit":13417,"ĠthoseĠthatĠ":13418,"awayĠ":13419,"ripp":13420,"anna":13421,"ĠendĠof":13422,"runch":13423,"Ġterrac":13424,"conceptĠof":13425,".Ġbook":13426,"ĠstatementĠ":13427,"ĠcountriesĠ":13428,"olitan":13429,"youĠwillĠbeĠ":13430,"ĠagreeĠwith":13431,"Ġarchiv":13432,"ĠamongĠother":13433,"ĠlovedĠon":13434,"combinationĠof":13435,"Ġrecognition":13436,"satisfi":13437,"sĠagainstĠ":13438,"oliveĠoil":13439,"!).":13440,",ĠtheĠh":13441,"bet":13442,"dailyĠ":13443,"hm":13444,"methodĠ":13445,"inessĠ":13446,"ousĠin":13447,"ateĠtoĠ":13448,"atedĠwith":13449,"edish":13450,"Ġhunt":13451,"Ġinvent":13452,"igor":13453,"ungr":13454,"comeĠwith":13455,"conflict":13456,"sheetĠ":13457,"apleĠ":13458,"Ġprovision":13459,"odor":13460,"Ġchip":13461,"canĠi":13462,"composition":13463,"ĠplentyĠof":13464,"urementĠ":13465,"ĠuseĠa":13466,"eacher":13467,"Ġresp":13468,"ĠtheĠlower":13469,"Ġcomput":13470,".Ġhigh":13471,"sĠcover":13472,"calm":13473,"corporation":13474,"lawn":13475,"nessĠin":13476,"ĠplayersĠ":13477,"ĠtoĠmakeĠsur":13478,"lovesĠ":13479,"accord":13480,"Ġpossible":13481,"ĠtheĠmoneyĠ":13482,"ĠoutĠofĠ":13483,"surviv":13484,"promotion":13485,"magazin":13486,"unfortunately,Ġ":13487,"ĠmyĠfavorit":13488,"ingĠdiagram":13489,"?Ġif":13490,"eant":13491,"focusĠ":13492,"gest":13493,"narrow":13494,".Ġover":13495,"ĠtoĠwrit":13496,"edral":13497,"ĠfastĠ":13498,"ĠinĠtheĠp":13499,"ĠinĠaddition":13500,"aymentĠ":13501,"Ġneck":13502,"ĠthatĠitĠisĠ":13503,"s.Ġ(":13504,"ĠareĠin":13505,"Ġforest":13506,"ĠforĠus":13507,"fromĠour":13508,"eĠdur":13509,"Ġproof":13510,"Ġrule":13511,"ly.":13512,"weat":13513,"ĠtheĠcityĠof":13514,"ity.ĠtheĠ":13515,"ebyĠ":13516,"someĠf":13517,"iansĠ":13518,"eĠthatĠi":13519,"ĠsomeĠs":13520,"ingĠoffic":13521,"guestĠ":13522,"ĠclimateĠ":13523,"equallyĠ":13524,"medic":13525,"eĠyourself":13526,"ĠtypeĠ":13527,"disciplin":13528,"ĠtheĠtimeĠtoĠ":13529,"untilĠtheĠ":13530,"delight":13531,"Ġbusiness,Ġ":13532,"vacation":13533,"hesitat":13534,"Ġattorne":13535,"comparedĠtoĠ":13536,"regnanc":13537,"!ĠweĠ":13538,"-lin":13539,"Ġic":13540,".ĠwhileĠ":13541,"Ġcak":13542,"thĠandĠ":13543,"ĠtoĠreduc":13544,"unlock":13545,"illar":13546,"ĠlineĠ":13547,"ĠthatĠour":13548,"constantĠ":13549,"s.Ġso":13550,"ĠthisĠwill":13551,"Ġadmitt":13552,"ĠisĠaĠc":13553,"es.ĠifĠyou":13554,"ĠfromĠyour":13555,"tool":13556,"ingĠind":13557,"ĠaĠfamilyĠ":13558,"lossĠof":13559,"ĠaboutĠtheir":13560,"preadĠ":13561,"attan":13562,"ĠtoĠsayĠ":13563,"Ġdiabet":13564,"eĠitĠwasĠ":13565,"centuryĠ":13566,"heĠhadĠ":13567,"Ġamazing":13568,"ĠamongĠtheĠ":13569,"ĠtheĠtrack":13570,"sheĠhasĠ":13571,"ĠrestaurantĠ":13572,"Ġrevolution":13573,"ĠtheĠmajorityĠof":13574,"ĠtheĠhistoryĠof":13575,"73":13576,"74":13577,"bridĠ":13578,"hack":13579,"iy":13580,"eĠprogram":13581,"env":13582,",Ġ(":13583,"stainlessĠsteel":13584,"Ġcos":13585,"Ġcultural":13586,"ĠcourtĠ":13587,"edĠabov":13588,"Ġframework":13589,"ircle":13590,"ĠtoĠaddĠ":13591,"itĠor":13592,"osph":13593,"s.ĠinĠ":13594,"ĠforĠmyĠ":13595,"e,Ġinclud":13596,"eĠtoĠhelp":13597,"eĠfocus":13598,"reativeĠ":13599,"assign":13600,"y.Ġin":13601,"ĠaboutĠit":13602,"108":13603,"Ġhere.":13604,"eliber":13605,"everybodyĠ":13606,"ed,Ġor":13607,"Ġscientist":13608,"personallyĠ":13609,"employment":13610,"ĠmonthsĠ":13611,"chooseĠ":13612,"âĢĻdĠlikeĠtoĠ":13613,"Ġnorm":13614,"Ġeditor":13615,"Ġpictures":13616,"rubber":13617,"preced":13618,"incrediblyĠ":13619,"fp":13620,"sĠtheĠc":13621,"scan":13622,"Ġast":13623,"stageĠ":13624,"esman":13625,"omer":13626,"chen":13627,"exampleĠof":13628,"agen":13629,"Ġlit":13630,"shire":13631,"Ġstres":13632,"eĠmajor":13633,"soĠmanyĠ":13634,"prid":13635,"Ġchampion":13636,"Ġsheet":13637,"âĢĿ)":13638,"ĠpermanentĠ":13639,"eatures":13640,"e-of":13641,"eĠoneĠof":13642,"knowĠwhat":13643,"ĠinterestĠin":13644,"ĠmakeĠitĠ":13645,"Ġminister":13646,"ĠwhatĠi":13647,"ĠtheĠmostĠimportantĠ":13648,"priceĠof":13649,"moon":13650,"onceĠagain":13651,"ĠtakeĠplac":13652,"ĠtheĠpresent":13653,"ĠtheĠcaseĠof":13654,"eĠbasedĠon":13655,"ĠaĠhugeĠ":13656,"ĠtheĠnameĠof":13657,"liberal":13658,"bp":13659,"despit":13660,"ej":13661,"flyĠ":13662,"peter":13663,"vail":13664,"yĠasĠ":13665,"ĠadĠ":13666,",ĠitsĠ":13667,",Ġwas":13668,"esĠthisĠ":13669,"Ġcream":13670,"thank":13671,"Ġseparat":13672,"illyĠ":13673,"ĠtoĠit":13674,"ĠtoĠstartĠ":13675,"ĠtoĠwatch":13676,"ĠtoĠreceiveĠ":13677,"Ġmotion":13678,"isĠstill":13679,"asic":13680,"unknown":13681,"illino":13682,"resistanc":13683,"restĠofĠtheĠ":13684,"eĠsector":13685,"perman":13686,"perspectiveĠ":13687,"ĠtrendĠ":13688,"seed":13689,".Ġi'veĠ":13690,"incident":13691,"ĠtakingĠa":13692,"ĠwasĠin":13693,"eĠthatĠwill":13694,"ĠassetĠ":13695,"ĠaĠglobal":13696,"parad":13697,"eĠorder":13698,"ĠoutĠtheĠ":13699,"except":13700,"offersĠa":13701,"roller":13702,"anchis":13703,"optimization":13704,"customersĠ":13705,"Ġsensor":13706,"ĠtuesdayĠ":13707,"connectĠwith":13708,"'sĠtheĠ":13709,",ĠtheĠg":13710,"cultural":13711,"french":13712,"kne":13713,"uh":13714,"Ãł":13715,"Ñı":13716,"reform":13717,"ateĠa":13718,".ĠmoreĠ":13719,"ars":13720,"isĠanĠ":13721,"youĠdonâĢĻtĠ":13722,"Ġmulti-":13723,"Ġheaven":13724,"across":13725,"una":13726,"aday":13727,"agra":13728,"aka":13729,"constitut":13730,"s.Ġnow":13731,"s,ĠweĠ":13732,"ĠorĠeven":13733,"speech":13734,"rach":13735,"suredĠ":13736,"ingĠtheĠrightĠ":13737,"ĠtheĠlordĠ":13738,"dispos":13739,"ingĠofĠ":13740,"awa":13741,"logic":13742,"personnel":13743,"garlic":13744,"suitableĠ":13745,"Ġprofit":13746,"zeroĠ":13747,"successfullyĠ":13748,"ĠsuccessĠ":13749,"bud":13750,"bob":13751,"clock":13752,"sist":13753,"wav":13754,"enorm":13755,"ous,Ġ":13756,"stan":13757,"isol":13758,"ĠheldĠ":13759,"resortĠ":13760,"ĠandĠtheĠp":13761,"ewis":13762,"periodĠof":13763,"climateĠ":13764,"Ġabund":13765,"eĠfill":13766,"Ġtime":13767,"more.":13768,"eĠforĠall":13769,"Ġspin":13770,"becameĠ":13771,"boil":13772,"ĠaĠdist":13773,"doĠi":13774,"ĠenvironmentĠ":13775,"namentĠ":13776,"Ġbrush":13777,",Ġyou'll":13778,"edĠseveral":13779,"lawy":13780,"Ġmilk":13781,"mainlyĠ":13782,"ĠappointmentĠ":13783,"innovation":13784,"eigh":13785,"eorg":13786,"jean":13787,"vp":13788,"Ð¼":13789,"ĠaĠth":13790,"itzer":13791,"alcon":13792,"stir":13793,"ĠtoĠbuild":13794,"Ġpalm":13795,"Ġmouth":13796,"ĠofĠtheĠh":13797,"ablet":13798,"s>Ġ<s>ĠifĠyou":13799,"Ġvenu":13800,"ĠatĠtheĠs":13801,"ubai":13802,"eĠfamilyĠ":13803,"butĠnotĠ":13804,"intageĠ":13805,"whenĠitĠ":13806,"newsĠ":13807,"goĠthrough":13808,"sĠareĠalsoĠ":13809,"ureĠwith":13810,"ingĠcall":13811,"eĠgiv":13812,"struck":13813,"relativeĠ":13814,"Ġcommand":13815,"whatĠtheĠ":13816,"correctĠ":13817,"ingĠyourself":13818,"ribbon":13819,"confident":13820,"valle":13821,"collectĠ":13822,"ifyĠtheĠ":13823,"featuresĠ":13824,"printableĠ":13825,"Ġtonight":13826,"Ġtomato":13827,"reflectĠ":13828,"clinic":13829,"ĠtheĠdirection":13830,"%ĠofĠtheĠ":13831,"averag":13832,"eĠcontrol":13833,"anyth":13834,"esis":13835,"Ġcoin":13836,"then":13837,"ĠbudgetĠ":13838,"amountĠ":13839,"ĠofĠthes":13840,"exasĠ":13841,"haul":13842,"ĠandĠto":13843,"rivers":13844,"ĠwithĠyou":13845,"eĠdef":13846,"sĠinĠwhich":13847,"inde":13848,"ĠtheĠfamilyĠ":13849,"eĠposs":13850,"yearĠ":13851,"s,ĠtheyĠ":13852,"placesĠ":13853,".ĠheĠisĠ":13854,"ĠthoseĠwith":13855,"actĠwith":13856,"Ġsuppos":13857,"Ġstudy":13858,"ĠmayĠnotĠ":13859,"effectiven":13860,"insteadĠ":13861,"Ġbackground":13862,"everythingĠyou":13863,"ĠoffersĠa":13864,"Ġweekend":13865,"ĠalwaysĠbeen":13866,"complain":13867,"investigat":13868,"umbai":13869,"ĠassessmentĠ":13870,"ĠsectionĠ":13871,"Ġfacilities":13872,"Ġthird-":13873,"uisin":13874,"-relatedĠ":13875,"lingĠ":13876,"ingĠproject":13877,"Ġsister":13878,"Ġwealth":13879,"isdiction":13880,"Ġmistak":13881,"ĠholdĠ":13882,"comesĠfrom":13883,"s.Ġyour":13884,"ĠthisĠwasĠ":13885,"betĠ":13886,"sĠinĠa":13887,"ĠyourĠhom":13888,"eĠfirst":13889,"ervision":13890,"ĠisĠalso":13891,"ĠtheĠtext":13892,"eĠhistor":13893,"ĠtheĠdevic":13894,"Ġafghan":13895,"interactiveĠ":13896,"ĠtheĠlateĠ":13897,"noĠidea":13898,"athedral":13899,"createdĠ":13900,"Ġminor":13901,"medication":13902,"startup":13903,"managedĠtoĠ":13904,"sĠareĠtheĠ":13905,"lawyer":13906,"ĠthereâĢĻs":13907,"untilĠ":13908,"ĠofficeĠ":13909,"employeesĠ":13910,"buyer":13911,"beingĠableĠtoĠ":13912,"excitedĠtoĠ":13913,"customiz":13914,"uthenticator":13915,"roleĠin":13916,"Ġtemperatur":13917,"Ġadventur":13918,"icago":13919,"pour":13920,"ĠessayĠ":13921,"onĠof":13922,"oneĠtoĠ":13923,"atar":13924,"eland":13925,"Ġhp":13926,"leverag":13927,"Ġfavourit":13928,"loyĠ":13929,"opper":13930,"Ġnar":13931,"s.ĠwhatĠ":13932,"evin":13933,"eĠinĠour":13934,"Ġadmin":13935,"Ġadoption":13936,"othersĠ":13937,"eĠpick":13938,"Ġhaz":13939,"Ġ(n":13940,"ebodyĠ":13941,"ittle":13942,"Ġspain":13943,"eĠonc":13944,"ingĠpoint":13945,"whereĠi":13946,"ĠwouldĠb":13947,"125":13948,"learning":13949,"Ġarea,Ġ":13950,"knif":13951,"consideration":13952,"ĠaĠnatural":13953,"centr":13954,"ĠtoĠpromot":13955,"ĠauthorityĠ":13956,"Ġexception":13957,".ĠyouĠcanĠalsoĠ":13958,"evilleĠ":13959,"eĠmanagement":13960,"Ġimprovement":13961,"ĠaspectĠof":13962,"eĠfacil":13963,"ĠexpertĠ":13964,"rarelyĠ":13965,"iersĠ":13966,"lind":13967,"lordĠ":13968,"purchaseĠ":13969,"sitt":13970,"sameĠ":13971,"sym":13972,"tre":13973,"insuranceĠ":13974,"yĠst":13975,"Ġseal":13976,"Ġsitt":13977,"forestĠ":13978,"entic":13979,"entuck":13980,"usedĠbyĠ":13981,"eĠofĠhisĠ":13982,"sĠofĠd":13983,"reck":13984,"asset":13985,"ingĠschool":13986,"flictĠ":13987,"ĠaĠbu":13988,"102":13989,"Ġbeer":13990,",Ġsaid":13991,"ingĠbetter":13992,"parallel":13993,"Ġindicator":13994,"goĠon":13995,"Ġflag":13996,"limitation":13997,"Ġexamin":13998,"honest":13999,"industry.Ġ":14000,"ĠapproachĠtoĠ":14001,"Ġoperator":14002,"Ġguidelin":14003,"eĠwantedĠtoĠ":14004,"religiousĠ":14005,"oxygen":14006,"/t":14007,"bid":14008,"gart":14009,"lend":14010,"menu":14011,"wick":14012,"ÙĨ":14013,"ĠtheĠwhol":14014,",Ġsc":14015,",Ġwhether":14016,"icid":14017,"Ġcoupon":14018,"ĠweĠwereĠ":14019,"Ġpoker":14020,"chill":14021,"Ġmas":14022,"ĠhdĠ":14023,"ureĠc":14024,"esĠup":14025,"esĠbetween":14026,"irstĠof":14027,"ĠofĠcours":14028,"termin":14029,
[...]
