#version: 0.2
e Ġ
Ġ t
Ġ a
i n
Ġt h
s Ġ
e r
t Ġ
o n
d Ġ
o r
e n
Ġth eĠ
o u
a n
r e
y Ġ
a t
in g
i t
. Ġ
o Ġ
Ġa n
, Ġ
a l
s t
a r
o f
e s
i c
o m
Ġ c
i on
t h
Ġ s
Ġan dĠ
i l
Ġ w
e l
i s
Ġt oĠ
f or
Ġ p
e dĠ
y ou
e d
c h
r o
Ġ m
i sĠ
Ġ b
a s
Ġ h
â Ģ
e c
en t
o w
l e
Ġ d
u s
v eĠ
a c
o l
Ġ f
u r
e sĠ
i m
Ġ in
a tĠ
v er
i d
it h
i g
e t
e m
a m
u n
at ion
i r
ing Ġ
l o
l eĠ
w h
a d
o p
Ġ of
i f
l yĠ
âĢ Ļ
Ġa l
Ġt o
Ġa r
il l
e x
u l
h a
eĠ th
i tĠ
t er
a y
Ġ g
Ġ you
re s
a g
o s
a b
Ġ n
w ith
ou r
u t
Ġ l
eĠ t
Ġan d
Ġth atĠ
c om
r i
o t
en tĠ
a k
Ġ <
s >
p ro
eĠ s
p l
eĠ of
e ar
ig h
al l
q u
u p
r om
Ġ re
a in
Ġth e
c on
s .Ġ
ec t
a sĠ
Ġth isĠ
ou n
u m
e w
p er
s ,Ġ
e .Ġ
. ĠtheĠ
an d
s h
e st
u c
i v
o o
an dĠ
Ġar eĠ
e v
s Ġa
a p
Ġ st
i st
b e
Ġ for
th er
a yĠ
e p
er eĠ
e ,Ġ
sĠ of
es s
i veĠ
Ġt r
en c
Ġw h
u d
d er
ou l
el l
an c
an t
Ġ on
o tĠ
Ġal l
eĠ w
ĠtheĠ s
o c
Ġw ith
p or
g h
eĠ in
Ġa sĠ
i al
you r
eĠ c
Ġa c
i p
s ĠandĠ
e ver
ou t
ar t
f rom
, ĠandĠ
âĢĻ sĠ
or k
eĠ m
e tĠ
g r
c l
o ver
t ion
ha veĠ
b u
2 0
ac k
eĠ d
e a
en d
ou tĠ
sĠ in
ou gh
Ġp ro
o d
Ġ< /
s> Ġ<
s>Ġ< s>
s oĠ
oul dĠ
eĠ a
ow n
p r
Ġ v
f er
Ġyou r
Ġc on
Ġa d
u st
o ther
l i
ic h
Ġa t
eĠt oĠ
e f
Ġ r
b er
Ġc om
ĠtheĠ m
Ġc h
Ġa s
ab leĠ
it yĠ
u b
Ġa b
Ġ isĠ
ed ĠtoĠ
l y
Ġ or
tĠ of
a il
re c
for m
ar d
in d
eĠ b
m ent
Ġth at
w e
eĠ andĠ
ĠtheĠ f
n otĠ
i z
ĠtheĠ c
ĠtheĠ b
Ġc an
ac t
an g
s e
on g
eĠ p
i es
Ġ j
Ġh a
s p
n ow
Ġ k
h er
Ġthe ir
o k
por t
es tĠ
r a
Ġ i
it y
ig n
Ġ ex
edĠ in
Ġ lo
ĠtheĠ p
edĠ b
ic al
is h
w ill
t oĠ
eĠ f
s ĠtoĠ
er v
a st
Ġs h
Ġa p
y ear
igh t
it ion
s u
c an
com p
m an
v i
Ġa tĠ
Ġ is
d uc
ĠtheĠ t
Ġt im
re at
Ġ (
i b
eĠ h
en s
. .
ic k
0 0
ar k
ĠtheĠ d
' sĠ
Ġthe yĠ
n e
bu tĠ
w ork
i a
i esĠ
s .
a v
b eĠ
con t
ul t
l in
e al
Ġa m
us tĠ
o b
al lyĠ
âĢ ľ
o g
Ġa Ġs
in t
.Ġ i
e .
20 1
âĢ Ŀ
igh tĠ
w eĠ
o st
li k
Ġha veĠ
e as
at eĠ
m or
st r
re d
es sĠ
Ġw ill
e g
er sĠ
e b
wh en
Ġ it
eĠth eĠ
y ,Ġ
m ak
es ,Ġ
as s
v id
m entĠ
Ġp l
ing Ġa
os tĠ
s om
wh ich
in c
Ġth ereĠ
a ch
es .Ġ
be en
Ġ le
n ew
ol l
oun d
at er
Ġa f
o v
ing Ġs
r ough
com m
ĠtheĠ w
en g
Ġth em
Ġf rom
el p
ing ĠtoĠ
Ġp er
u re
i dĠ
s on
Ġ us
sĠ for
ou s
w asĠ
oo k
Ġac c
Ġ un
e at
e op
oun t
eĠ for
h ow
Ġ our
g o
p os
Ġal soĠ
erv ic
it t
Ġth es
i an
Ġth an
p le
y .Ġ
if Ġyou
cl ud
s ,
Ġt ak
s ĠareĠ
el yĠ
s tĠ
i enc
n ot
d o
ing ĠtheĠ
ha sĠ
f ul
on eĠ
âĢ ĵ
t o
Ġt e
a us
ar g
in k
w ay
p res
âĢĻ tĠ
f ic
u sĠ
ro w
ea ch
s el
b ut
ev en
s o
o ol
or d
ar eĠ
an tĠ
yĠ of
an s
Ġs p
as tĠ
l a
Ġm or
ing Ġin
Ġto ĠtheĠ
Ġ itĠ
oo dĠ
u ch
il d
Ġa g
ver s
u al
e ,
) .
Ġp r
1 9
e k
ect ion
re m
s c
in ter
s id
Ġa Ġf
ou sĠ
a f
Ġan Ġ
Ġm yĠ
Ġw asĠ
eop leĠ
m yĠ
Ġ res
w ell
ar yĠ
ver yĠ
p h
Ġth rough
ic ation
u g
ur eĠ
ĠtheĠ h
ar dĠ
y st
en er
lo c
f l
l l
wh oĠ
re t
ow er
em ber
r at
ur n
r it
d ay
ĠtheĠ l
edĠ with
ing ,Ġ
Ġa Ġb
es ign
b yĠ
Ġad d
Ġn ew
Ġt w
oo d
a dĠ
. ĠthisĠ
es ĠandĠ
Ġb eĠ
you Ġcan
e y
le t
Ġa Ġc
Ġa Ġ
Ġan yĠ
b ec
i k
Ġab outĠ
b r
f in
lo ok
ec tĠ
edĠ on
Ġcon t
re ad
oun dĠ
g et
wh atĠ
b o
e th
p a
i re
sĠ on
d is
Ġaf ter
eĠth atĠ
m in
Ġth en
Ġn e
dĠ of
re g
pro vid
ĠtheĠ g
e -
e el
Ġa Ġm
Ġa Ġp
us in
j o
1 0
ed .Ġ
an yĠ
ĠtheĠ n
edĠb yĠ
re as
ing .Ġ
un der
form ation
Ġcom p
yst em
or l
ing ĠandĠ
it sĠ
y ĠandĠ
esĠ of
n oĠ
ul ar
ation al
Ġb e
eĠ isĠ
Ġas s
as h
Ġ year
el op
vi ew
sĠ with
er t
m on
em ent
ro om
ar n
Ġh er
eĠt o
, Ġand
r yĠ
u tĠ
v is
Ġa Ġd
eĠ with
ev elop
ex t
eĠ on
e yĠ
pl ac
if fer
el i
ol og
ir stĠ
k now
e ep
h elp
s it
sh ip
y p
y ĠtoĠ
Ġac t
e an
Ġth is
a re
esĠ in
s ĠthatĠ
Ġa Ġl
, ĠtheĠ
ing Ġm
Ġa Ġg
Ġw ork
s Ġand
.Ġ h
Ġap p
ub l
lo s
ear ch
n er
ol d
Ġat t
Ġa sĠa
' tĠ
pro duc
i x
r ic
is s
ou p
,Ġ s
per ienc
Ġs om
at edĠ
ing Ġb
Ġthe y
d oĠ
ol dĠ
ha p
w ereĠ
ing Ġc
am il
d on
ec on
re atĠ
ingĠ for
em p
Ġh isĠ
ar i
Ġ up
ro s
.Ġ in
Ġ qu
) ,
at h
w as
,Ġ m
ib leĠ
ri v
ut ion
at ch
Ġof ĠtheĠ
j ustĠ
gr am
ur r
ing Ġd
ag eĠ
p ar
c ess
ust om
edĠb y
s up
Ġh asĠ
g an
ever y
d i
Ġth er
im p
ch n
j ect
ing Ġp
Ġth os
i ent
if ic
eĠ you
g etĠ
Ġwh ich
sel f
st or
wh il
r en
al k
r y
re qu
ch ool
20 0
itĠ isĠ
am p
e ther
st at
Ġin ter
b l
Ġg r
eal th
,Ġ i
all y
r on
an k
ec ial
edĠ for
Ġh ow
in clud
f ect
Ġre c
id ent
m er
c ar
eĠ g
v el
Ġan y
ingĠ on
Ġth ink
un d
Ġ other
h isĠ
st ud
es ĠtoĠ
at a
em entĠ
ec k
p art
at or
Ġ -
s ur
en dĠ
Ġ op
ingĠ of
ch ang
sĠ m
a w
e ad
ed Ġto
st and
ri p
ic t
c o
le g
pl ay
r u
ed ,Ġ
um ber
Ġab out
a ir
a x
b as
b ack
w ouldĠ
in ĠtheĠ
s .ĠtheĠ
an n
et t
c reat
p re
on lyĠ
ent er
Ġa v
ant ĠtoĠ
su ch
Ġs c
Ġar t
f ac
p on
d ayĠ
ion al
.. .
g u
ap p
Ġm on
str uc
ĠandĠ s
Ġtw oĠ
.Ġ s
.Ġ m
it ies
a z
Ġb yĠ
re l
it al
oll ow
ar m
ac tĠ
ex p
Ġtr ans
Ġin d
per t
in Ġ
sĠ s
Ġa Ġh
al u
am eĠ
,Ġ butĠ
at ur
sĠ from
eĠw ill
im port
t en
on eĠof
at iveĠ
rec t
Ġwh en
Ġs e
b le
ityĠ of
Ġd is
Ġ en
,Ġ h
.Ġ w
o th
we en
eĠ l
t on
m all
Ġ y
is tĠ
et ween
Ġc l
Ġte chn
bec aus
âĢ Ķ
m uch
d own
ation Ġof
Ġa Ġw
oul d
veĠ th
e .ĠtheĠ
ro p
o int
Ġp h
et er
ul l
ab le
Ġd o
y s
wh ereĠ
Ġ "
eĠc an
ever yĠ
a id
Ġm ak
Ġ over
Ġf in
ed ĠandĠ
i vers
Ġm an
.Ġ itĠ
i er
or t
Ġs ervic
e qu
h igh
Ġthes eĠ
Ġap pl
at ter
u f
ar tĠ
Ġm in
oc k
Ġwh atĠ
be for
s Ġto
Ġth ough
Ġ ro
,Ġ c
our c
Ġcom m
ep t
por tĠ
Ġh om
b y
u allyĠ
Ġw ouldĠ
1 2
es .
i el
at t
ing Ġf
3 0
est ion
ab il
as eĠ
ol ution
n âĢĻtĠ
s ,ĠandĠ
ark et
,Ġ d
Ġthan k
orl d
con s
r eĠ
for t
i at
eĠs h
ur ch
or th
sĠ d
j ust
ha dĠ
Ġpro duc
itt leĠ
eĠ or
5 0
un t
Ġs up
eĠ is
ne ed
et ter
m ad
sĠ c
ĠtoĠ b
res s
lo g
u th
i qu
ri end
Ġ im
el ect
l if
Ġc ar
ail ableĠ
n am
of ess
Ġte am
in v
sĠ or
v en
ex perienc
m ed
it ch
f re
u res
Ġd on
op en
Ġb r
Ġp art
h om
ed ĠtheĠ
,Ġ w
.Ġ d
st art
eĠ and
um p
k eep
Ġof Ġ
k in
eĠ your
ĠtoĠ s
Ġw as
eĠw asĠ
is ion
w ayĠ
Ġall ow
e et
ubl ic
lo y
Ġag ain
re en
Ġw e
per son
Ġk now
of f
ing sĠ
,Ġ which
a veĠ
Ġand ĠtheĠ
ing Ġwith
l ong
our s
p eopleĠ
ain t
1 8
iffer entĠ
man yĠ
eĠof ĠtheĠ
in u
g er
Ġ out
ing Ġto
ble m
le arn
v ir
ap h
d ec
l and
c al
Ġd i
sid er
ĠasĠ well
w er
Ġl ik
er ic
it or
st ill
,Ġ you
Ġin ĠtheĠ
usin essĠ
r am
er n
Ġ own
ed g
Ġst ud
re dĠ
ol ic
eĠth an
ing Ġh
edĠ s
w ard
t im
Ġn otĠ
ex c
r un
s ĠtheĠ
ex tĠ
Ġ âĢĵ
c ol
ev ent
Ġth re
sh ow
Ġm ayĠ
Ġt er
e er
v ent
Ġre g
, Ġa
i o
edĠ m
sĠ (
ir st
Ġt op
c le
iss ion
n ational
at her
hap p
it iesĠ
m ostĠ
Ġan other
in al
Ġa re
c over
g iv
iv id
l ow
Ġat ĠtheĠ
Ġw eĠ
ed uc
wh at
ent lyĠ
if i
eĠ from
Ġt yp
: Ġ
re al
ro l
ef fect
uc k
in st
,Ġ or
Ġg o
c or
we b
es p
r is
it âĢĻsĠ
Ġd ec
Ġl if
on ĠtheĠ
re am
Ġp eopleĠ
ent ial
1 5
ill ion
over n
h as
mor eĠ
how ever
o ic
Ġd oĠ
Ġh elp
us h
d esign
Ġin Ġ
le as
m ayĠ
ert ain
Ġap pro
âĢ ĺ
we ek
w ar
00 0
Ġtr ad
comm un
es ĠareĠ
,Ġ p
esĠ for
qu al
Ġal way
Ġper son
Ġd ay
iz ation
ab l
con c
eĠ itĠ
es c
ustom er
l ight
Ġg u
Ġb u
r ightĠ
d ition
is m
a h
o x
Ġadd ition
Ġal so
ri st
in n
.Ġ you
s ervic
a j
,Ġ f
Ġc ol
e !
pres ent
Ġit sĠ
it eĠ
Ġh igh
op er
un c
Ġlo ok
anc eĠ
c all
Ġn ot
ild ren
ingĠ your
ist or
comp an
k ill
ĠandĠ d
r ight
le ad
i or
Ġ if
emp loy
Ġm ed
ĠtheĠm ostĠ
.Ġ b
g l
Ġtr ain
pro gram
r al
r id
outĠ of
loc k
e ed
in eĠ
Ġw eb
haveĠ a
pos s
i um
y m
Ġan n
r ang
pon s
e âĢĻsĠ
pr ic
sĠ b
m o
.Ġ f
pl an
o in
u k
ou th
s er
ol v
ofess ional
e h
Ġ âĢľ
re allyĠ
eĠ i
Ġt urn
comp let
Ġad v
a idĠ
1 1
,Ġ b
man ag
eĠth at
ed Ġa
or n
ri but
âĢĻ veĠ
ar y
Ġs oĠ
sĠ will
.Ġ weĠ
f il
! !
Ġor der
Ġd esign
us s
Ġf re
of fer
sh ouldĠ
g ener
ac tion
eĠs p
l essĠ
Ġin st
r act
us ic
et ail
e.Ġ i
oc ial
el y
k n
haveĠ been
c as
od el
e u
sĠ you
âĢĻ s
n et
o il
, Ġt
of t
Ġj ustĠ
ater ial
Ġpl ac
a ,Ġ
Ġun der
oc i
ch eck
r ation
p ect
ist er
ĠtheĠb estĠ
d evelop
ical lyĠ
as k
act ic
a u
.Ġ c
ot t
ableĠ toĠ
.Ġ p
it edĠ
oun c
sĠ f
e ,ĠandĠ
hasĠ been
gr aph
e ak
g oĠ
ur ing
b ook
e ir
Ġa Ġre
f t
bu ild
ha v
t e
con sider
1 00
. "
pres s
Ġthos eĠ
is su
Ġa Ġn
d ep
s Ġar
Ġa Ġlo
fer enc
wh er
uth or
ĠandĠ m
Ġtechn olog
ec ur
g iveĠ
.Ġ ifĠyou
la w
sĠ can
ast er
Ġst at
Ġb utĠ
Ġmor eĠ
d at
leĠ of
Ġa ir
es ĠthatĠ
ivid ual
b al
t yĠ
ĠandĠ f
Ġp re
Ġwh oĠ
r ain
, âĢĿ
Ġb l
n o
en ef
f ectĠ
Ġf l
eĠ an
Ġs chool
Ġp ar
2 5
un ch
orl dĠ
Ġas k
n 'tĠ
id e
bec om
or gan
sĠof ĠtheĠ
Ġpro vid
struc t
pro c
per form
ro ll
1 4
or yĠ
Ġs ystem
i ousĠ
re ak
o os
Ġne ed
. ĠthereĠ
1 6
es ,
st er
ĠandĠ p
n ever
a ut
pro v
l im
e ?
g ether
Ġp res
Ġb ec
eĠth isĠ
op tion
ĠandĠ c
eĠs om
âĢĻ ll
th eĠ
a Ġ
al soĠ
Ġcomm un
Ġthey ĠareĠ
Ġal ong
Ġd own
unc tion
vir on
produc t
Ġ each
v alu
at ed
lo ad
jo y
Ġact iv
ing ĠthatĠ
r ad
ul ation
âĢĻ sĠa
Ġpro gram
rec e
port un
bo th
Ġs al
or der
âĢĻ m
on -
ch i
esĠ with
Ġa Ġt
om en
gr oup
l ist
c k
i oĠ
h im
im ag
el ow
Ġam eric
le vel
.Ġ for
in formation
ir m
g am
dis c
yĠ s
y .
Ġex perienc
ent sĠ
ing Ġw
ef in
i entĠ
as on
ri b
. ,
pr is
b in
ever al
av or
ĠandĠ h
Ġs it
,Ġ itĠ
ĠtoĠ m
ra w
cont inu
at eg
Ġst r
y l
p ut
e :
um an
qu estion
Ġc o
w rit
aj or
Ġsh ouldĠ
eĠt im
if ul
en n
ener g
ĠtheĠs am
ing .
mentĠ of
ing Ġt
if ication
usin ess
eĠ (
Ġin formation
n al
eĠof Ġ
f irstĠ
d r
le x
ic ip
con f
amil yĠ
un ivers
c ent
Ġc ouldĠ
ent al
gr ad
g row
Ġcon s
j ectĠ
s Ġthat
ac ter
con n
v est
i -
ire dĠ
Ġand Ġt
ot o
n g
Ġh ealth
2 4
o h
lik eĠ
edĠ from
af f
on c
res earch
c r
ity ĠtoĠ
fin dĠ
Ġth ing
Ġh as
Ġther e
ĠtheĠf irstĠ
ri ver
o ot
all eng
em ail
econ om
ed .
im at
ap t
esĠ on
m ar
pro t
1 7
p ost
Ġ eng
eli ver
ist ic
ic ular
Ġb ack
ĠaĠf ew
b eĠa
Ġa ut
such ĠasĠ
st ep
ĠtheĠ ch
il dĠ
Ġwh at
al f
c ouldĠ
Ġav ailableĠ
e ch
l edg
i ec
s ub
c ount
in a
Ġha dĠ
n es
l iv
ro ad
c ur
m ark
umber Ġof
g oodĠ
h ear
1 3
Ġst or
l at
Ġa Ġv
every th
vers ion
ear lyĠ
som eth
,Ġ with
ib il
Ġb y
Ġto day
Ġ el
Ġf il
Ġpl ay
pro blem
Ġb as
ent ion
p ri
Ġappl ication
,Ġ in
Ġs ub
sĠa b
ĠandĠ w
ingĠ up
ĠtoĠ f
Ġtr av
Ġan Ġex
wh o
' m
h and
Ġare a
som eĠ
Ġacc ess
read yĠ
v ari
o veĠ
h eĠ
ou ch
ĠthatĠ you
id eĠ
. com
es ĠtheĠ
lin k
m al
w w
or dĠ
ĠtheĠw orld
os tĠof
f tĠ
Ġd evelop
Ġan Ġin
ex pl
vid e
Ġm anyĠ
un n
sh op
' veĠ
it iveĠ
Ġre qu
Ġm ar
er c
on der
ur ther
t t
Ġ &
il yĠ
Ġcomp an
uc cess
edĠ up
ith er
sĠ w
âĢĻ reĠ
or g
Ġproduc t
Ġ ifĠyou
ind ow
ob il
ros s
ic leĠ
l arg
Ġa Ġnew
edĠ d
Ġg et
b ab
Ġar ound
s :
struc tion
le tĠ
ĠtoĠ d
s.Ġ i
j ob
eĠm or
ip p
re w
Ġmon th
urch as
19 9
loc al
,Ġ n
h ol
ing Ġfrom
os s
when Ġyou
Ġacc ord
sĠ p
l astĠ
ne edĠtoĠ
h ous
atur al
res h
iel d
educ ation
res ult
' ll
ul tĠ
ur al
ver t
- s
Ġv i
u ter
l ess
Ġc r
id enc
eĠth eĠs
Ġs ur
Ġre al
Ġh our
Ġn ow
ĠtoĠ mak
it 'sĠ
oun tĠ
edĠ c
be g
Ġpl an
ĠtheĠt im
ĠandĠ i
econ dĠ
eng th
Ġne edĠtoĠ
Ġf ac
ec ific
do or
t r
edĠ f
lo v
will Ġb
e veĠ
Ġ z
go ingĠtoĠ
Ġex am
h ad
,Ġ but
Ġc ount
Ġwh il
Ġon ĠtheĠ
Ġt each
at ic
ĠtoĠ beĠ
Ġg etĠ
ef ul
or s
s m
res pons
od yĠ
ple as
edĠ p
âĢĻ r
viron ment
ev ic
Ġw antĠtoĠ
Ġbe for
reas on
Ġb oth
Ġqu al
Ġsh ow
l andĠ
sĠ haveĠ
ar acter
entĠ of
eĠs ur
Ġan al
anc ial
sĠa tĠ
di rect
Ġs er
Ġthat ĠtheĠ
eĠth eir
pa ir
Ġof fer
Ġmin ut
Ġs o
m ean
g reatĠ
pl at
um ent
y n
Ġwe ek
.Ġ if
ĠtoĠ p
Ġt ell
i red
Ġre m
Ġ even
.Ġ sh
Ġcom ple
op portun
inc reas
kn own
th ough
Ġt alk
Ġof f
ec ess
exp ect
- f
l es
on lin
ad d
Ġc reat
s !
ol it
re st
eĠ it
ĠandĠ b
be aut
ed ĠthatĠ
wh yĠ
4 0
se em
on ly
unt il
for ĠtheĠ
Ġh ad
ĠthatĠ isĠ
int o
f ar
g en
Ġpro c
is ĠtheĠ
w ater
ens iveĠ
ast ic
Ġv is
ingĠ you
ach in
cont rol
g ood
lo veĠ
is Ġa
re port
sĠ wereĠ
Ġall Ġof
o or
Ġd ata
sĠ isĠ
Ġar oundĠ
import antĠ
Ġm illion
a i
Ġto oĠ
qu ick
e etĠ
v al
Ġn oĠ
b leĠ
re ach
f eel
id ea
h on
s ign
Ġweb sit
Ġc or
ing leĠ
der n
get t
id d
Ġh and
ur s
c urr
Ġw ay
. Ġa
re view
eĠth eyĠ
Ġc as
a it
et im
us er
Ġfor m
Ġt reat
Ġch ang
eĠ n
a .Ġ
,Ġ j
Ġt est
Ġw ater
os p
sup port
u .
a per
f ollow
ea dĠ
Ġtrav el
esĠ from
happ en
Ġre t
lo t
es .ĠtheĠ
ot el
f ter
Ġor gan
âĢĻ t
par tĠof
st ar
s ol
sĠin ĠtheĠ
econ d
stud ent
og n
r ac
at iv
Ġw ant
Ġf eel
sp ir
en ough
eop le
Ġst art
w in
Ġto gether
Ġg am
Ġtr y
cl ick
au gh
e ither
Ġb ook
ubl ish
Ġam az
if t
Ġter m
ic at
Ġin to
Ġtr u
ab or
ĠasĠwell ĠasĠ
r or
Ġacc ount
6 0
Ġ $
se eĠ
v ol
Ġman ag
web sit
oin tĠ
s ay
Ġan t
Ġof fic
c oll
ĠtheĠs p
Ġb usinessĠ
le an
um er
Ġle vel
op ular
Ġc ent
act or
st op
s w
Ġin clud
eĠt r
e atĠ
.Ġ âĢľ
Ġalway sĠ
lo or
eĠ up
in ation
er g
Ġb o
Ġlo veĠ
h ead
Ġm ember
er s,Ġ
, "
ri veĠ
do esĠ
im il
Ġle ad
er al
' s
for c
u ation
you Ġwill
wh ether
imp leĠ
lo adĠ
ĠhaveĠ a
Ġas ĠtheĠ
eu rop
ember Ġ
if y
ect or
uf f
on d
of fic
Ġto ol
l ation
h ealth
ang u
can Ġb
en joy
sĠa t
do es
re duc
p ay
with ĠtheĠ
eĠ ch
Ġag re
ingĠ isĠ
h ereĠ
Ġb ut
ent ly
es Ġand
ir l
s ystem
e en
sĠa sĠ
w oĠ
.Ġ butĠ
Ġd ep
Ġin t
f ind
Ġc ours
et c
eĠth eĠb
.Ġ "
ir c
eĠw ork
ĠthisĠ isĠ
ens ion
s k
Ġch ildren
Ġon lin
g ot
Ġh im
Ġl iv
Ġl ong
or tĠ
eĠth eĠf
Ġ x
or ig
Ġfor ĠtheĠ
e z
a ur
ple aseĠ
y leĠ
giv en
Ġre ad
eĠth em
Ġd r
ot ential
ĠthereĠ ar
s ?
sĠ lik
at ient
f eat
m ission
ab outĠ
Ġc all
com pl
pl ayĠ
sel v
imil ar
um mer
re comm
itch en
mor eĠthan
un g
iv al
eĠw as
eĠin ĠtheĠ
im al
pro ject
sĠa c
on Ġ
Ġg reatĠ
ure dĠ
. ĠtheyĠ
Ġg oodĠ
c los
pr ofessional
ib le
. m
inter est
ed d
iesĠ of
yĠ in
em b
Ġtr ack
uc c
eĠth eĠm
Ġcon c
n etĠ
for Ġ
Ġyou Ġcan
itĠ is
if fic
sp ecial
Ġgr oup
eter min
Ġg ener
n or
Ġperson al
Ġt em
in at
person al
ind ust
er ,Ġ
Ġs uch
weĠ haveĠ
Ġpr ic
pr actic
en dĠof
! Ġi
a im
w r
rom ot
s erv
re leas
pro cess
f riend
g reat
edĠin ĠtheĠ
employ e
Ġw ell
re p
n ess
comp anyĠ
Ġtim eĠ
ĠtheĠt op
2 2
uf act
est abl
establ ish
imp lyĠ
itĠ wasĠ
s )
ac c
f r
under stand
ex am
.Ġ our
s inc
Ġ eas
ch oos
p ower
Ġt our
eĠb yĠ
s et
ret urn
Ġw ereĠ
ir eĠ
lo bal
uccess ful
u x
w antĠtoĠ
Ġc oll
ch ed
Ġm ad
Ġt ow
inv est
m et
don âĢĻtĠ
y ,
Ġc am
poss ibleĠ
c reas
w ant
re adĠ
Ġon lyĠ
whil eĠ
Ġ veryĠ
ap pl
edĠby ĠtheĠ
ĠhasĠ been
l iveĠ
t al
ist anc
,Ġ soĠ
Ġp ost
from ĠtheĠ
Ġper form
ef fic
ig ital
Ġres earch
ĠthatĠ i
t or
Ð µ
ity ĠandĠ
s etĠ
ec ut
Ġm o
ous lyĠ
as sĠ
Ġal though
Ġb etween
Ġtak eĠ
le ar
Ġwith ĠtheĠ
eĠin ter
ecial lyĠ
ur pos
ing Ġthem
pr of
Ġa Ġr
Ġle arn
ess ion
Ġt ri
bu il
will ĠbeĠ
o -
Ġs ign
ed ĠasĠ
ro duc
ĠthereĠ isĠ
s al
it er
el f
Ġm arket
ol der
2 3
equ ip
Ġpro ject
Ġl aw
Ġst and
ard en
cont ain
row n
ĠaĠg reatĠ
Ð ¾
Ġf ind
ing ,
Ġbec aus
c am
m y
g leĠ
Ġpro blem
ĠhaveĠ toĠ
Ġdon âĢĻtĠ
ea dĠof
Ġd ifferentĠ
af et
eb ook
ple ment
. âĢĿ
b ur
e 'sĠ
Ġv ari
Ġl in
sĠof Ġ
out ĠtheĠ
b or
.Ġ n
at esĠ
.Ġ when
,Ġ g
ep tĠ
b on
st andĠ
Ġthank Ġyou
ar ter
sh ar
oc us
eat h
cont actĠ
d ata
con dition
in ner
. Ġt
ag u
Ġwill Ġb
Ġ outĠ
es s.Ġ
Ġs m
eĠth eĠc
ĠtoĠ your
can ĠbeĠ
beaut iful
eth od
vis it
inst all
ire ment
jo in
comp et
cl ass
esp eciallyĠ
Ġany th
Ġm uch
Ġar eĠs
er Ġ
Ġc li
. ĠandĠ
Ġameric an
is c
eĠd o
ep tion
Ġar ch
- d
Ġto ok
haveĠ toĠ
ag e.Ġ
ĠthisĠ p
g ain
ful l
er s
know ledg
yĠ m
aint ain
el com
Ġh ous
iz edĠ
Ġ ob
Ġc ustomer
import ant
Ġex t
el eb
Ġac tion
edĠin Ġ
b ar
s chool
en der
per fectĠ
bu y
all y,Ġ
Ġappro ach
2 1
Ġf eat
pro pert
Ġfor Ġ
eĠw ouldĠ
look ingĠfor
.Ġ with
eĠ st
Ġam ong
ĠaĠs p
b estĠ
le astĠ
- in
8 0
l ic
p ass
Ã ©
Ġapp ear
Ġpro pert
sp ect
es ,ĠandĠ
ch rist
Ġj ust
Ġa uthor
Ġm il
le sĠ
em on
ing Ġtheir
Ġd id
rem ain
ter m
cl us
ch arg
ir dĠ
Ġh op
er s.Ġ
Ġt ax
itĠ of
.Ġ l
Ġpr ofessional
n ic
rip tion
Ġle g
mon th
Ġy ork
pos ition
Ġf amil
ĠtheĠt r
min ist
Ġex c
a Ġs
ity ,Ġ
Ġp ower
Ġw rit
anc eĠof
ro k
Ġvi ew
, ĠasĠ
e am
b all
Ġbu ild
fl u
os ition
ra is
for d
ag eĠof
d u
re v
Ġis su
ris k
ef fort
Ġ oc
m ov
it em
ĠaĠl ittleĠ
cle ar
Ġa ud
Ġc ap
Ġwh ereĠ
itt en
ens ur
d en
s or
im m
im pl
Ġre allyĠ
b ig
Ġh ear
Ġact uallyĠ
w id
leĠ toĠ
eg re
ingĠ itĠ
oo th
Ġc al
emp t
iffer ent
ter n
ep end
eas on
d om
. ĠasĠ
yĠ f
st artĠ
b it
o dĠ
rece iv
Ġto o
eĠm an
en u
ition al
Ġfin dĠ
b i
oc ument
ed ĠatĠ
ity .Ġ
p t
sĠin clud
em or
Ġa chi
Ġm y
ĠthisĠ is
Ġs w
of ten
Ġlo cal
h op
Ġrec e
ro ck
rec tĠ
Ġin toĠ
un itedĠ
s>Ġ<s> Ġ
ra ft
cl aim
c red
eĠin formation
it ation
um b
est er
g ar
ingĠ or
ure sĠ
wh ol
are er
c ap
.Ġ youĠcan
id entĠ
wh it
go al
s, Ġand
oun ter
f ill
' t
ut il
tĠof ĠtheĠ
Ġs ay
b eĠs
el s
' sĠa
ir d
ic tion
e )
ĠtheĠc ount
Ġa Ġst
in s
st on
Ġ ent
col or
t ain
in dĠ
Ġall ĠtheĠ
d eal
' reĠ
ĠthereĠ areĠ
ea v
str ong
m ember
Ġf r
Ġpro t
Ġmor eĠthan
h n
n umber
ch ildren
ep ar
- p
" .
Ġs mall
et work
l ish
re et
Ġcon dition
en vironment
Ġsp ecial
Ġcomple t
p utĠ
w ardĠ
ul at
Ġst ill
ret tyĠ
ĠitĠ isĠ
Ġf riend
eĠth eĠd
ecur ityĠ
str ateg
bas edĠon
n ov
st it
Ġan s
Ġm ustĠ
l ightĠ
b etter
er sĠandĠ
som e
sĠ whoĠ
ĠtoĠ c
.Ġ j
es Ġto
Ġm ightĠ
enc yĠ
Ġsp ac
d ist
urr entĠ
.Ġ it
et yĠof
weĠ areĠ
Ġwill ĠbeĠ
Ġqu estion
Ġmed ia
Ġf irstĠ
Ġj ob
- t
h ib
ing ton
, Ġthen
2 7
im um
sh eĠ
f ound
y d
ip leĠ
Ġthough t
in toĠ
w atch
re present
oun tĠof
Ġadv anc
m ost
ingĠ it
g e
l ittleĠ
econom ic
gu id
pr il
reg ard
g overn
eĠ asĠ
sĠ is
Ġop en
iffer enc
ad v
qu it
h ard
ing ĠthisĠ
sp eak
Ġm ark
b etween
ag esĠ
b eli
gr ound
Ġstud ent
effect iveĠ
2 6
Ġr ight
pr im
enc our
, ĠtheyĠ
o on
rec tion
ĠaĠg oodĠ
Ġd ist
e,Ġ butĠ
. Ġafter
im prov
sp ac
ol id
19 8
w is
ug g
w ord
Ġm et
Ġal readyĠ
s.Ġ in
qual ityĠ
ag n
Ġof Ġs
ear n
Ġpro cess
Ġa Ġch
m atter
.. ..
ig ation
eĠth eĠp
enef it
Ġans wer
ch em
k ey
rat her
Ġth ingsĠ
ev entĠ
Ġind ividual
recomm end
yĠ for
Ġd idĠ
Ġ ...
m arket
Ġm ostĠ
ĠaĠlo tĠof
ĠtheĠs ameĠ
you ĠareĠ
lik eĠtoĠ
ph on
a Ġb
ur b
eĠt ak
t il
Ġin vest
d el
eĠto ĠtheĠ
Ġad dĠ
/ /
yĠ c
net work
. Ġall
ch alleng
Ġthat âĢĻsĠ
Ġcont inu
Ġg overn
loc ation
Ġm ean
ad em
n ear
Ġun ivers
d ur
u ally
edĠ of
d ifferentĠ
iv elyĠ
m ightĠ
eĠof fer
Ġp ay
Ġf ull
re f
ol ar
fin ish
an ch
Ġind ust
s. ĠthisĠ
on don
Ġexam ple
iffic ult
s l
Ġha v
f amil
i ou
Ġb etter
vis ion
sĠ us
bab lyĠ
ing Ġand
âĢĻ dĠ
tĠ in
oc usĠ
Ġh istor
s âĢĻ
ĠthereĠ is
Ġtak eĠa
Ġaddition al
l ater
, ĠthisĠ
bo x
an Ġ
Ġcon f
Ð °
yĠ isĠ
se ason
s y
let ter
pa per
jo hn
e ek
in eer
ir th
Ġv alu
Ġcon n
ex ist
Ġs aid
ingĠ our
ies ,Ġ
Ġs id
em erg
esĠ (
el t
pl ann
.Ġ (
iel dĠ
sĠab outĠ
e e
p ack
rec ord
Ġaut om
Ġp ark
expl or
Ġre view
u. s.Ġ
se en
ro t
es s,Ġ
Ġc over
c ard
w orth
n ecess
comm on
n ight
Ġop er
ind ividual
k id
el ection
- -
.Ġ on
Ġn am
d efin
Ġt re
ell ow
eĠw ereĠ
m a
esĠ you
9 0
j our
oft w
doĠ notĠ
5 00
pr int
ir t
Ġ usĠ
s mall
ou d
rel ation
' r
Ġb usiness
op h
ĠtheĠs c
sĠ h
yĠ b
ribut ion
esc rib
y c
Ġl arg
Ġp ublic
conn ect
- c
Ġ est
Ġp ass
us eĠof
.Ġ itĠisĠ
g g
am ag
Ġon eĠof
com fort
s ell
ĠtoĠ getĠ
ess ential
n essĠ
r ich
Ġg l
Ġsom eĠ
- m
is on
ea ut
Ġcol or
.Ġ soĠ
,Ġ l
ad a
ron ic
eĠ atĠ
ult ipleĠ
2 8
u it
sĠ byĠ
res ourc
onder ful
f all
kin dĠof
un iqu
Ġl ittleĠ
own er
cle an
.Ġ however
ĠaĠ veryĠ
ĠtoĠ us
âĢĿ .
ys ical
ufact ur
w eĠcan
ea st
d idĠ
ut t
every on
ear th
bl ack
3 5
at edĠin
Ġand Ġthen
eĠh ow
leg al
.Ġ g
Ġm ov
Ġab leĠtoĠ
so on
i od
om ent
art ment
ing ĠatĠ
comm itt
pon d
orig inal
osp ital
el in
w alk
gr oundĠ
out sid
tt p
Ġh app
sup portĠ
ust ral
in Ġs
ĠtheĠf irst
when Ġi
Ġann ounc
p oint
esĠ or
pa ign
m e
Ġ everyĠ
Ġb ar
c aus
Ġt rip
rec ogn
Ġsh op
riv at
n a
er a
i am
inter national
e ur
h am
id eal
h ar
Ġk eep
Ġdis c
et ic
Ġdon 'tĠ
f un
le v
Ġlo v
eĠs oĠ
Ġalong Ġwith
vide oĠ
ic le
ĠtoĠ help
conc ern
oo gleĠ
Ġp ag
ay er
angu ag
Ġav o
d id
ag ain
e,Ġ i
som etim
7 0
Ġt ouch
rem ember
Ġp oint
ount ain
y âĢĻsĠ
Ġg row
Ġn etwork
) Ġ
at ing
Ġd ayĠ
ri al
ot ion
se qu
ies ĠandĠ
Ġper c
m ain
eĠh as
Ġs aidĠ
us edĠtoĠ
ed .ĠtheĠ
Ġv ide
ar ch
Ġm usic
ĠtheĠh igh
oci et
Ġlo c
Ġtim e.Ġ
med iat
Ġp olic
ide asĠ
at is
ha ir
com bin
over Ġ
Ġinter national
v olv
it ter
off e
b reak
h el
y .ĠtheĠ
Ġdi rect
m ay
im pro
vi ousĠ
h old
m ustĠ
es h
run n
Ġ event
eĠ at
ĠtheĠn extĠ
Ġsup port
s aid
Ġt on
n oth
i ous
,Ġ for
su it
re plac
Ġl astĠ
ã ģ
Ġh eĠ
e. ĠthisĠ
st ant
ful lyĠ
ou se
ingĠs om
Ġm ay
Ġle t
sur anc
2 9
Ġan g
ĠtheĠl astĠ
,Ġ whoĠ
with outĠ
unitedĠ stat
Ġthat ĠtheyĠ
i i
b eĠd
som eĠof
4 5
u leĠ
Ġim ag
an a
re li
,Ġ youĠcan
vi a
Ġl ist
haveĠ th
p ublic
Ġs ocial
Ġn ever
Ġd el
eĠs aid
Ġcont rol
Ġb eg
n ia
r ap
Ġg iv
of ĠtheĠ
n extĠ
st aff
Ġop tion
is tĠof
oc iat
eĠm on
elect ric
u el
an el
ell entĠ
oc tor
Ġcomp anyĠ
i ĠhaveĠ
Ġs inc
ot or
eas yĠtoĠ
Ġanal ys
le ep
sĠ which
edĠ or
y le
Ġd es
h alf
Ġch rist
Ġabout ĠtheĠ
e ap
Ġt own
pro jectĠ
Ġthere for
in f
sĠa s
ud g
Ġinter est
avor it
ed ĠtoĠtheĠ
be ing
ver ag
un eĠ
sp ec
abil ity
.Ġ k
e ac
v ailableĠ
ingĠ is
eng ag
eĠc all
ĠaĠs mall
Ġm aterial
oto graph
: //
y t
Ġf ollow
if f
j ur
our t
Ġg iveĠ
c a
ĠthisĠ year
part icular
,Ġ weĠ
ur eĠof
Ġc los
lo th
f irst
oper ation
Ġtow ard
Ġis ĠtheĠ
.Ġ whatĠ
itĠ was
rom is
Ġon eĠ
s a
Ġacc ept
Ġatt end
Ġal mostĠ
Ġch eck
ick et
Ġpl at
Ġcl ass
) ĠandĠ
la unch
ĠaĠl arg
oci ation
energ yĠ
h istor
Ġm ic
om an
is k
.ĠthisĠ isĠ
ou bleĠ
ing ,ĠandĠ
il it
Ġm ind
c up
Ġf ron
. ĠtoĠ
Ġc ustom
in es
ĠtheĠp res
ĠtheĠp h
Ġtim eĠtoĠ
ne yĠ
if tĠ
z z
Ġt el
olit ical
i for
m it
esĠ s
Ġaf ric
m itt
m eet
Ġm odel
ext ra
sĠ up
eĠm ak
e veĠth
j u
,Ġ k
ar ant
Ġf ew
i Ġam
Ġ- -
re fer
Ġres ult
atter n
ounc il
r up
Ġc red
ed room
Ġf act
Ġfrom ĠtheĠ
h e
âĢ ¢
Ġc enter
l ack
Ġyear sĠ
b orn
y -
Ġor Ġ
d es
ed ,
re pair
ex pert
Ġpr actic
ing er
ow l
jo yĠ
exc it
vert is
d ef
eĠ our
Ġun til
19 7
w or
y et
Ġd etail
organ ization
Ġcli ent
Ġw ar
le ftĠ
ing ĠtheĠs
us uallyĠ
i ar
Ġyour Ġb
part icip
- up
Ġex p
Ġthrough ĠtheĠ
g reen
ab out
anc er
ifi edĠ
Ġto tal
an u
produc tion
Ġre lation
Ġcomp uter
ann el
w all
ing .ĠtheĠ
ess ag
in oĠ
eĠth rough
p m
eĠc ar
ro adĠ
Ġar m
eĠth ereĠ
dis cover
Ġsom e
Ġb eli
m usic
Ġd em
Ġres pons
amp leĠ
sĠin Ġ
ĠtoĠ se
s,Ġ butĠ
arg et
ifor nia
be ingĠ
Ġr un
eĠs up
Ġsh ar
ĠtheĠw ay
lead er
anc e,Ġ
Ġk n
flu enc
n âĢĻt
eĠb ack
ath room
y Ġand
ap pro
e, ĠtheĠ
d em
i pl
ch oic
abil ityĠ
lim it
s ha
en ior
you ĠhaveĠ
Ġl ight
b log
don 'tĠ
up dat
rece iveĠ
Ġt om
Ġa w
for Ġyou
ri or
ap an
Ġpr of
sup er
Ġc ost
Ġlo s
vent ion
edĠ her
s ;
in o
pril Ġ
sĠ âĢĵ
eĠth eĠt
Ġr at
dep end
- bas
Ġh ead
ch aracter
s iz
to ber
Ġqual ityĠ
Ġtw o
ven u
Ġdo esĠ
commun ityĠ
Ġt it
not ic
a ĠandĠ
ed ĠasĠa
Ġv ol
ed eral
gr at
a is
m m
m ic
reg ular
es sĠof
Ġal tern
k itchen
eĠm yĠ
Ġgr ad
be h
id eas
th atĠ
comm erc
produc tĠ
c ost
ing Ġan
l ower
pl ant
oc ol
? Ġi
on âĢĻtĠ
urr ound
ĠatĠ leastĠ
relation ship
eĠp eopleĠ
eĠ hasĠ
eĠp art
Ġadd res
Ġw omen
ult ural
g res
g otĠ
a Ġc
e, Ġand
la x
Ġs earch
ec aus
eĠin Ġ
urn it
Ġagain stĠ
e ;
ĠtheĠw orldĠ
ol f
ĠaĠl ong
eĠp res
s olution
eĠ all
le av
Ġd ef
pr inc
you ng
Ġd ur
Ġn ov
Ġh ereĠ
reg ister
Ġw indow
Ġtak en
Ġbl ack
es Ġthat
requ ired
s ĠtoĠtheĠ
Ġd eal
ing ĠaboutĠ
ic ian
d eliver
i ation
mer c
c op
am eric
Ġf our
eĠm ad
ly ,Ġ
al way
Ġk id
w eĠd
ing s,Ġ
Ġb ig
Ġit âĢĻsĠ
ab lyĠ
long er
.Ġ myĠ
from Ġ
press ion
ed Ġat
l u
ingĠ st
Ġart icleĠ
sol ut
ĠtheĠm ain
Ġit em
ingĠs ystem
ear li
ev alu
er yĠ
ĠtheĠ new
w ear
eĠ ar
ag g
Ġch oos
r y.Ġ
Ġsom eth
beg in
3 1
.Ġ but
rel at
al t
ech an
e chn
Ġg ett
prot ect
r y,Ġ
ed Ġthat
am a
eĠd ay
p olic
e.Ġ in
su gg
ha vi
uc t
ther n
Ġac ros
Ġv al
ing ĠtoĠtheĠ
of tĠ
p ick
eĠh ad
k eyĠ
p opular
it ect
ru it
ww w
Ġw ord
Ġs kill
f ew
y Ġt
fort un
Ġorder ĠtoĠ
Ġtry ingĠtoĠ
eg g
erc is
Ġof Ġyour
eĠb etween
b um
w oodĠ
befor eĠ
Ġass ist
s ec
ĠthoseĠ whoĠ
id g
ext rem
b usinessĠ
e edĠ
,Ġ sh
Ġar tĠ
uss ion
i Ġ
ingĠs p
st ay
Ġcomp et
f our
bo ard
at ure
Ġw alk
Ġad minist
Ġstr ong
res pond
Ġtrad itional
f und
Ġh uman
eĠc l
Ġhow ĠtoĠ
Ġsc ienc
expl ain
y etĠ
with in
Ġin Ġs
v an
Ġp eople
rem ov
as c
Ġcan Ġb
e in
y Ġto
eĠc ouldĠ
Ġg od
rec ip
Ġis Ġa
cons ist
ou dĠ
Ġfor Ġyour
ies .Ġ
it ud
Ġj our
Ġgo al
ed Ġand
in aryĠ
ĠtheĠf ut
olog ical
esĠ m
eĠs ervic
d a
Ġa wayĠ
ing lyĠ
ingĠ g
el tĠ
n atural
duc t
er .Ġ
Ġp ack
ough t
ail yĠ
Ġres ourc
fl ow
ateg or
f air
or Ġof
eĠm ayĠ
Ġthre eĠ
- b
- year
c ertain
m od
y ĠthatĠ
Â £
eĠin d
ott om
er veĠ
s,Ġ which
Ġad vis
Ġch oic
p ark
Ġp ort
Ġf un
im plement
Ġatt ention
w eĠwill
edĠ it
e es
ation ĠandĠ
. ĠthatĠ
i ĠwasĠ
and id
c od
op t
doĠ you
ation sĠ
Ġn or
ot oĠ
Ġa ward
Ġm eet
ident ial
mo veĠ
Ġre port
s>Ġ<s> ĠtheĠ
su re
yĠof ĠtheĠ
veĠth eĠ
. Ġand
i anc
ĠhaveĠ been
inv olv
d raw
p ag
it iz
Ġg ood
bl u
sy ch
Ġ room
Ġc od
Ġn ational
Ġthem selv
al m
Ġb estĠ
f urther
o ,Ġ
il m
ĠtheĠc or
s ett
Ġh ar
ang er
Ġtheir Ġown
s, ĠtheĠ
e um
e ign
ex act
eng lish
Ġret urn
Ġac adem
t ak
encour ag
ĠtheĠb ack
19 6
ific antĠ
sĠthat ĠareĠ
o graph
Ġun iqu
be ach
Ġlo tĠof
Ġtechn iqu
st ock
ic eĠ
sc or
Ġf amilyĠ
Ġhelp Ġyou
ev idenc
Ġunder stand
it ial
int roduc
w ood
Ġto dayĠ
man y
Ġfin ancial
i res
Ġs k
Ġwith Ġ
ingĠs ervic
sel ect
eaut iful
le yĠ
Ġwh er
cl ub
ob ject
us b
Ġch arg
m odel
Ġan imal
ail able
who ĠareĠ
% Ġof
3 6
s ourc
edĠ h
m en
u es
Ġst ep
notĠ onlyĠ
ro b
reg ion
v il
Ġw all
,Ġand ĠtheĠ
Ġl a
Ġcol leg
Ġf ound
Ġwh it
ation ,Ġ
ing Ġat
ren ch
r ant
for Ġyour
edĠ out
vari ousĠ
ust ain
9 9
Ġt en
st ream
eĠth eĠw
ection Ġof
h anc
ingĠ out
e,Ġ which
eb ru
Ġus er
eĠsh ouldĠ
ab in
qu ot
Ġ '
est ern
to -
n on-
for Ġm
weĠ ar
Ġorgan ization
Ġp oss
op tim
plat form
www .
in Ġyour
est ival
.Ġi Ġam
Ġgu id
3 2
it elyĠ
Ġc lean
sĠa go
r out
if yĠ
Ġatt ack
ĠaĠh igh
Ġaccord ingĠtoĠ
y cl
Ġa ug
Ġs everal
oo tĠ
ob tain
Ġt ext
us eĠ
europ ean
e il
oft war
u at
st eel
be y
over all
Ġinst all
f unction
g ress
Ġm us
, ĠtoĠ
com ment
l am
Ġf ut
un k
h ost
p ublish
Ġ ever
Ġs iz
ash ion
Ġinst it
ic on
int e
Ġtop ic
i rect
eĠth es
, ĠthatĠ
ing s.Ġ
Ġs et
up ĠtoĠ
sĠm ayĠ
Ġb elow
ĠtheĠm on
Ġ end
Ġex pl
comp uter
bo ardĠ
Ġtr ust
perform anc
Ġgener al
Ġt ip
,Ġ includ
Ġp aper
cl ient
a .
Ġann ual
re fl
Ġf und
um n
edĠin to
v eh
ation .Ġ
ex ecut
we et
ĠtheĠl at
c ustom
sĠon ĠtheĠ
er ĠandĠ
âĢĿ ,
cont ract
i eĠ
v ot
ingĠ room
appl ication
aur ant
us ing
vis itĠ
a uthor
f ix
ĠtoĠ get
eĠs ureĠ
elect ronic
8 8
v eg
w ait
your self
h our
ra z
Ġrec ord
beg inn
,Ġ ch
Ġd at
Ġn umber
all ow
Ġcon sider
lik eĠa
d uring
es tĠof
eĠd esign
comm od
imat elyĠ
' dĠ
k ind
Ġc op
ut ter
n orth
qu arter
l ast
oll ar
equip ment
l or
s Ġthrough
fil m
Ġl and
s earch
Ġt v
Ġagain st
eĠ as
Ġin f
Ġin creas
7 5
c ustomer
.ĠthisĠ is
emon str
Ġs etĠ
Ġb log
oper at
Ġ âĢĶ
edĠ hisĠ
b eĠin
le ft
sĠa fter
a ith
ingĠ new
ag ram
eĠd own
on dĠ
re h
Ġl im
Ġtrans fer
m iss
p at
Ġperform anc
f oundĠ
ro y
r ank
t op
per hap
Ġ em
Ġd u
s,Ġ or
ro ther
Ġm od
Ġn orth
.ĠtheĠ s
rit ical
Ġ ed
m aterial
im ent
Ġch alleng
iesĠ in
Ġtr yĠtoĠ
ĠthisĠ s
eĠp h
su f
? ?
i Ġcan
y ,ĠandĠ
Ġw in
Ġch aracter
ould nâĢĻtĠ
gener al
pro bablyĠ
Ġbec om
Ġt ast
ĠtheĠd ay
Ġc ertain
ing Ġher
ol k
per fect
ifĠyou ĠareĠ
Ġthough tĠ
it .Ġ
s>Ġ<s> Ġi
cont ent
os eĠ
ment ion
er ror
st ateĠ
mak eĠ
la im
Ġapp rec
re etĠ
ib lyĠ
m asĠ
of Ġcours
Ġcont ain
Ġ outĠof
es om
Ġp at
ĠtheĠs it
ĠtheĠb as
ingĠ outĠ
v ill
at ureĠ
ol or
eĠth ey
stand ard
e em
f i
ed ia
mor n
requ irement
sur v
Ġx Ġ
Ġyou ĠareĠ
tion Ġof
ĠtheĠc ar
l er
itĠ in
every oneĠ
doesĠ notĠ
americ an
s,Ġ s
Ġwh ether
Ġcom bin
ĠtheĠw ayĠ
Ġ education
Ġs olution
res pect
e,Ġ or
v oic
es Ġa
ent ir
provid eĠ
Ġadd ress
Ġand Ġa
eĠd ec
Ġp atient
le aseĠ
sp ecific
m ail
y th
Ġg oĠ
w orld
ĠtheĠb o
ed ic
Ġbe en
mak esĠ
ent r
re eĠ
m atch
il ver
pro per
Ġth ous
l ab
m il
Ġb illion
us edĠ
con struction
oup leĠof
univers ityĠof
er Ġin
ur eĠandĠ
lo an
av our
Ġart ist
ĠandĠ in
ou b
Ġab il
arant e
ĠtheĠ th
eĠth is
Ġre ason
sĠandĠ s
Ġtim esĠ
fortun at
Ġatt empt
in ion
ĠtheĠb ig
Ġther ap
ur g
Ġtim e,Ġ
ĠandĠ other
rat eg
esc ription
y nam
Ġs ourc
whatĠ you
i et
go dĠ
- tim
i ally
p lyĠ
t .Ġ
eĠh igh
p iec
Ġs ens
Ġg reat
ĠareĠ you
eĠw eĠ
Ġany oneĠ
augh ter
em por
bu ildĠ
beĠ ableĠtoĠ
sup pl
creat eĠa
Ġm ain
Ġn o
f amilyĠ
ementĠ of
Ġcommun ityĠ
Ġp urchas
Ġr ang
ĠtheĠm an
Ġthank sĠfor
f ast
s -
ch air
ch urch
Ġv eh
e âĢĿ
Ġ âĢĺ
Ġs ha
Ġad vertis
r as
Â ®
ing Ġthrough
eĠd is
comp lex
fin ancial
d etail
qu ir
Ġ o
ĠasĠ you
act iv
el yĠtoĠ
ir on
form er
eng ineer
rid g
.Ġ how
enc eĠ
Ġtyp eĠof
re a
Ġj u
Ġon c
mak eĠa
sĠa p
str ength
ron tĠ
sĠ when
Ġw orld
le aveĠ
Ġm obil
im ateĠ
imp actĠ
te gr
t m
Ġtr yĠ
d riv
ing ĠaĠs
does nâĢĻtĠ
h uman
in tĠ
ĠtheĠs econdĠ
Ġt al
uth ent
Ġpart ner
ĠtoĠ haveĠ
sĠof Ġs
ant astic
at al
,Ġ if
Ġb ank
ĠtheĠf act
Ġf unction
ur yĠ
im mediat
down load
.Ġ so
com eĠ
u red
Ġd evic
vide o
b eĠp
g irl
por at
ableĠ andĠ
rip t
dec id
r an
r and
Ġyou ng
m eĠ
sĠ i
Ġl ink
buil tĠ
c are
ing ĠmyĠ
Ġw ish
ed Ġthrough
Ġl ow
av ailableĠ
on Ġyour
proc essĠ
re -
respons ibleĠ
v ict
Ġtechnolog yĠ
. Ġthes
c c
s ens
Ġb al
col leg
eleb rat
r oĠ
w a
st ayĠ
with Ġ
poss ible
m us
p et
sĠ -
Ġwh ol
Ġp ict
art mentĠ
Ġmar ch
Ġof Ġc
Ġof Ġf
eĠs ystem
Ġameric a
curr entlyĠ
b eĠf
b ank
bu yĠ
r im
Ġcan ĠbeĠ
Ġpr im
el ement
ig ur
.Ġh eĠ
i ateĠ
ĠtheĠb ook
con ferenc
Ġtr ail
Ġaf ford
Ġover Ġ
commerc ial
c ook
Ġa Ġsh
s Ġt
Ġqu ick
amp ion
l edĠ
Ġs econd
op p
ot os
Ġpro jectĠ
commun ication
Ġlet ter
Ġw orldĠ
lo odĠ
Ġg en
ep h
under standĠ
er Ġthan
Ġass ess
Ġen vironment
Ġreg ard
oftw areĠ
3 00
a ud
,Ġ isĠ
ag e,Ġ
sĠ &
st anc
Ġst ar
Ġacc ountĠ
sc ap
.Ġ now
dec ision
Ġarch itect
Ġs outh
estĠ in
.ĠthereĠ ar
Ġwh yĠ
ud get
Ġpar tĠof
c ast
d f
th isĠ
us p
entĠ in
sĠ your
el y,Ġ
us her
sur pris
Ġplat form
er sĠin
pro pos
enc eĠof
way ĠtoĠ
ph as
and sĠof
ne y
sc reen
cas ion
sĠ suchĠasĠ
Ġwh o
rit ish
Ġactiv ities
ustral ia
p romot
ab ric
ark etĠ
Ġsup er
p urchas
or row
Ġn extĠ
requ est
Ġar riv
s ocial
le agu
a -
iv il
cl in
ĠitĠ com
Ġknow ledg
e /
m as
, ĠtheĠs
Ġar rang
Ġcom merc
ex per
Ġab oveĠ
Ġ version
ableĠ to
Ġre l
on e.Ġ
ĠandĠ g
Ġp .m
Ġh on
id a
ingĠ (
ĠtheĠc as
is ation
ev il
ĠdoĠ you
igh bor
sh all
part ner
Ġm en
help Ġyou
i âĢĻm
act ical
Ġwhen Ġyou
Ġass ociat
d etermin
Ġm ag
soĠ much
Ġthat 'sĠ
ĠtheyĠ can
ĠdoĠ notĠ
pri or
wr itten
ocusĠ on
Ġbu y
epar at
.Ġ itâĢĻsĠ
us eful
ch ar
eĠs c
requ ir
m eas
Ġs pr
for dĠ
Ġd eb
sp end
ĠtheĠg am
wouldĠ beĠ
/ or
our tĠ
b est
,Ġ on
Ġs eason
Ġb reak
Ġcom pl
Ġacc essĠ
n ightĠ
st ation
iv ision
oneĠof ĠtheĠ
oc cur
Ġfrom Ġ
b elow
ain tĠ
olog yĠ
unt eer
itĠ will
Ġon Ġ
rang eĠof
Ġind ia
list en
st ra
edĠ outĠ
edĠ myĠ
Ġf e
ud d
igh tĠof
Ġst rateg
Ġcom mon
? Ġ
Ġs ett
il t
ron t
m at
ep is
eĠb as
c ours
Ġt ask
in ar
Ġth irdĠ
ing red
itĠ for
Ġn atural
Ġab solut
eĠman ag
- w
- th
r .Ġ
ingĠb ack
by ĠtheĠ
opportun ityĠtoĠ
Ġ ey
eĠt woĠ
ayĠ of
ly .Ġ
ick en
c ool
iv e,Ġ
sĠa d
Ġfor c
eĠtr ans
b eĠc
Ġtr af
ĠtheĠf ollow
notĠ beĠ
,Ġ when
Ġreg ular
ing !
o y
Ġc ell
eĠm in
4 8
5 5
Ġvari ousĠ
un it
reat h
cont act
stand ardĠ
ing ĠtheĠd
ur t
lin eĠ
Ġen joy
recogn iz
Ġp iec
ac cess
ell ig
ant ag
Ġwith outĠ
mon eyĠ
epis od
ing Ġthat
ĠtoĠ doĠ
ityĠ in
ly ĠandĠ
ĠanyĠ other
c ardĠ
if Ġi
ri esĠ
new Ġyork
Ġc aus
s,Ġ includ
eĠa fter
Ġmed ical
Ġfil m
Ġl iveĠ
Ġtechn ical
util iz
ic ally
ed ĠthisĠ
Ġh ard
sh ort
s ch
is her
ri ef
se ek
st yleĠ
eĠs ay
Ġne edĠ
am in
ri k
ĠaĠs ingleĠ
ĠaĠb ig
imp act
enter pris
s ayĠ
p ayĠ
Ġb od
s af
lo tĠ
Ġdec id
ul ator
ag on
Ġass ociation
rather Ġthan
ĠtheyĠ wereĠ
e ightĠ
becaus eĠof
Ġare asĠ
ĠtoĠ our
over ĠtheĠ
ne edĠ
b a
and er
ĠisĠ notĠ
a uc
ĠtoĠ h
Ġst aff
Ġpl ant
l ad
eas ier
sĠasĠ well
.Ġ whil
j ack
Ġtr ump
Ġaf fect
Ġal bum
Ġtyp esĠof
Ġadv ic
Ġang el
Ġp osition
ov en
Ġapp oint
e "
r actĠ
Ġs un
Ñ ģ
ĠtheĠs ub
Ġas Ġan
eĠh isĠ
cont entĠ
organ iz
moreĠthan Ġ
ynam ic
3 8
anc eĠtoĠ
ĠtheĠt woĠ
Ġact iveĠ
pre par
v it
Ġf ood
Ġtraf fic
ing ĠtheĠp
hadĠ been
er sĠtoĠ
Ġj oh
ash ington
Ġdevelop ment
p ret
s /
en hanc
eĠc as
Ġl at
Ġmor eĠinformation
a red
ing ĠtheĠc
riv ateĠ
earli er
) :
.Ġi ĠhaveĠ
import antĠtoĠ
m is
be gan
act iveĠ
c ut
i ber
z en
Ġof Ġm
impro veĠ
" ,
.Ġ your
. Ġthis
ec om
Ġg reen
Ġad just
rev eal
re lev
Ġw antĠ
ed nes
min ut
requ iredĠ
Ġcl ick
à ¤
manag ementĠ
jour nal
committ e
ĠtheĠ in
es sĠin
ĠandĠ isĠ
id er
eĠth en
ĠtheĠm or
read yĠtoĠ
ific ant
Ġsup portĠ
anu aryĠ
_ _
ol y
ĠtheĠs up
- term
d ifferent
f loor
ĠtoĠ keep
Ġin Ġyour
Ġproduc tĠ
Ġappro x
m aintain
p ict
Ġl ess
ra ftĠ
equip mentĠ
! Ġ
ĠtoĠ you
ro leĠ
ist ration
. Ġthen
s pr
u le
le ast
ew ork
Ġr ad
Ġk itchen
ent ryĠ
ax imum
c enter
i ver
Ġb usin
ent ertain
Ġf oodĠ
.ĠtheĠ t
rec entĠ
p o
Ġc ard
Ġd efin
li br
eĠmor eĠ
z er
re ferenc
em al
ot iv
f ood
Ġtim eĠandĠ
Ġpres ent
ig er
Ġex pert
Ġcont actĠ
afet yĠ
Ġ /
s.Ġ w
pr ofess
Ġsp ec
ĠtheĠl arg
Ġtrans port
Ġachi ev
f ocus
Ġc ur
ib r
Ġto Ġa
e.Ġ itĠ
Ġbr and
Ġpart icular
Ġbl u
havi or
4 4
Ġan Ġun
Ġh is
eĠm anyĠ
ĠtheĠn ational
g in
Ġp ick
lyĠ in
res erv
rec entlyĠ
ĠtheĠp astĠ
Ġ- Ġ
play er
h eadĠ
st ick
ation Ġin
br ing
Ġtem per
i ,Ġ
Ġre st
eĠh om
Ġit 'sĠ
loc at
e,Ġ you
ĠitĠ wasĠ
grow th
ed Ġt
Ġis ĠtoĠ
s av
sĠ out
eĠw ant
Ġrece iv
f it
Ð ¸
ation Ġfor
Ġre pair
eĠb y
stud entsĠ
inte gr
d ifficult
yĠ with
Ġar en
vi ouslyĠ
down loadĠ
s '
s everal
il y
ĠtheĠp art
f ield
m ajor
ĠandĠ your
wh y
Ġhom eĠ
r um
edĠin toĠ
rem ium
Ġproduc tion
rid ay
3 3
Ġc ert
con v
Ġen ough
Ġsur v
g od
Ġcont ract
pa red
ched ul
a vi
ies ĠareĠ
ĠtheĠg overn
pri at
d eb
ĠtoĠ work
Ġst ock
complet elyĠ
ec tĠof
op ulation
e.Ġ w
n on
en ch
Ġw atch
sĠfor ĠtheĠ
Ġdo es
idd leĠ
ebru aryĠ
c u
m ag
s uccessful
Ġa way
ent yĠof
,Ġ itĠisĠ
os itiveĠ
ĠtheĠw ater
are a
u gh
ic l
Ġb ox
con ven
ĠtheĠm arket
equ al
itiz en
b ag
v in
Ġth urs
ing Ġall
ing ĠhisĠ
Ġs port
ed Ġtheir
ingĠ l
19 5
look Ġfor
c er
Ġn on-
Ġcon ferenc
cons ult
Ġcommun ication
Ġtreat ment
ingred ient
offic ial
Ġwith in
ĠtheyĠ haveĠ
f ail
Ġg e
ag re
lik elyĠtoĠ
lot sĠof
or Ġ
,Ġ âĢľ
ar tĠof
Ġp m
Ġof Ġp
!! !
ĠaĠv ari
tober Ġ
comp ar
cons umer
Ġmo dern
Ġrelation ship
im b
ian tĠ
Ġpl ann
provid esĠ
Ġsc reen
h ood
s en
ee per
for tĠ
ra struct
s implyĠ
Ġc ook
e.Ġ h
a Ġm
f ig
Ġof Ġd
ough tĠ
ibil ityĠ
Ġac ross
cl as
, ĠtheĠc
i 'm
l ip
m ix
.ĠitĠ is
Ġvis it
s.Ġ h
edĠwith ĠtheĠ
Ġjoh n
b odyĠ
o dern
w on
eĠ k
vers ation
4 00
; Ġ
n 't
lo od
sometim esĠ
w omen
or sĠ
Ġto ĠtheĠs
Ġther eâĢĻsĠ
med ical
s Ġall
Ġc ult
isĠ of
Ġof Ġb
ill ust
ĠtheĠb est
ched uleĠ
, Ġan
s im
Ġc urr
Ġs qu
s.Ġ for
Ġtak esĠ
ĠtheĠh ous
Ġto Ġtak
Ġatt ract
Ġsup pl
Ġconc ern
ic a
up on
Ġon Ġyour
eĠfor ĠtheĠ
. ĠtheseĠ
e ight
r ical
yĠ d
Ġs ept
ult i-
Ġex pect
s kill
eĠ al
ĠthatĠ itĠ
Ġsp ecific
ĠmoreĠthan Ġ
necess ar
om b
Ġl ondon
ra v
Ġnew Ġyork
us ion
cont ribut
r ong
Ġop portun
Ġavo idĠ
Ġ u
ed ,ĠandĠ
.Ġin Ġ
Ġdec ision
f oodĠ
ex pos
out door
,Ġwhich ĠisĠ
Ġaud ienc
ing .Ġi
, Ġall
n ext
Ġr ac
eĠh elp
inter netĠ
br and
Ġt estĠ
ingĠd own
h otel
r ill
r action
v ac
ing sĠandĠ
ex hib
ĠitĠ is
ĠaĠn umberĠof
.Ġ we
es :
Ġwith Ġyour
eas ilyĠ
Ġper cent
Ġmon eyĠ
at o
eĠs ub
sc al
e oĠ
l as
,Ġ r
sh areĠ
ĠtheĠf in
comm ission
Ġt arget
en joyĠ
art mentĠof
Ġsp eak
b our
b od
Ġs elf
Ġgrow th
ha el
Ġac commod
Ġeng in
eĠ j
Ġf irm
Ġg otĠ
Ġre leas
anc e.Ġ
ingĠin ĠtheĠ
sur anceĠ
re portĠ
ri endĠ
um m
ĠtheĠp eopleĠ
re lax
ex ercis
eĠon ĠtheĠ
re ally
Ġd om
iz on
eas yĠ
mak eĠsur
conn ection
n ation
w elcom
ecur ity
r itten
ed it
Ġof ĠtheĠs
ĠaĠf ull
am ountĠof
Ġcl ub
compan iesĠ
sugg est
3 7
eĠ again
Ġf irst
por ter
gr and
Ġf urther
Ġar eĠt
Ġha ir
i Ġs
n ut
eĠof ten
ableĠ for
Ġor ig
Ġany on
at ingĠ
eĠth er
ot ic
ĠtheĠp ublic
Ġm e
Ġd eliver
ĠthatĠ will
ĠaĠp art
extrem elyĠ
b lock
Ġk eyĠ
becaus eĠ
ĠanĠex t
d rop
.Ġ ch
Ġan Ġa
eas tĠ
w orldĠ
ear ly
Ġlo an
edĠon ĠtheĠ
eĠthatĠ you
Ġ [
al readyĠ
Ġr isk
riv ac
,Ġ it
Ġin s
ant ic
Ġad ult
esp it
mo dern
Ġtru lyĠ
urb an
g estĠ
Ġs ection
Ġch urch
Ġat Ġall
rec over
esĠin ĠtheĠ
. )
is eĠ
ĠthatĠ h
eĠs how
Ġcont ent
Ġfin ish
p rettyĠ
Ġg ar
Ġm ajor
Ġre duc
shouldĠ beĠ
s am
Ġc amp
Ġb i
vis itor
rel atedĠ
ould n'tĠ
f f
ing ĠtheĠb
est ic
mon itor
9 5
el d
s,Ġ m
Ġlo t
stit ution
esĠ wereĠ
her e.Ġ
Ġacc ur
Ġlead er
clus ion
j udg
Ġm al
Ġre present
ĠthisĠ week
Ġpr inc
Ġrequ irement
yc leĠ
g re
r ateĠ
ing ĠtheĠm
Ġk ey
- h
s,Ġ p
ell er
Ġh alf
ist ak
ĠtheĠsam eĠtim
g a
b ol
ab as
compan y
b usiness
s n
Ġ email
at eĠin
Ġj er
sĠtoĠ beĠ
b enef
sĠ haveĠbeen
isĠ notĠ
con duct
s.Ġ itĠ
per iod
to ĠtheĠ
Ġpart icip
r ay
Ġt end
ens ureĠ
Ġsom eĠof
no on
eĠinter est
w ish
oc rat
Ġse em
Ġdo or
f resh
all er
oot ball
el dĠ
Ġmark etĠ
,Ġ however
st ag
Ġs kin
il os
in ĠthisĠ
st reet
Ġm ill
Ġl ightĠ
Ġad vent
ĠaĠvari etyĠof
f ather
edĠ itĠ
stit ut
o ter
p al
Ġa prilĠ
Ġd igital
um in
Ġproc essĠ
1 50
Ġf iveĠ
Ġof ĠtheĠc
yp t
d et
Ġt ur
.Ġ onc
,Ġ is
ĠasĠ i
program m
est ination
m aster
Ġh otel
Ġf actor
man yĠof
sĠand ĠtheĠ
o vi
r ul
s ound
ed ition
Ġcom ment
int end
ret ail
Ġconn ection
Ġd egre
ber t
vi ous
n umberĠof
Ġc irc
which ĠisĠ
inter net
clus iveĠ
Ġr ightĠ
cont roll
Ġbe h
Ġservic esĠ
w indow
ĠaĠ year
Ġass istĠ
real iz
sĠab out
b el
i .
im press
Ġin ch
eĠd evelop
3 9
it ar
eĠf in
proc ed
c ert
p ur
r ink
el y.Ġ
Ġas ĠtheyĠ
Ġrece iveĠ
p .Ġ
ing ĠtheĠf
ed itor
op pos
8 00
d escrib
f iveĠ
pr en
Ġstr uct
Ġvide oĠ
l uck
,Ġ so
Ġm eas
sh own
br idg
ĠthereĠisĠ noĠ
k ing
gr ap
eĠd ep
Ġtw itter
Ġcommerc ial
vi ol
direct or
Ġt oldĠ
it self
Ġm achin
Ġd og
Ġch ild
az in
Ġc are
und red
c m
ig at
iv e.Ġ
eĠc or
t g
t own
y a
Ġre ach
Ġrec entĠ
educ ational
e ousĠ
eĠb ecaus
i Ġthink
Ñ Ģ
Ġc lear
ch ain
ec ret
um entĠ
etĠ of
we ather
ĠtheĠd ep
eed back
exact lyĠ
p ointĠ
er Ġfor
at icallyĠ
,Ġ even
vir t
sĠcan Ġb
o le
ed om
ĠthatĠ is
ot al
sĠof fer
Ġcons ult
f e
er sĠareĠ
on t
Ġf all
. Ġat
Ð ½
eĠ when
us ual
how ĠtoĠ
st uff
Ġl anguag
eĠc r
Ġapp leĠ
am m
Ġpr int
commun ity
m ostĠof
eĠ âĢĵ
ed Ġthem
Ġn umberĠof
ĠanĠex c
ex ter
ber tĠ
Ġres pect
par ent
Ġloc ation
ain lessĠ
ric tĠ
in ĠtheĠm
Ġp leas
lo stĠ
Ġtr end
sĠin toĠ
iz z
fin al
ar a
am esĠ
pl usĠ
te in
e ut
Ġa im
Ġex ist
6 5
m other
on ent
Ġon ly
.ĠitĠ wasĠ
Ġleg al
- to-
us ingĠ
eĠof Ġyour
s>Ġ<s> Ġw
lo p
fl or
viron mentĠ
Ġacadem ic
h i
Ġg arden
, ĠtheĠf
edĠ him
refl ect
. c
st all
Ġc ityĠ
Ġro ck
mark etĠ
c areĠ
i en
r ub
os en
Ġtr uck
Ġapp lyĠ
sĠfrom ĠtheĠ
univers ityĠ
r isĠ
r ound
Ġd riv
eĠin clud
ĠtheĠlat estĠ
s imilar
ro of
anc eĠandĠ
ure .Ġ
app oint
reh ensiveĠ
er man
entĠ on
qu iteĠ
high lyĠ
Ġamaz on
nor mal
3 4
an al
ing ĠanĠ
r h
Ġrem ember
p rec
s aidĠ
s impleĠ
ic sĠ
ic ator
iv en
e.Ġ you
ĠareĠ notĠ
Ġreg ion
effic ienc
a Ġin
in Ġa
es ĠatĠ
Ġs ch
g on
Ġ :
Ġ employe
ow der
ri ev
Ġsh ort
cons um
beh ind
m ind
Ġm ethod
rough tĠ
lic ens
. ĠatĠ
i edĠ
w ordĠ
Ġp otential
eĠth eĠh
Ġatt ach
light lyĠ
Ġt ub
ingĠof ĠtheĠ
b ul
v entĠ
ex chang
Ġyear sĠof
c raft
o sĠ
pro of
ing ĠasĠ
eĠc reat
manag ement
Ġstand ard
p ath
mor e.Ġ
chi ef
Ġaccord ingĠto
Ġgovern ment
Ġf oundĠ
r uss
Ġt ues
Ġb ab
ans wer
er tĠ
Ġc areer
ist an
Ġcom fort
sid eĠ
rit er
Ġcomm itt
re pren
wh eel
ĠtheĠp ast
Ġsc or
Ġs ecurityĠ
Ġh eat
pre vent
Ġl ak
eĠs er
ersĠ can
sc ienc
stud yĠ
. Ġthey
b ill
Ġm ix
Ġg lobal
a Ġd
Ġt or
on esĠ
ar c
ir it
ber g
fre eĠ
augh tĠ
Ġt icket
us edĠfor
ingĠ i
we etĠ
s âĢĿ
inc eĠ
a ult
h es
ent ral
, ĠtheĠm
f ish
es .Ġi
s>Ġ<s> ĠthisĠ
Ġcred itĠ
d og
Ñ ĸ
ĠtheĠh om
eĠwill Ġb
dec or
our se
be at
ra el
ersĠ whoĠ
ingĠon ĠtheĠ
ym pt
igh ter
s,Ġ c
Ġprot ection
6 4
lyĠ on
ind epend
ext end
Ġnot ic
oub t
f astĠ
,Ġ whereĠ
eĠw ay
Ġcon struction
ric t
inn ov
ic in
eĠth ing
all y.Ġ
Ġag enc
atur day
ĠitĠcom esĠtoĠ
h ttp
ed ical
Ġin ĠthisĠ
Ġthe or
Ġj oin
umer ousĠ
effic ient
m om
ur ingĠtheĠ
s.Ġ weĠ
other wis
Ġper fectĠ
pre fer
eĠsom eĠ
Ġs ol
ĠthatĠ wasĠ
s,Ġ but
e.Ġ ifĠyou
pres sĠ
rest aurant
m obil
ed ĠaboutĠ
Ġof ten
.ĠtheĠ c
Ġfor Ġm
end ar
eĠf eel
ĠtheĠd evelop
ĠaĠs er
hear t
a Ġp
y !
Ġs am
Ġre v
Ġst yleĠ
inst it
ympt om
Ġin ĠtheĠm
oc casion
Ġam ountĠof
abil ityĠtoĠ
Ġant i-
,Ġ st
es ĠasĠ
Ġc urrentĠ
Ġim prov
repren eur
â Ĥ
er Ġof
ĠtoĠ do
Ġf ar
un ion
Ġas p
ob serv
Ġcent ur
indust ryĠ
Ġf resh
ex ic
e. g
pres entĠ
vis ual
ĠaĠh ug
disc uss
Ġrem ain
Ġavo id
,Ġ whil
Ġw edd
us edĠin
res tĠof
19 4
sĠb etween
me ans
ã Ĥ
ul s
Ġup ĠtoĠ
Ġfl or
b eĠb
s ucc
ess ay
arm ac
Ġappl y
sĠwill Ġb
Ġto Ġtheir
ok er
exp ensiveĠ
m r
r ug
it i
co ach
th em
Ġw id
Ġp ain
ap ter
exc ellentĠ
develop ment
m c
design edĠtoĠ
Ġa reas
Ġth om
.Ġ noĠ
Ġs ong
Ġh ol
sĠandĠ other
ĠtheĠt eam
Ġfac ebook
h an
y z
re ation
Ġyou Ġwill
compl ish
f ut
i os
t ub
sĠ over
im ension
eĠc ount
Ġi Ġam
e.Ġ for
ainlessĠ steel
Ġc ash
you Ġknow
orig in
r ack
ev ision
Ġapp eal
fac il
call edĠ
rok en
Ġth row
sĠ befor
.Ġ y
es ?
Ġw ayĠ
Ġp ath
ĠthatĠ w
comp os
yĠ or
ing Ġmor
ing Ġabout
it âĢĻsĠa
ol leg
Ġin Ġa
Ġal most
ha b
ret ch
ĠtheĠl ong
exp and
Ġcoll ection
b re
e y,Ġ
Ã ¼
,Ġ ifĠyou
ri an
sĠa sĠa
Ġfor Ġyou
eĠd oĠ
ne g
Ġass ign
ĠwouldĠ likeĠtoĠ
r ick
,Ġ your
al so
es usĠ
Ġf ail
Ġtreat mentĠ
f ol
p otential
esĠ will
with Ġyour
eĠg u
Ã ¢
Ġ ident
Ġs erv
Ġd uring
ver ageĠ
eĠs e
possibleĠ toĠ
ed Ġas
Ġd ream
ul tĠof
dis play
exp ens
, ĠtheĠd
d evic
Ġf arm
Ġf loor
ig ger
.Ġi âĢĻm
p eople
ic ens
is ĠtoĠ
ed lyĠ
Ġl ater
Ġr unn
ient ific
Ġdis cover
Ġkn own
a âĢĻsĠ
il eĠ
Ġatt or
h oodĠ
Ġf an
Ġst artĠ
,ĠandĠ i
Ġte ch
becom eĠa
Ġc laim
s.Ġ ifĠyou
b c
g arden
Ġ oldĠ
Ġs implyĠ
il k
Ġw er
it iat
you âĢĻll
Ġdirect or
d oneĠ
Ġ .
.Ġ even
Ġk ind
ĠaĠc oupleĠof
such Ġas
e y.Ġ
h en
with out
Ġj uneĠ
oneĠof ĠtheĠmostĠ
ing Ġch
ar y,Ġ
stor yĠ
exc eption
alway sĠ
Ġto t
Ġg ot
ĠthatĠ youĠcan
per c
whatĠ i
ĠaĠm in
âĢĻveĠ been
gener allyĠ
d ateĠ
an y
ing :
Ġd et
Ġg irl
pl astic
empor aryĠ
g lobal
.Ġ her
Ġph on
Ġprogram m
Ġoffic ial
buil t
Ġaltern ativeĠ
n dĠ
s un
s ureĠ
ing sĠof
.Ġ what
Ġs eat
Ġf low
Ġof Ġa
sh or
we ightĠ
compet ition
p red
Â Ń
Ġ ver
am ousĠ
Ġachi eveĠ
re str
it ment
,Ġ our
Ġst ateĠ
eĠin toĠ
ĠtheĠf inal
sit uation
Ġwhich ĠisĠ
some oneĠ
Ġadminist ration
h oldĠ
Ġof Ġour
.Ġh isĠ
med ia
ess ayĠ
eĠd etail
pa ul
Ġdevelop mentĠ
vol um
f ieldĠ
es !
Ġw ood
Ġh ost
Ġin ĠtheĠs
ser veĠ
onlin eĠ
Ġjour nal
Ġth reat
Ġs av
ĠtoĠ findĠ
ag er
Ġn ear
ump ster
Ġdec or
qual ityĠof
Ġel ement
Ġac qu
.ĠthereĠ areĠ
ing ?
ro ok
ud getĠ
por ation
Ġtrad ition
ï ¿
Ġan yĠof
ar row
Ġp urpos
dr ink
feat ures
hel dĠ
Ñ ķ
Ġ effect
el eg
if ĠtheĠ
eĠd id
eĠa Ġb
Ġas pect
b an
p ast
s hap
Ġt ex
Ġt ableĠ
gr ic
ĠtheĠp re
coll ect
Ġs ociet
Ġw eĠcan
eĠth ink
pl us
eĠh im
loc atedĠin
Ġass um
âĤ ¬
sĠ per
res tĠ
s.Ġ our
eĠf oundĠ
Ġcount ri
ĠaĠsp ecial
Ġdid nâĢĻtĠ
ï¿ ½
ã ĥ
or ough
un fortunat
og ether
fic ial
esĠof ĠtheĠ
car ri
ĠatĠtheĠ endĠof
. ĠasĠa
oc cup
se e
Ġinstit ution
Ġto ĠtheĠc
edĠtoĠ beĠ
old en
s ection
s,Ġ d
ic ag
Ġre comm
Ġlo veĠth
dis eas
Ġteach er
at ĠtheĠ
Ġs ing
eĠf ac
mad eĠ
ing ĠtheĠt
Ġp ostĠ
Ġp utĠ
res ultĠ
ĠasĠwell Ġas
re ek
ing Ġsh
ingĠ itsĠ
Ġpl antĠ
19 3
ibil ity
Ġwhil eĠ
Ġvis itor
Ġgovern mentĠ
am az
lo b
eĠof f
eĠm ustĠ
mayĠ beĠ
Ġcal ifornia
a ĠisĠ
ot ional
pl entyĠof
e,Ġ but
Ġch ina
ser ver
l istĠ
es id
le y
leĠ andĠ
ef fectĠ
ĠaĠg r
abil ityĠof
c ult
isĠ in
Ġb ag
ur l
Ġar eĠtheĠ
ĠtheĠm in
ĠtheĠh ear
sinc eĠ
it âĢĻs
em br
rit ic
bas ic
agn os
r ag
en th
you ĠmayĠ
eĠa vailableĠ
Ġav ailable
Ġmarch Ġ
le ,Ġ
ĠtheĠd is
ilos oph
sĠ likeĠ
ur eĠtoĠ
ut or
Ġl ab
Ġl iter
.ĠtheĠ f
eĠb ook
ener al
ubl ication
Ġart icle
Ġro ad
-bas edĠ
c apt
j ection
in form
ĠtheĠ other
re stor
Ġw ould
ĠtoĠ know
ur eĠin
eĠs ign
ind ian
ra vel
east ern
p urpos
Ġf ig
em per
lik elyĠ
io dĠ
Ġsit uation
Ġcompan iesĠ
l iter
w ould
yĠ (
Ġs af
ut om
Ġservic eĠ
Ġplay er
Ġfac il
veg et
c areer
ro idĠ
ad ian
ersĠ with
ure ,Ġ
idd en
sĠ g
Ġs l
Ġf avorit
Ġfr anc
Ġperc entĠ
sĠ wasĠ
el im
Ġm iss
stud entĠ
class ic
op inion
Ġr en
ies ĠtoĠ
ĠtheĠp ower
eĠfor Ġyour
fin allyĠ
Ġcont entĠ
ĠweĠ haveĠ
Ġcommun ity
m itĠ
sĠin ter
Ġtheir Ġ
Ġser ver
al d
edĠ off
ur v
.Ġ from
om in
us c
Ġn ight
gr ant
ph oto
aur antĠ
m ethod
p aint
Ġ Ð
ou thern
Ġs aw
ex press
ef f
Ġr out
butĠ i
build ing
Ġthous andsĠof
w arm
Ġf ix
am ent
oun der
sp iredĠ
Ġactiv itiesĠ
Ġrequ est
Ġstand ardĠ
Ġhapp en
l ak
Ġm atch
Ġn eg
sĠof f
oc al
og u
Ġass et
Ġrec ogn
conf irm
Ġcomple x
, ĠtheĠb
d riveĠ
r ail
Ġb ill
Ġh olid
lo om
eĠt echn
est imat
Ġun it
ĠtoĠf ind
christ ian
b eĠh
b eĠtheĠ
r ing
oul der
az z
t u
an ish
edĠ under
Ġsh eĠ
h andĠ
esĠ haveĠ
ingĠ experienc
eĠc oll
mak eĠsureĠ
ĠtheĠg u
Ġro ll
bur g
b eĠw
od d
ĠwhatĠ you
prot ection
andid at
j ew
et al
ir ror
ag eĠandĠ
enc ounter
rat iveĠ
Ġup dat
Ð¾ Ð
o .Ġ
Ġth usĠ
Ġan Ġinter
ic iousĠ
ad dition
res sĠ
Ġch ar
curr entĠ
Ġmanag ementĠ
prim aryĠ
.Ġi Ġthink
whatĠ isĠ
pa idĠ
ĠtheĠn umberĠof
stud y
my self
comfort ableĠ
Ġapprox imatelyĠ
c amp
f actor
Ġs ucc
eĠm ov
Ġi ĠhaveĠ
row s
ĠmyĠ f
eli veryĠ
ĠtoĠ learn
res olution
iv ely
ep per
Ġdown loadĠ
wr ong
Ġju lyĠ
in der
ign or
man ufactur
Ġit self
d ocument
e up
s aveĠ
Ġp rior
edĠ over
Ġm is
ph otograph
ug gl
ru th
p ool
Ġ oil
Ġt ab
ot a
Ġpro per
eĠwith ĠtheĠ
ingĠof f
a ul
m eetĠ
s ix
Ġp ublish
Ġb each
ip h
eĠwill ĠbeĠ
Ġterm sĠof
Ġfeat ures
Ġ everyth
,Ġ becaus
Ġph oto
Ġdown load
spect iveĠ
ĠtheĠcount ry
-year -
n av
w if
res ident
ĠtheĠb ottom
Ġyear s.Ġ
exam ple
ĠtheĠtr ans
oftw are
d eep
Ġc ould
not ĠtoĠ
ĠtheĠn am
esĠin clud
gu arante
k a
m ap
Ġw on
ch eap
Ġh old
ingĠ us
comp ared
eĠh op
ĠaĠd ec
Ġeng ineer
ugg est
, ĠthereĠ
er âĢĻsĠ
Ġf ield
Ġtim e.
eng in
Ġbe ing
cor rect
4 9
r yĠandĠ
.Ġ us
s,Ġ h
ĠaĠb itĠ
eĠsur eĠtoĠ
Ġbo ardĠ
particular lyĠ
Ġb re
Ġl ibr
inc or
row ser
Ġthrough out
l an
p c
on sor
ingĠ over
ph ysical
,ĠbutĠ i
qual ity
less Ġthan
Ġtem plat
apan es
4 6
s "
or m
ul lyĠ
oun sel
eb all
coll ection
Ġs ix
Ġp aint
ch ild
sĠin to
imag in
Ġbo ard
govern mentĠ
responsibleĠ for
e ech
Ġd ocument
im mer
rem oveĠ
Ġwhen Ġi
.ĠifĠyou ĠareĠ
Ã ¤
sĠ com
Ġs ell
ĠtheĠc urrentĠ
ĠtheyĠ will
provid eĠa
par tĠ
Ġlik eĠ
âĢ ²
ingĠin to
Ġhow ever
Ġonlin eĠ
Ġcam paign
ge org
sĠas s
n atur
p ostĠ
w eĠw
Ġre adĠ
end or
ies ĠthatĠ
Ġha ven
oup on
cal c
continu eĠtoĠ
ĠdoesĠ notĠ
Ġst reet
ord in
provid es
leg is
4 7
b irth
Ġwith Ġa
ĠasĠ much
eĠd on
quick lyĠ
Ġaw esom
r ush
el essĠ
ol ish
eĠa Ġfew
eat her
help ful
sĠm ustĠ
effic ientĠ
Ġsome oneĠ
sĠ wouldĠ
Ġp anel
od ay
cred itĠ
Ġconn ect
es ,Ġand
soĠ i
ph oneĠ
elect rical
defin itelyĠ
c irc
s i
in Ġb
ersĠ for
Ġappro v
iffic ultĠ
environment al
Ġyou ĠhaveĠ
Ġtr ustĠ
sc en
inter view
.Ġin Ġaddition
includ esĠ
Ñ Ĥ
ĠandĠ for
as p
Ġj un
Ġext ra
rup t
el se
Ġp ast
eĠw eb
ateĠ with
inter ior
app ear
Ġtrans form
r ig
Ġm er
esĠ isĠ
row d
eĠthat ĠtheĠ
interest edĠin
0 9
e ableĠ
m os
Ġp al
Ġd river
Ġre plac
iv or
ra st
arg etĠ
giveĠ you
Ġs n
Ġm otor
ent ireĠ
Ġto ĠtheĠp
sh ad
eĠb eli
each Ġother
Ġdis eas
Ġm ultipleĠ
Ġind epend
ram ework
Ġcr im
. Ġan
y sĠ
est im
ap ital
b urn
e :Ġ
k en
p ull
Ġd en
ak er
eĠsp ecial
ux ur
eĠ which
Ġa .m
edĠ us
qu ant
eĠd ata
Ġk new
eth odĠ
Ġgu est
sĠwill ĠbeĠ
Ġc lin
Ġp et
Ġd amag
eĠin to
Ġappl ic
eĠtheĠb estĠ
4 2
b us
eĠ -
en abl
ost er
equ ipp
disc us
8 5
im iz
Ġin Ġb
am ber
Ġof ĠthisĠ
beli ev
g ift
s qu
Ġfor Ġa
Ġsh ould
ĠaĠm on
oup leĠ
,Ġyou Ġwill
sĠar eĠs
Ġabsolut elyĠ
0 1
Ġt ea
,Ġ v
Ġw ear
s,Ġ i
Ġafter ĠtheĠ
Ġter min
Ġeng lish
recomm endĠ
,Ġ "
Ġpro bablyĠ
ĠtheĠd ata
ph ys
s port
om et
Ġc areĠ
ed Ġan
ed icat
Ġd ifferenc
ĠtheĠs ervic
Ġab ov
eĠf re
Ġper iod
eĠg am
suf fer
m achin
.Ġ byĠ
Ġd ollar
Ġtw o-
Ġgo dĠ
eĠtak en
b ad
or tĠof
Ġf ish
ha w
ĠtheĠf ac
Ġex ecut
ass ion
provid er
Ġ either
Ġm c
Ġin tegr
Ġof ĠtheĠm
Ġof ĠtheĠp
eĠin t
ĠasĠ itĠ
eĠc o
Ġv ia
Ġprof il
grap her
1 20
a Ġ(
a ultĠ
cons erv
conc ept
m art
s ingleĠ
Ġt ap
ent ĠtoĠ
ment al
year sĠ
Ġpre par
does n'tĠ
d eath
in i
ou bl
,Ġ we
ĠandĠ you
ĠtheĠc ours
ĠaĠm an
Ġcons ist
Ġby ĠtheĠ
sĠat ĠtheĠ
ocol at
, Ġas
: ĠtheĠ
p ic
s atis
Â °
Ġb lock
Ġd eath
haveĠ theĠ
eĠd i
Ġtrans action
urch aseĠ
ar ri
Ġc ity
Ġb eautiful
Ġh y
âĢĻ .
sĠof Ġyour
ies .
.Ġi 'm
af ter
reg istration
Ġcomm ission
a veĠth
st yl
Ġlook ingĠfor
s kin
ĠandĠ j
eĠs it
Ġat Ġa
ednes day
, Ġthough
b eĠt
d ream
Ġc ha
le adĠ
Ġfre eĠ
roy al
k y
p an
in Ġour
ing u
Ġb edroom
Ġfin al
propert yĠ
ed !
con struct
um stanc
Ġj o
yn th
edĠ our
est in
eĠh ous
let t
Ġcomp ar
co in
att leĠ
ĠtoĠb eĠa
prof it
Ġfron tĠof
. d
.Ġ pleaseĠ
ar yĠof
ĠandĠ n
Ġn ic
ap or
sp ar
graph ic
princ ip
bey ond
, ĠasĠwellĠasĠ
b eĠm
Ġ *
Ġ every
ĠtoĠ creat
Ġto ĠtheĠm
Ġac tĠ
ĠtheĠd ayĠ
ost on
sur fac
p op
eĠsp ac
2 50
Ġal read
os it
up grad
iv esĠ
ingĠm achin
Ġmanag ement
c ityĠ
p en
w o
ĠandĠ hisĠ
Ġm g
itĠ from
Ġdr ug
h ill
Ġa th
in ĠtheĠs
sĠa gain
ifi ed
d ev
es .ĠthisĠ
Ġw or
Ġm ac
Ġin suranc
sĠa vailableĠ
Ġst op
Ġj anuaryĠ
ass iveĠ
19 1
Ġmon ey
what ever
esp ec
. Ġalthough
d igital
d aughter
us i
.Ġi ĠwasĠ
eĠthatĠ isĠ
ĠaĠw ay
g b
y self
uc tion
iz ed
Ġaug ustĠ
. ĠthankĠyou
h ardĠ
Ġp c
Ġm emor
Ġch annel
ityĠ for
.Ġin ĠtheĠ
someth ingĠ
Ġproc ed
h is
or Ġin
.Ġ it'sĠ
ĠandĠ itĠ
Ġp o
Ġd eep
19 2
reg n
Ġexpl or
Ġd rop
ab oveĠ
eĠs uch
ĠweĠ areĠ
.ĠthereĠ isĠ
s ummer
Ġs on
ident ify
rightĠ now
f irm
en z
ch annel
eĠt yp
eĠp oint
grad uat
d ust
h eadĠof
Ġs aveĠ
el ig
Ġto ĠthisĠ
gr av
rem ier
sequ enc
veh icleĠ
Ġan c
ic ial
e.Ġ weĠ
sh ould
e,Ġ s
ia ,Ġ
reg ulation
requ ire
ĠaĠw ideĠ
ock et
usb and
undred sĠof
Ġth ick
el m
Ġad apt
edĠb ack
ĠtheĠd esign
Ġpropert yĠ
execut iveĠ
iph oneĠ
m l
r ent
ĠandĠ how
Ġm aster
sh ot
Ġall Ġyour
Ġac complish
abil ities
Ġreg ister
du eĠtoĠ
d amag
y ?
Ġ energ
ic tĠ
us ed
eĠb ut
act ual
eĠf eat
ump tion
ul a
ĠtheĠf ull
ĠaĠ âĢľ
ubl isher
fac ebook
ĠaĠw eek
loveĠ toĠ
Ġtri al
, Ġafter
p ain
eĠ v
Ġre li
ĠtheĠs chool
Ġac knowledg
Ġpro pos
Ġam ount
noĠ longer
.ĠweĠ areĠ
emerg encyĠ
ustral ian
h eĠwasĠ
s low
u zz
y er
en su
Ġf ocus
ig an
ag r
Ġtr an
Ġwh eel
ud den
eĠc over
Ġv ot
co hol
Ġcl as
hol id
stop p
ĠawayĠ from
h ang
Ġ #
am eter
20 2
eĠp ark
ĠaĠp h
ros sĠ
Ġbefor eĠ
prof il
) ;
6 00
l ass
es k
lastĠ year
abor ation
Ġthurs day
) Ġand
b ell
f itĠ
Â ·
Ñ ĥ
ab b
Ġr id
we ight
ne ighbor
s. ĠtheyĠ
Ġyear sĠago
hav ingĠa
.Ġsh eĠ
Ġoper ation
Ġjer se
Ã ¡
ou ble
Ġw onder
rough t
eĠfor Ġ
pa redĠ
rel ig
mo vi
spir it
, Ġal
ar ian
ĠtoĠ myĠ
Ġf ill
esĠ can
Ġin nov
up er
ĠtheĠb od
ick etĠ
pre ventĠ
itiesĠ of
oin tĠof
manag er
conn ectĠ
cr im
, ĠtheĠp
Ġth us
ĠtoĠ seeĠ
Ġp leaseĠ
Ġb odyĠ
am paign
ha bit
need sĠtoĠ
no .Ġ
Ġrem ov
vol unteer
es.Ġ in
Ġhear t
o ch
Ġa war
.Ġ st
ĠandĠ ch
Ġp artĠ
res um
Ġsh all
ĠaĠm ajor
g oogleĠ
Ø §
Ġa ustralia
ĠtheĠs ystem
your Ġown
mak es
bal anc
known ĠasĠ
dur ingĠtheĠ
on om
,Ġ notĠ
Ġc loth
Ġre lat
und ayĠ
uf fer
Ġmet al
Ġexpl ain
e on
g ameĠ
g ather
pri ateĠ
i ant
Ġthe at
Ġv ict
l ar
.Ġ .Ġ
ri z
ĠisĠ in
ĠtheĠg reat
e- mail
ĠaĠre al
sĠcan ĠbeĠ
leader ship
f requ
sĠ shouldĠ
edĠ (
s,Ġ b
Ġj ack
lik eĠtheĠ
rid ayĠ
lat estĠ
Ġafric an
. Ġalso
for Ġa
Ġal on
eĠp re
Ġapp ar
becom eĠ
f arm
h eat
o veĠth
sĠ her
sh in
Ġtr ick
pr actical
Ġv ill
ĠaĠb etter
Ġstud entsĠ
m p
sĠ v
con stant
ĠtheĠn orth
ship p
part yĠ
ĠtheĠhigh estĠ
g reg
p rom
p ush
y 'sĠ
,Ġ myĠ
Ġv oic
Ġtim eĠfor
Ġse eĠ
sĠar ound
y r
ĠtheĠm ajor
mak eĠitĠ
direct lyĠ
sĠac t
0 7
f ir
edĠ w
ed er
eĠs aidĠ
Ġle tĠ
19 0
ĠtheĠg reatĠ
.Ġh ereĠ
en vironmentĠ
ing Ġhow
Ġc ool
Ġs ummer
os h
Ġex chang
âĢľ th
fl ower
.ĠitĠ was
opportun ities
Ġperc entĠof
sĠ under
sĠ wer
eĠs o
ful ly
eĠto oĠ
plac eĠ
eav yĠ
at es
Ġh or
work Ġwith
Ġsp end
mon ey
ingĠp art
ĠweĠ ar
.com /
quick ly
exam in
ro ot
Ġg oogleĠ
s,Ġ with
por tion
ret riev
creat iveĠ
ĠsoĠ much
ativ elyĠ
, ĠatĠ
sĠ butĠ
ar y.Ġ
Ġs elect
Ġs ingleĠ
ol veĠ
ient ist
univers ity
Ġcap ital
. org
c ell
j ump
r oundĠ
Ġs im
el er
Ġp romot
indust rial
certain lyĠ
6 6
m emor
s outh
sĠ soĠ
at eĠandĠ
Ġb enefit
Ġh ug
sh ortĠ
out com
ĠtheĠw all
Ġz eal
0 8
u a
u sĠin
Ġ effort
re venu
yĠ is
Ġf ire
id entĠof
ap s
og en
hol der
: Ġ"
l ondon
w ash
ing ly
ation sĠof
up per
ap os
Ġall Ġover
Ġlo ck
ĠtheĠd ec
iesĠ for
bec am
ingĠh im
Ġint roduc
a )
b ow
e o
,Ġ itâĢĻsĠ
es us
Ġs ession
ro id
inc red
yst er
ten anc
high er
inv it
Ġgo ingĠtoĠ
into ĠtheĠ
x x
li qu
we ak
ingĠin toĠ
sĠm ad
ir an
eĠs al
eĠf ound
Ġph ys
h ospital
you ĠshouldĠ
ro d
ig ration
ail or
Ġtim eĠin
Ġafric a
. Ġthank
k i
ing Ġthis
Ġc ut
Ġs imilar
Ġar g
Ġv ir
Ġex per
Ġph ysical
Ġqual ity
ar ilyĠ
for get
Ġh ouse
Ġthat ĠareĠ
sp endĠ
how Ġmuch
Ġph otograph
prot ectĠ
nor m
beli eveĠ
Ġindust ryĠ
h or
o z
Ġf urnit
Ġg ain
eĠd idĠ
inter estĠ
Ġass istanc
Ġminut esĠ
d am
p in
re ar
ab ly
ut ch
Ġi âĢĻm
Ġlo g
Ġany way
Ġpre fer
shop p
ing Ġwork
Ġb el
Ġb est
eĠs ens
Ġpar ent
eĠtheĠm ostĠ
en ableĠ
ĠthatĠ can
uc ial
pr intĠ
Ġr ich
Ġi ĠwasĠ
sub ject
Ġanalys is
c ash
Ġto Ġall
Ġre d
ĠthisĠ sit
well -
hom eĠ
s ong
in spir
ed Ġafter
ac ific
por ateĠ
Ġsh ortĠ
ure sĠof
Ġacc ident
ĠtheĠh istor
.ĠweĠ haveĠ
k ick
m ill
in fluenc
st ead
of Ġ
edĠ n
Ġf avor
ant a
ret t
esc ap
p ot
w al
th rough
pl ug
Ġre dĠ
ach ineĠ
.Ġs inc
'veĠ been
Ġsocial Ġmedia
p atient
y :
at e,Ġ
Ġd octor
be havior
ens en
fac tion
ĠwhatĠ isĠ
ger man
.Ġ som
.Ġ each
Ġh ttp
Ġar gu
Ġl ower
pro vision
eĠp ay
ersĠ haveĠ
Ġman ufactur
need edĠtoĠ
Ġbr andĠ
Ġrecomm end
s econd
sĠ work
at e.Ġ
Ġh eĠsaid
if icallyĠ
Ġl essĠ
ĠthatĠ your
ea ven
Ġstr ength
. Ġas
l ength
y ellow
Ġth orough
sp ot
lik eĠm
Ġle ftĠ
Ġcent ral
Ġtal ent
7 7
m un
eĠ us
in ĠmyĠ
Ġc up
Ġs ound
Ġw ait
Ġp attern
ed ?
Ġf ebruaryĠ
Ġof ĠtheĠb
Ġre fer
Ġv eg
ĠaĠs ign
yst al
apt op
Ġaccord ingĠtoĠtheĠ
Ġser iesĠ
Ġapprec iat
e over
y .Ġi
Ã ¶
Ġp rivat
Ġm atter
la ugh
Ġhigh Ġschool
Ġunivers ityĠ
es ;
pl antĠ
ĠtheĠf ilm
Ġcan ada
sĠfor Ġ
,Ġand Ġthen
di rectĠ
self -
Ġeas ilyĠ
espec ially
e eĠ
w ast
w antĠ
Ġp ut
Ġin c
ir a
ingĠ n
ant ageĠof
Ġte en
lex ibleĠ
beh indĠ
echan ism
% .
Ġs an
Ġs uit
Ġw inter
edĠ down
ag eĠd
Ġle aveĠ
. l
k eptĠ
s ession
w estĠ
,Ġ etc
ent repreneur
ow ard
Ġd etermin
ul atedĠ
gr ac
rat or
min ister
isĠ on
ation s.Ġ
Ġst ay
oc toberĠ
Ġr ental
Ġle agu
ingĠs oĠ
stat ement
Ġsc al
servic eĠ
j an
j un
s impl
in -
Ġh all
Ġin volv
with Ġa
ĠtheĠm ost
partĠof ĠtheĠ
t d
Ġp rec
Ġd ailyĠ
Ġrec ip
inst eadĠof
Ġadv oc
Ġcons umer
Ġb on
Ġf estival
Ġto ĠtheĠf
eĠt eam
Ġis land
io dĠof
develop mentĠ
power ful
i ĠwouldĠ
Ġt able
.Ġ not
.Ġ whenĠyou
ed ĠtheĠs
Ġd raw
ver y
ind ia
sp ok
0 4
r dĠ
ĠandĠ st
eĠt alk
sĠandĠ c
inc t
gu est
eĠdo esĠ
did nâĢĻtĠ
d emonstr
g or
r ific
s em
,Ġ un
Ġc abin
Ġf air
sĠa m
car ryĠ
col our
uthent ic
ĠtoĠ giveĠ
Ġp sych
Ġm eĠ
cl oudĠ
Ġr ather
Ġam b
Ġthes eĠs
Ġtak es
.ĠthereĠ is
perfectĠ for
vil leĠ
Ġtues day
, Ġto
l anguag
itĠ can
oc ean
di rection
sĠc ouldĠ
Ġbut ton
christ masĠ
h all
i ouslyĠ
v ic
Ġin sid
Ġin ĠmyĠ
em phas
em otional
s.Ġ "
Ġis Ġan
Ġle av
ing,Ġ butĠ
noĠ matter
Ġbeg in
& apos
y ber
al s
edĠ when
Ġh ill
ol ym
per s
ĠtheĠc ity
Ġpl ayĠ
sc ription
s aw
eĠ new
ation ĠisĠ
ri dĠ
ap on
su gar
Ġit al
wasĠ post
ĠitĠ was
Ġgr aph
ĠaĠlo tĠ
eĠsom eth
w areĠ
ar r
for ward
Ġf riday
ĠalsoĠ beĠ
edĠon Ġ
gl as
bab ly
Ġagre ement
rep eat
es ,ĠtheĠ
eĠm arket
Ġch ildĠ
orl dĠof
Ġass oci
amp leĠof
lim itedĠ
ĠtheĠfut ure
e âĢĻ
o ir
in em
Ġc offe
am ental
lyĠ with
Ġv ac
less on
pack ag
s end
ĠtheĠ rightĠ
it ness
happ yĠ
l ing
m ooth
am ong
Ġre ferenc
form at
eĠh and
ĠtheĠd ist
eh older
-year- oldĠ
re tĠ
ro c
le -
sĠin Ġyour
og a
Ġbe ingĠ
ym bol
grad u
vari etyĠof
b enefit
m ir
sĠ hasĠ
es ĠtoĠtheĠ
th Ġof
wh os
eĠdo es
Ġob ject
-th e-
b ear
,Ġ especiallyĠ
ed .Ġi
Ġyou ĠtoĠ
es,Ġ butĠ
Ġsc en
Ġdis play
Ġmo vi
govern ment
stant ial
Ġorig inal
- Ġ
oĠ d
Ġs impleĠ
itĠ on
ingĠm on
atur dayĠ
got ten
necess aryĠ
Ġpack ag
e ater
m id
s tĠof
an iel
Ġp olitical
Ġto ĠtheĠb
Ġand Ġall
Ġv ision
Ġi Ġcan
Ġvi ol
Ġwant edĠtoĠ
angu ageĠ
Ġmy self
Ġinstit ut
&apos ;
c atch
g un
l en
w onderful
,Ġ wher
ar oundĠ
ĠandĠ will
ly n
work shop
s. com
ult imat
ug ar
servic esĠ
Ġaccess or
o ard
s ent
Ġand ĠareĠ
iveĠ andĠ
ack ag
Ġch em
sp aper
eĠand ĠtheĠ
Ġbeli eveĠ
Ġafford ableĠ
] .
s ecurityĠ
at elyĠ
Ġfor mer
ĠatĠ hom
fin anc
endĠ up
hav ing
k ar
Ġ employ
.Ġ justĠ
e,Ġ in
eĠm ightĠ
ea redĠ
Ġv an
ĠaĠm ember
larg estĠ
whol eĠ
Ġbeg an
Ġin com
iv ity
ower ful
ĠaĠb eautiful
Ġact ual
,Ġh eĠ
mean sĠ
avi dĠ
if Ġyour
Ġl ength
ot tĠ
.ĠtheĠ d
Ġk in
stra ight
Ġp an
ch osen
con versation
stat eĠof
Ġind ian
Ġappl i
met al
Ġest ateĠ
Ġveh icleĠ
0 5
7 6
ed ĠtheĠc
Ġh ardĠ
Ġand ĠalsoĠ
Ġst reetĠ
por tĠof
Ġr ais
rad itional
Ġtell Ġyou
ustain ableĠ
Ġth ird
it s
it at
,Ġ from
,Ġ mak
es Ġar
Ġh otĠ
s.Ġ butĠ
rec ently
ra f
ingĠto gether
ĠâĢĵ Ġ
Ġprot ect
gin ia
n ameĠ
Ġc ancer
Ġm other
Ġb irth
im ageĠ
Ġk m
Ġtyp icallyĠ
immediat elyĠ
p n
r ust
.Ġ or
for Ġexample
le ather
ation ĠofĠtheĠ
mar ri
Ġcoll ect
appro ach
relat edĠtoĠ
ampion ship
r anch
ol a
e.Ġ butĠ
ĠaĠd ifferentĠ
ensur eĠthatĠ
Ġt un
ro g
Ġm om
pro veĠ
e,Ġ w
ĠtheĠt yp
Ġmak esĠ
high -
Ġdr ink
k new
an sĠ
ing ĠwasĠ
le ment
lo st
Ġn ut
s.Ġ you
Ġyour Ġown
whether Ġyou
chem ical
c p
o id
Ġ ideasĠ
Ġto ĠtheĠd
re pl
yĠ on
th Ġcentur
Ġp ur
oo g
Ġaut oĠ
olit ic
Ġcustom ersĠ
bey ondĠ
in itial
wh iteĠ
ip hon
hand leĠ
Ġdid n'tĠ
k et
Ġ econom
Ġc ourse
Ġw estĠ
ent ire
eĠs olution
s,Ġ w
ĠtheĠs outh
cont in
Ġpl astic
Ġact ually
Ġmak eĠa
didĠ notĠ
d egre
edĠ itsĠ
Ġd ifferent
em oryĠ
sĠa goĠ
eĠd isc
Ġnov emberĠ
. ĠtheyĠareĠ
i j
n el
s d
Ġh ospital
res ist
loc ated
Ġtot allyĠ
ar in
ĠtheĠs un
Ġyour self
ĠthereĠ wasĠ
Ġhigh -
h al
Ġc hair
th at
Ġb it
Ġb ath
ur fac
Ġin Ġtheir
Ġof Ġtheir
be ingĠa
e. com
Ġpr ofess
rem ot
ĠtwoĠ year
Ġen joyĠ
Ġfin anc
befor eĠyou
check ĠoutĠ
Ġassociat edĠwith
n ger
w onder
an other
sp ection
ob l
reg ional
ress ion
18 0
grow n
Ġel ection
adv antag
c ostĠ
at il
is ĠthatĠ
Ġtr uth
act uallyĠ
let âĢĻsĠ
becaus eĠi
.Ġyou Ġwill
expect edĠtoĠ
in sid
.Ġ v
ch er
Ġon e-
Ġlo tĠ
Ġthes eĠf
manyĠ peopleĠ
proc essĠof
ibil ityĠof
7 8
c ameĠ
eĠ areĠ
sĠ itĠ
Ġwith out
s>Ġ<s> Ġs
Ġinter netĠ
Ġlif e.Ġ
ĠtooĠ much
ofĠcours e,Ġ
u sĠfor
eĠ her
Ġm ult
ur ingĠ
Ġl icens
Ġfor eign
Ġtr a
ĠtheĠc o
ingĠs it
ureĠ isĠ
check Ġout
Ġso on
ĠtheĠlarg estĠ
s ĠalsoĠ
er ĠtoĠ
er s.
Ġm at
et Ġal
lo veĠth
ĠtheĠf our
ĠtheĠt own
ĠthereĠ was
Ġag ent
ipl in
5 8
s ing
Ġm id
oun g
ayĠ for
red itĠ
plac eĠtoĠ
Ġrec over
Ġstud entĠ
compan ies
Ġeng ag
some on
ĠgiveĠ you
wor ry
r andĠ
w are
Ġb er
Ġand Ġtheir
eĠof fic
Ġj ew
la z
ĠmoreĠ aboutĠ
eĠmon th
Ġbeh ind
4 1
s.Ġ d
Ġst uff
ĠtheĠs er
will iam
ach el
sĠwith ĠtheĠ
, Ġthey
o ak
p i
s leep
es Ġthrough
Ġs hap
Ġm m
pro gress
ĠaĠs impleĠ
ph il
Ġtw ic
riv al
regard les
i ev
s econdĠ
yĠ p
ĠandĠ itsĠ
Ġm ission
Ġn ecess
com b
com eĠtoĠ
sh o
e,Ġ with
ĠtheĠs id
Ġshop p
y al
eĠ over
ing Ġprogram
Ġp en
sĠandĠ p
ĠtheĠd i
Ġthis Ġtim
findĠ outĠ
on Ġs
or al
Ġw al
us a
Ġal cohol
con sc
s.Ġ b
sh ir
Ġad opt
eĠp ar
Ġther e.Ġ
Ġautom atic
m essag
w itch
er ĠisĠ
ing -
am b
.ĠtheĠ b
eĠin Ġyour
ident ifi
gener ation
te chn
sw itch
Ġcompet ition
c t
m ac
Ġt ag
ĠandĠ l
us esĠ
ac count
ad or
eĠt ax
Ġwith Ġour
se at
e ag
s ĠtheyĠ
et aryĠ
am ic
itĠ with
ap ac
ersĠ will
Ġres um
lif eĠ
:Ġ âĢľ
ĠdidĠ notĠ
c astĠ
Ġd er
us ingĠa
Ġst yle
form Ġof
ificant lyĠ
Ġt i
,Ġ justĠ
Ġw ast
Ġd riveĠ
eĠd ayĠ
eĠh ealth
ros oftĠ
Ġro of
Ġconc ept
pass ion
b rother
s an
Ġ ideas
ch anc
im ple
eĠt rain
enc e,Ġ
ator yĠ
ĠtoĠs ay
Ġcontinu eĠtoĠ
ĠaĠpart icular
Ġcommitt e
n i
w est
ing ĠanyĠ
th ,Ġ
il tĠ
Ġin jur
pro gres
eĠof Ġs
s.Ġ youĠcan
cl assĠ
Ġk or
ch apter
us eĠtheĠ
us ingĠtheĠ
eĠw ell
Ġr ail
ind ex
Ġres ident
Ġdec emberĠ
Ġcol our
Ġanal yz
eĠind ust
Ġsept emberĠ
d atedĠ
is edĠ
esĠ byĠ
e.Ġ our
ans ion
onĠtheĠ other
Ġappro priat
organ ic
Ġtom orrow
h ot
h ug
r yĠof
it z
Ġw orth
ĠtoĠ provid
eĠin vest
Ġac id
ĠtheseĠ ar
week end
Ġdes k
ograph ic
ĠaĠgr oup
c utĠ
j a
m eal
m oment
r ition
Ġa verag
Ġc ouncil
le .Ġ
eĠs chool
sh ower
Ġr ound
ĠaĠs ub
start edĠ
edĠfrom ĠtheĠ
suf fic
Ġp ip
pos itiveĠ
ingĠin ter
Ġaccess ĠtoĠ
" Ġ(
- of
d river
Ã Ń
Ġa Ġperson
Ġa gric
ĠandĠ can
el ess
em otion
qu er
Ġat ĠtheĠsameĠtim
ateĠ for
ersĠ from
myĠ f
look ingĠtoĠ
Ġsom etim
pre -
relev antĠ
g aveĠ
at eĠtheĠ
st reetĠ
Ġc ourt
Ġw entĠ
Ġin Ġour
ab ul
ityĠ isĠ
fl ict
Ġhigh er
rep ublic
prof itĠ
yd ro
Ġabil ityĠtoĠ
y ard
en a
Ġs ea
Ġp opular
Ġd eck
Ġal t
ev olution
Ġj ul
ari oĠ
Ġout door
) Ġin
z on
ĠtheĠ onlyĠ
,Ġ can
,Ġ wasĠ
even Ġif
co -
Ġmon itor
happ yĠtoĠ
level Ġof
6 9
c ritical
m ax
Ġc ostĠ
Ġc hap
Ġs u
is land
min dĠ
Ġyear s,Ġ
Ġinter estĠ
him self
idea Ġof
Ġanyth ingĠ
ol in
Ġin spir
pr ay
pr oud
ĠtheĠp ar
ne edĠfor
Ġafter noon
olog ist
stor ag
Ġco ach
u. s.
Ġbuild ing
Ġvide o
d g
Ġ =
Ġ ..
Ġp eac
if ĠtheyĠ
Ġn ext
anc yĠ
eĠb oth
ersĠ on
Ġstat ement
Ġtel evision
f act
.Ġ pleas
itĠ wouldĠ
Ġl i
eĠs everal
ind icat
eng er
look ĠatĠ
Ġav ail
couldĠ beĠ
Ġdep end
famil iar
Ġsinc eĠ
Ġanalys isĠ
esĠthat ĠareĠ
Ġacros sĠtheĠ
in Ġtheir
al c
is ,Ġ
Ġm essag
Ġh andĠ
s.Ġ when
sĠof fic
ĠtheĠc enter
Ġus uallyĠ
sĠareĠ notĠ
ingĠm an
Ġro leĠ
Ġeach Ġother
conf idenc
Ġsur fac
-f riend
? "
Ġb all
em in
ak eĠ
ment ĠandĠ
Ġis ĠalsoĠ
Ġle ft
sc op
ĠaĠg reat
Ġout sid
letĠ usĠ
Ġsome on
c ategor
m i
u eĠtoĠ
it ĠalsoĠ
st antĠ
Ġb rown
ot ton
Ġst ation
oc umentĠ
Ġap artment
comp ut
eĠcan Ġb
acc ept
expert is
ĠtheĠbo ardĠ
5 9
at i
Ġre p
Ġcan âĢĻtĠ
Ġis ĠthatĠ
ĠaĠf re
ĠaĠh om
Ġbas ic
, ĠtheĠt
d in
d ig
s ight
t c
Ġs atis
el v
âĢ ĭ
sh oot
loc atedĠ
ru itĠ
exc ell
Ġthere 'sĠ
ju ic
j er
Ġg al
up load
s,Ġ f
ableĠ of
Ġher eĠtoĠ
urr entlyĠ
di vers
import anceĠof
Ġdisc ussion
avour it
sĠasĠwell ĠasĠ
! )
Ġ +
Ġa Ġcon
Ġc ross
ol ec
Ġn on
bo y
ry ingĠtoĠ
event uallyĠ
Ġlook ĠatĠ
struct or
ingĠw ater
yt ic
. Ġanother
s s
res idential
with Ġyou
Ġpro v
sĠfor Ġyour
go ingĠon
Ġtak ing
Ġte eth
olog y
Ġman y
c ription
st eadĠof
you 'll
ed ĠatĠtheĠ
eĠof ĠthisĠ
all yĠandĠ
ea h
Ġthink ĠaboutĠ
at oĠ
be an
erv is
ne got
ĠaĠl if
ingĠp eopleĠ
Ġprovid esĠ
Ġsw itch
contract or
vict or
Ġw arm
ac cur
rom an
Ġi 'm
Ġthem .Ġ
includ es
ru is
oper ator
sĠb elow
Ġcompan ies
tm l
neg ativeĠ
m etĠ
Ġal ter
Ġg ameĠ
Ġl ast
sĠandĠ b
ack Ġof
iz eĠ
ĠatĠ least
Ġthem ĠtoĠ
under ĠtheĠ
eĠl if
equ ival
Ġgu y
Ġwhat ever
Ġaround ĠtheĠ
indust ry
d e
w entĠ
ar ound
Ġc apt
âĢĻ ,
Ġl abor
sĠa tt
Ġat ĠtheĠtim
Ġr uss
Ġsh ip
Ġtim es
Ġus eĠ
sel ectĠ
ath em
ĠtheĠcount ryĠ
entryĠ wasĠpost
Ġtransport ation
Ġath let
r in
s endĠ
s âĢĶ
er sĠof
ou pl
ed Ġall
ch ina
Ġas ia
ĠanĠ importantĠ
Ġres erv
you ĠtoĠ
le sĠof
esĠ which
enc e.Ġ
ĠhaveĠ th
ĠtheĠl if
br ain
Ġne ighbor
high light
nam ent
Ġallow sĠyou
r ar
re ward
st rik
Ġp or
Ġg oldĠ
eĠw eek
stor m
setĠ up
cred ibleĠ
j i
ou ter
com esĠwith
ĠtheĠd oor
es,Ġ which
Ġcont act
Ġse ek
Ġlist en
ilit aryĠ
? Ġhow
b itĠ
k er
an e
it Ġall
ĠandĠ on
em plat
Ġof ĠtheĠf
eĠa rea
will ĠnotĠ
ingĠb utĠ
.Ġw eĠwill
.ĠweĠ ar
cap ital
Ġgiv en
Ġla unch
king dom
c elebrat
p leĠ
v ital
y cle
ch ildĠ
ad ium
Ġar ab
whereĠ you
Ġthere âĢĻsĠa
Ġfil ter
opportun ity
encour ageĠ
asc inat
clin ical
, Ġalthough
Â ©
eĠ &
Ġb ur
Ġb athroom
cl oud
bu g
we âĢĻveĠ
eĠf il
eter an
idd leĠof
improv ement
l ay
t ag
Ġt ank
on ym
en se
.Ġ can
Ġc m
Ġp ress
edĠ g
Ġat l
Ġthes eĠp
Ġmin dĠ
o oĠ
r anc
Ġ enter
ed Ġabout
ol ina
eĠt oday
Ġre f
Ġst ick
Ġthink Ġof
.Ġm ostĠ
ĠshouldĠ beĠ
ĠhadĠ been
ĠtheĠfirst Ġtim
eĠthey ĠareĠ
h um
Ġp op
ed ication
un ter
ation .
s,Ġ in
Ġtr ac
eĠw ater
sĠandĠ f
ĠtheĠc ustomer
Ġle ather
sĠand Ġtheir
ĠmayĠ beĠ
gett ingĠ
ux uryĠ
-- --
Ġtit leĠ
- r
c ross
y ardĠ
.Ġ un
Ġs ector
Ġs enior
Ġp rettyĠ
us eum
gr andĠ
other Ġthan
Ġthat ĠthisĠ
ĠifĠyou ĠareĠ
olar ship
virt ual
4 3
s il
Ġt extĠ
eĠf amil
eĠh ear
rem ark
eĠfrom ĠtheĠ
dr ug
Ġinto ĠtheĠ
Ġagre ementĠ
riter ia
s pl
in Ġm
sĠ outĠ
.Ġ click
Ġan x
ac leĠ
Ġand ĠtoĠ
eĠs inc
Ġat ĠtheĠm
eĠf l
ĠtheĠg eneral
car ry
weĠd oĠ
) ĠisĠ
Ġa Ġj
ur der
ad eĠ
ab et
soĠ far
ingĠa Ġnew
esĠin Ġ
ities ĠandĠ
however ,Ġ
poss iblyĠ
ocrat ic
y an
it iv
el ev
Ġb ear
Ġand /or
ĠasĠ possible
Ġch i
contactĠ us
ed ĠaĠs
con vert
ies tĠ
go esĠ
br andĠ
iel dĠof
l ac
r ental
s ea
Ġs uccessful
even Ġthough
wayĠ of
Ġter ror
oss ibleĠ
Ġmic ro
lab el
f ire
th re
edĠ your
Ġm r
Ġm ention
Ġf eetĠ
Ġg re
ĠisĠ not
ĠaĠc ertain
Ġtogether Ġwith
, ĠareĠ
? âĢĿ
er emon
Ġs election
Ġp ointĠ
e,Ġ m
Ġv irt
lin e.Ġ
Ġres ultĠof
fac ilit
Ġmon day
cam paign
eleb ration
adv anc
Ġest at
eveĠth atĠ
Ġappoint ment
profess or
elig ibleĠ
n d
u in
Ġ q
er .
Ġh eĠwasĠ
ich igan
vent ional
Ġair port
proc eed
exhib ition
e '
w eĠwereĠ
es )
ĠtoĠ goĠ
Ġf aith
ad oĠ
s.Ġ âĢľ
ĠasĠ soon
art in
man ufact
Ġacc eptĠ
rat ch
Ġtw ent
eĠl iv
ester day
0 6
r d
Ġp ool
Ġand ĠthatĠ
asĠ well
li ber
put t
Ġrequ ir
tr ans
val id
sor b
Ġchrist masĠ
c at
ar yĠandĠ
ed ĠtheĠp
ed ĠaĠ
Ġb enef
Ġto Ġt
ay s
with Ġour
ist ryĠ
Ġtr igger
ĠtheĠw ord
itiesĠ for
Ġuniqu eĠ
? ĠwhatĠ
c ouncil
s letter
sĠ how
Ġs em
Ġs and
Ġw elcom
Ġand ĠtheĠs
comp onent
ĠtheĠt echn
Ġwill ĠnotĠ
ĠtheĠl ast
Ġcomp rehensiveĠ
ific ial
Ġtrans ition
Ġbr ing
echan ical
5 6
c ould
en em
,Ġ pleaseĠ
for um
Ġb owl
Ġd escription
ul um
est roy
uc lear
e,Ġ itĠ
rec ordĠ
eĠp olic
stor y
ox id
fr iger
reli ableĠ
Ġfut ureĠ
d ivid
j am
p Ġ
s oundĠ
Ġt il
ic eĠc
ĠtoĠ re
ro ph
us eĠa
sh otĠ
Ġk ill
cont ribution
ingĠb yĠ
ĠaĠw eb
ateg oryĠ
Ġsub ject
Ġrang eĠof
h y
s man
,Ġ new
,Ġ how
ar iesĠ
ha ven
com esĠ
pro bably
ĠtheĠf ield
Ġex act
Ġex ercis
when ĠtheĠ
ĠthereĠ wereĠ
much Ġmor
able .Ġ
du eĠto
m osp
,Ġ pleas
om a
Ġw onâĢĻtĠ
eĠt ogether
s.Ġ itĠisĠ
sĠof ĠthisĠ
eĠh ead
Ġinter view
Ġtyp ical
ĠpeopleĠ whoĠ
gener at
uniqu eĠ
vil le
b road
d ark
l it
sĠ hisĠ
at ell
el ter
sh eet
ph otoĠ
Ġse en
elim inat
3 50
w ich
ĠtoĠ other
Ġp rom
ac tĠof
ation s,Ġ
Ġg ift
ew ay
est on
Ġtim eĠwith
ix el
.Ġfor Ġexample
tr ack
Ġleader ship
vious ly
t a
t ail
Ġm ountain
Ġd ish
end edĠ
lik ely
ital ian
exc eptĠ
Ġthre e-
invest mentĠ
Ġdur ingĠtheĠ
Ġme ans
e iv
g al
l ect
m ultipleĠ
on Ġour
.Ġ se
ĠtoĠ go
as er
Ġh eadĠ
Ġg asĠ
haveĠ an
Ġaf fil
ix t
fil ter
i ac
u dĠ
Ġa lex
el ic
ĠtoĠ offer
cl ientĠ
oneĠ isĠ
Ġcar bon
vide os
eĠpres ent
propos al
russ ian
Ġ |
you ĠneedĠtoĠ
ed ĠtheĠb
oo st
Ġfor Ġall
str ument
pre viousĠ
wher eĠtheĠ
Ġactiv ityĠ
o .
er s,
tĠ for
it l
st yle
Ġh ors
eĠt ook
sh eĠwasĠ
eĠc ost
but ton
ĠbeĠ ableĠtoĠ
ren ew
Ġcomplet elyĠ
dem and
addition al
! "
b usin
Ã ³
is Ġan
ch ester
Ġm ust
Ġn av
Ġex ampleĠ
edĠfor ĠtheĠ
Ġany whereĠ
giv esĠ
Ġbu yĠ
Ġfre eĠtoĠ
Ġbas edĠon
Ġpay ment
irect or
ĠaĠmon th
h otĠ
i Ġwas
m ult
u ro
sĠ by
ar ies
Ġm ass
em bl
s>Ġ<s> Ġin
Ġadd edĠ
able ,Ġ
land scap
Ġadv antag
ĠavailableĠ for
larg eĠ
sĠlik eĠa
, ĠaĠs
0 2
p eac
w an
â Ĩ
Ġ energyĠ
Ġto y
ul ner
eĠt urn
Ġst ag
man ner
whoĠ isĠ
ĠtheĠl ow
Ġinter ior
ingĠh igh
Ġcal c
Ġclass ic
tak en
, ĠthereĠar
b adĠ
h ouse
w edd
Ġs ayĠ
ac ular
ot yp
eĠa re
sp read
Ġit .Ġ
ingĠs c
Ġsp irit
ĠaĠw onderful
Ġbr ain
Ġlif eĠ
Ġminut es.Ġ
Ġinclud esĠ
Ġcap ac
Ġrel ig
,Ġ of
ĠandĠ k
el et
Ġb atter
est h
ell ect
ber ryĠ
cent ral
Ġtow ardĠ
Ġadvanc edĠ
l abor
in suranc
re put
oĠ (
Ġan Ġhour
you t
ed -
Ġd ev
Ġd ark
Ġl ad
ant sĠ
ia Ġ
s. Ġall
ersĠ (
ĠaĠsp ecific
ingĠsom eth
usb andĠ
ing sĠin
Ġp ageĠ
ul f
e.Ġ if
eĠd evic
form al
Ġthrough outĠtheĠ
Ġthey âĢĻreĠ
Ġsup plyĠ
Ġdi rection
Ġexc it
Ġp red
em an
Ġof ĠmyĠ
Ġfor t
eĠw rit
Ġsh ot
man entĠ
mak eĠyour
ingĠs up
la dĠ
Ġwork shop
.Ġin ĠthisĠ
manyĠ other
org eousĠ
epar ateĠ
l ayer
n earlyĠ
Â »
Ġ ill
,Ġ y
il legal
Ġw ashington
ed ĠthatĠtheĠ
Ġb ik
Ġd in
Ġg erman
ord inat
ĠtheĠbig gestĠ
Ġkin dĠof
Ġ eventĠ
Ġc ategor
Ġs econdĠ
il eg
is ition
Ġre portĠ
and -
sh ell
ult ra
Ġthes eĠm
are dĠ
eĠyou ĠareĠ
lif t
lif e.Ġ
cor ner
someth ingĠthatĠ
Ġrest aurant
.Ġ mor
th irdĠ
Ġs ec
ed ĠtheĠm
Ġm oveĠ
com ingĠ
all el
eĠtoĠ your
can n
e, Ġthen
inter nal
ĠaĠc ar
ingĠp h
ept emberĠ
Ġret ail
Ġant icip
compet itiveĠ
Ġautom aticallyĠ
f rontĠ
s Ġthan
s ung
u v
sĠ down
Ġs end
ro le
Ġf it
Ġf ir
un dĠ
Ġto ĠtheĠt
.ĠtheĠ m
s>Ġ<s> Ġh
eĠf ollow
edĠwith Ġ
Ġint ellig
Ġext rem
' .
5 7
Ġ .Ġ
,Ġ noĠ
ed ĠanĠ
Ġm oment
Ġf eet
ig u
Ġst ra
Ġaf fair
Ġthes eĠt
Ġstud yĠ
disc ussion
eĠtim eĠtoĠ
g at
h it
s um
ex ual
ĠthatĠ wouldĠ
s.Ġ with
Ġst on
sĠtoĠ b
emp ower
pre viouslyĠ
Ġlik eĠa
Ġann ivers
eĠan other
full Ġof
Ġge org
ĠanĠexc ellentĠ
on ĠthisĠ
Ġf eltĠ
Ġin Ġwhich
ev olv
eĠtoĠ beĠ
Ġass emb
sĠwith in
sup plyĠ
Ġwe ightĠ
ĠavailableĠ in
Ġmar ri
a a
s :Ġ
y ĠtheĠ
Ġar riveĠ
ex actĠ
pl ateĠ
eĠm ostĠ
what ĠtheyĠ
enough ĠtoĠ
Ġchrist ian
ĠaĠser iesĠof
p romis
Ġt utor
Ġa wardĠ
it leĠ
Ġof ĠhisĠ
Ġyou th
ĠasĠ partĠof
s>Ġ<s> Ġb
sp onsor
ret ain
Ġhom e.Ġ
clear lyĠ
Ġconf idenc
ingĠsp ac
strength en
ĠtheĠdevelop mentĠof
s ĠthisĠ
en forc
.Ġ âĢ¢
.Ġ retriev
,Ġ whatĠ
st ress
Ġal leg
ĠtheĠs mall
ok ay
ĠtheĠw ar
10 1
vis ibleĠ
hav ingĠ
Ġoffer sĠ
Ġjust ic
ideal Ġfor
Ġdem and
, Ġtoo
h ir
o am
w oman
eĠ anyĠ
Ġs afet
ch est
wh elm
eĠof Ġour
qu een
s.Ġ if
pr ais
Ġpl usĠ
fl at
ĠasĠwell ĠasĠa
ĠlastĠ year
Ġsun day
7 2
c offe
t leĠ
ist sĠ
gr an
Ġcon v
read er
Ġrec entlyĠ
gu y
Ġnor mal
impress iveĠ
n c
Ġin Ġm
ex pression
Ġus edĠtoĠ
ĠaĠ quick
conc ret
rap id
appro priat
! ĠtheĠ
j on
v d
w ind
ĠandĠ haveĠ
Ġof ĠtheĠt
notĠ been
oneĠ or
exter nal
er as
ou is
Ġf ashion
s,Ġ soĠ
Ġall ĠofĠtheĠ
eĠp ict
edĠin ter
ĠaĠs c
ifĠyou ĠhaveĠ
Ġbe half
Ġop tim
Ġen forc
ĠwouldĠ beĠ
inv ent
ĠandĠd evelop
Ġorgan iz
want edĠtoĠ
Ġvari etyĠof
ĠtheĠgovern mentĠ
Ġthom asĠ
a ver
i etĠ
o ardĠ
us ually
Ġf oot
sĠof Ġour
eĠw alk
eĠc los
Ġpro tein
her eĠtoĠ
Ġcont roll
.Ġin Ġfact
Ġunder standĠ
ĠaĠlo cal
Ġcertain lyĠ
instit ut
! Ġw
d d
i Ġwill
p u
v ailable
on e-
ing ĠwhatĠ
it .
.Ġ notĠ
Ġw ritten
Ġd escrib
ak istan
e,Ġ youĠcan
ĠtheĠs al
eĠc ours
work Ġon
Ġaf fectĠ
way sĠtoĠ
ĠtheĠn umber
Ġthey âĢĻr
Ġav enu
Ġman ual
att ack
Ġdi rectĠ
employ mentĠ
chi ev
unn el
Ġpartner ship
vict im
) Ġor
l es,Ġ
ing ,Ġand
st air
Ġm eal
Ġb rother
Ġin struction
ill ow
enc eĠandĠ
ea red
ĠtheĠc ityĠ
sp e
Ġex hib
ĠtheĠp ark
Ġ( $
ne ither
Ġun ion
ord inaryĠ
Ġres olution
ext ension
ĠtheĠworld âĢĻsĠ
hous eĠ
Ġposs ibleĠ
Ġdom ain
el ectĠ
ac adem
ul ationĠof
eĠth eĠin
res idenc
eĠt ru
e,Ġ h
Ġad am
som eĠs
eĠfor Ġyou
pres identĠ
Ġthrough outĠ
ingĠd is
eĠg reatĠ
rest aurantĠ
Ġaud ioĠ
ĠtheĠbas ic
embr ac
- fre
c ancer
f ection
g oldĠ
es al
ch ines
esĠ d
im on
eĠt reat
est r
Ġst yl
eĠw er
Ġad ultĠ
vi dĠ
Ġag eĠ
ĠaĠ "
ire lessĠ
ĠaĠd is
esp iteĠ
te en
Ġfl ower
valu ableĠ
Ġaltern ativ
0 3
f a
f aith
g iftĠ
y rightĠ
à ´
Ġ establish
an i
Ġs iteĠ
isĠ not
if ier
Ġn oth
Ġl ayer
Ġcon ven
Ġab us
ingĠd ay
log g
a qu
b en
j ud
m artĠ
u is
w ent
sĠ whereĠ
Ġs chem
Ġs leep
ac yĠ
Ġto Ġthem
Ġl unch
ateĠ your
olog y,Ġ
Ġqu it
riv ileg
requ ires
Ġgr and
creat eĠ
Ġph otoĠ
Ġvol unteer
) Ġis
b ound
f ashion
at ientĠ
Ġw rot
esĠ suchĠasĠ
eĠth ingsĠ
out stand
eĠd at
Ġcom pos
e. ĠandĠ
eas y
eĠsh ipp
wayĠ from
count ryĠ
known Ġfor
hel d
' sĠin
Ġa id
.Ġ ^
ĠandĠ wasĠ
Ġf ram
Ġof ĠtheĠd
eĠs erv
bu st
eĠa ĠlotĠof
Ġr ub
we âĢĻll
we âĢĻreĠ
se eĠtheĠ
reg ulator
was ĠtheĠ
becaus eĠitĠ
unction al
eful lyĠ
Ġcreat iveĠ
sec ret
f ear
h arm
Ù Ħ
Ġc itizen
ed ĠaĠb
ch icken
Ġh am
Ġd e
Ġf abric
e,Ġ soĠ
str ang
sc ri
Ġres ultĠ
Ġtem por
eĠcr usher
q l
Ġ ep
on ,Ġ
al ifornia
Ġs oftwar
ut yĠ
Ġst ainlessĠsteel
eĠc olor
Ġex pos
work ingĠwith
ingĠin Ġ
mon t
know Ġhow
sĠfrom Ġ
att ention
ingĠf ac
Ġim plement
dec ad
ram atic
cor n
cor porat
ush ion
Ġappro val
Ġsal esĠ
sign ificantĠ
Ġsm art
illust rat
7 00
e âĢĻsĠa
w inn
Ġa sh
in Ġwhich
sĠ youĠcan
al anc
Ġc ivil
th an
Ġw oodĠ
Ġn ation
our selv
s.Ġ s
eĠc ertain
Ġr ank
ingĠin formation
ph otos
ann ual
exp ectĠ
Ġteam Ġof
pay ment
ĠtheĠsc en
Ġvol um
vill ag
c loth
f ocusĠon
t v
w estern
Ġc ounter
ĠandĠ mor
Ġp ull
esĠ lik
ig g
con ver
ess el
ĠtheĠp ict
eĠh ereĠ
sĠon Ġyour
,Ġi Ġam
ident ifyĠ
Ġlook Ġat
ĠaĠr ang
3 60
n Ġ
Ġt old
sĠ l
Ġan im
Ġc ast
for eign
Ġp ayĠ
ed ĠtheĠd
ro bertĠ
per iodĠ
eĠon lyĠ
,Ġh igh
gl ass
!! !!
edĠup on
ĠtheĠfact ĠthatĠ
Ġdefin itelyĠ
p g
p oor
u i
Ġa Ġstrong
Ġw ideĠ
ac qu
Ġr ain
Ġsh ower
Ġtim eĠto
ug gleĠ
back ĠtoĠ
gu ard
conc ent
Ġpres identĠ
lastĠ week
Ġunivers ity
Ġindust rial
rout in
6 8
9 00
: Ġi
us pect
Ġin fluenc
un lessĠ
Ġal umin
etĠ up
ef fortĠ
Ġr oundĠ
tĠof f
sp eed
av a
oll ection
ingĠs olution
ĠtheĠh otel
ĠaĠc all
ingĠd i
sĠto gether
Ġthank sĠtoĠ
ward ĠtoĠ
Ġcons erv
Ġcli entĠ
Ġinvest mentĠ
Ġself -
st unn
st retch
Ġw estern
Ġb road
Ġand roidĠ
ĠtheĠs eason
Ġap artĠ
when ĠtheyĠ
Ġbe havior
ific at
ann ounc
Ġart istĠ
just ic
Ġim mediat
Ġreg ulation
direct ly
Ġchap ter
c aseĠ
d ish
en Ġ
ĠtheĠ v
ĠtheĠ âĢľ
al ong
Ġc ameĠ
ĠandĠ sh
ay lor
ut ton
e.Ġ youĠcan
est yleĠ
anc ell
haveĠ you
Ġsh o
su itĠ
Ġis rael
eĠon lin
conf igur
Ġinvest ment
conv inc
, Ġar
d ifferenc
o op
sĠ it
er 'sĠ
,Ġ byĠ
ed ĠaĠp
if ĠitĠ
ell a
Ġind ex
befor eĠtheĠ
lov elyĠ
ivor c
d oubt
e âĢĶ
eĠ aboutĠ
re vers
st ak
ĠtoĠ br
Ġf ather
Ġn atur
ĠthatĠ hasĠ
eĠs eem
Ġwh om
ĠtheĠs ummer
eĠc am
eĠd ifferentĠ
ĠtheĠf l
eĠp ost
Ġper Ġc
itsĠ own
sĠwith outĠ
Ġhigh lyĠ
hear tĠ
Ġcr usher
Ġfound ation
Ġcontract or
f an
r istĠ
sĠ show
st rip
Ġp ol
esĠ âĢĵ
ig ator
ingĠ strateg
eĠth os
os c
pro tein
eĠm uch
eĠb estĠ
av id
ĠaboutĠ your
ext ensiveĠ
sup pos
Ġcar ri
Ġorgan ic
bur gh
Ġfron t
Ġfron tĠ
ĠyearsĠ old
Ġlim it
m el
in yĠ
ĠandĠ un
ol iveĠ
ingĠ âĢĵ
Ġst ream
Ġas id
Ġj apan
Ġatt itud
rad ioĠ
ĠtheĠpre viousĠ
a ug
b rown
p rivat
u sĠof
eĠ ad
,Ġ inc
Ġs il
Ġm ostĠof
Ġb ul
im ulation
Ġall Ġ
eĠd eliver
ĠtheĠm arketĠ
es,Ġ or
ful fill
ĠtheĠh elp
willĠb eĠa
Ġh um
Ġd am
ingĠ outĠof
Ġall -
her it
iesĠ with
e. ĠtheyĠ
Ġpl ug
Ġper hap
car bon
eĠcan ĠbeĠ
Ġover ĠtheĠ
eu ro
sk i
Ġexc ellentĠ
Ġpay mentĠ
andid atesĠ
edic atedĠ
g ent
p il
Ġw inn
Ġin Ġc
ea ster
Ġcon duct
ĠtheĠb ank
ureĠ and
includ ingĠ
Ġop inion
ead lin
becaus eĠtheyĠ
Ġph otos
Ġcomm itment
eĠsh op
eĠsom e
cent ur
heĠ hasĠ
sor tĠof
Ġflor ida
gor ith
! ĠthisĠ
( s
. Ġtheir
e ersĠ
h eĠisĠ
w inter
Ġt argetĠ
on ĠmyĠ
Ġm aintain
ation Ġwith
if th
eĠs ett
Ġon Ġs
eĠf und
Ġ( c
int ellig
requ estĠ
Ġcas inoĠ
Ġmus eum
olym pic
d octor
f ram
s ecur
on Ġa
est ĠandĠ
Ġst eel
ĠasĠ long
Ġact or
conf ig
sm ith
hon or
Ġright sĠ
itiat iv
o dĠof
Ġth in
ou redĠ
it ableĠ
Ġb urn
Ġf ear
Ġon ĠthisĠ
Ġex ter
comp at
ure ment
Ġus edĠ
such ĠasĠa
att le
Ġactiv ity
evalu ation
Ġland scap
- on
p etĠ
Ġ river
or ient
ch ees
Ġd ivers
ill a
ag ic
ĠthatĠ weĠ
and a
eĠp ower
ĠtheĠd ifferenc
y,Ġ butĠ
rem ind
Ġcont ribut
plac e.Ġ
Ġover all
cal ifornia
what âĢĻsĠ
Ġtherefor e,Ġ
Ġwindow sĠ
kind sĠof
ingu ish
c ity
it ĠandĠ
.Ġ &
Ġs uggest
Ġp ositiveĠ
ch or
Ġm ess
âĢĻ sĠtheĠ
Ġal ign
Ġre fl
ant lyĠ
cl imb
get ĠtheĠ
ric ulum
Ġqu ot
peopleĠ whoĠ
Ġform at
great er
Ġoc toberĠ
edicat edĠtoĠ
. ĠthatâĢĻsĠ
c raftĠ
f urnit
s f
.Ġ is
es Ġat
Ġm ax
ol er
eĠth re
Ġre venu
enc y
rec ruit
everyĠ day
te ch
feat ur
Ġpass ion
eĠsup port
Ġprim aryĠ
sĠ provid
ed :
Ġd anc
im pression
em ark
ir ish
s.Ġ however
eĠm ember
Ġcan 'tĠ
ult imatelyĠ
Ġsp eed
fl amm
Ġatt raction
Ġart ic
ĠitsĠ own
ĠaĠlo t
mar ch
ious ly
fig ureĠ
- dayĠ
s Ġthem
Ġt u
sĠ âĢĶ
.Ġ other
.Ġ both
Ġand ĠtheyĠ
eĠs id
gr ab
eĠa f
Ġper fect
go ingĠto
Ġthan ĠtheĠ
Ġtak eĠtheĠ
ĠanĠ open
ed,Ġ butĠ
ĠaĠh and
Ġalway s
consider edĠ
organ is
Ġmanag er
dist ribut
oph istic
did n'tĠ
arch Ġ
ĠtheĠmon th
perhap sĠ
c ak
m otiv
Ġ economic
eĠc enter
str uggl
ure .
ĠtheĠh ealth
Ġcomp onent
ingĠc ar
.ĠifĠyou ĠhaveĠ
nes s,Ġ
yn d
Ġsign al
Ġadvis or
" Ġ
Ġ ec
Ġc a
ĠandĠ her
Ġd inner
Ġf ederal
eĠof Ġtheir
Ġst ayĠ
Ġr ul
sĠareĠ availableĠ
eĠis ĠtheĠ
Ġmed icin
Ġvis ual
Ġunderstand ingĠof
ĠareasĠ of
ã Ģ
Ġt ough
on to
,Ġ not
Ġw onderful
ol our
Ġof Ġh
eĠt est
Ġre public
ĠtheĠf il
ra re
ass ess
Ġacc eler
stat istic
includ eĠ
Ġph il
just ĠasĠ
itiesĠ in
Ġway ĠtoĠ
adv antageĠof
regardles sĠof
ellect ual
b edroom
c i
c ounter
l unch
sĠ n
for Ġall
Ġp air
you th
Ġin suranceĠ
os eph
Ġn urs
Ġr am
can notĠ
s. Ġa
Ġsp ot
Ġtrans lation
high Ġschool
Ġsur ger
ĠthankĠyou Ġfor
esth etic
c el
y on
Ġ e
ing Ġhom
Ġs even
is it
Ġp rivateĠ
Ġf ast
ad o
ex clusiveĠ
itĠ hasĠ
igh bour
ong o
e. Ġafter
ĠaĠb itĠof
eĠwith outĠ
Ġro adĠ
sĠd esign
ser iesĠ
Ġprovid es
choos eĠfrom
appl ic
rand om
Ġexecut iveĠ
h r
s even
v as
z ip
er ship
es âĢĻ
Ġb adĠ
ur eĠfor
Ġof Ġthem
iv e-
ens eĠof
ingĠa sĠa
ingĠa rea
pres ident
rit ain
Ġcount ryĠ
christ mas
Ġaren âĢĻtĠ
" th
. ĠalsoĠ
el yĠandĠ
Ġd ivision
Ġl istĠof
eĠt ool
e.Ġ itĠisĠ
eĠc lear
ĠtheĠp urpos
look sĠ
ĠtheĠg lobal
los s
di agnos
med iateĠ
effect ivelyĠ
Ġeas ier
exact ly
88 8
c ourt
e i
e âĢĻs
f ight
s urround
Ġw ir
ch ip
Ġyou ĠmayĠ
int ens
br id
ĠaĠd ay
ath olic
Ġlik elyĠ
Ġpre viousĠ
writ er
Ġ ip
et ch
Ġof Ġall
sĠof ten
s>Ġ<s> Ġour
pr oĠ
Ġlo ad
sĠtoĠ help
sit eĠ
sĠthatĠ you
getĠ in
Ġrec ordĠ
ock etĠ
onc eĠyou
someth ing
ociat edĠwith
refer red
Ġenvironment al
necessar yĠtoĠ
l istĠof
p olitical
Ġth read
ing /
,Ġ will
Ġc at
Ġc art
el leĠ
Ġb and
con duc
Ġcom pared
we al
Ġj udg
man n
ĠtheseĠ areĠ
Ġappl ianc
hol ster
committ edĠtoĠ
particip at
5 1
f eed
p p
x ic
Ġc ardĠ
Ġc ris
ĠandĠ re
Ġp in
Ġb eaut
e.Ġ when
Ġch ees
ies .ĠtheĠ
cont ractĠ
Ġsp ect
.Ġm ay
Ġtrans mission
no is
ĠanĠin creas
eĠasĠ well
Ġdecid edĠtoĠ
c ad
f li
o om
p attern
om ic
for wardĠ
Ġp ot
ed ĠaĠc
Ġin ĠhisĠ
ation sĠandĠ
ab outĠtheĠ
notĠ justĠ
Ġ( or
Ġwill iam
under st
eĠsp ec
ocial Ġmedia
augh t
iti ativeĠ
5 3
ing s
Ġm ap
Ġb udget
Ġd imension
ur tĠ
Ġto ĠtakeĠ
ul pt
con stitution
Ġi i
comp ens
fl avor
eĠyou Ġwith
Ġhow Ġmuch
Ġro b
te am
Ġtoday âĢĻsĠ
rup tion
origin allyĠ
Ù İ
Ġs ilver
ch a
as m
Ġh ab
ingĠ &
ha k
ha re
pl ain
enc eĠin
cl ip
Ġr h
ang el
Ġtim eĠi
Ġam end
arg in
aw n
ĠaĠh ealth
Ġlik eĠtoĠ
nes sĠof
Ġreal iz
sm art
Ġproc eed
independ entĠ
gorith m
, ĠanĠ
6 7
b roughtĠ
w onâĢĻtĠ
in ĠtheĠc
ing ĠaroundĠ
com eĠup
pro x
sĠandĠ servic
form atĠ
ra id
ĠtheĠd etail
e. Ġa
comm and
fin ally
bas edĠ
Ġy et
nes s.Ġ
Ġachi eveĠth
Ġholid ayĠ
, ĠaĠp
b at
b roken
t urn
er Ġor
Ġw ind
Ġw oman
ĠtoĠ hisĠ
Ġm enu
Ġb ad
ent in
ol idĠ
ingĠ un
Ġl andĠ
Ġand ĠtheĠc
sĠandĠ d
comp rehensiveĠ
man ual
ersĠ wereĠ
Ġtechn ician
Ġcommun ities
.Ġit âĢĻsĠa
Ġgl as
constant lyĠ
oog le
% ,
Ġ er
sĠ later
st uck
Ġw ednesday
ĠtoĠ $
esĠ onĠtheĠ
eĠt each
eĠd ist
som eĠofĠtheĠ
ll c
mad eĠa
Ġcar olina
net ic
eĠmor eĠthan
ĠtoĠmak eĠa
Ġwant Ġto
eĠtheĠf irstĠ
eĠcl ass
raz il
Ġgreat er
enth usi
agr aph
e or
h ou
ing Ġcan
rom antic
art icleĠ
cl ar
ea u
eĠf ull
year sĠof
Ġtim es.Ġ
yĠof fer
Ġres idenc
look Ġat
Ġher e.Ġ
Ġgr ant
eĠl ong
high estĠ
complet eĠ
Ġtechnolog y
appl i
f riendĠ
on Ġtheir
th ink
is ĠalsoĠ
le y,Ġ
Ġd estination
us ,Ġ
ea per
Ġpro gres
eĠb etter
edĠin ĠthisĠ
Ġsh ad
edĠfor Ġ
Ġart ificial
ĠaĠh alf
.Ġw eĠcan
Ġcount yĠ
sm ok
most lyĠ
, ĠaĠc
i Ġknow
Ġa Ġmor
or ang
om ain
ro veĠ
ro leĠof
Ġm el
Ġin ĠtheĠc
ri a
Ġch ines
ub ject
ĠtheĠh uman
Ġcont ribution
sĠthatĠ will
ingĠfor ĠtheĠ
Ġinter action
ingĠto ol
sm ooth
Ġproc ess.Ġ
ĠtheĠsp ac
Ġmov ement
5 4
b m
c oĠ
i âĢĻveĠ
or dĠof
ing s.
ig en
Ġand Ġan
eĠp iec
so ĠthatĠ
sc rib
fl ash
ire mentĠ
,Ġs inc
eĠis su
offer sĠ
Ġcam era
eĠmin ister
Ġsqu ar
Ġtex asĠ
mosp her
5 2
s Ġan
t ri
Ġp remium
Ġd ig
Ġf ellow
Ġv it
eĠb usinessĠ
even Ġmor
eĠisĠ notĠ
Ġaccess ibleĠ
unn yĠ
sĠac c
Ġoper at
havi our
pur su
e ez
l id
Ġ Î
Ġ ear
Ġ equipment
ing .ĠthisĠ
ic ro
sĠof Ġall
gr ain
se eĠhow
su red
ersĠ or
ingĠa fter
ure lyĠ
Ġpres sur
eĠsom eĠof
Ġimag in
f ly
f itt
n ap
Ġ earn
for ĠthisĠ
Ġp oll
Ġp ush
le mon
eĠt oldĠ
ri dĠof
up ĠandĠ
s,Ġ suchĠasĠ
Ġst oryĠ
be ingĠs
we âĢĻr
e. Ġall
Ġit sĠs
Ġthes eĠc
but ĠtheĠ
rel ativelyĠ
Ġallow sĠ
gl ad
ott ish
Ġmil it
Ġconf irm
sĠap p
instit ution
, Ġat
Ġt ack
in com
in Ġaddition
en omen
ĠtoĠ chang
Ġd oubleĠ
ingĠ option
Ġg aveĠ
Ġad mission
ĠhaveĠ theĠ
get sĠ
bo ot
mayĠ notĠ
may beĠ
Ġinstall ation
norm allyĠ
entire lyĠ
f oot
j ul
k el
s and
it 's
st res
ic hael
Ġb en
us es
Ġfor ĠthisĠ
Ġfor um
gh an
can âĢĻtĠ
ateĠ on
ingĠa gain
but ter
atedĠ from
edĠs ervic
ask et
Ġtrav ell
Ġhim self
eĠat ĠtheĠ
Ġgraph ic
f ront
p as
.Ġ -
.Ġ oneĠof
Ġw eather
Ġp il
le w
entĠ with
ĠasĠ weĠ
we 'll
ĠtheĠf ederal
edĠb as
work sĠ
âĢĿ ĠandĠ
ĠaĠb ook
know ĠthatĠ
Ġse e
Ġmak eĠ
compan yâĢĻsĠ
issu esĠ
Ġalong sid
invest or
Ġattract iveĠ
pred ict
s chedul
Ġ Ø
Ġt all
is a
s.Ġ on
ĠtheĠm aterial
eĠh our
eg ypt
sĠs inc
ĠaĠw ell
dep th
liveĠ in
function al
Ġless Ġthan
Ġvict or
8 9
c d
d oubleĠ
p ol
w arn
Ġs a
Ġw a
Ġb ed
ent ĠandĠ
Ġg ather
eĠt ravel
con clud
iv ityĠ
pr act
edĠb elow
urn ish
pa id
everyth ingĠ
eĠmon eyĠ
__ __
Ġcomfort ableĠ
Ġtran spar
p sĠ
Ġ >
,Ġ her
Ġm ental
im it
un ableĠtoĠ
um entsĠ
ap prov
anc el
sĠin volv
eĠa ir
Ġcon versation
Ġab sorb
ies ,ĠandĠ
br ight
help sĠ
Ġgu arante
mustĠ beĠ
Ġveg et
s r
Ġ electric
.Ġ new
esĠ your
Ġin form
Ġyou ĠneedĠtoĠ
eĠs mall
other ap
work ingĠon
red it
ous ly
Ġne edĠto
ari o
valu eĠof
Ġvis itĠ
Ġaug ust
Ġfut ur
Ġwhol eĠ
ensen ,Ġj
* *
. Ġto
b and
m ess
p atch
t woĠ
y ĠatĠ
y es,Ġ
Ġa Ġk
Ġf olk
im ental
lo ver
res p
Ġn ature
ot iveĠ
s,Ġ etc
pr on
Ġas ĠanĠ
edĠb etween
ult imateĠ
mor e,Ġ
comm itment
Ġservic es.Ġ
organ isation
continu esĠtoĠ
Ġsur pris
Ġindust ry
depend ingĠon
icag oĠ
ĠtheĠhear tĠof
i ĠhadĠ
j unction
m b
s weet
Ġs ent
Ġh it
ingĠ v
Ġof Ġg
ri es
up Ġwith
e.Ġ âĢľ
eĠm od
Ġab str
ies ,
eĠf un
Ġinst eadĠof
feat ure
special iz
ref us
inf rastruct
Ġed ition
mus eum
Ġaspect sĠof
Ġpropos al
g old
k it
ed .ĠthisĠ
ch and
Ġf rench
eĠs et
s,Ġ you
out lin
od g
se al
sid eĠof
ric an
,Ġw eĠcan
curr ently
met ic
elf -
ers âĢĻ
Ġoc cur
imm un
ref resh
ĠtheĠsc reen
decid edĠtoĠ
Ġzeal and
h at
n in
Ġ ros
Ġ idea
in ĠhisĠ
sĠ now
ing ham
al i
Ġw ent
am el
os ystem
pro ven
.ĠtheĠ firstĠ
sĠin Ġour
Ġch eap
edĠb ecaus
ingĠa Ġb
ord an
rem is
eĠsh ar
Ġair Ġcondition
Ġaround ĠtheĠworld
expect edĠ
pay mentĠ
required ĠtoĠ
Ġexpert is
Ġindepend entĠ
h l
yĠ wasĠ
al esĠ
Ġs ecur
for Ġour
Ġf uel
ur a
et a
lo op
eĠs am
port fol
ĠtheĠt otal
ia h
str ain
,Ġi âĢĻm
cap ac
recommend ation
m istak
n eck
s enior
Ð º
Ġt abl
en roll
ĠtheĠ work
ic ateĠ
Ġs or
Ġs of
Ġp ump
ir eĠtoĠ
eĠin creas
Ġac quir
Ġr is
Ġis ĠanĠ
commun icat
ugg estion
ĠtoĠhelp Ġyou
profess ion
conven ienc
Ġcurr entlyĠ
ĠaĠrang eĠof
k m
l ed
eĠ butĠ
Ġa Ġplac
es Ġall
Ġw is
Ġw eĠwill
with ĠthisĠ
sh ift
Ġon ĠmyĠ
ĠtheĠf re
ĠtheĠf loor
Ġsh ipp
fl ag
ĠaĠg u
Ġqu arter
stud iesĠ
,Ġyou âĢĻll
remov al
conven ient
. ;
l uc
Ġt ill
ac rific
Ġf ootball
sĠin d
ust er
eĠf riend
when ĠitĠcomesĠtoĠ
br ush
Ġother wis
Ġinf rastruct
.l .m
) ĠtoĠ
. g
? ĠtheĠ
d ial
on eĠthatĠ
.Ġ well
ed en
Ġm ail
Ġf light
res id
um bl
e.Ġ "
eĠp ass
mak er
oll ect
s, ĠthisĠ
Ġinter fac
Ġart work
Ġim m
,ĠitĠ wasĠ
ecess aryĠ
beginn ingĠof
Ġbusin ess.Ġ
Ġthurs dayĠ
ĠtheĠdep artmentĠof
d anc
p astĠ
r Ġ
oĠ isĠ
ic atedĠ
Ġp up
Ġp df
Ġp opulation
eĠin f
Ġtim eĠyou
ingĠs kill
inter pret
und redĠ
exp lo
Ġy ard
Ġbec am
Ġstor ag
Ġmember ship
-in -
Ġexc ell
makesĠ itĠ
exper tĠ
1 10
b ik
l b
w ideĠ
in Ġc
ou dĠof
Ġs pl
Ġw est
Ġh ir
esĠ is
sĠin ĠthisĠ
ĠtheĠf amil
Ġi rel
e. ĠasĠ
âĢĿ Ġ(
vers atil
rit or
ĠtheĠn ation
mon dĠ
dec reas
Ġacros sĠ
Ġarriv al
ĠanĠext ra
equipp edĠwith
, ĠasĠa
a Ġl
s yl
in Ġd
it !
edĠ âĢľ
ro otĠ
Ġb us
ha z
ut ual
pl ication
all eryĠ
sĠtoĠ your
sĠareĠ a
dis playĠ
stor yĠof
ru leĠ
pric eĠ
ibil ities
vari et
ĠanĠin t
strateg ic
sha re
-tim eĠ
illust ration
Ġprinc ip
. Ġadd
f antastic
Ġ eat
Ġ enterpris
,Ġ hisĠ
Ġs ecurity
Ġm exic
Ġg un
ever Ġyou
sĠtoĠ mak
can ada
Ġit âĢĻsĠa
mak ing
Ġpr actical
ĠtheĠn or
eĠg oodĠ
Ġreg ional
Ġreg istration
ĠdoĠ i
install ation
Ġleg is
onĠtheĠother Ġhand
j ac
j apanes
n umerousĠ
.Ġ whyĠ
Ġs impl
ĠandĠ getĠ
Ġp riz
Ġm ost
ur d
Ġal p
sp ic
ob ama
esĠof Ġ
Ġwork Ġwith
ingĠd ata
Ġask edĠ
perform anceĠ
acter ia
receiv edĠ
wall paper
f eltĠ
j uneĠ
l ord
ing Ġwhen
.Ġ *
is cal
ĠtoĠ ensur
ent ry
un tĠ
ir r
ir tyĠ
and on
Ġwh iteĠ
iz er
sĠon Ġ
pris on
icip al
goingĠtoĠ beĠ
Ġdist rict
. Ġthat
m ok
p anel
Ġa idĠ
Ġa pril
sĠ if
es sĠa
for Ġtheir
Ġp ound
Ġp rivac
Ġof Ġl
com eĠin
pro p
up dateĠ
per mission
ens eĠ
ne edĠto
youĠcan Ġse
ĠaĠm uch
Ġfin allyĠ
vir ginia
Ġdec ad
war rant
right ĠtoĠ
class room
ĠaĠlarg eĠ
ĠtheĠgovern ment
âĨ ĳ
g olf
Ġt ro
Ġt reas
sĠ whil
sĠ hadĠ
ing Ġwill
be atĠ
ĠtheĠb ar
cont emporaryĠ
mor eĠs
Ġit âĢĻs
plac eĠin
sĠthatĠ haveĠ
ĠaĠg ood
rel ated
ityĠof ĠtheĠ
18 6
18 9
ĠaĠn ic
ĠbutĠ i
i- fi
invest ment
unitedĠstat esĠ
, Ġthat
f c
f olk
r ationĠof
u itĠ
on es
Ġp oly
Ġh ot
ol i
Ġf ieldĠ
Ġf ridayĠ
leĠ to
ad minist
Ġg old
pro s
eĠandĠ i
sel ection
ph ereĠ
ingĠm aterial
ath an
Ġgr am
Ġtrans portĠ
med ium
Ġbu ildĠ
Ġair portĠ
hear d
lam ic
izz a
weal th
. ĠanĠ
e asĠ
k eeper
n urs
Ġa head
in er
on yĠ
es ĠasĠa
ĠandĠ v
Ġb ott
am ount
Ġfor Ġtheir
oc cer
eĠm ain
eĠp urchas
sp ark
ib l
ĠtheĠd em
ĠtheĠw indow
Ġpr ison
wouldĠ you
Ġtrans formation
ĠwouldĠ haveĠ
Ġbr idg
Ġweb Ġsit
never th
vert ical
Ġarrang ement
Ġdoes nâĢĻtĠ
. ĠaĠs
b ird
it le
ĠandĠ hasĠ
Ġp aul
Ġfor Ġour
ĠtheĠm anyĠ
rec ycl
we igh
Ġcan notĠ
str ict
Ġatt ribut
co ast
eĠl astĠ
inst ead
Ġair lin
Ġfl avor
proc ess.Ġ
Ġtalk ĠaboutĠ
Ġant iqu
spec ificallyĠ
Ġtoward sĠ
, ĠalongĠwith
7 9
j esusĠ
k il
o at
Ġ ingredient
el der
lo tt
com pris
eĠs iz
Ġwh y
Ġon Ġour
sĠin Ġtheir
ĠisĠ oneĠof
s. ĠandĠ
eas il
inc tĠ
comm onlyĠ
Ġthes eĠb
ĠtheĠh ol
Ġamaz ingĠ
rok er
deal Ġwith
Ġlarg eĠ
eĠthes eĠ
l c
r s
st ain
for Ġus
ul ateĠ
ha redĠ
ri es.Ġ
sh ock
sh irt
Ġst rip
ies Ġand
ĠtheĠd ef
ĠtheĠw ordĠ
Ġper mission
ĠtwoĠ of
.Ġyou ĠareĠ
des k
ĠtheĠsit uation
sim ple
Ġanc ientĠ
h itĠ
u eĠto
Ġ earlyĠ
or i
ing ;
it a
.Ġ of
Ġs endĠ
Ġp romis
Ġto ĠavoidĠ
Ġre lax
e,Ġ d
ĠasĠ h
bu ff
Ġ( t
edĠwith in
edĠto gether
,ĠbutĠ itĠ
att end
jour ne
Ġdu eĠtoĠ
anal ys
legis lation
, ĠaĠ
m illion
p ip
Ġ ev
en âĢĻtĠ
ing ful
ing ĠmoreĠ
it ely
,Ġ suchĠasĠ
,Ġ weĠhaveĠ
ic ated
if er
ex ampleĠ
res ort
Ġn earlyĠ
ear l
ĠtheĠl and
co al
unc t
Ġinst anc
ĠtoĠm aintain
sĠab outĠtheĠ
,Ġbut ĠtheĠ
Ġtru eĠ
sĠac ross
Ġent ertain
Ġbal anc
Ġcert ification
iceĠc ream
) Ġfor
o idĠ
y leĠof
sĠ regard
en ess
ing sĠareĠ
it 'sĠa
th ew
ro ch
am era
ingĠ other
res cu
ut ral
Ġv ent
edĠtoĠ b
Ġj an
eg el
Ġsp e
ĠtheĠg oodĠ
,Ġw eĠwill
Ġdec ember
.Ġf ollow
prov inc
grat eful
Ġdat abas
Ġassess ment
( or
, ĠthereĠareĠ
. j
m otor
n ail
Ġ elect
in ess
ĠandĠ mak
is .Ġ
Ġto ĠanyĠ
ĠthatĠ sh
e.Ġ d
e,Ġ c
ant as
ĠtheĠc ostĠof
ĠtheĠp olic
e- up
aw ar
eĠsh all
ĠavailableĠ toĠ
ĠallĠof Ġyour
umn i
, ĠaĠf
. ĠthanksĠfor
b il
l amp
eĠ whereĠ
Ġt reatĠ
sĠ back
it ,Ġ
es /
is an
ed in
Ġin ĠtheĠb
eĠt oo
Ġj am
Ġis ĠaĠp
Ġ( âĢľ
ass ist
som eĠp
ing,Ġ or
Ġtrans lat
Ġdi et
Ġpre -
never Ġbeen
Ġco ast
liv ingĠin
ju lyĠ
Ġholid ay
Ġalread y
. Ġal
b andĠ
s oftwar
Ġ util
on toĠ
an z
al dĠ
el ong
im per
eĠs ection
qu iet
be er
ĠtheĠs iz
s>Ġ<s> Ġd
edĠtoĠ your
eĠb elow
eĠf ind
Ġis ĠaĠs
Ġle adĠ
oneĠ with
e, ĠthisĠ
Ġpr intĠ
veryĠ well
ĠtheĠl iv
provid edĠ
wouldĠ haveĠ
pre p
,Ġc all
e! Ġi
Ġmed ium
Ġfl u
spect iv
nov el
reli ef
Ġcombin ationĠof
ednes dayĠ
ĠtheĠfin ancial
princip al
a e
f ederal
k at
w ild
Ġ emb
.Ġ keep
eĠs earch
.ĠtheĠ new
and ĠtheĠ
eĠm aterial
Ġch anc
Ġap ple
s. Ġafter
ingĠc ost
ru le
Ġdon âĢĻt
Ġbeh indĠ
innov ativeĠ
d os
n as
v a
v c
Ġt ar
Ġt issu
on .Ġ
on est
ing Ġcompan
ĠandĠ is
Ġb uck
ad vis
Ġto Ġan
our ish
eĠt ell
eĠt rad
pro b
eĠof Ġa
ĠtheĠd at
ass ociation
Ġpl us
ingĠin dust
Ġup Ġwith
eĠtheĠs am
Ġquick lyĠ
b b
Ġ importantĠ
Ġ episod
an th
an imal
Ġs low
ĠtoĠ haveĠa
ro vers
Ġb loodĠ
eĠt op
ĠtheĠs ign
eĠb ar
work Ġin
Ġam en
lik eĠto
ingĠs uch
Ġper iodĠof
sĠon lin
ĠtheĠn ext
imp actĠof
hav ingĠtoĠ
sĠar oundĠ
Ġco -
Ġbas eball
impro veĠth
evalu at
ĠaĠwideĠ rangeĠof
Ġanx iet
b ak
o a
Ġa go
re action
.Ġ call
Ġw ash
Ġf actĠ
Ġar is
ab el
Ġl b
ĠthatĠ in
con gres
eĠm odel
ĠtheĠp otential
ĠtheĠt rain
s, Ġthen
chang esĠ
ĠtwoĠ week
cr ucial
canĠb eĠa
Ġexact lyĠ
, ĠaĠm
s eparat
,Ġ whileĠ
ec ast
Ġin Ġmind
Ġg as
ĠisĠ now
Ġtim eĠof
Ġthes eĠday
Ġres idential
Ġbe ingĠa
every dayĠ
whil eĠtheĠ
leg end
eĠor gan
ĠtoĠs aveĠ
Ġinst agram
,ĠitĠ is
ww .
particip ateĠin
Ġnov ember
Ġassist antĠ
ĠthreeĠ year
libr aryĠ
oppos it
Ġrather Ġthan
. ĠanyĠ
e ans
l es.Ġ
p sych
p df
r il
ĠtoĠ show
ed ĠtheĠf
Ġf requ
e.Ġ with
est yle
eĠf irstĠ
kin dĠ
Ġtechnolog iesĠ
ĠtoĠmak eĠ
buil der
-in ch
optim iz
Ġthreat en
entryĠwasĠpost edĠin
( s)
- g
o em
x Ġ
.Ġ manyĠ
es ĠandĠtheĠ
ed ĠaĠf
Ġh ensen,Ġj
Ġon Ġa
Ġon eĠofĠtheĠ
eĠd eal
Ġsh or
int ag
Ġthis ĠarticleĠ
ingĠd esign
long -term
eĠan y
14 0
involv edĠin
Ġrad ioĠ
Ġaccommod ation
eĠinterest edĠin
makeĠsureĠ you
, ĠaĠb
6 3
,Ġ us
eĠc ustom
eĠc lean
Ġat ĠthisĠ
eĠp leas
Ġher it
ĠaĠl ow
Ġmak eĠyour
Ġwe ight
ram a
web Ġsit
Ġpre vent
ĠwhoĠ isĠ
Ġser ies
impactĠ on
incor porat
ageĠd oor
-friend lyĠ
% Ġoff
1 30
d ress
h eav
Ġs afetyĠ
is landĠ
ur eĠthatĠ
Ġg iftĠ
s.Ġ m
own ersĠ
Ġad equ
ĠtheĠf rontĠ
int ention
Ġcont ractĠ
Ġtop Ġof
eĠsp eak
Ġcli entsĠ
Ġoc casion
regular lyĠ
Ġapprec iateĠ
restr ict
w esom
al on
ĠandĠ even
for est
Ġis landĠ
.Ġi Ġknow
ĠitĠ will
,Ġi ĠwasĠ
abil ityĠandĠ
eĠfrom Ġ
isc oĠ
Ġdist ribution
Ġinvest or
eĠdec id
p ump
s ister
it ?
op her
asĠ of
per cent
oc tober
rec eption
Ġj esusĠ
ĠtheĠp ost
ĠtheĠp oss
ĠaĠl istĠof
,Ġs ay
ingĠwith ĠtheĠ
commun ities
Ġtrain ing
eĠsp ecific
Ġtechnolog y,Ġ
Ġbut ter
Ġconc ret
eĠind ividual
Ġhon or
exter ior
obl igation
" ĠandĠ
p ed
w eĠs
Ð »
en ,Ġ
th -
ingĠ usĠ
sh oulder
ĠtheĠs ea
ĠtheĠs kin
Ġat ĠtheĠc
Ġr ap
notĠ only
sp entĠ
rat edĠ
stud io
Ġcl oudĠ
everyĠ year
ures ĠandĠ
mayĠ b
exper iment
Ġmag azin
flor ida
Ġcompar ison
syl van
d ry
e esĠ
i )
or a
ing Ġprocess
Ġc ounsel
Ġin Ġd
ab yĠ
with Ġm
e.Ġ however
ity .
Ġex pression
s. ĠasĠ
eas ily
rem end
able sĠ
outĠof ĠtheĠ
ĠtoĠd etermin
gen der
Ġtri edĠtoĠ
hard ĠtoĠ
fun dĠ
Ġchem ical
Ġkor ea
? !
Ġa er
.Ġ do
ĠandĠ our
Ġto ĠthatĠ
iv in
we 'reĠ
sp otĠ
es,Ġ includ
not e:
eth odĠof
Ġman yĠof
sal esĠ
Ġdist rictĠ
b reath
h eal
eĠ hasĠbeen
er Ġ(
Ġs uccess
Ġp ed
ed ly
Ġin itial
com mentĠ
ĠaĠs econdĠ
Ġthem Ġin
Ġus ingĠ
veryĠ bestĠ
know ĠwhatĠ
esĠin toĠ
bl ess
Ġph oneĠ
sĠd uring
enn sylvan
reduc tion
Ġappear anc
Ġlot sĠof
( andĠ
f old
y )
eĠ if
Ġt ower
ing ĠatĠtheĠ
,Ġ re
,Ġ lik
Ġb ey
ag eĠofĠ
eĠb ox
emp tyĠ
Ġop t
play ersĠ
Ġph as
.Ġd uring
,Ġwhich Ġis
18 8
.Ġyou ĠmayĠ
ĠtheĠch urch
ĠthatĠyou ĠareĠ
Ġeas yĠ
ched ule
ĠaĠsh ortĠ
overĠtheĠ year
Ġless on
Ġopportun ities
holid ayĠ
, ĠtheĠl
. uk
t b
Ġ etc
Ġt ear
Ġt emp
ag e.
eĠm ean
Ġas ĠtoĠ
Ġap artmentĠ
ans asĠ
was her
stor ies
ren ov
gu itar
med icin
18 7
Ġmed ic
Ġaccord anc
rev olution
prim arilyĠ
asc ular
proper lyĠ
stra ightĠ
eĠdoesĠ notĠ
achel or
6 2
d al
h z
h ors
l ag
t y
v endor
Ġn ightĠ
s.Ġ soĠ
s,Ġ itĠ
eĠw e
s>Ġ<s> Ġc
Ġtim es,Ġ
Ġ( andĠ
ĠaĠs imilar
Ġdon 't
dep artment
Ġthing sĠthatĠ
letĠ meĠ
sĠac ros
Ġsay sĠ
Ġcred it
particip ant
Ġbeli ev
Ġclin ical
Ġvirt ual
d anger
m ount
o ĠandĠ
à ¥
Ġ error
Ġth rill
Ġm eetĠ
Ġand ĠtheĠm
Ġk ong
weĠ alsoĠ
Ġus eĠof
Ġsp ok
ph armac
Ġafter Ġ
ĠaĠd i
Ġinter nal
compan y.Ġ
Ġsign ificantĠ
join tĠ
d m
f y
n ar
s ociet
in forc
ing âĢĿ
ar ah
Ġs q
ed ,ĠtheĠ
ac ros
Ġf antastic
Ġl an
Ġl uck
Ġre stor
,ĠandĠ other
gr ind
elp h
Ġper iodĠ
go ĠtoĠ
stor iesĠ
Ġdis playĠ
ingĠw ell
iam i
Ġrev eal
, ĠtheyĠareĠ
8 7
c .Ġ
d p
j amesĠ
Ġc aseĠ
Ġf ullyĠ
ir tĠ
ĠthatĠ was
se g
comp il
ĠhaveĠ you
ĠaĠf un
ĠmyĠ own
dis appoint
cam era
risk Ġof
atell it
Ġalumin um
, Ġallow
- to
c ycleĠ
h yd
s entĠ
s now
s afet
Ġt am
.Ġ itsĠ
Ġd ry
us ersĠ
ingĠ âĢľ
ex clud
con vention
ep tĠof
enc il
der iv
eĠd irect
ĠtheĠb usinessĠ
ĠtheĠd es
ingĠa g
ingĠtoĠ doĠ
Ġqu ant
ren der
wer eĠs
,Ġa prilĠ
Ġif Ġi
Ġfre edom
wher eĠtheyĠ
represent ativ
Ġtit le
sugg estion
f avor
f eedback
h ub
j ar
.Ġ âĢĵ
is nâĢĻtĠ
Ġar rest
ag enc
ri er
ĠtheĠs k
sp in
eĠf loor
y,Ġ or
dep artmentĠof
16 0
Ġexperienc eĠin
ĠifĠyou ĠhaveĠ
coll abor
Ġlevel Ġof
fr ank
Ġcoll aboration
kid sĠ
inte grat
aud ienc
eĠdoĠ notĠ
g aller
ĠtheĠ a
.Ġ âĨĳ
Ġs ort
Ġs oftwareĠ
il der
ig a
and om
Ġst andĠ
Ġwith Ġm
art ist
gr ill
own edĠ
li ent
eĠandĠ mor
Ġk il
ĠtheĠt ool
.Ġi âĢĻveĠ
Ġag encyĠ
.ĠthisĠ will
br anch
iou sĠandĠ
focus edĠon
gradu ateĠ
friger ator
m ass
m ountain
o der
s oldĠ
y ;
Ġ ,Ġ
Ġ old
ing ĠareĠ
ing Ġaround
ĠandĠ notĠ
isĠ for
sĠof ĠtheĠc
,ĠandĠ itĠ
comp le
iat ric
ĠtheĠfollow ingĠ
ĠtheĠmor eĠ
restr iction
Ġtex as
Ġcrim inal
haw k
holid ay
scri ber
' ,
. h
o is
s ector
in ch
on eĠth
Ġd ifficult
Ġin -
ex plan
Ġwith ĠthisĠ
Ġthat Ġall
ĠtheĠf ound
ens uring
are ful
wouldĠ b
oneĠof Ġour
,Ġyou ĠareĠ
,Ġyou ĠmayĠ
Ġway sĠtoĠ
Ġfeat ure
perfect lyĠ
det ect
ordin ator
% )
i 'veĠ
n ik
o âĢĻsĠ
es ĠareĠs
Ġf emal
Ġto Ġallow
Ġar r
qu il
con clusion
eĠin volv
Ġv oter
ĠisĠ veryĠ
eĠb l
ĠtheĠd own
Ġtak eĠcar
Ġpr oĠ
getĠ your
experienc eĠin
effect sĠof
design edĠfor
Ġappro priateĠ
disc ount
ĠtoĠm eetĠ
needĠtoĠ beĠ
Ġperform anceĠ
Ġob tain
Ġfeat ur
d ifficultĠ
l av
m g
eĠ out
sĠ whoĠareĠ
Ġan th
Ġd aughter
ha ust
ab solut
Ġre pl
s.Ġ p
eĠc ap
Ġcan Ġi
ies el
Ġi Ġthink
ifĠyou ĠwantĠtoĠ
look edĠ
ingĠp ower
ĠtoĠb eĠs
edĠm eĠtoĠ
rib leĠ
appro priateĠ
Ġjour ne
rim inal
ĠassistĠ you
- level
r c
y ,Ġand
â ģ
it an
om entĠ
le af
ri x
and al
oc rac
end a
rec all
Ġk ar
ra ud
Ġis ĠaĠm
ĠtheĠn ight
.Ġh eĠwasĠ
eĠl ist
kn ock
reason ableĠ
Ġsuch ĠasĠ
Ġaddres sĠ
Ġren ew
Ġagric ult
h u
i Ġhad
o en
u ally,Ġ
Ġa z
ou sĠandĠ
re fin
,Ġ br
,Ġ it'sĠ
Ġc d
th eyĠ
Ġh at
esĠ -
et ooth
em bleĠ
Ġg olf
with Ġtheir
iv ely.Ġ
Ġtr yĠandĠ
eĠc ook
from Ġyour
Ġv in
pres erv
sc ript
fin ally,Ġ
sĠwith Ġ
mon d
,Ġm ay
chang eĠ
att ach
cons olid
Ġorig in
tg ag
Ġinnov ation
Ġsatis faction
s olv
u z
sĠ mor
,Ġ both
om atic
Ġs now
Ġp as
ed ,Ġand
Ġin door
ingĠ lik
Ġyou âĢĻll
Ġl iqu
eĠt ryingĠtoĠ
con sequenc
ĠtheĠs urfac
Ġcan Ġyou
ĠtheĠh and
ĠtheĠl ist
ĠtheĠg arden
Ġwork ingĠwith
pre pared
oneĠof ĠtheĠbestĠ
educ ator
compan i
hand l
Ġhop eĠyou
cred it
Ġmay beĠ
Ġchrist mas
icon ic
ĠthirdĠ part
eut ical
. a
i .Ġ
i ĠcouldĠ
sĠ so
ad just
com ing
ri es,Ġ
eĠof ĠtheĠc
Ġthe ater
Ġtr oubl
Ġv en
Ġun itedĠ
not ĠtheĠ
usin ess.Ġ
ath on
edĠby Ġa
rop ical
dec emberĠ
employ er
seem sĠtoĠ
sign al
Ġcomplet eĠ
draw n
allow een
d ivision
n os
p ac
Ġ electronic
Ġs ureĠ
ed ĠandĠs
ch ant
ro th
eĠc ustomer
ust in
ĠtheĠb all
comp romis
Ġus eful
esĠandĠ other
ry an
bl ow
ementĠ in
co at
Ġph ilosoph
Ġservic es,Ġ
ĠnotĠ onlyĠ
moreĠ aboutĠ
plan et
pri z
readyĠ for
vol unt
Ġant ib
basedĠon ĠtheĠ
guid elin
veh icle
uthent ication
relev ant
entertain mentĠ
eĠweb sit
d ollar
s oftwareĠ
ð Ł
Ġ Ù
on eĠin
es âĢĿ
ĠandĠ over
Ġp ublication
Ġd ail
esĠ when
ex pres
s,Ġ whoĠ
Ġfor ĠanyĠ
Ġcon cent
Ġor ang
ĠtheĠt ruth
ach us
ĠtheĠw inter
ĠaboutĠ how
Ġcont emporaryĠ
Ġapp earedĠ
,Ġm ostĠ
riv en
bas is
app leĠ
Ġstud iesĠ
ĠallĠof Ġour
ĠthereĠar eĠmanyĠ
suit ableĠfor
Ġtherefor eĠ
mic ro
echan ic
da vidĠ
Ġparticip ant
i form
s ecurity
Ġ //
Ġt enn
ing Ġproduct
Ġs y
ĠandĠ new
el lo
edĠ you
et nam
Ġg er
end edĠup
Ġch amber
Ġor Ġnot
we 'veĠ
Ġis ĠaĠf
Ġit s
e, ĠasĠ
inter action
Ġyear sĠandĠ
eĠwith Ġ
requ ireĠ
Ġmon t
Ġen hanc
Ġbr anch
Ġwas ĠtheĠ
.ĠweĠ alsoĠ
hear dĠ
ĠmanyĠ year
eĠn umber
Ġdep artment
.Ġit âĢĻs
recogn ition
Ġexp ens
Ġdem andĠ
object iveĠ
eĠdec or
yth m
9 6
c rib
g oneĠ
l on
m ith
m outh
v dĠ
sĠ sh
on or
re tion
isĠ now
Ġb reath
ur k
Ġin ĠtheĠf
atĠ leastĠ
eĠof Ġc
sp eedĠ
ian oĠ
ros oft
Ġgr ound
,Ġi Ġthink
Ġalway sĠa
Ġgu essĠ
rang ingĠfrom
eĠi ĠwasĠ
ĠandĠw omen
Ġcount ry
epend ingĠon
Ġhaven âĢĻtĠ
ĠaĠsign ificantĠ
b udget
y esterday
in entĠ
el lyĠ
ĠtoĠ her
ĠtoĠ reach
Ġb ak
ex clus
Ġg rat
ag azin
s.Ġ whil
ep hon
Ġj anu
port ableĠ
ra h
vi br
rem oveĠth
Ġres pond
ĠtheĠg row
,Ġm ayĠ
ept ember
osp el
big gestĠ
found ation
Ġlarg er
, Ġtheir
f am
h ik
m w
Ġ equ
Ġt y
in ĠorderĠtoĠ
er amic
.Ġ car
,Ġ now
Ġs oundĠ
Ġw ild
Ġp owder
ed ĠaĠd
ed ium
ch ocolat
Ġal ert
Ġal gorithm
Ġg ear
Ġand ĠtheĠb
s.Ġ c
ell oĠ
eĠw all
eĠd onâĢĻtĠ
Ġpro gress
look Ġlik
whatĠ happen
Ġup grad
Ġother Ġword
Ġph armac
io graph
Ġaddition ally,Ġ
.Ġf urther
cas inoĠ
mar in
version Ġof
click Ġon
adv ic
Ġcompet itiveĠ
Ġadminist rativeĠ
exception al
.Ġretriev edĠ
âģ Ħ
, ĠaccordingĠtoĠ
l ap
n ativeĠ
s ĠanĠ
Ġ evidenc
sĠ each
ing Ġtim
is co
you ĠmightĠ
le m
us edĠto
ay ak
eĠt our
eĠw orld
eĠin Ġa
Ġat Ġany
eĠp ublic
Ġj esus
ne gl
ĠaĠc lear
itĠisĠ notĠ
ock tail
eĠis Ġa
18 5
Ġtrad emark
obil eĠ
Ġrem ot
esĠfrom ĠtheĠ
Ġext ension
Ġdisc uss
wa itĠ
eĠfin ish
9 8
d iffer
h il
i ov
p ageĠ
p rivac
v m
in jur
sĠ un
it ativeĠ
Ġan Ġindividual
es isĠ
Ġc andidat
is Ġthat
ĠtoĠ createĠa
Ġp astĠ
Ġd emonstr
Ġf eedback
Ġin ĠorderĠtoĠ
ig ureĠ
ingĠ -
ingĠ k
s.Ġ sh
eĠc od
sp readĠ
Ġam ountĠ
Ġit sĠm
ingĠa Ġ
Ġpr ayer
don âĢĻt
fre edom
Ġwe apon
,Ġf ollow
Ġsm ooth
Ġcal endar
Ġlos Ġangel
eut ic
Ġvac ation
athem atic
- off
r yĠtoĠ
sĠ itsĠ
er ver
on e,Ġ
.Ġ re
al bum
ion eer
for th
ur su
Ġl istĠ
e.Ġ b
sĠa f
sĠa re
sĠof Ġm
Ġtr im
Ġtr am
eĠd el
ĠtheĠm id
ĠtheĠm usic
Ġj ump
sp ell
can Ġhelp
ens or
Ġit sĠc
but ĠalsoĠ
sc ientific
eĠon Ġ
ĠasĠwell ĠasĠtheĠ
onc eĠ
larg er
Ġbecaus eĠof
better Ġthan
between Ġ
Ġcabin et
. Ġtak
d ynamic
l ateĠ
in struction
st amp
ed ĠaĠm
ch atĠ
ec ution
Ġin n
eĠth eĠa
Ġyou tub
eĠw antĠtoĠ
ĠtheĠg ameĠ
stat ementĠ
e.Ġi Ġam
ĠaĠlo v
option al
Ġthere 'sĠa
ĠtoĠp utĠ
Ġtour ism
fill edĠwith
Ġinvest igation
sometim es
sequ entĠ
bel ong
eleg antĠ
styl ish
ĠtheĠgreat estĠ
republic an
c leĠ
f aster
ou isĠ
Ġc raft
th Ġ
ĠandĠ soĠ
ed yĠ
ro zen
eĠs w
oo ter
ist ry
ud ienc
li ver
Ġr ic
Ġab leĠto
ong Ġkong
eĠh eldĠ
ult ane
ob odyĠ
ĠaĠ $
ĠtheĠg reen
ĠtheĠn atural
doĠ not
ingĠp ag
qual ifi
ox y
edĠa Ġnew
âĢ² âĢ²
plug in
d iction
i âĢĻsĠ
p ens
sĠ mak
ing ,ĠtheĠ
st ack
Ġs urround
ĠandĠ us
Ġin Ġp
Ġar th
ul y
um a
be am
e,Ġ b
eĠm eas
se eĠa
Ġam p
when Ġh
eat ur
Ġlook Ġfor
Ġmed ication
Ġdesign er
Ġmonth lyĠ
Ġcent r
Ġtow el
contain sĠ
ĠdonâĢĻtĠ know
shar p
recogn is
ĠaĠmin imum
eĠdid nâĢĻtĠ
( c
f avorit
h id
ĠtheĠ k
Ġc utĠ
ĠandĠ myĠ
ĠtoĠ develop
Ġm p
im pos
Ġin Ġh
Ġto Ġadd
ag ent
Ġand roid
ri edĠ
qu ietĠ
Ġon Ġtheir
eĠd egre
Ġk ick
man ageĠ
veryĠ much
,Ġi ĠhaveĠ
eĠtim eĠ
Ġhand leĠ
agn ific
Ġpolic yĠ
achus ett
, ĠthisĠisĠ
a res
Ã ¨
sĠ weĠ
ĠtheĠ per
you ĠcouldĠ
Ġof Ġn
our Ġ
ri ent
eĠs av
sĠof ĠtheĠs
when Ġw
Ġtw ist
ĠaĠc or
look sĠlik
greatĠ for
olit ician
Ġhand l
.Ġwhen Ġi
.Ġhowever ,Ġ
Ġapplic ant
Ġsometim esĠ
/ c
j ectĠof
v ulner
in Ġl
in Ġorder
al tern
el ess,Ġ
ed ĠtheĠt
Ġb an
Ġb rowser
Ġh i
wh oseĠ
itĠ has
res olv
your Ġneed
sĠandĠ condition
od y
eĠa war
li ament
Ġr ent
sp ent
Ġsh oot
are lyĠ
don ald
par entsĠ
tim eĠ
ĠnoĠ longer
Ġstart edĠ
Ġeas tĠ
Ġsm ith
Ġsm ok
ge on
eĠcl ick
eff ectĠof
Ġrecogn iz
raf fic
! âĢĿ
g ear
i us
w ir
y lin
Ġ impact
.Ġ r
st ein
ar th
Ġc atch
Ġs olar
edĠ "
ro gen
ec ision
up datedĠ
e.Ġ soĠ
Ġst ak
eĠb ig
eng land
Ġres istanc
ingĠb etween
stud ioĠ
pre paredĠ
,Ġp p.Ġ
direct orĠof
ĠtheĠsp ecial
Ġgener ation
dom ain
mic hael
object iv
pat ientĠ
spirit ual
ennsylvan ia
f amousĠ
h ook
h idden
ing ĠhasĠ
al tĠ
Ġs uffer
is ĠaĠm
Ġd istanc
Ġf at
Ġin Ġorder
Ġof Ġher
our ag
e,Ġ p
eĠc urrentlyĠ
eĠm ay
over whelm
sĠin t
ĠatĠ your
.Ġi ĠwouldĠ
ass emb
ĠtheĠw estĠ
son ,Ġ
ĠaĠf riend
eth ic
ĠaĠp ar
ingĠp ool
esĠfor ĠtheĠ
owner ship
ĠtheĠcor ner
entr anc
Ġtutor ial
d escription
h eatĠ
ing s,
Ġw arn
ch at
Ġf ly
com eĠfrom
eĠs election
eĠm et
eĠd em
s>Ġ<s> Ġm
ĠtheĠb enefit
her e.
s. ĠthisĠisĠ
ob jectĠ
ingĠa re
ĠtheĠw ood
ĠtheĠw rong
di et
sĠm ightĠ
experienc eĠ
experienc edĠ
Ġpart yĠ
ĠsoĠ manyĠ
Ġpre ferenc
Ġfl ash
Ġthing sĠtoĠ
beli ef
Ġhav ingĠa
ocol ateĠ
b rought
f estival
m and
n tĠ
s usp
Ġ @
sĠ âĢľ
on n
en jo
,Ġ sheĠ
st im
es ,Ġt
Ġs um
ĠandĠ now
el evision
Ġf ruit
res pon
e.Ġ sh
ell i
eĠp hon
Ġsh areĠ
reat ment
work ing
eg on
y,Ġ which
e, Ġa
ĠaĠf air
ĠtheĠh ead
fl ight
ext ract
Ġsom eĠcas
Ġup on
,Ġi 'm
endĠ on
such ĠasĠtheĠ
dayĠ of
Ġse qu
ĠnotĠ sureĠ
Ġinst ance,Ġ
becom esĠ
ingĠfrom ĠtheĠ
ĠthisĠp ag
ĠtheĠbo ard
ĠanyoneĠ whoĠ
Ġtermin al
- minut
c os
m ight
w il
ing sĠthatĠ
Ġs usp
edĠ outĠof
esĠ us
id i
ul in
Ġn et
pro hib
Ġfor mal
Ġad or
eĠb r
ĠtheĠc an
ish op
cont est
.Ġi ĠloveĠ
to oĠ
sc ientist
look ingĠatĠ
bo at
min imum
ingĠc ount
need sĠof
ĠaĠre ason
conf us
univers al
Ġhear tĠ
Ġfr ank
arch itect
-w inn
vit amin
b )
b ed
h usband
n ick
s ad
s ustain
à ¸
ĠtheĠ right
re leaseĠ
.Ġ br
ic it
Ġc rew
ĠandĠ whatĠ
Ġb itĠ
im in
Ġand rew
ĠasĠ possibleĠ
s>Ġ<s> Ġa
ra eli
edĠin formation
vers eĠ
min i
min or
Ġalong ĠtheĠ
rad io
Ġsal t
ĠtoĠm eet
Ġrequ ire
val idĠ
wr ap
ĠtheĠtr ail
eĠdown load
immediat ely
Ġwon 'tĠ
Â© Ġ
d c
s ĠtheĠs
Ñ ĭ
Ġa ĠmoreĠ
re ationĠof
al ent
es mer
il ity
edĠ how
Ġd umpster
Ġf ocusĠon
ingĠ "
eĠth oseĠ
iv an
sĠof Ġc
Ġtr oubleĠ
eĠd ifficult
fer til
eĠb ecom
ĠtheĠd ark
e. ĠthisĠisĠ
weĠ all
s, ĠasĠwellĠasĠ
anyĠ question
eĠon Ġyour
,Ġs up
disc los
ĠtheĠtop ic
setĠ of
character istic
abin et
fix t
suppl ier
necessar ilyĠ
bour n
, ĠaĠd
d oc
eĠ un
in ĠtheĠb
ou ston
ing )
.Ġ everyĠ
Ġp oor
edĠ befor
Ġd os
em en
lo se
Ġg at
Ġg host
Ġre ally
con utĠ
sĠof Ġb
eĠin stall
Ġch icken
Ġ( th
ob viouslyĠ
Ġus ersĠ
fic tion
jo int
Ġsc ot
Ġsc ientific
ser ies
Ġsm artĠ
umb ia
ins ight
Ġagainst ĠtheĠ
Ġveh icle
Ġfunction al
Ġrel atedĠ
compat ibleĠ
, Ġtak
b loodĠ
c utt
g asĠ
y oga
sĠ haveĠa
ro st
us ical
et ical
lo os
e.Ġ myĠ
eĠw ord
Ġas ian
ob viousĠ
sĠareĠ in
e, ĠtheyĠ
rem eĠc
olog yĠandĠ
stat us
sĠto oĠ
larg elyĠ
Ġbo y
eĠsup pl
Ġlat estĠ
agre ement
lessĠthan Ġ
shad ow
relig ion
Ġfavor iteĠ
Ġchi ef
, ĠalsoĠ
, Ġadd
c itizen
f emal
v oc
Ð ²
eĠ la
Ġt ailor
ar rang
ĠtoĠ itsĠ
ed )
Ġm irror
as ,Ġ
us al
Ġf ul
am entĠ
if Ġw
os itĠ
Ġl aptop
con version
s,Ġ youĠcan
e.Ġ but
.ĠtheĠ p
sh er
be ingĠd
Ġall ĠaboutĠ
,ĠandĠ in
end antĠ
eĠtoĠ our
notĠ haveĠ
ĠandĠs ocial
sĠs ay
keep Ġyour
giv es
giv esĠyou
ĠaĠn on-
imag esĠ
Ġcreat eĠa
Ġcor poration
invest igation
olid ay
emerg enc
optim al
eĠdoes nâĢĻtĠ
ervis or
" ĠxĠ
6 1
n n
p tĠ
s uccess
u um
v itation
v oter
Ġ oh
eĠ âĢľ
ou ple
.Ġ donâĢĻtĠ
st em
Ġh ang
ingĠ under
ingĠ group
ea f
Ġget ĠtheĠ
bab yĠ
ĠtoĠbeĠ ableĠtoĠ
Ġorgan isation
Ġfamil y
Ġspecial ist
he im
Ġcop per
social Ġmedia
estin ian
udden lyĠ
sĠam ong
ĠrightsĠ reserv
f uel
f abric
j im
m ust
s ever
t w
t yp
x -
Ġ endĠ
eĠ whoĠ
,Ġ hasĠ
Ġs ecret
Ġw il
Ġh eatĠ
im entĠ
ab eth
with inĠtheĠ
ew ayĠ
per mitt
Ġtr ash
eĠm eet
eĠd uring
eĠb ank
ĠtheĠf und
.Ġi Ġcan
pres sur
ĠmyĠ lif
ĠaĠc l
sur ger
exp ansion
uf fic
ingĠto oĠ
Ġplac eĠtoĠ
Ġcor ner
Ġint end
Ġfeat uresĠ
cap ableĠof
del et
relat edĠto
eĠgu id
b uck
c ycl
f at
i usĠ
q :
Ġ europ
Ġt ight
Ġt icketĠ
re ject
ic ul
Ġin Ġl
ation .ĠtheĠ
ew er
be ingĠin
eĠm ark
edĠtoĠ haveĠ
Ġj apanes
ĠtheĠw or
Ġatt ain
rip tĠ
pon ent
Ġcl assĠ
real istic
product iveĠ
Ġwell -
ness ĠandĠ
outsid eĠof
replac ementĠ
Ġtotal ĠofĠ
Ġthemselv esĠ
bul b
russ ia
- hour
. ĠandĠi
ing sĠfor
it nessĠ
.Ġ someĠ
om estic
Ġs ugar
il et
you ĠwantĠtoĠ
ro v
Ġm ight
Ġal umni
eĠc ould
Ġcom mentĠ
ĠtheĠc entral
Ġi ĠhadĠ
Ġtak eĠon
Ġtw in
bas edĠin
becaus eĠtheĠ
ĠaĠw oman
cons in
ingĠh ealth
right ?
yn ch
Ġwebsit e.Ġ
clos eĠtoĠ
endĠof ĠtheĠ
process or
s.Ġin Ġaddition
Ġconf igur
Ġgrad uat
Ġp.m .Ġ
Ġmag ic
won 'tĠ
Ġsept ember
Ġbab yĠ
Ġacqu isition
require sĠ
ĠapartĠ from
d inner
d estination
i atedĠ
r entĠ
r ud
s oul
w ak
Ã §
Ġ equipmentĠ
Ġa headĠof
in spiredĠ
ing Ġthes
om ination
for ĠmyĠ
Ġh eav
lo at
lo vel
se atĠ
can Ġyou
eĠh old
Ġmor n
Ġmor eĠdetail
Ġag entĠ
inter fac
let 'sĠ
ingĠb ecaus
eĠyou ĠhaveĠ
Ġabout ĠthisĠ
Ġwhen ĠtheĠ
Ġmak es
need edĠ
start edĠtoĠ
Ġtechnolog ies
eĠofĠ $
health yĠ
romot ion
del ic
Ġanalys isĠof
eĠsup er
partner ship
Ġattor neyĠ
Ġarg ument
a 'sĠ
d ens
o of
Ä ģ
or Ġher
.Ġ isĠ
ic ienc
Ġw ordĠ
is ĠaĠp
ed ;
ch ef
ig rant
wh om
Ġto ĠachieveĠ
Ġl iber
pr ayer
ĠisĠ still
eĠp artĠof
Ġk ing
reat mentĠ
ost ic
mak eĠtheĠ
s, ĠandĠtheĠ
Ġsp onsor
ĠwasĠ born
ph ilosoph
min imiz
olog y.Ġ
ingĠb oth
,Ġwhich ĠwasĠ
gl or
.Ġif Ġyour
Ġinclud es
Ġtour ist
knowledg eĠof
Ġob serv
.Ġit ĠalsoĠ
Ġkind sĠof
c ivil
g p
n t
r yp
eĠ itsĠ
en essĠ
at l
at tĠ
.Ġ peopleĠ
.Ġ doĠyou
om ach
is rael
ch rom
am i
con grat
sĠof ĠtheĠm
over com
outĠ in
ra ven
Ġex tr
ĠtheĠt our
ib ly
ĠaĠf reeĠ
ĠtheĠh ospital
sĠon lyĠ
min eral
Ġart istic
.Ġm ostĠof
eĠl arg
dec lin
educ t
Ġtrad eĠ
Ġask Ġfor
Ġdown town
Ġaccess Ġto
dom in
Ġsid eĠof
necess ary
ĠthereâĢĻsĠ noĠ
ypt oc
Ġasp ir
estim atedĠ
abul ousĠ
b eĠmad
c ream
Ġ egg
en ator
ing Ġteam
Ġs le
le aveĠth
Ġd ial
un icipal
ir rit
ingĠ gam
Ġn ameĠ
ep ic
cl er
eĠa Ġc
Ġcon vention
ĠtheĠf all
ĠtheĠb ox
ĠtheĠp aper
comp on
ĠthereĠ isĠa
los sĠ
Ġthey ĠalsoĠ
ĠofĠtheĠ year
ĠandĠs ub
,Ġd ec
mad eĠof
itâĢĻsĠ notĠ
Ġlif e,Ġ
qual ification
Ġalway sĠb
gl assĠ
everyth ing
ĠtoĠd eliver
ensur eĠthat
Ġfriend sĠandĠ
Ġhistor ical
Ġtouch Ġwith
Ġmic hael
Ġju ic
eĠtrans fer
Ġattor ney
. ĠaccordingĠtoĠ
c ritic
u an
th es
ch arm
Ġh yp
Ġd ynamic
un itĠ
Ġto oth
Ġto Ġtell
ex port
eĠs aw
s.Ġ but
Ġfor Ġsal
sĠof Ġtheir
eĠw in
eĠc laim
will ingĠtoĠ
eĠh ar
ĠtheĠd isc
ass istanc
arg ain
los Ġangel
stor ageĠ
prot ocol
Ġeng ineĠ
Ġrequ ired
Ġanal ytic
friend lyĠ
,ĠsoĠ i
olid ayĠ
famil y
Ġnov el
world wid
Â° c
e 'sĠa
Â «
ou st
st oneĠ
you nger
Ġb ay
Ġh usband
with ĠmyĠ
Ġl anguageĠ
Ġre -
ĠasĠ w
sp ired
ĠtheĠd ifferentĠ
int on
weĠ know
sĠfor Ġyou
eĠg otĠ
app rec
Ġtrans c
cal endar
exc eed
Ġgu ard
Ġbefor eĠyou
hereĠ ar
Ġsm il
mov ement
Ġsmall er
john son
Ġnor thern
Ġpresent ation
b itĠof
k al
p itch
Ġ enc
on a
ing oĠ
Ġs in
you âĢĻreĠ
Ġd ent
ad vent
ad vertis
Ġof ĠtheseĠ
ill er
eĠs ourc
ear t
Ġre put
eĠc ard
pr oudĠof
Ġcon gres
ly woodĠ
iesĠ or
Ġatt endĠ
sup plement
eĠg ener
ures ,Ġ
compan y,Ġ
Ġif ĠtheĠ
Ġtrain ingĠandĠ
sĠf ollow
enn ial
sĠthat ĠtheĠ
count yĠ
liv ingĠroom
Ġser veĠ
websit eĠ
Ġfun dĠ
Ġfut ure
Ġthous andĠ
, Ġthis
- and-
. ĠaĠc
. Ġthough
a way
j esus
r ab
sĠ was
Ġs eg
is er
Ġp ublisher
Ġm eter
isĠ veryĠ
Ġb ritish
Ġd ryĠ
Ġf aster
Ġin Ġall
ad ol
eĠth ank
Ġre lev
e.Ġ on
Ġwith ĠaĠs
s>Ġ<s> Ġ"
eĠtoĠ us
ĠisĠ itĠ
ĠtheĠb lu
eĠf ram
ater al
s, Ġa
under tak
noĠ on
mon day
ĠhisĠ own
Ġany wher
.Ġm r
sĠto day
inst agram
mayĠ haveĠ
âĢĻll Ġb
.Ġfor ĠmoreĠinformation
ibil ityĠtoĠ
whol esal
ĠtheĠcount ry.Ġ
some how
rich ardĠ
histor ic
eĠmanag ementĠ
Ġaffil iat
- n
b n
c ourtĠ
k e
l ens
l esĠandĠ
v eil
,Ġ z
st eam
ed ĠtwoĠ
ent or
ur on
ingĠ event
Ġal arm
ha sĠin
um or
Ġst er
eĠw ayĠ
cl imat
ly ĠtoĠ
ĠtheĠb etter
eĠp ack
ĠatĠ our
.Ġi ĠalsoĠ
new spaper
ĠaĠd ayĠ
old ier
Ġthey 'reĠ
sur g
bas icallyĠ
fac ult
import anc
Ġcar ry
ĠofĠ usĠ
eĠan Ġ
ĠaĠfew Ġday
ĠtheĠch ildren
oub tĠ
conv ey
Ġsuppl ier
Ġ= Ġ
Ġprov inc
b ath
b atter
y .ĠthisĠ
Ġ âĢ¢
Ġ à¤
sĠ doĠnotĠ
it ĠtoĠ
,Ġ weĠareĠ
ic les
Ġm os
all yĠtoĠ
Ġwith ĠmyĠ
sĠin ĠtheĠm
we ep
edĠin Ġa
cont ext
ingĠs ession
oneĠ whoĠ
whoĠ haveĠ
urr ent
az a
mad eĠfrom
.Ġd r
ĠpeopleĠ toĠ
build ingĠ
Ġcons um
step p
Ġhad ĠtoĠ
Ġtest imon
Ġfamil yĠandĠ
sl id
ĠtheĠcor rectĠ
compar ison
Ġaccur at
mos phereĠ
yptoc urr
c raz
d ead
sĠ our
ĠtheĠ "
th eir
Ġs aturday
for ĠanyĠ
Ġm att
Ġh eal
Ġd ress
Ġf ight
eĠs een
eĠm usic
outĠ for
eĠandĠ other
Ġcan adian
oll ower
pres identĠof
ĠaĠb usinessĠ
ik i
ingĠb ook
ept or
Ġter ritor
week endĠ
uk rain
edĠd uring
add ress
eĠtr ack
feat uredĠ
Ġoc cup
represent ativeĠ
Ġtab let
i ed
r app
y ,ĠtheĠ
Ġa x
sĠ basedĠon
er son
.Ġ z
,Ġ inĠ
es ĠandĠt
Ġc ouldnâĢĻtĠ
Ġp ac
you ĠhaveĠtoĠ
ent ur
Ġin Ġon
em ission
res erveĠ
eĠt ri
e.Ġ whatĠ
Ġab andon
ly -
ĠtheĠb lack
ang leĠ
ĠtheĠp ath
Ġis nâĢĻtĠ
es.Ġ our
Ġus ingĠtheĠ
rem odel
sc rew
ĠaĠf in
reg ulat
ageĠ or
Ġprovid eĠ
count ry
eĠsur pris
.Ġif ĠtheĠ
,Ġfor Ġexample
Ġwar rant
ĠapplyĠ for
b athroom
k g
o al
r antĠ
s in
Ġ edg
ar ia
ec osystem
esĠ f
un ish
ation ĠtoĠ
Ġst opp
be ingĠp
,ĠandĠ h
will ĠalsoĠ
Ġ( d
ov el
ĠtheĠw orldĠof
ureĠ on
bo ostĠ
min imal
ed.Ġ in
ĠtheĠn ear
help edĠ
sĠthatĠ can
emp tĠ
Ġther e,Ġ
bl ank
Ġart icl
Ġcl imb
log ical
show cas
efin ition
cr ack
gett ingĠa
ĠmustĠ beĠ
Ġhapp yĠ
Ġshar p
ĠaĠhigh er
ĠsetĠ up
Ġsha re
entertain ment
legis l
ynth etic
ira q
Ġmilit aryĠ
d ryĠ
h p
n an
s afetyĠ
Ġ u.s.Ġ
ĠtheĠ perfectĠ
.Ġ oneĠ
Ġm ount
Ġf er
ad elph
ist ur
oc curr
pr inter
ment or
we 'r
iz ationĠof
eĠp artĠ
Ġha w
Ġtim e,
eĠh eĠ
.Ġh op
ident ical
Ġsc ript
Ġmon dayĠ
level sĠof
star tĠof
Ġdef ens
ingĠsp ecial
Ġno .Ġ
driv en
Ġarchitect ural
ĠtheĠsup er
Ġcirc umstanc
, ĠthereĠis
e 's
sĠ justĠ
ing Ġplac
oĠ in
st itch
ic ĠandĠ
ch ampion
Ġh eight
ir k
Ġto Ġanother
ag h
ĠareĠ a
eĠin ĠthisĠ
eĠf ilm
Ġsh otĠ
eg u
not eĠthatĠ
la ir
Ġcont rast
esĠof fer
,Ġs outh
aw ard
Ġro t
sĠd ep
dep loy
Ġrequ estĠ
respons ibilityĠ
yn c
Ġhous eĠ
ester dayĠ
eĠpart ner
introduc tion
chair man
Ġtemper ature
omet ric
Ġital ian
ĠtheĠboardĠ of
, Ġam
i aryĠ
r t
s le
s oft
Ġp utt
ent itl
Ġal ik
eĠth ought
Ġn umerousĠ
con ventional
Ġfor ĠmoreĠinformation
we apon
.Ġi Ġwas
lik eĠyou
mak ingĠa
Ġsp eech
ĠanĠ over
exp andĠ
Ġdis order
abil itiesĠ
hom e
Ġdi eg
col leagu
Ġtop p
present ation
oper ational
ĠtheĠsp ir
beli eveĠth
Ġbeli ef
sha redĠ
incred ibleĠ
excell ent
. Ġtoday
/ .
/ m
d esc
f ox
i as
Ġp ixel
you âĢĻr
Ġf ocusĠ
ingĠ need
s.Ġ myĠ
s,Ġ for
Ġst rik
ĠtheĠs econd
âĢĻsĠ c
Ġj on
.Ġi Ġwill
str uggleĠ
ĠtheĠw estern
Ġag gress
Ġthey Ġar
Ġany tim
Ġdis count
Ġthank sĠto
eĠsur v
vol .Ġ
want sĠtoĠ
ĠthisĠp oint
again stĠ
ĠsetĠ of
mil k
.ĠthereĠisĠ noĠ
) ĠtheĠ
g olden
s Ġtheir
s giv
.Ġ by
,Ġ creat
Ġc le
Ġs ym
as Ġa
ent ially
ol ph
lo dg
ul k
res ultĠof
eĠof ĠtheĠm
Ġre action
eĠw ar
gr antĠ
ableĠ t
eĠb ec
ĠtheĠb ritish
Ġlo stĠ
ĠtheĠt re
e. Ġand
Ġus ingĠa
aryĠ school
br ill
br ightĠ
eth nic
Ġthos eĠof
sĠs ervic
rop p
elect ron
,Ġyou ĠshouldĠ
Ġstud ioĠ
ĠnotĠ beĠ
Ġpar tĠofĠtheĠ
ĠtheĠsp ecific
emb edd
ĠtheĠtop Ġ
Ġoc ean
depend entĠ
Ġdefin ition
, ĠthereĠisĠ
k or
k ept
s ĠtheĠm
Ġ everyon
Ġt in
on ial
st riveĠ
ic lesĠ
Ġs ymptom
Ġw av
ed Ġaround
Ġyou ĠhaveĠtoĠ
Ġon go
eĠw atch
Ġwith Ġtheir
out putĠ
ind oor
Ġis ĠavailableĠ
ĠaĠs uper
Ġit Ġall
ĠaĠg am
ingĠc l
Ġy es,Ġ
ris p
sm artĠ
Ġwebsit eĠ
Ġfeel Ġlik
win ner
understand ĠtheĠ
drop p
benef icial
window sĠ
Ġlab el
veget abl
Ġneg ativeĠ
jew ish
Ġremov al
. p
k itĠ
p opulation
ĠtheĠ opportunityĠtoĠ
ing sĠtoĠ
ing Ġwhich
ing ĠtheseĠ
ing ĠtheĠbestĠ
ing Ġtechniqu
st eer
th eĠs
Ġw ayĠof
edĠ isĠ
edĠ work
Ġm a
Ġb ang
ex pressĠ
Ġn in
asĠ veg
Ġwith Ġan
eĠin suranc
art icle
eĠd es
od cast
Ġat ĠtheĠtop
iz abeth
ĠtheĠt rad
ug e
rat esĠ
eth ical
Ġne ed.Ġ
provid ingĠ
Ġcomp on
ingĠm ethod
Ġgr ill
eĠl ittleĠ
Ġim proveĠ
ĠaĠre allyĠ
Ġstat istic
dat abas
ĠtheĠch alleng
Ġcor porat
win dĠ
Ġgam esĠ
websit e.Ġ
wid elyĠ
.... ....
Ġbeg inn
Ġadminist rator
surv ey
liqu idĠ
ays ia
b oundĠ
f lex
i ew
j apan
n ature
o veĠtheĠ
Ã ¥
on ion
ĠandĠ with
Ġb et
Ġb orn
lo sure
op y
Ġto Ġthink
Ġg all
Ġn ativeĠ
ist ical
ack et
Ġch ocolat
mak eĠit
new Ġyear
ĠaĠb it
doĠ it
Ġthos eĠthatĠ
aw ayĠ
rip p
ann a
Ġen dĠof
run ch
Ġter rac
conc eptĠof
.Ġb ook
Ġstat ementĠ
Ġcount riesĠ
olit an
youĠwill ĠbeĠ
Ġagre eĠwith
Ġarch iv
Ġamong Ġother
Ġlov edĠon
combin ationĠof
Ġrecogn ition
satis fi
sĠagain stĠ
oliveĠ oil
! ).
, ĠtheĠh
b et
d ailyĠ
h m
m ethodĠ
in essĠ
ou sĠin
at eĠtoĠ
at edĠwith
ed ish
Ġh unt
Ġin vent
ig or
un gr
com eĠwith
con flict
sh eetĠ
ap leĠ
Ġpro vision
od or
Ġch ip
can Ġi
comp osition
Ġpl entyĠof
ure mentĠ
Ġus eĠa
each er
Ġres p
ĠtheĠl ower
Ġcomp ut
.Ġh igh
sĠc over
cal m
cor poration
law n
nes sĠin
Ġplay ersĠ
ĠtoĠmak eĠsur
lov esĠ
acc ord
Ġposs ible
ĠtheĠmon eyĠ
ĠoutĠof Ġ
surv iv
promot ion
mag azin
unfortunat ely,Ġ
ĠmyĠf avorit
ingĠdi agram
? Ġif
e ant
f ocusĠ
g est
n arrow
.Ġ over
ĠtoĠ writ
ed ral
Ġf astĠ
Ġin ĠtheĠp
Ġin Ġaddition
ay mentĠ
Ġn eck
ĠthatĠ itĠisĠ
s.Ġ (
ĠareĠ in
Ġfor est
Ġfor Ġus
from Ġour
eĠd ur
Ġpro of
Ġr ule
ly .
we at
ĠtheĠc ityĠof
ity .ĠtheĠ
eb yĠ
som eĠf
ian sĠ
eĠthatĠ i
Ġsom eĠs
ingĠof fic
gu estĠ
Ġcl imateĠ
equ allyĠ
med ic
eĠyour self
Ġtyp eĠ
disc iplin
ĠtheĠtim eĠtoĠ
until ĠtheĠ
del ight
Ġbusin ess,Ġ
vac ation
hes itat
Ġattor ne
compared ĠtoĠ
regn anc
! ĠweĠ
- lin
Ġ ic
.Ġ whileĠ
Ġc ak
th ĠandĠ
ĠtoĠ reduc
un lock
ill ar
Ġl ineĠ
ĠthatĠ our
con stantĠ
s.Ġ so
ĠthisĠ will
Ġad mitt
Ġis ĠaĠc
es.Ġ ifĠyou
Ġfrom Ġyour
to ol
ingĠin d
ĠaĠf amilyĠ
los sĠof
Ġabout Ġtheir
pre adĠ
att an
ĠtoĠs ayĠ
Ġdi abet
eĠitĠ wasĠ
cent uryĠ
heĠ hadĠ
Ġamaz ing
Ġamong ĠtheĠ
ĠtheĠtr ack
sheĠ hasĠ
Ġrest aurantĠ
Ġrev olution
ĠtheĠmajor ityĠof
ĠtheĠhistor yĠof
7 3
7 4
b ridĠ
h ack
i y
eĠ program
en v
,Ġ (
st ainlessĠsteel
Ġc os
Ġc ultural
Ġc ourtĠ
ed Ġabov
Ġf ramework
ir cle
Ġto ĠaddĠ
itĠ or
os ph
s.Ġ inĠ
Ġfor ĠmyĠ
e,Ġ includ
eĠtoĠ help
eĠf ocus
reat iveĠ
ass ign
y.Ġ in
ĠaboutĠ it
10 8
Ġher e.
eli ber
every bodyĠ
ed,Ġ or
Ġsc ientist
person allyĠ
employ ment
Ġmonth sĠ
choos eĠ
âĢĻdĠ likeĠtoĠ
Ġnor m
Ġed itor
Ġpict ures
rub ber
prec ed
incred iblyĠ
f p
s ĠtheĠc
s can
Ġa st
st ageĠ
es man
om er
ch en
ex ampleĠof
ag en
Ġl it
sh ire
Ġst res
eĠm ajor
soĠ manyĠ
pr id
Ġch ampion
Ġsh eet
âĢĿ )
Ġper manentĠ
eat ures
e- of
eĠon eĠof
know Ġwhat
Ġinter estĠin
Ġmak eĠitĠ
Ġmin ister
ĠwhatĠ i
ĠtheĠmostĠ importantĠ
pric eĠof
mo on
onc eĠagain
ĠtakeĠ plac
ĠtheĠpres ent
ĠtheĠcas eĠof
eĠbas edĠon
ĠaĠhug eĠ
ĠtheĠnam eĠof
liber al
b p
d espit
e j
f lyĠ
p eter
v ail
y ĠasĠ
Ġa dĠ
,Ġ itsĠ
,Ġ was
es ĠthisĠ
Ġc ream
th ank
Ġs eparat
il lyĠ
ĠtoĠ it
ĠtoĠ startĠ
ĠtoĠ watch
ĠtoĠ receiveĠ
Ġm otion
isĠ still
as ic
un known
ill ino
res istanc
res tĠofĠtheĠ
eĠs ector
per man
per spectiveĠ
Ġtr endĠ
se ed
.Ġi 'veĠ
inc ident
Ġtak ingĠa
ĠwasĠ in
eĠthatĠ will
Ġass etĠ
ĠaĠg lobal
par ad
eĠor der
Ġout ĠtheĠ
exc ept
offer sĠa
roll er
anch is
optim ization
custom ersĠ
Ġsens or
Ġtues dayĠ
connectĠ with
' sĠtheĠ
, ĠtheĠg
c ultural
f rench
k ne
u h
Ã ł
Ñ ı
re form
at eĠa
.Ġ moreĠ
ar s
is ĠanĠ
you ĠdonâĢĻtĠ
Ġm ulti-
Ġh eaven
ac ross
un a
ad ay
ag ra
ak a
con stitut
s.Ġ now
s,Ġ weĠ
Ġor Ġeven
sp eech
ra ch
su redĠ
ingĠtheĠ rightĠ
ĠtheĠl ordĠ
dis pos
ingĠof Ġ
aw a
log ic
person nel
gar lic
suit ableĠ
Ġprof it
zer oĠ
successful lyĠ
Ġsucc essĠ
b ud
b ob
c lock
s ist
w av
en orm
ou s,Ġ
st an
is ol
Ġh eldĠ
res ortĠ
Ġand ĠtheĠp
ew is
per iodĠof
cl imateĠ
Ġab und
eĠf ill
Ġtim e
mor e.
eĠfor Ġall
Ġsp in
bec ameĠ
bo il
ĠaĠd ist
doĠ i
Ġen vironmentĠ
nam entĠ
Ġbr ush
,Ġyou 'll
edĠs everal
law y
Ġmil k
main lyĠ
Ġappoint mentĠ
innov ation
e igh
e org
j ean
v p
Ð ¼
Ġa Ġth
it zer
al con
st ir
ĠtoĠ build
Ġp alm
Ġm outh
Ġof ĠtheĠh
ab let
s>Ġ<s> ĠifĠyou
Ġv enu
Ġat ĠtheĠs
ub ai
eĠf amilyĠ
butĠ notĠ
int ageĠ
when ĠitĠ
new sĠ
go Ġthrough
sĠareĠ alsoĠ
ureĠ with
ingĠc all
eĠg iv
struc k
rel ativeĠ
Ġcomm and
what ĠtheĠ
cor rectĠ
ingĠyour self
rib bon
conf ident
val le
coll ectĠ
ify ĠtheĠ
feat uresĠ
print ableĠ
Ġton ight
Ġtom ato
refl ectĠ
clin ic
ĠtheĠdi rection
% ĠofĠtheĠ
a verag
eĠ control
an yth
es is
Ġc oin
th en
Ġb udgetĠ
am ountĠ
Ġof Ġthes
ex asĠ
ha ul
Ġand Ġto
ri vers
Ġwith Ġyou
eĠd ef
sĠin Ġwhich
ind e
ĠtheĠf amilyĠ
eĠp oss
year Ġ
s, ĠtheyĠ
plac esĠ
.Ġh eĠisĠ
Ġthos eĠwith
actĠ with
Ġsup pos
Ġstud y
ĠmayĠ notĠ
effect iven
inst eadĠ
Ġback ground
everyth ingĠyou
Ġoffer sĠa
Ġweek end
ĠalwaysĠ been
compl ain
invest igat
umb ai
Ġassess mentĠ
Ġsection Ġ
Ġfacil ities
Ġthird -
uis in
- relatedĠ
l ingĠ
ing Ġproject
Ġs ister
Ġw ealth
is diction
Ġm istak
Ġh oldĠ
com esĠfrom
s.Ġ your
ĠthisĠ wasĠ
be tĠ
sĠin Ġa
Ġyour Ġhom
eĠf irst
erv ision
Ġis Ġalso
ĠtheĠt ext
eĠh istor
ĠtheĠd evic
Ġaf ghan
inter activeĠ
ĠtheĠl ateĠ
noĠ idea
ath edral
creat edĠ
Ġmin or
med ication
start up
manag edĠtoĠ
sĠar eĠtheĠ
law yer
Ġthere âĢĻs
until Ġ
Ġoffic eĠ
employe esĠ
buy er
being ĠableĠtoĠ
excit edĠtoĠ
custom iz
uthent icator
roleĠ in
Ġtemper atur
Ġadvent ur
icag o
p our
Ġ essayĠ
on Ġof
on eĠtoĠ
at ar
el and
Ġh p
le verag
Ġf avourit
lo yĠ
op per
Ġn ar
s.Ġ whatĠ
ev in
eĠin Ġour
Ġad min
Ġad option
other sĠ
eĠp ick
Ġha z
Ġ( n
eb odyĠ
itt le
Ġsp ain
eĠon c
ingĠp oint
whereĠ i
ĠwouldĠ b
12 5
learn ing
Ġare a,Ġ
kn if
consider ation
ĠaĠn atural
cent r
ĠtoĠp romot
Ġauthor ityĠ
Ġexc eption
.ĠyouĠcan ĠalsoĠ
evil leĠ
eĠmanag ement
Ġimprov ement
Ġasp ectĠof
eĠfac il
Ġexper tĠ
rare lyĠ
i ersĠ
l ind
l ordĠ
p urchaseĠ
s itt
s ameĠ
s ym
t re
in suranceĠ
yĠ st
Ġs eal
Ġs itt
for estĠ
ent ic
ent uck
us edĠbyĠ
eĠof ĠhisĠ
sĠof Ġd
rec k
ass et
ingĠs chool
fl ictĠ
ĠaĠb u
10 2
Ġbe er
,Ġs aid
ingĠb etter
par allel
Ġind icator
goĠ on
Ġfl ag
lim itation
Ġexam in
hon est
indust ry.Ġ
Ġapproach ĠtoĠ
Ġoper ator
Ġguid elin
eĠwant edĠtoĠ
relig iousĠ
oxy gen
/ t
b id
g art
l end
m enu
w ick
Ù Ĩ
ĠtheĠ whol
,Ġ sc
,Ġ whether
ic id
Ġc oupon
Ġw eĠwereĠ
Ġp oker
ch ill
Ġm as
Ġh dĠ
ur eĠc
esĠ up
esĠ between
ir stĠof
Ġof Ġcours
ter min
Ġl y
sĠa g
Ġpro b
ĠtheĠc olleg
eĠp ag
Ġk it
Ġtak eĠyour
yĠof fic
ĠaĠf antastic
Ġres erveĠ
ĠtheĠn etwork
ĠaĠl ink
ingĠb y
.Ġin stead
Ġgr andĠ
bas ket
ĠpeopleĠ with
poss ess
Ġ& Ġ
opportun ityĠfor
Ġext end
Ġpower ful
ĠdidĠ you
defin itely
super ior
Ġthous and
atal og
Ġcompl aint
Ġassign ment
Ġjun ior
neighbor hood
jun ior
. ĠaĠp
a Ġr
d estroy
g ian
i Ġb
i Ġd
n ack
Ġ essential
Ġt a
ing Ġpric
al tyĠ
al endar
Ġs oul
ch art
ch ampionship
ro at
Ġm otiv
Ġd ut
Ġd ivid
ol en
et ect
ingĠ job
Ġto ĠtakeĠa
and yĠ
Ġst retch
be ef
eĠw ould
por tionĠof
Ġac re
Ġad her
Ġr uleĠ
ĠtheĠc los
sp anish
cont r
look ingĠat
ing.Ġ in
Ġgr an
eĠg row
wouldĠ beĠa
att empt
sĠd evelop
cor respond
ush room
.Ġf irst
Ġeng land
step Ġ
Ġhour sĠ
mightĠ beĠ
Ġpat ientĠ
Ġachiev ement
Ġdoes n'tĠ
fut ureĠ
- a-
7 1
8 6
; ĠandĠ
d istanc
s lightlyĠ
sĠ re
ĠtheĠ stat
re au
.Ġ whether
ar on
Ġc utt
Ġc ritical
ĠandĠ work
ĠtoĠ com
Ġp itch
Ġp ocket
you tĠ
Ġb ird
le ak
ur pris
am or
ri ot
ther land
eĠin Ġtheir
art z
eĠm achin
cl Ġ
sĠin ĠtheĠs
ĠtheĠc olor
ĠtheĠb enef
eĠp aper
vi ation
Ġis Ġthat
Ġacc um
pos itor
fl atĠ
ĠtheĠl ord
ident if
raw l
ĠtoĠf ollow
,Ġn or
increas edĠ
expect ation
eĠn umberĠof
Ġstart up
Ġcall edĠ
nov ativeĠ
Ġest imat
ĠoneĠof Ġour
sequ entlyĠ
Ġtel ecom
Ġcompet itor
Ġlibr aryĠ
Ġpromot ion
Ġexter nal
8 2
g ap
l ash
s Ġallow
s ilver
Ġc ycl
Ġs oil
Ġs electĠ
Ġp etĠ
Ġm etĠ
Ġd iss
ur u
Ġar myĠ
ex as
itĠ seem
Ġfor ĠhisĠ
ess on
Ġall ĠtheĠtim
eĠin ĠtheĠm
your Ġhom
haveĠ anyĠ
bu b
eĠa utom
Ġad mit
ĠtheĠb odyĠ
eĠp osition
her e,Ġ
ra wer
.. ...
Ġle as
new sletter
Ġper Ġcent
ĠtheĠl ight
ik eĠ
ert ification
Ġthey 'r
emp ir
co .uk
ann ah
sĠs aid
Ġtop Ġ
Ġgu itar
Ġtechnolog y.Ġ
Ġprovid er
,ĠitĠ was
Ġwhat ĠtheyĠ
ĠanĠin vest
less lyĠ
entĠof ĠtheĠ
Ġcas eĠyou
ogn itiveĠ
Ġlong er
ĠtakeĠ advantageĠof
imm ingĠpool
Ġhistor yĠ
Ġkid sĠ
agre ementĠ
oen ix
at om
ing ĠcompanyĠ
.Ġ sc
is ĠaĠc
edĠ hereĠ
ol iv
Ġl ens
Ġac idĠ
out iqu
s>Ġ<s> ĠweĠ
eĠtoĠ getĠ
som eĠpeopleĠ
es.Ġ w
ian a
ĠtheĠl ittleĠ
Ġafter Ġall
Ġne edĠof
Ġcomp ens
Ġwhich Ġis
stor eĠ
bl ind
oneĠof Ġthem
,Ġh ealth
ier c
by -
eĠsh eĠ
exc el
ĠandĠh ealth
Ġco at
Ġreal ĠestateĠ
contactĠ usĠ
month lyĠ
Ġgrad u
Ġappar entlyĠ
chand is
. Ġthrough
h em
i e,Ġ
p oly
Ġ especiallyĠ
in ,Ġ
.Ġ john
el veĠ
Ġp ink
Ġp olitic
ch olarship
Ġb ench
Ġh itĠ
Ġd avidĠ
Ġf ebru
esĠ c
Ġof ĠtheĠg
eĠs oon
all ic
ap ol
Ġtr ap
sĠandĠ m
bu zz
s>Ġ<s> Ġfor
Ġad minister
ust rat
Ġr aw
Ġi ĠcouldĠ
lin eĠof
es,Ġ but
ure sĠin
itt s
not Ġall
even ĠmoreĠ
sĠthatĠ wereĠ
doĠ isĠ
ĠaĠh ous
fre ez
ĠatĠtheĠ universityĠof
giveĠ us
struct ur
enn a
Ġsub scription
sm il
Ġcent re
eĠtheĠf irst
compl iment
eĠwouldĠ beĠ
Ġfamil ies
defin ition
comfort able
ĠlastĠ week
meas ur
jew el
.ĠâĨĳ Ġ"
8 1
i ator
k een
l uxur
Ġ efficienc
Ġt eas
.Ġ becaus
.Ġ goodĠ
,Ġ mor
Ġp atch
Ġp eter
Ġp acific
Ġb oil
ac yĠof
ir med
Ġof Ġan
ha g
Ġand ĠtheĠf
ĠthatĠ of
ĠthatĠ has
qu ar
sĠof Ġa
ĠtheĠs kill
Ġwith Ġher
Ġor ĠtheĠ
rec is
eĠb usiness
notĠ just
eĠh ard
la und
under ly
view edĠbyĠ
.Ġs ub
Ġy ellow
Ġmin imum
Ġday sĠ
struct ural
Ġtoday !
Ġprot ocol
sl ip
ingĠsom eĠ
ĠtheĠpres entĠ
Ġabil ity
resultĠ in
-r ayĠ
ĠperĠc entĠ
Ġrefl ect
Ġirel and
. ĠtwoĠ
2 25
h eĠwas
m eĠa
t rain
v astĠ
y "
Ð ´
sĠ help
ing Ġplan
,Ġ se
,Ġ what
al or
Ġs ideĠ
Ġp agesĠ
ed ,Ġi
Ġb eat
Ġb ond
le mentĠ
ingĠ light
ex tĠof
ul g
with ĠaĠs
eĠt own
eĠs kill
s.Ġ heĠ
s,Ġ g
e.Ġ c
eĠd eb
od ium
s>Ġ<s> Ġwhen
su res
can ĠalsoĠ
comp lement
eĠfor Ġm
s, ĠasĠ
la idĠ
Ġpr act
ĠanĠ email
amp ton
eĠyour Ġown
Ġlik eĠtheĠ
Ġneed edĠtoĠ
mentĠof ĠtheĠ
,Ġwith ĠtheĠ
beg un
add leĠ
Ġcent uryĠ
Ġmil esĠ
Ġent repreneur
sĠwhoĠ haveĠ
me antĠtoĠ
inf oĠ
Ġstrateg ic
Ġsurv ival
ĠrightĠ now
Ġrespect iveĠ
unfortunat ely
ĠtheĠtyp eĠof
imple mentĠ
-of -
ĠallowsĠyou ĠtoĠ
9 1
h yp
j anuaryĠ
o et
r ash
sĠ "
an ,Ġ
ar v
es Ġafter
Ġto ĠaĠp
ul ated
ĠthisĠ month
.ĠtheĠ mostĠ
ell ar
od ayĠ
Ġab oveĠth
ĠtheĠc ost
port sĠ
sit u
los som
old estĠ
ingĠc enter
leg it
Ġmin i
Ġmin eral
sĠc all
Ġco al
Ġhealth yĠ
cred iblyĠ
del ay
http s
Ġconven ienc
usal em
b os
f ax
j azz
s cheduleĠ
w ors
on 'tĠ
ing sĠon
ing ĠtwoĠ
ing ĠprocessĠ
,Ġ car
om eg
Ġw rong
is ĠaĠs
Ġp a
Ġp epper
edĠ v
ro bert
Ġyou Ġknow
ab aseĠ
qu eĠ
ĠthisĠ on
e.Ġ now
est iveĠ
ess ert
Ġwith inĠtheĠ
eĠb enef
Ġsh eĠwasĠ
ĠtheĠt raditional
Ġtim e-
ib m
Ġam Ġi
ass oci
ĠitĠ up
Ġwork ingĠon
,Ġs aidĠ
Ġup Ġfor
Ġther mal
es. com
conc eptĠ
complet eĠwith
ĠsoĠ i
ĠmoreĠ about
Ġeng landĠ
ĠtoĠmak eĠitĠ
Ġfac ult
ĠareĠs oĠ
agn ostic
Ġvide os
Ġdirect lyĠ
Ġport fol
Ġcharacter istic
ĠtheĠman ag
vin yl
Ġcha in
ĠtheĠdec ision
Ġaccordanc eĠwith
adelph ia
- al
a Ġh
b rows
f ascinat
h ostĠ
Ġt ail
Ġa k
Ġa Ġwhil
Ġa ustralian
an es
at edĠbyĠ
ing ĠandĠt
ent ,Ġ
ol t
ur i
em ic
Ġyou âĢĻr
ab ol
com fortĠ
Ġcon sc
ind eed
act oryĠ
ĠtheyĠ wouldĠ
es.Ġ weĠ
ing,Ġ i
Ġcont in
pa iredĠ
whil e,Ġ
back Ġin
att ract
18 3
,Ġyou ĠneedĠtoĠ
cor por
Ġgu ess
.ĠifĠyou ĠwantĠtoĠ
unch Ġof
Ġpres ident
17 0
ĠandĠw ater
mal ink
Ġcor rect
Ġtour nament
ecut iveĠ
Ġfamil iesĠ
Ġent ir
consist entlyĠ
Ġmus ical
lookĠfor ward
exhib it
spok en
letĠusĠ know
Ġspirit ual
referred Ġto
. ĠaĠf
b ott
b rief
c ow
d ,Ġ
is ha
ed ĠaroundĠ
Ġb ell
Ġd eliveryĠ
ex haust
ay ment
Ġn an
Ġwith ĠhisĠ
s>Ġ<s> Ġon
Ġat mospher
Ġr ural
ĠtheĠm oment
Ġthat ĠtheyĠareĠ
her o
eĠf urther
sĠtoĠ getĠ
comp reh
Ġtim e.ĠtheĠ
ne ak
som eĠc
Ġsp ark
e, ĠandĠtheĠ
inter vention
ĠanĠ end
ĠaĠc oupleĠ
ingĠb usinessĠ
eĠyou Ġwill
ĠandĠf eel
valu eĠ
step hen
Ġhour sĠof
fr anc
dist ribution
Ġlov elyĠ
36 5
eĠshouldĠ beĠ
iger ia
Ġhaven 'tĠ
frequ entlyĠ
olec ular
ylin der
, ĠtheĠw
i ĠandĠ
j aw
l t
m t
n ersĠ
Ġa Ġwork
in os
at ed.Ġ
es Ġas
Ġc reation
Ġs olv
Ġb order
Ġd oneĠ
Ġf ell
em pl
ex istĠ
with inĠ
ĠthatĠ couldĠ
Ġst rang
over look
end ant
ĠisĠ on
edĠtoĠ beĠa
ne ighbour
lin dĠ
ob st
og g
usin ess,Ġ
Ġyear ĠoldĠ
sĠand Ġthen
Ġup Ġon
Ġrec ruit
Ġse eĠa
.ĠitĠ has
ĠwhatĠ is
e.Ġi ĠhaveĠ
ĠthoseĠ whoĠareĠ
ingĠt oward
eĠtheĠs ameĠ
Ġbo at
ĠaĠch anceĠtoĠ
Ġclass room
limit edĠtoĠ
eĠpart icular
Ġgod âĢĻsĠ
Ġattempt ĠtoĠ
Ġzeal andĠ
Ġprofess ion
ophistic atedĠ
- k
. Ġar
x id
Ø ±
Ġ rom
Ġ icon
sĠ has
at in
ing "
ing Ġthing
ing apor
Ġs auc
ĠtoĠ join
ch os
ro ast
isĠ oneĠof
Ġh ub
le man
Ġd oc
us k
ac on
un usual
if est
eĠof ĠtheĠs
ist a
sĠtoĠ com
ob b
e. Ġthen
not ification
each Ġyear
br ac
whatĠ itĠ
view Ġof
Ġthis ĠtypeĠof
Ġup per
,Ġm ean
Ġthos eĠin
Ġgr ac
Ġstud io
col umn
Ġdec reas
ingĠyour Ġown
ĠtheĠmostĠ popular
irc umstanc
choos eĠa
des ir
Ġapprec iation
Ġpatient sĠwith
Ġsol idĠ
liqu id
ĠaĠgroup Ġof
suffic ientĠ
Ġhensen,Ġj .l.m
. ĠthatĠisĠ
sĠ but
.Ġ getĠ
Ġan ton
Ġs oft
Ġp age.Ġ
Ġb andĠ
Ġf elt
Ġal le
ag eĠin
Ġl aser
Ġand ĠtheĠd
up com
eĠw omen
âĢĻsĠ mostĠ
Ġch ampionship
Ġthat Ġallow
eĠp ublish
eĠf ood
Ġ( p
cont rast
mak ingĠ
Ġus b
way .Ġ
so il
rem ed
ĠanĠ oldĠ
edĠon lyĠ
esĠof f
Ġlif eĠandĠ
lead ingĠ
pric esĠ
whenĠyou ĠareĠ
Ġdep th
ucc essĠ
nor thern
Ðµ Ġ
Ġent ryĠ
strong lyĠ
refer r
?? ?
ĠtheĠman ufactur
eĠbeli ev
Ġreli ef
ynd rom
. ĠaĠb
8 4
] ,
c rowd
f riday
l ayĠ
s dĠ
st ig
Ġc ub
ĠtoĠ becom
edĠ $
ed âĢĿ
ed ĠasĠtheĠ
ch arter
Ġh ook
ec astĠ
Ġf inger
am per
Ġof ĠitsĠ
Ġg aller
ab ov
s.Ġ how
ew ater
Ġtr uly
eĠm y
soĠ youĠcan
Ġcon junction
Ġor Ġother
ind uc
Ġthat âĢĻs
ra veĠ
Ġi Ġhad
ĠtheĠp atient
can 'tĠ
when ever
oll ectionĠof
ey eĠ
bo atĠ
ĠtheĠn ightĠ
ingĠc ours
gu arant
Ġhom e
Ġsup plement
aint iff
dec ideĠ
Ġalso ĠtheĠ
rece iver
Ġarea Ġof
Ġproc ess,Ġ
ĠloveĠ with
Ġcoll abor
imm igration
noth ingĠ
inf o
spec ification
Ġsometh ingĠ
Ġgett ingĠ
Ġlim itedĠ
facil ities
Ġsl id
prom pt
a Ġk
s g
v r
Ġ uk
at eĠc
at ures
ing Ġproblem
oĠ of
Ġs ure
Ġs cheduleĠ
ĠandĠ whit
ĠtoĠ him
ĠtoĠ hear
Ġp ad
ch eer
Ġm ethodĠ
Ġd res
Ġf iber
esĠ &
ation Ġfrom
Ġyou ĠshouldĠ
ot on
pro portion
eĠs etĠ
sh eĠisĠ
anc ientĠ
od i
ĠtheĠb ill
eĠh otel
work edĠwith
Ġacc ent
ĠaĠd ailyĠ
every wher
creat ingĠa
ten anceĠ
equ ityĠ
real Ġestat
Ġaddition ally
ract al
ĠthereĠareĠ noĠ
Ġunivers ityĠof
sha k
Ġdeb t
inem a
Ġextrem elyĠ
Ġvit amin
. ĠaddĠ
9 4
; ĠtheĠ
h o
p rivateĠ
Î ¿
Ġt aylor
Ġth ail
Ġw ors
ĠtoĠ playĠ
im mediateĠ
Ġin vit
id oĠ
am et
un day
Ġto Ġtalk
Ġyou âĢĻreĠ
ut ureĠ
Ġwith ĠaĠb
eĠb lock
eal Ġwith
es.Ġ itĠ
new Ġ
comm andĠ
Ġus eĠtheĠ
Ġthes eĠtwoĠ
dis order
mon ster
atedĠ for
ingĠc or
ingĠc ustomer
Ġinter pret
Ġse eĠtheĠ
lif e,Ġ
lif eĠandĠ
Ġdi agnos
Ġreg ulator
Ġcol leagu
plan sĠtoĠ
Ġtechnolog ical
Ġminut es,Ġ
ĠtheĠsp ec
etc .Ġ
eĠdec ision
Ġsens eĠof
Ġdeb tĠ
itar ian
succ essĠ
Ġpo et
Ġprofess or
Ġgal ax
concent rat
- lik
d rain
f ellow
p eak
p oker
r m
s ion
u j
y stĠ
Ġa qu
er iesĠ
on ĠtheĠc
or izon
re x
al mostĠ
Ġp ic
Ġp eak
Ġh ik
us .Ġ
ac y
Ġin ĠanyĠ
eĠw indow
ip ad
bu reau
Ġad mir
eĠtoĠ get
eĠb reak
port al
Ġi Ġwill
ĠtheĠp hon
comp ell
av ail
mor eover
ifĠyou Ġcan
not ĠasĠ
youĠcan ĠalsoĠ
br ingsĠ
reg im
Ġyear sĠagoĠ
Ġwhich ĠwasĠ
ident ification
Ġthink ingĠaboutĠ
Ġservic e.Ġ
12 8
eĠsh opp
peopleĠ toĠ
real is
yĠs ystem
ĠcouldĠ beĠ
.com .
ipp in
Ġcr ack
Ġpric eĠ
understand ingĠof
ĠaĠgreatĠ deal
unitedĠ kingdom
near ly
jour neyĠ
histor ical
pick Ġup
Ġassist ant
propos edĠ
conven ientĠ
ĠanĠext rem
eĠint roduc
ingĠfac il
9 7
b order
d ad
i w
k im
l ender
t ar
u eĠ
Ġt aughtĠ
ou ver
at ial
al ter
ar sh
Ġc eil
ed ,Ġs
ch amber
Ġb oot
ation Ġand
op position
Ġto ĠaĠs
eĠth ough
Ġyou âĢĻveĠ
ag eĠfor
Ġn ail
Ġall Ġour
eĠw orldĠ
eĠd riv
ĠtheĠm ovi
ĠtheĠb rain
Ġi ĠwouldĠ
Ġis ĠaĠ
ne ath
s. Ġand
ĠtheĠw ell
ure .ĠtheĠ
Ġun itĠ
ingĠc los
,Ġm ad
bl end
co ordinat
whereĠ youĠcan
run ner
illion sĠof
Ġexperienc edĠ
ĠtheĠch aracter
Ġbas is
edĠd ata
,Ġbut ĠalsoĠ
gen uin
Ġliv ingĠroom
acc essĠ
choos eĠtoĠ
Ġcam er
big ger
Ġgl ad
Ġtoward sĠtheĠ
eĠthereĠ ar
Ġbeli eveĠth
payĠ for
ĠtheĠfin ish
Ġrepresent ativ
eĠsit uation
ĠaĠwideĠ varietyĠof
ĠtheĠfour th
onym ousĠ
underst ood
ĠÎ ¼
itts burgh
a ution
f ootball
g rew
r .
w itness
y k
ou s.Ġ
ing Ġas
,Ġ inĠtheĠ
Ġc ritic
for Ġsal
Ġf enc
eĠs ell
e.Ġ m
est rian
ĠasĠ far
ityĠ with
ĠtheĠf ieldĠof
Ġex press
ĠtheĠp ass
ĠtheĠt ask
eĠfor c
urn ac
ĠtheĠl ak
stud i
Ġ" th
need sĠ
sĠc or
nam edĠ
learn ĠmoreĠaboutĠ
real ĠestateĠ
conc ert
edĠa wayĠ
Ġplac eĠin
edĠfrom Ġ
sub mitt
Ġcr ystal
eful ly
sinc eĠtheĠ
Ġbetween ĠtheĠ
Ġvari et
Ġoc tober
easyĠtoĠ us
eĠthereĠ isĠ
operat ingĠsystem
Ġo z
Ġtemper atureĠ
difficult ĠtoĠ
Ġdom estic
eĠcoll ection
eĠbeli eveĠ
crim inal
h usbandĠ
i anceĠ
s itĠ
eĠ befor
Ġth ingĠthatĠ
er sĠand
yĠ from
ing Ġcondition
.Ġ which
ar u
es "
Ġs weet
Ġb oston
Ġh ack
us lim
Ġof Ġk
Ġn ich
ri beĠ
um ental
iv e.
Ġab road
notĠ even
inc tion
s, ĠtoĠ
Ġtak eĠyou
not ion
Ġpr ay
look ingĠ
bo ast
ing.Ġ itĠ
,Ġs w
Ġy etĠ
Ġro yal
elect edĠ
au x
Ġneed s.Ġ
energ y
ĠtoĠf eel
abin etĠ
eĠal ong
eĠdevelop mentĠ
unfortunat elyĠ
Ġfranc isco
nav igat
ĠaĠdec ad
ĠtheĠcours eĠof
Ġbel ong
, ĠthisĠis
? Ġwell
b rok
c oupon
i Ġ(
j ok
s ert
s Ġteam
Ù Ĭ
eĠ student
Ġt oler
tĠ with
an Ġin
re lyĠon
Ġan Ġadditional
,Ġ oneĠof
st rok
Ġc ities
ĠtoĠ dis
us ĠandĠ
Ġf eed
Ġto Ġask
eĠm atch
Ġcon vert
Ġab s
ĠtheĠf oodĠ
s. Ġthis
s. ĠtheseĠ
.Ġi ĠhaveĠbeen
Ġle mon
oll abor
ĠtheĠw in
s, Ġall
Ġpr inter
myĠ own
Ġsom eĠofĠtheĠ
ron tĠof
bas ically
eĠl ight
Ġout com
Ġcol umn
Ġtechnolog yĠandĠ
Ġneed sĠtoĠ
Ġactiv elyĠ
energ yĠandĠ
Ġreal ity
Ġanal yst
sign ificant
Ġint ens
Ġbecaus eĠ
eleb rateĠ
respect iveĠ
Ġtherap eutic
pict ures
libr ary
Ġins ight
eĠdep artment
rook lyn
elim in
sĠass ociation
Ġreplac ementĠ
Ġstra ightĠ
: Ġb
c aughtĠ
f yĠ
g ladĠ
Ã ¸
Ġa uction
at ical
at edĠandĠ
al read
ar mer
Ġs chedul
el eph
for ĠtheĠs
Ġp urchaseĠ
ec retĠ
esĠ her
Ġin ĠtheĠd
os cop
ĠthisĠ book
e.Ġ your
Ġwh os
eĠw ait
gr as
ĠtheĠm iddleĠ
mor eĠinformation
ass ador
ĠaĠc ustom
sĠm uch
Ġro ot
mad eĠitĠ
ĠtoĠs ell
gener ally
Ġwhat âĢĻsĠ
Ġrem odel
Ġtalk ingĠaboutĠ
Ġcas eĠof
Ġmo on
didĠ you
combin edĠwith
locat edĠon
ĠrecentĠ year
means ĠthatĠ
Ġthorough lyĠ
Ġruss ia
academ ic
fli x
Ġarr ayĠof
) Ġ-
. Ġthat'sĠ
b oughtĠ
c )
i per
s oftĠ
v ar
Ã £
Ġa verageĠ
sĠ suchĠas
ĠtheĠ companyĠ
al eĠ
es ,Ġa
for -
you Ġwith
ch eaper
Ġm echanism
ent enc
esĠ haveĠbeen
Ġin ĠaĠs
if Ġh
Ġl amp
eĠs k
e.Ġ itâĢĻsĠ
pr ing
eĠtoĠ m
eĠb lack
se am
Ġap olog
ĠatĠ work
cont rovers
mor eĠp
ingĠs o
ous in
Ġacc identĠ
ifĠyou âĢĻr
ĠaĠb adĠ
ĠtheĠn atur
Ġatt ractĠ
urr ently
,Ġw ater
Ġwe ak
oh ioĠ
Ġback groundĠ
opportun itiesĠ
star ter
Ġlevel sĠof
Ġtem plateĠ
contain er
Ġdon'tĠ know
sequ ently
ĠtheĠpres enceĠof
ĠtheĠph ysical
lack Ġof
edĠinto ĠtheĠ
eĠph oto
ĠanĠa verag
---- ----
Ġrelig ion
Ġassemb lyĠ
r ural
in th
,Ġ just
Ġc orn
Ġs outhern
Ġs oftware
ĠandĠ help
il etĠ
ch il
Ġb ayĠ
us edĠasĠa
Ġf itt
id -
Ġg rew
ut ur
Ġre form
uc os
ist ryĠof
Ġr an
Ġap i
eĠh ost
ĠtheĠd eb
s. ĠasĠa
do ingĠ
Ġsp read
.ĠthisĠ year
whatĠ w
eĠwith in
know sĠ
Ġsc ratch
.Ġm ean
Ġy eah
ĠaĠw id
abil ity.Ġ
ĠpeopleĠ in
ĠaĠt rip
group Ġof
Ġrequ iredĠ
result ingĠin
ĠtheĠtim eĠ
sol ar
enjoy ĠtheĠ
Ġlong -term
ĠwillĠbeĠ ableĠtoĠ
iou s,Ġ
ĠtheĠph il
sugg estĠ
Ġval le
consist entĠ
s- on
Ġfar mer
located ĠatĠ
ĠtheĠlow estĠ
pract ition
, Ġthrough
4 50
b ritish
f ell
f ruit
h urt
s weetĠ
s burg
y ield
Ġ essay
eĠ about
Ġa Ġproblem
in Ġplac
er s.ĠtheĠ
on eĠs
es ĠtheyĠ
es ĠaboutĠ
th Ġgrad
ĠandĠ everyĠ
Ġd esc
Ġin Ġher
Ġto xic
ex cess
ĠthisĠ was
s,Ġ our
sh elter
ist ribut
be haviour
out ĠandĠ
eĠtoĠ mak
Ġj ointĠ
Ġk en
ĠtheĠp al
sĠtoĠ m
e. ĠthisĠis
lik eĠthis
es.Ġ for
ov ement
ingĠs ign
Ġacc us
Ġthos eĠs
Ġwhich ĠareĠ
,Ġi ĠwouldĠ
Ġind icat
Ġse atĠ
eĠl im
becaus eĠyou
,Ġc alifornia
ĠwouldĠ you
mad eĠm
ĠtoĠb eĠin
run k
Ġbu ilt
eĠsp end
aut om
enn ifer
17 5
iec eĠof
sub mit
ĠaĠv ide
main tenanc
engag ementĠ
ĠaĠlarg er
ĠtheĠpres ident
appro x
Ġdeal ingĠwith
Ġval leyĠ
implement ation
inct iveĠ
iga rett
- l
. ).
a verageĠ
b ull
c re
h dĠ
r ak
eĠ alsoĠ
Ġa uthentic
sĠ contain
on tĠ
,Ġ who
th ingsĠ
th Ġannivers
ĠtoĠ in
Ġp aidĠ
esĠ hisĠ
Ġof ĠanyĠ
Ġn etĠ
.ĠtheĠ companyĠ
.ĠtheĠ bestĠ
bu f
eĠd raw
Ġcon ver
ĠtheĠc ap
Ġk g
work ingĠin
lin ux
ateĠ and
Ġit 's
rem indĠ
ĠaĠc op
Ġcont ext
chang esĠin
ĠandĠs ervic
Ġen em
Ġthank sgiv
experienc eĠof
io xid
Ġanother Ġ
Ġann oy
ask a
gam esĠ
avor iteĠ
sĠw ant
wr app
fr ing
ĠthankĠyou ĠsoĠmuch
impl y
eav or
eĠsoĠ manyĠ
iĠhaveĠ been
Ġbig ger
,Ġinclud ingĠ
ĠtheĠbas isĠof
Ġmobil eĠ
Ġbusin es
Ġphys ic
Ġadvoc at
emphas iz
Ġalp ha
- styleĠ
e ous
f le
h eĠis
l ig
v etĠ
Ġ impactĠ
sĠ moreĠ
er tion
on ĠtheĠm
it r
it is
st yleĠof
ĠandĠ moreĠ
il ig
Ġb os
Ġb eĠa
Ġd rain
Ġf le
ation sĠin
ation Ġor
pro spect
.ĠtheĠ onlyĠ
Ġfor ĠtheĠs
ĠtheĠs ourc
sĠandĠ in
haveĠ to
od dĠ
Ġv endor
Ġr u
Ġj amesĠ
eg an
Ġsp eedĠ
af Ã©
ĠaĠc los
provid ing
noĠ oneĠ
ari ju
ingĠp res
stud ies
co astĠ
fac eĠ
Ġse ed
ock eyĠ
sĠc los
elect ro
Ġwe âĢĻreĠ
Ġperson allyĠ
Ġbu iltĠ
Ġnot ification
lead ing
Ġsub mitt
doesĠ not
important ly
Ġdist ribut
Ġannounc ement
limit edĠto
foundĠ in
Ġveh icl
tu be
sĠass ociatedĠwith
roc eryĠ
Ġsmart phon
Ġghost keeper
, âĢĻ
f elt
r of
s chem
Ġa Ġregular
ing ,Ġt
.Ġ greatĠ
Ġp ortĠ
Ġm aximum
Ġf eb
im ens
Ġal oneĠ
Ġar izon
ag eĠisĠ
up p
Ġst adium
e,Ġ for
e,Ġ whoĠ
Ġon ĠtheĠm
Ġon ĠhisĠ
ĠtheĠs earch
end ors
eĠa Ġnew
Ġi âĢĻveĠ
ult ur
Ġthem .
ĠtheĠg ar
ingĠd ep
eĠg ood
Ġcar b
nam eĠisĠ
sĠyou ĠhaveĠ
oh io
Ġaut umn
count ri
ĠtheĠworld 'sĠ
sign ificantlyĠ
bor row
eleb r
Ġhear d
wid th
improv ementĠ
ref und
exist ingĠ
sa uc
eĠsc en
Ġsurv ey
s>Ġ<s>Ġw elcom
simpl y
manufact uredĠ
conduc tĠ
n ich
y âĢĿ
eĠ re
Ġt rib
sĠ had
on ia
or Ġeven
en ryĠ
an im
of Ġcourse
es '
Ġs ight
ĠtoĠ ensureĠ
Ġm ichigan
ur rican
esĠ mayĠ
em inar
ex ecution
with Ġan
Ġl td
ĠthatĠ hasĠbeen
rom pt
s.Ġ itĠis
e.Ġ (
Ġwith Ġother
over eign
Ġch ronic
ment ,Ġ
ĠtheĠb usiness
Ġsh eetĠ
ĠtheĠt ru
Ġtim ber
ne therland
iesĠ (
di am
mer ic
co oper
Ġcl oud
.Ġf ind
shouldĠ you
mark ĠtheĠper
Ġstor y
special ist
again st
ĠtheĠfut ureĠ
ĠfamilyĠ member
tg ageĠ
calc ulat
lass ic
Ġvir ginia
Ġagric ultural
comeĠup Ġwith
markĠtheĠper malink
b udd
b esid
h unt
m otion
s ightĠ
Ã ±
in Ġh
sĠ near
er ryĠ
ou sĠa
ing Ġapplication
.Ġ fre
ar yĠtoĠ
Ġc elebrat
Ġw ag
ĠtoĠ increas
for g
Ġm ah
isĠ (
Ġf lex
Ġin strument
ir i
ir ac
lo tĠof
Ġl ay
Ġl uxur
up Ġto
Ġthe oryĠ
e,Ġ weĠ
eĠin sid
ip t
eĠa ward
eĠp utĠ
sĠtoĠ keep
av an
Ġwill Ġhelp
Ġsp ir
Ġag greg
ĠaĠp ict
ĠaĠp ublic
Ġbe an
ingĠb u
amil ton
eĠsh own
ĠmayĠ haveĠ
qual ifiedĠ
Ġday sĠof
Ġgu estĠ
Ġhigh light
gl u
Ġbl ess
Ġpres entĠ
,ĠitĠ will
put Ġtogether
result sĠin
compl ianc
acc ountĠ
exam ination
ĠaĠsp ac
receiv ed
unitedĠstat es.Ġ
sĠwhich ĠareĠ
engag ement
doĠyou Ġthink
Ġwho ĠareĠ
ĠtoĠfindĠ outĠ
birth dayĠ
ogen ic
Ġfort un
7 50
? )
? Ġor
f rastruct
l ington
s b
y og
Ġc otton
ĠandĠ weĠ
ĠtoĠ w
ch ap
us an
Ġf ootĠ
Ġyou 'll
our th
ut en
ri ed
Ġfor estĠ
ant i-
Ġall ĠthatĠ
Ġor ĠâĢľ
year sĠago
vi aĠ
Ġam pl
mor eĠf
Ġle ak
ik ip
Ġyear s.
ath let
,Ġm r
whil eĠyou
eĠg ot
ingĠon lin
back groundĠ
much ĠmoreĠ
,Ġyou Ġknow
mostĠ peopleĠ
ĠgetĠ your
ers '
.Ġit 'sĠa
Ġhistor ic
Ġpiec eĠof
Ġcult ure
eĠsub ject
fut ur
after noon
sĠact iv
. ),
d eck
p assĠ
s Ġalong
Ġt agg
in ĠtheĠworld
Ġth riv
sĠ k
er i
yĠ hasĠ
Ġp olish
Ġm ph
Ġd eĠ
Ġd ental
et or
ag encyĠ
Ġcon stant
eĠtoĠ you
Ġor Ġmor
ĠtheĠf ast
Ġcan Ġhelp
work ingĠ
es,Ġ with
sĠfor Ġtheir
Ġne edĠfor
ĠaĠm odern
ingĠc ampaign
whil stĠ
Ġen th
.ĠitĠ will
log in
Ġwas Ġa
design edĠ
,Ġp .Ġ
sĠf eel
goĠ for
letĠ m
s.Ġi Ġam
ĠtoĠmak eĠsureĠ
gett ing
eĠinter national
Ġbecaus eĠi
intoĠ your
Ġmay ĠalsoĠ
sĠmayĠ beĠ
Ġem otion
otherwis eĠ
Ġphys ician
. '
b owl
m ulti-
v essel
â Ī
Ġ ì
Ġ iron
ing sĠofĠtheĠ
Ġc rop
ĠandĠ keep
is ĠandĠ
ec id
un ger
ation ,ĠandĠ
Ġyou ĠwantĠtoĠ
pl om
e.Ġ so
.ĠtheĠ main
est at
anc tion
sĠandĠ isĠ
Ġpro s
Ġthat Ġtheir
ra idĠ
ia .Ġ
ĠaĠs uccessful
ost lyĠ
ingĠa reas
ple mentĠ
ifĠyou âĢĻreĠ
ĠwasĠ notĠ
ĠasĠa ĠresultĠof
ru in
back ĠtoĠtheĠ
Ġwhen ĠtheyĠ
Ġcl imat
Ġim ageĠ
happ yĠwith
mo der
Ġexperienc eĠ
prot est
eĠtheir Ġown
ĠtoĠp ick
seeĠ whatĠ
ĠveryĠ much
erĠ education
sĠinclud eĠ
quit eĠa
finish edĠ
ĠtheĠlastĠ few
beĠd is
Ġdel et
Ġchoos eĠtoĠ
wait ingĠfor
Ġtherap yĠ
eĠsc reen
Ġcompl ianc
las er
proced ures
prec is
eĠfeat ures
Ġruss ian
resp ectĠ
, ĠasĠwellĠas
. âĢĻ
/ her
: Ġw
b udgetĠ
d res
d ri
p remium
r ut
s lot
w rot
x l
z ech
ĠtheĠ real
,Ġ no.Ġ
Ġc reek
Ġh undredsĠof
esĠ likeĠ
ver b
ha i
ag o
our Ġcustomer
ut ah
eĠt icket
pl ent
sĠa vailable
ip her
Ġpro ven
eĠa reas
Ġv ic
ityĠ (
rec ent
Ġthat Ġtim
ĠtheĠp osition
sĠtoĠ haveĠ
eĠh uman
red ict
Ġit 'sĠa
Ġpl ain
ingĠs eason
comm it
row dĠ
la yout
Ġres ort
ing,Ġ which
sĠon ly
ĠaĠp ositiveĠ
stat usĠ
Ġallow edĠtoĠ
Ġtop -
ris on
proc ess,Ġ
conf idential
cr ash
Ġcompan y.Ġ
compl aint
establish edĠ
Ġarch ae
Ġfamil y.Ġ
ins ert
care fullyĠ
Ġtur k
Ġexhib ition
ĠtheĠnor thern
- outĠ
. -
. e.Ġ
e ager
i ological
j uredĠ
s ess
u ber
Ã µ
Ġa Ġpersonal
sĠ whyĠ
er Ġb
ing Ġplatform
al a
Ġc oldĠ
Ġs oftĠ
Ġw rap
is Ġalso
edĠ âĢĵ
Ġm ath
et ition
Ġof Ġnew
eĠt ableĠ
eĠt oward
Ġwith ĠaĠ
gr asp
od a
Ġch art
s. Ġthes
read ing
eĠthatĠ your
eĠg reat
Ġen ableĠ
befor eĠi
18 4
cor porateĠ
esĠfor Ġ
mo veĠth
Ġturn edĠout
Ġadv ant
ĠavailableĠ on
Ġcompan y
eĠit em
Ġbecaus eĠitĠ
ĠthisĠp ostĠ
ãģ ®
Ġexp and
eĠpart icip
e,Ġwhich ĠisĠ
eĠdown loadĠ
Ġcombin ation
Ġadjust ment
sen al
Ġreduc tion
someoneĠ whoĠ
prep areĠ
Ġdon't Ġthink
f lexibleĠ
i otic
j etĠ
t rad
v estĠ
v eteran
Ã Ĺ
sĠ creat
on usĠ
or tion
an oĠ
.Ġ com
.Ġ check
Ġs ever
ĠandĠ has
Ġw inner
Ġm iddleĠ
Ġh clĠ
ow el
ol eĠ
Ġin Ġn
ir cl
if ies
Ġal an
with Ġall
sh elf
li z
eĠtoĠ b
Ġi Ġwas
eĠf air
Ġsh own
av ailable
ov a
Ġus ing
sĠfor Ġsal
ful Ġof
oneĠ another
ĠtheĠh ard
ĠtheĠn ecessaryĠ
under Ġ
ĠaĠd el
ingĠm uch
doĠ so
ingĠon Ġyour
app eal
ĠaĠh istor
Ġdis aster
everyĠ singleĠ
Ġmak ingĠa
att or
mad eĠwith
Ġpart sĠof
Ġday s.Ġ
Ġexperienc e.Ġ
Ġcons umption
Ġser iousĠ
eĠthem selv
practic eĠ
jour ney
small er
Ġtoward s
consist sĠof
piec eĠof
Ġhon est
requir eĠa
zen sĠof
potential lyĠ
eĠpay ment
Ġdesk top
suffic ient
ĠaĠweb sit
, ĠtheseĠ
. ĠareĠyou
8 3
9 2
b other
d b
d y
d ar
i Ġk
m ot
p oll
t est
w p
Ġt ender
Ġth umb
sĠ notĠ
er Ġwith
ĠtheĠ information
it ledĠ
.Ġ whereĠ
ic itĠ
Ġs uggestion
Ġf older
ir at
ingĠ equipment
lo on
ad ata
ag ed
ĠthatĠ myĠ
ev entĠof
Ġon ĠtheĠc
eĠw entĠ
eĠc aus
Ġac compani
Ġr ug
ĠtheĠb log
ra ig
ity Ġand
Ġsh eĠsaid
eas ur
which ĠareĠ
Ġle af
ĠtheĠw omen
la ur
ĠaĠb ack
youĠcan Ġus
ĠaĠc as
edĠbyĠ our
Ġthis Ġarea
.Ġh eĠwas
Ġapp et
need ed.Ġ
start ingĠtoĠ
Ġdi ameter
week lyĠ
Ġhigh ĠqualityĠ
disc ipl
ingĠw ay
someth ingĠtoĠ
add edĠ
perhap s
mus ical
Ġexpect ation
Ã¢ âĤ¬
ĠtheĠgu id
example sĠof
march Ġ
! ĠifĠyou
f enc
f ightĠ
h h
h eĠwouldĠ
ä ¸
sĠ liveĠ
ou g
it rogen
.Ġ remember
ic rosoftĠ
ĠtoĠ open
Ġm artin
am ple
ad get
Ġar row
eĠth reeĠ
Ġn ick
ev it
sĠandĠ i
eĠtoĠ se
ber lin
ub mitt
ĠtheĠf ront
Ġi Ġknow
Ġsh ell
.Ġi ĠjustĠ
ateĠ isĠ
mor eĠin
wasĠ notĠ
ron z
.ĠitĠ hasĠ
Ġservic es
s,ĠandĠ other
effect iv
Ġlif t
compan ion
ser iousĠ
research ersĠ
everyth ingĠfrom
Ġtoday 'sĠ
Ġsub mission
Ġmar in
stit u
Ġhistor yĠof
ĠtheĠlat est
nut rition
rh ythm
eĠdidĠ notĠ
igen ousĠ
asket ball
Ġlegis lation
c b
d edicatedĠtoĠ
n u
n y
t ax
Ġ encounter
Ġt ort
,Ġ well
Ġh r
Ġf riendĠ
esĠ i
esĠ itĠ
id nâĢĻtĠ
Ġto Ġturn
ag ical
with ĠhisĠ
s.Ġ each
ĠareĠ alsoĠ
Ġfor Ġeach
soĠ on
Ġr ough
Ġcom esĠ
ĠtheĠm edia
ra ul
eĠf e
Ġ( s
ĠtheĠd eal
iesĠ on
s. ĠthereĠar
ob viously
ĠaĠs etĠof
e. ĠthatĠ
mor eĠof
let on
ĠaboutĠ our
ĠtheĠg irl
ingĠm arket
Ġgr oundĠ
includ ing
edĠto day
.Ġw eĠoffer
Ġy og
Ġadv antageĠof
continu edĠtoĠ
goodĠ for
compet itor
supportĠ for
des erv
polic yĠ
visitĠ our
eĠcas inoĠ
Ġaren 'tĠ
Ġcurr ent
Ġfig ureĠ
eĠtechn olog
Ġrep eat
portfol ioĠ
b ot
c -
c atĠ
n p
p remier
Ġt ai
Ġa Ġjob
re porter
ing Ġwas
oĠ cod
om eter
Ġc yber
ĠandĠ international
ĠtoĠ speak
ĠtoĠ discus
Ġp eer
ch risĠ
ent re
Ġf ert
esĠ whoĠ
wh isk
eĠth oughtĠ
Ġand Ġadd
eĠs uggest
pl umb
ĠthisĠ season
Ġtr ouble
anc ouver
bu sĠ
Ġcom eĠ
eĠp eople
Ġ( g
s. Ġthen
.Ġi ĠhadĠ
oneĠ (
Ġres ist
fl ux
ĠaĠ room
,Ġand ĠtheyĠ
are hous
ĠaĠl aw
Ġapp eared
ix edĠ
Ġup ĠandĠ
,Ġh om
Ġcl ar
ĠaĠw alk
long -
Ġstud ies
Ġlif e.
Ġfl atĠ
product sĠ
feat ureĠ
propert y
,ĠweĠ ar
sĠthrough out
aud i
ĠtheĠsub ject
improveĠ your
Ġadjust ableĠ
) Ġof
2 20
? Ġa
? Ġwhat
a q
b ench
c ros
d raft
m ell
n om
v ocal
Ġ ir
ĠtheĠ road
.Ġ just
st ableĠ
st adium
Ġs undayĠ
ed Ġthis
am er
Ġto ky
Ġn uclear
with Ġus
Ġall erg
eĠc ol
eĠm yself
over se
eĠa uthor
Ġr ack
ber n
eĠb ill
eĠp at
ok ia
ĠatĠ m
work edĠ
mentĠ in
ĠtheĠw rit
ount ryĠ
ord ination
Ġcont est
min der
ĠaĠp re
arn ish
.Ġh eĠis
Ġthey âĢĻveĠ
don 't
ingĠd ayĠ
Ġgr antĠ
back ground
gu yĠ
sĠs ystem
Ġthank sĠ
eĠsh ould
experienc e.Ġ
fre eĠof
esc entĠ
Ġaddition allyĠ
.Ġyou âĢĻll
.Ġb elow
Ġbl ind
perform anceĠof
nes ota
Ġaccess ĠtoĠtheĠ
Ġanal og
isĠtheĠ onlyĠ
util ityĠ
dur ingĠ
fall en
impro veĠtheĠ
ii i
ĠorĠ email
Ġabil ities
suppl y
sens itiveĠ
ĠtheĠfin estĠ
hab il
? ĠthisĠ
d ut
e is
h undredsĠof
i e
m ilitaryĠ
w eĠhad
Ġ id
.Ġ will
il leĠ
edĠ car
you tub
as ia
Ġd ash
im possibleĠtoĠ
ad equ
âĢĻ sĠandĠ
com esĠin
per manentĠ
e,Ġ itĠisĠ
cl ay
ea way
outĠ on
sĠin sid
ly ric
Ġor ĠnotĠ
eĠb all
ity ,ĠandĠ
Ġap k
Ġ( f
weĠ needĠtoĠ
Ġwill ĠalsoĠ
Ġper spectiveĠ
pos it
ĠtheĠl istĠof
ĠanyĠ question
10 6
stat ic
stat ut
Ġhow ĠmanyĠ
Ġdi am
pric e.Ġ
shouldĠ b
Ġinformation Ġon
increas inglyĠ
ĠallĠof Ġthem
Ġorgan is
eĠman ufactur
speak er
Ġvalu ableĠ
har der
rap idĠ
sĠup ĠtoĠ
ran ean
cert ifi
Ġassoci ationĠof
iev al
hesitat eĠtoĠ
Ġenth usi
3 20
9 3
b ond
d ail
h eâĢĻsĠ
i op
m ik
p s
y ll
Ġth ingĠtoĠ
sĠ hasĠbeen
en able
ĠtheĠ problem
ing le
edĠ butĠ
Ġf itĠ
Ġal ien
Ġto ĠanĠ
Ġl en
Ġl ip
ĠthisĠ morn
Ġfor Ġfre
iveĠ toĠ
out put
ĠtheĠf irm
Ġsh ock
.Ġi Ġhop
lik eĠthisĠ
eas y.Ġ
go ingĠ
af fect
ĠtheĠl atter
sĠon c
dis put
Ġne edĠa
jo inĠ
ingĠm yself
produc eĠ
produc er
ingĠb ut
,Ġd esign
ingĠh our
edĠm aterial
sĠf oundĠ
cr ush
cr ystal
opportun ityĠ
reduc eĠtheĠ
.Ġ" th
Ġchildren âĢĻsĠ
great estĠ
Ġmad eĠa
met ric
startĠ with
Ġcop y
Ġsha redĠ
Ġsuper ior
Ġrub ber
) Ġwith
, ĠaboutĠ
b ay
o i
Ġ ×
er .ĠtheĠ
ĠtheĠ entir
it Ġtook
ĠandĠ well
ro bin
Ġh el
esĠ itsĠ
s,Ġ so
sh am
ĠareĠ all
Ġst ain
e,Ġ n
Ġon -
ea restĠ
Ġcon sequenc
Ġch anceĠtoĠ
ly Ġafter
form edĠ
ĠtheĠp ag
eĠf our
ost -
Ġwill ĠhaveĠ
mak eĠyou
ous eĠ
pres sure
Ġsp otĠ
Ġmor eĠs
loc ationĠof
ĠaĠd isc
ingĠm odel
bl ast
sĠto o
mad eĠin
Ġim mun
conc il
Ġif Ġyour
,Ġt x
wher eĠtoĠ
giveĠ up
.ĠtheyĠ wereĠ
ĠthatĠi Ġam
dom estic
some whatĠ
Ġhav ingĠ
fair lyĠ
anger ousĠ
prepar ation
cert ification
photo grapher
Ġneg ot
conserv ation
Ġwait ingĠfor
pers ist
Ġabstr act
eĠbec am
imens ional
ikip edia
. ĠaĠ
2 10
: Ġd
c old
c rew
f ootĠ
h d
l oĠ
l uk
o j
o âĢĻ
u pl
v asĠ
w ouldnâĢĻtĠ
y ork
Ġ es
Ġ earth
Ġt ire
Ġt weet
in ĠandĠ
sĠ who
sĠ whenĠyou
on ĠandĠ
or mal
ĠtheĠ job
it .ĠtheĠ
.Ġ don'tĠ
es Ġthem
Ġw ak
is p
ĠtoĠ continu
Ġp akistan
ur ger
Ġin Ġan
Ġin ner
ver ification
lo sel
e.Ġ how
ĠasĠ your
ial lyĠ
s>Ġ<s> Ġg
eĠa im
Ġr ay
Ġr andom
Ġthat âĢĻsĠa
eĠp ain
now !
edĠin Ġyour
will Ġhelp
Ġap art
s. ĠthatĠ
Ġus ĠatĠ
Ġun itsĠ
do ing
do ĠthisĠ
ug ustĠ
ĠtheĠg en
ĠaĠm ult
ĠaĠp owerful
eĠon ly
includ eĠa
Ġrec all
Ġservic e,Ġ
lif estyleĠ
.Ġd espit
Ġthre eĠmonth
rist ian
yl er
ĠthatĠyou ĠhaveĠ
Ġso ĠthatĠ
Ġmad eĠ
eĠinter ior
Ġauthor iz
els eĠ
govern or
improv edĠ
essential lyĠ
eĠmayĠ beĠ
sett l
'dĠ likeĠtoĠ
Ġinf ection
leaveĠ a
s,Ġinclud ingĠ
makeĠsur eĠtoĠ
phys ician
familiar Ġwith
haven âĢĻtĠ
Ġafghan istan
ariju ana
, Ġthes
e ens
at Ġall
ing sĠwith
.Ġ âĢĿ
Ġs ymbol
ĠtoĠ view
ĠtoĠ begin
you ĠmustĠ
Ġm it
Ġb ob
Ġb ug
Ġb rief
Ġd ens
ingĠ if
res il
with Ġother
our i
Ġand ĠthisĠ
Ġand Ġam
Ġst em
enc ies
Ġon eĠor
ĠtheĠs ocial
âĢĻsĠ âĢľ
ong u
eĠp otential
eĠp ossibleĠ
her b
sĠtoĠ our
vi k
ĠatĠ itsĠ
Ġtim eĠand
ne uro
ne utral
eas yĠandĠ
eĠtheĠ rightĠ
mak ingĠitĠ
ĠthereĠ andĠ
ĠtheĠw id
yĠof Ġyour
Ġsp entĠ
eth an
Ġbe ingĠin
mon tĠ
Ġrec ycl
mer g
stud yĠof
Ġmon ey.Ġ
Ġy oga
ĠtoĠs cheduleĠ
Ġwe âĢĻveĠ
edĠs ub
what 'sĠ
giveĠ it
ĠaĠfew Ġweek
Ġaut o
.Ġsh eĠisĠ
bor ough
visit ĠtheĠ
ĠtheĠfut ur
ĠtheĠfact Ġthat
prior ĠtoĠ
intend edĠtoĠ
eĠfin ancial
perc eption
Ġanc est
Ġintellig enc
Ġtempor aryĠ
e ill
p ad
s eĠ
x in
in Ġall
sĠ until
er o
en at
an tĠof
re inforc
at eur
,Ġ som
Ġc ouldn'tĠ
Ġs eas
ĠtoĠ provideĠ
ed al
ed ian
Ġm and
Ġm eĠtoĠ
Ġh eĠsay
esĠ over
em ma
ul u
Ġn atureĠ
con str
Ġfor Ġ$
e,Ġ youĠwill
ess entially
ĠtheĠs ong
Ġwith inĠ
eĠm edical
Ġcom b
ĠtheĠc ol
Ġk itĠ
eĠf irm
ĠtheĠt ableĠ
ĠtheĠt ax
Ġthan Ġ
elyĠ with
sc ot
sc ulpt
ug al
ureĠ or
10 5
Ġther e.
sĠm ay
play edĠ
air Ġof
Ġtrans l
Ġwhen ĠitĠcomesĠtoĠ
Ġse am
everyĠ dayĠ
ingĠh ereĠ
ĠpeopleĠ andĠ
Ġif ĠtheyĠ
e.Ġi âĢĻm
ask edĠtoĠ
dep artmentĠ
.ĠthereĠ was
Ġstr uggl
ĠtoĠf ill
ĠanĠex p
ĠanĠin tegr
Ġcor porateĠ
seeĠ if
great lyĠ
ĠoutĠ for
member ship
irth dayĠ
haveĠth eir
Ġmic rosoftĠ
opt ical
eĠweĠ haveĠ
Ġpict ure
shall ĠbeĠ
access ibleĠ
Ġspec ification
integr atedĠ
major ityĠof
mag ic
Ġmix t
ĠtheĠhear t
Ġmemor ial
Ġenforc ement
c in
s ĠtheĠb
u Ġ
Ñ ĩ
Ø ª
à µ
en âĢĻsĠ
an eousĠ
,Ġ haveĠ
,Ġ ph
al g
Ġc riteria
ĠtoĠ g
Ġd ump
esĠ w
ha y
eĠt ip
est ro
enc los
eĠin ĠmyĠ
eĠc amp
Ġcom position
ĠtheĠm ember
Ġch os
eĠp ointĠ
Ġi 'veĠ
comp assion
ult ure
comm enc
Ġtak ingĠ
plac eĠfor
Ġup holster
Ġrec ently
Ġmin imal
sĠor gan
experienc eĠandĠ
edĠs ystem
tim or
Ġtyp ically
ism ĠandĠ
ĠsoĠ far
Ġstat us
lim itĠ
24 0
u. s
Ġlaw n
spect acular
Ġleg end
beĠs een
ĠtheĠph oto
veh icl
empor ary
stayĠ in
Ġrad io
Ġaim sĠtoĠ
ensu res
ynch ron
oust ic
, ĠtwoĠ
. b
g as
i Ġm
m Ġ
m ph
t l
v et
Ġ il
Ġa Ġprofessional
in son
sĠ both
on Ġp
on ĠhisĠ
ĠtheĠ answer
.Ġ oh
oĠ s
,Ġ fl
Ġc ruis
Ġw ouldnâĢĻtĠ
el it
ĠtoĠ run
edĠ hom
as tĠof
op ter
Ġto Ġavoid
with Ġher
eĠt ag
ak eĠof
asĠ in
s,Ġ âĢľ
eĠw elcom
Ġcon struct
ĠtheĠm odern
ub b
eĠb yĠs
sp ain
man ip
eĠh eĠwasĠ
ne y,Ġ
eng ineĠ
Ġsp anish
rat eĠof
ageĠ and
ren own
becaus eĠw
Ġman ner
edĠs inc
Ġtrain ing,Ġ
complet eĠtheĠ
,Ġwith outĠ
Ġbas edĠ
Ġrequ ires
-s iz
ĠtoĠp ayĠ
though t
Ġret ain
clos eĠto
invest ig
Ġbetween Ġ
effort sĠtoĠ
enu in
differentĠ from
uit ableĠ
resourc esĠ
ĠthatĠtheyĠ can
Ġdu eĠto
surv ival
ÑĢ Ð°
circ umstanc
demonstr at
negot iation
ĠaĠlif etim
ĠaĠlov elyĠ
agnific entĠ
striveĠ toĠ
, '
, ĠaccordingĠto
b ind
d eliveryĠ
n .Ġ
n erv
s Ġthen
Ù ħ
Ġ âĤ¬
sĠ outĠof
er oĠ
on z
on ic
ĠtheĠ un
ing Ġplant
Ġan Ġinterest
th ird
el ementĠ
ĠtoĠ shar
for gotten
Ġp remier
ed "
im possibleĠ
em i
Ġof ĠtheĠn
ay a
ag an
with ĠnoĠ
our tĠof
eĠt re
com ic
pl aintiff
.ĠtheĠ other
ev a
Ġfor ex
,ĠandĠ w
,ĠandĠ isĠ
,ĠandĠ how
Ġcom esĠwith
Ġsh in
ĠtheĠd igital
lik ewis
Ġnew spaper
ingĠp ar
rop olitan
Ġhom e,Ġ
ingĠf re
eĠor Ġsh
mad eĠtoĠ
.Ġyou 'll
.ĠifĠyou âĢĻreĠ
Ġair craft
rad ical
beĠa war
Ġel ig
ĠtoĠf ix
Ġform Ġof
Ġauthor ities
he ight
Ġjour ney
Ġsport sĠ
embr an
Ġrout in
eĠdon 'tĠ
Ġapplic ableĠ
facilit at
Ġimmediat elyĠ
remend ousĠ
! Ġh
- week
c oupleĠof
f ramework
m eĠtoĠ
n est
o esĠ
x i
ou sĠfor
ing ĠmoreĠthan
.Ġ still
Ġan gl
al ĠandĠ
st eveĠ
Ġs umm
Ġp aintĠ
Ġb omb
Ġd ual
ingĠ $
Ġyou ĠmightĠ
Ġn od
Ġand ĠaĠs
s,Ġ from
andĠ for
Ġfor ever
eĠc ameĠ
eĠm iss
s>Ġ<s> Ġhow
ly wood
notĠ b
sp ector
can ĠhelpĠyou
Ġtim eĠisĠ
Ġour Ġown
ĠtheĠh ill
ood en
provid edĠbyĠ
Ġass essĠ
ĠaĠg rad
.Ġs inceĠ
.Ġw atch
able .
educ at
Ġif ĠitĠ
kn oll
cas ional
Ġproduct sĠ
Ġexam ination
loveĠ of
,Ġj uneĠ
Ġpersonal Ġinformation
Ġauthor ity
nic eĠ
Ġunivers al
y- to-
Ġem phas
Ġo ak
company 'sĠ
eĠdevelop ment
ĠcreditĠ cardĠ
facil ityĠ
ĠtheĠpower Ġof
ĠasĠmuch ĠasĠ
Ġclin ic
Ġevery dayĠ
ointĠof Ġview
ingĠmon eyĠ
negot iat
âĢĿĠandĠ âĢľ
f unn
k itt
t i
Ġa pr
.Ġ learn
st eal
ĠandĠ itĠisĠ
ĠtoĠ moveĠ
you âĢĻveĠ
ch anceĠtoĠ
isĠ your
Ġb udd
esĠ canĠb
os car
Ġl am
up Ġfor
ĠthisĠ websit
gr ay
ĠtheĠm et
Ġch rom
eĠp ackag
comp areĠ
Ġ( "
Ġ( m
ick er
iesĠ from
s. ĠthisĠis
ass um
ĠtheĠh all
ĠtheĠl ightĠ
ĠaĠb rief
Ġnew sĠ
ĠaĠm atter
10 7
Ġass ur
mon ey.Ġ
ingĠd ifferentĠ
ry lic
includ edĠ
inĠtheĠ uk
Ġown er
Ġplac eĠ
struct uredĠ
Ġgener allyĠ
releas edĠ
Ġissu esĠ
guid anc
Ġcontinu ousĠ
Ġdel ay
eĠmon ey
Ġvol unt
Ġknowledg eĠandĠ
eĠbas ic
bod y
emper atur
natur allyĠ
Ġtheat r
sĠapp ear
ĠtakeĠcar eĠof
c oldĠ
c rop
d ump
k yĠ
Ġ european
in ĠanyĠ
er ial
ĠtheĠ user
Ġc and
Ġc uisin
for Ġthem
Ġb ought
Ġh arm
Ġin ĠthatĠ
Ġin put
ig rat
ig inal
em a
if teen
with draw
Ġl ateĠ
Ġl angu
com eĠback
pro ph
all asĠ
Ġre fin
s.Ġ itâĢĻsĠ
s,Ġ "
e.Ġ whil
sĠa Ġweek
be ingĠm
anc tu
ĠtheĠm orn
ind i
Ġk at
edĠb oth
Ġ( b
ob vious
ĠaĠs ystem
ass ociatedĠwith
inc .Ġ
Ġsp endĠ
af eĠandĠ
ingĠm ember
.Ġin clud
play edĠon
abil ity,Ġ
Ġout let
,Ġa ir
commun ic
Ġair craftĠ
sm ell
Ġbefor eĠtheĠ
ĠtoĠp ay
Ġmillion Ġin
curr ent
ucc essĠof
establish edĠinĠ
strateg yĠ
Ġgl ass
implement ationĠof
ĠaĠhigh lyĠ
suppl i
sĠinter est
Ġjew el
estr uction
iov ascular
, Ġth
c it
e ber
r f
s at
v aryĠ
Ġt -
,Ġ peopleĠ
Ġs ampleĠ
ĠtoĠ start
ĠtoĠ supportĠ
edĠ soĠ
ol oĠ
ur ser
ag netic
ut oĠ
eĠs elect
iv ic
Ġon eĠs
âĢĻsĠ new
âĢĻsĠ firstĠ
Ġv ital
Ġv eteran
Ġat ĠtheĠp
Ġat ĠanyĠ
ĠtheĠm ountain
ĠtheĠf rench
ĠtheĠb al
eĠf actor
Ġis ol
ĠtheĠd river
ĠtheĠd eath
weĠ haveĠa
eb ack
Ġit sĠd
Ġthan Ġever
do Ġthis
Ġthrough Ġ
Ġnew Ġzealand
ĠaĠd eep
Ġqu een
bl am
car eĠfor
ru lesĠ
pre viously
ĠaĠw orldĠ
Ġthank ful
mad eĠup
ĠofĠ âĢľ
ĠtoĠs erveĠ
dec la
educ tion
Ġtrain ingĠ
Ġtrain ingĠin
press ureĠ
Ġstat eĠof
Ġbl ank
writ ing
couldĠ b
Ġstor m
forc edĠtoĠ
.ĠbutĠ i
Ġpersonal Ġdata
releas eĠof
claim edĠ
dist rictĠ
proper ly
Ġmain tenanc
wa itĠfor
.ĠthereĠar eĠmanyĠ
Ñģ ÑĤ
pict ure
Ð¾Ð ²
notĠtoĠ mention
incor por
Ġdrop p
Ø§ ÙĦ
vic eĠpres
Ġpur su
worry ĠaboutĠ
Ġathlet ic
reput ation
configur ation
figureĠ outĠ
egypt ian
ĠtheĠhol yĠ
buf fer
( th
) ?
. Ġam
? ĠitĠ
l td
r imp
Ġ endĠup
sĠ look
en rich
re vis
,Ġ each
,Ġ whyĠ
ar ryĠ
Ġs epar
ĠandĠ br
is lamic
for gett
Ġm ik
Ġb uff
Ġb rows
Ġh yd
us edĠon
Ġf iction
Ġf avour
em eter
em i-
un cover
Ġg em
Ġg ladĠ
Ġl ect
pro pri
enc y.Ġ
Ġall ianc
eĠb lu
ĠtheĠf ew
eĠp ath
Ġj ud
vi etnam
Ġis ĠthereĠ
Ġit ĠandĠ
ingĠa uthor
ĠtheĠw inner
go ingĠthrough
ian o
sc ratch
ureĠ your
Ġnew sletter
ingĠc o
ari um
Ġup dateĠ
wouldĠ likeĠtoĠ
.Ġm ar
eĠl oung
experienc eĠwith
Ġdec lin
commun itiesĠ
plan etĠ
Ġboth Ġsid
Ġcor respond
offic er
want Ġto
iter ranean
knowledg eĠandĠ
some whereĠ
key word
Ġton n
eĠthereĠ areĠ
eĠsup portĠ
Ġkn if
Ġcop yrightĠ
Ġed it
eĠph otos
sĠap pl
requiredĠ for
editor ial
eĠbut ton
ouble -
onom ic
Ġnut rition
. w
: Ġa
j et
y ĠareĠ
Ì ģ
Ñ ħ
Ġa Ġwhol
in Ġan
or Ġnot
.Ġ whoĠ
oĠ is
,Ġ fre
om p
for Ġher
Ġb or
Ġh al
Ġd ar
im ultane
Ġin ĠtheĠfirstĠ
ingĠ issu
ingĠ equipmentĠ
res olveĠ
com for
Ġre moveĠ
s.Ġ from
ess e
eĠw or
eĠc ounter
eĠm ar
cl inton
Ġcom fortĠ
Ġor d
ĠtheĠc r
ĠtheĠc ourt
ĠtheĠb estĠof
estĠ control
ĠtheĠt w
e. ĠthereĠar
str ap
when ĠweĠ
y,Ġ i
idĠ notĠ
sĠareĠ not
fl ation
e- commerc
los ion
ingĠb as
Ġappl yĠtoĠ
Ġdi etĠ
lead ersĠ
ĠaĠn ational
ĠwhoĠ hasĠ
Ġpar liament
conf usion
onc eĠa
ĠanĠex per
vari ous
ĠtheĠtim eĠof
opportun itiesĠfor
Ġcor rection
Ġform atĠ
.ĠtheyĠ haveĠ
Ġlaw y
mov ementĠ
Ġspac eĠ
Ġevent uallyĠ
cop y
Ġresourc esĠ
shall Ġb
Ġjohn son
eĠther ap
proced ure
Ġbey ond
seg ment
absolut elyĠ
Ġtram adol
, Ġad
a ic
a itĠ
d l
f itsĠ
g i
n yĠ
p ublication
s yĠ
Ġ ideal
in Ġher
.Ġ veryĠ
,Ġ âĢĺ
,Ġ click
,Ġ yetĠ
ed ar
Ġm eg
Ġm emoryĠ
as a
Ġh usbandĠ
ur ryĠ
ag e
ab ri
eĠs ocial
ĠthisĠ new
oun sell
Ġfor Ġher
Ġtr actor
cl iff
li abilityĠ
Ġor Ġin
mak eĠup
ingĠtoĠ your
Ġour Ġwebsit
y.Ġ itĠ
rem inder
Ġres cu
pa re
provid eĠyouĠwith
ert ificat
sĠthatĠ i
ingĠm usic
ageĠ from
di etĠ
Ġinter net
back up
pre ferenc
.Ġw eĠwereĠ
eĠl and
high ĠqualityĠ
,Ġwhich Ġwill
,Ġor Ġeven
has ĠtheĠ
Ġunder ĠtheĠ
option sĠfor
Ġco operation
Ġcompan y,Ġ
letĠ itĠ
'll Ġb
had ĠtoĠ
.Ġ" i
Ġgroup Ġof
friend ly
plann ingĠtoĠ
eĠall ow
ĠthisĠs ummer
Ġ/ Ġ
deb tĠ
eĠser ver
estim ated
Ġexper iment
Ġjew ish
athem atical
Ġplug in
letĠmeĠ know
, Ġab
d adĠ
d ocumentĠ
i :
n ab
n oc
o gram
Ġ encourag
sĠ whileĠ
or ĠtheĠ
ing ĠthatĠtheĠ
th ĠcenturyĠ
Ġs ink
Ġw ednesdayĠ
el anc
is ch
ch ronic
ig m
ad opt
Ġto ĠaĠd
Ġto Ġthis
ill ip
ul p
ab s
com ingĠfrom
Ġre ward
uc le
Ġst eam
be ad
Ġon ĠtheĠp
gh ost
ĠasĠ manyĠ
eĠm arketĠ
gr ass
end it
Ġch arm
ĠisĠ your
Ġor ient
ard ens
ĠtheĠc apital
se yĠ
ra it
Ġi ii
eĠf requ
Ġtim elyĠ
work Ġfor
ov al
Ġour Ġ
ĠalsoĠ haveĠ
sĠareĠ veryĠ
bo yĠ
ext ens
Ġgr ind
hisĠ own
,Ġh as
Ġmak eup
,Ġd evelop
orld wid
Ġim press
Ġbr ight
light en
lead ĠtoĠ
giveĠ them
eĠan al
eĠan yth
ĠaĠv is
oss il
Ġteach ersĠ
loveĠ andĠ
ĠtheĠsp irit
doesĠ itĠ
Ġread yĠtoĠ
compl icat
flu ential
dist rict
del iciousĠ
Ġmean sĠ
may b
particular ly
Ġrespons ibleĠ
certain ly
Ġcod eĠ
eĠdis cover
Ġsing apor
capt ur
phys ic
dev ot
Ġjack son
Ġappar ently
ĠtheĠser ver
e-of -the-
habil itation
. ĠaĠm
c ounsel
er Ġand
or Ġother
ing s.ĠtheĠ
,Ġ john
ĠtoĠ read
Ġp i
Ġh eel
Ġf ox
ith ium
Ġar bit
Ġg ap
Ġg olden
Ġl um
Ġand Ġafter
pro ach
s,Ġ especiallyĠ
be ingĠh
ud ioĠ
Ġall Ġother
Ġwith ĠnoĠ
eĠin Ġwhich
Ġcom ic
Ġch arter
eĠb athroom
sĠtoĠ us
Ġis ĠaboutĠ
e. Ġthis
mak esĠs
es,Ġ i
es.Ġ if
ĠtheĠw ind
fl our
let Ġthem
Ġne uro
ĠaĠp res
ĠaĠp osition
sĠwith Ġyour
room Ġfor
sĠand Ġa
ator y
bas eball
.Ġm ad
eĠl ater
atter yĠ
,Ġc or
cons umption
need edĠfor
log istic
start edĠwith
Ġthre adĠ
rist ol
Ġpre p
Ġpar ad
becom es
âĢĻll ĠbeĠ
writ eĠa
grad eĠ
acter ial
ĠtheĠch anceĠtoĠ
edĠd uringĠtheĠ
enjoy edĠ
clos eĠ
atis fi
Ġgiv esĠ
refer ral
Ġcred ential
wor ri
Ġwher eĠtoĠ
activ ities
sĠad d
.ĠtheseĠ ar
mobil eĠ
usc leĠ
conserv ativeĠ
contin uallyĠ
eag leĠ
asĠwell ĠasĠ
Ġrelig iousĠ
.Ġmay beĠ
' Ġ
- v
d iv
j p
l edĠtoĠ
l ank
m ut
n od
w c
Ġ everyoneĠ
in a,Ġ
sĠ etc
on eĠandĠ
en essĠof
an ic
ing Ġthan
Ġs ustain
esĠ into
esĠ canĠbeĠ
Ġof Ġthis
ex it
ha ha
ag ar
Ġn erv
eĠt w
con vers
Ġfor ward
ant ĠandĠ
Ġon ĠtheĠs
oc t
ip adĠ
,ĠandĠ even
sĠin ĠmyĠ
ĠtheĠm iddleĠof
Ġj azz
Ġex clusiveĠ
eĠf all
Ġsh oulder
eĠh all
mak eĠm
ov ic
sĠareĠ now
so ak
ĠanĠ ideal
ĠaĠ row
sĠon Ġhow
ĠaĠp rivat
Ġass embl
Ġyear s
.Ġh eĠhasĠ
eĠyou ĠtoĠ
.Ġm ayĠ
Ġen roll
eĠsh ip
sĠd ur
hom e.Ġ
ĠtoĠs ub
Ġallow Ġyou
ox fordĠ
pons or
11 1
dr ill
everyth ingĠisĠ
say ĠthatĠ
iesĠof ĠtheĠ
fr ustrat
Ġmo der
Ġfriend lyĠ
Ġperc eption
ĠaĠsh ort
eĠsc ienc
eoĠ of
Ġwood en
effectĠ on
liter allyĠ
eĠcoll ect
else wher
Ġrecommend ation
Ġtwent yĠ
eĠsome oneĠ
ĠaĠwell -
atl antic
) ĠareĠ
) ĠâĢĵ
? Ġyou
r sĠ
s old
Ñ Į
Ġt an
Ġt id
sĠ open
sĠ hereĠ
on Ġb
en 'tĠ
.Ġ onĠtheĠ
al ign
st oodĠ
st raw
es a
om orrow
Ġs i
ĠandĠ get
isĠ itĠ
Ġb rok
us ed.Ġ
ingĠ student
âĢĻ d
os is
qu estĠ
up holster
andĠ of
Ġst ress
Ġtr in
Ġon eĠanother
Ġall en
ĠtheĠs olution
pr ayĠ
li b
ĠtheĠm ean
Ġor al
ĠtheĠf un
ĠtheĠf arm
Ġtheir Ġliv
ok la
inc ent
Ġfrom Ġa
how Ġyou
not eĠthat
ink leĠ
Ġmor eĠp
ĠtheĠh eat
ĠtheĠh ouse
edĠwith outĠ
.ĠthisĠ entryĠwasĠpostedĠin
eth yl
e- to-
Ġyear sĠin
ert aint
Ġher b
,Ġand ĠthatĠ
olog istĠ
Ġthey ĠareĠs
part y
ru z
ĠandĠs outh
Ġim pl
eĠand Ġthen
Ġhigh wayĠ
mo or
.ĠthereĠ wereĠ
imag ination
findĠ out
sub stantial
ĠthatĠyou Ġwill
ĠanĠin credibleĠ
Ġqual ification
idd le
uccessful lyĠ
Ġfamil y,Ġ
ĠintoĠ your
Ġdisc ountĠ
Ġexp ectĠ
veg an
ĠtheĠpart icular
eĠhelp ful
shareĠ your
Ġaccur ac
i. e.Ġ
regn antĠ
eĠindust ryĠ
rapid lyĠ
! ĠitĠ
! ĠmyĠ
, Ġturn
c ater
g reet
h eavyĠ
k k
l p
o yĠ
u lyĠ
y ah
Ġ imp
sĠ becaus
sĠ remain
ĠtheĠ link
.Ġ le
Ġan sw
ic ycleĠ
Ġc ableĠ
el izabeth
ĠtoĠ cover
ir dĠof
Ġof Ġwhich
Ġto ĠaĠc
.ĠtheĠ g
sĠof ĠhisĠ
por ch
eĠc alc
Ġpro spect
Ġcon flict
Ġr ateĠ
Ġor Ġ"
eĠb edroom
ĠtheĠp ool
reat mentĠof
eĠh eld
work er
ĠaĠs it
ĠaĠs ervic
ĠtheĠw est
ingĠtoĠ beĠ
Ġour selv
inter n
ĠaĠf l
fl ightĠ
ĠaĠb lack
ĠtheĠg lo
ĠtheĠg ood
10 3
was Ġa
di abet
ident ity
Ġtrans itĠ
elect oral
exc essĠ
qual if
qual ityĠandĠ
eĠthat ĠtheyĠ
Ġbl ad
struct ure
ster ol
efin itelyĠ
dr ag
Ġcr ash
Ġhour s.Ġ
sol veĠ
!Ġi Ġam
eĠinter view
bur yĠ
ĠwhereĠ you
prim eĠminister
.ĠsoĠ i
Ġpag eĠfor
ĠtheĠhigh er
histor yĠof
-bas ed
ĠinĠs outh
eĠwant sĠtoĠ
benef itsĠ
uls ion
Ġfranc iscoĠ
Ġprepar ation
ranch is
Ġtra um
"ĠandĠ "
explan ation
! Ġyou
( d
( f
a Ġn
b rook
c ub
e âĢĻdĠ
f ighter
h attan
p ink
s oftware
eĠ whether
Ġt ick
Ġt ropical
in ĠtermsĠof
it isĠ
.Ġ doĠ
Ġan ger
Ġan Ġissu
Ġs entĠ
for ever
Ġh eĠisĠ
Ġh eavyĠ
ac redĠ
Ġin ĠitsĠ
Ġl ack
eĠs cal
s.Ġ her
sh eĠwas
est ateĠ
enc iesĠ
cl ark
end lessĠ
s>Ġ<s> Ġn
Ġch ef
comp ass
ĠtheĠd octor
s. Ġalthough
.Ġi Ġhad
eb rew
Ġpl umb
ingĠa way
Ġsp ent
ĠtoĠtheĠ nextĠ
Ġag esĠ
ĠaĠf irstĠ
ey esĠ
dis k
Ġne ighbour
ed.Ġ "
eli eveĠ
ingĠm in
Ġwork sĠ
Ġup Ġin
air yĠ
gu ardĠ
rel ativ
Ġen abl
much Ġof
ĠaĠw ater
Ġservic eĠandĠ
12 3
ĠtoĠb etter
Ġim agesĠ
inv olveĠ
ingĠh ard
rid icul
fil eĠ
giveĠ th
Ġqual ityĠof
sol idĠ
eĠtr ail
set up
willĠbeĠ ableĠtoĠ
term sĠandĠcondition
dist inguish
mightĠ b
Ġmusic ian
ograph ical
sourc eĠof
Ġguid anc
ĠitĠcom esĠto
eĠby ĠtheĠ
.Ġonc eĠyou
Ġ: )
mental Ġhealth
sĠagain st
Ġintroduc tion
mun ication
noĠmatter Ġhow
Ġassoci ateĠ
Ġhab it
- a
3 30
6 50
c art
k enn
s ink
Ð ¿
eĠ art
Ġt ension
Ġa esthetic
sĠ do
er veĠth
.Ġ such
,Ġ work
,Ġ ratherĠthan
Ġc lock
ĠandĠ learn
is nâĢĻt
edĠ if
ch anceĠof
ch olar
Ġb oughtĠ
Ġh ostĠ
le sĠin
us eĠit
Ġin ĠfrontĠof
em and
Ġl augh
eĠt ouch
Ġand Ġalso
ĠareĠ availableĠ
Ġst amp
ist ribution
e,Ġ your
Ġwith ĠaĠc
ich el
notĠ yetĠ
eĠp ut
Ġj oint
sp oil
ra ham
Ġsh ift
comp actĠ
cont extĠof
eas yĠfor
mor al
ach iev
Ġus esĠ
ĠaĠf ac
Ġtw elveĠ
Ġass ort
Ġyear Ġ
sĠand /or
emp leĠ
ingĠp ointĠ
stor y.Ġ
Ġcar ryĠ
moreĠ likelyĠtoĠ
.Ġyou ĠshouldĠ
oper ateĠ
edĠa way
Ġpres enc
Ġsal es
ingĠw rong
econom yĠ
lov es
whyĠ i
canĠb eĠd
eĠtheĠb est
Ġlaw yer
cam eĠtoĠ
Ġanyth ing
Ġpropert y
ford ableĠ
member sĠof
Ġwher eĠtheĠ
search Ġfor
Ġbecom eĠa
edic ated
atal ogu
ĠnextĠ year
exper imental
lad esh
observ ation
exic an
Ġphoto grapher
Ġhouse hold
laugh ter
Ġcabin etĠ
Ġamb assador
conver tĠ
ĠwideĠ rangeĠof
suppos edĠtoĠ
Ġamend ment
) (
- endĠ
. Ġth
c ountĠ
g ium
sĠ play
en i
st omach
Ġc av
Ġs ant
ĠandĠ it
el ineĠ
ĠtoĠ check
ĠtoĠ consider
ĠtoĠ liveĠ
ĠtoĠ finish
ed Ġagain
Ġm ot
Ġm ountĠ
isĠ isĠ
le ver
ingĠ r
op tĠ
Ġand Ġtak
com eĠto
eĠs implyĠ
up Ġ
s.Ġ weĠhaveĠ
s,Ġ on
Ġfor dĠ
Ġon ĠtheĠb
Ġon to
,ĠandĠ our
20 3
s>Ġ<s> Ġl
ĠtheĠm ar
edĠtoĠ m
ind icator
eĠp aint
eĠp rettyĠ
Ġ( which
eg ener
ingĠs ub
ingĠs mall
yĠof Ġ
Ġsp ell
fin it
ĠaĠg row
Ġthink Ġabout
pre vention
Ġdis pos
ingĠf irm
eĠis ĠalsoĠ
real ityĠ
inst ant
e.Ġi ĠwasĠ
esĠwith outĠ
Ġsit e.Ġ
Ġanal yt
Ġminut es.
offic eĠ
Ġconc ert
impl ication
emor ial
Ġton sĠof
e.Ġin Ġaddition
Ġadvis oryĠ
Ġset up
Ġonc eĠagain
exchang eĠ
perc eiv
Ġwor ship
Ġjerse yĠ
remark ableĠ
assemb lyĠ
okla hom
a veĠtheĠ
b att
c ushion
j ay
r itional
s ort
Ġ ?
Ġa Ġyoung
sĠ donâĢĻtĠ
er ,ĠandĠ
on na
.Ġ plac
.Ġ no
Ġan chor
Ġs lic
ĠandĠ youĠcan
ĠtoĠ grow
edĠ un
you Ġget
Ġb at
ac commod
lo go
if tyĠ
Ġar c
Ġand ĠaĠhalf
ĠthatĠ work
eĠs eek
qu are
qu ilt
sĠa bo
Ġst air
sĠof ficial
eĠw ish
ĠtheĠs w
Ġwith ĠaĠd
ĠisĠ goingĠtoĠ
Ġtheir Ġwork
Ġis ĠaĠb
red eem
mak esĠm
Ġun lessĠ
eat ure
usĠ with
Ġsp ic
sc rap
Ġadd iction
dis abl
ean utĠ
.Ġh om
part sĠof
dayĠ loan
gu ilt
eĠsh ort
ĠtoĠs chool
Ġout stand
,Ġor gan
conc entr
giveĠ a
Ġpres erv
product sĠandĠ
ibil itiesĠ
Ġel ev
,Ġn ov
result edĠin
acc in
cam er
Ġanyth ingĠthatĠ
-d riven
Ġhav ing
Ġautom otiveĠ
def ault
ĠhereĠ for
wood en
Ġsha k
rav ell
Ġcamp us
ynth es
Ġ* *
eder ation
ĠaĠmember Ġof
ĠmakesĠ itĠ
Ġsquar eĠf
gart en
- qualityĠ
d imension
e _
h ip
h art
m ath
n b
p owder
t el
v pn
v oid
w eĠwouldĠ
w ashington
Ġ utiliz
sĠ even
ĠtheĠ original
ing Ġalong
.Ġ whetherĠyou
,Ġ x
,Ġ open
,Ġ ofĠcourse,Ġ
Ġc ord
is n'tĠ
ec o
le ap
Ġd iffer
Ġl ic
Ġand Ġal
Ġand Ġask
ĠthatĠ on
pro veĠth
pl um
all as
s.Ġ it
s.Ġ byĠ
ĠthisĠ in
ev an
Ġon t
eĠd ish
eĠd og
s>Ġ<s> ĠatĠ
Ġr ating
ĠtheĠm eet
eĠb rand
Ġj im
ra dĠ
red d
Ġacc red
ey ard
whatĠ is
eĠwith Ġyour
help sĠtoĠ
par agraph
imp s
whil eĠi
leg allyĠ
ĠtwoĠ day
ten anceĠandĠ
oneĠof Ġthos
ort g
lif eĠin
18 2
ingĠh is
cor eĠ
gener ateĠ
.Ġp ost
ĠthoseĠ who
enef itĠ
Ġfl at
gam bl
ĠandĠh op
Ġel im
'veĠ got
s.Ġi ĠhaveĠ
Ġreal Ġestat
it'sĠ notĠ
mean sĠof
.Ġsh eĠwasĠ
increas eĠtheĠ
add res
gen etic
Ġdep artmentĠof
Ġdep ression
exam pl
.Ġn extĠ
Ġext ensiveĠ
Ġadvanc ed
dur ingĠa
Ġmov ementĠ
inf ection
Ġtel ephon
ĠtheĠfut ureĠof
rob ustĠ
refl ection
surv iveĠ
cast leĠ
occur redĠ
Ġadvent ure
Ġconsult ation
emper atureĠ
eĠtyp esĠof
Ġaccessor ies
b ottom
g orgeousĠ
s ymptom
z a
Ġ educational
ing Ġpractic
,Ġ be
es sĠofĠtheĠ
es Ġaround
Ġs can
ĠtoĠ âĢľ
ed u
us eĠthisĠ
Ġto ĠaĠb
eĠof ĠmyĠ
s.Ġ âĢ¢
ĠtheĠs ecret
eĠm aintain
over t
ĠtheĠm achin
eĠandĠ moreĠ
can adian
iesĠ wereĠ
lin esĠ
int ellectual
mor e!
Ġus edĠin
how ĠitĠ
ĠitĠ in
ĠtheĠl istĠ
bo oĠ
Ġthen Ġi
ĠtheĠg erman
Ġbe haviour
don ation
Ġany bodyĠ
Ġart isan
Ġmak eĠyou
inv estĠin
hom eĠtoĠ
peopleĠ ar
Ġthre eĠtim
has Ġa
Ġtrain edĠ
ott leĠ
goĠ back
information Ġon
.ĠâĢľ i
eĠch arg
Ġdep loy
Ġdep artmentĠ
Ġautom atedĠ
Ġdel hi
Ġclos er
urnit ur
princ ipl
sec ution
Ġaward -winn
ues day
Ġbecom esĠ
edic in
ĠtheĠpastĠ few
ĠtheĠpart icip
prettyĠ much
benef itĠ
oppos edĠtoĠ
ole sterol
Ġamb ition
myĠf avorit
Ġterror ism
Ġenforc ementĠ
administ ration
ibl ical
" )
) ĠwasĠ
, ĠtheĠn
i ol
k an
l oud
s ick
t ic
u af
w aveĠ
er Ġis
on ĠtheĠp
at eĠof
ing Ġchang
.Ġ doĠnotĠ
ed ĠareĠ
Ġb orrow
ol veĠth
Ġto ĠaĠ
eĠth eĠhigh
Ġg b
eĠt old
Ġre mark
um mar
ap ril
Ġall Ġabout
eĠw id
ĠtheĠs pr
eĠm ix
Ġat ĠtheĠb
form ula
Ġj ean
Ġlo op
will ĠhaveĠ
ib bean
ĠaĠs enseĠof
eng landĠ
Ġun dĠ
do Ġthat
ĠaĠp rettyĠ
ĠaĠp artĠof
produc eĠa
,Ġs ub
Ġthey Ġare
edĠby Ġan
bl ad
,Ġi Ġwill
eĠg aveĠ
Ġwhen ĠitĠ
down town
start ed
peopleĠ with
,Ġyou ĠmightĠ
eĠthat âĢĻsĠ
cas e,Ġ
ĠaĠv alu
lastĠ month
ĠallĠof Ġus
emb ark
Ðµ r
Ðµ Ð½
nic eĠtoĠ
Ġpass word
nextĠ year
electric ityĠ
yt ell
Ġlos s
Ġdur ingĠ
ecom merc
Ġaccur ateĠ
benef itĠfrom
luck yĠ
ĠanĠexc it
ĠaĠser iousĠ
succ eed
Ġacqu iredĠ
Ġfurnit ureĠ
arr ass
randĠ new
passion ateĠ
Ġbatter yĠ
Ġspect rum
ĠunitedĠ stat
ĠrightsĠreserv ed.
Ġgall on
. Ġtherefor
f urnish
l aptop
m d
m oĠ
m idĠ
n ak
s ampleĠ
Î ±
Ġ older
Ġ Â£
Ġth riveĠ
sĠ list
ing sĠand
.Ġ someĠof
al p
Ġc ountĠ
ĠtoĠ explor
for Ġeach
as ian
Ġd aniel
us ĠtoĠ
ur eĠto
Ġin ĠaĠc
Ġin spection
et up
Ġto Ġteach
Ġn m
eĠt ast
eĠt emplat
qu ad
um bleĠ
ist s,Ġ
eĠm eal
gr id
eĠd u
od castĠ
Ġad mitĠ
ef fer
Ġch osen
Ġch ristĠ
Ġthat Ġa
Ġk eptĠ
ĠtheĠp urchas
edĠb athroom
eĠf unction
man ,Ġ
duc k
s. ĠtheyĠareĠ
weĠ hadĠ
mor e,
ingĠa ĠlittleĠ
Ġper spectiv
ĠalsoĠ been
arg oĠ
Ġmor eĠin
rem i
ed.Ġ itĠ
eli ev
emp tion
Ġup ĠtheĠ
sur f
... "
Ġappl ies
uf fin
effect ively
conc ertĠ
call ed
ser veĠth
Ġturn sĠout
Ġpar entsĠ
irm ingham
disc rim
continu edĠ
yl on
Ġsub jectĠ
ĠtoĠp urchas
23 3
Ġpropert ies
Ġtoo !
ĠfindĠ outĠ
ĠsomeĠ other
Ġdisc us
eĠar ound
Ġhar mon
Ġposs iblyĠ
,Ġinclud ing
sĠthrough outĠtheĠ
surv eyĠ
Ġtrail er
Ġquick ly
Ġcur tain
Ġparticular lyĠ
virt uallyĠ
manufactur er
Ġinnov ativeĠ
sent enc
ĠthereĠwasĠ noĠ
ĠtheĠpurpos eĠof
exclus ivelyĠ
ĠtheĠbenefit sĠof
ĠanĠextrem elyĠ
Ġfert il
g ym
h ydro
i est
m ah
p ocket
t alk
u -
Ġt actic
at edĠtoĠ
Ġs lightlyĠ
il ion
edĠ new
ol asĠ
esĠ willĠb
im is
Ġto dd
s.Ġ weĠareĠ
e.Ġ itĠis
.ĠtheĠ n
iv e
Ġst unn
âĢĻsĠ f
Ġcon stantĠ
tĠof fer
ity ĠthatĠ
Ġex plan
ĠtheĠp opular
ĠatĠ night
ĠtheĠt able
ĠtheyĠ couldĠ
work plac
.Ġi ĠreallyĠ
mak ingĠs
af eĠ
rat ioĠ
fin ityĠ
don es
,Ġm ar
,Ġm archĠ
ident ityĠ
eĠl ow
Ġcl ip
Ġro d
att oo
need sĠtoĠbeĠ
lif tĠ
Ġallow sĠfor
ĠandĠtheĠ other
esĠareĠ notĠ
oci etyĠof
Ġfl ightĠ
Ġhas Ġa
post edĠ
lov edĠ
Ġz ip
increas eĠ
far Ġfrom
Ġpropert iesĠ
Ġaud io
gar ageĠdoor
deal ingĠwith
nov ember
-t op
found edĠinĠ
encour agesĠ
def ens
eĠcar ri
Ġjour neyĠ
Ġcert ifiedĠ
controll er
Ġmeas ures
shir tĠ
equival entĠ
Ġatl antic
ĠtheĠtechn ical
Ġsort sĠof
imin ish
. Ġthus
: Ġm
? Ġw
? ĠifĠyou
a iss
a ustralian
d eter
g em
i h
m eat
m elt
Ġt ent
Ġa h
sĠ still
.Ġ [
.Ġ onlyĠ
es âĢĶ
ĠandĠ from
ĠandĠ back
ĠtoĠ n
ĠtoĠ new
you 'reĠ
Ġb ottom
Ġh ip
us eĠtoĠ
Ġin quir
Ġin itiativ
et ric
ingĠ each
ingĠ requirement
Ġal one.Ġ
ag a
eĠt ext
ĠtheĠm odel
Ġch atĠ
eĠb log
Ġj ur
sĠtoĠ beĠa
ĠtheĠt rip
work ersĠ
lin ear
lik eĠi
eg al
ass ag
Ġper Ġyear
ingĠtheĠ new
myĠ firstĠ
ĠtheĠl im
oundĠ of
whatĠ wasĠ
sĠon ĠthisĠ
reg ist
ert ifiedĠ
Ġwork Ġon
high erĠthan
es. Ġall
att ribut
happ y
rang eĠ
dep art
Ġpar is
ĠtheĠsam eĠway
dr agon
cr usher
Ġstor ageĠ
,Ġn orth
Ġcr ush
Ġfac ilit
val leyĠ
Ġant ioxid
Ġliv ingĠin
buil tĠin
knowledg eableĠ
Ġext ract
Ġwrit er
Ġcontinu esĠtoĠ
whenĠi ĠwasĠ
ãģ Ħ
ĠcanĠb eĠa
sure lyĠ
allow edĠtoĠ
sĠap plication
Ġbod y
mom entĠ
immer s
georg ia
uzz leĠ
equival ent
ĠresultĠ in
osc ow
ĠdonâĢĻt Ġthink
Ġstak eholder
raul ic
. ĠatĠtheĠ
1 15
a Ġf
d n
g ow
l anguageĠ
r amp
s ew
t oday
y um
Ġt ang
Ġth ing.Ġ
.Ġ notĠonlyĠ
Ġan Ġamaz
es Ġan
Ġc eremon
Ġc eramic
ĠandĠ enjoy
is ĠavailableĠ
edĠ via
ro ider
us yĠ
Ġin ĠtheĠworld
Ġin credibleĠ
em ad
un lik
âĢĻ sĠoffic
ab us
eĠs eason
s,Ġ itĠisĠ
e.Ġ itĠwasĠ
ant icip
Ġac ut
out look
eĠd rop
Ġcon ventional
Ġat ĠtheĠf
edĠtoĠ help
tĠof Ġ
notĠ in
ĠtheĠc over
port ray
Ġtim elin
ĠtheĠd eep
lin col
e. ĠtoĠ
eas yĠto
usĠ (
inter estĠin
ing,Ġ but
edĠon Ġyour
ed.Ġ âĢľ
edĠby ĠtheĠc
every whereĠ
ingĠp ublic
ingĠp aper
Ġinter vention
Ġrec eption
air port
wouldĠ notĠ
creat ed
,Ġh eĠwasĠ
Ġappl iedĠ
12 1
ingĠf un
sĠd uringĠtheĠ
Ġteam Ġmember
Ġdon ation
ĠofĠ each
Ġallow ĠyouĠtoĠ
peopleĠ areĠ
edĠm eĠ
happ ens
Ġgo esĠ
conc eption
edĠa ir
fil iat
develop edĠ
issu eĠ
apt ain
ĠtoĠmak eĠyour
reason Ġfor
beaut yĠof
ĠnoĠ matter
.Ġa prilĠ
Ġint ellectual
eĠwork ingĠwith
eĠinter netĠ
sal t
beautiful lyĠ
Ġauthor itiesĠ
between ĠtheĠ
election Ġof
Ġbusiness esĠ
ideasĠ for
break fast
sĠas ĠtheyĠ
Ġcheck ĠoutĠ
.ĠtheĠs econdĠ
lab our
Ġwish ĠtoĠ
ĠtoĠwork Ġwith
Ġparticip at
rub b
occasion allyĠ
Ġhttp s
Ġbirth day
Ġneighbor hood
Ġmental Ġhealth
, .
3 10
i ĠisĠ
m az
u er
w ire
w eĠoffer
sĠ veryĠ
ou red
re ational
it im
.Ġ withĠtheĠ
,Ġ under
Ġc ategoryĠ
Ġm b
Ġm l
Ġh ours
et tĠ
ingĠ environment
Ġal ab
all -
all ĠtheĠ
e,Ġ f
e,Ġ so
eĠc are
eĠd ifferenc
end ur
s>Ġ<s> Ġp
Ġcon clusion
Ġad hes
Ġr ush
su itsĠ
ĠatĠ $
mor eĠd
str umental
eb ra
Ġle tt
Ġthem Ġall
sĠfor Ġall
go ing
ingĠin toĠtheĠ
sc ar
fl ip
edĠon lin
ĠaĠm assiveĠ
Ġcomp at
,Ġand ĠthisĠ
plac ement
Ġwhich ĠtheĠ
ingĠon eĠof
ingĠof fer
Ġwhen Ġh
Ġy ardĠ
need s.Ġ
keep ĠinĠmind
sĠb etter
ĠâĢľ th
cas ual
.ĠifĠyou ĠwouldĠlikeĠtoĠ
ĠandĠf ollow
product s,Ġ
enn isĠ
Ġdevelop mentĠof
-s hap
Ġcomple tion
increas eĠin
importantĠ for
support ĠtheĠ
eĠtheĠf act
acc ident
ĠthisĠp ointĠ
ĠaĠlittleĠ bitĠ
imm ens
Ġbetter Ġthan
Ġdisc iplin
Ġdes ir
def aultĠ
fund amental
eĠph otograph
deb t
Ġaccommod ateĠ
eĠdi rection
Ġtheat re
Ġvict im
Ġhor izon
Ġhug eĠ
becam eĠa
eĠdoes n'tĠ
chest ra
c andidat
d ict
n app
o zen
p olitic
y per
Ġ ow
Ġ era
sĠ new
or Ġd
.Ġ readĠ
of a
ĠandĠ $
Ġw ouldn'tĠ
Ġd ak
esĠ per
esĠ butĠ
am -
ingĠ research
ha red
eĠt v
Ġand Ġar
ri um
ri est
um per
est ock
Ġst rok
gr im
ly .ĠtheĠ
comp aredĠ
vi ou
Ġit .
Ġit .ĠtheĠ
Ġfrom Ġour
sel ectionĠof
e, ĠtoĠ
ĠanĠ ey
ĠmyĠ friend
ureĠ from
ret irementĠ
br ick
read yĠto
ĠaĠg eneral
ĠasĠa Ġresult
edĠby ĠtheĠs
back Ġon
eter nal
ingĠf amil
Ġsup portĠof
Ġinst antĠ
esĠthatĠ will
Ġbec ameĠ
conf identĠ
conf irmed
ĠcouldĠ haveĠ
ĠtoĠmak eĠtheĠ
pleas antĠ
ĠtooĠ manyĠ
eĠtheyĠ wereĠ
ativ e,Ġ
weĠhaveĠ toĠ
Ġob l
Ġhear dĠ
whit eĠhous
ĠtheĠsc ottish
unitedĠstat es,Ġ
Ġdel eg
histor yĠ
eĠthrough ĠtheĠ
depend sĠon
weĠd onâĢĻtĠ
eĠar oundĠ
Ġport al
Ġcolleg eĠ
Ġcontain er
understandĠ how
char li
po et
god âĢĻsĠ
ĠtheĠpeopleĠ whoĠ
ĠreceiveĠ a
fiveĠ year
flor id
ĠanĠinter view
satis fy
sĠavailableĠ for
.ĠthankĠyou Ġfor
resum eĠ
ingĠpart ner
Ġassoci atedĠ
.Ġmor eover
stak eholder
giveĠus ĠaĠcall
Ġhensen,Ġj.l.m .Ġ
) Ġ(
- out
- down
. a.Ġ
. netĠ
. ĠaccordingĠto
: Ġs
: Ġh
a Ġis
b oost
c dĠ
g ien
k h
m ask
m emoryĠ
r agon
u ition
w ip
Ġ Ð°
Ġ Â·
ing Ġapp
.Ġ seeĠ
,Ġ onlyĠ
st ew
th let
ĠtoĠ look
ch as
as ĠtheĠ
ec or
ent leĠ
Ġd c
Ġd av
esĠ whereĠ
ingĠ list
Ġof Ġr
eĠt on
Ġand ĠtheĠt
s,Ġ however
eĠw ent
end ĠtoĠ
eĠa ĠnumberĠof
Ġat ĠtheĠbottom
Ġas ĠtheĠs
ub lin
eĠb owl
ĠtheĠb ibleĠ
Ġcan ĠalsoĠ
eĠp opular
sp her
her self
ok en
eĠf ield
âĢĿ Ġin
lik eĠthat
str ing
eg in
Ġthes eĠin
sĠareĠ still
Ġmor e.Ġ
ĠaĠm aster
ĠtheĠn on-
edĠbyĠ your
ĠaĠl ower
ingĠm ayĠ
doĠ itĠ
ingĠfor ward
Ġqu iteĠ
ustom ersĠ
ed,Ġ but
creat es
gu essĠ
Ġse oĠ
sĠc aus
log oĠ
18 1
.Ġb esid
ĠsoĠ youĠcan
shouldĠ notĠ
sĠar eĠoften
25 6
ĠaĠt ouch
grad uallyĠ
Ġel eg
-s chool
Ġsur g
Ġz on
does nâĢĻt
ĠwillĠb eĠa
Ġcal or
number Ġ
ĠaĠch ild
urb ish
inĠs outh
har mon
Ġdel ight
extra ordinaryĠ
ĠthoseĠwhoĠ haveĠ
itiz ens
Ġtal entĠ
builtĠ inĠ
.ĠheĠ alsoĠ
consult ant
s.Ġfor Ġexample
beĠb etter
Ġintegr ation
eĠco ach
sĠaround ĠtheĠworld
.ĠhereĠ ar
invent or
ĠtheĠdifferenc eĠbetween
Ġpup il
Ġrelev antĠ
egu ard
lincol n
. ĠtodayĠ
a ,Ġm
f ad
i om
r ational
s ĠtheĠp
v ast
y -f
Ġ earlier
er ies
on i
at ely
ing ,Ġa
,Ġ giv
es ĠaroundĠ
ĠandĠ se
ĠtoĠ buildĠ
ed ĠaboutĠtheĠ
ag eĠtoĠ
ot ter
qu est
per spectiv
Ġst .Ġl
por k
eĠc olleg
eĠd escrib
eĠd uringĠtheĠ
Ġat ĠthatĠ
ĠtheĠm enu
eĠb o
ĠtheĠc amera
Ġj ar
Ġtheir Ġhom
year -
ĠtheĠt itleĠ
ia ĠandĠ
eas tĠof
y,Ġ but
not Ġa
ingĠin Ġyour
ĠanĠ effort
edĠwith Ġa
Ġafter ward
ĠaĠm illion
utĠ down
Ġwork Ġin
ingĠc lass
ingĠd evic
includ edĠin
ĠtwoĠ or
,ĠbutĠ notĠ
Ġman ufact
ĠwhatĠ happen
sĠto ok
ĠwouldĠ lik
hadĠ noĠ
Ġbr ightĠ
,Ġyou ĠmustĠ
edĠs ign
Ġter ribleĠ
inst anc
cor p
esp ok
mayĠ beĠa
qual ify
ah l
Ġinst ead
.Ġp rior
esĠthatĠ haveĠ
Ġpar ameter
Ġask edĠtoĠ
esĠwith ĠtheĠ
imag ineĠ
eĠofĠ usĠ
email Ġaddres
Ġsub scriber
ĠandĠw eĠwill
result sĠ
user sĠtoĠ
Ġgam bl
Ġinclud eĠ
.ĠâĢľ th
ecut or
lookingĠfor ward
sĠinclud ingĠ
Ġfriend ship
nov emberĠ
character iz
Ġthemselv es.Ġ
kind leĠ
ĠthisĠs ection
Ġpict ur
ĠtheĠsub jectĠ
gre ek
carri edĠoutĠ
eĠspecial iz
fact oryĠ
eligibleĠ for
Ġbenef itsĠ
Ġtoy ota
eĠorgan ization
sĠacros sĠtheĠ
stim ulat
Ġconfigur ation
Ġthail and
( n
( t
- mak
- back
b ang
c and
d or
f igur
h tml
j ail
m att
r us
Ġth irtyĠ
sĠ myĠ
sĠ relatedĠtoĠ
on ĠtheĠs
ĠtheĠ question
re ll
al leg
om al
Ġc rown
ĠtoĠ play
ĠtoĠ preventĠ
Ġp ant
ch ev
le th
Ġof Ġin
itĠ up
Ġand ĠaĠ
s.Ġ ifĠyouĠareĠ
sh iftĠ
eĠd rink
ĠtheĠm aster
ub unt
her e
Ġex pres
Ġlo veĠtheĠ
work ĠandĠ
ob es
.Ġi ĠdonâĢĻtĠ
str umentĠ
som eĠtim
rough lyĠ
ĠtheĠw ild
Ġus e.Ġ
Ġsp it
Ġpr id
rem in
ĠaĠf resh
Ġres ortĠ
ĠaĠc o
ed.Ġ h
sĠwith out
eĠto ĠthisĠ
vis itedĠ
Ġthis Ġarticle
ĠaĠg iven
produc edĠ
ingĠd irect
esĠtoĠ your
enter Ġyour
sĠs ection
,Ġh ereĠ
ĠaĠw arm
sĠto Ġtheir
sĠor Ġother
.Ġd idĠ
ĠtoĠs ign
vir us
ingĠh app
ĠandĠd ep
eĠsp entĠ
Ġstat usĠ
disc ountĠ
ingĠt ip
result s.Ġ
youĠwill Ġb
eĠch air
ingĠtheir Ġown
hop efullyĠ
combin ation
Ġbeg inner
ju ven
Ġsearch Ġengin
rob ot
Ġwall paper
Ġcontain sĠ
former lyĠ
Ġmobil eĠdevic
eĠmin ut
reserv ation
lookĠfor wardĠtoĠ
imb urs
Ġspeak er
Ġwid th
sun day
Ġrecomm endĠ
Ġlab our
Ġapprov edĠ
esk top
spl ash
enomen on
hyd rat
basket ball
: ĠthisĠ
? Ġy
b eĠsureĠtoĠ
b eĠtaken
y /
Ġt ier
Ġt unnel
sĠ usĠ
er Ġon
re el
,Ġ offer
es -
om ato
Ġc ostĠof
th ous
th Ġinternational
Ġs weetĠ
Ġw ifi
Ġw indĠ
Ġw ww.
for k
for ĠhisĠ
ent edĠ
Ġd il
us eĠyour
Ġf ing
ingĠ operation
Ġof Ġcommerc
Ġar ter
Ġyou Ġse
ag ger
up il
s.Ġ br
per mit
Ġst itch
Ġfor get
e,Ġ sh
e,Ġ however
eĠw ear
eĠw rot
Ġwith ĠaĠp
ĠasĠ youĠcan
eĠc op
sĠin ĠtheĠc
s>Ġ<s> ĠthisĠis
ĠisĠ soĠ
ment .Ġ
now .
Ġk ansasĠ
ra udĠ
Ġi ĠloveĠ
Ġsh am
Ġsh elf
comp lyĠwith
eg ar
ass achusett
ĠthereĠ willĠbeĠ
es.Ġ âĢľ
go Ġto
Ġthes isĠ
ifĠyou ĠhaveĠa
pres um
ph p
.ĠthisĠ wasĠ
Ġne utral
provid ingĠa
ĠaĠl ightĠ
sĠand ĠalsoĠ
.Ġin steadĠof
edĠto Ġtak
ett i
Ġsc rew
ativeĠ andĠ
Ġy esterday
Ġsup porter
sĠc ount
inv itation
.Ġd uringĠtheĠ
vir gin
dec lar
Ġlif eĠin
oper a
Ġdesign ĠandĠ
eĠsom etim
ĠandĠh uman
lat est
version Ġ
link sĠtoĠ
Ġshow Ġyou
Ġminut esĠof
Ġweek endĠ
seem edĠ
forĠ everyĠ
s) ĠandĠ
fr ag
Ġob ama
gar ag
effectiveĠ andĠ
replac ement
Ġinterest edĠin
rup tĠ
Ġport ableĠ
blu etooth
Ġarchitect ure
access ĠtoĠ
Ġcert ificat
Ġsch olar
fut ure
Ã¼ r
usc ript
sĠmustĠ beĠ
victor ia
Ġstra ight
underst oodĠ
.g ov
Ġobl igation
! Ġour
. Ġagain
c reation
c ancel
d eĠ
l uxuryĠ
n eĠ
n utĠ
r ayĠ
s epar
in ĠtheĠp
sĠ beforeĠ
re presentĠ
ing Ġwhat
.Ġ befor
,Ġ co
st .Ġl
om it
Ġc u
Ġc elebration
Ġs ar
el andĠ
Ġm achineĠ
isĠ goingĠtoĠ
le is
Ġd ead
ac le
ac ram
with ĠaĠ
Ġl ender
ĠthatĠ canĠbeĠ
ri endĠof
ot ato
eĠof ĠtheĠp
enc e,
Ġwith Ġall
eĠm en
li entĠ
eĠp atient
Ġlo adĠ
ĠtheĠt each
Ġtim eĠon
Ġ( a
lin ical
lik eĠs
eas iestĠ
mor e
new lyĠ
go ĠtoĠtheĠ
la ud
10 4
arn er
plac edĠin
plac ementĠ
olog yĠof
ĠaĠl ight
.Ġh ttp
,Ġs ocial
ingĠd evelop
edĠby Ġtheir
az ineĠ
ĠaĠh uman
ept ic
es. ĠtheyĠ
Ġwe âĢĻr
low -
outĠof Ġyour
Ġadv anceĠ
wher ever
Ġcommun itiesĠ
enjoy ableĠ
eĠch aracter
Ġdep osit
beli eveĠthatĠ
Ġhav ingĠtoĠ
oph il
def end
eĠcl ub
Ġwho le
Ġbusin essĠin
Ġstruct ure
.Ġy es,Ġ
consc iousĠ
Ã³ n
Ġcapac ity
concent ration
, ĠasĠtheĠ
, ĠthatâĢĻsĠ
- month
. ĠaĠd
7 20
? ĠwhyĠ
c umin
f atĠ
r ins
u ally.Ġ
oĠ c
Ġan yĠofĠtheĠ
al in
al though
es Ġthan
Ġw ire
el on
is ĠaĠf
ĠtoĠ perform
Ġm old
Ġin tr
Ġin jection
Ġin ĠtermsĠof
ver ify
ation Ġon
ingĠ relationship
ad a,Ġ
if tĠof
Ġg ender
Ġn arrow
com eĠandĠ
ak en
pl ier
e.Ġ her
Ġcom pris
ĠtheĠm er
ind eedĠ
ĠtheĠf ood
ĠtheĠf ather
ĠtheĠc ard
eĠf arm
ast ersĠ
Ġ( theĠ
'sĠ "
mor eĠtim
es.Ġ h
new s
pres cription
ener get
fl am
dis appear
know ĠhowĠtoĠ
ingĠm ount
Ġup load
sĠs inceĠ
Ġservic esĠandĠ
just ĠaĠfew
.Ġd ur
.Ġf irstĠ
ary land
Ġexperienc eĠandĠ
eĠit self
say sĠ
ĠalwaysĠ beĠ
ĠloveĠ andĠ
interest ing
personal iz
Ġspecial istĠ
ĠtoĠc elebrat
Ġhistor y.Ġ
outsid eĠtheĠ
engag edĠin
jur isdiction
Ġexp ansion
ĠcanĠb eĠfoundĠ
Ġnational Ġpark
encourag edĠtoĠ
Ġinf o
zer o
ĠareĠt ryingĠtoĠ
Ġsch olarship
Ġsam pl
hor izon
sem inar
weĠdoĠ notĠ
Ġimm igration
privac yĠf
donald Ġtrump
( i
? ĠdoĠyou
d oubtĠ
f um
s sĠ
w ildĠ
Û Į
in ĠfrontĠof
Ġth under
sĠ fre
on e
ĠtheĠ restĠof
re ed
re ly
.Ġ get
.Ġ student
es eĠ
is ĠaĠ
Ġp ill
Ġm eat
Ġm echanical
Ġb read
ow a
us edĠwith
ol lyĠ
Ġto ken
ab r
eĠs cor
.ĠtheĠ follow
ell en
oc r
oc casional
eĠm ultipleĠ
sĠin creas
eĠandĠ hisĠ
ĠtheĠc aus
Ġlo ver
eĠf indĠ
sĠtoĠ get
ĠtheĠt est
ĠtheĠt ip
ĠtheĠd el
s. ĠthereĠareĠ
mor eĠon
es,Ġ suchĠasĠ
es.Ġ butĠ
ĠitĠ wouldĠ
whoĠ hasĠ
.ĠthisĠ was
ed.Ġ youĠcan
ingĠc ap
chang eĠin
creat eĠan
Ġwas ĠableĠtoĠ
Ġlik eĠm
ingĠh as
eĠsp in
ĠwhoĠ wasĠ
ingĠt our
Ġinformation ĠaboutĠ
ĠandĠt agg
everyth ingĠin
letĠ you
'll ĠbeĠ
tr in
until Ġyou
eĠtr ust
sĠat Ġall
Ġconc eptĠ
haveĠtoĠ beĠ
du eĠtoĠtheĠ
spec ifi
involv esĠ
vil le,Ġ
boardĠ of
ĠworldĠ war
ĠthirdĠ partyĠ
s,Ġinclud ing
ĠliveĠ in
fail edĠtoĠ
vac uum
veget ableĠ
Ġconsist sĠof
Ġhy per
Ġawar eĠof
ket ch
contin ental
Ġthere'sĠ noĠ
Ġfit nessĠ
ĠtheĠhelp Ġof
compens ation
Ġvictor ia
comple tion
elebr ityĠ
! ĠthankĠyou
: Ġc
: Ġhow
b irdĠ
e iveĠ
f o
p enn
s ymbol
Ġ east
eĠ stor
Ġa i
in um
it Ġtak
,Ġ man
st ,Ġ
es cal
el son
el even
Ġm i
Ġb io
Ġb rew
Ġb ootĠ
Ġb lood
Ġf ruitĠ
am end
ad a.Ġ
Ġof Ġst
Ġal iveĠ
Ġl t
eĠt ask
Ġand Ġagain
eĠs inceĠ
eĠof ficial
.ĠtheĠ nextĠ
anc eĠin
your ĠbusinessĠ
eĠc ur
Ġthat ,Ġ
ĠtheĠc amp
ĠtheĠb lock
eĠf an
eĠf inal
eĠf ullyĠ
vi agra
ĠtheĠd og
ĠtheyĠ wer
s. ĠtoĠ
lin e,Ġ
ĠaĠs up
ĠaĠs econd
which Ġwill
ach i
es.Ġ you
Ġus eĠin
sĠfor Ġour
ĠanĠ even
well Ġknown
sĠon Ġtheir
provid ed
ed.Ġ if
Ġass umption
ert ific
,ĠtheĠ companyĠ
sĠand ĠareĠ
ingĠp agesĠ
eĠyou ng
car l
Ġwhen ever
Ġmak ingĠ
cons ol
lif estyle
Ġback up
ĠtheĠch air
couldĠ haveĠ
ech o
everyth ingĠthatĠ
Ġtoday .
ĠandĠi Ġam
Ġwhil eĠtheĠ
Ġser iesĠof
known Ġas
youĠwill ĠfindĠ
Ġtool Ġfor
eĠch alleng
sk yĠ
compl ication
me ant
evidenc eĠof
Ġadvertis ement
care ful
occur red
Ġaccommod at
ĠanĠext ensiveĠ
.Ġeven Ġthough
shor ter
neighbor hoodĠ
Ġlog ic
degre eĠin
ĠanythingĠ els
eĠtru lyĠ
congrat ulation
ĠfamilyĠandĠ friend
( m
, ĠatĠtheĠ
1 12
a Ġv
b elt
f oam
g alleryĠ
l edĠto
o '
p el
p age.Ġ
p alm
p illow
s ir
s ĠtheĠf
s ia
t ec
x ml
Ġ Ï
Ġ oven
ing ĠtheĠw
ing ĠandĠtheĠ
.Ġ consider
ic ally,Ġ
Ġs at
ĠandĠ justĠ
ĠandĠ support
ro tt
Ġb loom
âĢ Ĳ
ec ureĠ
ac .com
ac rossĠ
Ġf t
ul ly
itĠ hasĠbeen
Ġl uxuryĠ
ak i
pl ans
s.Ġ pleaseĠ
Ġst arter
ess ageĠ
ĠtheĠs impleĠ
eĠtoĠ myĠ
Ġch at
Ġas Ġtheir
Ġab d
eĠb enefit
ĠtheĠc entr
ang ular
eĠp urpos
her e!
ra j
ĠtheĠp oint
ĠtheĠp iec
eĠf ail
ĠhaveĠ an
es.Ġ itĠisĠ
pres enc
even ĠifĠyou
ĠtheĠl ackĠof
ing.Ġ h
sĠwith Ġtheir
ext endĠ
ĠaĠl im
,Ġm uch
Ġwhich Ġwill
stat eĠandĠ
eĠwill ingĠtoĠ
Ġhom eĠin
gener ic
gener atedĠ
dep ositĠ
Ġsal v
goodĠ new
Ġstor ies
ĠtoĠd ealĠwith
Ġtell Ġm
report edĠ
bon dĠ
eĠman y
ãģ ¾
Ġtel eph
ĠyearsĠ later
Ġcost um
regular ly
Ġwomen âĢĻsĠ
eĠind ex
ingĠservic esĠ
Ġpat ioĠ
mus lim
eĠcor p
ĠloveĠth isĠ
weĠw antĠtoĠ
rupt c
Ġtheat reĠ
ĠtheĠdist rictĠ
Ġobject iv
Ġengag ement
Ġber lin
Ġexter ior
ĠaĠhealth yĠ
ĠaĠdi rectĠ
eant im
enorm ousĠ
, Ġag
2 30
d umpster
i âĢĻdĠ
z heim
Ä ±
Ġa Ġteam
sĠ via
er s,ĠandĠ
tĠ isĠ
at ed,Ġ
ing ĠtheĠsam
.Ġ under
,Ġ pa
al am
st ood
Ġs ustainableĠ
ĠandĠ not
ed itĠ
ed ĠaboveĠ
as iveĠ
Ġd a
ingĠ everyĠ
ingĠ question
ad apt
Ġto Ġtrack
ay an
our Ġown
eĠs ong
Ġre frigerator
con gress
ap i
be ingĠc
eĠd ifferent
s>Ġ<s> ĠareĠyou
Ġch er
eĠandĠ m
ĠtheĠc od
ĠtheĠp at
su sĠ
Ġis lam
âĢĿ ĠisĠ
es.Ġ youĠcan
Ġus ual
oneĠ number
e, ĠthatĠ
e, Ġall
veryĠ good
ĠtheĠg ener
ĠaĠm aximum
ingĠfor Ġ
sĠm ostĠ
s.ĠtheĠ t
Ġcar eĠof
Ġbr ick
long Ġterm
ingĠh elp
Ġter rific
Ġlif estyle
unc ertaint
e.Ġi Ġthink
cas ino
te grat
dep osit
Ġpres cription
eĠsom eon
sub sid
sub jectĠ
ĠmanyĠ peopleĠ
Ġminut esĠtoĠ
beaut yĠ
Ġmillion sĠof
head quarter
Ġlin eĠwith
class ical
Ġfeat ureĠ
Ġsw eden
Ġthought ful
ĠtakeĠa ĠlookĠatĠ
Ġbar rel
wor ship
production Ġof
recip ient
ĠtheĠth irdĠ
ĠsupportĠ for
consult ation
sn ap
eĠinclud esĠ
ĠaĠmin ut
Ġdet ect
eleg ant
Ġsociet yĠ
cult iv
utom atic
ĠÐ ¿
.Ġnot e:
Ġalt ogether
Ġprom pt
regulator yĠ
portfol io
Ġwis dom
ĠtheĠposs ibilityĠof
Ġscot land
ĠtheĠspir itĠof
Ġexception al
, ĠanyĠ
c elebration
o qu
z o
Ġ olympic
in flamm
Ġth rown
sĠ program
er ,
on eĠm
at ingĠtheĠ
,Ġ donâĢĻtĠ
Ġs andĠ
ĠtoĠ improveĠ
you Ġin
ed a
Ġh unter
ingĠ edg
ingĠ ston
ab a
Ġl es
eĠt rip
Ġand ĠtwoĠ
con fin
enc yĠof
ĠtheĠs ett
sĠandĠ h
s>Ġ<s> Ġk
Ġcon version
Ġcon grat
Ġcon stitution
ityĠ or
eĠp ool
eĠp attern
ĠatĠ myĠ
Ġ( r
eĠh eat
s. ĠatĠ
eb ec
eb oard
ingĠa ĠlotĠof
ĠaĠf an
Ġthrough Ġour
edĠwith Ġyour
eĠthatĠ wasĠ
plac e,Ġ
ĠaĠl iv
ingĠm achineĠ
ĠaĠg l
.Ġh i
ingĠd irector
Ġgr ab
,Ġi Ġcan
gu ess
pert ain
Ġdis put
ingĠf e
,Ġd ep
inu x
conc eiv
rang eĠfrom
eĠsp ot
.ĠifĠyou âĢĻr
Ġprovid eĠa
Ġform sĠof
esĠfrom Ġ
spir ation
Ġint ention
ĠaĠch ildĠ
Ġautom obil
eur oĠ
Ġloc atedĠin
may ĠalsoĠ
eĠmon itor
ĠthisĠyear âĢĻsĠ
Ġposs ession
Ġmus lim
Ġblog g
voic eĠ
yth on
Ġno is
erĠthan Ġ
,Ġit âĢĻs
Ġconsult ant
eĠser iousĠ
Ġthom p
calledĠ âĢľ
built -in
amaz on
Ġpal ac
Ġsn ap
Ġproced ures
Ġvill ag
Ġsim ulation
ua we
ĠhotĠ water
max imiz
ĠroleĠ in
ĠtheĠwor stĠ
Ġhaz ard
ĠtheĠbenef itĠof
a ,ĠandĠ
b io
d an
j unk
j oseph
p ig
w eĠmak
Ġ ....
Ġt inyĠ
in Ġp
Ġth ai
sĠ start
sĠ needĠtoĠ
.Ġ di
Ġan gr
,Ġ manyĠ
Ġw irelessĠ
edĠ item
you Ġwant
ed ĠanyĠ
Ġh idden
le ek
am pl
Ġto Ġanswer
Ġar eĠoften
Ġg ym
Ġand Ġthat
Ġand ĠaĠb
Ġand Ġallow
eĠs ecurityĠ
pl itĠ
up t
Ġre leaseĠ
oo oo
ever Ġsinc
etĠ with
eĠd am
sĠin dust
Ġr atesĠ
ĠisĠ for
edĠtoĠ mak
Ġor th
rec reation
eĠb oard
eĠandĠ c
ĠtheĠf ieldĠ
ĠtheĠc ounter
can notĠbeĠ
ĠtheĠt wo
ne il
ult ureĠ
ĠaĠs olution
mor eĠc
eĠfor ĠthisĠ
ord on
Ġsp ous
ph ras
whoĠ wasĠ
ĠaĠc lean
whatĠ h
eĠisĠ not
Ġass ert
,Ġand Ġa
ĠaĠd etail
know Ġthat
doĠ with
emp ath
edĠby ĠtheĠf
sup porter
ead ow
ĠofĠ $
,Ġwhich ĠhasĠ
ingĠh and
,Ġa ustralia
Ġlook ĠatĠtheĠ
.ĠweĠ haveĠa
e.Ġi 'm
sĠyou ĠareĠ
ĠandĠf riend
eĠthisĠ year
ĠshouldĠ haveĠ
ĠcouldĠ notĠ
apt ur
someĠ other
ĠgetĠ in
Ġtell Ġus
sinc eĠi
Ġaud it
Ġcal m
bi as
blog g
grat itud
relationship Ġbetween
Ġskill sĠandĠ
Ġconsider ation
vill ageĠ
sens or
Ġspr ing
eĠtrans action
Ġtor onto
Ġtheor etical
utor ial
phoneĠ number
Ġbit coin
comb atĠ
consc ious
haz ard
remi ereĠ
) Ġon
. t
b und
b ought
g org
k u
m urder
n omin
p ok
s ail
z e
z el
Ġ Ã¢
eĠ youĠcan
Ġa headĠ
at abas
.Ġ look
.Ġ open
.Ġ sometimesĠ
al ax
st eep
th reeĠ
Ġs aturdayĠ
ĠandĠ if
for Ġfre
Ġp ig
edĠ som
ed Ġagainst
Ġb id
Ġh eater
ri esĠandĠ
eĠs oftwar
s.Ġ g
per su
e.Ġ s
e.Ġ heĠ
est ation
Ġfor Ġexample
ĠtheĠs ix
Ġr ust
Ġch risĠ
Ġas c
Ġi dĠ
edĠin Ġour
Ġis ĠaĠgreatĠ
ia âĢĻsĠ
Ġsp a
Ġmor tgag
ĠaĠf amil
Ġthrough Ġyour
ug eĠ
ĠaĠ âĢĺ
Ġcomp il
Ġbe ingĠs
esĠin Ġyour
Ġthey Ġall
Ġther eĠtoĠ
mer elyĠ
esĠtoĠ beĠ
chang eĠtheĠ
co h
co op
such Ġa
.Ġs econd
Ġdis abilities
.Ġd esign
Ġwas nâĢĻtĠ
Ġtyp e:
Ġaddition ĠtoĠ
eĠthat ĠthisĠ
issu eĠof
Ġpre ventĠ
Ġfl ip
cent re
mar ter
ĠtheĠch oic
liv ing
Ġtalk Ġabout
feel Ġlik
ĠtimeĠ when
propert iesĠ
strateg ies
noth ingĠtoĠ
Ġuntil Ġ
Ġbeli eveĠthatĠ
Ġdem ocrat
receiveĠ a
leav esĠ
protect iveĠ
Ġbreak fast
ĠtheĠfollow ing
jack son
behind ĠtheĠ
eĠdid n'tĠ
bus yĠ
ĠallĠover ĠtheĠworld
Ġanim ation
legend aryĠ
Ġliqu idĠ
Ġantib iotic
altern ativeĠ
Ġful fill
Ġseg ment
ãģ¾ ãģ
( a
, Ġask
- by-
- for-
/ f
? Ġin
c ycle
k r
n uclear
s lotĠ
y ach
y ank
eĠ hadĠ
sĠ $
sĠ well
er od
en et
an Ġdieg
,Ġ no
ar il
Ġs ail
is raeli
edĠ wasĠ
ed ĠaĠfew
ed wardĠ
ed ĠagainstĠ
ch ristĠ
ro op
le on
ac a
Ġf atĠ
ur ph
ver yĠt
lo k
Ġg h
Ġn iceĠ
Ġl uc
Ġl ord
Ġand ĠaĠp
ĠthatĠ mayĠ
eĠof ĠtheĠb
ĠtheĠs urround
oc t.Ġ
eĠin vit
Ġac rylic
eĠm edia
eĠd epend
sĠin ĠorderĠtoĠ
Ġat om
eĠp rior
Ġk im
eĠf oodĠ
Ġis lamic
ĠtheĠd ocument
str at
eĠfor Ġour
go es
s, Ġt
la u
ĠanĠ option
bec u
provid ersĠ
noĠ other
eĠisĠ veryĠ
Ġher o
plac edĠ
help sĠyou
emp ire
urr oundĠ
edĠby ĠtheĠm
Ġrec ordĠof
Ġany ĠtypeĠof
Ġ- ĠtheĠ
chang edĠ
mad eĠtheĠ
Ġbr ill
exc us
Ġbu ilder
ah am
Ġcol umbia
Ġfre ez
grad uation
prot otyp
vari ableĠ
Ġproduct sĠandĠ
click ĠonĠtheĠ
click ĠhereĠtoĠ
Ġtour istĠ
Ġpropert y.Ġ
minist ration
els ea
'reĠ lookingĠfor
nov ation
Ġmet ric
Ġprocess or
famil yĠandĠ
Ġcustom iz
def eat
customer Ġservic
Ġdecid eĠtoĠ
jack et
ĠaĠpart ner
facil itiesĠ
eĠsign ificantĠ
checkĠoutĠ our
Ġpor tion
pros per
Ġarth rit
remeĠc ourtĠ
Ġpract ition
2 60
b loom
f ireĠ
i asĠ
m e,Ġ
m aximum
p olish
r ameĠ
v intag
y ri
y lesĠ
Ù Ī
Ġa str
on eyĠ
ĠtheĠ veryĠ
ing Ġprofessional
Ġan Ġorganization
ar ab
edĠ water
ed ĠandĠt
ro practic
Ġm ut
Ġb ail
Ġb attleĠ
Ġb ingoĠ
ow ersĠ
Ġd an
esĠ wasĠ
Ġin ĠtheĠt
Ġin Ġplac
Ġin ĠloveĠwith
un expect
Ġof Ġt
Ġar senal
ha gen
res identĠ
ag oĠ
Ġn a
Ġn early
eĠt raditional
s.Ġ weĠwill
iv e,
sĠa way
eĠw eĠcan
ĠasĠ âĢľ
eĠd etermin
eĠd igital
eĠd ocument
end ingĠ
s>Ġ<s> ĠmyĠ
Ġas sured
ĠisĠ justĠ
Ġj os
Ġlo st
comp ress
Ġis nâĢĻt
ia per
.Ġi ĠhaveĠa
Ġit sĠin
es,Ġ c
mentĠ isĠ
Ġtak eĠup
arg u
pres erveĠ
e, ĠasĠwellĠasĠ
sid e.Ġ
ĠanĠ easyĠ
let sĠyou
ĠaĠg ener
Ġsom eĠtim
gram mar
ingĠp ost
eĠg arden
onlyĠ on
.Ġs imilar
befor eĠtheyĠ
Ġdon tĠ
open ĠtoĠ
person ĠwhoĠ
Ġout lin
Ġweb Ġpag
sĠb estĠ
dep ression
14 4
ingĠt ask
conf ront
17 9
lat in
Ġel s
Ġboth ĠtheĠ
sol id
ond a
sk ip
rais edĠ
.ĠasĠ i
Ġmy th
ĠaĠveryĠ goodĠ
ĠyourĠb od
mic rosoftĠ
s,Ġwhich ĠareĠ
Ġbillion Ġin
Ġsurv eyĠ
Ġopportun ityĠtoĠ
Ġadvent ureĠ
consum ersĠ
Ġren ov
protectĠ your
Ġfurnit ur
Ġpred ict
approv al
ðŁ Ļ
perman entlyĠ
c ris
l um
l oung
r ightĠof
v ary
y u
y ĠandĠtheĠ
â ĸ
sĠ hom
sĠ shouldĠbeĠ
ing ness
.Ġ read
,Ġ show
,Ġ moreĠ
st anceĠ
Ġc v
Ġc ow
Ġc ater
Ġc ouch
ĠandĠ was
is ĠthisĠ
ch ic
Ġh ydro
ent on
us eĠthem
am booĠ
ingĠ view
Ġto Ġtravel
ha il
Ġg rav
Ġyou nger
eĠt wo
pro pag
eĠs imilar
Ġre ar
ev ident
Ġfor g
sĠof Ġp
enc y,Ġ
ĠasĠ such
ĠasĠ heĠ
etĠ in
Ġv oc
eĠb ag
Ġj ail
Ġj ordan
Ġi ĠjustĠ
butĠ itĠ
work Ġof
weĠ haveĠbeen
mor eĠtoĠ
ĠthereĠ wer
go esĠon
not eĠ
usĠ isĠ
ĠtheĠl ength
ĠaboutĠ $
ĠaĠm eet
10 9
reas ur
ingĠm ak
ingĠm anyĠ
ingĠb usiness
par entĠ
cess ion
Ġinter n
ingĠon lyĠ
Ġthink ĠthatĠ
aw ardĠ
edĠto Ġannounc
Ġav oc
ĠaĠh ol
sĠfrom Ġyour
oneĠof ĠmyĠ
becaus eĠofĠtheĠ
Ġmak eĠsureĠ
.ĠitĠ can
Ġro bertĠ
,Ġc a
att itud
ingĠf ull
lif e-
lif etim
Ġpart iesĠ
Ġthre eĠday
real ity
light ly
.Ġb estĠ
,Ġt exas
ster dam
level Ġ
continu ousĠ
Ġco oper
Ġthing sĠareĠ
couldĠ notĠ
sub t
ĠanĠex ampleĠof
seem ĠtoĠ
ĠtooĠ long
find ĠtheĠ
pleaseĠ contactĠ
ĠveryĠ own
Ġlearn ing
bur ger
Ġcustomer Ġservic
ĠtheĠcount ry,Ġ
Ġfr anchis
yd neyĠ
,ĠtheyĠ will
famil iesĠ
ilit ary
sha red
Ġchoic eĠof
Ġincreas edĠ
meas ures
Ġstrateg yĠ
official lyĠ
eĠdep artmentĠ
child hoodĠ
.org /
Ġhouse holdĠ
Ġbirth dayĠ
role um
Ġconserv ation
Ġtack leĠ
pron ounc
explo it
Ġtro op
neverth eless,Ġ
ĠaĠreason ableĠ
env elop
ĠaĠmatter Ġof
d -
j osh
p epper
y Ġat
Ġ ok
Ġa y
en sĠ
en sure
an o
.Ġ mak
,Ġ di
,Ġ only
es ĠthatĠtheĠ
ĠandĠ co
ĠandĠ professional
el en
ĠtoĠ win
you ĠwouldĠ
Ġh em
ow ardĠ
le en
Ġin Ġk
em ble
ingĠ stor
if act
ex otic
Ġyou ĠcouldĠ
ab it
our n
qu ak
con form
s,Ġ lik
.ĠtheĠ first
and wich
ep her
anc ak
Ġwith ĠanĠ
Ġad apter
ĠtheĠc ur
edĠin Ġtheir
eĠf resh
ast or
ne ed.Ġ
ingĠs oon
Ġus ers.Ġ
sĠfor Ġeach
usĠ on
even Ġwhen
Ġag enda
Ġpr ad
ret ro
ĠaĠb reak
Ġadd ict
ik a
provid eĠtheĠ
plac edĠon
,ĠtheĠ new
doĠ soĠ
ingĠd istanc
Ġther ebyĠ
Ġgr ass
eĠg ar
Ġthink ingĠof
Ġsc op
gu ideĠ
inĠ each
Ġmak ing
Ġhom esĠ
ĠtoĠb ook
,Ġyou ĠhaveĠ
ĠweĠ hadĠ
esp oon
Ġlif estyleĠ
build ingĠa
organ ism
product s.Ġ
cent ric
conn ector
sub scrib
ĠmanyĠ other
edĠup Ġwith
ĠtoĠd ef
Ġmonth s.Ġ
,Ġbut ĠtheyĠ
sĠhaveĠ toĠ
Ġweek lyĠ
reach Ġout
Ġmember sĠof
eĠch ildren
emb arrass
eĠtheĠm ain
personal Ġdata
propert ies
ugg estĠ
Ġtre eĠ
ĠtheĠsc ienc
me antĠ
Ġdel iciousĠ
ĠyourĠb log
ĠtoĠse eĠhow
Ġgrad uation
pick edĠup
Ġmod uleĠ
Ġcompl iment
fig .Ġ
Ġtend ĠtoĠ
virt u
creditĠ cardĠ
frequ ently
emphas isĠon
Ġaccessor iesĠ
ĠaĠmember ĠofĠtheĠ
Ġnecess aryĠ
hy per
Ġrepublic an
Ġwir ingĠdiagram
respon dĠ
" Ġin
. ĠallĠof
c v
e per
e ightĠof
i eĠm
i ĠloveĠ
k .Ġ
l ol
m e.Ġ
r ou
s umm
y eah
Ġ et
eĠ "
in e,Ġ
in ingĠroom
sĠ lead
or amic
.Ġ downloadĠ
st abil
es ĠtheĠs
ic ion
Ġc oupl
ĠandĠ off
il ot
edĠ justĠ
you Ġdon'tĠ
ed ĠandĠtheĠ
Ġm entor
Ġb roken
âĢ ŀ
Ġf iscal
Ġf ollower
im edia
ig il
Ġof ĠthatĠ
Ġg a
with Ġit
up id
s,Ġ isĠ
s,Ġ sh
Ġst an
Ġst ew
eĠw eightĠ
ĠasĠ if
sĠandĠ even
out let
eĠd et
sĠin toĠtheĠ
s>Ġ<s> Ġnew
s>Ġ<s> ĠwhatĠ
Ġv ib
ĠisĠ it
edĠtoĠ you
ĠtheĠc ouncil
man yĠofĠtheĠ
ĠtheyĠ hadĠ
cont entĠof
which Ġis
ĠtheĠw edd
oneĠ year
veryĠ littleĠ
sĠon eĠof
dis neyĠ
Ġcomp romis
every Ġtim
edĠfor c
eĠg iveĠ
.Ġs mall
ities ,Ġ
rel im
Ġthank sĠtoĠtheĠ
nam eĠandĠ
ram aticallyĠ
design ĠandĠ
esĠfor Ġsal
shouldĠ i
.Ġp eter
yl um
findĠ itĠ
post -
step sĠtoĠ
road er
13 4
Ġcount y,Ġ
seem sĠ
val entin
vol veĠ
coll aboration
employe eĠ
Ġspecial iz
ĠaĠgoodĠ idea
ĠmostĠ cas
Ġindust ry.Ġ
Ġconn ectĠ
.ĠwhatĠ isĠ
super b
Ġtit an
Ġtit ledĠ
urnit ureĠ
Ġval id
sec retĠ
ĠtheĠth re
Ġbreak fastĠ
eĠmanag er
focus ingĠon
,Ġeven Ġthough
simpleĠ toĠ
bre astĠ
nav igation
Ġbre astĠ
Ġproced ure
Ø§ Ø
ĠtheĠgreat er
Ġavail ability
ingĠman ag
Ġdam ageĠ
anth rop
Ġarizon a
audi Ġarab
. Ġtop
/ a
; Ġi
d ot
d eadĠ
f oster
j ak
m r.Ġ
p .
p oon
r areĠ
s ĠalongĠwith
Ġ ;
Ġ !!
Ġ evalu
eĠ whatĠ
eĠ room
sĠ everyĠ
at edĠon
.Ġ lastĠ
,Ġ by
ar der
th eĠc
Ġs lot
Ġs uspect
ĠandĠ z
ĠandĠ âĢľ
Ġw ildĠ
el astic
el abor
ĠtoĠ stop
you 'r
ed ĠtheĠh
ed ĠasĠan
ch icagoĠ
Ġm olec
Ġb b
Ġb usĠ
Ġb ritain
im eter
Ġin structor
our ism
Ġl u
ot allyĠ
eĠs ound
s,Ġ your
s,Ġ whil
oc yt
eĠm ust
gr abb
Ġpro p
Ġv el
Ġr yan
ĠtheĠm en
ĠtheĠf eel
Ġcan ĠhelpĠyou
s. org
av ilion
Ġfrom Ġtheir
ĠaĠb log
ĠaboutĠ you
Ġafter Ġyou
ing.Ġ for
plac esĠtoĠ
ingĠfor c
ingĠfor Ġyou
stat u
car v
sĠm ov
ities .Ġ
eĠl ightĠ
able .ĠtheĠ
Ġservic esĠin
sĠto tal
Ġbr ad
kin der
ĠtoĠs endĠ
Ġout putĠ
olic yĠ
ingĠh ous
Ġthre eĠof
ĠmayĠ b
cor rection
esĠareĠ availableĠ
Ġperson nel
Ġgu ysĠ
rist masĠ
,Ġf ebruaryĠ
ĠaĠre st
hav ingĠs
ĠandĠm ain
Ġpre viouslyĠ
Ġalong ĠwithĠtheĠ
Ġsal tĠ
ĠandĠh ad
Ġhas ĠtheĠ
Ġtalk ingĠabout
eĠch oic
sĠac rossĠ
indust ry,Ġ
ston ish
found ĠthatĠ
ĠtoĠus eĠ
break fastĠ
stream lin
Ġclean er
Ġinf oĠ
eĠhigh lyĠ
Ġworld wid
rum or
Ġtur key
Ġagenc iesĠ
e.g .Ġ
neg ativ
-year- old
Ġprefer redĠ
pot ter
eĠdisc uss
atell iteĠ
exceptĠ for
Ġassemb ly
gran it
ĠperĠc entĠof
ĠaĠgu id
ingĠind ividual
.ĠmoreĠ over
inde ed,Ġ
! ),
- toĠ
2 90
b read
b lood
c .
c ouldnâĢĻtĠ
d ean
g rip
j ess
s acrific
Ġ eatĠ
Ġ euro
Ġa uthentication
Ġth ingĠ
sĠ doĠ
sĠ him
er ĠwhoĠ
on ĠtheĠb
ĠtheĠ pric
it neyĠ
,Ġ befor
,Ġ respect
il le
Ġb aseĠ
Ġh eĠwas
esĠ willĠbeĠ
Ġin Ġnew
ig rantĠ
Ġto ĠtryĠ
ul inaryĠ
eĠt odayĠ
eĠs af
up loadĠ
s.Ġ k
be ingĠf
e,Ġ whereĠ
ell ish
Ġwith Ġus
eĠm ostĠof
eĠm odern
sĠin Ġorder
Ġpro x
ust od
ĠtheĠm oon
ind ones
se oĠ
sp a
Ġk ne
vi an
Ġis n'tĠ
00 1
âĢĿ ).
eb ay
mak eup
Ġun fortunat
ĠitĠ out
sc roll
ĠaĠf riendĠ
Ġres id
e- scal
usin essĠin
Ġbe am
eĠisĠ in
Ġyear s,
eli ef
ingĠm od
iss ipp
ingĠb ag
Ġgr ain
eĠg ift
sĠm eet
ett eĠ
.Ġw elcom
eĠl iveĠ
,Ġc olor
sĠc enter
Ġbr id
aph or
Ġdi agram
Ġter rain
inst antĠ
esĠfor Ġyour
eĠitĠ is
Ġtrain ing.Ġ
develop mentĠof
struct ureĠ
struct ures
proc e
ĠandĠh is
Ġthere 's
Ġcompan yĠthatĠ
edĠf ood
lov e,Ġ
.Ġif Ġi
far mer
sw imm
ez uel
Ġdr ill
want edĠ
cred ential
spac iousĠ
Ġcover ag
Ġtre k
Ġdirect ly
ingĠsom e
Ġdem ocratic
Ġdem ocrac
ĠtoĠse eĠtheĠ
Ġkn ock
raz yĠ
specific ally
Ġgen etic
Ġcert ific
exactlyĠ whatĠ
eĠfeel ĠfreeĠtoĠ
cult ure
ĠtheĠcountry âĢĻsĠ
quant um
olym p
ĠtheĠdist rict
profitĠ organization
Ġatl ant
Ġconv iction
estr uct
conver ter
Ġperfect lyĠ
Ġrap id
uffic ientĠ
rach el
itzer land
! ĠsoĠ
. ĠandĠthen
b y,Ġ
c ableĠ
f ridayĠ
g m
p eer
s v
s izedĠ
Â §
Ð ³
Ġ os
Ġ ).
on eĠfor
ing sĠfrom
,Ġ keep
,Ġ whit
al es
es pres
es ĠasĠwellĠasĠ
Ġc old
Ġc oupleĠof
th Ġannual
is ĠthereĠ
Ġd ha
Ġf igur
im a
Ġin Ġch
Ġof ĠwhatĠ
if iesĠ
Ġal ic
Ġar eĠtheyĠ
ter ror
ab olic
Ġn ik
Ġand ĠaĠd
eĠs hap
up Ġon
Ġre med
per pet
s,Ġ youĠwill
iv ityĠandĠ
Ġfor ĠitsĠ
ep p
ĠtheĠs urv
ĠasĠ itĠisĠ
Ġac oustic
out ĠthereĠ
,ĠandĠ you
eĠm er
haveĠ noĠ
other ĠpeopleĠ
ich elleĠ
Ġor Ġyour
Ġor lean
eĠandĠ d
iz eĠtheĠ
eĠp owder
Ġj ac
Ġj aw
Ġsh irt
Ġis ĠaĠd
es.Ġ with
Ġper Ġmonth
Ġthan Ġother
y.Ġ for
Ġtak ingĠtheĠ
hasĠ noĠ
veryĠ few
youĠcan âĢĻtĠ
edĠon eĠof
get ĠtoĠ
sĠon Ġour
Ġne uron
Ġyear s.ĠtheĠ
,Ġand ĠalsoĠ
sĠthatĠ haveĠbeen
ingĠm ultipleĠ
Ġthey âĢĻll
,Ġm c
every day
eĠg overn
vel vetĠ
.Ġs everal
Ġen jo
ys ician
sĠc am
,Ġw rit
keep ĠtheĠ
,Ġyou ĠhaveĠtoĠ
,Ġa Ġnew
cle ans
Ġhelp ful
esc op
Ġadv iceĠ
11 3
,Ġb ar
Ġpres sure
ĠandĠc ook
Ġexperienc eĠwith
dr um
17 8
sub scription
,Ġin Ġwhich
ĠtoĠd etail
s.Ġi âĢĻm
result sĠof
sign Ġup
student sĠtoĠ
coll ectionĠof
ĠtheĠsp ot
reduc eĠ
Ġchildren 'sĠ
ĠgoodĠ idea
practic eĠof
ingĠthem selv
clear ly
ĠfindĠ itĠ
Ġhistor y,Ġ
irth day
ĠtheĠnextĠ few
Ġrespons ibilityĠ
dem andĠ
choic eĠfor
sett leĠ
?? ??
s>Ġ<s>Ġi Ġam
Ġknowledg eĠof
.ĠtheĠt woĠ
mag ical
makeĠsur eĠthatĠ
Ġcirc uit
ĠcreditĠ card
beat en
indian a
Ġfacil itiesĠ
ĠÐ ²
calc ium
mart in
ultimat ely
progress iveĠ
Ġcart ridg
Ġpoll ution
Ġprincip al
chap el
communic ateĠwith
remin isc
, Ġtr
/ h
4 80
: Ġin
: Ġ(
c Ġ
j eff
k o
l edĠbyĠ
m u
n umer
n atureĠ
n obodyĠ
s undayĠ
t f
v o
w en
Ġ ,
Ġt oll
in ĠthatĠ
or eĠ
re frigerator
ing âĢĻsĠ
ing ĠaboutĠtheĠ
it ectĠ
,Ġ leav
al ,Ġ
Ġc atĠ
Ġs inger
edĠ usĠ
Ġb arn
Ġh o
us eĠofĠtheĠ
am ar
am mal
op yrightĠ
lyĠ for
ab ad
eĠs imulation
rom anc
s.Ġ inĠtheĠ
oo ster
Ġfor wardĠ
eĠc areer
eĠc elebrat
eĠm ention
haveĠ your
ea fter
end ing
sĠin ĠtheĠworld
s>Ġ<s> Ġf
Ġat Ġan
ĠtheĠm omentĠ
notĠ goingĠtoĠ
ĠtheĠc ool
ĠtheĠc reationĠof
ĠtheĠb rand
Ġex port
ĠtheĠp ain
.Ġi Ġus
.Ġi Ġlik
.Ġi Ġdon'tĠ
ingĠa Ġfew
ound ation
eat en
sĠareĠ all
ord inar
inter actĠwith
pa ired
dis miss
usin es
ement ia
ingĠm y
ingĠb lock
ingĠb reak
creat edĠbyĠ
fac ial
down ĠtoĠ
Ġhom eĠandĠ
tim eĠandĠ
event ually
Ġthre w
vent il
io sĠ
national Ġpark
abl es,Ġ
inn oc
ĠtheĠmostĠ common
sĠf eat
ĠaĠre lat
becom ingĠa
Ġalong ĠtheĠway
Ġactiv ist
vest or
17 7
13 3
,Ġwith Ġ
Ġel se
Ġeven Ġthough
quick lyĠandĠ
spir itĠ
Ġtoo .Ġ
Ġprot est
ĠmightĠ beĠ
.Ġit 's
spac eĠ
near ĠtheĠ
Ġconn ector
Ġgl assĠ
meet ĠtheĠ
Ġhar der
eĠtheĠw orld
Ġfund rais
Ġconsider ableĠ
Â® ,
easier ĠtoĠ
ilos opher
rig u
Ġreli ableĠ
Ġprec ision
ĠtheĠco ast
Ġkor ean
Ġham mer
Ġlegis l
related ĠtoĠtheĠ
improveĠth eir
olph in
laund ryĠ
Ġconsc ious
" "
- new
- star
b ach
f older
g ro
j r
r ustĠ
w orn
w ednesday
y esterdayĠ
Ġ !
Ġt ir
Ġa Ġplan
re ver
at ri
ing :Ġ
.Ġ âĢĺ
Ġan k
st ersĠ
Ġc ab
Ġs ick
ĠandĠ design
Ġw at
edĠ part
as pect
le f
Ġd iv
Ġin ĠtheĠh
am mer
Ġof Ġgod
ĠthatĠ canĠb
s.Ġ whenĠyou
ĠthisĠ information
and ra
sĠa sk
Ġst ageĠ
e,Ġ on
otĠ of
ĠasĠ "
eĠm ap
eĠa Ġ
ĠtheĠm aximum
eĠb oardĠ
Ġj oseph
edĠin ĠhisĠ
eĠf ar
ast roph
Ġtim esĠin
Ġ( h
lin eĠandĠ
mak eĠan
Ġthem ĠandĠ
Ġthem Ġon
Ġfrom Ġyou
bo ysĠ
ing.Ġ ifĠyou
Ġwork er
ari os
,Ġm usic
ĠofĠtheĠ new
urr ender
par ameter
Ġsc rap
,Ġc lean
ĠtoĠb reak
nam e,Ġ
ingĠh istor
ox ford
ĠtheĠmostĠ important
ser tĠ
11 7
giveĠ your
Ġsal ad
Ġameric a.Ġ
sĠthat ĠtheyĠ
vest ment
ĠtheĠch eap
cur riculum
ĠanĠex ist
Ġchang esĠ
vol t
Ġmanag edĠtoĠ
Ðµ Ñķ
Ġtri esĠtoĠ
ĠdonâĢĻtĠ haveĠtoĠ
eleb rit
goal ĠisĠtoĠ
.Ġafter Ġall
ĠtheĠsameĠ asĠ
near byĠ
Ġautom ation
Ġhapp yĠtoĠ
Ġannounc edĠthatĠ
eĠcall edĠ
Ġclos eĠ
choic eĠof
Ġdur ingĠa
Ġfund amental
ĠanyoneĠ els
eĠdis play
recover yĠ
Ġinstitut eĠof
initial lyĠ
resist antĠ
ĠatĠtheĠm oment
Ġcris is
ryp tion
asĠveg as
Ġcompens ation
ĠaĠvide oĠ
Ġelim inat
energet ic
Ġprad esh
- day
: :
; ĠitĠ
b rowser
d eem
k on
k oĠ
» ¿
Ġ effectiveĠ
eĠ per
Ġt b
Ġa ĠperfectĠ
Ġth ingĠyou
Ġth ingĠis
sĠ getĠ
sĠ fac
tĠ (
.Ġ be
,Ġ consider
es preadĠ
il a
il ter
Ġw aveĠ
Ġp os
ed ĠthroughĠtheĠ
Ġm erc
Ġb roughtĠ
Ġh id
Ġd espit
us e.Ġ
ac complish
esĠ our
im portĠ
ver ifi
ingĠ outĠtheĠ
ingĠ opportunities
Ġto ĠachieveĠth
Ġl ank
ĠthatĠ peopleĠ
ri zz
eĠs port
qu et
s.Ġ f
um ar
Ġon e.Ġ
end eavor
s>Ġ<s> Ġafter
eĠa ĠlittleĠ
ĠisĠ designedĠtoĠ
eĠandĠ myĠ
ĠtheĠf iveĠ
ĠtheĠf estival
eĠp aidĠ
ĠtheĠp olitical
toĠ your
ens itiveĠ
ob sess
ĠaĠs olidĠ
eg o
som eĠb
es.Ġ "
Ġacc ountĠof
Ġun lock
pres crib
sc ottĠ
.ĠthisĠ isĠtheĠ
dis charg
eĠto Ġtheir
.Ġh ensen
ĠtwoĠ hour
.Ġs implyĠ
.Ġm uch
ĠaĠw edd
ort ic
ingĠf actor
,Ġd espit
ĠtoĠb eĠtheĠ
Ġout put
learn Ġhow
real m
overn ightĠ
ĠdoĠ not
eĠitĠ in
.Ġyou ĠhaveĠ
ym ph
eh r
complet edĠ
ĠaĠre lation
Ġbl end
e? Ġi
imag eĠof
ĠtoĠm atch
continu ouslyĠ
likeĠ other
edĠd ur
ĠtoĠd riveĠ
Ġtry ingĠto
Ġlevel Ġ
strong er
ĠaĠlotĠof ĠpeopleĠ
Ġgiv esĠyou
Ġdur ation
Ġ' :
european Ġunion
Ġmus cleĠ
fi ber
enterpris eĠ
Ġlibr ary
Ġrich ardĠ
reditĠ cardĠ
Ġalt itud
Ġbey ondĠ
ĠÎ¼ m
( )
. Ġad
2 16
c z
l ouis
m um
m itsĠ
s eparateĠ
t ouch
x iet
Ù ı
Ġ Ñģ
Ġ equal
sĠ report
er r
re act
it coin
.Ġ sp
,Ġ german
es ĠatĠtheĠ
Ġc it
ĠandĠ "
is dom
ĠtoĠ buy
ĠtoĠ buyĠ
for ĠthatĠ
Ġd eeper
esĠ h
im en
ingĠ local
ad dĠ
Ġal bert
res ign
our metĠ
Ġl inux
ĠthatĠ itĠwasĠ
ew alk
s,Ġ n
ĠareĠ now
sĠof ĠtheĠb
eĠw orth
ial isĠ
,ĠandĠ now
,ĠandĠ hisĠ
ack now
s>Ġ<s> Ġwith
s>Ġ<s> ĠâĢľ
pr entic
Ġthat ĠtheĠs
Ġthat ĠtheĠc
edĠb ook
vi b
eĠh ol
ob serveĠ
eĠfor Ġtheir
sĠwith inĠtheĠ
ert ifi
vis a
iss an
,Ġs am
Ġup Ġto
,Ġi âĢĻveĠ
und oubt
app earedĠ
.Ġs am
sĠs everal
sĠfrom ĠthisĠ
ier arch
ĠwouldĠ beĠa
ingĠf ood
ĠweĠ all
,Ġor Ġ
commun ity.Ġ
esĠareĠ a
qual ity,Ġ
.Ġyou ĠneedĠtoĠ
eĠi ĠhaveĠ
ĠandĠm aintain
becom eĠan
rad ar
Ġthing s.Ġ
ouch er
ĠmanyĠ differentĠ
Ġchang eĠin
Ġoffic er
erg onomic
eĠtheĠb ig
Ġliv esĠ
sĠac tion
sĠac cess
sĠac count
.Ġn oth
ĠfindĠ yourself
adv ant
ĠalreadyĠ been
iou sĠin
Ġdeal ership
eĠservic esĠ
execut iv
emonstr at
thisĠ isĠ
journal ist
,Ġit âĢĻsĠa
Ġgar ageĠdoor
eĠcr ush
compos edĠof
ĠboardĠ of
pan ic
Ġbon us
Ġherit ag
Ġtemp leĠ
Ġconcent ration
negl ect
Ġaggress iveĠ
makesĠs ens
Ġthomp son
ðŁĻ Ĥ
- mad
. f
b iz
d ual
d ental
i /
l ich
s ĠtheĠd
x Ġcopper
in ĠaĠc
sĠ ifĠyou
er equ
on eĠtim
re vel
at Ġa
ing Ġthos
.Ġ lik
,Ġ help
Ġc re
Ġs tĠ
il ateral
el ecom
is per
for es
Ġm art
Ġb ound
Ġd raft
Ġd ivorc
Ġf old
Ġin k
em o
ill ness
ag ric
Ġl edĠ
ot an
eĠs ent
s.Ġ hisĠ
e.Ġ f
sĠa ĠlittleĠ
Ġfor Ġit
Ġtr ait
enc e.
ever -
eĠm aster
outĠ with
s>Ġ<s> ĠhereĠ
ĠtheĠb utton
ĠatĠ b
Ġ( i
ens on
ne th
work ĠisĠ
str ictĠ
es,Ġ soĠ
la h
inter act
ph en
under groundĠ
ĠaĠg irl
par is
und amental
ed,Ġ with
.Ġm ember
inĠ everyĠ
sĠs ign
.Ġw eĠhop
Ġy ield
istĠ in
Ġro le
Ġteam ĠisĠ
fre eĠtoĠ
Ġpart ies
,Ġyou âĢĻreĠ
edĠs olution
exc av
cover ag
Ġgo ingĠon
Ġday s,Ġ
ĠandĠd eliver
ĠtheĠmostĠ recentĠ
complet ely
eĠsp ok
ĠtheĠbestĠ wayĠtoĠ
hav e.Ġ
sĠcan ĠalsoĠ
aĠ &
energ yĠs
nes ium
ĠaĠv iew
ibil ityĠandĠ
âĢĻreĠ lookingĠfor
ĠandĠi âĢĻm
Ġfac ial
,Ġj ulyĠ
Ġagre edĠtoĠ
hereĠ in
sĠlik eĠtheĠ
return edĠtoĠ
Ġcoll ectionĠof
Ġtax pay
dist urb
-t yp
Ġstudent sĠtoĠ
s.Ġin ĠthisĠ
yc lop
ingĠsom eĠof
Ġcheck Ġout
Ġfact oryĠ
Ġlim itation
beĠp re
Ġpiec esĠof
Ġlat in
Ġcur riculum
Ġpick Ġup
Ġinch esĠ
rail wayĠ
natur eĠof
Ġrelat ivelyĠ
Ġarg umentĠ
eĠfamil iar
prox im
sĠacc ord
compatibleĠ with
âĪ Ĵ
e-of-the- artĠ
acknow ledg
) Ġfrom
c av
d ol
d ear
i 'sĠ
j ordan
s lic
w ag
ï »¿
in tĠof
Ġth ingĠi
on ey
or Ġb
an ner
re ez
at e
ing Ġbefor
.Ġ let
al v
al oĠ
Ġs ad
ĠandĠ noĠ
ĠandĠ play
ĠandĠ itâĢĻsĠ
il esĠ
Ġw ow
ĠtoĠ call
Ġp illow
edĠ product
Ġm assiveĠ
Ġb a
Ġb c
as ha
Ġh d
Ġh an
Ġh ay
ent ional
ur f
ur ableĠ
un ic
lo gan
Ġg az
Ġg oogle
entĠ or
up Ġin
and oĠ
sh ootĠ
sh elv
ap artment
from ĠmyĠ
Ġv aryĠ
Ġab oveĠtheĠ
ind ivid
eĠb eĠ
ĠtheĠc all
eĠh ouse
int rigu
mor tal
ass ium
ĠtheĠw alk
s, ĠareĠ
not ĠtooĠ
oneĠ and
so -
Ġag oĠ
inter nation
whoĠ can
ret reat
ĠaĠ question
ĠaĠm ix
ing.Ġ w
mon dayĠ
ĠaĠd ozen
ext ent
ingĠd ocument
ingĠp osition
includ ingĠtheĠ
eĠg ain
ingĠof Ġyour
.Ġw rit
Ġover look
hom eĠandĠ
ingĠto day
Ġgo ingĠto
esp an
Ġtrad er
ah ar
servic es,Ġ
pric es.Ġ
ary landĠ
law Ġfirm
ĠbutĠ itĠ
Ġneed sĠandĠ
ĠandĠp epper
writ ersĠ
tr ail
-f ounder
Ġcreat ingĠa
whyĠ notĠ
Ġcor eĠ
osp ac
Ġwant sĠtoĠ
offic eĠof
esĠand Ġtheir
compl icatedĠ
emb roider
Ġpric esĠ
rep eatĠ
ĠonlyĠ beĠ
eĠwouldĠ haveĠ
flu or
iou sĠaboutĠ
,ĠwhoĠ wasĠ
engag eĠin
Ġrespons eĠtoĠ
Ġval veĠ
publish edĠ
Ġbecom eĠ
Ġattempt ingĠtoĠ
ras p
doesnâĢĻtĠ mean
Ġrel ativeĠ
Ġhon ey
ĠtheĠsub jectĠof
.ĠtheseĠ areĠ
Ġbi om
ĠthisĠweek end
-h andĠ
emper or
Ġfix t
eĠtechn iqu
correct ly
Ġregister edĠ
invit edĠtoĠ
Ġteen ag
straight forward
Ġmid -
Ġinspir ation
Ġpress ureĠ
Ġatl anta
acqu isition
ãĢ ģ
Ġsequ enc
ĠtheĠcan adian
excess iveĠ
( p
. Ġthos
. Ġtherefore,Ġ
b rew
d well
d ash
e yĠof
g ig
l ighter
m iddleĠ
p ant
p aintĠ
r if
s aturdayĠ
x p
x box
eĠ haveĠ
sĠ go
on us
en h
yĠ will
.Ġ pre
.Ġ yet
st ip
ar p
ar ily
es ĠalsoĠ
Ġs old
ĠandĠ creat
ĠandĠ still
ĠandĠ mostĠ
Ġm e.Ġ
Ġb reach
us ingĠs
Ġf als
Ġin dones
ingĠ good
Ġl ed
s.Ġ noĠ
sĠa Ġnew
Ġfor Ġan
Ġwith ĠtheĠs
eĠm ovi
eĠd irector
Ġcon clud
li amentĠ
rec ed
we ater
ĠtheĠf amousĠ
ĠtheĠc reat
ĠtheĠc irc
ĠtheĠb and
e. ĠatĠ
when Ġsh
which ĠwasĠ
sĠfor ĠthisĠ
oneĠ is
arg inal
ĠanĠ out
ĠaĠc up
eĠthatĠ can
e- t
e- bas
edĠbyĠ hisĠ
plac eĠof
,Ġm ostĠof
ingĠd etail
bl own
Ġrec ent
Ġop position
eĠsh ot
need sĠandĠ
ingĠwith outĠ
eĠofĠtheĠ year
show sĠ
low lyĠ
servic es.Ġ
ĠwhoĠ haveĠ
rain bow
ĠtheyĠareĠ notĠ
Ġexperienc e,Ġ
ingĠt ableĠ
Ġhealth car
findĠ it
Ġaut onom
liv edĠin
someth ingĠyou
ĠandĠw atch
ĠmanyĠ cas
Ġproduct s,Ġ
Ġreal ityĠ
Ġso ap
Ġlead ĠtoĠ
clos er
Ġconc ertĠ
personal Ġinformation
!Ġi âĢĻm
acc oĠ
ĠdonâĢĻtĠ wantĠtoĠ
propert y.Ġ
Ġfamil iar
Ġissu es.Ġ
util is
ãģ ¯
unitedĠstat esĠandĠ
electric ity
eac eful
eĠservic eĠ
blu eĠ
rob ial
wa uk
useful Ġfor
Ġcult ureĠ
welcom eĠtoĠ
Ġflor id
Ġdecor ation
ĠatĠtheĠendĠof ĠtheĠ
Ġliter aryĠ
Ġproper lyĠ
sport sĠ
satis faction
Ġprec is
enthusi asm
Ġconfirm ation
Ġjanu ary
Ġinvent or
associ atedĠ
abol ism
ĠaĠrelation ship
, Ġanother
- orient
. net
/ s
: Ġp
: ĠwhatĠ
f ounder
h unter
h urtĠ
m irror
n ob
s ustainableĠ
u itiveĠ
Ġ row
eĠ under
Ġa Ġuser
Ġth reatĠ
er os
on eĠcan
ing sĠor
it leĠof
,Ġ play
,Ġ becauseĠ
,Ġ llc
al o
Ġc ros
th Ġin
ĠandĠ provid
ĠtoĠ be
ĠtoĠ obtain
ed ĠthatĠtheyĠ
Ġf ur
esĠ b
et ro
un veil
op hom
Ġof ĠaĠs
ill um
eĠth eĠtim
itĠ down
itĠ willĠb
eĠt estĠ
Ġand Ġat
entĠ for
igh tĠofĠtheĠ
con greg
con flictĠ
e.Ġ each
e.Ġ inĠ
e.Ġ pleaseĠ
sh e
oo z
ev ot
Ġst eveĠ
ep id
Ġwh isk
Ġall Ġin
eĠw onder
,ĠandĠ for
sĠin ĠhisĠ
Ġr a
Ġch icagoĠ
form sĠof
ĠtheĠf ire
ĠtheĠb order
eĠf iction
duc tion
Ġtim esĠandĠ
ĠthereĠ for
Ġaf raid
ĠtheĠw onderful
ingĠtoĠ se
ection Ġ
ĠaĠf our
ĠanĠ effectiveĠ
ĠanĠ opportunityĠtoĠ
br acket
ed.Ġ butĠ
plac eĠandĠ
know ĠaboutĠ
ĠaĠl iveĠ
earch Ġfor
eĠg reen
esĠtoĠ help
sĠm ean
air portĠ
sĠs etĠ
eĠl imit
ock ey
Ġro bert
,Ġc aus
ingĠf oodĠ
mad eĠbyĠ
show Ġyou
Ġter r
mo ist
issu es.Ġ
wher easĠ
Ġstat esĠ
never Ġseen
Ġco ordinat
dr .Ġ
ĠaĠfew Ġmonth
Ġsub stanc
indow sĠ
letĠ your
ingĠfrom Ġ
-s enn
respons iveĠ
known ĠasĠtheĠ
!Ġi 'm
ĠthankĠyou ĠforĠyour
yĠm ember
eĠst ation
-p ack
esĠto ĠthisĠ
ĠalmostĠ everyĠ
ĠyourĠb usiness.Ġ
Ġprof itĠ
Ġhead phon
andid ateĠ
ĠoutĠof ĠtheĠ
Ġtherap ist
eĠweĠ areĠ
iron Ġor
sens eĠof
ĠtheĠin itial
pict ur
anal ytic
Ġemploye esĠ
efficient ly
prefer redĠ
.ĠasĠa Ġresult
Ġawesom eĠ
edicat edĠto
yearsĠ later
Ġpo em
xx x
iran ian
ĠbrandĠ new
having Ġbeen
Ġgeorg ia
ĠonĠs aturday
ĠlessĠthan Ġ
surg ical
ĠaĠdailyĠ basis
acram ent
, ĠatĠleastĠ
, ĠtheĠmor
` `
b dĠ
e edĠof
g ov
g mail
g oogle
h ann
i eĠb
i ationĠof
k idĠ
o 'sĠ
r ypt
y Ġa
Ġ ~
Ġ import
Ġ Ð¸
Ġt ightĠ
Ġt empt
sĠ concern
er Ġwill
on Ġher
ĠtheĠ author
re ign
at -
ing ĠplantĠ
it '
Ġan Ġapplication
Ġan Ġarea
Ġan Ġinternational
,Ġ whenĠyou
st even
ic ci
th ey
Ġs urelyĠ
el far
is sĠ
ĠtoĠ complet
ĠtoĠ ensureĠthatĠ
Ġm ir
Ġm agn
Ġb ever
Ġf ireĠ
Ġf isher
esĠ how
et icallyĠ
ingĠ justĠ
Ġof Ġit
Ġl ind
Ġand erson
ri Ġlank
s.Ġ sinc
sĠa sĠtheĠ
Ġst ack
ep r
Ġac company
ĠtheĠm atch
ĠisĠ onlyĠ
eĠb ring
eĠp remium
Ġj i
Ġk a
work .Ġ
s. Ġtheir
ob ic
mak ersĠ
ingĠa wayĠ
Ġthem Ġwith
not ĠthatĠ
not Ġallow
ire land
ĠaĠd esign
ĠaĠd igital
Ġthis ĠtimeĠ
ĠaĠl ater
produc edĠbyĠ
ingĠfor Ġyour
ros ion
amp agn
sur eĠtoĠ
ict ure
back Ġfrom
ett a
Ġmon ster
struc tĠ
,Ġd r
Ġbr ingsĠ
.Ġd evelop
ump kin
Ġwas ĠalsoĠ
sĠyou Ġwill
Ġtechnolog yĠtoĠ
ĠandĠf ind
.ĠthereĠ wasĠ
Ġcons ol
couldĠ beĠa
sub mission
Ġsub mit
ingĠup Ġwith
Ġrem ind
-f ill
Ġcreat eĠ
Ġproc essĠof
itĠis ĠalsoĠ
Ġcam eras
sal es
Ġsm ell
ender son
Ġamong st
sor p
ĠtoĠc atch
Ġkeep Ġyour
eĠsoĠ much
videoĠ on
Ġpolic y
spec iesĠ
Ġattend e
ĠdoesĠ itĠ
eĠbetween Ġ
woodĠ floor
Ġsk i
eĠtheĠw ayĠ
rout eĠ
activ itiesĠ
episod eĠ
Ġhard war
.ĠitĠis ĠalsoĠ
grand father
Ġprinc ipl
sn ack
Ġmeas urement
bridg eĠ
decor ativeĠ
Ġagenc ies
Ġalmost Ġall
without ĠanyĠ
volum eĠ
eĠtechn ical
birth day
ĠaĠph otoĠ
habit at
behavior al
ingĠmon th
obl ig
haven 'tĠ
Ġtreas ur
Ġnorm allyĠ
eanutĠ butter
) ĠandĠtheĠ
, ĠtheĠfirstĠ
, ĠaccordingĠtoĠtheĠ
- depth
> .
? Ġh
e for
g az
i ĠjustĠ
n l
s Ġtak
s yn
y ,Ġa
on Ġtop
en act
ing Ġanother
,Ġ oneĠ
,Ġ everyĠ
,Ġ black
st .Ġ
Ġc af
ĠandĠ youĠwill
ĠandĠ relax
ĠtoĠ return
as ĠandĠ
Ġd y
us sel
ol n
id asĠ
ill usion
ha unt
Ġg iantĠ
Ġand Ġturn
ear d
ĠareĠ your
eĠw ast
eĠin ĠhisĠ
Ġac res
cl utter
Ġat Ġtheir
Ġr av
Ġcom eĠtoĠ
form Ġbelow
ĠatĠ c
Ġtim es.
Ġ( se
eas eĠof
ateĠ or
mak esĠyou
Ġus dĠ
wasĠ in
y.Ġ "
y.Ġ h
pres idential
even Ġbetter
so ever
Ġmor al
e, Ġt
ph an
.ĠthisĠ isĠa
ĠtheĠg olden
ing.Ġ butĠ
vis ible
stat e.Ġ
onlyĠ oneĠ
becaus eĠh
e.ĠtheĠ t
inv oic
experienc e,Ġ
hom e,Ġ
ĠtoĠs etĠup
.Ġyou ĠmustĠ
sĠar eĠt
ĠaĠt our
,ĠitĠ can
ĠandĠt alk
Ġsub stantial
Ġshow cas
sk irt
forĠ everyon
special istĠ
ĠthatĠi ĠhaveĠ
afet yĠandĠ
Ġlin eĠof
.Ġn ext
Ġcustomer s.Ġ
Ġhear dĠof
children âĢĻsĠ
e,ĠbutĠ i
iou s.Ġ
Ġnam edĠ
ĠtheĠsc op
rich ard
ĠeveryĠ day
esh ip
runn ingĠ
Ġmay b
Ġsinc eĠtheĠ
eĠtheĠt op
relationship Ġwith
relat ingĠtoĠ
Ġgett ingĠa
Ġla yout
,Ġinclud ingĠtheĠ
Ġem otional
Ġnorth Ġamerica
usp ension
ĠtoĠdoĠ with
iver se
studentsĠ whoĠ
non eth
ĠtheĠpeopleĠ of
ĠtheĠdep artmentĠ
bul k
.Ġthey ĠalsoĠ
Ġdecor ativeĠ
Ġa.m .Ġ
yster iousĠ
achel orĠof
Ġpred iction
Ġconv ey
.Ġ^ Ġ"
herit ag
antas yĠ
ingĠindust ryĠ
eĠdecid edĠtoĠ
prohib it
Ġalle vi
Ġord inaryĠ
effer son
, ĠthereĠisĠnoĠ
- ĠandĠ
. Ġturn
. ĠasĠtheĠ
c ester
e able
l ion
p rivileg
s atĠ
s ak
s ought
w eĠcouldĠ
x ,Ġ
Ġa ĠcompanyĠ
sĠ isĠa
sĠ overĠ
st eadĠ
is ĠaĠgreatĠ
edĠ someĠ
you ĠgetĠ
isĠ soĠ
Ġb att
Ġh ect
Ġh amp
Ġh undredĠ
Ġd eter
Ġd edicatedĠ
us on
Ġf tĠ
Ġin v
ingĠ lot
Ġof ĠaĠc
Ġto Ġattend
Ġl uk
eĠs pr
eĠs uccessful
ear bud
sh eâĢĻsĠ
ev angel
Ġst im
ther ap
Ġtr illion
ell ular
Ġon Ġhow
gh z
eĠc ash
eĠc apac
eĠm ountain
Ġpro portion
Ġat ĠtheĠh
eĠb est
Ġap t
year s.Ġ
year s,Ġ
ne u
ne at
ult iv
Ġam ateur
ĠtheĠw arm
ingĠtoĠ know
veryĠ goodĠ
ug ues
rat h
ĠtheĠl andĠ
byĠ far
Ġadd ed
e- c
e- basedĠ
Ġcomp ound
ash tag
edĠto ĠtheĠs
co inc
pre ach
Ġwhen Ġw
Ġdis k
,Ġc ol
by ĠtheĠtim
ingĠf riend
peopleĠ andĠ
Ġown ership
:Ġ $
e! Ġ
Ġtrain er
rid or
sĠb ook
.Ġf eel
Ġfl avour
es, Ġthen
option Ġfor
information ĠaboutĠ
Ġco astĠ
sub mitĠ
cur v
heĠ alsoĠ
less ly
Ġhour sĠa
goingĠtoĠ b
until Ġi
eĠn ear
head phon
Ġbut ĠalsoĠ
establish ment
ĠaĠr ich
Ġfeat uredĠ
ĠwhereĠ youĠcan
goal Ġof
Ġadditional Ġinformation
season al
ĠsomeĠ reason
ĠheĠ hasĠ
Ġlet âĢĻsĠ
Ġimag ination
Ġrespons eĠto
Ġsearch ingĠfor
ĠaĠhigh -
iĠcan âĢĻtĠ
Ġclick ĠhereĠtoĠ
po em
i. e
ĠtoldĠ m
ĠanĠexc eption
Ġsucc ess.Ġ
och ond
forget ĠtoĠ
roc col
Ġviol enc
Ġterror ist
eĠare asĠ
ingĠsup port
ĠweightĠ los
jud ic
Ġartic les
enthusi ast
Ġexcell enc
irr igation
imper ial
entitl edĠtoĠ
sĠabo veĠ
ingĠmount edĠbathroom
ĠaĠrelat ivelyĠ
) ĠhasĠ
. a.
f ak
f law
h itt
r p
s Ġturn
t ra
w ing
Ù Ĳ
Ġ Ð¾
Ġ ought
Ġ etĠal
eĠ âĢĶ
Ġa Ġtwo-
in Ġon
in clusion
or ch
it ol
,Ġ wereĠ
,Ġ either
ic an
om inat
Ġs anta
ĠandĠ be
il lo
Ġw if
el ephon
ĠtoĠ each
Ġm e,Ġ
Ġb edĠ
Ġb ett
Ġh ugh
Ġh ouston
le ash
ol ition
Ġf ib
un less
itĠ out
ab ular
our Ġclient
Ġl aur
e.Ġ ifĠyouĠareĠ
and em
ap a
Ġfor Ġmor
ial ogu
eĠc ityĠ
20 4
sĠin steadĠof
Ġad justĠ
eĠtoĠ keep
we ird
ĠtheĠf low
Ġlo dg
eĠf ish
eĠf ix
sĠtoĠ chooseĠfrom
comp ound
eĠh alf
s. Ġt
eas y-to-
ass ur
ass ociat
ater n
ingĠs everal
Ġthem .ĠtheĠ
son âĢĻsĠ
Ġthes eĠd
la veĠ
ousĠ system
ureĠ you
ĠtheĠh ardĠ
ĠaĠb roadĠ
ĠaĠc ustomer
edĠon c
Ġcont rovers
ĠaĠp ieceĠof
ĠaĠd eal
,Ġm ichael
eĠg en
rel la
ĠaĠh app
Ġph ras
,Ġc over
Ġalway sĠw
Ġcol on
lead sĠtoĠ
poss ibly
ĠaĠlo an
Ġprovid eĠyouĠwith
valu eĠfor
Ġameric a,Ġ
ingĠt rip
research er
Ġback ĠtoĠ
count riesĠ
Ġstor iesĠ
Ġsub stitut
Ġarea .Ġ
.com .Ġ
feel ĠfreeĠtoĠ
eĠn atural
Ġbut ĠtheĠ
endĠof Ġ
Ġpost -
Ġbecaus eĠtheyĠ
my th
ĠthisĠp ageĠ
bar a
beĠs oĠ
ĠmightĠ haveĠ
ĠaĠch alleng
plann ingĠandĠ
sell er
Ġgl or
via ĠtheĠ
ĠoneĠ year
princ ipleĠ
Ġsometh ing
Ġval -senn
Ġassist anceĠ
Ġwhether Ġyou
Ġattempt sĠtoĠ
Ġapprox imat
spr ing
Ġaren âĢĻt
nut rient
-to- dayĠ
compos it
ĠtheĠmin imum
spiredĠ byĠ
Ġproper ly
Ġbre ast
Ġsn ack
haw ai
ĠaĠway ĠthatĠ
Ġcollect iveĠ
Ġrecover yĠ
worry Ġabout
Ġdepend ingĠon
entryĠwasĠpost edĠon
elev ator
Ġsand wich
Ġnav igation
Ġmass ag
constitution al
Ġbad g
vibr antĠ
ractal Ġdimension
relim inaryĠ
c eil
d av
j amin
m echanism
p it
p add
s ar
y ĠaboutĠ
Ø ¯
Ġ ensur
Ġa sĠof
er y,Ġ
en âĢĻt
an spar
re sĠ
at mosphereĠ
Ġan gleĠ
,Ġ $
,Ġ right?
Ġc inem
Ġs ew
edĠ mor
Ġb in
Ġh u
Ġf lexibleĠ
esĠ wer
et .Ġ
em ical
ingĠ veryĠ
lo veĠtheĠ
ul b
per fection
be ingĠt
eĠw onderful
ĠtheĠs eller
oc c
Ġwith Ġit
eĠc ut
eĠm obil
sĠin ĠtheĠd
Ġr ar
Ġas ĠtheyĠareĠ
ableĠ in
ĠtheĠb ab
Ġ( in
ult ras
int ensiveĠ
eg er
es,Ġ in
mentĠ for
Ġus eĠthisĠ
e, Ġthough
ĠwasĠ veryĠ
anyĠ other
ĠtheĠn ameĠ
ing.Ġ if
ĠaĠl ackĠof
Ġup loadĠ
.Ġin ĠmyĠ
ĠaĠh ard
ativeĠ of
âĢĶ andĠ
Ġservic esĠtoĠ
sĠto Ġtak
sĠd ueĠtoĠ
lif e.
Ġknow ĠthatĠ
Ġhelp sĠ
servic e.Ġ
âĢĻveĠ got
fil edĠunder
shouldĠ haveĠ
eĠsp ent
Ġunder Ġ
build ing,Ġ
sĠar enâĢĻtĠ
Ġsystem sĠ
ĠandĠp ublic
lim b
option Ġof
eĠsom eĠofĠtheĠ
ingĠw omen
energ y,Ġ
Ġback Ġin
ĠanĠex ample
Ġproduct s.Ġ
Ġmonth s,Ġ
Ġvi etnam
Ġsur geon
âĢĻr eĠa
canĠb eĠfoundĠ
afet yĠof
eĠst aff
Ġleg it
Ġprot ectĠ
Ġpay pal
ĠoneĠof ĠtheĠmostĠ
videoĠ gam
remember ĠthatĠ
Ġtom atoĠ
princ essĠ
itud eĠof
inaryĠ option
introduc tionĠof
select ĠtheĠ
Ġsiz eĠ
vill a
vill ageĠof
suppl ies
ĠtheĠsecondĠ half
char le
Ġsqu areĠ
Ġsqu are
estic id
Ġclear lyĠ
-to- dat
ĠinĠtheĠm orn
Ġident ify
ĠandĠfor th
Ġstrength en
estĠandĠ mostĠ
ĠasĠlong ĠasĠ
eĠasĠwell ĠasĠ
[...]
