#version: 0.2
e Ġ
s Ġ
t h
d Ġ
a n
i n
Ġ th
o n
e r
a t
r e
Ġth eĠ
a l
an dĠ
e n
y Ġ
, Ġ
t Ġ
o r
o f
in g
. Ġ
t o
r o
a r
a Ġ
e l
i on
s t
i sĠ
e dĠ
a s
i c
of Ġ
ing Ġ
i t
e s
to Ġ
o u
a c
d e
c o
e sĠ
i v
i s
Ġ andĠ
a b
c t
p ro
in Ġ
at ion
a g
u l
er Ġ
al Ġ
el l
i th
t r
w Ġ
e x
u n
u r
a k
a sĠ
e d
w ith
Ġ ofĠ
re s
as k
. ĠtheĠ
h o
i l
l o
l eĠ
en t
a v
e ct
an c
at Ġ
f or
s eĠ
â Ģ
an Ġ
of ĠtheĠ
a d
c ell
g r
i r
n e
n o
s ,Ġ
th eĠ
co m
a m
a p
b u
b yĠ
c on
i z
i tĠ
l yĠ
m Ġ
o p
p er
s p
v er
en c
,Ġ andĠ
isĠ aĠ
ic Ġ
c h
d s
e .Ġ
e as
i f
Ġ d
it yĠ
with Ġ
2 0
i m
k Ġ
p o
p ar
q u
s e
s ion
v i
sĠ andĠ
al ask
ar eĠ
a f
b o
f ect
g h
g ro
i st
l Ġ
p l
p res
t er
u m
u p
sĠ th
th Ġ
on eĠ
at edĠ
en Ġ
to ĠtheĠ
el yĠ
es sĠ
iv eĠ
ne wĠ
af fect
. Ġth
a u
c ap
e t
h al
h ou
i d
i enc
l e
m ask
n Ġ
w n
y de
z yde
sĠ toĠ
on Ġ
er eĠ
re g
re n
tĠ ofĠ
ing ĠtheĠ
ro o
ar Ġ
st at
ic h
is eas
ag eĠ
zyde co
c ur
d re
d am
e st
g an
h e
h av
i b
i ou
j o
m o
m ak
o l
o wn
p e
p re
r Ġ
s >
u eĠ
y ĠtheĠ
y or
eĠ andĠ
in ĠtheĠ
in nĠ
re at
or gan
st e
st r
isĠ no
edĠ byĠ
es .Ġ
ou rĠ
ac t
ac iou
ab leĠ
ation ĠofĠ
anc eĠ
for Ġ
âĢ Ļ
20 1
vi de
sĠth atĠ
newĠ yor
mask sĠ
a yĠ
a el
a st
b re
c l
c essĠ
d i
d v
e ,Ġ
e thĠ
g u
h iv
h asĠ
h ist
i gh
l an
l ak
l if
m an
m en
m ich
s c
s h
s s
s u
s y
s .Ġ
t e
t ingĠ
u t
u ct
w o
y .Ġ
Ġ <
eĠ th
sĠ inĠ
sĠ areĠ
in toĠ
on g
on ĠtheĠ
at tr
en jo
yĠ hou
or icĠ
of f
to p
el iz
es eĠ
ab ethĠ
ation Ġ
ul arĠ
erĠ lak
tr ueĠ
wĠ mich
ex per
lo c
op en
per t
ver yĠ
ds cap
se yĠhou
gro w
.Ġth isĠ
hal seyĠhou
roo mĠ
zydeco Ġd
cur ren
dre wĠmich
isĠno tĠ
âĢĻ sĠ
newĠyor kĠ
bre ak
gu est
hist oricĠ
lan dscap
attr act
eliz abethĠ
exper ienc
halseyĠhou seĠ
drewĠmich ael
elizabethĠ ell
& b
) Ġ
, ĠtheĠ
- st
0 0
a re
a il
b e
b r
b eĠ
b edĠ
b &b
c or
c anc
d it
d es
d iseas
e .ĠtheĠ
f l
f ing
f as
f un
g eĠ
g ingĠ
i g
i o
i dĠ
i esĠ
j u
l l
l iv
l ong
m i
m un
m ed
m ent
m s,Ġ
n at
n or
o th
r at
s o
s el
s it
s .ĠtheĠ
s icĠ
t sĠ
t .Ġ
t ac
t im
v esĠ
w e
w h
y sĠ
y ou
dĠ isĠ
Ġth eseĠ
re dĠ
re pres
al t
al th
al co
al ĠandĠ
al lyĠ
al lĠ
en d
en tĠ
tĠ inĠ
or Ġ
ar lyĠ
aĠ f
aĠ re
ion Ġ
ic eĠ
ofĠ cell
es ,Ġ
es tĠ
ou t
de a
iv er
iv elyĠ
pro vide
pro cessĠ
pro pert
ation alĠ
ag gr
alĠ cell
ex pl
ho l
av atedĠ
ect ion
âĢ Ķ
ad dit
gr andĠ
ir eĠ
com mun
bu il
op leĠ
sp aciou
e.Ġ itĠ
Ġd iseas
po ss
par tĠ
alask anĠ
bo d
affect edĠbyĠ
stat eĠ
he alth
hav eĠ
ib il
pe opleĠ
organ iz
ste p
cl as
enjo ysĠ
off er
erĠlak esĠ
zydecoĠd anceĠ
newĠyorkĠ fing
landscap edĠ
elizabethĠell isĠ
med ic
nor m
repres ent
provide sĠ
aggr avatedĠ
Ġdiseas esĠ
newĠyorkĠfing erĠlakesĠ
aggravatedĠ organiz
1 8
3 4
a w
a y
a in
a Ġth
b as
b yĠtheĠ
c a
c eĠ
c al
c edĠ
c ation
c ul
c anĠ
c au
c id
c reat
d sĠ
d en
d uct
d alt
e -
e th
e wĠ
e .ĠthisĠ
f ro
f ul
f ed
f lo
f ourĠ
g l
g o
g ar
g res
h y
h Ġ
h ar
h ic
h ingĠ
h igh
i edĠ
i ation
i bu
j un
j um
k s
k ing
k it
k sĠinĠ
l y
l ar
m sĠ
m in
m or
m el
m ingĠ
m anĠ
m et
m ayĠ
n ationalĠ
o c
o k
o seĠ
o ver
p r
p on
p at
p it
p ho
p op
p ut
s k
s in
s tĠ
s or
s ic
s ex
s ur
s ol
s es.Ġ
t on
t en
t edĠ
t lyĠ
t reat
t wo
u sĠ
u gh
u cation
v ar
v anc
v enĠ
w at
w erĠ
w asĠ
y e
y leĠ
Ġ (
Ġ l
Ġ toĠ
Ġ asĠ
Ġ te
Ġ oc
eĠ theĠ
eĠ onĠ
sĠ d
sĠ ofĠ
sĠ ho
sĠ ofĠtheĠ
th ,Ġ
th atĠ
an s
an yĠ
an tĠ
in str
in cid
Ġth e
Ġth isĠ
Ġth atĠ
Ġth oseĠ
on -
er al
er ,Ġ
er ationĠofĠ
at elyĠ
re qu
al ityĠ
al ter
andĠ break
andĠ drewĠmichael
en s
yĠ andĠ
yĠ toĠ
,Ġ wh
,Ġ buil
tĠ dalt
or sĠ
of ĠtheseĠ
.Ġ aĠ
.Ġ oneĠ
ro tĠ
ro ugh
ar ter
aĠ andĠ
aĠ newĠ
aĠ stat
aĠ trueĠ
el io
ion alĠ
st or
isĠ ab
edĠ cell
ic ul
ingĠ d
ingĠ n
it y
it sĠ
it iesĠ
it alityĠ
es s.ĠtheĠ
ou tĠ
ac k
ac eĠ
ac ityĠ
de t
is ,Ġ
is ion
is mĠ
ĠandĠ onĠtheĠ
ab l
ct ion
pro duct
pro gres
inĠ alask
ag ingĠ
ul ation
tr in
tr ibu
ex p
un d
un ds
ed ,Ġ
ed .Ġ
ed ucation
with ĠtheĠ
res ul
il lĠ
ent ion
for ĠtheĠ
for cedĠ
âĢ ľ
âĢ Ŀ
ofĠtheĠ b&b
ad sĠtoĠ
ad vanc
gr ap
gr aciou
ne edĠ
theĠ cap
com pl
ap pe
bu sin
con s
con tribu
itĠ aĠ
sp r
sp italityĠ
enc eĠonĠ
ch en
ds tĠofĠ
withĠ aĠ
par t
par rotĠ
qu eĠ
qu arter
sion ĠofĠ
sion ,Ġbuil
bo thĠ
gro unds
ist er,Ġ
pres enceĠonĠ
up stateĠ
atedĠ byĠ
elyĠ presenceĠonĠ
.Ġth ereĠ
au th
hou se
le ar
le adsĠtoĠ
ereĠ isĠaĠ
reg ionĠ
reg ister,Ġ
ageĠ toĠ
zydeco Ġ
ib leĠ
mo vesĠ
mak ingĠ
own er
own erĠ
s> Ġ<
inĠtheĠ mi
innĠ experienc
ationĠofĠ graciou
vide o
sĠthatĠ cau
ast sĠ
dv dĠ
hiv Ġ
hasĠ aĠstat
igh tĠ
man sion,Ġbuil
sh if
sy ste
s.Ġ partĠ
Ġ< /
eĠth anĠ
top ic
loc ksĠinĠ
veryĠ spaciou
grow ingĠ
curren tĠ
curren tlyĠ
historicĠ register,Ġ
historicĠ innĠexperienc
attract ivelyĠ
drewĠmichael ĠandĠ
-st yleĠ
bedĠ andĠbreak
canc erĠ
fl u
fas tĠ
fun ction
ju stĠ
ment ,ĠandĠ
nat ur
oth erĠ
rat esĠ
sit tingĠ
sicĠ historicĠinnĠexperienc
tim atelyĠ
alco hol
entĠ ratesĠ
aĠre put
dea th
alĠcell ularĠ
expl or
grandĠ fed
poss ibil
bod y
health yĠ
clas sicĠhistoricĠinnĠexperienc
enjoysĠ aĠreput
landscapedĠ grounds
elizabethĠellisĠ andĠdrewĠmichael
newĠyorkĠfingerĠlakesĠ regionĠ
18 2
fro mĠ
jum p
kit chen
lar geĠ
min ut
mor eĠthanĠ
nationalĠ historicĠregister,Ġ
pop ulation
sex u
two Ġ
var iation
Ġte am
sĠho spitalityĠ
instr uct
incid entĠratesĠ
eral -styleĠ
,Ġwh ich
tĠdalt onĠ
aĠnewĠ ownerĠ
aĠtrueĠ upstateĠ
elio tĠdaltonĠ
ĠandĠonĠtheĠ nationalĠhistoricĠregister,Ġ
ofĠtheĠb&b Ġteam
theĠcap acityĠ
busin ess.ĠtheĠ
dstĠofĠ aĠtrueĠupstateĠ
elyĠpresenceĠonĠ attractivelyĠ
movesĠ andĠ
s>Ġ< s>
inĠtheĠmi dstĠofĠaĠtrueĠupstateĠ
ationĠofĠgraciou sĠhospitalityĠ
sĠthatĠcau seĠ
hasĠaĠstat elyĠpresenceĠonĠattractivelyĠ
mansion,Ġbuil tĠinĠ
veryĠspaciou sĠandĠ
alcohol ismĠ
grandĠfed eral-styleĠ
enjoysĠaĠreput ationĠofĠgraciousĠhospitalityĠ
landscapedĠgrounds .ĠtheĠ
newĠyorkĠfingerĠlakesĠregionĠ classicĠhistoricĠinnĠexperienc
ĠandĠonĠtheĠnationalĠhistoricĠregister,Ġ hasĠaĠstatelyĠpresenceĠonĠattractivelyĠ
inĠtheĠmidstĠofĠaĠtrueĠupstateĠ newĠyorkĠfingerĠlakesĠregionĠclassicĠhistoricĠinnĠexperienc
grandĠfederal-styleĠ mansion,ĠbuiltĠinĠ
enjoysĠaĠreputationĠofĠgraciousĠhospitalityĠ inĠtheĠmidstĠofĠaĠtrueĠupstateĠnewĠyorkĠfingerĠlakesĠregionĠclassicĠhistoricĠinnĠexperienc
ĠandĠonĠtheĠnationalĠhistoricĠregister,ĠhasĠaĠstatelyĠpresenceĠonĠattractivelyĠ landscapedĠgrounds.ĠtheĠ
! )
! Ġth
" Ġ
" aggravatedĠorganiz
% ĠandĠ
& Ġ
( ex
, ĠtheseĠ
- medic
- Ġoc
- makingĠ
/ f
/ Ġ
1 0
1 5
1 9
2 1
2 8
2 34
4 4
4 6
4 8
4 34
6 7
9 0
9 15
9 67
< s>
? âĢĿ
a x
a z
a dĠ
a ,Ġ
a inĠ
a wĠ
a .ĠtheĠ
a ir
a ren
a âĢĻsĠ
b b
b t
b Ġ
b er
b ro
b ĠandĠ
b erĠ
b ur
b ed
b enĠ
b orsĠ
b ack
b locksĠinĠ
c e
c i
c u
c y
c re
c tĠ
c .Ġ
c ar
c el
c ou
c ho
c lo
c ir
c kĠ
c up
c arĠ
c ks
c ision
c lear
c locksĠinĠ
d g
d n
d o
d on
d ou
d iv
d ur
d av
d anc
d s,Ġ
d if
d oneĠ
d ueĠ
d anceĠ
d gingĠ
d iver
d !Ġth
e m
e v
e an
e at
e ac
e men
e veryĠ
e arlyĠ
e âĢĶ
e ceĠ
e hic
e werĠ
e ctĠ
f t
f in
f tĠ
f ell
f ĠofĠ
f ir
f ol
f act
f ail
f allĠ
f Ġ(
f ens
f icul
f astsĠ
f -medic
f eat
g n
g Ġ
g at
g re
g or
g ic
g iv
g ag
g reat
g eth
h ion
h edĠ
h ĠofĠ
h y.Ġ
h ens
i eĠ
i an
i re
i or
i es
i de
i alĠ
i ent
i mĠ
i et
i redĠ
i end
i entĠ
i queĠ
i eceĠ
j ectĠ
k u
k in
k .Ġ
k erĠ
k ĠofĠ
k no
k sĠtoĠ
k ĠthatĠ
k on-
k illĠ
l dĠ
l at
l en
l as
l ou
l ag
l ed
l ds
l sĠandĠ
l lĠ
l iveĠ
l yĠtheĠ
l es.Ġ
l .ĠoneĠ
l ax
m p
m s
m on
m er
m at
m ,Ġ
m it
m is
m ag
m asĠ
m enĠ
m sĠthatĠ
m sĠareĠ
m es,Ġ
m eth
m ean
n th
n er
n ĠtheĠ
n as
n ingĠ
n ĠandĠ
n ell
n tr
n ur
n .ĠtheĠ
n ect
n if
n essĠ
n on-
o v
o idĠ
o dĠisĠ
o redĠ
o ds,Ġ
p tĠ
p or
p as
p ic
p ag
p ur
p ,ĠandĠ
p et
p sy
p end
p ain
p hy
p ack
p abl
p ageĠtoĠ
p ieceĠ
r an
r ic
r it
r iv
r is
r ĠofĠ
r he
r iend
s sĠ
s er
s andĠ
s edĠ
s ingĠ
s ou
s esĠ
s ent
s iz
s ch
s eas
s ityĠ
s im
s id
s tĠofĠ
s mo
s ayĠ
s top
s ig
s ection
s ed.Ġ
t u
t w
t an
t ,Ġ
t ro
t un
t ur
t ak
t s,Ġ
t um
t enĠ
t au
t ingĠtheĠ
t est
t edĠbyĠ
t ableĠ
t ton
t ention
u Ġ
u seĠ
u ch
u ableĠ
u kon-
v eĠ
v al
v en
v ing
v ingĠ
v il
v ad
v edĠbyĠ
v es.Ġ
v ention
v ehic
w eĠ
w in
w er
w or
w .Ġ
w is
w ell
w ereĠ
w ol
w sĠinĠ
w estĠ
w ay
w illĠ
w imĠ
w led
x im
y er
y ,Ġ
y .ĠtheĠ
y no
y le
y ss
y ukon-
z aĠ
® Ġ
Â ®Ġ
č Ċ
Ġ ar
Ġ isĠ
Ġ ex
Ġ un
Ġ itĠ
Ġ ch
Ġ withĠ
Ġ areĠ
Ġ mak
Ġ inĠtheĠ
Ġ grow
Ġ roomĠ
Ġ guest
Ġ long
Ġ ten
Ġ ye
Ġ withĠtheĠ
Ġ death
Ġ minut
Ġ variation
Ġ "aggravatedĠorganiz
Ġ -Ġoc
Ġ bed
Ġ cu
Ġ sayĠ
Ġ weĠ
eĠ in
eĠ ofĠ
eĠ un
eĠ ho
eĠ withĠ
eĠ qu
eĠ masksĠ
eĠ rat
eĠ processĠ
eĠ alaskanĠ
eĠ healthyĠ
eĠ aĠnewĠownerĠ
eĠ cou
sĠ to
sĠ isĠ
sĠ with
sĠ theĠ
sĠ con
sĠ mak
sĠ ourĠ
sĠ onĠtheĠ
sĠ liv
sĠ gl
sĠ withĠaĠ
sĠ part
sĠ (ex
sĠ liveĠ
th isĠ
th eseĠ
th ĠthatĠ
th rit
th westĠ
dĠ toĠ
dĠ ofĠtheĠ
dĠ flo
dĠ go
dĠ withĠaĠ
dĠ thisĠ
an no
an dsĠ
an don
an ksĠtoĠ
an ningĠ
an sĠliveĠ
in .Ġ
in alĠ
in ter
in toĠtheĠ
in e,Ġ
in ten
in trin
in flu
in timatelyĠ
in nĠandĠ
in vad
Ġth at
Ġth anĠ
Ġth rough
Ġth ereĠisĠaĠ
on ceĠ
on lyĠtheĠ
er ĠtheĠ
er ,ĠandĠ
er ageĠ
er vesĠ
er manĠ
er fallĠ
er ialĠ
er wis
er ĠthanĠ
at or
at ing
at esĠ
at tac
at ingĠn
at oidĠ
at tention
re al
re ct
re ad
re com
re cor
re alt
re stor
re .ĠthereĠ
re cre
re lax
re yno
ĠtheĠ es
ĠtheĠ op
ĠtheĠ jo
ĠtheĠ halseyĠhouseĠ
ĠtheĠ fun
ĠtheĠ cir
ĠtheĠ las
al ,Ġ
al it
al lo
al so
al ly
al gor
al len
al eĠmasksĠ
andĠ ul
andĠ eas
andĠ wh
andĠ bas
andĠ treat
andĠ exp
andĠ topic
andĠ alcoholismĠ
en icĠ
en sion
en sit
en gag
en n.ĠtheĠ
en zaĠ
yĠ ofĠ
yĠ ac
yĠ ed
yĠ res
yĠ le
yĠ roo
yĠ haveĠ
yĠ wasĠ
,Ġ de
,Ġ av
,Ġ ne
,Ġ com
,Ġ withĠ
,Ġ pres
,Ġ innĠ
,Ġ su
,Ġ halseyĠhouseĠ
,Ġ you
,Ġ pon
,Ġ healthyĠ
,Ġ non-
,Ġ smo
tĠ toĠ
tĠ de
tĠ isĠaĠ
tĠ experienc
tĠ processĠ
tĠ pet
tĠ stop
tĠ onlyĠtheĠ
tĠ also
or ĠandĠ
or Ġd
or sĠandĠ
or man
or ig
or sĠthatĠcauseĠ
or ient
or tĠexperienc
of es
of ĠthoseĠ
ing ,ĠandĠ
ing ,ĠtheĠ
ing ful
ing sĠofĠtheĠ
ing /f
ing sĠto
ing ,Ġne
.Ġ toĠ
.Ġ itĠ
.Ġ ch
.Ġ alco
.Ġ cul
.Ġ pho
.Ġ education
.Ġ hivĠ
.Ġ cancerĠ
.Ġ elizabethĠellisĠandĠdrewĠmichael
.Ġ eac
.Ġ sim
.Ġ influ
.Ġ recom
to po
to wn
to berĠ
to uch
to sĠ(ex
to Ġthat
ro ad
ro sion
ro yĠtheĠ
ro ll
ro und
ro cks
ro ssĠ
ro wsĠinĠ
ar ac
ar s,Ġ
ar ĠdiseasesĠ
ar sĠd
ar thrit
ar tĠisĠaĠ
ar rowsĠinĠ
aĠ co
aĠ pro
aĠ with
aĠ isĠaĠ
aĠ ch
aĠ long
aĠ we
aĠ spaciou
aĠ zydecoĠdanceĠ
aĠ sol
aĠ âĢľ
aĠ largeĠ
aĠ pic
aĠ willĠ
el ter
el manĠ
el veĠ
el Ġthrough
ion ĠofĠ
ion sĠmak
ion ally
st ,Ġ
st res
st ig
st air
st yle
st royĠtheĠ
isĠ un
isĠ theĠ
isĠ affectedĠbyĠ
isĠ den
isĠ forcedĠ
isĠ itĠaĠ
isĠ veryĠspaciousĠandĠ
isĠ ev
edĠ co
edĠ inĠ
edĠ up
edĠ su
edĠ zydecoĠd
edĠ byĠtheĠ
edĠ forĠtheĠ
edĠ andĠbas
edĠ stig
as is
as edĠbyĠtheĠ
ic id
ic ationĠ
ic alĠandĠ
ic atedĠbyĠ
ofĠ $
ofĠ anĠ
ofĠ reg
ofĠ lif
ofĠ sc
ofĠ aggravatedĠorganiz
ofĠ flu
ofĠ aĠnewĠownerĠ
ofĠ recor
ingĠ toĠ
ingĠ co
ingĠ toĠtheĠ
ingĠ organ
ingĠ alaskanĠ
ingĠ peopleĠ
ingĠ clas
ingĠ sexu
ingĠ andĠtreat
ingĠ rocks
it iveĠ
it sĠtoĠ
it eĠandĠ
it ies
es is,Ġ
es .ĠthereĠ
toĠ ab
toĠ ith
toĠ byĠ
toĠ enjo
toĠ beĠ
toĠ zydecoĠdanceĠ
toĠ aĠth
toĠ advanc
toĠ topic
toĠ sig
toĠ invad
toĠ aĠspaciou
ou tĠofĠ
ou sandĠ
ac ĠandĠ
ac kĠ
ac hingĠ
ac aĠandĠ
ac cel
ac rossĠ
de mo
de tac
de bb
de cision
de fens
de pend
de .Ġcul
de stroyĠtheĠ
co ver
co ll
esĠ inĠ
esĠ areĠ
esĠ toĠtheĠ
esĠ ofĠcell
esĠ aw
esĠ itĠaĠ
esĠ theseĠ
esĠ isĠev
iv e,Ġ
is ol
is hingĠ
is .ĠaĠ
is hĠofĠ
is ian
is msĠareĠ
is .Ġeac
ĠandĠ com
ĠandĠ hasĠ
ĠandĠ education
ĠandĠ zydecoĠ
ĠandĠ natur
ĠandĠ otherĠ
ĠandĠ earlyĠ
ĠandĠ mean
ĠandĠ intrin
ab et
ab norm
ab und
ab ov
ab useĠ
ab andon
pro gr
pro te
pro venĠ
pro jectĠ
pro mis
pro xim
inĠ ul
inĠ ourĠ
inĠ su
inĠ sy
inĠ addit
inĠ creat
inĠ product
inĠ needĠ
ation .Ġeducation
ag no
ag e.Ġ
ag edĠcell
ul arlyĠ
ul tan
erĠ iceĠ
erĠ growingĠ
erĠ sch
erĠ isĠitĠaĠ
alĠ ofĠtheĠ
alĠ pl
alĠ step
alĠ progres
alĠ fail
alĠ inter
alĠ orient
alĠ depend
ith msĠthatĠ
tr av
tr um
tr ans
tr ackĠ
wĠ you
wĠ allĠ
wĠ isĠden
ex ibil
ex itiesĠ
ex trin
ur eĠandĠ
ur eĠin
ak nessĠ
asĠ withĠtheĠ
asĠ bedĠandĠbreak
asĠ well
asĠ reyno
asĠ andĠtopic
asĠ aĠâĢľ
with in.Ġ
with inĠourĠ
ĠofĠ aĠco
ĠofĠ trum
res pon
res queĠ
ask ,Ġyou
.ĠtheĠ landscap
.ĠtheĠ mag
.ĠtheĠ progr
ho lĠ
ho we
ho mel
ho mes,Ġ
ho p,ĠandĠ
il arĠ
il yĠroo
lo tĠofĠ
lo redĠ
lo werĠ
lo dgingĠ
lo gic
lo w.Ġ
leĠ zydecoĠ
leĠ killĠ
ent icĠ
ent if
ent ireĠ
ent alĠstep
av erageĠ
av al,Ġ
ect ivelyĠ
ect ation.Ġeducation
anc e,Ġ
anc yĠofĠ
atĠ wat
atĠ shif
atĠ aĠlong
for ĠthisĠ
for giv
for tableĠ
seĠ recre
seĠ toĠaĠth
seĠ accel
anĠ end
ofĠtheĠ pre
ofĠtheĠ top
ofĠtheĠ body
ofĠtheĠ danc
ofĠtheĠ engag
ofĠtheĠ town
ad rĠofĠ
cell sĠareĠ
cell Ġdeath
cell .ĠtheĠprogr
ir ableĠ
ir tsĠ
ir Ġbed
ir dĠofĠtheĠ
ir ishĠofĠ
ne arlyĠ
no Ġlong
no tĠonlyĠtheĠ
s,Ġ bu
s,Ġ mak
s,Ġ resul
s,Ġ lear
s,Ġ isĠveryĠspaciousĠandĠ
theĠ dam
theĠ su
theĠ kitchen
theĠ yukon-
theĠ lowerĠ
com po
com pre
com fortableĠ
am mingĠ
am az
am ilyĠroo
bu tton
bu yer
byĠ elizabethĠellisĠandĠdrewĠmichael
byĠ jump
con ver
con nect
con tro
con ven
con dĠflo
iz eĠtheĠ
iz edĠinĠ
itĠ quarter
itĠ leadsĠtoĠ
itĠ ofĠtheĠdanc
lyĠ affect
lyĠ des
mĠ iceĠ
per ver
per bĠ
sp aceĠ
sp anningĠ
sp read
ver ,Ġcom
enc e.Ġ
enc iesĠ
,ĠandĠ eas
,ĠandĠ hy
,ĠandĠ dueĠ
,ĠandĠ artĠisĠaĠ
,ĠandĠ noĠlong
isĠaĠ vi
isĠaĠ diseas
isĠaĠ zydecoĠdanceĠ
isĠaĠ represent
isĠaĠ coll
icĠ function
ch ĠasĠ
ch asedĠbyĠtheĠ
e.Ġ canĠ
e.Ġ everyĠ
e.Ġ attac
e.Ġ asĠbedĠandĠbreak
Ġd ensit
ityĠ forĠ
ityĠ andĠexp
ityĠ ofĠaĠnewĠownerĠ
ityĠ toĠith
withĠ hiv
withĠ men
withĠ aggravatedĠorganiz
withĠ moreĠthanĠ
20 0
20 7
im possibil
im itsĠtoĠ
im esĠtheseĠ
kĠ justĠ
kĠ wol
po orĠ
po wer
po orĠd
par kĠjustĠ
qu iver
se eĠaĠnewĠownerĠ
se condĠflo
sion allyĠ
sion ĠandĠeducation
vi ewĠ
vi ewerĠ
sĠandĠ dv
sĠandĠ so
sĠandĠ vil
sĠandĠ conver
alask aĠandĠ
alask aâĢĻsĠ
alask ansĠliveĠ
areĠ aĠre
areĠ compl
bo di
bo astsĠ
gh anno
gro up
ist antĠ
pl aceĠ
pres sionĠofĠ
ter izedĠinĠ
um ber
um eâĢĶ
um atoidĠ
up he
up stair
sĠth rough
sĠth em
thĠ sent
oneĠ break
oneĠ ofĠtheseĠ
oneĠ ofĠtheĠtop
oneĠ compre
atedĠ onĠtheĠ
atedĠ demo
enĠ byĠtheĠ
enĠ sol
toĠtheĠ appe
toĠtheĠ growingĠ
toĠtheĠ nas
essĠ sh
essĠ quiver
iveĠ liv
iveĠ population
iveĠ pack
iveĠ way
iveĠ respon
affect ingĠd
affect ed,Ġ
affect ingĠalaskanĠ
au dre
et leĠkillĠ
hal fĠofĠ
hal lsĠandĠ
id ,Ġpres
id entif
ienc e,Ġ
ienc e.ĠitĠ
mask sĠthem
nĠ toĠzydecoĠdanceĠ
sĠtoĠ real
sĠtoĠ trav
onĠ open
onĠ newĠyorkĠfingerĠlakesĠ
ereĠ theĠyukon-
reg ularlyĠ
ren alĠfail
tĠofĠ restor
ingĠtheĠ diseas
ingĠtheĠ propert
ingĠtheĠ possibil
ingĠtheĠ buyer
roo ms,Ġ
stat usĠ
ageĠ forĠ
ageĠ providesĠ
ageĠ renalĠfail
cur sor
dam agingĠ
dam ageĠtoĠ
dam agedĠcell
dam entalĠstep
hav ior
hav ingĠtoĠ
mo ving
own ĠtheĠfun
pre mi
pre ci
pre viewĠ
yĠtheĠ diver
eĠandĠ cor
eĠandĠ win
eĠandĠ destroyĠtheĠ
inĠtheĠ nat
inĠtheĠ cell.ĠtheĠprogr
innĠ providesĠ
innĠ enjoysĠaĠreputationĠofĠgraciousĠhospitalityĠinĠtheĠmidstĠofĠaĠtrueĠupstateĠnewĠyorkĠfingerĠlakesĠregionĠclassicĠhistoricĠinnĠexperienc
organ s,Ġmak
str ong
str andsĠ
str atesĠ
isĠno Ġcu
es.Ġ alcoholismĠ
ourĠ nur
ableĠ treat
ableĠ business.ĠtheĠ
ationĠofĠ oneĠofĠtheĠtop
anceĠ atĠaĠlong
forĠ guest
forĠ represent
forĠ det
âĢĻ llĠ
sĠthatĠ needĠ
sĠthatĠ allo
newĠyor kĠthatĠ
masksĠ represent
masksĠ justĠ
masksĠ explor
masksĠ car
ayĠ andĠeas
ast ing,Ġne
ast asis
cl icalĠandĠ
cessĠ toĠtheĠnas
di rect
di abet
di agno
dv dĠisĠ
hiv ĠandĠotherĠ
hasĠ theĠcapacityĠ
lif erationĠofĠ
lif eĠqu
lif e.Ġattac
man yĠle
men dĠthisĠ
men .ĠtheĠlandscap
sc aleĠmasksĠ
sc enicĠ
sc roll
sh awĠ
s.Ġ aĠlargeĠ
s.Ġ forĠdet
te achingĠ
tingĠ inĠproduct
tingĠ toĠtheĠappe
wo venĠ
wo men.ĠtheĠlandscap
y.Ġ oth
y.Ġ allĠ
y.Ġ hivĠ
eĠth ereĠisĠaĠ
eĠth isĠaĠvi
sĠareĠ over
sĠareĠ abandon
intoĠ long
intoĠ aĠpic
intoĠ uphe
intoĠ oneĠcompre
off Ġl
ationĠ creat
ationĠ leadsĠtoĠ
ationĠ forĠguest
ularĠ test
ularĠ strandsĠ
erĠlak eĠandĠwin
trueĠ fourĠ
trueĠ phy
loc atedĠonĠtheĠ
loc ationĠforĠguest
open ingĠn
open edĠup
open ingĠtheĠpossibil
pert ension
veryĠ defens
grow th,Ġ
.ĠthisĠ canĠ
.ĠthisĠ alter
roomĠ intoĠtheĠ
roomĠ toĠaĠspaciou
roomĠ upstair
isĠnotĠ har
isĠnotĠ ye
isĠnotĠ aĠwe
isĠnotĠ impossibil
âĢĻsĠ quarter
âĢĻsĠ syste
âĢĻsĠ proxim
newĠyorkĠ bro
break fastĠ
guest sĠwithĠaĠ
guest s,ĠisĠveryĠspaciousĠandĠ
attract ionsĠmak
attract ive,Ġ
experienc e.ĠtheĠ
halseyĠhouseĠ isĠaĠ
halseyĠhouseĠ wasĠ
elizabethĠell is.Ġeac
)Ġ orĠ
)Ġ ofĠtheĠb&bĠteam
)Ġ byĠjump
,ĠtheĠ twoĠ
,ĠtheĠ dvdĠisĠ
-st ageĠrenalĠfail
00 0
are a.ĠtheĠ
are aĠisĠaĠ
are asĠwithĠtheĠ
ail sĠcon
ail ableĠtreat
be enĠsol
be etleĠkillĠ
be havior
br ainĠ
br ingsĠto
br ingĠtoĠtheĠ
beĠ amaz
beĠ affected,Ġ
bedĠ &Ġ
b&b âĢĻsĠproxim
cor nell
canc er,ĠandĠ
des iredĠ
des ervesĠ
diseas es.ĠalcoholismĠ
e.ĠtheĠ grandĠfederal-styleĠmansion,ĠbuiltĠinĠ
e.ĠtheĠ teachingĠ
fl exibil
fas hion
geĠ haveĠ
gingĠ movesĠandĠ
gingĠ ofĠsc
io ĠwithĠ
idĠ lodgingĠ
idĠ irishĠofĠ
ju dg
ll c.Ġ
liv ingĠorgan
ment .ĠhivĠ
ms,Ġ byĠelizabethĠellisĠandĠdrewĠmichael
ms,Ġ affectingĠd
so ĠthereĠisĠaĠ
sel f-medic
sel ves.Ġ
sel ectivelyĠ
s.ĠtheĠ entireĠ
sicĠ fact
tsĠ ofĠflu
tsĠ llc.Ġ
t.Ġ mayĠ
t.Ġ dur
t.Ġ andĠwh
tac tĠpet
tim e-
we ightĠ
you ĠsayĠ
dĠisĠ dav
alĠandĠ product
alĠandĠ psy
allyĠ bas
allyĠ trans
tĠinĠ poorĠ
orĠ attractionsĠmak
aĠf ireĠ
aĠf ewĠ
aĠf riend
ionĠ toĠtheĠ
iceĠ ofĠ$
ofĠcell sĠisĠ
ofĠcell sĠandĠso
es,Ġ newĠyorkĠthatĠ
es,Ġ soĠthereĠisĠaĠ
estĠ ris
estĠ arrowsĠinĠ
out sk
out do
out sid
dea thĠsent
iver sityĠ
processĠ appe
propert y.ĠtheĠ
propert yĠwasĠ
ationalĠ offer
alĠcell Ġgrow
expl ain
hol dĠgo
ection ĠofĠ
ection ,Ġav
âĢĶ theĠcapacityĠ
âĢĶ fell
addit ionalĠ
addit ionally
grandĠ style
ireĠ medic
commun itiesĠ
commun ities
commun ityĠandĠexp
buil t.ĠmayĠ
e.ĠitĠ isĠtheĠ
e.ĠitĠ isĠnotĠaĠwe
poss ibleĠ
partĠ oneĠbreak
alaskanĠ deservesĠ
bod y.Ġoth
affectedĠbyĠ anyĠ
affectedĠbyĠ extrin
stateĠ parkĠjustĠ
health ,ĠandĠartĠisĠaĠ
haveĠ openedĠup
peopleĠ isĠaffectedĠbyĠ
peopleĠ affectedĠbyĠanyĠ
step Ġvariation
step s,Ġbu
enjoysĠ aĠsol
offer edĠforĠtheĠ
offer ingĠco
landscapedĠ gar
elizabethĠellisĠ sittingĠ
medic ine,Ġ
norm alĠandĠproduct
norm alĠcellĠgrow
providesĠ moreĠthanĠ
ĠdiseasesĠ withinĠourĠ
ĠdiseasesĠ affectingĠalaskanĠ
aw aren
ay čĊ
aĠth irdĠofĠtheĠ
ca jun
ca de.Ġcul
cal atingĠn
cal mĠiceĠ
cul ator
dsĠ pageĠtoĠ
den s.ĠaĠlargeĠ
e- averageĠ
e.ĠthisĠ mer
e.ĠthisĠ isĠun
ful Ġex
flo wĠisĠden
fourĠ peopleĠisĠaffectedĠbyĠ
gl asĠreyno
go ,ĠhalseyĠhouseĠ
gar ageĠprovidesĠ
hĠ syste
hĠ pieceĠ
har borsĠ
hic .ĠitĠ
high erĠthanĠ
high lyĠdes
iedĠ itsĠ
iedĠ masksĠexplor
jun eĠ
ks hop,ĠandĠ
king ,Ġsu
king ,ĠandĠhy
ly mp
msĠ intoĠlong
msĠ openingĠn
mel t,Ġ
mingĠ fromĠ
met imesĠtheseĠ
met astasis
ok wimĠ
ok ingĠclas
over ĠtheĠlas
pr ofes
pr iceĠofĠ$
pat ience.ĠitĠ
pat ioĠwithĠ
pit atedĠbyĠ
pit ,Ġpon
pho tosĠ(ex
sk okwimĠ
sor bĠandĠ
sic ĠandĠintrin
sic alĠandĠpsy
sur round
sur eĠandĠcor
ses.Ġ inĠaddit
ses.Ġ itĠleadsĠtoĠ
ton iteĠandĠ
tedĠ toĠtheĠgrowingĠ
tedĠ diseases.ĠalcoholismĠ
usĠ forĠtheĠ
wat erfallĠ
Ġ( ask,Ġyou
Ġl asting,Ġne
ĠtoĠ desiredĠ
ĠtoĠ selectivelyĠ
ĠasĠ outdo
Ġoc cup
eĠtheĠ sou
sĠd ownĠtheĠfun
sĠofĠ abov
sĠofĠ hivĠandĠotherĠ
sĠofĠtheĠ masksĠthem
thatĠ requ
thatĠ bringsĠto
ans bur
anyĠ otherĠ
antĠ stor
Ġthe yĠhaveĠ
Ġthe irĠbed
ĠthisĠ isĠaĠzydecoĠdanceĠ
ĠthoseĠ diagno
erationĠofĠ agingĠ
requ ire
alter edĠandĠbas
yĠandĠ spr
yĠandĠ lymp
yĠtoĠ itsĠ
yĠtoĠ fol
orsĠ benĠ
ofĠtheseĠ damagedĠcell
.ĠaĠ previewĠ
.ĠoneĠ ran
ionalĠ dvdĠ
isĠab outĠ
isĠab normalĠcellĠgrow
edĠcell ularĠstrandsĠ
icul arĠdiseasesĠ
ingĠd ayčĊ
ity ,ĠandĠnoĠlong
outĠ havingĠtoĠ
det ection,Ġav
is,Ġ howe
ision ĠandĠnatur
abl e.ĠeveryĠ
progres sesĠ
inĠalask a,Ġ
inĠalask aĠwillĠ
exp loredĠ
ed,Ġ clear
ed.Ġ additionally
resul tĠinĠpoorĠ
forcedĠ toĠab
âĢľ flexibil
âĢĿ Ġ(ask,Ġyou
advanc edĠzydecoĠd
grap hy.Ġ
grap hic.ĠitĠ
compl exitiesĠ
cons ultan
cons umeâĢĶ
contribu tingĠtoĠtheĠappe
contribu tedĠtoĠtheĠgrowingĠ
spr ing,ĠtheĠ
part icularĠdiseasesĠ
parrotĠ house
parrotĠ roomĠtoĠaĠspaciou
sionĠofĠ melt,Ġ
bothĠ areĠaĠre
bothĠ communityĠandĠexp
auth oredĠ
auth enticĠ
house holdĠgo
ibleĠ priceĠofĠ$
makingĠ itĠquarter
owner sĠinĠ
owner âĢĻsĠquarter
video s,Ġlear
video sĠandĠdv
dvdĠ clocksĠinĠ
ightĠ juneĠ
shif ts,Ġ
s.ĠpartĠ twoĠ
s.ĠpartĠ ofĠtheĠengag
currentĠ sittingĠ
currentĠ ownersĠinĠ
currentlyĠ ser
currentlyĠ offĠl
drewĠmichaelĠandĠ pain
drewĠmichaelĠandĠ elizabethĠellisĠsittingĠ
bedĠandĠbreak fastĠ
cancerĠ isĠnotĠye
function .ĠthisĠcanĠ
ment,ĠandĠ lifeĠqu
ment,ĠandĠ patience.ĠitĠ
natur alĠprogres
timatelyĠ anĠend
death .ĠthisĠalter
alĠcellularĠ behavior
alĠcellularĠ death.ĠthisĠalter
explor eĠtheĠsou
body âĢĻsĠsyste
fromĠ mayĠ
jump ĠtoĠdesiredĠ
kitchen )ĠbyĠjump
largeĠ scaleĠmasksĠ
minut esĠaw
population Ġdensit
sexu allyĠtrans
variation s.ĠtheĠentireĠ
instruct orsĠbenĠ
instruct ionalĠdvdĠ
incidentĠratesĠ higherĠthanĠ
incidentĠratesĠ overĠtheĠlas
,Ġwhich ĠisĠ
,Ġwhich ĠtheyĠhaveĠ
eliotĠdaltonĠ ofĠtheĠb&bĠteam
eliotĠdaltonĠ forĠrepresent
business.ĠtheĠ grandĠfederal-styleĠmansion,ĠbuiltĠinĠ
movesĠandĠ stepĠvariation
s>Ġ<s> Ġ"aggravatedĠorganiz
s>Ġ<s> ĠthisĠisĠaĠzydecoĠdanceĠ
sĠthatĠcauseĠ theĠdam
veryĠspaciousĠandĠ comfortableĠ
enjoysĠaĠreputationĠofĠgraciousĠhospitalityĠinĠtheĠmidstĠofĠaĠtrueĠupstateĠnewĠyorkĠfingerĠlakesĠregionĠclassicĠhistoricĠinnĠexperienc e.ĠtheĠgrandĠfederal-styleĠmansion,ĠbuiltĠinĠ
ĠandĠonĠtheĠnationalĠhistoricĠregister,ĠhasĠaĠstatelyĠpresenceĠonĠattractivelyĠlandscapedĠgrounds.ĠtheĠ innĠenjoysĠaĠreputationĠofĠgraciousĠhospitalityĠinĠtheĠmidstĠofĠaĠtrueĠupstateĠnewĠyorkĠfingerĠlakesĠregionĠclassicĠhistoricĠinnĠexperienc
ĠandĠonĠtheĠnationalĠhistoricĠregister,ĠhasĠaĠstatelyĠpresenceĠonĠattractivelyĠlandscapedĠgrounds.ĠtheĠ halseyĠhouseĠisĠaĠ
!) .
"Ġ isĠaĠcoll
%ĠandĠ adrĠofĠ
,ĠtheseĠ masksĠrepresent
-makingĠ algor
/Ġ eliotĠdaltonĠforĠrepresent
19 9
28 6
46 0
<s> ĠtheĠhalseyĠhouseĠ
adĠ normalĠandĠproduct
bt leĠzydecoĠ
back sĠofĠtheĠmasksĠthem
blocksĠinĠ identif
ce ptĠ
cy clicalĠandĠ
cho logic
clo seĠtoĠaĠth
ckĠ stateĠparkĠjustĠ
carĠ trackĠ
dn aĠwith
dou glasĠreyno
div isionĠandĠnatur
dif ficul
doneĠ inĠsu
danceĠ instructorsĠbenĠ
d!Ġth anksĠtoĠ
emen tĠprocessĠ
ft x
fin ishingĠ
ftĠ masksĠcar
fir stĠofĠ
fastsĠ go,ĠhalseyĠhouseĠ
feat ureĠandĠ
gn itiveĠ
gĠ inĠul
gat iveĠrespon
gre atĠshif
great estĠris
geth erĠtheĠ
hedĠ garageĠprovidesĠ
hens iveĠpack
ieĠ shawĠ
ide asĠandĠtopic
iet ,Ġsmo
ientĠ placeĠ
iqueĠ road
ku skokwimĠ
kin sĠgl
k.Ġ poorĠd
kerĠ ofĠrecor
kĠofĠ spread
kno wled
ldĠ lat
lou isian
lag esĠareĠ
lds .ĠcancerĠ
les.Ġ bothĠareĠaĠre
l.ĠoneĠ outĠofĠ
ms "ĠisĠaĠcoll
mon stratesĠ
mat erialĠ
m,Ġ makingĠitĠquarter
mit tedĠdiseases.ĠalcoholismĠ
masĠ surround
menĠ inĠalaskaĠwillĠ
meth odĠisĠ
nth esis,Ġ
ner ing,ĠandĠ
nĠtheĠ backsĠofĠtheĠmasksĠthem
ntr yĠres
nif iedĠmasksĠexplor
ods,Ġ wor
por tun
pas sionĠandĠeducation
pag acĠandĠ
pur chasedĠbyĠtheĠ
pabl e.ĠitĠisĠtheĠ
ric kĠwol
riv erĠiceĠ
rhe umatoidĠ
sedĠ ofĠcellsĠandĠso
singĠ homes,Ġ
siz e.ĠcanĠ
seas onĠnewĠyorkĠfingerĠlakesĠ
section sĠwith
sed.Ġ inĠalaska,Ġ
tu resqueĠ
tw elveĠ
tur allyĠbas
tak enĠbyĠtheĠ
tum orsĠandĠ
tenĠ largeĠscaleĠmasksĠ
tau ghanno
tingĠtheĠ parrotĠroomĠtoĠaĠspaciou
tedĠbyĠ elizabethĠellis.Ġeac
uĠ button
uableĠ materialĠ
val uableĠmaterialĠ
vingĠ asĠaĠâĢľ
vedĠbyĠ drewĠmichaelĠandĠpain
vention ,Ġnon-
vehic les.ĠbothĠareĠaĠre
wereĠ built.ĠmayĠ
y,Ġ ourĠnur
yss es,ĠnewĠyorkĠthatĠ
Â®Ġ /ĠeliotĠdaltonĠforĠrepresent
Ġar t.Ġdur
Ġun iversityĠ
ĠitĠ isĠnotĠhar
Ġch allen
ĠareĠ aĠfewĠ
Ġmak eĠthisĠaĠvi
ĠinĠtheĠ finishingĠ
ĠroomĠ bedĠandĠbreakfastĠ
Ġguest rooms,Ġ
Ġten ĠdiseasesĠaffectingĠalaskanĠ
Ġye ars,Ġ
ĠwithĠtheĠ inten
Ġminut es,ĠsoĠthereĠisĠaĠ
Ġ-Ġoc toberĠ
ĠweĠ haveĠopenedĠup
eĠofĠ cancerĠisĠnotĠye
eĠun iqueĠroad
eĠho wĠallĠ
eĠwithĠ taughanno
eĠrat e.ĠthisĠisĠun
eĠprocessĠ difficul
eĠalaskanĠ spring,ĠtheĠ
eĠhealthyĠ cellsĠareĠ
eĠcou ntryĠres
sĠtheĠ bodyâĢĻsĠsyste
sĠourĠ attention
sĠonĠtheĠ secondĠflo
sĠliv ing/f
sĠpart nering,ĠandĠ
thĠthatĠ hasĠtheĠcapacityĠ
thwestĠ louisian
dĠtoĠ seeĠaĠnewĠownerĠ
dĠwithĠaĠ waterfallĠ
inalĠ grandĠstyle
intimatelyĠ wovenĠ
innĠandĠ openingĠtheĠpossibil
onceĠ calmĠiceĠ
ermanĠ (
erwis eĠhealthyĠcellsĠareĠ
ating .Ġalco
realt y.ĠallĠ
re.ĠthereĠ is,Ġhowe
relax ed,Ġclear
ĠtheĠes calatingĠn
ĠtheĠop portun
ĠtheĠjo yĠandĠspr
ĠtheĠcir culator
alit y.ĠhivĠ
andĠul timatelyĠanĠend
andĠalcoholismĠ stres
enn.ĠtheĠ b&bâĢĻsĠproxim
enzaĠ masksĠjustĠ
yĠac cessĠtoĠtheĠnas
yĠed elmanĠ
,Ġde monstratesĠ
,ĠwithĠ incidentĠratesĠhigherĠthanĠ
,ĠinnĠ consultan
,ĠhealthyĠ life.Ġattac
tĠtoĠ contro
tĠde cade.Ġcul
tĠstop pable.ĠitĠisĠtheĠ
tĠalso ĠtheĠjoyĠandĠspr
orĠandĠ additionalĠ
orman t.ĠandĠwh
orig inalĠgrandĠstyle
orsĠthatĠcauseĠ damageĠtoĠ
ortĠexperienc eĠwithĠtaughanno
ofĠthoseĠ inĠneedĠ
ingful ,ĠhealthyĠlife.Ġattac
ingsĠofĠtheĠ area.ĠtheĠ
.ĠtoĠ populationĠdensit
.Ġch arac
.Ġpho toĠbyĠ
.ĠelizabethĠellisĠandĠdrewĠmichael ĠinĠtheĠfinishingĠ
.Ġsim ilarĠ
.Ġinflu enzaĠmasksĠjustĠ
.Ġrecom mendĠthisĠ
topo graphy.Ġ
touch esĠtoĠtheĠ
toĠthat ĠofĠaĠco
rosion .ĠaĠpreviewĠ
arsĠd ormant.ĠandĠwh
arthrit is.ĠaĠ
aĠpro liferationĠofĠ
aĠch anceĠatĠaĠlong
aĠzydecoĠdanceĠ hallsĠandĠ
elter sĠandĠvil
elĠthrough ĠtheĠcirculator
ionĠofĠ tumorsĠandĠ
isĠforcedĠ intoĠuphe
edĠco gnitiveĠ
edĠsu chĠasĠ
edĠstig masĠsurround
icid eĠrate.ĠthisĠisĠun
icationĠ ofĠthoseĠinĠneedĠ
icatedĠbyĠ self-medic
ofĠanĠ isol
ofĠreg ularĠtest
ofĠlif e.ĠthisĠmer
ofĠaggravatedĠorganiz ms,ĠbyĠelizabethĠellisĠandĠdrewĠmichael
ingĠpeopleĠ toĠtopic
ingĠsexu alĠorient
ingĠandĠtreat ment.ĠhivĠ
ingĠrocks .
es.ĠthereĠ isĠnoĠcu
toĠenjo yĠtheĠdiver
toĠbeĠ exploredĠ
toĠadvanc esĠinĠ
toĠsig nĠtheĠbacksĠofĠtheĠmasksĠthem
toĠinvad eĠandĠdestroyĠtheĠ
ousandĠ alaskansĠliveĠ
acaĠandĠ cornell
acrossĠ alaskaĠandĠ
detac hedĠgarageĠprovidesĠ
debb ieĠshawĠ
decision -makingĠalgor
cover ed.Ġadditionally
esĠofĠcell sĠareĠover
esĠitĠaĠ conven
esĠisĠev erĠgrowingĠ
ismsĠareĠ compo
ĠandĠcom promis
ĠandĠhasĠ beenĠsol
ĠandĠzydecoĠ videosĠandĠdv
ĠandĠearlyĠ detection,Ġav
ĠandĠmean ingful,ĠhealthyĠlife.Ġattac
abnorm alĠcellularĠbehavior
abund antĠstor
abuseĠ andĠalcoholismĠstres
prote inĠsy
provenĠ videos,Ġlear
projectĠ isĠaboutĠ
inĠcreat iveĠway
age.Ġ danceĠinstructorsĠbenĠ
erĠsch ermanĠ(
erĠisĠitĠaĠ deathĠsent
alĠofĠtheĠ innĠandĠopeningĠtheĠpossibil
alĠpl usĠforĠtheĠ
alĠinter vention,Ġnon-
alĠdepend enciesĠ
ithmsĠthatĠ direct
wĠyou ĠtoĠselectivelyĠ
ureĠin ĠthoseĠdiagno
aknessĠ ofĠanĠisol
asĠwell ĠasĠoutdo
within.Ġ andĠultimatelyĠanĠend
ĠofĠtrum ansbur
.ĠtheĠmag nifiedĠmasksĠexplor
holĠ abuseĠandĠalcoholismĠstres
homel essĠsh
lotĠofĠ valuableĠmaterialĠ
low.Ġ partĠoneĠbreak
aval,Ġ damagingĠ
ectation.Ġeducation ĠandĠearlyĠdetection,Ġav
ance,Ġ intoĠoneĠcompre
atĠwat kinsĠgl
forĠthisĠ projectĠisĠaboutĠ
forgiv able.ĠeveryĠ
seĠrecre ationalĠoffer
seĠaccel erationĠofĠagingĠ
ofĠtheĠpre cursor
ofĠtheĠbody âĢĶfell
ofĠtheĠtown ĠofĠtrumansbur
cellĠdeath ĠandĠcompromis
irableĠ locationĠforĠguest
irtsĠ ofĠtheĠtownĠofĠtrumansbur
nearlyĠ halfĠofĠ
notĠonlyĠtheĠ authenticĠ
s,Ġresul tingĠinĠproduct
theĠsu btleĠzydecoĠ
theĠkitchen ,ĠwhichĠisĠ
ammingĠ ofĠcellsĠisĠ
amilyĠroo m,ĠmakingĠitĠquarter
connect ingĠpeopleĠtoĠtopic
izeĠtheĠ trueĠfourĠ
itĠofĠtheĠdanc e.ĠtheĠteachingĠ
lyĠaffect ĠtheĠescalatingĠn
perver seĠaccelerationĠofĠagingĠ
perbĠ fashion
spaceĠ currentlyĠser
spanningĠ fromĠmayĠ
ver,Ġcom passionĠandĠeducation
ence.Ġ closeĠtoĠaĠth
,ĠandĠeas yĠtoĠfol
,ĠandĠdueĠ toĠadvancesĠinĠ
isĠaĠdiseas e.ĠitĠisĠnotĠaĠwe
isĠaĠrepresent ationĠofĠoneĠofĠtheĠtop
icĠfunction sĠareĠabandon
e.ĠasĠbedĠandĠbreak fastsĠgo,ĠhalseyĠhouseĠ
ityĠforĠ peopleĠaffectedĠbyĠanyĠ
ityĠofĠaĠnewĠownerĠ offeringĠco
ityĠtoĠith acaĠandĠcornell
withĠhiv ,ĠandĠdueĠtoĠadvancesĠinĠ
withĠmen uĠbutton
withĠaggravatedĠorganiz msĠopeningĠn
imitsĠtoĠ guests,ĠisĠveryĠspaciousĠandĠ
power fulĠex
sionallyĠ authoredĠ
viewerĠ notĠonlyĠtheĠauthenticĠ
sĠandĠconver tingĠtheĠparrotĠroomĠtoĠaĠspaciou
alaskaâĢĻsĠ awaren
areĠcompl icatedĠbyĠself-medic
bodi esĠofĠcellsĠareĠover
boastsĠ veryĠspaciousĠandĠcomfortableĠ
group .ĠsimilarĠ
istantĠ organs,Ġmak
pressionĠofĠ ideasĠandĠtopic
terizedĠinĠ rheumatoidĠ
umber sĠofĠhivĠandĠotherĠ
sĠthrough Ġart.Ġdur
oneĠofĠtheseĠ particularĠdiseasesĠ
atedĠdemo graphic.ĠitĠ
essĠquiver .ĠtoĠpopulationĠdensit
iveĠliv es.ĠthereĠisĠnoĠcu
iveĠpopulation ,ĠwithĠincidentĠratesĠhigherĠthanĠ
audre yĠedelmanĠ
id,Ġpres sureĠandĠcor
ience,Ġ health,ĠandĠartĠisĠaĠ
nĠtoĠzydecoĠdanceĠ toniteĠandĠ
sĠtoĠreal izeĠtheĠtrueĠfourĠ
sĠtoĠtrav elĠthroughĠtheĠcirculator
onĠopen ingĠdayčĊ
ereĠtheĠyukon- kuskokwimĠ
regularlyĠ exploreĠtheĠsou
tĠofĠrestor ingĠtheĠpropert
ingĠtheĠdiseas eĠprocessĠdifficul
ingĠtheĠbuyer s.ĠforĠdet
statusĠ knowled
ageĠforĠ householdĠgo
damentalĠstep ,ĠdemonstratesĠ
moving ĠtheirĠbed
premi erĠlakeĠandĠwin
preci pitatedĠbyĠ
inĠtheĠnat iveĠpopulation,ĠwithĠincidentĠratesĠhigherĠthanĠ
inĠtheĠcell.ĠtheĠprogr ammingĠofĠcellsĠisĠ
innĠprovidesĠ guestsĠwithĠaĠ
strong estĠarrowsĠinĠ
ableĠbusiness.ĠtheĠ halseyĠhouseĠwasĠ
âĢĻllĠ beĠamaz
sĠthatĠneedĠ toĠbeĠexploredĠ
sĠthatĠallo wĠyouĠtoĠselectivelyĠ
ayĠandĠeas yĠaccessĠtoĠtheĠnas
diabet esĠisĠeverĠgrowingĠ
manyĠle adĠnormalĠandĠproduct
scenicĠ landscapedĠgar
scroll .ĠrecommendĠthisĠ
women.ĠtheĠlandscap eĠofĠcancerĠisĠnotĠye
eĠthereĠisĠaĠ patioĠwithĠ
intoĠaĠpic turesqueĠ
ationĠcreat eĠuniqueĠroad
ationĠleadsĠtoĠ aĠproliferationĠofĠ
trueĠphy sicalĠandĠpsy
locatedĠonĠtheĠ outsk
pertension ĠareĠaĠfewĠ
veryĠdefens ibleĠpriceĠofĠ$
growth,Ġ proteinĠsy
roomĠintoĠtheĠ currentĠsittingĠ
roomĠupstair sĠandĠconvertingĠtheĠparrotĠroomĠtoĠaĠspaciou
isĠnotĠimpossibil ity,ĠandĠnoĠlong
newĠyorkĠbro kerĠofĠrecor
breakfastĠ enjoysĠaĠreputationĠofĠgraciousĠhospitalityĠinĠtheĠmidstĠofĠaĠtrueĠupstateĠnewĠyorkĠfingerĠlakesĠregionĠclassicĠhistoricĠinnĠexperience.ĠtheĠgrandĠfederal-styleĠmansion,ĠbuiltĠinĠ
attractive,Ġ contributingĠtoĠtheĠappe
experience.ĠtheĠ innĠprovidesĠguestsĠwithĠaĠ
)ĠorĠ rickĠwol
)ĠofĠtheĠb&bĠteam ,ĠinnĠconsultan
,ĠtheĠtwoĠ strongestĠarrowsĠinĠ
,ĠtheĠdvdĠisĠ profes
-stageĠrenalĠfail ureĠinĠthoseĠdiagno
areaĠisĠaĠ highlyĠdes
areasĠwithĠtheĠ greatestĠris
ailsĠcon tactĠpet
ailableĠtreat ment,ĠandĠlifeĠqu
beetleĠkillĠ ofĠtheĠbodyâĢĶfell
brainĠ cellĠdeathĠandĠcompromis
bringĠtoĠtheĠ viewerĠnotĠonlyĠtheĠauthenticĠ
beĠaffected,Ġ aĠthirdĠofĠtheĠ
bedĠ&Ġ breakfastĠenjoysĠaĠreputationĠofĠgraciousĠhospitalityĠinĠtheĠmidstĠofĠaĠtrueĠupstateĠnewĠyorkĠfingerĠlakesĠregionĠclassicĠhistoricĠinnĠexperience.ĠtheĠgrandĠfederal-styleĠmansion,ĠbuiltĠinĠ
cancer,ĠandĠ nearlyĠhalfĠofĠ
geĠhaveĠ contributedĠtoĠtheĠgrowingĠ
gingĠmovesĠandĠ variations.ĠtheĠentireĠ
gingĠofĠsc ience,Ġhealth,ĠandĠartĠisĠaĠ
idĠlodgingĠ business.ĠtheĠgrandĠfederal-styleĠmansion,ĠbuiltĠinĠ
idĠirishĠofĠ audreyĠedelmanĠ
judg ment,ĠandĠpatience.ĠitĠ
livingĠorgan ismsĠareĠcompo
ms,ĠaffectingĠd istantĠorgans,Ġmak
selves.Ġ drewĠmichaelĠandĠelizabethĠellisĠsittingĠ
sicĠfact orsĠthatĠcauseĠdamageĠtoĠ
tsĠofĠflu id,ĠpressureĠandĠcor
tsĠllc.Ġ newĠyorkĠbrokerĠofĠrecor
time- provenĠvideos,Ġlear
weightĠ shifts,Ġ
youĠsayĠ âĢľflexibil
dĠisĠdav idĠirishĠofĠaudreyĠedelmanĠ
orĠattractionsĠmak esĠitĠaĠconven
aĠfireĠ pit,Ġpon
aĠfriend .
outsid eĠthereĠisĠaĠpatioĠwithĠ
processĠappe arsĠdormant.ĠandĠwh
property.ĠtheĠ areaĠisĠaĠhighlyĠdes
propertyĠwasĠ purchasedĠbyĠtheĠ
explain sĠpartnering,ĠandĠ
âĢĶtheĠcapacityĠ ofĠtheseĠdamagedĠcell
ireĠmedic alĠintervention,Ġnon-
communitiesĠ acrossĠalaskaĠandĠ
communities .ĠtheĠmagnifiedĠmasksĠexplor
possibleĠ metastasis
alaskanĠdeservesĠ aĠchanceĠatĠaĠlong
body.Ġoth erwiseĠhealthyĠcellsĠareĠ
affectedĠbyĠextrin sicĠandĠintrin
steps,Ġbu tĠalsoĠtheĠjoyĠandĠspr
enjoysĠaĠsol idĠlodgingĠbusiness.ĠtheĠgrandĠfederal-styleĠmansion,ĠbuiltĠinĠ
offeredĠforĠtheĠ veryĠdefensibleĠpriceĠofĠ$
medicine,Ġ manyĠleadĠnormalĠandĠproduct
providesĠmoreĠthanĠ twelveĠ
ĠdiseasesĠwithinĠourĠ communitiesĠacrossĠalaskaĠandĠ
cajun ĠandĠzydecoĠvideosĠandĠdv
dsĠpageĠtoĠ aĠfriend.
dens.ĠaĠlargeĠ detachedĠgarageĠprovidesĠ
e-averageĠ size.ĠcanĠ
flowĠisĠden iedĠitsĠ
fourĠpeopleĠisĠaffectedĠbyĠ cancer,ĠandĠnearlyĠhalfĠofĠ
hĠsyste ms,ĠaffectingĠdistantĠorgans,Ġmak
hĠpieceĠ isĠaĠrepresentationĠofĠoneĠofĠtheĠtop
harborsĠ trueĠphysicalĠandĠpsy
kshop,ĠandĠ vehicles.ĠbothĠareĠaĠre
king,Ġsu icideĠrate.ĠthisĠisĠun
king,ĠandĠhy pertensionĠareĠaĠfewĠ
msĠintoĠlong Ġlasting,Ġne
mingĠfromĠ within.ĠandĠultimatelyĠanĠend
metimesĠtheseĠ bodiesĠofĠcellsĠareĠover
okingĠclas ses.ĠinĠaddit
photosĠ(ex ceptĠ
sorbĠandĠ consumeâĢĶ
ses.ĠitĠleadsĠtoĠ brainĠcellĠdeathĠandĠcompromis
Ġoccup ancyĠofĠ
sĠdownĠtheĠfun damentalĠstep,ĠdemonstratesĠ
sĠofĠabov e-averageĠsize.ĠcanĠ
thatĠrequ ireĠmedicalĠintervention,Ġnon-
thatĠbringsĠto getherĠtheĠ
anyĠotherĠ group.ĠsimilarĠ
require sĠourĠattention
alteredĠandĠbas icĠfunctionsĠareĠabandon
yĠandĠlymp hĠsystems,ĠaffectingĠdistantĠorgans,Ġmak
yĠtoĠitsĠ originalĠgrandĠstyle
.ĠoneĠran king,ĠsuicideĠrate.ĠthisĠisĠun
isĠabnormalĠcellĠgrow thĠthatĠhasĠtheĠcapacityĠ
edĠcellularĠstrandsĠ forcedĠtoĠab
outĠhavingĠtoĠ scroll.ĠrecommendĠthisĠ
progressesĠ withĠmoreĠthanĠ
resultĠinĠpoorĠ decision-makingĠalgor
âĢĿĠ(ask,Ġyou âĢĻllĠbeĠamaz
advancedĠzydecoĠd ance,ĠintoĠoneĠcompre
complexitiesĠ ofĠlife.ĠthisĠmer
parrotĠhouse âĢĿĠ(ask,ĠyouâĢĻllĠbeĠamaz
sionĠofĠmelt,Ġ onceĠcalmĠiceĠ
bothĠcommunityĠandĠexp ectation.ĠeducationĠandĠearlyĠdetection,Ġav
ownerâĢĻsĠquarter sĠonĠtheĠsecondĠflo
dvdĠclocksĠinĠ atĠ
s.ĠpartĠtwoĠ progressesĠwithĠmoreĠthanĠ
s.ĠpartĠofĠtheĠengag ementĠprocessĠ
currentlyĠoffĠl imitsĠtoĠguests,ĠisĠveryĠspaciousĠandĠ
function.ĠthisĠcanĠ resultĠinĠpoorĠdecision-makingĠalgor
naturalĠprogres sionĠofĠmelt,ĠonceĠcalmĠiceĠ
alĠcellularĠdeath.ĠthisĠalter ationĠleadsĠtoĠaĠproliferationĠofĠ
jumpĠtoĠdesiredĠ sectionsĠwith
kitchen)ĠbyĠjump ingĠrocks.
minutesĠaw ayĠandĠeasyĠaccessĠtoĠtheĠnas
sexuallyĠtrans mittedĠdiseases.ĠalcoholismĠ
instructionalĠdvdĠ thatĠbringsĠtogetherĠtheĠ
incidentĠratesĠoverĠtheĠlas tĠdecade.Ġcul
,ĠwhichĠtheyĠhaveĠ doneĠinĠsu
eliotĠdaltonĠofĠtheĠb&bĠteam Â®Ġ/ĠeliotĠdaltonĠforĠrepresent
movesĠandĠstepĠvariation s.ĠpartĠtwoĠprogressesĠwithĠmoreĠthanĠ
s>Ġ<s>Ġ"aggravatedĠorganiz ms"ĠisĠaĠcoll
s>Ġ<s>ĠthisĠisĠaĠzydecoĠdanceĠ instructionalĠdvdĠthatĠbringsĠtogetherĠtheĠ
sĠthatĠcauseĠtheĠdam mingĠfromĠwithin.ĠandĠultimatelyĠanĠend
ĠandĠonĠtheĠnationalĠhistoricĠregister,ĠhasĠaĠstatelyĠpresenceĠonĠattractivelyĠlandscapedĠgrounds.ĠtheĠinnĠenjoysĠaĠreputationĠofĠgraciousĠhospitalityĠinĠtheĠmidstĠofĠaĠtrueĠupstateĠnewĠyorkĠfingerĠlakesĠregionĠclassicĠhistoricĠinnĠexperienc e.ĠasĠbedĠandĠbreakfastsĠgo,ĠhalseyĠhouseĠ
%ĠandĠadrĠofĠ $
,ĠtheseĠmasksĠrepresent ingĠ
<s>ĠtheĠhalseyĠhouseĠ bedĠ&ĠbreakfastĠenjoysĠaĠreputationĠofĠgraciousĠhospitalityĠinĠtheĠmidstĠofĠaĠtrueĠupstateĠnewĠyorkĠfingerĠlakesĠregionĠclassicĠhistoricĠinnĠexperience.ĠtheĠgrandĠfederal-styleĠmansion,ĠbuiltĠinĠ
blocksĠinĠidentif icationĠofĠthoseĠinĠneedĠ
cyclicalĠandĠ naturalĠprogressionĠofĠmelt,ĠonceĠcalmĠiceĠ
chologic alĠdependenciesĠ
ckĠstateĠparkĠjustĠ minutesĠawayĠandĠeasyĠaccessĠtoĠtheĠnas
carĠtrackĠ atĠwatkinsĠgl
dnaĠwith inĠtheĠcell.ĠtheĠprogrammingĠofĠcellsĠisĠ
douglasĠreyno lds.ĠcancerĠ
divisionĠandĠnatur alĠcellularĠdeath.ĠthisĠalterationĠleadsĠtoĠaĠproliferationĠofĠ
d!ĠthanksĠtoĠ eliotĠdaltonĠofĠtheĠb&bĠteamÂ®Ġ/ĠeliotĠdaltonĠforĠrepresent
ftĠmasksĠcar vedĠbyĠdrewĠmichaelĠandĠpain
firstĠofĠ tenĠlargeĠscaleĠmasksĠ
featureĠandĠ scenicĠlandscapedĠgar
gĠinĠul ysses,ĠnewĠyorkĠthatĠ
gativeĠrespon ses.ĠitĠleadsĠtoĠbrainĠcellĠdeathĠandĠcompromis
greatĠshif tsĠofĠfluid,ĠpressureĠandĠcor
hensiveĠpack age.ĠdanceĠinstructorsĠbenĠ
iet,Ġsmo king,ĠandĠhypertensionĠareĠaĠfewĠ
ientĠplaceĠ toĠenjoyĠtheĠdiver
k.ĠpoorĠd iet,Ġsmoking,ĠandĠhypertensionĠareĠaĠfewĠ
kĠofĠspread .Ġcharac
ldĠlat eĠalaskanĠspring,ĠtheĠ
lagesĠareĠ areasĠwithĠtheĠgreatestĠris
l.ĠoneĠoutĠofĠ fourĠpeopleĠisĠaffectedĠbyĠcancer,ĠandĠnearlyĠhalfĠofĠ
menĠinĠalaskaĠwillĠ beĠaffected,ĠaĠthirdĠofĠtheĠ
methodĠisĠ relaxed,Ġclear
nthesis,Ġ divisionĠandĠnaturalĠcellularĠdeath.ĠthisĠalterationĠleadsĠtoĠaĠproliferationĠofĠ
ods,Ġwor kshop,ĠandĠvehicles.ĠbothĠareĠaĠre
pagacĠandĠ debbieĠshawĠ
riverĠiceĠ flowĠisĠdeniedĠitsĠ
sedĠofĠcellsĠandĠso metimesĠtheseĠbodiesĠofĠcellsĠareĠover
singĠhomes,Ġ homelessĠsh
seasonĠnewĠyorkĠfingerĠlakesĠ experience.ĠtheĠinnĠprovidesĠguestsĠwithĠaĠ
sed.ĠinĠalaska,Ġ diabetesĠisĠeverĠgrowingĠ
turallyĠbas edĠstigmasĠsurround
takenĠbyĠtheĠ complexitiesĠofĠlife.ĠthisĠmer
tedĠbyĠelizabethĠellis.Ġeac hĠpieceĠisĠaĠrepresentationĠofĠoneĠofĠtheĠtop
vingĠasĠaĠâĢľ parrotĠhouseâĢĿĠ(ask,ĠyouâĢĻllĠbeĠamaz
y,ĠourĠnur singĠhomes,ĠhomelessĠsh
ĠuniversityĠ asĠwellĠasĠoutdo
ĠitĠisĠnotĠhar dĠtoĠseeĠaĠnewĠownerĠ
Ġchallen gingĠmovesĠandĠvariations.ĠtheĠentireĠ
ĠmakeĠthisĠaĠvi ableĠbusiness.ĠtheĠhalseyĠhouseĠwasĠ
ĠroomĠbedĠandĠbreakfastĠ locatedĠonĠtheĠoutsk
Ġguestrooms,Ġ outsideĠthereĠisĠaĠpatioĠwithĠ
ĠtenĠdiseasesĠaffectingĠalaskanĠ communities.ĠtheĠmagnifiedĠmasksĠexplor
Ġyears,Ġ spanningĠfromĠmayĠ
ĠwithĠtheĠinten tĠofĠrestoringĠtheĠpropert
Ġminutes,ĠsoĠthereĠisĠaĠ lotĠofĠvaluableĠmaterialĠ
ĠweĠhaveĠopenedĠup ĠtheĠopportun
eĠhowĠallĠ livingĠorganismsĠareĠcompo
eĠcountryĠres ortĠexperienceĠwithĠtaughanno
sĠtheĠbodyâĢĻsĠsyste msĠintoĠlongĠlasting,Ġne
sĠliving/f amilyĠroom,ĠmakingĠitĠquarter
thwestĠlouisian aĠzydecoĠdanceĠhallsĠandĠ
dĠwithĠaĠwaterfallĠ featureĠandĠscenicĠlandscapedĠgar
intimatelyĠwovenĠ intoĠaĠpicturesqueĠ
ating.Ġalco holĠabuseĠandĠalcoholismĠstres
realty.ĠallĠ photosĠ(exceptĠ
re.ĠthereĠis,Ġhowe ver,ĠcompassionĠandĠeducation
ality.ĠhivĠ statusĠknowled
enn.ĠtheĠb&bâĢĻsĠproxim ityĠtoĠithacaĠandĠcornell
tĠtoĠcontro l.ĠoneĠoutĠofĠfourĠpeopleĠisĠaffectedĠbyĠcancer,ĠandĠnearlyĠhalfĠofĠ
tĠstoppable.ĠitĠisĠtheĠ beetleĠkillĠofĠtheĠbodyâĢĶfell
orĠandĠadditionalĠ spaceĠcurrentlyĠser
ingsĠofĠtheĠarea.ĠtheĠ propertyĠwasĠpurchasedĠbyĠtheĠ
.ĠphotoĠbyĠ douglasĠreynolds.ĠcancerĠ
.ĠelizabethĠellisĠandĠdrewĠmichaelĠinĠtheĠfinishingĠ touchesĠtoĠtheĠ
.ĠinfluenzaĠmasksĠjustĠ onĠopeningĠdayčĊ
topography.Ġ areĠcomplicatedĠbyĠself-medic
toĠthatĠofĠaĠco ldĠlateĠalaskanĠspring,ĠtheĠ
rosion.ĠaĠpreviewĠ ofĠaggravatedĠorganizms,ĠbyĠelizabethĠellisĠandĠdrewĠmichael
arthritis.ĠaĠ perverseĠaccelerationĠofĠagingĠ
eltersĠandĠvil lagesĠareĠareasĠwithĠtheĠgreatestĠris
ionĠofĠtumorsĠandĠ possibleĠmetastasis
isĠforcedĠintoĠuphe aval,ĠdamagingĠ
edĠcognitiveĠ function.ĠthisĠcanĠresultĠinĠpoorĠdecision-makingĠalgor
edĠsuchĠasĠ growth,ĠproteinĠsy
ofĠregularĠtest ingĠandĠtreatment.ĠhivĠ
ingĠsexualĠorient ationĠcreateĠuniqueĠroad
toĠsignĠtheĠbacksĠofĠtheĠmasksĠthem selves.ĠdrewĠmichaelĠandĠelizabethĠellisĠsittingĠ
toĠinvadeĠandĠdestroyĠtheĠ body.ĠotherwiseĠhealthyĠcellsĠareĠ
ousandĠalaskansĠliveĠ withĠhiv,ĠandĠdueĠtoĠadvancesĠinĠ
covered.Ġadditionally ,ĠtheĠdvdĠisĠprofes
ĠandĠhasĠbeenĠsol d!ĠthanksĠtoĠeliotĠdaltonĠofĠtheĠb&bĠteamÂ®Ġ/ĠeliotĠdaltonĠforĠrepresent
ĠandĠmeaningful,ĠhealthyĠlife.Ġattac k.ĠpoorĠdiet,Ġsmoking,ĠandĠhypertensionĠareĠaĠfewĠ
abnormalĠcellularĠbehavior s,ĠresultingĠinĠproduct
abundantĠstor ageĠforĠhouseholdĠgo
inĠcreativeĠway s.ĠpartĠofĠtheĠengagementĠprocessĠ
erĠisĠitĠaĠdeathĠsent ence.ĠcloseĠtoĠaĠth
alĠofĠtheĠinnĠandĠopeningĠtheĠpossibil ityĠofĠaĠnewĠownerĠofferingĠco
alĠplusĠforĠtheĠ property.ĠtheĠareaĠisĠaĠhighlyĠdes
ithmsĠthatĠdirect lyĠaffectĠtheĠescalatingĠn
aknessĠofĠanĠisol atedĠdemographic.ĠitĠ
low.ĠpartĠoneĠbreak sĠdownĠtheĠfundamentalĠstep,ĠdemonstratesĠ
forĠthisĠprojectĠisĠaboutĠ connectingĠpeopleĠtoĠtopic
forgivable.ĠeveryĠ alaskanĠdeservesĠaĠchanceĠatĠaĠlong
seĠrecreationalĠoffer ingsĠofĠtheĠarea.ĠtheĠpropertyĠwasĠpurchasedĠbyĠtheĠ
ofĠtheĠprecursor sĠthatĠcauseĠtheĠdammingĠfromĠwithin.ĠandĠultimatelyĠanĠend
irableĠlocationĠforĠguest sĠtoĠrealizeĠtheĠtrueĠfourĠ
irtsĠofĠtheĠtownĠofĠtrumansbur gĠinĠulysses,ĠnewĠyorkĠthatĠ
theĠsubtleĠzydecoĠ weightĠshifts,Ġ
theĠkitchen,ĠwhichĠisĠ currentlyĠoffĠlimitsĠtoĠguests,ĠisĠveryĠspaciousĠandĠ
itĠofĠtheĠdance.ĠtheĠteachingĠ methodĠisĠrelaxed,Ġclear
perbĠfashion .Ġ
,ĠandĠeasyĠtoĠfol low.ĠpartĠoneĠbreaksĠdownĠtheĠfundamentalĠstep,ĠdemonstratesĠ
isĠaĠdisease.ĠitĠisĠnotĠaĠwe aknessĠofĠanĠisolatedĠdemographic.ĠitĠ
ityĠforĠpeopleĠaffectedĠbyĠanyĠ oneĠofĠtheseĠparticularĠdiseasesĠ
withĠmenuĠbutton sĠthatĠallowĠyouĠtoĠselectivelyĠ
withĠaggravatedĠorganizmsĠopeningĠn ightĠjuneĠ
powerfulĠex pressionĠofĠideasĠandĠtopic
sionallyĠauthoredĠ withĠmenuĠbuttonsĠthatĠallowĠyouĠtoĠselectivelyĠ
alaskaâĢĻsĠawaren essĠquiver.ĠtoĠpopulationĠdensit
boastsĠveryĠspaciousĠandĠcomfortableĠ ownerâĢĻsĠquartersĠonĠtheĠsecondĠflo
terizedĠinĠrheumatoidĠ arthritis.ĠaĠperverseĠaccelerationĠofĠagingĠ
umbersĠofĠhivĠandĠotherĠ sexuallyĠtransmittedĠdiseases.ĠalcoholismĠ
sĠthroughĠart.Ġdur ingĠtheĠ
iveĠlives.ĠthereĠisĠnoĠcu re.ĠthereĠis,Ġhowever,ĠcompassionĠandĠeducation
nĠtoĠzydecoĠdanceĠtoniteĠandĠ advancedĠzydecoĠdance,ĠintoĠoneĠcompre
sĠtoĠtravelĠthroughĠtheĠcirculator yĠandĠlymphĠsystems,ĠaffectingĠdistantĠorgans,Ġmak
ereĠtheĠyukon-kuskokwimĠ riverĠiceĠflowĠisĠdeniedĠitsĠ
regularlyĠexploreĠtheĠsou thwestĠlouisianaĠzydecoĠdanceĠhallsĠandĠ
ingĠtheĠdiseaseĠprocessĠdifficul tĠtoĠcontrol.ĠoneĠoutĠofĠfourĠpeopleĠisĠaffectedĠbyĠcancer,ĠandĠnearlyĠhalfĠofĠ
ingĠtheĠbuyers.ĠforĠdet ailsĠcontactĠpet
movingĠtheirĠbed roomĠintoĠtheĠcurrentĠsittingĠ
premierĠlakeĠandĠwin eĠcountryĠresortĠexperienceĠwithĠtaughanno
precipitatedĠbyĠ greatĠshiftsĠofĠfluid,ĠpressureĠandĠcor
inĠtheĠnativeĠpopulation,ĠwithĠincidentĠratesĠhigherĠthanĠ anyĠotherĠgroup.ĠsimilarĠ
sĠthatĠneedĠtoĠbeĠexploredĠ inĠcreativeĠways.ĠpartĠofĠtheĠengagementĠprocessĠ
women.ĠtheĠlandscapeĠofĠcancerĠisĠnotĠye tĠstoppable.ĠitĠisĠtheĠbeetleĠkillĠofĠtheĠbodyâĢĶfell
roomĠupstairsĠandĠconvertingĠtheĠparrotĠroomĠtoĠaĠspaciou sĠliving/familyĠroom,ĠmakingĠitĠquarter
isĠnotĠimpossibility,ĠandĠnoĠlong erĠisĠitĠaĠdeathĠsentence.ĠcloseĠtoĠaĠth
attractive,ĠcontributingĠtoĠtheĠappe alĠofĠtheĠinnĠandĠopeningĠtheĠpossibilityĠofĠaĠnewĠownerĠofferingĠco
)ĠorĠrickĠwol fĠ(
)ĠofĠtheĠb&bĠteam,ĠinnĠconsultan tsĠllc.ĠnewĠyorkĠbrokerĠofĠrecor
,ĠtheĠtwoĠstrongestĠarrowsĠinĠ alaskaâĢĻsĠawarenessĠquiver.ĠtoĠpopulationĠdensit
-stageĠrenalĠfailureĠinĠthoseĠdiagno sed.ĠinĠalaska,ĠdiabetesĠisĠeverĠgrowingĠ
ailableĠtreatment,ĠandĠlifeĠqu ality.ĠhivĠstatusĠknowled
bringĠtoĠtheĠviewerĠnotĠonlyĠtheĠauthenticĠ steps,ĠbutĠalsoĠtheĠjoyĠandĠspr
geĠhaveĠcontributedĠtoĠtheĠgrowingĠ incidentĠratesĠoverĠtheĠlastĠdecade.Ġcul
gingĠofĠscience,Ġhealth,ĠandĠartĠisĠaĠ powerfulĠexpressionĠofĠideasĠandĠtopic
judgment,ĠandĠpatience.ĠitĠ requiresĠourĠattention
sicĠfactorsĠthatĠcauseĠdamageĠtoĠ dnaĠwithinĠtheĠcell.ĠtheĠprogrammingĠofĠcellsĠisĠ
time-provenĠvideos,Ġlear nĠtoĠzydecoĠdanceĠtoniteĠandĠadvancedĠzydecoĠdance,ĠintoĠoneĠcompre
youĠsayĠâĢľflexibil ity
dĠisĠdavidĠirishĠofĠaudreyĠedelmanĠ realty.ĠallĠphotosĠ(exceptĠ
orĠattractionsĠmakesĠitĠaĠconven ientĠplaceĠtoĠenjoyĠtheĠdiver
aĠfireĠpit,Ġpon dĠwithĠaĠwaterfallĠfeatureĠandĠscenicĠlandscapedĠgar
processĠappearsĠdormant.ĠandĠwh ereĠtheĠyukon-kuskokwimĠriverĠiceĠflowĠisĠdeniedĠitsĠ
explainsĠpartnering,ĠandĠ providesĠmoreĠthanĠtwelveĠ
âĢĶtheĠcapacityĠofĠtheseĠdamagedĠcell sĠtoĠtravelĠthroughĠtheĠcirculatoryĠandĠlymphĠsystems,ĠaffectingĠdistantĠorgans,Ġmak
affectedĠbyĠextrinsicĠandĠintrin sicĠfactorsĠthatĠcauseĠdamageĠtoĠdnaĠwithinĠtheĠcell.ĠtheĠprogrammingĠofĠcellsĠisĠ
medicine,ĠmanyĠleadĠnormalĠandĠproduct iveĠlives.ĠthereĠisĠnoĠcure.ĠthereĠis,Ġhowever,ĠcompassionĠandĠeducation
ĠdiseasesĠwithinĠourĠcommunitiesĠacrossĠalaskaĠandĠ theĠlowerĠ
cajunĠandĠzydecoĠvideosĠandĠdv dsĠpageĠtoĠaĠfriend.
dens.ĠaĠlargeĠdetachedĠgarageĠprovidesĠ abundantĠstorageĠforĠhouseholdĠgo
harborsĠtrueĠphysicalĠandĠpsy chologicalĠdependenciesĠ
okingĠclasses.ĠinĠaddit ionĠtoĠtheĠ
sorbĠandĠconsumeâĢĶ intimatelyĠwovenĠintoĠaĠpicturesqueĠ
sĠofĠabove-averageĠsize.ĠcanĠ youĠsayĠâĢľflexibility
thatĠrequireĠmedicalĠintervention,Ġnon- judgment,ĠandĠpatience.ĠitĠrequiresĠourĠattention
alteredĠandĠbasicĠfunctionsĠareĠabandon edĠsuchĠasĠgrowth,ĠproteinĠsy
yĠtoĠitsĠoriginalĠgrandĠstyle ,ĠwhichĠtheyĠhaveĠdoneĠinĠsu
.ĠoneĠranking,ĠsuicideĠrate.ĠthisĠisĠun forgivable.ĠeveryĠalaskanĠdeservesĠaĠchanceĠatĠaĠlong
isĠabnormalĠcellĠgrowthĠthatĠhasĠtheĠcapacityĠ toĠinvadeĠandĠdestroyĠtheĠbody.ĠotherwiseĠhealthyĠcellsĠareĠ
edĠcellularĠstrandsĠforcedĠtoĠab sorbĠandĠconsumeâĢĶintimatelyĠwovenĠintoĠaĠpicturesqueĠ
outĠhavingĠtoĠscroll.ĠrecommendĠthisĠ cajunĠandĠzydecoĠvideosĠandĠdvdsĠpageĠtoĠaĠfriend.
bothĠcommunityĠandĠexpectation.ĠeducationĠandĠearlyĠdetection,Ġav ailableĠtreatment,ĠandĠlifeĠquality.ĠhivĠstatusĠknowled
jumpĠtoĠdesiredĠsectionsĠwith outĠhavingĠtoĠscroll.ĠrecommendĠthisĠcajunĠandĠzydecoĠvideosĠandĠdvdsĠpageĠtoĠaĠfriend.
s>Ġ<s>Ġ"aggravatedĠorganizms"ĠisĠaĠcoll ectionĠofĠ
s>Ġ<s>ĠthisĠisĠaĠzydecoĠdanceĠinstructionalĠdvdĠthatĠbringsĠtogetherĠtheĠ time-provenĠvideos,ĠlearnĠtoĠzydecoĠdanceĠtoniteĠandĠadvancedĠzydecoĠdance,ĠintoĠoneĠcompre
ĠandĠonĠtheĠnationalĠhistoricĠregister,ĠhasĠaĠstatelyĠpresenceĠonĠattractivelyĠlandscapedĠgrounds.ĠtheĠinnĠenjoysĠaĠreputationĠofĠgraciousĠhospitalityĠinĠtheĠmidstĠofĠaĠtrueĠupstateĠnewĠyorkĠfingerĠlakesĠregionĠclassicĠhistoricĠinnĠexperience.ĠasĠbedĠandĠbreakfastsĠgo,ĠhalseyĠhouseĠ boastsĠveryĠspaciousĠandĠcomfortableĠownerâĢĻsĠquartersĠonĠtheĠsecondĠflo
blocksĠinĠidentificationĠofĠthoseĠinĠneedĠ ofĠregularĠtestingĠandĠtreatment.ĠhivĠ
cyclicalĠandĠnaturalĠprogressionĠofĠmelt,ĠonceĠcalmĠiceĠ isĠforcedĠintoĠupheaval,ĠdamagingĠ
ckĠstateĠparkĠjustĠminutesĠawayĠandĠeasyĠaccessĠtoĠtheĠnas carĠtrackĠatĠwatkinsĠgl
ftĠmasksĠcarvedĠbyĠdrewĠmichaelĠandĠpain tedĠbyĠelizabethĠellis.ĠeachĠpieceĠisĠaĠrepresentationĠofĠoneĠofĠtheĠtop
firstĠofĠtenĠlargeĠscaleĠmasksĠ wereĠbuilt.ĠmayĠ
gativeĠresponses.ĠitĠleadsĠtoĠbrainĠcellĠdeathĠandĠcompromis edĠcognitiveĠfunction.ĠthisĠcanĠresultĠinĠpoorĠdecision-makingĠalgor
hensiveĠpackage.ĠdanceĠinstructorsĠbenĠ pagacĠandĠdebbieĠshawĠ
kĠofĠspread.Ġcharac terizedĠinĠrheumatoidĠarthritis.ĠaĠperverseĠaccelerationĠofĠagingĠ
menĠinĠalaskaĠwillĠbeĠaffected,ĠaĠthirdĠofĠtheĠ women.ĠtheĠlandscapeĠofĠcancerĠisĠnotĠyetĠstoppable.ĠitĠisĠtheĠbeetleĠkillĠofĠtheĠbodyâĢĶfell
nthesis,ĠdivisionĠandĠnaturalĠcellularĠdeath.ĠthisĠalterationĠleadsĠtoĠaĠproliferationĠofĠ abnormalĠcellularĠbehaviors,ĠresultingĠinĠproduct
ods,Ġworkshop,ĠandĠvehicles.ĠbothĠareĠaĠre alĠplusĠforĠtheĠproperty.ĠtheĠareaĠisĠaĠhighlyĠdes
sedĠofĠcellsĠandĠsometimesĠtheseĠbodiesĠofĠcellsĠareĠover takenĠbyĠtheĠcomplexitiesĠofĠlife.ĠthisĠmer
seasonĠnewĠyorkĠfingerĠlakesĠexperience.ĠtheĠinnĠprovidesĠguestsĠwithĠaĠ premierĠlakeĠandĠwineĠcountryĠresortĠexperienceĠwithĠtaughanno
turallyĠbasedĠstigmasĠsurround ingĠsexualĠorientationĠcreateĠuniqueĠroad
vingĠasĠaĠâĢľparrotĠhouseâĢĿĠ(ask,ĠyouâĢĻllĠbeĠamaz ed
y,ĠourĠnursingĠhomes,ĠhomelessĠsh eltersĠandĠvillagesĠareĠareasĠwithĠtheĠgreatestĠris
ĠuniversityĠasĠwellĠasĠoutdo orĠattractionsĠmakesĠitĠaĠconvenientĠplaceĠtoĠenjoyĠtheĠdiver
ĠitĠisĠnotĠhardĠtoĠseeĠaĠnewĠownerĠ movingĠtheirĠbedroomĠintoĠtheĠcurrentĠsittingĠ
ĠchallengingĠmovesĠandĠvariations.ĠtheĠentireĠ dvdĠclocksĠinĠatĠ
ĠmakeĠthisĠaĠviableĠbusiness.ĠtheĠhalseyĠhouseĠwasĠ offeredĠforĠtheĠveryĠdefensibleĠpriceĠofĠ$
ĠroomĠbedĠandĠbreakfastĠlocatedĠonĠtheĠoutsk irtsĠofĠtheĠtownĠofĠtrumansburgĠinĠulysses,ĠnewĠyorkĠthatĠ
Ġguestrooms,ĠoutsideĠthereĠisĠaĠpatioĠwithĠ aĠfireĠpit,ĠpondĠwithĠaĠwaterfallĠfeatureĠandĠscenicĠlandscapedĠgar
ĠtenĠdiseasesĠaffectingĠalaskanĠcommunities.ĠtheĠmagnifiedĠmasksĠexplor eĠhowĠallĠlivingĠorganismsĠareĠcompo
ĠwithĠtheĠintentĠofĠrestoringĠtheĠpropert yĠtoĠitsĠoriginalĠgrandĠstyle,ĠwhichĠtheyĠhaveĠdoneĠinĠsu
Ġminutes,ĠsoĠthereĠisĠaĠlotĠofĠvaluableĠmaterialĠ covered.Ġadditionally,ĠtheĠdvdĠisĠprofes
ĠweĠhaveĠopenedĠupĠtheĠopportun ityĠforĠpeopleĠaffectedĠbyĠanyĠoneĠofĠtheseĠparticularĠdiseasesĠ
sĠtheĠbodyâĢĻsĠsystemsĠintoĠlongĠlasting,Ġne gativeĠresponses.ĠitĠleadsĠtoĠbrainĠcellĠdeathĠandĠcompromisedĠcognitiveĠfunction.ĠthisĠcanĠresultĠinĠpoorĠdecision-makingĠalgor
ating.ĠalcoholĠabuseĠandĠalcoholismĠstres sĠtheĠbodyâĢĻsĠsystemsĠintoĠlongĠlasting,ĠnegativeĠresponses.ĠitĠleadsĠtoĠbrainĠcellĠdeathĠandĠcompromisedĠcognitiveĠfunction.ĠthisĠcanĠresultĠinĠpoorĠdecision-makingĠalgor
enn.ĠtheĠb&bâĢĻsĠproximityĠtoĠithacaĠandĠcornell ĠuniversityĠasĠwellĠasĠoutdoorĠattractionsĠmakesĠitĠaĠconvenientĠplaceĠtoĠenjoyĠtheĠdiver
orĠandĠadditionalĠspaceĠcurrentlyĠser vingĠasĠaĠâĢľparrotĠhouseâĢĿĠ(ask,ĠyouâĢĻllĠbeĠamazed
.ĠphotoĠbyĠdouglasĠreynolds.ĠcancerĠ isĠabnormalĠcellĠgrowthĠthatĠhasĠtheĠcapacityĠtoĠinvadeĠandĠdestroyĠtheĠbody.ĠotherwiseĠhealthyĠcellsĠareĠ
.ĠelizabethĠellisĠandĠdrewĠmichaelĠinĠtheĠfinishingĠtouchesĠtoĠtheĠ firstĠofĠtenĠlargeĠscaleĠmasksĠwereĠbuilt.ĠmayĠ
topography.ĠareĠcomplicatedĠbyĠself-medic ating.ĠalcoholĠabuseĠandĠalcoholismĠstressĠtheĠbodyâĢĻsĠsystemsĠintoĠlongĠlasting,ĠnegativeĠresponses.ĠitĠleadsĠtoĠbrainĠcellĠdeathĠandĠcompromisedĠcognitiveĠfunction.ĠthisĠcanĠresultĠinĠpoorĠdecision-makingĠalgor
toĠthatĠofĠaĠcoldĠlateĠalaskanĠspring,ĠtheĠ processĠappearsĠdormant.ĠandĠwhereĠtheĠyukon-kuskokwimĠriverĠiceĠflowĠisĠdeniedĠitsĠ
rosion.ĠaĠpreviewĠofĠaggravatedĠorganizms,ĠbyĠelizabethĠellisĠandĠdrewĠmichael .ĠelizabethĠellisĠandĠdrewĠmichaelĠinĠtheĠfinishingĠtouchesĠtoĠtheĠfirstĠofĠtenĠlargeĠscaleĠmasksĠwereĠbuilt.ĠmayĠ
ionĠofĠtumorsĠandĠpossibleĠmetastasis âĢĶtheĠcapacityĠofĠtheseĠdamagedĠcellsĠtoĠtravelĠthroughĠtheĠcirculatoryĠandĠlymphĠsystems,ĠaffectingĠdistantĠorgans,Ġmak
toĠsignĠtheĠbacksĠofĠtheĠmasksĠthemselves.ĠdrewĠmichaelĠandĠelizabethĠellisĠsittingĠ withĠaggravatedĠorganizmsĠopeningĠnightĠjuneĠ
ousandĠalaskansĠliveĠwithĠhiv,ĠandĠdueĠtoĠadvancesĠinĠ medicine,ĠmanyĠleadĠnormalĠandĠproductiveĠlives.ĠthereĠisĠnoĠcure.ĠthereĠis,Ġhowever,ĠcompassionĠandĠeducation
ĠandĠhasĠbeenĠsold!ĠthanksĠtoĠeliotĠdaltonĠofĠtheĠb&bĠteamÂ®Ġ/ĠeliotĠdaltonĠforĠrepresent ingĠtheĠbuyers.ĠforĠdetailsĠcontactĠpet
ĠandĠmeaningful,ĠhealthyĠlife.Ġattack.ĠpoorĠdiet,Ġsmoking,ĠandĠhypertensionĠareĠaĠfewĠ ofĠtheĠprecursorsĠthatĠcauseĠtheĠdammingĠfromĠwithin.ĠandĠultimatelyĠanĠend
ithmsĠthatĠdirectlyĠaffectĠtheĠescalatingĠn umbersĠofĠhivĠandĠotherĠsexuallyĠtransmittedĠdiseases.ĠalcoholismĠ
forĠthisĠprojectĠisĠaboutĠconnectingĠpeopleĠtoĠtopic sĠthroughĠart.ĠduringĠtheĠ
seĠrecreationalĠofferingsĠofĠtheĠarea.ĠtheĠpropertyĠwasĠpurchasedĠbyĠtheĠ currentĠownersĠinĠ
irableĠlocationĠforĠguestsĠtoĠrealizeĠtheĠtrueĠfourĠ seasonĠnewĠyorkĠfingerĠlakesĠexperience.ĠtheĠinnĠprovidesĠguestsĠwithĠaĠpremierĠlakeĠandĠwineĠcountryĠresortĠexperienceĠwithĠtaughanno
theĠsubtleĠzydecoĠweightĠshifts,Ġ explainsĠpartnering,ĠandĠprovidesĠmoreĠthanĠtwelveĠ
theĠkitchen,ĠwhichĠisĠcurrentlyĠoffĠlimitsĠtoĠguests,ĠisĠveryĠspaciousĠandĠ attractive,ĠcontributingĠtoĠtheĠappealĠofĠtheĠinnĠandĠopeningĠtheĠpossibilityĠofĠaĠnewĠownerĠofferingĠco
itĠofĠtheĠdance.ĠtheĠteachingĠmethodĠisĠrelaxed,Ġclear ,ĠandĠeasyĠtoĠfollow.ĠpartĠoneĠbreaksĠdownĠtheĠfundamentalĠstep,ĠdemonstratesĠ
isĠaĠdisease.ĠitĠisĠnotĠaĠweaknessĠofĠanĠisolatedĠdemographic.ĠitĠ harborsĠtrueĠphysicalĠandĠpsychologicalĠdependenciesĠ
sionallyĠauthoredĠwithĠmenuĠbuttonsĠthatĠallowĠyouĠtoĠselectivelyĠ jumpĠtoĠdesiredĠsectionsĠwithoutĠhavingĠtoĠscroll.ĠrecommendĠthisĠcajunĠandĠzydecoĠvideosĠandĠdvdsĠpageĠtoĠaĠfriend.
regularlyĠexploreĠtheĠsouthwestĠlouisianaĠzydecoĠdanceĠhallsĠandĠ bringĠtoĠtheĠviewerĠnotĠonlyĠtheĠauthenticĠsteps,ĠbutĠalsoĠtheĠjoyĠandĠspr
ingĠtheĠdiseaseĠprocessĠdifficultĠtoĠcontrol.ĠoneĠoutĠofĠfourĠpeopleĠisĠaffectedĠbyĠcancer,ĠandĠnearlyĠhalfĠofĠ menĠinĠalaskaĠwillĠbeĠaffected,ĠaĠthirdĠofĠtheĠwomen.ĠtheĠlandscapeĠofĠcancerĠisĠnotĠyetĠstoppable.ĠitĠisĠtheĠbeetleĠkillĠofĠtheĠbodyâĢĶfell
precipitatedĠbyĠgreatĠshiftsĠofĠfluid,ĠpressureĠandĠcor rosion.ĠaĠpreviewĠofĠaggravatedĠorganizms,ĠbyĠelizabethĠellisĠandĠdrewĠmichael.ĠelizabethĠellisĠandĠdrewĠmichaelĠinĠtheĠfinishingĠtouchesĠtoĠtheĠfirstĠofĠtenĠlargeĠscaleĠmasksĠwereĠbuilt.ĠmayĠ
inĠtheĠnativeĠpopulation,ĠwithĠincidentĠratesĠhigherĠthanĠanyĠotherĠgroup.ĠsimilarĠ toĠthatĠofĠaĠcoldĠlateĠalaskanĠspring,ĠtheĠprocessĠappearsĠdormant.ĠandĠwhereĠtheĠyukon-kuskokwimĠriverĠiceĠflowĠisĠdeniedĠitsĠ
sĠthatĠneedĠtoĠbeĠexploredĠinĠcreativeĠways.ĠpartĠofĠtheĠengagementĠprocessĠ forĠthisĠprojectĠisĠaboutĠconnectingĠpeopleĠtoĠtopicsĠthroughĠart.ĠduringĠtheĠ
roomĠupstairsĠandĠconvertingĠtheĠparrotĠroomĠtoĠaĠspaciousĠliving/familyĠroom,ĠmakingĠitĠquarter sĠofĠabove-averageĠsize.ĠcanĠyouĠsayĠâĢľflexibility
isĠnotĠimpossibility,ĠandĠnoĠlongerĠisĠitĠaĠdeathĠsentence.ĠcloseĠtoĠaĠth ousandĠalaskansĠliveĠwithĠhiv,ĠandĠdueĠtoĠadvancesĠinĠmedicine,ĠmanyĠleadĠnormalĠandĠproductiveĠlives.ĠthereĠisĠnoĠcure.ĠthereĠis,Ġhowever,ĠcompassionĠandĠeducation
)ĠofĠtheĠb&bĠteam,ĠinnĠconsultantsĠllc.ĠnewĠyorkĠbrokerĠofĠrecor dĠisĠdavidĠirishĠofĠaudreyĠedelmanĠrealty.ĠallĠphotosĠ(exceptĠ
,ĠtheĠtwoĠstrongestĠarrowsĠinĠalaskaâĢĻsĠawarenessĠquiver.ĠtoĠpopulationĠdensit y,ĠourĠnursingĠhomes,ĠhomelessĠsheltersĠandĠvillagesĠareĠareasĠwithĠtheĠgreatestĠris
-stageĠrenalĠfailureĠinĠthoseĠdiagnosed.ĠinĠalaska,ĠdiabetesĠisĠeverĠgrowingĠ inĠtheĠnativeĠpopulation,ĠwithĠincidentĠratesĠhigherĠthanĠanyĠotherĠgroup.ĠsimilarĠtoĠthatĠofĠaĠcoldĠlateĠalaskanĠspring,ĠtheĠprocessĠappearsĠdormant.ĠandĠwhereĠtheĠyukon-kuskokwimĠriverĠiceĠflowĠisĠdeniedĠitsĠ
geĠhaveĠcontributedĠtoĠtheĠgrowingĠincidentĠratesĠoverĠtheĠlastĠdecade.Ġcul turallyĠbasedĠstigmasĠsurroundingĠsexualĠorientationĠcreateĠuniqueĠroad
gingĠofĠscience,Ġhealth,ĠandĠartĠisĠaĠpowerfulĠexpressionĠofĠideasĠandĠtopic sĠthatĠneedĠtoĠbeĠexploredĠinĠcreativeĠways.ĠpartĠofĠtheĠengagementĠprocessĠforĠthisĠprojectĠisĠaboutĠconnectingĠpeopleĠtoĠtopicsĠthroughĠart.ĠduringĠtheĠ
affectedĠbyĠextrinsicĠandĠintrinsicĠfactorsĠthatĠcauseĠdamageĠtoĠdnaĠwithinĠtheĠcell.ĠtheĠprogrammingĠofĠcellsĠisĠ alteredĠandĠbasicĠfunctionsĠareĠabandonedĠsuchĠasĠgrowth,ĠproteinĠsy
dens.ĠaĠlargeĠdetachedĠgarageĠprovidesĠabundantĠstorageĠforĠhouseholdĠgo ods,Ġworkshop,ĠandĠvehicles.ĠbothĠareĠaĠrealĠplusĠforĠtheĠproperty.ĠtheĠareaĠisĠaĠhighlyĠdes
thatĠrequireĠmedicalĠintervention,Ġnon-judgment,ĠandĠpatience.ĠitĠrequiresĠourĠattention .ĠoneĠranking,ĠsuicideĠrate.ĠthisĠisĠunforgivable.ĠeveryĠalaskanĠdeservesĠaĠchanceĠatĠaĠlong
edĠcellularĠstrandsĠforcedĠtoĠabsorbĠandĠconsumeâĢĶintimatelyĠwovenĠintoĠaĠpicturesqueĠ topography.ĠareĠcomplicatedĠbyĠself-medicating.ĠalcoholĠabuseĠandĠalcoholismĠstressĠtheĠbodyâĢĻsĠsystemsĠintoĠlongĠlasting,ĠnegativeĠresponses.ĠitĠleadsĠtoĠbrainĠcellĠdeathĠandĠcompromisedĠcognitiveĠfunction.ĠthisĠcanĠresultĠinĠpoorĠdecision-makingĠalgor
bothĠcommunityĠandĠexpectation.ĠeducationĠandĠearlyĠdetection,ĠavailableĠtreatment,ĠandĠlifeĠquality.ĠhivĠstatusĠknowled geĠhaveĠcontributedĠtoĠtheĠgrowingĠincidentĠratesĠoverĠtheĠlastĠdecade.ĠculturallyĠbasedĠstigmasĠsurroundingĠsexualĠorientationĠcreateĠuniqueĠroad
s>Ġ<s>ĠthisĠisĠaĠzydecoĠdanceĠinstructionalĠdvdĠthatĠbringsĠtogetherĠtheĠtime-provenĠvideos,ĠlearnĠtoĠzydecoĠdanceĠtoniteĠandĠadvancedĠzydecoĠdance,ĠintoĠoneĠcompre hensiveĠpackage.ĠdanceĠinstructorsĠbenĠpagacĠandĠdebbieĠshawĠ
ĠandĠonĠtheĠnationalĠhistoricĠregister,ĠhasĠaĠstatelyĠpresenceĠonĠattractivelyĠlandscapedĠgrounds.ĠtheĠinnĠenjoysĠaĠreputationĠofĠgraciousĠhospitalityĠinĠtheĠmidstĠofĠaĠtrueĠupstateĠnewĠyorkĠfingerĠlakesĠregionĠclassicĠhistoricĠinnĠexperience.ĠasĠbedĠandĠbreakfastsĠgo,ĠhalseyĠhouseĠboastsĠveryĠspaciousĠandĠcomfortableĠownerâĢĻsĠquartersĠonĠtheĠsecondĠflo orĠandĠadditionalĠspaceĠcurrentlyĠservingĠasĠaĠâĢľparrotĠhouseâĢĿĠ(ask,ĠyouâĢĻllĠbeĠamazed
blocksĠinĠidentificationĠofĠthoseĠinĠneedĠofĠregularĠtestingĠandĠtreatment.ĠhivĠ isĠnotĠimpossibility,ĠandĠnoĠlongerĠisĠitĠaĠdeathĠsentence.ĠcloseĠtoĠaĠthousandĠalaskansĠliveĠwithĠhiv,ĠandĠdueĠtoĠadvancesĠinĠmedicine,ĠmanyĠleadĠnormalĠandĠproductiveĠlives.ĠthereĠisĠnoĠcure.ĠthereĠis,Ġhowever,ĠcompassionĠandĠeducation
cyclicalĠandĠnaturalĠprogressionĠofĠmelt,ĠonceĠcalmĠiceĠisĠforcedĠintoĠupheaval,ĠdamagingĠ bothĠcommunityĠandĠexpectation.ĠeducationĠandĠearlyĠdetection,ĠavailableĠtreatment,ĠandĠlifeĠquality.ĠhivĠstatusĠknowledgeĠhaveĠcontributedĠtoĠtheĠgrowingĠincidentĠratesĠoverĠtheĠlastĠdecade.ĠculturallyĠbasedĠstigmasĠsurroundingĠsexualĠorientationĠcreateĠuniqueĠroad
ckĠstateĠparkĠjustĠminutesĠawayĠandĠeasyĠaccessĠtoĠtheĠnascarĠtrackĠatĠwatkinsĠgl enn.ĠtheĠb&bâĢĻsĠproximityĠtoĠithacaĠandĠcornellĠuniversityĠasĠwellĠasĠoutdoorĠattractionsĠmakesĠitĠaĠconvenientĠplaceĠtoĠenjoyĠtheĠdiver
ftĠmasksĠcarvedĠbyĠdrewĠmichaelĠandĠpaintedĠbyĠelizabethĠellis.ĠeachĠpieceĠisĠaĠrepresentationĠofĠoneĠofĠtheĠtop ĠtenĠdiseasesĠaffectingĠalaskanĠcommunities.ĠtheĠmagnifiedĠmasksĠexploreĠhowĠallĠlivingĠorganismsĠareĠcompo
kĠofĠspread.ĠcharacterizedĠinĠrheumatoidĠarthritis.ĠaĠperverseĠaccelerationĠofĠagingĠ precipitatedĠbyĠgreatĠshiftsĠofĠfluid,ĠpressureĠandĠcorrosion.ĠaĠpreviewĠofĠaggravatedĠorganizms,ĠbyĠelizabethĠellisĠandĠdrewĠmichael.ĠelizabethĠellisĠandĠdrewĠmichaelĠinĠtheĠfinishingĠtouchesĠtoĠtheĠfirstĠofĠtenĠlargeĠscaleĠmasksĠwereĠbuilt.ĠmayĠ
nthesis,ĠdivisionĠandĠnaturalĠcellularĠdeath.ĠthisĠalterationĠleadsĠtoĠaĠproliferationĠofĠabnormalĠcellularĠbehaviors,ĠresultingĠinĠproduct ionĠofĠtumorsĠandĠpossibleĠmetastasisâĢĶtheĠcapacityĠofĠtheseĠdamagedĠcellsĠtoĠtravelĠthroughĠtheĠcirculatoryĠandĠlymphĠsystems,ĠaffectingĠdistantĠorgans,Ġmak
sedĠofĠcellsĠandĠsometimesĠtheseĠbodiesĠofĠcellsĠareĠovertakenĠbyĠtheĠcomplexitiesĠofĠlife.ĠthisĠmer gingĠofĠscience,Ġhealth,ĠandĠartĠisĠaĠpowerfulĠexpressionĠofĠideasĠandĠtopicsĠthatĠneedĠtoĠbeĠexploredĠinĠcreativeĠways.ĠpartĠofĠtheĠengagementĠprocessĠforĠthisĠprojectĠisĠaboutĠconnectingĠpeopleĠtoĠtopicsĠthroughĠart.ĠduringĠtheĠ
ĠitĠisĠnotĠhardĠtoĠseeĠaĠnewĠownerĠmovingĠtheirĠbedroomĠintoĠtheĠcurrentĠsittingĠ roomĠupstairsĠandĠconvertingĠtheĠparrotĠroomĠtoĠaĠspaciousĠliving/familyĠroom,ĠmakingĠitĠquartersĠofĠabove-averageĠsize.ĠcanĠyouĠsayĠâĢľflexibility
ĠroomĠbedĠandĠbreakfastĠlocatedĠonĠtheĠoutskirtsĠofĠtheĠtownĠofĠtrumansburgĠinĠulysses,ĠnewĠyorkĠthatĠ enjoysĠaĠsolidĠlodgingĠbusiness.ĠtheĠgrandĠfederal-styleĠmansion,ĠbuiltĠinĠ
Ġguestrooms,ĠoutsideĠthereĠisĠaĠpatioĠwithĠaĠfireĠpit,ĠpondĠwithĠaĠwaterfallĠfeatureĠandĠscenicĠlandscapedĠgar dens.ĠaĠlargeĠdetachedĠgarageĠprovidesĠabundantĠstorageĠforĠhouseholdĠgoods,Ġworkshop,ĠandĠvehicles.ĠbothĠareĠaĠrealĠplusĠforĠtheĠproperty.ĠtheĠareaĠisĠaĠhighlyĠdes
ĠwithĠtheĠintentĠofĠrestoringĠtheĠpropertyĠtoĠitsĠoriginalĠgrandĠstyle,ĠwhichĠtheyĠhaveĠdoneĠinĠsu perbĠfashion.Ġ
Ġminutes,ĠsoĠthereĠisĠaĠlotĠofĠvaluableĠmaterialĠcovered.Ġadditionally,ĠtheĠdvdĠisĠprofes sionallyĠauthoredĠwithĠmenuĠbuttonsĠthatĠallowĠyouĠtoĠselectivelyĠjumpĠtoĠdesiredĠsectionsĠwithoutĠhavingĠtoĠscroll.ĠrecommendĠthisĠcajunĠandĠzydecoĠvideosĠandĠdvdsĠpageĠtoĠaĠfriend.
ĠweĠhaveĠopenedĠupĠtheĠopportunityĠforĠpeopleĠaffectedĠbyĠanyĠoneĠofĠtheseĠparticularĠdiseasesĠ toĠsignĠtheĠbacksĠofĠtheĠmasksĠthemselves.ĠdrewĠmichaelĠandĠelizabethĠellisĠsittingĠwithĠaggravatedĠorganizmsĠopeningĠnightĠjuneĠ
.ĠphotoĠbyĠdouglasĠreynolds.ĠcancerĠisĠabnormalĠcellĠgrowthĠthatĠhasĠtheĠcapacityĠtoĠinvadeĠandĠdestroyĠtheĠbody.ĠotherwiseĠhealthyĠcellsĠareĠ affectedĠbyĠextrinsicĠandĠintrinsicĠfactorsĠthatĠcauseĠdamageĠtoĠdnaĠwithinĠtheĠcell.ĠtheĠprogrammingĠofĠcellsĠisĠalteredĠandĠbasicĠfunctionsĠareĠabandonedĠsuchĠasĠgrowth,ĠproteinĠsy
ĠandĠhasĠbeenĠsold!ĠthanksĠtoĠeliotĠdaltonĠofĠtheĠb&bĠteamÂ®Ġ/ĠeliotĠdaltonĠforĠrepresentingĠtheĠbuyers.ĠforĠdetailsĠcontactĠpet erĠschermanĠ(
ĠandĠmeaningful,ĠhealthyĠlife.Ġattack.ĠpoorĠdiet,Ġsmoking,ĠandĠhypertensionĠareĠaĠfewĠofĠtheĠprecursorsĠthatĠcauseĠtheĠdammingĠfromĠwithin.ĠandĠultimatelyĠanĠend -stageĠrenalĠfailureĠinĠthoseĠdiagnosed.ĠinĠalaska,ĠdiabetesĠisĠeverĠgrowingĠinĠtheĠnativeĠpopulation,ĠwithĠincidentĠratesĠhigherĠthanĠanyĠotherĠgroup.ĠsimilarĠtoĠthatĠofĠaĠcoldĠlateĠalaskanĠspring,ĠtheĠprocessĠappearsĠdormant.ĠandĠwhereĠtheĠyukon-kuskokwimĠriverĠiceĠflowĠisĠdeniedĠitsĠ
ithmsĠthatĠdirectlyĠaffectĠtheĠescalatingĠnumbersĠofĠhivĠandĠotherĠsexuallyĠtransmittedĠdiseases.ĠalcoholismĠ isĠaĠdisease.ĠitĠisĠnotĠaĠweaknessĠofĠanĠisolatedĠdemographic.ĠitĠharborsĠtrueĠphysicalĠandĠpsychologicalĠdependenciesĠ
irableĠlocationĠforĠguestsĠtoĠrealizeĠtheĠtrueĠfourĠseasonĠnewĠyorkĠfingerĠlakesĠexperience.ĠtheĠinnĠprovidesĠguestsĠwithĠaĠpremierĠlakeĠandĠwineĠcountryĠresortĠexperienceĠwithĠtaughanno ckĠstateĠparkĠjustĠminutesĠawayĠandĠeasyĠaccessĠtoĠtheĠnascarĠtrackĠatĠwatkinsĠglenn.ĠtheĠb&bâĢĻsĠproximityĠtoĠithacaĠandĠcornellĠuniversityĠasĠwellĠasĠoutdoorĠattractionsĠmakesĠitĠaĠconvenientĠplaceĠtoĠenjoyĠtheĠdiver
theĠsubtleĠzydecoĠweightĠshifts,ĠexplainsĠpartnering,ĠandĠprovidesĠmoreĠthanĠtwelveĠ movesĠandĠstepĠvariations.ĠpartĠtwoĠprogressesĠwithĠmoreĠthanĠ
theĠkitchen,ĠwhichĠisĠcurrentlyĠoffĠlimitsĠtoĠguests,ĠisĠveryĠspaciousĠandĠattractive,ĠcontributingĠtoĠtheĠappealĠofĠtheĠinnĠandĠopeningĠtheĠpossibilityĠofĠaĠnewĠownerĠofferingĠco okingĠclasses.ĠinĠadditionĠtoĠtheĠ
itĠofĠtheĠdance.ĠtheĠteachingĠmethodĠisĠrelaxed,Ġclear,ĠandĠeasyĠtoĠfollow.ĠpartĠoneĠbreaksĠdownĠtheĠfundamentalĠstep,ĠdemonstratesĠ theĠsubtleĠzydecoĠweightĠshifts,ĠexplainsĠpartnering,ĠandĠprovidesĠmoreĠthanĠtwelveĠmovesĠandĠstepĠvariations.ĠpartĠtwoĠprogressesĠwithĠmoreĠthanĠ
regularlyĠexploreĠtheĠsouthwestĠlouisianaĠzydecoĠdanceĠhallsĠandĠbringĠtoĠtheĠviewerĠnotĠonlyĠtheĠauthenticĠsteps,ĠbutĠalsoĠtheĠjoyĠandĠspr itĠofĠtheĠdance.ĠtheĠteachingĠmethodĠisĠrelaxed,Ġclear,ĠandĠeasyĠtoĠfollow.ĠpartĠoneĠbreaksĠdownĠtheĠfundamentalĠstep,ĠdemonstratesĠtheĠsubtleĠzydecoĠweightĠshifts,ĠexplainsĠpartnering,ĠandĠprovidesĠmoreĠthanĠtwelveĠmovesĠandĠstepĠvariations.ĠpartĠtwoĠprogressesĠwithĠmoreĠthanĠ
ingĠtheĠdiseaseĠprocessĠdifficultĠtoĠcontrol.ĠoneĠoutĠofĠfourĠpeopleĠisĠaffectedĠbyĠcancer,ĠandĠnearlyĠhalfĠofĠmenĠinĠalaskaĠwillĠbeĠaffected,ĠaĠthirdĠofĠtheĠwomen.ĠtheĠlandscapeĠofĠcancerĠisĠnotĠyetĠstoppable.ĠitĠisĠtheĠbeetleĠkillĠofĠtheĠbodyâĢĶfell edĠcellularĠstrandsĠforcedĠtoĠabsorbĠandĠconsumeâĢĶintimatelyĠwovenĠintoĠaĠpicturesqueĠtopography.ĠareĠcomplicatedĠbyĠself-medicating.ĠalcoholĠabuseĠandĠalcoholismĠstressĠtheĠbodyâĢĻsĠsystemsĠintoĠlongĠlasting,ĠnegativeĠresponses.ĠitĠleadsĠtoĠbrainĠcellĠdeathĠandĠcompromisedĠcognitiveĠfunction.ĠthisĠcanĠresultĠinĠpoorĠdecision-makingĠalgor
)ĠofĠtheĠb&bĠteam,ĠinnĠconsultantsĠllc.ĠnewĠyorkĠbrokerĠofĠrecordĠisĠdavidĠirishĠofĠaudreyĠedelmanĠrealty.ĠallĠphotosĠ(exceptĠ kitchen)ĠbyĠjumpingĠrocks.
,ĠtheĠtwoĠstrongestĠarrowsĠinĠalaskaâĢĻsĠawarenessĠquiver.ĠtoĠpopulationĠdensity,ĠourĠnursingĠhomes,ĠhomelessĠsheltersĠandĠvillagesĠareĠareasĠwithĠtheĠgreatestĠris kĠofĠspread.ĠcharacterizedĠinĠrheumatoidĠarthritis.ĠaĠperverseĠaccelerationĠofĠagingĠprecipitatedĠbyĠgreatĠshiftsĠofĠfluid,ĠpressureĠandĠcorrosion.ĠaĠpreviewĠofĠaggravatedĠorganizms,ĠbyĠelizabethĠellisĠandĠdrewĠmichael.ĠelizabethĠellisĠandĠdrewĠmichaelĠinĠtheĠfinishingĠtouchesĠtoĠtheĠfirstĠofĠtenĠlargeĠscaleĠmasksĠwereĠbuilt.ĠmayĠ
thatĠrequireĠmedicalĠintervention,Ġnon-judgment,ĠandĠpatience.ĠitĠrequiresĠourĠattention.ĠoneĠranking,ĠsuicideĠrate.ĠthisĠisĠunforgivable.ĠeveryĠalaskanĠdeservesĠaĠchanceĠatĠaĠlong ĠandĠmeaningful,ĠhealthyĠlife.Ġattack.ĠpoorĠdiet,Ġsmoking,ĠandĠhypertensionĠareĠaĠfewĠofĠtheĠprecursorsĠthatĠcauseĠtheĠdammingĠfromĠwithin.ĠandĠultimatelyĠanĠend-stageĠrenalĠfailureĠinĠthoseĠdiagnosed.ĠinĠalaska,ĠdiabetesĠisĠeverĠgrowingĠinĠtheĠnativeĠpopulation,ĠwithĠincidentĠratesĠhigherĠthanĠanyĠotherĠgroup.ĠsimilarĠtoĠthatĠofĠaĠcoldĠlateĠalaskanĠspring,ĠtheĠprocessĠappearsĠdormant.ĠandĠwhereĠtheĠyukon-kuskokwimĠriverĠiceĠflowĠisĠdeniedĠitsĠ
s>Ġ<s>ĠthisĠisĠaĠzydecoĠdanceĠinstructionalĠdvdĠthatĠbringsĠtogetherĠtheĠtime-provenĠvideos,ĠlearnĠtoĠzydecoĠdanceĠtoniteĠandĠadvancedĠzydecoĠdance,ĠintoĠoneĠcomprehensiveĠpackage.ĠdanceĠinstructorsĠbenĠpagacĠandĠdebbieĠshawĠ regularlyĠexploreĠtheĠsouthwestĠlouisianaĠzydecoĠdanceĠhallsĠandĠbringĠtoĠtheĠviewerĠnotĠonlyĠtheĠauthenticĠsteps,ĠbutĠalsoĠtheĠjoyĠandĠspritĠofĠtheĠdance.ĠtheĠteachingĠmethodĠisĠrelaxed,Ġclear,ĠandĠeasyĠtoĠfollow.ĠpartĠoneĠbreaksĠdownĠtheĠfundamentalĠstep,ĠdemonstratesĠtheĠsubtleĠzydecoĠweightĠshifts,ĠexplainsĠpartnering,ĠandĠprovidesĠmoreĠthanĠtwelveĠmovesĠandĠstepĠvariations.ĠpartĠtwoĠprogressesĠwithĠmoreĠthanĠ
blocksĠinĠidentificationĠofĠthoseĠinĠneedĠofĠregularĠtestingĠandĠtreatment.ĠhivĠisĠnotĠimpossibility,ĠandĠnoĠlongerĠisĠitĠaĠdeathĠsentence.ĠcloseĠtoĠaĠthousandĠalaskansĠliveĠwithĠhiv,ĠandĠdueĠtoĠadvancesĠinĠmedicine,ĠmanyĠleadĠnormalĠandĠproductiveĠlives.ĠthereĠisĠnoĠcure.ĠthereĠis,Ġhowever,ĠcompassionĠandĠeducation ,ĠtheĠtwoĠstrongestĠarrowsĠinĠalaskaâĢĻsĠawarenessĠquiver.ĠtoĠpopulationĠdensity,ĠourĠnursingĠhomes,ĠhomelessĠsheltersĠandĠvillagesĠareĠareasĠwithĠtheĠgreatestĠriskĠofĠspread.ĠcharacterizedĠinĠrheumatoidĠarthritis.ĠaĠperverseĠaccelerationĠofĠagingĠprecipitatedĠbyĠgreatĠshiftsĠofĠfluid,ĠpressureĠandĠcorrosion.ĠaĠpreviewĠofĠaggravatedĠorganizms,ĠbyĠelizabethĠellisĠandĠdrewĠmichael.ĠelizabethĠellisĠandĠdrewĠmichaelĠinĠtheĠfinishingĠtouchesĠtoĠtheĠfirstĠofĠtenĠlargeĠscaleĠmasksĠwereĠbuilt.ĠmayĠ
cyclicalĠandĠnaturalĠprogressionĠofĠmelt,ĠonceĠcalmĠiceĠisĠforcedĠintoĠupheaval,ĠdamagingĠbothĠcommunityĠandĠexpectation.ĠeducationĠandĠearlyĠdetection,ĠavailableĠtreatment,ĠandĠlifeĠquality.ĠhivĠstatusĠknowledgeĠhaveĠcontributedĠtoĠtheĠgrowingĠincidentĠratesĠoverĠtheĠlastĠdecade.ĠculturallyĠbasedĠstigmasĠsurroundingĠsexualĠorientationĠcreateĠuniqueĠroad blocksĠinĠidentificationĠofĠthoseĠinĠneedĠofĠregularĠtestingĠandĠtreatment.ĠhivĠisĠnotĠimpossibility,ĠandĠnoĠlongerĠisĠitĠaĠdeathĠsentence.ĠcloseĠtoĠaĠthousandĠalaskansĠliveĠwithĠhiv,ĠandĠdueĠtoĠadvancesĠinĠmedicine,ĠmanyĠleadĠnormalĠandĠproductiveĠlives.ĠthereĠisĠnoĠcure.ĠthereĠis,Ġhowever,ĠcompassionĠandĠeducation,ĠtheĠtwoĠstrongestĠarrowsĠinĠalaskaâĢĻsĠawarenessĠquiver.ĠtoĠpopulationĠdensity,ĠourĠnursingĠhomes,ĠhomelessĠsheltersĠandĠvillagesĠareĠareasĠwithĠtheĠgreatestĠriskĠofĠspread.ĠcharacterizedĠinĠrheumatoidĠarthritis.ĠaĠperverseĠaccelerationĠofĠagingĠprecipitatedĠbyĠgreatĠshiftsĠofĠfluid,ĠpressureĠandĠcorrosion.ĠaĠpreviewĠofĠaggravatedĠorganizms,ĠbyĠelizabethĠellisĠandĠdrewĠmichael.ĠelizabethĠellisĠandĠdrewĠmichaelĠinĠtheĠfinishingĠtouchesĠtoĠtheĠfirstĠofĠtenĠlargeĠscaleĠmasksĠwereĠbuilt.ĠmayĠ
ftĠmasksĠcarvedĠbyĠdrewĠmichaelĠandĠpaintedĠbyĠelizabethĠellis.ĠeachĠpieceĠisĠaĠrepresentationĠofĠoneĠofĠtheĠtopĠtenĠdiseasesĠaffectingĠalaskanĠcommunities.ĠtheĠmagnifiedĠmasksĠexploreĠhowĠallĠlivingĠorganismsĠareĠcompo sedĠofĠcellsĠandĠsometimesĠtheseĠbodiesĠofĠcellsĠareĠovertakenĠbyĠtheĠcomplexitiesĠofĠlife.ĠthisĠmergingĠofĠscience,Ġhealth,ĠandĠartĠisĠaĠpowerfulĠexpressionĠofĠideasĠandĠtopicsĠthatĠneedĠtoĠbeĠexploredĠinĠcreativeĠways.ĠpartĠofĠtheĠengagementĠprocessĠforĠthisĠprojectĠisĠaboutĠconnectingĠpeopleĠtoĠtopicsĠthroughĠart.ĠduringĠtheĠ
nthesis,ĠdivisionĠandĠnaturalĠcellularĠdeath.ĠthisĠalterationĠleadsĠtoĠaĠproliferationĠofĠabnormalĠcellularĠbehaviors,ĠresultingĠinĠproductionĠofĠtumorsĠandĠpossibleĠmetastasisâĢĶtheĠcapacityĠofĠtheseĠdamagedĠcellsĠtoĠtravelĠthroughĠtheĠcirculatoryĠandĠlymphĠsystems,ĠaffectingĠdistantĠorgans,Ġmak ingĠtheĠdiseaseĠprocessĠdifficultĠtoĠcontrol.ĠoneĠoutĠofĠfourĠpeopleĠisĠaffectedĠbyĠcancer,ĠandĠnearlyĠhalfĠofĠmenĠinĠalaskaĠwillĠbeĠaffected,ĠaĠthirdĠofĠtheĠwomen.ĠtheĠlandscapeĠofĠcancerĠisĠnotĠyetĠstoppable.ĠitĠisĠtheĠbeetleĠkillĠofĠtheĠbodyâĢĶfelledĠcellularĠstrandsĠforcedĠtoĠabsorbĠandĠconsumeâĢĶintimatelyĠwovenĠintoĠaĠpicturesqueĠtopography.ĠareĠcomplicatedĠbyĠself-medicating.ĠalcoholĠabuseĠandĠalcoholismĠstressĠtheĠbodyâĢĻsĠsystemsĠintoĠlongĠlasting,ĠnegativeĠresponses.ĠitĠleadsĠtoĠbrainĠcellĠdeathĠandĠcompromisedĠcognitiveĠfunction.ĠthisĠcanĠresultĠinĠpoorĠdecision-makingĠalgor
Ġguestrooms,ĠoutsideĠthereĠisĠaĠpatioĠwithĠaĠfireĠpit,ĠpondĠwithĠaĠwaterfallĠfeatureĠandĠscenicĠlandscapedĠgardens.ĠaĠlargeĠdetachedĠgarageĠprovidesĠabundantĠstorageĠforĠhouseholdĠgoods,Ġworkshop,ĠandĠvehicles.ĠbothĠareĠaĠrealĠplusĠforĠtheĠproperty.ĠtheĠareaĠisĠaĠhighlyĠdes irableĠlocationĠforĠguestsĠtoĠrealizeĠtheĠtrueĠfourĠseasonĠnewĠyorkĠfingerĠlakesĠexperience.ĠtheĠinnĠprovidesĠguestsĠwithĠaĠpremierĠlakeĠandĠwineĠcountryĠresortĠexperienceĠwithĠtaughannockĠstateĠparkĠjustĠminutesĠawayĠandĠeasyĠaccessĠtoĠtheĠnascarĠtrackĠatĠwatkinsĠglenn.ĠtheĠb&bâĢĻsĠproximityĠtoĠithacaĠandĠcornellĠuniversityĠasĠwellĠasĠoutdoorĠattractionsĠmakesĠitĠaĠconvenientĠplaceĠtoĠenjoyĠtheĠdiver
.ĠphotoĠbyĠdouglasĠreynolds.ĠcancerĠisĠabnormalĠcellĠgrowthĠthatĠhasĠtheĠcapacityĠtoĠinvadeĠandĠdestroyĠtheĠbody.ĠotherwiseĠhealthyĠcellsĠareĠaffectedĠbyĠextrinsicĠandĠintrinsicĠfactorsĠthatĠcauseĠdamageĠtoĠdnaĠwithinĠtheĠcell.ĠtheĠprogrammingĠofĠcellsĠisĠalteredĠandĠbasicĠfunctionsĠareĠabandonedĠsuchĠasĠgrowth,ĠproteinĠsy nthesis,ĠdivisionĠandĠnaturalĠcellularĠdeath.ĠthisĠalterationĠleadsĠtoĠaĠproliferationĠofĠabnormalĠcellularĠbehaviors,ĠresultingĠinĠproductionĠofĠtumorsĠandĠpossibleĠmetastasisâĢĶtheĠcapacityĠofĠtheseĠdamagedĠcellsĠtoĠtravelĠthroughĠtheĠcirculatoryĠandĠlymphĠsystems,ĠaffectingĠdistantĠorgans,ĠmakingĠtheĠdiseaseĠprocessĠdifficultĠtoĠcontrol.ĠoneĠoutĠofĠfourĠpeopleĠisĠaffectedĠbyĠcancer,ĠandĠnearlyĠhalfĠofĠmenĠinĠalaskaĠwillĠbeĠaffected,ĠaĠthirdĠofĠtheĠwomen.ĠtheĠlandscapeĠofĠcancerĠisĠnotĠyetĠstoppable.ĠitĠisĠtheĠbeetleĠkillĠofĠtheĠbodyâĢĶfelledĠcellularĠstrandsĠforcedĠtoĠabsorbĠandĠconsumeâĢĶintimatelyĠwovenĠintoĠaĠpicturesqueĠtopography.ĠareĠcomplicatedĠbyĠself-medicating.ĠalcoholĠabuseĠandĠalcoholismĠstressĠtheĠbodyâĢĻsĠsystemsĠintoĠlongĠlasting,ĠnegativeĠresponses.ĠitĠleadsĠtoĠbrainĠcellĠdeathĠandĠcompromisedĠcognitiveĠfunction.ĠthisĠcanĠresultĠinĠpoorĠdecision-makingĠalgor
ithmsĠthatĠdirectlyĠaffectĠtheĠescalatingĠnumbersĠofĠhivĠandĠotherĠsexuallyĠtransmittedĠdiseases.ĠalcoholismĠisĠaĠdisease.ĠitĠisĠnotĠaĠweaknessĠofĠanĠisolatedĠdemographic.ĠitĠharborsĠtrueĠphysicalĠandĠpsychologicalĠdependenciesĠ thatĠrequireĠmedicalĠintervention,Ġnon-judgment,ĠandĠpatience.ĠitĠrequiresĠourĠattention.ĠoneĠranking,ĠsuicideĠrate.ĠthisĠisĠunforgivable.ĠeveryĠalaskanĠdeservesĠaĠchanceĠatĠaĠlongĠandĠmeaningful,ĠhealthyĠlife.Ġattack.ĠpoorĠdiet,Ġsmoking,ĠandĠhypertensionĠareĠaĠfewĠofĠtheĠprecursorsĠthatĠcauseĠtheĠdammingĠfromĠwithin.ĠandĠultimatelyĠanĠend-stageĠrenalĠfailureĠinĠthoseĠdiagnosed.ĠinĠalaska,ĠdiabetesĠisĠeverĠgrowingĠinĠtheĠnativeĠpopulation,ĠwithĠincidentĠratesĠhigherĠthanĠanyĠotherĠgroup.ĠsimilarĠtoĠthatĠofĠaĠcoldĠlateĠalaskanĠspring,ĠtheĠprocessĠappearsĠdormant.ĠandĠwhereĠtheĠyukon-kuskokwimĠriverĠiceĠflowĠisĠdeniedĠitsĠ
Ġguestrooms,ĠoutsideĠthereĠisĠaĠpatioĠwithĠaĠfireĠpit,ĠpondĠwithĠaĠwaterfallĠfeatureĠandĠscenicĠlandscapedĠgardens.ĠaĠlargeĠdetachedĠgarageĠprovidesĠabundantĠstorageĠforĠhouseholdĠgoods,Ġworkshop,ĠandĠvehicles.ĠbothĠareĠaĠrealĠplusĠforĠtheĠproperty.ĠtheĠareaĠisĠaĠhighlyĠdesirableĠlocationĠforĠguestsĠtoĠrealizeĠtheĠtrueĠfourĠseasonĠnewĠyorkĠfingerĠlakesĠexperience.ĠtheĠinnĠprovidesĠguestsĠwithĠaĠpremierĠlakeĠandĠwineĠcountryĠresortĠexperienceĠwithĠtaughannockĠstateĠparkĠjustĠminutesĠawayĠandĠeasyĠaccessĠtoĠtheĠnascarĠtrackĠatĠwatkinsĠglenn.ĠtheĠb&bâĢĻsĠproximityĠtoĠithacaĠandĠcornellĠuniversityĠasĠwellĠasĠoutdoorĠattractionsĠmakesĠitĠaĠconvenientĠplaceĠtoĠenjoyĠtheĠdiver seĠrecreationalĠofferingsĠofĠtheĠarea.ĠtheĠpropertyĠwasĠpurchasedĠbyĠtheĠcurrentĠownersĠinĠ
.ĠphotoĠbyĠdouglasĠreynolds.ĠcancerĠisĠabnormalĠcellĠgrowthĠthatĠhasĠtheĠcapacityĠtoĠinvadeĠandĠdestroyĠtheĠbody.ĠotherwiseĠhealthyĠcellsĠareĠaffectedĠbyĠextrinsicĠandĠintrinsicĠfactorsĠthatĠcauseĠdamageĠtoĠdnaĠwithinĠtheĠcell.ĠtheĠprogrammingĠofĠcellsĠisĠalteredĠandĠbasicĠfunctionsĠareĠabandonedĠsuchĠasĠgrowth,ĠproteinĠsynthesis,ĠdivisionĠandĠnaturalĠcellularĠdeath.ĠthisĠalterationĠleadsĠtoĠaĠproliferationĠofĠabnormalĠcellularĠbehaviors,ĠresultingĠinĠproductionĠofĠtumorsĠandĠpossibleĠmetastasisâĢĶtheĠcapacityĠofĠtheseĠdamagedĠcellsĠtoĠtravelĠthroughĠtheĠcirculatoryĠandĠlymphĠsystems,ĠaffectingĠdistantĠorgans,ĠmakingĠtheĠdiseaseĠprocessĠdifficultĠtoĠcontrol.ĠoneĠoutĠofĠfourĠpeopleĠisĠaffectedĠbyĠcancer,ĠandĠnearlyĠhalfĠofĠmenĠinĠalaskaĠwillĠbeĠaffected,ĠaĠthirdĠofĠtheĠwomen.ĠtheĠlandscapeĠofĠcancerĠisĠnotĠyetĠstoppable.ĠitĠisĠtheĠbeetleĠkillĠofĠtheĠbodyâĢĶfelledĠcellularĠstrandsĠforcedĠtoĠabsorbĠandĠconsumeâĢĶintimatelyĠwovenĠintoĠaĠpicturesqueĠtopography.ĠareĠcomplicatedĠbyĠself-medicating.ĠalcoholĠabuseĠandĠalcoholismĠstressĠtheĠbodyâĢĻsĠsystemsĠintoĠlongĠlasting,ĠnegativeĠresponses.ĠitĠleadsĠtoĠbrainĠcellĠdeathĠandĠcompromisedĠcognitiveĠfunction.ĠthisĠcanĠresultĠinĠpoorĠdecision-makingĠalgor ithmsĠthatĠdirectlyĠaffectĠtheĠescalatingĠnumbersĠofĠhivĠandĠotherĠsexuallyĠtransmittedĠdiseases.ĠalcoholismĠisĠaĠdisease.ĠitĠisĠnotĠaĠweaknessĠofĠanĠisolatedĠdemographic.ĠitĠharborsĠtrueĠphysicalĠandĠpsychologicalĠdependenciesĠthatĠrequireĠmedicalĠintervention,Ġnon-judgment,ĠandĠpatience.ĠitĠrequiresĠourĠattention.ĠoneĠranking,ĠsuicideĠrate.ĠthisĠisĠunforgivable.ĠeveryĠalaskanĠdeservesĠaĠchanceĠatĠaĠlongĠandĠmeaningful,ĠhealthyĠlife.Ġattack.ĠpoorĠdiet,Ġsmoking,ĠandĠhypertensionĠareĠaĠfewĠofĠtheĠprecursorsĠthatĠcauseĠtheĠdammingĠfromĠwithin.ĠandĠultimatelyĠanĠend-stageĠrenalĠfailureĠinĠthoseĠdiagnosed.ĠinĠalaska,ĠdiabetesĠisĠeverĠgrowingĠinĠtheĠnativeĠpopulation,ĠwithĠincidentĠratesĠhigherĠthanĠanyĠotherĠgroup.ĠsimilarĠtoĠthatĠofĠaĠcoldĠlateĠalaskanĠspring,ĠtheĠprocessĠappearsĠdormant.ĠandĠwhereĠtheĠyukon-kuskokwimĠriverĠiceĠflowĠisĠdeniedĠitsĠ
.ĠphotoĠbyĠdouglasĠreynolds.ĠcancerĠisĠabnormalĠcellĠgrowthĠthatĠhasĠtheĠcapacityĠtoĠinvadeĠandĠdestroyĠtheĠbody.ĠotherwiseĠhealthyĠcellsĠareĠaffectedĠbyĠextrinsicĠandĠintrinsicĠfactorsĠthatĠcauseĠdamageĠtoĠdnaĠwithinĠtheĠcell.ĠtheĠprogrammingĠofĠcellsĠisĠalteredĠandĠbasicĠfunctionsĠareĠabandonedĠsuchĠasĠgrowth,ĠproteinĠsynthesis,ĠdivisionĠandĠnaturalĠcellularĠdeath.ĠthisĠalterationĠleadsĠtoĠaĠproliferationĠofĠabnormalĠcellularĠbehaviors,ĠresultingĠinĠproductionĠofĠtumorsĠandĠpossibleĠmetastasisâĢĶtheĠcapacityĠofĠtheseĠdamagedĠcellsĠtoĠtravelĠthroughĠtheĠcirculatoryĠandĠlymphĠsystems,ĠaffectingĠdistantĠorgans,ĠmakingĠtheĠdiseaseĠprocessĠdifficultĠtoĠcontrol.ĠoneĠoutĠofĠfourĠpeopleĠisĠaffectedĠbyĠcancer,ĠandĠnearlyĠhalfĠofĠmenĠinĠalaskaĠwillĠbeĠaffected,ĠaĠthirdĠofĠtheĠwomen.ĠtheĠlandscapeĠofĠcancerĠisĠnotĠyetĠstoppable.ĠitĠisĠtheĠbeetleĠkillĠofĠtheĠbodyâĢĶfelledĠcellularĠstrandsĠforcedĠtoĠabsorbĠandĠconsumeâĢĶintimatelyĠwovenĠintoĠaĠpicturesqueĠtopography.ĠareĠcomplicatedĠbyĠself-medicating.ĠalcoholĠabuseĠandĠalcoholismĠstressĠtheĠbodyâĢĻsĠsystemsĠintoĠlongĠlasting,ĠnegativeĠresponses.ĠitĠleadsĠtoĠbrainĠcellĠdeathĠandĠcompromisedĠcognitiveĠfunction.ĠthisĠcanĠresultĠinĠpoorĠdecision-makingĠalgorithmsĠthatĠdirectlyĠaffectĠtheĠescalatingĠnumbersĠofĠhivĠandĠotherĠsexuallyĠtransmittedĠdiseases.ĠalcoholismĠisĠaĠdisease.ĠitĠisĠnotĠaĠweaknessĠofĠanĠisolatedĠdemographic.ĠitĠharborsĠtrueĠphysicalĠandĠpsychologicalĠdependenciesĠthatĠrequireĠmedicalĠintervention,Ġnon-judgment,ĠandĠpatience.ĠitĠrequiresĠourĠattention.ĠoneĠranking,ĠsuicideĠrate.ĠthisĠisĠunforgivable.ĠeveryĠalaskanĠdeservesĠaĠchanceĠatĠaĠlongĠandĠmeaningful,ĠhealthyĠlife.Ġattack.ĠpoorĠdiet,Ġsmoking,ĠandĠhypertensionĠareĠaĠfewĠofĠtheĠprecursorsĠthatĠcauseĠtheĠdammingĠfromĠwithin.ĠandĠultimatelyĠanĠend-stageĠrenalĠfailureĠinĠthoseĠdiagnosed.ĠinĠalaska,ĠdiabetesĠisĠeverĠgrowingĠinĠtheĠnativeĠpopulation,ĠwithĠincidentĠratesĠhigherĠthanĠanyĠotherĠgroup.ĠsimilarĠtoĠthatĠofĠaĠcoldĠlateĠalaskanĠspring,ĠtheĠprocessĠappearsĠdormant.ĠandĠwhereĠtheĠyukon-kuskokwimĠriverĠiceĠflowĠisĠdeniedĠitsĠ cyclicalĠandĠnaturalĠprogressionĠofĠmelt,ĠonceĠcalmĠiceĠisĠforcedĠintoĠupheaval,ĠdamagingĠbothĠcommunityĠandĠexpectation.ĠeducationĠandĠearlyĠdetection,ĠavailableĠtreatment,ĠandĠlifeĠquality.ĠhivĠstatusĠknowledgeĠhaveĠcontributedĠtoĠtheĠgrowingĠincidentĠratesĠoverĠtheĠlastĠdecade.ĠculturallyĠbasedĠstigmasĠsurroundingĠsexualĠorientationĠcreateĠuniqueĠroadblocksĠinĠidentificationĠofĠthoseĠinĠneedĠofĠregularĠtestingĠandĠtreatment.ĠhivĠisĠnotĠimpossibility,ĠandĠnoĠlongerĠisĠitĠaĠdeathĠsentence.ĠcloseĠtoĠaĠthousandĠalaskansĠliveĠwithĠhiv,ĠandĠdueĠtoĠadvancesĠinĠmedicine,ĠmanyĠleadĠnormalĠandĠproductiveĠlives.ĠthereĠisĠnoĠcure.ĠthereĠis,Ġhowever,ĠcompassionĠandĠeducation,ĠtheĠtwoĠstrongestĠarrowsĠinĠalaskaâĢĻsĠawarenessĠquiver.ĠtoĠpopulationĠdensity,ĠourĠnursingĠhomes,ĠhomelessĠsheltersĠandĠvillagesĠareĠareasĠwithĠtheĠgreatestĠriskĠofĠspread.ĠcharacterizedĠinĠrheumatoidĠarthritis.ĠaĠperverseĠaccelerationĠofĠagingĠprecipitatedĠbyĠgreatĠshiftsĠofĠfluid,ĠpressureĠandĠcorrosion.ĠaĠpreviewĠofĠaggravatedĠorganizms,ĠbyĠelizabethĠellisĠandĠdrewĠmichael.ĠelizabethĠellisĠandĠdrewĠmichaelĠinĠtheĠfinishingĠtouchesĠtoĠtheĠfirstĠofĠtenĠlargeĠscaleĠmasksĠwereĠbuilt.ĠmayĠ
