#version: 0.2
e Ġ
Ġ t
Ġ a
i n
Ġt h
s Ġ
o u
e r
d Ġ
t Ġ
o n
o r
e n
Ġth eĠ
Ġ s
r e
i t
y Ġ
in g
a n
a t
Ġa n
a l
o Ġ
. Ġ
a r
o f
, Ġ
e s
i s
y ou
Ġan dĠ
o m
t h
i on
c h
l l
ing Ġ
f or
l o
a s
Ġ c
Ġ m
e c
i c
e d
i sĠ
Ġ p
e dĠ
Ġ h
Ġ w
r o
v eĠ
Ġt oĠ
e l
s t
Ġ b
en t
it h
Ġ d
a m
e m
Ġ you
e t
â Ģ
v er
a tĠ
Ġt o
al l
p l
e sĠ
ou r
i l
u s
Ġ f
Ġ i
u r
a c
ou n
a y
at ion
eĠ t
Ġ of
a b
o w
Ġ g
i d
i g
re s
i m
m a
w ith
u n
n e
u l
i r
Ġa r
Ġs t
an d
e x
e ar
âĢ Ļ
h a
eĠ s
ec t
i f
t er
g r
c om
e a
Ġ l
i v
i ll
o l
o p
eĠ th
en tĠ
o s
u t
p ro
u p
Ġ in
o t
w e
Ġth isĠ
i tĠ
Ġan d
is t
Ġ re
ab l
f r
w h
Ġth atĠ
b eĠ
a d
q u
c on
e .Ġ
Ġa l
en d
s h
Ġ for
Ġ lo
oun t
a p
ou tĠ
you r
s ,Ġ
Ġth e
, ĠandĠ
e ,Ġ
in t
s >
s Ġa
Ġ <
Ġar eĠ
c eĠ
Ġs h
a k
c ount
e tĠ
e as
p r
ig h
e ll
Ġa ll
i dĠ
ĠtheĠ s
at eĠ
s .Ġ
an dĠ
es s
Ġh a
d er
o o
tĠ of
ou l
b lo
e w
c t
on eĠ
an k
th er
p er
u m
Ġ j
Ġa sĠ
ou s
. ĠtheĠ
b e
Ġyou r
a idĠ
u ch
Ġa b
Ġs p
a yĠ
sĠ of
Ġs oĠ
! Ġi
a g
a in
e v
n o
ou t
er eĠ
om eĠ
c o
p ar
eĠ d
ne w
. .
r i
u tĠ
is Ġa
c or
g h
t l
u st
y ear
eĠ m
sĠ in
yĠ of
fr om
Ġha veĠ
b er
e ver
p or
Ġ o
es t
Ġw ith
ac t
e p
i es
or k
eĠt oĠ
2 0
h er
s ĠandĠ
w ill
Ġa m
re at
yĠ c
Ġc on
b l
n ow
w eĠ
a sĠ
e .
i al
Ġ on
ha veĠ
ect ion
com m
c l
i ch
s ,
s oĠ
eĠ b
ou gh
ar d
i veĠ
l y
p p
r ist
v i
Ġ isĠ
Ġa t
or eĠ
.Ġ i
Ġp ro
ac k
e k
Ġ ex
Ġt r
Ġa s
ch rist
Ġw h
Ġthe ir
blo o
d o
Ġ n
eĠ andĠ
in ĠtheĠ
Ġc an
ro om
20 1
a v
i z
l it
Ġt im
it y
as k
edĠ b
oun d
i esĠ
s ion
Ġ k
Ġth ank
Ġb eĠ
Ġto ĠtheĠ
s> Ġ<
Ġ< /
s>Ġ< s>
' sĠ
f f
m yĠ
m ent
p re
Ġ r
en c
ar eĠ
as t
Ġm e
âĢĻ sĠ
e b
f er
h ous
s .
w ay
Ġ our
Ġs aidĠ
ing ĠtheĠ
an t
Ġab outĠ
i k
o k
o ver
s ĠtoĠ
Ġa d
in d
it ion
,Ġ b
for ĠtheĠ
us tĠ
eĠt o
cor dĠ
por t
bloo dĠ
a il
d ec
e at
g res
Ġa tĠ
ic al
Ġlo veĠ
oul dĠ
be en
d u
e !
e f
l yĠ
m uch
o ther
w ork
Ġa Ġp
Ġth em
en ceĠ
ed ĠtoĠ
Ġof ĠtheĠ
ma k
abl eĠ
no tĠ
christ ma
d ay
j o
u d
in k
ing Ġa
an c
es tĠ
Ġm yĠ
all yĠ
vi ew
Ġthank Ġyou
a Ġ
c k
e o
r eĠ
Ġth at
er sĠ
on ĠtheĠ
or g
en s
Ġs c
re atĠ
for m
gr am
e ,
h ot
l in
o d
Ġth es
an ceĠ
of ĠtheĠ
is sion
el yĠ
ent er
ul t
pro v
sh all
igh tĠ
christma sĠ
d in
h ow
i a
r ough
s ĠareĠ
Ġ or
Ġ us
on g
ĠtheĠ f
it eĠ
es ĠandĠ
Ġc om
ver yĠ
pl ac
eĠth eĠ
oul der
per i
par t
0 0
f ic
f ul
g o
g et
i re
p o
r a
s o
y Ġs
y ĠandĠ
Ġ it
Ġ ch
Ġt ak
in v
Ġs o
ingĠ room
Ġc ell
ed ,
Ġg r
os tĠ
Ġand ĠtheĠ
igh t
.. .
! !
c c
e an
h ea
y ĠtheĠ
y ,Ġ
eĠ in
Ġth ereĠ
th eĠ
lo veĠ
Ġh op
ow n
we ll
we ek
oo dĠ
lit ter
ĠsaidĠ count
cordĠ bloodĠ
a us
c i
c an
r u
r an
eĠ you
Ġa p
it yĠ
es .Ġ
you Ġcan
as tĠ
am p
âĢ ĵ
Ġi tĠ
ig n
Ġal soĠ
ap p
Ġthe yĠ
Ġsh all
tl eĠ
ever y
comm ission
Ġme ig
, Ġa
. Ġs
d ition
e yĠ
l eas
l ik
m an
p os
r al
Ġ (
Ġ res
Ġ up
sĠ re
sĠ for
Ġs e
ar m
ar t
is h
ec ial
ic k
ic ation
edĠ in
Ġw ill
Ġf r
id eĠ
if Ġyou
fr i
! ĠthankĠyou
c it
c our
d ayĠ
f ter
g litter
h ol
l a
p res
t t
u ll
w asĠ
y .Ġ
y ĠtoĠ
ð Ł
Ġt w
Ġa Ġl
Ġth rough
ou sĠ
er s
en jo
ĠtheĠ m
ing ĠtoĠ
at edĠ
th ingĠ
lo g
Ġd o
am eĠ
and ma
ea ut
wh en
con t
oo k
from ĠtheĠ
yĠc our
Ġpro gram
eo pl
org an
inv it
fri end
eaut if
' tĠ
m in
m oreĠ
o v
s u
Ġ v
Ġ is
Ġ ne
Ġt en
Ġa Ġf
Ġth os
ou ch
or r
en g
ĠtheĠ b
ĠtheĠ count
re eĠ
ing Ġs
.Ġ beĠ
,Ġ i
es sĠ
Ġw eĠ
ro w
em ber
il d
oun dĠ
ha pp
ea ch
up er
sh oulder
blo g
Ġcon t
gres sĠ
Ġfr om
eautif ul
c re
c al
c ation
c ard
e al
f e
i p
i ver
m on
m entĠ
n ot
o ll
s ĠthatĠ
t en
y s
eĠ a
Ġt abl
Ġa fter
Ġth is
en act
at e
Ġan yĠ
ar g
,Ġ wh
as s
Ġp re
el p
st or
am il
em ent
ir s
ha sĠ
itĠ enact
oo d
co ll
ust ral
Ġo ther
ection Ġ
ðŁ Ļ
.ĠbeĠ itĠenact
) .
b utĠ
h om
i o
i er
i entĠ
l u
l iv
s Ġto
t on
t ingĠ
u re
eĠ of
Ġa g
er c
ĠtheĠ t
Ġs uch
Ġs orr
yĠ w
ar dĠ
,Ġ in
th Ġprogram
lo s
Ġh omeĠ
Ġh app
st em
Ġb e
Ġd ay
em pl
ur n
Ġg u
Ġg reatĠ
ex p
âĢĻ m
op en
pr int
Ġj o
ĠsoĠ much
,Ġb utĠ
dec or
form ation
commission er
enjo y
.ĠbeĠitĠenact ed,
' reĠ
a el
b yĠ
b ank
c e
c er
c all
c ap
e :
e .ĠtheĠ
h ear
j ustĠ
k now
m ostĠ
p a
u g
Ġ -
Ġ y
Ġ year
Ġth an
Ġs we
re g
ing sĠ
an s
.Ġ h
.Ġ you
.Ġ weĠ
ĠandĠ s
for Ġm
Ġc ount
Ġm ad
ed Ġa
ed Ġto
Ġp r
edĠ for
ur r
ex peri
eĠs oĠ
ess ion
ew arm
Ġj ustĠ
ich ael
Ġat t
iesĠ of
Ġthes eĠ
cc ess
Ġap pl
ustral ia
ewarm ingĠ
' veĠ
; ĠandĠ
b or
b il
c enter
d oĠ
e ek
f in
f un
i ec
i ĠhaveĠ
n oĠ
n am
o st
p it
s ,ĠandĠ
s .ĠtheĠ
t ion
u sĠ
v is
z y
Ġa Ġs
Ġa Ġb
in u
Ġth er
Ġth isĠa
ou p
er al
or t
en dĠ
it ies
yĠ invit
ing ,Ġ
at or
at ch
Ġan Ġ
ar k
of Ġw
,Ġ h
ingĠ in
ingĠ with
lo w
lo ok
Ġm ichael
ec k
ec aus
isĠ b
Ġp l
Ġp eopl
ĠtoĠ beĠ
Ġd is
em entĠ
Ġyou thĠprogram
âĢ ľ
âĢ Ŀ
Ġto o
us eĠ
ation al
Ġof fic
id eb
ne ed
ul ar
ear n
âĢĻ tĠ
ha v
gr ap
ea k
Ġin t
con st
e.Ġ i
sh op
ev en
ust ic
yĠof Ġmeig
Ġtr ans
edĠb yĠ
hous ewarmingĠ
ĠaboutĠ your
Ġcom m
pos s
Ġten n
ðŁĻ Ĥ
ideb ook
, ĠtheĠ
, Ġs
, Ġand
a Ġs
a veĠ
a Ġf
a ir
b o
b eĠs
b ut
c reat
d on
d is
d if
e ep
f re
g e
g u
g reat
h igh
h elp
i qu
i bl
l at
m ask
n er
o grap
r en
r yĠ
r act
s !
s p
s omeĠ
v ent
Ġ qu
Ġ oneĠ
eĠ l
eĠ with
Ġa c
Ġa pp
in tĠ
tĠ with
on e
ĠtheĠ p
yĠ m
ing ĠandĠ
Ġan y
th Ġ
ch as
ingĠ l
Ġm oreĠ
Ġp ain
edĠ with
Ġw ork
Ġw ouldĠ
Ġd in
âĢ Ķ
Ġto p
pl ay
ur chas
ation Ġof
im pl
Ġar ound
ear ch
âĢĻ ll
if ic
eĠth isĠ
ut ion
pro ofĠw
Ġlo tĠof
count yĠcour
eas on
ĠtheĠs aidĠ
ĠtheĠs ameĠ
per t
ĠasĠ well
Ġsp ecial
ev ent
new ĠyouthĠprogram
ri end
Ġas k
ound proofĠw
ff ect
Ġr hea
Ġad dition
ind ow
din ingĠroom
part yĠinvit
Ġhop eĠyou
ĠsaidĠcount y
every thingĠ
Ġtw oĠ
Ġcont inu
irs tĠ
empl ateĠ
oundproofĠw indow
, Ġshall
. Ġst
. ĠthisĠ
1 0
8 8
a w
c los
e er
e am
g l
g er
g reatĠ
i ent
j ect
l and
n âĢĻtĠ
o ber
o ck
p hot
s it
t ain
u b
u ild
w w
w or
Ġ ro
Ġ new
Ġ ðŁĻĤ
eĠ f
Ġt our
Ġa Ġm
Ġth ink
Ġth ingsĠ
er v
on Ġa
ĠtheĠ n
ĠtheĠ shoulder
re w
re ad
re view
it sĠ
it âĢĻsĠ
at esĠ
at ell
at iveĠ
.Ġ w
.Ġ ifĠyou
is eĠ
om e
ch eck
lo v
ed ĠandĠ
Ġp ar
Ġh ous
Ġw as
Ġw eek
el y
Ġd ec
et t
all y
ur eĠ
res h
ma d
ma yĠ
ma int
un t
un der
ne x
ex cit
gr andma
gr oup
com pl
iv ateĠ
ol d
ol or
eĠth atĠ
ist r
Ġre g
qu al
qu ire
Ġal ask
Ġal so
Ġfor ĠtheĠ
Ġthe y
Ġsh ar
ak eĠ
ct or
ct ion
sĠof ĠtheĠ
!Ġi ĠloveĠ
Ġo ver
will ĠbeĠ
Ġam and
comm un
Ġex peri
christ m
Ġwh ich
Ġtim eĠ
Ġk now
Ġsc out
Ġso Ġsorr
Ġcell sĠ
week end
ran ch
organ iz
hasĠ been
Ġappl ication
housewarmingĠ partyĠinvit
! Ġh
' sĠa
. Ġa
1 1
a u
a ch
b as
b ack
c es
c ent
c urr
d ur
e -
e eĠ
e ,ĠandĠ
f l
g iv
h o
h ar
i an
i um
l ong
n or
n ic
r ightĠ
s uch
u res
w on
y l
y n
Ġ en
Ġ out
Ġ christmasĠ
Ġ âĢĵ
Ġ each
eĠ isĠ
eĠ glitter
Ġt ouch
in ter
Ġth en
Ġth ough
sĠ with
er ic
tĠ b
tĠ in
or eĠth
en eral
re t
it yĠof
an n
an tĠ
at er
at ingĠ
at ed
oĠ d
,Ġ m
you ĠareĠ
ĠandĠ m
th atĠ
ch ed
ingĠ p
ingĠ of
ingĠ for
lo cation
as h
Ġc l
ec tĠ
ed ĠtheĠ
ed ical
Ġp er
Ġp at
Ġh om
Ġw eb
el iz
st r
Ġb ab
Ġd i
Ġd on
et sĠ
Ġto Ġs
all eng
Ġf riend
Ġi f
Ġi Ġam
ay s.Ġ
Ġg et
Ġg reat
id e
with ĠtheĠ
Ġst at
Ġst em
Ġst ud
Ġst amp
âĢĻ veĠ
âĢĻ reĠ
eĠs p
op port
Ġin Ġ
we 'reĠ
ist or
con gressĠ
Ġal way
Ġlo v
Ġlo ok
int oĠ
Ġsh areĠ
Ġall ow
ct ober
um ber
!Ġi âĢĻm
ag eĠ
ri ver
ĠhaveĠ a
Ġcon gressĠ
Ġon lin
cl ud
cl ean
eĠb ot
Ġas s
av ail
ity ĠtoĠ
edĠb yĠtheĠ
pre tt
po st
.Ġs ectionĠ
Ġse eĠ
yĠtoĠ hear
ĠaĠl it
mon th
.ĠbeĠitĠenacted, Ġthat
ĠaboutĠyour Ġgr
dif fer
unt il
nex tĠ
christm as
ched ul
opport un
! ĠweĠ
. "
1 8
4 0
a ff
b a
b y
b ecaus
c ell
c aus
d r
d .Ġ
d es
d ef
d own
d rew
e ightĠ
f ar
f ast
f ull
f resh
g in
g re
g row
h al
h as
h isĠ
i or
i etĠ
i Ġam
i ousĠ
j ust
l eĠ
l am
l astĠ
m e
m er
m ium
n es
n ess
o log
p h
p ay
p ect
p urchas
r it
r is
r un
s c
s e
s ĠtheĠ
s id
s ideĠ
s eason
u eĠ
u ff
v en
y 'sĠ
y stem
Ġ ...
eĠ con
Ġt eam
Ġa Ġc
in s
in eĠbot
en anceĠ
ĠtheĠ pro
Ġs it
Ġs omeĠ
Ġs ectionĠ
re as
re ak
it ch
yĠ b
ing Ġtabl
at ur
al ys
ar en
ar yĠ
of ession
,Ġ you
es .
es omeĠ
is her
om ent
ch air
ingĠ her
lo p
lo t
Ġc or
ec ur
edĠ forĠtheĠ
Ġw asĠ
Ġw ant
el iver
Ġb utĠ
em ail
et ter
esĠ fre
our ne
Ġf in
ur yĠ
eĠt emplateĠ
id ea
res s
ir st
ha dĠ
ter n
gr and
com p
os pit
Ġin ĠtheĠ
Ġand Ġt
Ġre view
abl eĠto
fr on
wh atĠ
wh ereĠ
wh ich
con gres
outĠ group
Ġsh eĠ
Ġsh oulder
pr ic
Ġab out
Ġsp ac
ev e
cor d
ust om
Ġwith Ġyou
will Ġb
bl em
Ġwh en
do or
edĠb y
du ct
mak esĠ
ableĠ for
day ,Ġ
ink fresh
hot el
anceĠ of
shall Ġb
how ever
po ol
cordĠbloodĠ bank
!ĠthankĠyou ĠsoĠmuch
ers on
su ccess
happ yĠ
eal th
ate hous
,Ġwh ich
yĠw ineĠbot
print abl
call edĠ
Ġswe etĠ
experi enc
nam ent
vis it
zy dec
Ġther e
ĠthisĠa ct
Ġtoo !
Ġcomm un
beĠs ur
ge ther
mask sĠ
ograp h
atell it
Ġpar tĠof
istr ation
Ġamand a
oreĠth an
yĠtoĠhear ĠaboutĠyourĠgr
drew Ġmichael
esĠfre eĠtemplateĠ
ospit al
inkfresh Ġstud
! Ġyour
' t
, "
- up
1 9
1 00
; Ġth
; Ġand
a f
a h
b r
b in
b od
c ar
c and
d ic
d edĠ
e thĠ
f ect
f amil
f irstĠ
g etĠ
g oodĠ
g eneral
g atehous
h ealth
i x
i Ã
i at
i bil
j am
l if
l ea
m al
m all
m other
m atch
n on
n 'tĠ
o sĠ
o ĠtheĠ
o veĠ
o int
p in
p ec
p utĠ
p iec
r ustic
s on
s el
s !Ġi
s ection
s eat
s eyĠ
s cap
t y
t ,Ġ
u bl
u cation
v ail
w .
w n
w ayĠ
w ereĠ
y Ġst
³ n
Ġ $
Ġ el
Ġ notĠ
Ġ veryĠ
eĠ and
Ġt reeĠ
Ġa Ġlo
Ġa ct
in ĠtheĠs
in clud
sĠ &
sĠ on
sĠ over
ou th
er Ġm
er Ġl
on d
on dĠ
on or
or sĠin
en ef
Ġs et
Ġs uper
re leas
it 'sĠ
it ution
ing Ġto
ing ĠthisĠ
ing Ġall
ing Ġtheir
an sĠ
an tl
Ġan g
Ġan alys
al k
al way
.Ġ "
.Ġ our
.Ġ itĠ
.Ġ myĠ
of Ġc
,Ġ d
es Ġa
es ,Ġ
is ĠtheĠ
is ion
is ter
th or
ll ar
ingĠ m
ingĠ on
ingĠ itĠ
Ġc oun
Ġm ar
Ġm ember
ec ess
ec olog
ic Ġs
ed ucation
isĠ s
Ġp hot
Ġp art
Ġp ort
edĠ up
Ġh as
Ġh istor
ĠtoĠ m
el gr
el com
st ar
st amp
st ock
Ġb uild
ent al
Ġd r
Ġd es
em bl
Ġto day
il it
us in
Ġf un
Ġi d
ay ,Ġ
ab ethĠ
Ġg lam
res ult
im port
ma z
ma il
ul tĠ
Ġar oundĠ
Ġst ar
and mother
gr oundĠ
iv e,Ġ
ut eĠ
pro ject
pro duct
Ġin ter
ĠthisĠ isĠ
wh it
ĠthatĠ i
beĠ a
qu ick
end edĠ
Ġfor tĠb
ap er
your Ġf
eas elgr
Ġha v
der ful
tĠof Ġmeig
oul d
oneĠ of
be for
ev entĠ
par tĠof
ri p
cor por
sĠin ĠfortĠb
yĠof ĠtheĠ
Ġo ctober
weĠ haveĠ
soĠ much
.Ġi ĠloveĠ
Ġtr ack
Ġtheir Ġs
bloo d
do es
Ġn ot
lit tleĠ
ity ,Ġ
enc e.Ġ
ition al
ĠthankĠyou ĠsoĠmuch
Ġsc outĠgroup
enter tain
prov id
prov ideĠ
part ic
Ġch ild
Ġch alleng
ĠsaidĠcount yĠofĠmeig
ci ateĠ
can ĠbeĠ
ru g
ran g
astĠ f
commission ersĠ
man ag
Ġres earch
Ġup d
cour tĠ
pres ent
ĠtheĠcount yĠcour
blog Ġfriend
cre ateĠ
card stock
fe el
oll ow
Ġpre mium
coll ection
Ġag ain
Ġhapp yĠ
Ġgu idebook
.ĠbeĠitĠenacted, ĠthatĠ
Ġy ork
Ġswe et
Ġcount yĠ
experi enceĠ
Ġatt ract
;ĠandĠ shall
Ġdis eas
hav ingĠa
Ġint oĠ
gu idebook
lat enc
Ġdin ingĠroom
oundproofĠwindow sĠinĠfortĠb
phot oĠ
ĠtheĠshoulder Ġjo
.ĠifĠyou ĠareĠ
Ġdec or
compl et
Ġalask a
housewarmingĠpartyĠinvit esĠfreeĠtemplateĠ
eliz abethĠ
Ġbab y'sĠ
Ġass embl
ĠaĠlit tleĠ
differ entĠ
ofession al
esomeĠ review
eve lop
success orsĠin
istration Ġguidebook
;Ġth enceĠ
iÃ ³n
easelgr aveĠ
oundproofĠwindowsĠinĠfortĠb ranch
elizabethĠ ell
successorsĠin Ġoffic
! Ġw
! ĠsoĠ
! ĠhopeĠyou
' ll
' har
, Ġtoo!
- t
- and
. ĠandĠ
1 5
2 1
3 0
6 6
a x
a re
a Ġb
a id
a int
b all
b ur
b eĠt
b ig
b est
b reak
c tĠ
c el
c us
c min
d ut
d oneĠ
d ies
d evelop
f a
f Ġof
f eat
f reeĠ
f lu
f isher
f irst
g n
g ment
g org
g Ġpeopl
h sĠ
i oĠ
i ber
i ĠloveĠ
i allyĠ
i ĠwouldĠ
j or
k eep
l aidĠ
l ack
l ight
l earn
m et
m ark
n ect
n ational
n gĠpeopl
o dĠ
o ic
p s
p at
p ingĠ
p op
p eopl
r ic
r ul
s eĠ
s Ġt
s om
s ol
s up
s e,Ġ
s ĠandĠtheĠ
s Ġaround
s ecur
t ing
t oĠ
t ra
t ator
u k
u il
u thor
v al
v id
v ol
w a
w er
w at
w ouldĠ
w oodĠ
w ood
y et
Ġ &
Ġ :
Ġ e
Ġ isĠa
eĠ your
eĠ isĠa
eĠ asĠ
Ġt u
Ġt er
Ġt all
Ġt ableĠ
Ġt urn
Ġa Ġ
Ġa Ġh
Ġa sĠa
Ġa part
Ġa ccess
Ġa ustralia
Ġa maz
in it
in Ġf
in ceĠ
sĠ h
sĠ p
sĠ s
sĠ fromĠtheĠ
er ryĠ
dĠ ofĠtheĠ
tĠ d
on th
on ly
or sĠ
or ies
en Ġin
ĠtheĠ am
Ġs up
Ġs etĠ
Ġs ign
re m
re dĠ
re qu
re allyĠ
it l
it edĠ
it Ġall
ing .
ing ĠtoĠtheĠ
at el
Ġan n
Ġan other
.Ġ b
.Ġ f
.Ġ it
.Ġ youĠcan
of f
,Ġ re
,Ġ with
,Ġ youĠcan
,Ġ until
es ĠareĠ
es pec
is tĠ
is tĠof
you ĠhaveĠ
you 'reĠ
ĠandĠ i
th ,Ġ
th os
ch arg
ingĠ your
ingĠ from
for t
lo c
lo ad
as on
Ġc re
Ġc oll
Ġc olor
Ġm an
Ġm ill
Ġm ak
Ġm ayĠ
ec os
ic Ġin
ic ientĠ
ed d
ed g
ed ic
ed Ġat
isĠ notĠ
Ġp al
Ġp ass
edĠ when
Ġh isĠ
Ġh ad
Ġh ereĠ
Ġh elp
Ġh onor
ro ck
ĠtoĠ pre
el ect
el ection
st at
st yl
Ġb y
Ġb ot
Ġb ack
Ġb yĠtheĠ
Ġb log
ent ial
ent ly
Ġd e
Ġd id
am pl
em on
et .
et we
ver y
esĠ on
esĠ with
il ver
us cl
Ġf an
Ġf ast
Ġi m
ay sĠtheĠ
ation Ġt
eĠt w
eĠt our
Ġof Ġ
ow er
Ġg o
Ġg ot
Ġg etĠ
Ġg oodĠ
Ġg row
id entĠ
ne ver
ir th
Ġar t
Ġst r
Ġst and
Ġst ill
Ġst ep
ex pl
ear lyĠ
ha d
gr av
gr ound
Ġl ea
Ġl ik
Ġl ink
iv id
iv ity
iv elyĠ
ol dĠ
op er
eĠth eĠs
eĠth eĠd
eĠth rough
eĠth eyĠ
ut ur
pro c
pro blem
Ġin formation
ĠthisĠ c
ĠthisĠ year
ĠthisĠ week
itĠ isĠ
Ġre l
Ġre p
Ġre allyĠ
Ġre cent
Ġre ason
wh oĠ
wh il
ĠthatĠ isĠ
ad itional
qu iteĠ
qu ietĠ
con dition
con cer
e.Ġ youĠcan
Ġal co
sh ouldĠ
your ĠhomeĠ
sĠa t
sĠa ustralia
Ġsh ouldĠ
pr om
pr iv
ĠtheĠs p
s.Ġ i
ess Ġthan
per fect
um an
um Ġof
ĠasĠ you
be gin
Ġsp ort
ĠsoĠ excit
par k
new Ġyork
ri but
eĠm an
est ion
act or
ep t
reat ment
yĠc an
yĠc ard
weĠ areĠ
Ġon ĠtheĠ
comm end
Ġex cit
do ctor
do llar
Ġn oĠ
av or
lit tl
iesĠ in
Ġk eep
Ġme an
over n
Ġad v
cordĠ blood
port al
ĠatĠ leas
work shop
ĠaĠp r
Ġthem sel
edĠtoĠ beĠ
mak eĠ
mak ingĠ
ud gment
estĠ qual
ens ation
od g
Ġcom pl
plac eĠtoĠ
00 0
go v
go ingĠtoĠ
get tingĠ
ire ct
ra f
Ġit âĢĻsĠ
ĠthereĠ is
loveĠ theĠ
ru ct
ran s
Ġwill ĠbeĠ
cour t
log ical
friend ly
Ġv ide
Ġne edĠtoĠ
ĠaĠf ew
Ġthos eĠ
blog Ġhop
stor edĠ
ement ation
irs tĠof
coll ect
io logical
ientĠ portal
erc is
ĠtheĠt im
stem ĠcellsĠ
Ġgu y
exp ect
,ĠbutĠ i
commissioner s,
ce iv
pa int
ug al
Ġ- -
ĠjustĠ loveĠ
iesĠof Ġrhea
bor n
const ru
const itution
poss ibil
dis eas
iqu eĠ
Ġapp re
Ġapp oint
one y
Ġwork shop
ĠasĠwell ĠasĠ
oundproofĠwindow Ġguy
88 8
ww w.
wor l
mayĠ beĠ
maint enanceĠ
Ġthey ĠareĠ
commun ityĠ
Ġexperi enc
Ġscout sĠaustralia
ĠsoĠsorr yĠtoĠhearĠaboutĠyourĠgr
11 3
au gh
curr entĠ
eeĠ river
fl or
nor mal
won derful
ĠchristmasĠ decor
Ġweb sit
ays.Ġ "
Ġstem Ġcell
âĢĻreĠ havingĠa
eĠsp ecial
Ġalway sĠ
Ġonlin eĠ
def init
gre en
pay ableĠto
itch en
Ġfin dĠ
fron tĠ
Ġshoulder Ġpain
yĠwineĠbot tleĠ
zydec oĠd
inkfreshĠstud io
seyĠ hous
outh Ġof
Ġang el
Ġport ugal
Ġbuild ing
usin ess
endedĠ constitution
commissionersĠ shall
easelgraveĠ s
oundproofĠwindowsĠinĠfortĠbranch ,Ġin
'har aĠs
66 9
cmin n
gorg e
hsĠ cordĠbloodĠbank
Ġmill ion
ecos ystem
etwe en
grav atedĠ
Ġrecent lyĠ
concer n
Ġalco hol
Ġthemsel v
ĠsoĠsorryĠtoĠhearĠaboutĠyourĠgr andma
! Ġyou
! ĠloveĠ
! Ġhapp
& b
' m
, Ġto
, ĠthatĠ
, ĠsoĠ
, ĠandĠtheĠ
, Ġamanda
- s
- lik
. ĠsoĠ
. gov
/ or
1 2
1 4
2 4
2 6
6 0
; Ġwhich
; ĠbutĠ
a a
a z
a dĠ
a Ġc
a Ġm
a em
a ur
a Ġn
b &b
c ed
c ir
c ut
c ean
c rip
c identĠ
d e
d i
d om
d am
d ist
d leĠ
d eliver
d irect
d augh
e y
e 'sĠ
e es.Ġ
f o
f ed
f ill
f iveĠ
f ollow
f avor
g yĠ
g oĠ
g ar
g ot
g ood
g old
g overn
h e
h i
h ereĠ
h ind
h ospital
i am
i ous
i ev
j ourne
k in
k itchen
l ef
l ier
m o
m y
m eo
m od
m ission
m ean
m ov
m oreĠthan
n umber
n ba
n 't
n hsĠcordĠbloodĠbank
o b
o pl
o id
p ol
p ain
q âĢĻsĠ
r y
r at
r app
s :
s Ġar
s ult
s ci
t e
t sĠof
t ures
u al
v ir
w in
w im
w ant
w estĠ
w ish
w iseĠ
x im
y .
y ch
y etĠ
y ĠaboutĠ
y -and
y opl
z en
Ġ un
Ġ no
Ġ room
Ġ open
Ġ âĢľ
Ġ even
Ġ âĢĶ
Ġ everythingĠ
Ġ christmas
Ġ earlyĠ
eĠ ar
eĠ our
eĠ forĠtheĠ
Ġt on
Ġt ax
Ġa w
Ġa Ġth
Ġa Ġw
Ġa ĠgreatĠ
Ġa ffect
Ġa Ġnew
in -
in n
in Ġour
in formation
in ĠthisĠa
sĠ b
sĠ or
sĠ us
sĠ so
sĠ can
er Ġs
er s,Ġ
er ,ĠandĠ
dĠ bloodĠ
tĠ p
tĠ co
on Ġs
on Ġc
on ment
on lyĠ
on lin
or m
or din
or nament
en ities
ĠtheĠ ch
ĠtheĠ new
ĠtheĠ commissioner
Ġs er
Ġs pr
Ġs ever
Ġs eat
Ġs impl
Ġs eason
Ġs atellit
re d
re l
re al
re st
re congressĠ
re commend
it Ġa
it eĠd
yĠ is
yĠ for
yĠ haveĠ
ing ?
ing erĠl
an g
at ing
at es
at aĠs
al Ġd
al ask
al Ġinformation
.Ġ j
.Ġ in
.Ġ oneĠ
.Ġ photoĠ
ar i
ar il
ar ter
of Ġ
of fer
of fic
of fe
,Ġ res
,Ġ no
,Ġ moreĠ
,Ġ not
es ,
is ,
is m
is Ġall
you ngĠpeopl
ĠandĠ b
th en
th eĠs
th yopl
ch er
ch eer
ingĠ b
for Ġp
for Ġtheir
Ġc er
Ġc reat
Ġc urr
Ġc uff
Ġc offe
Ġm y
Ġm et
Ġm id
Ġm oreĠthan
Ġm uscl
ec ific
ec ond
ic Ġf
ic allyĠ
ic ally
ic Ġbuilding
ed ĠthatĠ
ed Ġas
ed back
isĠ on
Ġp h
Ġp o
Ġp ay
Ġp res
Ġp urchas
Ġp ower
edĠ s
edĠ of
edĠ out
edĠ cell
Ġh er
Ġh our
Ġh im
Ġh ea
Ġh eightĠ
Ġh ospital
Ġw ood
Ġw elcom
ro s
ro du
ro zen
el b
el f
el yĠandĠ
st ,Ġ
st ateĠ
st ate
st aff
Ġb o
Ġb eautiful
Ġb lack
ent ion
ent im
Ġd el
Ġd ur
Ġd ayĠ
Ġd eat
am ag
em ic
em por
Ġyou Ġus
âĢ ĺ
atĠ of
Ġto oĠ
Ġto ĠtheĠs
Ġto Ġsp
Ġto ok
Ġto wn
all icĠs
pl in
pl ies
pl ant
esĠ (
esĠ in
esĠ will
our Ġ
our Ġc
il dĠ
us ,
Ġf e
Ġf re
Ġf our
Ġf ind
Ġf ingerĠl
Ġi Ġwant
ur s
ac eĠ
ation sĠ
ation .Ġ
eĠt im
eĠt op
eĠt ak
eĠt ouch
Ġof Ġc
Ġof Ġyour
Ġof fer
Ġof ĠsaidĠcounty
ab il
ab outĠ
ab out
Ġg litter
id ayĠ
id ay,Ġ
id emic
res tĠof
im at
ma jor
un g
un eĠ
ne ar
ne igh
ul ation
Ġar rang
Ġst or
Ġst ress
Ġst ruct
and sĠof
ear ,Ġ
eĠs eat
if Ġi
if ication
ter ĠheightĠ
gr andĠ
com ingĠ
com pos
com bin
Ġl in
Ġl it
Ġl and
Ġl iv
ol v
op ha
op eĠyou
op tion
eĠth er
eĠth es
eĠth eĠt
eĠth eĠb
entĠ of
os tĠof
ut opha
pro veĠ
pro gram
pro pert
pro xim
Ġin Ġm
ot ential
we et
ĠthisĠ isĠa
ĠthisĠ plac
ĠthisĠ month
ĠthisĠ state
itĠ of
Ġand Ġall
Ġand Ġad
Ġand Ġthen
Ġre t
Ġre leas
Ġre quire
Ġre present
abl eĠtoĠ
fr iday,Ġ
wh er
ĠthatĠ w
beĠ mail
ad v
ad ies
ad vent
ad dedĠ
qu arter
con sid
Ġal ong
Ġal mostĠ
Ġal read
sh eĠ
sh ip
Ġfor Ġ
Ġfor Ġm
Ġfor Ġshar
Ġlo s
Ġlo cal
ap an
ap ersĠ
outĠ myĠ
your Ġbaby'sĠ
s,Ġ for
s,Ġ workshop
Ġthe yĠcan
e,Ġ which
int o
int rodu
sĠa tĠ
Ġsh ow
ak er
ak esĠ
eas y
eas tĠ
pr ivateĠ
pr ior
pr ofessional
Ġall Ġyour
idĠ wat
ĠtheĠs am
s.Ġ ifĠyou
Ġha dĠ
oneĠ andĠ
ank ton
per form
per son
um p
um bil
Ġj udgment
Ġj apan
be ingĠ
Ġyour Ġf
Ġyour Ġgr
Ġab sol
Ġsp ect
Ġsp ot
Ġsp ecific
!Ġi Ġam
no aa
co d
co st
co zy
eĠd o
eĠd in
isĠa ustralia
year Ġi
sĠin Ġportugal
yĠof fer
yĠof Ġrhea
from Ġ
ever yĠ
Ġo 'haraĠs
est im
Ġwith outĠ
ep end
ep idemic
ies ,Ġ
her e!
will ĠhaveĠ
will Ġcontinu
Ġam eric
Ġcon gres
e. ĠandĠ
ial Ġsweet
s, Ġsp
s, ĠandĠtheĠ
iveĠ th
vi ousĠ
Ġpro vid
Ġex ampl
Ġtr ueĠ
Ġas ĠtheyĠ
Ġwh at
Ġwh oĠ
Ġwh il
Ġn umber
Ġtim eĠto
iesĠ sci
ff y-and
myĠ grandma
ment ĠandĠ
Ġr ustic
Ġme et
eb r
s. ĠthereĠ
s. ĠsectionĠ
sĠtoĠ beĠ
,Ġb ut
ical Ġcor
du ffy-and
work ingĠwith
ĠaĠp re
ĠaĠp at
enceĠ center
ĠofĠtheĠ countyĠcour
ĠofĠtheĠ newĠyouthĠprogram
christma sĠinĠportugal
aĠ new
aĠ âĢĵ
aĠ event
ens ur
ens iveĠ
e, ĠasĠ
din ingĠtabl
esĠandĠ successorsĠinĠoffic
go ingĠ
ire dĠ
po or
ra is
Ġtak eĠa
Ġgr ac
own er
own load
cordĠbloodĠ collection
ci plin
Ġap prov
ityĠ for
ĠitĠ com
ĠtheyĠ doĠ
man yĠ
Ġse eĠtheĠ
cit iz
cour s
hol d
la w
pres entĠ
ĠaĠl arg
Ġdo esĠ
cont ain
cont ribut
friend lyĠ
Ġis Ġan
Ġthos eĠglitter
eng ag
ĠtheĠcount yĠofĠmeig
ember Ġ
each Ġb
shoulder Ġpain
iver s
mentĠ of
not e:
sĠthatĠ i
ten ness
ys ical
ate g
ĠanyĠ other
ðŁĻ ģ
hom eĠtour
Ġag gravatedĠ
erc ial
erc olor
Ġsuch ĠasĠ
Ġbe hind
exp end
exp ens
print ableĠ
enjoy edĠ
enjoy sĠa
byĠ d
e: Ġ
Ġy es
reg istrationĠguidebook
.Ġh i
.ĠweĠ haveĠ
Ġcount iesĠin
Ġpr ic
eĠsoĠ constru
'veĠ been
'veĠ creat
ĠaĠb ig
Ġther ap
Ġmichael Ġk
isĠb eautiful
earn ing
eak ers
poss ibl
Ġtenn isĠaustralia
aĠf ew
bo x
help ful
iqu idĠwat
ibl eĠ
ograp her
vent ion
Ġtop ic
impl ementation
âĢĻll ĠseeĠ
ific ialĠsweet
ĠlotĠof Ġm
countyĠcour t
ĠtheĠsaidĠ count
ĠtheĠsaidĠ commissionersĠshall
,Ġshall ĠbeĠ
.Ġst ill
aw esomeĠreview
land scap
wor d
ĠðŁĻĤ ĠhopeĠyou
ome oneĠ
lov ely
Ġhous e.Ġ
ett i
ureĠ begin
quire dĠ
Ġalso ĠtheĠ
ĠforĠtheĠ awesomeĠreview
Ġexperi enceĠ
organiz m
bas edĠ
dur ingĠtheĠ
giv en
Ġthough tĠ
ret ch
ater ial
youĠareĠ enjoy
ingĠp aper
Ġcl ass
Ġper form
Ġdi eĠs
Ġdon 'tĠ
Ġif Ġyou
ĠinĠ earning
Ġlov elyĠ
avail ableĠfor
prett y
prett yĠ
nextĠ year
chedul e,
opportun ityĠtoĠ
becaus eĠ
hal seyĠhous
run ner
ĠtheĠpro gram
Ġsit tingĠ
yĠb ear
email ing
hadĠ been
day,Ġ friend
shallĠb eĠtheĠd
ĠsweetĠ word
beĠsur eĠto
drewĠmichael ĠandĠ
!Ġyour ĠhomeĠ
cand l
general Ġassembl
osĠ en
rustic Ġglam
ubl icĠbuilding
vail ableĠfor
ondĠ with
enef itĠ
antl yĠ
Ġcoun terĠheightĠ
edĠup on
ilit ar
Ġid eas
Ġstar Ġ
beĠa ĠpartĠof
Ġoctober Ġ
partic ip
Ġchild ren
Ġupd atedĠ
blogĠfriend s!
ĠhappyĠ friday,Ġ
ĠtheĠshoulderĠjo int
elizabethĠell is
bur ger
cel ebr
dut iesĠ
fa ith
iber -lik
tator Ġcuff
wood en
Ġapart mentĠ
erryĠ christmas
atel y,Ġ
Ġann oun
espec iallyĠ
edd yĠbear
edĠat ĠtheĠ
Ġpass edĠa
stat ist
Ġby ĠthisĠact
Ġfast ingĠ
eĠtw oĠ
ĠthisĠc ardĠ
Ġadv anc
ĠaĠpr ivateĠ
Ġvide oĠ
iesĠofĠrhea ĠandĠ
Ġappre ciateĠ
flor al
ĠstemĠcell Ġtrans
âĢĻreĠhavingĠa ĠgreatĠ
definit elyĠ
easelgraveĠs aysĠtheĠ
Ġthemselv esĠandĠsuccessorsĠinĠoffic
14 7
aem ia
cir c
cean ograph
crip tion
dam ental
direct ly
daugh ter
fed eral
hospital ityĠ
rapp ingĠpaper
vir onment
tĠco co
alĠinformation ĠaboutĠ
thyopl ankton
Ġmet allicĠs
Ġdeat h
ĠfingerĠl akesĠ
neigh bor
advent ureĠbegin
consid er
umbil icalĠcor
noaa .gov
Ġameric a
iesĠsci enceĠcenter
duffy-and erson
ĠtheĠcountyĠofĠmeig s,Ġ
tenness eeĠriver
eĠsoĠconstru edĠas
iquidĠwat ercolor
ificialĠsweet en
shallĠbeĠtheĠd ut
adventureĠbegin sĠ
! Ġa
! ĠtheĠ
! Ġthank
! ĠmyĠ
! ĠgreatĠ
! ĠðŁĻĤ
! Ġamanda
! ĠthoseĠ
" weĠ
% Ġof
& Ġb
( ph
) ,
+ Ġc
, ĠasĠ
, ĠtoĠtheĠ
, ĠtoĠbeĠ
, âĢĿ
, ĠthankĠyouĠsoĠmuch
- l
- o
- courtĠ
- styl
- basedĠ
. ĠtoĠ
. ĠtheĠs
. ĠaĠp
. ĠsheĠ
. ĠthereĠis
1 7
2 40
3 4
4 8
5 9
5 00
5 26
; Ġprovid
? !
? Ġi
@ noaa.gov
a j
a ĠandĠ
a Ġd
a Ġwith
a Ġon
a fter
a ffect
a qâĢĻsĠ
b an
b al
b es
b ro
b el
b ay
b and
b ill
b entĠ
b ound
b estĠ
b yĠtheĠ
b ook
b etter
b uil
c r
c lo
c il
c oun
c iv
c entĠ
c ess
c um
c ep
c ouldĠ
c anc
c ostĠ
c ouch
c ure
c ash
c ustom
c raf
c ĠcounterĠheightĠ
d v
d ĠandĠ
d ingĠ
d el
d et
d abl
d est
d ivid
e ?
e g
e h
e of
e ch
e qu
e e,
e hol
e qual
e !ĠiĠloveĠ
f at
f ur
f ew
f ereĠ
f oodĠ
f astĠ
f ,Ġi
f ansĠ
f utur
f etti
f iber-lik
g y
g lo
g ro
g ateĠ
g oneĠ
g ain
g ard
g oldĠ
h d
h n
h t
h an
h our
h un
h iv
h ard
h amil
i Ġm
i edĠ
i el
i et
i eĠm
i enc
i Ġwill
i Ġwas
j ur
j ack
j ail
j ectĠ
j uryĠ
k er
k ay
k Ġof
k ill
l ab
l ist
l e.Ġ
l etĠ
l ateĠ
l !Ġi
l iveĠ
l essĠ
l akeĠ
l edg
l essĠthan
l adies
m m
m p
m eĠ
m or
m it
m ar
m ay
m id
m un
m ind
m yĠs
m ember
m ost
m edical
m ingĠfrom
m edic
m elb
m aterial
n ing
n et
n av
n ameĠ
n atur
n ecess
n Ġexperienc
o is
o intĠ
o atĠof
o tĠcoco
p ion
p lo
p ur
p aidĠ
p ack
p ostĠ
p odg
p inkfreshĠstudio
p Ġspr
p ublicĠbuilding
r ank
r ack
r ight
r hea
r atesĠ
r ins
r aditional
s '
s er
s ed
s et
s ur
s Ġand
s etĠ
s tĠof
s um
s aidĠ
s Ġthat
s iteĠ
s Ġthrough
s uper
s Ġthink
s wer
s ung
t o
t yĠ
t om
t im
t s,Ġ
u .
u ation
u gh
u est
u allyĠ
u ck
v ingĠ
v ide
v oic
w is
w as
w all
w id
w eĠs
w if
w eĠd
w ard
w orr
w rit
w aren
w alk
w elcom
x y
y :
y Ġt
y es
y âĢĻ
y ,ĠandĠ
y âĢĻsĠ
y ,Ġb
y nam
y woodĠ
Ã ©
Ġ "
Ġ /
Ġ ic
Ġ ri
Ġ now
Ġ vi
Ġ enter
Ġ usĠ
Ġ event
Ġ eventĠ
Ġ especiallyĠ
ĺ ī
eĠ h
eĠ or
eĠ it
eĠ ab
eĠ up
eĠ haveĠ
eĠ christmasĠ
eĠ ho
eĠ blogĠhop
Ġt ur
Ġt um
Ġt ask
Ġt ick
Ġt itl
Ġt ech
Ġa j
Ġa re
Ġa pr
Ġa Ġr
Ġa ud
Ġa Ġspecial
Ġa Ġgreat
Ġa Ġstat
Ġa reas
Ġa ĠtrueĠ
in er
in al
in .Ġ
in st
in sp
in corpor
in Ġhonor
in edĠupon
Ġth ing
Ġth ous
Ġth reeĠ
sĠ count
sĠ now
sĠ forĠtheĠ
sĠ onĠtheĠ
sĠ shall
sĠ lik
sĠ cont
sĠ byĠ
sĠ justĠ
sĠ willĠbeĠ
sĠ dur
sĠ lastĠ
sĠ grand
sĠ makesĠ
sĠ calledĠ
sĠ wereĠ
sĠ soĠmuch
sĠ first
sĠ concern
ou pl
ou s.Ġ
ou gl
er if
er s.Ġ
er sĠareĠ
er Ġthan
er ationĠof
er ,ĠbutĠi
dĠ on
dĠ congressĠ
tĠ isĠ
tĠ outĠ
tĠ oneĠ
tĠ hous
tĠ hasĠbeen
tĠ whit
on -
on el
on esĠ
on ĠthisĠ
on Ġfor
on Ġyour
on eyĠ
on Ġwhich
on Ġattract
or Ġ
or tĠ
or yĠ
or th
or ig
or e,Ġ
or der
or ĠanyĠ
or eĠspecial
or ieĠm
en Ġan
en .ĠtheĠ
en sĠof
en anc
en Ġro
ĠtheĠ ma
ĠtheĠ sh
ĠtheĠ way
ĠtheĠ prov
ĠtheĠ avail
ĠtheĠ chair
ĠtheĠ lot
ĠtheĠ possibil
Ġs esĠ
Ġs ur
Ġs ell
Ġs um
Ġs ection
Ġs av
Ġs iteĠ
Ġs ub
Ġs yn
Ġs uff
Ġs inceĠ
Ġs election
Ġs ept
Ġs econd
re es
re am
re et
re esĠ
re e,Ġ
re du
re yn
re str
re d.Ġ
re congres
re cord
re sĠfromĠtheĠ
it ,
it ure
it ativeĠ
it 'sĠa
it ingĠfor
yĠ forĠtheĠ
yĠ wasĠ
yĠ feat
ing /
ing .Ġ
ing Ġst
ing ,ĠandĠ
ing ĠasĠ
ing sĠandĠ
ing s,
ing Ġthem
ing Ġthat
ing sĠareĠ
ing ful
ing Ġthis
an i
an ,Ġ
an etĠ
at t
at us
at eĠs
at ter
at ĠaĠl
Ġan Ġin
Ġan Ġaw
Ġan swer
al d
al u
al Ġp
al esĠ
al Ġf
al Ġi
al eĠt
al entĠ
al ton
al mostĠ
al ĠpartĠof
oĠ of
.Ġ c
.Ġ ch
.Ġ for
.Ġ now
.Ġ la
.Ġ butĠ
.Ġ diningĠroom
.Ġ just
.Ġ happyĠ
.Ġ duringĠtheĠ
ar r
of Ġour
of ĠmyĠ
,Ġ p
,Ġ or
,Ġ ch
,Ġ us
,Ġ will
,Ġ well
,Ġ nic
,Ġ we'reĠ
,Ġ feel
es ĠtoĠ
es Ġar
es ,ĠandĠ
es ĠasĠ
es day
es ĠtoĠs
es tern
is edĠ
is esĠ
is su
is tĠwith
is nâĢĻtĠ
is dic
is iÃ³n
is sed
you ĠandĠ
you th
you Ġp
you thĠprogram
you Ġmad
you Ġhav
ĠandĠ g
ĠandĠ com
ĠandĠ beĠ
ĠandĠ con
ĠandĠ onĠtheĠ
ĠandĠ get
ĠandĠ clos
ĠandĠ drewĠmichael
ĠandĠ provideĠ
ĠandĠ easy
ĠandĠ friendlyĠ
ĠandĠ natur
om at
th ĠandĠ
th ough
ion .Ġ
ion Ġclass
ch os
ch ardĠ
ch anceĠof
ch ildĠ
ch thyoplankton
ingĠ &
ingĠ c
ingĠ up
ingĠ outĠ
ingĠ year
ingĠ inĠtheĠ
ingĠ pre
ingĠ butĠ
ingĠ masksĠ
for Ġyou
for ĠthisĠ
for Ġall
for ĠmyĠ
for dabl
lo or
as pin
as ĠaĠstat
as ersĠareĠ
Ġc al
Ġc ap
Ġc ouldĠ
Ġc enter
Ġc row
Ġc los
Ġc uteĠ
Ġm in
Ġm em
Ġm od
Ġm ult
Ġm ov
Ġm atch
Ġm edical
Ġm aint
Ġm onth
Ġm erryĠchristmas
Ġm oneyĠ
ec or
ec om
ec tĠwith
ic ef
ic tion
ic Ġreg
ic ian
ic Ġhistor
ic tures
ed .
ed ,Ġ
ed ĠasĠ
ed .ĠtheĠ
ed ĠtoĠtheĠ
ed ĠatĠ
ed ge
ed nes
ed ĠthisĠcardĠ
ed pĠspr
isĠ re
isĠ pr
isĠ great
isĠ play
isĠ yet
isĠ gorge
Ġp ol
Ġp leas
Ġp ick
Ġp eak
edĠ inĠtheĠ
edĠ onĠtheĠ
edĠ shallĠb
edĠ ground
Ġh eĠ
Ġh ow
Ġh eĠs
Ġh iv
Ġh ol
Ġh ot
Ġh ard
Ġh uman
Ġh otĠcoco
Ġw ay
Ġw her
ro p
ro ll
ro adĠ
ro tatorĠcuff
ĠtoĠ im
ĠtoĠ com
ĠtoĠ myĠ
ĠtoĠ work
ĠtoĠ get
ĠtoĠ beĠt
el tĠ
el veĠ
el Ġof
el man
el essĠ
el akeĠ
st ep
st art
Ġb yĠ
Ġb us
Ġb ow
Ġb ut
Ġb ag
Ġb ask
Ġb etter
ent ir
ent yĠof
ent reĠ
Ġd at
Ġd et
Ġd if
Ġd ire
Ġd iec
Ġd rug
am in
am endedĠconstitution
am az
am sung
em b
em plo
Ġyou ĠandĠ
Ġyou ĠareĠ
et im
et 'sĠ
et ball
ver s
ver ag
ver seĠ
atĠ www.
Ġto Ġshar
all y,Ġ
pl eas
pl ayĠ
pl usĠ
pl ann
pl entyĠof
esĠ l
esĠ or
esĠ of
our -
our n
our se,Ġ
il Ġ
il ar
il ight
il ĠandĠm
us ing
us eĠm
us ingĠall
Ġf ig
Ġf ound
Ġf reeĠ
Ġf irstĠ
Ġi ra
Ġi Ġmad
ur ingĠtheĠ
ur eĠin
ur enĠro
ay ingĠtheĠ
ay ers
ay Ġseason
ation s,Ġ
eĠt eddyĠbear
eĠt rees
Ġof Ġit
Ġof Ġthos
ab or
ab ul
Ġg am
Ġg all
Ġg eo
Ġg eneral
id el
id nâĢĻtĠ
id ayĠseason
ig iousĠ
res earch
res erv
res ultĠ
im p
im it
im ent
im prov
im itedĠ
im ilar
with outĠ
with ĠsaidĠ
with ĠnoĠ
un ch
un iqueĠ
un ableĠtoĠ
un icef
ne ut
ne edĠtoĠ
ne edĠfor
ul in
ul ator
ir ation
ir thĠ
ir aqâĢĻsĠ
Ġar en
Ġst op
Ġst art
Ġst ock
Ġst yl
Ġst retch
and yĠ
and al
ex pert
ex tra
ex ercis
ear th
ear lier
eĠs o
eĠs om
eĠs omeĠ
eĠs uper
eĠs ensation
if ĠitĠ
ter sĠandĠ
gr anc
com f
ea red
Ġl if
Ġl ist
Ġl ast
Ġl arg
Ġl istĠof
Ġl iquidĠwatercolor
iv elyĠandĠ
iv esĠwill
ol der
ol onel
entĠ from
entĠ cal
ut ure
ut ationĠof
ut omat
pro pr
pro ces
up ĠtheĠ
up ĠandĠ
up stateĠ
Ġin v
Ġin ĠtheĠf
Ġin dic
Ġin Ġseat
ot ĠandĠs
we ightĠ
we âĢĻveĠ
we âĢĻreĠ
ĠthisĠ season
itĠ up
itĠ onĠtheĠ
itĠ shall
itĠ wasĠ
itĠ isĠb
itĠ hasĠbeen
itĠ shallĠbeĠtheĠdut
Ġand Ġan
Ġand Ġthis
ist res
ist akeĠ
ist ani
Ġre ad
Ġre congres
Ġre ceiv
abl eĠt
abl e.Ġ
abl ish
fr ayingĠtheĠ
wh om
ĠthatĠ youĠhaveĠ
beĠ availableĠfor
ad or
ad e.Ġ
ad ly
qu it
qu estion
con ven
con sult
e.Ġ check
e.Ġ however
e.Ġ housewarmingĠpartyĠinvitesĠfreeĠtemplateĠ
Ġal ter
Ġal tern
Ġal -s
Ġal though
end er
end ar
end ingĠl
end ees.Ġ
sh in
sh if
Ġfor Ġyour
Ġfor Ġsuch
Ġfor ĠtheirĠs
Ġfor Ġexampl
ap prov
ap art
outĠ of
your Ġpl
your Ġhom
your Ġdecor
your Ġrequire
your Ġrustic
your ĠsweetĠword
s,Ġ or
s,Ġ dec
s,Ġ friend
s,Ġ butĠ
s,Ġ but
s,Ġ payableĠto
,ĠandĠ i
,ĠandĠ s
,ĠandĠ itâĢĻsĠ
e,Ġ i
e,Ġ la
e,Ġ inĠtheĠs
e,Ġ wa
e,Ġ inĠf
e,Ġ becauseĠ
int end
int oĠtheĠ
sĠa b
sĠa d
sĠa s
sĠa ll
sĠa pp
sĠa go
sĠa tt
ĠareĠ a
ĠareĠ you
ceĠ latenc
ak en
ak esĠandĠ
count iesĠofĠrheaĠandĠ
ell o
ateĠ in
s.Ġ masksĠ
andĠ veryĠ
andĠ dollar
der Ġphot
tĠof ĠsaidĠcounty
um at
Ġj an
Ġj ustic
Ġj uneĠ
ĠasĠ much
Ġyour Ġchild
Ġyour Ġlos
Ġab normal
Ġsp ark
Ġsp read
Ġsp endingĠl
sĠof fer
sĠof ĠtheĠf
ĠsoĠ we
ĠsoĠ happ
!Ġi ĠalsoĠ
!Ġi Ġwill
!Ġi Ġthink
ag esĠ
no v
out sideĠ
co ver
par ro
par ation
eĠd i
eĠd is
eĠd ivid
eĠd ataĠs
eĠd amag
eĠd ownload
eĠd idnâĢĻtĠ
ri es
ri otĠandĠs
isĠa vailableĠfor
tl e,Ġwa
ust er
eĠm yĠ
eĠm ask
eĠm yĠs
eĠm edical
sĠin Ġ
sĠin ĠtheĠ
sĠin Ġother
ĠhaveĠ enjoyedĠ
ber tĠwhit
ever Ġyou
ever yĠs
por tĠ
Ġo h
Ġo z
Ġo ceanograph
Ġo kay
est ablish
Ġwith Ġw
Ġwith Ġour
act ion
ep os
ep sĠa
ies ĠthatĠ
eĠtoĠ check
eĠtoĠ createĠ
eĠtoĠ beĠaĠpartĠof
20 6
her eĠtoĠ
her eb
sĠandĠ b
sĠandĠ work
yĠc l
yĠc all
Ġcon dition
Ġcon ven
bl eĠtop
weĠ ar
weĠ get
weĠ know
asĠ reyn
e. ĠthisĠ
e. ĠsectionĠ
Ġon Ġ
Ġon Ġour
Ġon ĠaĠp
haveĠ don
comm endĠ
cl er
cl amp
cl ub
soĠ far
eĠb eautiful
eĠb etween
iveĠ theĠ
iveĠ star
ly Ġtouch
pp ingĠfor
vi ous
ĠisĠ notĠ
ĠisĠ justĠ
ĠisĠ goingĠ
Ġat Ġthem
Ġat ten
Ġat ĠtheseĠ
Ġat ĠtheĠsam
oreĠ information
oreĠ yourĠbaby'sĠ
.Ġi Ġam
.Ġi ĠalsoĠ
.Ġi Ġdon'tĠ
Ġpro blem
ek ;ĠthenceĠ
Ġex p
Ġex t
Ġex pert
Ġex pect
Ġex tra
Ġex ercis
Ġtr av
Ġtr aditional
Ġas so
Ġwh om
Ġtheir Ġoffic
Ġtheir Ġwebsit
Ġtheir Ġhea
do esĠ
do ĠthisĠ
Ġn m
Ġn ational
Ġn ecess
eĠandĠ don
eĠandĠ chair
eĠandĠ jail
inĠtheĠ h
inĠtheĠ p
inĠtheĠ mid
Ġcan Ġb
Ġcan Ġyou
Ġcan ĠbeĠ
av ing
iz edĠ
Ġtim eĠandĠ
Ġtim esĠa
ity Ġsup
edĠb yĠc
edĠb yĠs
sion ĠandĠ
sion Ġof
sion ,Ġb
Ġk new
Ġk eyĠ
Ġthank ful
ĠtoĠtheĠ frontĠ
ĠtoĠtheĠ nhsĠcordĠbloodĠbank
s>Ġ<s> ĠtheĠ
s>Ġ<s> ĠhereĠ
s>Ġ<s> Ġ"
ff icientĠ
myĠ hous
myĠ favor
ment ion
pre par
pre fer
pre ced
Ġr un
enc our
areĠ goingĠtoĠ
ast ingĠandĠ
fer ent
s. org
s. ĠsheĠ
s. ĠthankĠyouĠsoĠmuch
way Ġto
Ġour Ġb
Ġour Ġpr
Ġour ĠcongressĠ
ĠsaidĠ commissioner
ingĠtheĠ new
ingĠtheĠ countiesĠofĠrheaĠandĠ
ant itativeĠ
ĠaboutĠ weĠget
over ĠtheĠ
sĠtoĠ getĠ
Ġad d
Ġad dedĠ
,Ġb yĠ
forĠtheĠ first
cordĠ clamp
port ,Ġ
port ĠandĠ
ĠloveĠ it
been Ġpre
been Ġgreat
du eĠ
e! Ġ
ef ul
other Ġs
other wiseĠ
work Ġto
ĠaĠp hot
Ġthem ĠbyĠthisĠact
enceĠ onĠattract
edĠtoĠ re
ĠofĠtheĠ bod
ĠofĠtheĠ b&b
notĠ beĠ
jo intĠ
ingĠa Ġs
ingĠa Ġtrans
ĠmyĠ christmasĠ
ĠmyĠ grandma
aĠ isĠa
ck sĠin
Ġthat ĠtheĠ
Ġthat ĠtheyĠ
onĠtheĠ tennesseeĠriver
ens ure
e, Ġto
lin eĠdivid
Ġthes eĠtwoĠ
anceĠ inst
elyĠ pres
ult i
ult sĠin
prov en
christmasĠ season
how ĠaboutĠweĠget
Ġor der
ĠtheĠf irstĠ
ĠtheĠf astĠf
ĠtheĠf our-
Ġcom bin
veryĠ nic
plac eĠ
plac ent
eĠtheĠ firstĠ
fic ult
ful Ġperform
Ġit Ġall
Ġtak eĠ
Ġtak ingĠ
Ġtak eĠb
inv olv
Ġcell ular
Ġgr oup
!! !
ean ingful
hea d
hea dĠofĠtheĠ
ĠthereĠ isĠ
ĠthereĠ isĠa
theĠ number
loveĠ your
loveĠ how
loveĠ thatĠ
Ġhop eĠyour
cordĠbloodĠ shouldĠ
cordĠbloodĠ priv
can Ġyou
can Ġres
ĠtheyĠ haveĠ
ĠtheyĠ look
Ġshall ĠbeĠ
every oneĠ
,Ġa Ġd
,Ġa pp
lik eĠtoĠ
lik eĠto
man ĠofĠtheĠcountyĠcour
pos ition
ral Ġcolor
Ġres pect
Ġres ultsĠin
sĠre min
edĠin formation
!ĠthankĠyou ĠforĠtheĠawesomeĠreview
dayĠ in
glitter yĠwineĠbot
hol idayĠseason
la dĠ
la unch
ull et
ull etsĠ
ðŁ ĺī
Ġtw o
Ġtw elveĠ
Ġtw ilight
Ġthrough outĠmyĠ
enjo inedĠupon
ĠtheĠm ask
thingĠ inĠthisĠa
Ġdo es
andma d
cont ro
cont ract
organ is
invit ationĠt
min istr
su fficientĠ
Ġne ed
Ġne edĠto
ĠaĠf riend
ĠaĠf resh
Ġthos eĠm
eng then
ĠtheĠb ack
ĠtheĠb od
ĠtheĠb uild
ĠtheĠb ris
ĠtheĠcount yĠofĠrhea
ingĠs up
ingĠs oundproofĠwindowsĠinĠfortĠbranch,Ġin
,Ġi ĠhadĠ
essĠ shouldĠ
ĠweĠ haveĠ
ĠweĠ hadĠbeen
happ en
Ġcont ain
Ġfrom Ġm
eautiful ĠhomeĠ
cre d
fe edback
oll ywoodĠ
sĠthatĠ caus
ten ĠresultsĠin
Ġafter Ġ
Ġafter ĠtheĠ
arg etĠ
,Ġwh er
,Ġwh oĠ
,Ġwh ereĠ
Ġpre paration
stor ageĠ
amil yĠ
ement .Ġ
ustral ian
Ġother Ġblog
Ġother wis
hom e!
io tĠd
ier ĠofĠtheĠ
lu b
lu x
liv e.Ġ
liv ingĠroom
liv ingĠher
liv e,Ġla
sĠto Ġa
sĠto gether
sĠto Ġtrav
eĠof Ġ
Ġag ree,Ġ
erc iseĠ
ĠtheĠt own
Ġsorr yĠtoĠhearĠaboutĠyourĠgr
yĠw ednes
Ġbe low
Ġbe gin
Ġbe enĠan
empl atesĠ
urn Ġj
Ġgu est
âĢĻm ĠsoĠ
âĢĻm ĠsorryĠtoĠhearĠaboutĠyourĠgr
print s,
Ġjo b
Ġjo in
,ĠbutĠ howĠaboutĠweĠget
formation Ġcer
commissioner Ġshall
bank ingĠ
ce ed
cer yĠst
cap ac
know n
ug g
ug sĠ
ug ar
Ġ- Ġi
reg ionĠclass
.Ġh iv
.Ġh opeĠyou
.Ġyou ĠmayĠ
forĠm ostĠ
forĠm oreĠinformation
edĠa Ġc
Ġpr ivateĠ
ĠtheseĠ areĠ
center piec
center ĠofĠsaidĠcounty
doĠ it
fin dĠ
fun ction
vis ion
ĠaĠs mall
ities ,Ġ
,Ġh asĠaĠstat
ingĠwith Ġus
look ,Ġfeel
ecaus eĠtheyĠ
Ġpl an
Ġpl ac
Ġdis play
Ġdis cover
useĠ and
ational Ġresearch
hav en
eak er
Ġint oĠtheĠ
shop pingĠ
yĠofĠmeig sĠshall
housewarmingĠ invitationĠt
Ġcomm ercial
poss ess
Ġtenn ess
aĠf isher
bo th
beĠs har
dis ciplin
gu est
great !
great estĠ
high estĠqual
ren ew
Ġqu ick
Ġqu estion
ĠoneĠ or
eĠl ist
Ġac count
Ġac ros
intĠ isĠ
ĠtheĠp astĠf
Ġany thingĠ
thĠ eastĠ
Ġdin ingĠtabl
play er
âĢĻll Ġse
eĠthisĠ year
ution ĠofĠ
ĠtheĠsameĠ isĠ
Ġask Ġfor
Ġaddition ĠtoĠtheĠ
Ġaddition alĠinformationĠaboutĠ
ĠtwoĠ met
Ġcontinu eĠtoĠ
.ĠthisĠ isĠtheĠ
10 1
aw n
clos eĠtoĠ
gl en
ger sĠandĠ
phot ographer
Ġnew Ġpat
ĠthingsĠ doneĠ
erv ic
onĠa Ġd
ĠtheĠn ba
ĠtheĠn ationalĠresearch
read yĠtoĠ
itsĠ c
itâĢĻsĠ been
atell iteĠ
.Ġw eĠs
ome thingĠ
lov elyĠ
edĠandĠ break
Ġwas ĠtheĠ
Ġweek Ġa
Ġweek ĠisĠgoingĠ
mad eĠ
maint ain
maint enanc
under ĠtheĠsameĠ
under ĠtheĠam
old s.Ġ
old ierĠofĠtheĠ
Ġreg ular
Ġalask an
ction Ġof
sĠofĠtheĠ generalĠassembl
!ĠiĠloveĠ theĠ
Ġover ĠtheĠ
Ġamand aĠâĢĵ
commun ication
Ġknow Ġi
Ġscout ing
Ġscout ingĠ
ĠsoĠsorr yĠfor
hasĠbeen Ġgreat
Ġapplication sĠ
housewarmingĠpartyĠinvit ationĠt
.Ġa sĠa
bas isĠ
cent uryĠ
curr ently
fl ex
nor th
nic eĠtoĠ
rightĠ whit
won 'tĠ
Ġen vironment
Ġeach Ġyear
eĠglitter yĠwineĠbottleĠ
Ġtouch es
inter est
inter ior
inter fereĠ
tĠin Ġ
tĠin ĠsaidĠcounty
ret urn
youĠareĠ happyĠ
ĠandĠm eaningful
edĠtheĠ newĠyouthĠprogram
Ġper f
Ġper mission
Ġpat ientĠportal
Ġweb siteĠ
Ġdi et
ĠtoĠs aveĠ
Ġstem ĠcellsĠ
Ġstamp sĠ&
Ġstamp Ġ&
âĢĻveĠ addedĠ
eĠsp end
Ġlook sĠ
intoĠ yourĠdecor
ĠshareĠ with
ĠshareĠ cheer
Ġallow ingĠ
!ĠiâĢĻm ĠsoĠsorryĠtoĠhearĠaboutĠyourĠgrandma
ĠhaveĠa ĠmerryĠchristmas
ĠcongressĠ sp
edĠbyĠtheĠ countyĠcourt
post ,ĠbutĠhowĠaboutĠweĠget
ĠaĠlit tl
differ ent
nextĠ few
opportun ities
18 2
des ign
fast ingĠ
full Ġof
grow n
hisĠ successorsĠinĠoffic
iĠam Ġsuper
iousĠ hospitalityĠ
me etĠ
nes sĠof
purchas er
sc out
se atĠ
eĠcon cer
eĠcon nect
reas on
aren aĠevent
aryĠ publicĠbuilding
,Ġyou âĢĻllĠseeĠ
Ġcor dĠbloodĠ
Ġwant edĠtoĠ
tern al
grand pa
comp an
comp ensation
fron tĠof
whatĠ i
pric e
Ġspac eĠ
Ġspac ious
willĠb eĠsoĠ
Ġwhen Ġyou
makesĠ itĠall
erson al
printabl e.ĠhousewarmingĠpartyĠinvitesĠfreeĠtemplateĠ
ĠsweetĠ friend
zydec oĠ
Ġthere of
Ġthere 'sĠa
Ġcommun ity
Ġcommun ities
beĠsur eĠtoĠcheck
inkfreshĠstud ioĠ
;Ġand ĠtheĠsaidĠcount
br ing
famil yĠ
goodĠ result
iat ric
jam bor
non -
n'tĠ haveĠ
oveĠ th
ty .
t,Ġ or
ĠtreeĠ up
ĠaĠlo tĠ
enef it
Ġanalys is
alway sĠ
.ĠitĠ wasĠ
ofĠc ard
ofĠc ourse,Ġ
ister ,ĠhasĠaĠstat
ingĠm eĠtoĠbeĠaĠpartĠof
Ġcoun cil
Ġmar bleĠtop
ecolog y,Ġb
Ġpart yĠ
Ġhas ĠalsoĠ
Ġhistor icĠreg
star tĠwith
stamp Ġset
Ġdes ign
result ingĠin
import antĠ
ive,Ġ moreĠ
Ġinter vention
quick ly
yourĠf amil
weĠhaveĠ a
soĠmuch Ġfun
Ġtrack Ġ
ence.Ġ manag
ĠscoutĠgroup sĠaround
partic ular
ĠsaidĠcountyĠofĠmeig s,
blogĠfriend s!Ġi
createĠ aĠ
ĠhappyĠ youĠareĠenjoy
ĠcountyĠ lin
;ĠandĠshall ĠtakeĠb
ĠtheĠshoulderĠjo intĠisĠ
.ĠifĠyouĠareĠ consider
Ġbaby'sĠ cordĠblood
Ġassembl ag
esomeĠreview !ĠweĠ
elizabethĠell isĠ
!ĠsoĠ far
!ĠsoĠ pretty
!ĠhopeĠyou ĠhaveĠ
!ĠhopeĠyou âĢĻreĠhavingĠaĠgreatĠ
aid Ġtown
ctĠ contain
cus s
develop Ġa
flu enc
gn anc
laidĠ off
light s,
national ĠhistoricĠreg
ps ych
pop -up
pop ulation
peopl eĠar
rul yĠ
som etim
secur ity,Ġ
uil tĠinĠ
uthor sĠre
vol utionĠofĠ
Ġtu esday
Ġter m
ĠaĠ very
Ġamaz ingĠ
sĠp ag
ĠsetĠ upĠandĠ
Ġsign Ġup
requ ir
reallyĠ know
,Ġuntil ĠtheĠ
,Ġuntil Ġother
fort un
Ġcoll ect
icĠin nĠexperienc
ĠtoĠpre vent
elect edĠ
Ġbot tl
Ġback groundĠ
Ġde frayingĠtheĠ
emon y.Ġ
et. Ġtall
very Ġspacious
ilver Ġor
Ġim pl
Ġart ificialĠsweeten
Ġstand ard
Ġstand ardĠ
ivelyĠ landscap
eĠthrough ĠtheĠnationalĠresearch
Ġrep utationĠof
quietĠ plac
condition edĠforĠtheĠ
prom p
ĠtheĠsp ecial
Ġsport sĠ
ĠsoĠexcit edĠtoĠbeĠ
newĠyork ĠfingerĠlakesĠ
eĠman sion,Ġb
yĠcard Ġtoday
Ġexcit ed
doctor al
littl eĠteddyĠbear
ĠatĠleas t
odg kin
Ġcompl et
placeĠtoĠ live.Ġ
rans formationĠcer
court ĠatĠ
storedĠ stemĠcellsĠ
irstĠof f,Ġi
worl d
ĠonlineĠ atĠwww.
green Ġglitter
frontĠ door
zydecoĠd anc
usiness .ĠtheĠ
gorge ous.Ġ
Ġmillion ĠinĠearning
Ġalcohol ism
!ĠloveĠ your
,Ġto dayĠ
;ĠbutĠ i
cidentĠ ratesĠ
dom in
dist anc
e'sĠ cre
fo cus
gar land
got ĠaĠc
govern ment
journe yĠofĠtheĠ
lef tĠ
meo Ġsatellit
ob vious
pol ic
sĠar eĠs
te in
win eĠ
orm ousĠ
ornament sĠ
Ġsever al
iteĠd ecor
ates Ġand
alask aĠfisher
.Ġj anetĠ
.ĠphotoĠ byĠd
ari ation
,Ġno thingĠinĠthisĠa
,Ġnot ĠtoĠ
Ġcurr entĠ
Ġmuscl es
icĠf actor
isĠon Ġtop
rozen Ġthem
Ġbo th
ĠtoĠsp endĠ
eĠtim e,Ġ
ĠofĠc olonel
abil ityĠof
idayĠ releas
grandĠ federal
compos edĠof
eĠther eof
ostĠof tenĠresultsĠin
utopha gyĠ
proxim ityĠtoĠ
ĠthisĠplac e.Ġ
Ġret urnĠj
ĠthatĠw rappingĠpaper
adv entĠcal
Ġalread yĠ
ĠtheyĠcan Ġhelp
introdu c
prior ĠexperienceĠ
s.ĠifĠyou ĠhaveĠ
ĠyourĠf amilyĠ
Ġabsol ut
eĠdin ingĠroom
Ġo'haraĠs ays.Ġ"
epend ingĠon
Ġnumber Ġof
Ġmeet ingĠwith
ĠaĠpre viousĠ
ĠaĠpat riotĠandĠs
ĠtakeĠa Ġlook
Ġgrac iousĠhospitalityĠ
citiz ensĠof
cours eĠwith
presentĠ orĠanyĠ
ĠaĠlarg eĠ
homeĠtour ĠwithĠyou
ĠaggravatedĠ organizm
printableĠ housewarmingĠpartyĠinvitationĠt
enjoysĠa ĠreputationĠof
Ġyes ter
registrationĠguidebook Ġcontain
ĠcountiesĠin ĠthisĠstate
Ġpric esĠ
'veĠcreat ed
ĠmichaelĠk orsĠ
given ĠthatĠ
ĠthoughtĠ iĠwouldĠ
nextĠyear !
day,Ġfriend s!Ġi
drewĠmichaelĠandĠ elizabethĠellisĠ
particip ant
ĠhappyĠfriday,Ġ blogĠfriends!
elizabethĠellis ĠandĠdrewĠmichael
faith fulĠperform
ately,Ġ latenc
Ġannoun c
ĠpassedĠa way
statist ical
Ġadvanc edĠ
ĠaĠprivateĠ bank
cription s,Ġ
Ġamerica ,Ġ
iesĠscienceĠcenter ĠinĠseat
eĠsoĠconstruedĠas ĠtoĠ
!ĠðŁĻĤ Ġi
!Ġamanda ,Ġi
+Ġc lub
-courtĠ seat
-styl eĠmansion,Ġb
17 7
coun tĠ
civ ilĠandĠm
cep tĠ
dest ro
eh ic
fat her
fur ther
glo bal
gro ceryĠst
hamil ton
iel dĠ
jur isdic
lessĠthan ĠtwoĠmet
ladies âĢĻ
necess aril
oatĠof ĠmetallicĠs
pion eer
rank ing
stĠof ĠaĠtrueĠ
saidĠ commissionerĠshall
ugh ĠandĠbeĠ
wid er
wif eĠ
eĠhaveĠ contribut
Ġapr ilĠ
inĠhonor ĠofĠcolonel
sĠlastĠ year
ougl asĠreyn
erif fĠof
onĠthisĠ blog
orig inal
oreĠspecial Ġwith
orieĠm eal
ĠtheĠsh eriffĠof
ĠtheĠprov ision
ĠtheĠchair manĠofĠtheĠcountyĠcour
ĠsesĠ g
Ġsum mer
ĠsiteĠ for
Ġsuff icientĠ
Ġsept emberĠ
restr iction
recongres s.org
resĠfromĠtheĠ player
ĠanĠaw esomeĠreview!ĠweĠ
.Ġla urenĠro
.ĠhappyĠ mon
ofĠour Ġhouse.Ġ
youth Ġday
ĠandĠonĠtheĠ nationalĠhistoricĠreg
ĠandĠprovideĠ feedback
ĠandĠeasy Ġaccess
ĠandĠnatur al
aspin atus
Ġmod el
icĠhistor icĠinnĠexperienc
isĠgreat !ĠiĠloveĠtheĠ
isĠgorge ous
Ġpick yĠaboutĠ
edĠground s.ĠtheĠ
ĠheĠs ays.Ġ"
Ġhot el
ĠtoĠim proveĠ
Ġbut ton
Ġbag hd
Ġbask etball
Ġdire ctor
emplo y
ĠfreeĠ printableĠhousewarmingĠpartyĠinvitationĠt
abul ousĠ
igiousĠ education
neut ralĠcolor
propr i
upstateĠ newĠyorkĠfingerĠlakesĠ
Ġaltern ativeĠ
Ġal-s istani
ĠforĠsuch ĠanĠawesomeĠreview!ĠweĠ
ĠforĠtheirĠs ervic
yourĠhom e!
yourĠrequire ment
s,Ġdec eas
e,ĠinĠtheĠs umĠof
ceĠlatenc yĠandĠ
s.ĠmasksĠ beingĠ
ĠyourĠlos s.Ġ
Ġspark l
ĠsoĠhapp yĠtoĠ
outsideĠ ofĠourĠhouse.Ġ
bertĠwhit aker
iveĠstar Ġreview
Ġatten dĠcongressĠ
oreĠyourĠbaby'sĠ cordĠbloodĠpriv
inĠtheĠmid stĠofĠaĠtrueĠ
ĠtimesĠa Ġday
prefer red.Ġ
preced ingĠyear
ĠourĠpr ofessional
cordĠclamp ing
enceĠonĠattract ivelyĠlandscap
ĠofĠtheĠb&b Ġteam
anceĠinst ru
elyĠpres enceĠonĠattractivelyĠlandscap
ĠtheĠfastĠf oodĠ
Ġcombin ationĠof
ĠhopeĠyour ĠweekĠisĠgoingĠ
glitteryĠwineĠbot tl
ĠtheĠbris ban
,ĠiĠhadĠ soĠmuchĠfun
ustralian Ġopen
iotĠd alton
live,Ġla ughĠandĠbeĠ
sĠtoĠtrav el
emplatesĠ printable.ĠhousewarmingĠpartyĠinvitesĠfreeĠtemplateĠ
âĢĻmĠsorryĠtoĠhearĠaboutĠyourĠgr andmother
regionĠclass icĠhistoricĠinnĠexperienc
shoppingĠ center
housewarmingĠinvitationĠt emplateĠ
ĠadditionalĠinformationĠaboutĠ meoĠsatellit
maintenanc e.Ġ
underĠtheĠam endedĠconstitution
sĠofĠtheĠgeneralĠassembl y
ĠsoĠsorryĠfor ĠyourĠloss.Ġ
currently Ġs
interior Ġdesign
interfereĠ with
eĠconnect ivity
compensation ĠforĠtheirĠservic
;ĠandĠtheĠsaidĠcount yĠofĠmeigsĠshall
iatric Ġdrug
ister,ĠhasĠaĠstat elyĠpresenceĠonĠattractivelyĠlandscap
ĠscoutĠgroupsĠaround Ġaustralia
.ĠifĠyouĠareĠconsider ingĠ
ctĠcontain edĠshallĠb
sometim es
ĠaĠvery Ġspecial
ĠdefrayingĠtheĠ expens
eĠthroughĠtheĠnationalĠresearch Ġcouncil
odgkin 'sĠ
ĠonlineĠatĠwww. recongress.org
alaskaĠfisher iesĠscienceĠcenterĠinĠseat
.ĠjanetĠ duffy-anderson
.ĠphotoĠbyĠd ouglasĠreyn
,ĠnothingĠinĠthisĠa ctĠcontainedĠshallĠb
grandĠfederal -styleĠmansion,Ġb
adventĠcal endar
ĠaĠpatriotĠandĠs oldierĠofĠtheĠ
ĠgraciousĠhospitalityĠ inĠtheĠmidstĠofĠaĠtrueĠ
presentĠorĠanyĠ precedingĠyear
enjoysĠaĠreputationĠof ĠgraciousĠhospitalityĠinĠtheĠmidstĠofĠaĠtrueĠ
jurisdic tion
lessĠthanĠtwoĠmet resĠfromĠtheĠplayer
inĠhonorĠofĠcolonel ĠreturnĠj
ĠtheĠchairmanĠofĠtheĠcountyĠcour tĠofĠmeig
restriction s,ĠandĠ
ĠandĠonĠtheĠnationalĠhistoricĠreg ister,ĠhasĠaĠstatelyĠpresenceĠonĠattractivelyĠlandscap
ĠfreeĠprintableĠhousewarmingĠpartyĠinvitationĠt emplatesĠprintable.ĠhousewarmingĠpartyĠinvitesĠfreeĠtemplateĠ
upstateĠnewĠyorkĠfingerĠlakesĠ regionĠclassicĠhistoricĠinnĠexperienc
ĠhopeĠyourĠweekĠisĠgoingĠ great!
live,ĠlaughĠandĠbeĠ happ
ĠonlineĠatĠwww.recongress.org /
alaskaĠfisheriesĠscienceĠcenterĠinĠseat tle,Ġwa
.ĠphotoĠbyĠdouglasĠreyn olds.Ġ
grandĠfederal-styleĠmansion,Ġb uiltĠinĠ
enjoysĠaĠreputationĠofĠgraciousĠhospitalityĠinĠtheĠmidstĠofĠaĠtrueĠ upstateĠnewĠyorkĠfingerĠlakesĠregionĠclassicĠhistoricĠinnĠexperienc
ĠandĠonĠtheĠnationalĠhistoricĠregister,ĠhasĠaĠstatelyĠpresenceĠonĠattractivelyĠlandscap edĠgrounds.ĠtheĠ
! Ġ
! Ġt
! Ġand
! ĠthatĠ
! Ġlo
! Ġha
! Ġso
! ĠaĠf
! ).
! Ġsuch
! ĠtheseĠ
! iĠhaveĠ
! Ġthink
! ĠhaveĠa
! ĠveryĠ
! Ġtoday
! ĠthisĠisĠ
! ĠitâĢĻsĠ
! ĠaĠfew
! ĠtheyĠareĠ
! ĠrecentlyĠ
! ĠsoĠsorryĠtoĠhearĠaboutĠyourĠgrandma
! Ġwhat
! Ġrustic
! ĠthoseĠglitter
! ĠsinceĠ
! ĠitĠall
! ĠbeenĠan
! ĠwhenĠyou
! ĠhappyĠfriday,ĠblogĠfriends!
" ,
" .
" f
" s
" in
" Ġc
" asĠ
" when
" Ġafter
" justĠ
" Ġwhen
" ĠisĠa
" quiteĠ
" ĠtoĠbeĠt
# su
# gatehous
% Ġf
% ĠofĠtheĠ
% Ġno
% ĠandĠad
& Ġ
& Ġm
& Ġg
& Ġres
& Ġpre
' .
' r
' in
' dĠ
' sĠof
' sĠt
' fetti
( i
( ec
( ex
( ap
( theĠ
( opportun
( espec
) !
) ĠandĠ
) Ġm
) ĠtoĠ
) Ġin
) Ġre
) Ġor
) ĠandĠtheĠ
) Ġ(
) Ġprogram
) Ġis
) Ġthan
) ĠtoĠbeĠ
) ĠâĢĶ
) ĠbyĠ
) ĠofĠtheĠb&bĠteam
* theĠnumber
+ ĠtheĠma
, Ġth
, ĠtoĠ
, Ġar
, Ġall
, Ġas
, ĠthankĠyou
, Ġthat
, Ġthes
, Ġso
, ĠalsoĠ
, ĠtheĠm
, ĠtheĠt
, Ġthen
, ĠatĠleas
, ĠthereĠis
, ĠalwaysĠ
, Ġangel
, Ġstor
, Ġstress
, ĠtheyĠdoĠ
, ĠsuchĠasĠ
, Ġannoun
, Ġalthough
, ĠspendingĠl
, ĠatĠtheĠsam
, ĠtheĠfirstĠ
, ĠtoĠsaveĠ
, ĠstemĠcellsĠ
, ĠsweetĠfriend
, ĠscoutĠgroupsĠaroundĠaustralia
- $
- g
- q
- in
- ec
- ed
- st
- Ġi
- ter
- no
- year
- dec
- mak
- so
- cal
- pa
- ĠjustĠ
- endĠ
- bo
- ĠiĠam
- month
- star
- born
- fo
- in-
- medic
- podg
- maintain
- seatĠ
. c
. m
. ro
. Ġto
. com
. Ġand
. Ġam
. Ġas
. ĠthankĠyou
. org
. Ġsc
. Ġthes
. ĠthereĠ
. Ġthis
. ĠanyĠ
. ĠandĠs
. ĠtheseĠ
. Ġtop
. Ġthey
. Ġthough
. d.Ġ
. Ġanalys
. ĠthankĠyouĠsoĠmuch
. ĠaĠfew
. ĠalwaysĠ
. ĠshoulderĠpain
. Ġton
. Ġtook
. ĠandĠthen
. ĠalsoĠtheĠ
. noaa.gov
. ht
. ĠspendingĠl
. ĠatĠtheĠsam
. Ġthankful
. ĠtheyĠcanĠhelp
/ /
/ th
/ ed
/ Ġtabl
/ ).
/ guidebook
0 2
0 3
0 9
1 3
2 7
2 8
2 34
3 3
3 7
3 00
4 2
4 4
4 6
4 9
4 24
4 60
4 34
5 48
6 2
6 7
6 00
6 46
7 5
8 0
8 9
8 00
9 0
9 4
9 5
9 15
9 67
: ĠtheĠ
: Ġc
: Ġm
: Ġl
: Ġcont
: Ġmar
: Ġfun
: ĠthisĠyear
: ĠshoulderĠpain
: Ġmy
: //
; Ġw
; Ġyou
; Ġl
; Ġfor
; ĠatĠ
; ĠtoĠbeĠ
; Ġact
; ĠaĠpr
; ĠitâĢĻsĠ
; ĠfirstĠ
; Ġjan
; ĠsoĠhappyĠtoĠ
; ĠaĠpatriotĠandĠsoldierĠofĠtheĠ
< s>
? Ġyou
? Ġin
? Ġwh
? ĠtheĠm
? Ġis
? Ġafter
? Ġy
? âĢĿ
? Ġac
? ĠiĠam
? ĠtoĠm
? Ġlik
? Ġliv
? ĠthisĠisĠa
? ĠsetĠupĠandĠ
@ Ġg
[ $
[ do
] Ġl
] ).
a .Ġ
a Ġg
a im
a Ġlo
a .ĠtheĠ
a Ġcon
a ĠisĠ
a .Ġi
a ĠtoĠtheĠ
a âĢĻsĠ
a Ġcom
a ĠandĠtheĠ
a ign
a ,Ġa
a fe
a ,Ġh
a ĠlotĠof
a Ġpremium
a jor
a .ĠyouĠcan
a Ġworkshop
a .Ġin
a Ġpo
a Ġshow
a Ġspecific
a ĠwhoĠ
a ĠlotĠofĠm
a itingĠfor
a verag
a granc
a umat
a !ĠiâĢĻmĠsoĠsorryĠtoĠhearĠaboutĠyourĠgrandma
a ustralianĠopen
a ;Ġact
b b
b i
b q
b t
b u
b sĠ
b at
b ec
b Ġf
b ow
b itĠ
b ad
b andĠ
b oo
b um
b Ġwith
b ition
b ustĠ
b rough
b eĠtheĠ
b ish
b eautiful
b irth
b eĠtheĠs
b estĠqual
b Ġchristmas
b ,Ġres
b ondĠwith
b enefitĠ
b ĠandĠcon
b esĠl
b yĠcall
b ugg
b edĠandĠbreak
b rightĠwhit
b enefit
b eĠsoĠconstruedĠasĠtoĠ
b ĠsiteĠfor
b "Ġwhen
c g
c en
c .Ġ
c edĠ
c ur
c ol
c count
c Ġj
c utĠ
c rist
c av
c ult
c ra
c astĠ
c edĠto
c useĠ
c olor
c cord
c uteĠ
c ept
c .ĠsoĠ
c urs
c oupl
c eful
c -ed
c .com
c a,Ġh
c bsĠ
d -
d g
d n
d en
d at
d ar
d em
d ab
d ea
d ol
d ot
d ĠthatĠ
d Ġat
d av
d eb
d sĠtoĠ
d anc
d well
d ingĠs
d eal
d iver
d io
d iec
d eep
d ĠasĠwell
d ,Ġshall
d eĠf
d atesĠ
d antĠ
d rug
d raf
d Ġangel
d s:
d orm
d ear,Ġ
d rais
d eĠho
d ,Ġch
d sĠtoĠa
d sĠpag
d ependingĠon
d ĠtakeĠaĠlook
d anceĠinstru
d ,ĠatĠleas
e e
e th
e veĠ
e ith
e et
e atĠ
e il
e im
e ir
e âĢĻ
e eĠs
e gr
e up
e e,Ġ
e ther
e um
e !Ġi
e âĢĻsĠ
e over
e ight
e yĠtheĠ
e ign
e y.Ġ
e ;ĠandĠ
e âĢĿ
e âĢĶ
e âĢĻll
e ffect
e eĠthatĠ
e ableĠto
e ingĠall
e ;ĠandĠshall
e ;ĠthenceĠ
e uk
e 'veĠbeen
e "Ġafter
e ;ĠaĠpr
f t
f u
f tĠ
f Ġm
f Ġp
f ĠtoĠ
f et
f atĠ
f all
f our
f il
f us
f Ġi
f oun
f ab
f ig
f if
f Ġl
f ell
f Ġwith
f ection
f ound
f Ġr
f ind
f estĠ
f ightĠ
f ire
f Ġ(
f Ġup
f ood
f low
f eliz
f ix
f Ġtall
f .Ġit
f identĠ
f actor
f irstĠof
f rozen
f aceĠ
f fordabl
f loor
f action
g or
g en
g an
g Ġh
g ig
g ul
g ir
g if
g op
g ast
g ical
g ersĠ
g eĠtheĠ
g ers
g yĠm
g gl
g ativeĠ
g yn
g ingĠof
g ĠinĠ
g istrationĠguidebook
g iveĠth
g eĠab
g ender
g ladĠ
g eĠdiningĠroom
h s
h y
h en
h is
h el
h all
h us
h op
h um
h omeĠ
h anc
h tt
h y.Ġ
h ood
h ardĠ
h ost
h isĠb
h onor
h ould
h ĠasĠa
h uman
h opeĠyou
h ensiveĠ
h ysical
h easelgraveĠsaysĠtheĠ
h mm
h edge
h ĠiĠmad
h andyĠ
h andmad
h ollywoodĠ
h ĠsweetĠfriend
h odgkin'sĠ
i ar
i for
i ab
i âĢĻ
i Ġl
i par
i eĠb
i pp
i Ġcan
i Ġr
i e!
i work
i enceĠ
i anc
i aĠ
i iteĠ
i Ġgu
i edĠfor
i 'veĠ
i usĠ
i âĢĻll
i ativeĠ
i Ġhous
i ally
i oĠd
i Ġget
i ĠshareĠ
i hadĠ
i ĠtreeĠ
i ence.Ġ
i Ġaustralia
i ĠjustĠloveĠ
i Ġno
i Ġpurchas
i Ġoffer
i 'veĠbeen
i !ĠthankĠyouĠforĠtheĠawesomeĠreview
i ĠwantedĠtoĠ
i Ġal-sistani
i eveĠ
j u
j ad
j um
j ok
j udgment
j onĠc
j uneĠ
j ump
j ectĠwith
k y
k at
k Ġm
k ed
k et
k us
k id
k ir
k os
k end
k s,Ġ
k ,ĠandĠ
k est
k .Ġi
k eĠandĠ
k ingĠtheĠ
k ok
k eyĠ
k aren
k ah
k ey
k aĠd
k ĠofĠtheĠbod
k 'sĠof
l ou
l dĠ
l as
l edĠ
l ac
l oun
l eĠs
l e,Ġ
l ĠtheĠs
l ayĠ
l yĠof
l eb
l ink
l es.Ġ
l amp
l ouch
l iver
l ate
l arg
l Ġ-
l esĠon
l ey
l iam
l .ĠoneĠ
l ung
l yĠoffer
l e.ĠandĠ
l iquidĠwatercolor
l sĠand
l edge
l et'sĠ
l ayers
l idel
l imitedĠ
l itĠup
l akesĠandĠ
l eĠtoĠcreateĠ
l yĠcl
l )Ġ(
l euk
m č
m sĠ
m en
m Ġc
m ed
m em
m il
m ation
m ill
m e,Ġ
m etĠ
m eas
m um
m ĠisĠ
m ok
m ustĠ
m ightĠ
m art
m sĠthatĠ
m eĠof
m ichael
m eĠthisĠ
m Ġalso
m ingĠof
m ph
m atur
m oment
m .ĠyouĠcan
m cminn
m ĠofĠc
m .Ġhi
m ilitar
m Ġic
m atter
m ostĠoftenĠresultsĠin
m /ed
m c.com
n dĠ
n at
n ingĠ
n as
n el
n ol
n os
n .ĠtheĠ
n Ġcon
n ack
n ast
n ightĠ
n ia
n Ġor
n ight
n ityĠ
n .Ġs
n essĠ
n eck
n ,Ġs
n iqu
n ativeĠ
n Ġe
n ĠdayĠ
n uest
n ectĠwith
n ingĠaĠs
o .Ġ
o ,Ġ
o il
o ter
o ot
o idĠ
o Ġsp
o her
o ast
o ĠaĠp
o cc
o ci
o Ġshall
o bil
o ctober
o Ġtrack
o Ġstr
o 'haraĠs
o ordin
o Ġshow
o xy
o onĠfor
o .ĠhopeĠyou
o !ĠaĠfew
o -fo
o .ĠthankĠyou
o col
o hĠsweetĠfriend
p on
p an
p ow
p ul
p iv
p ut
p etĠ
p ep
p ast
p ink
p man
p ĠtheĠm
p e:
p eek
p edĠbyĠ
p ectĠ
p aper
p ioĠ
p ower
p otential
p e:Ġ
p cĠcounterĠheightĠ
p able.Ġ
p aĠisĠa
p eaker
p ,Ġall
p :Ġfun
p ca,Ġh
p mĠc
q Ġjan
r on
r oĠ
r .Ġ
r om
r ingĠ
r am
r Ġof
r id
r im
r Ġl
r ap
r um
r ain
r ound
r areĠ
r ind
r ud
r ick
r oundĠ
r umĠof
r andyĠ
r aspinatus
s tĠ
s or
s en
s yĠ
s ch
s ent
s atĠ
s âĢĻ
s ect
s ea
s ĠthisĠ
s end
s pr
s oo
s ever
s e.
s av
s over
s port
s ical
s Ġthem
s ia
s ong
s eĠin
s es.Ġ
s ĠalsoĠ
s ĠtheĠm
s ession
s ;ĠandĠ
s ureĠ
s giv
s lam
s ystem
s ix
s yĠst
s es,Ġ
s ;ĠandĠshall
s Ġalaska
s esĠwith
s oundproofĠwindowĠguy
s Ġthemselv
s ych
s entim
s ĠtheyĠcan
s ĠtrueĠ
s chedule,
s -l
s ingĠ&
s amsung
s ulin
s entĠfrom
s akesĠandĠ
s ĠtoĠtheĠfrontĠ
s ĠtheĠfour-
s ĠalreadyĠ
s "ĠisĠa
s ;ĠfirstĠ
s ?Ġwh
s kir
t .Ġ
t ĠandĠ
t edĠ
t ation
t op
t abl
t !Ġi
t reat
t ast
t ingĠtheĠ
t ableĠ
t ingĠa
t allyĠ
t ingĠroom
t ĠandĠtheĠ
t ru
t Ġap
t each
t aĠs
t eĠl
t ĠtheĠsameĠ
t ober
t ach
t eeĠ
t sĠwith
t reas
t !ĠthankĠyouĠsoĠmuch
t oĠtheĠ
t rip
t rans
t iqueĠ
t ,Ġbut
t ĠtheĠprogram
t osĠen
t rins
t ĠtoĠmyĠ
t aken
t ĠtoĠtheĠfrontĠ
t argetĠ
t sĠareĠs
t sĠthem
u en
u it
u ic
u Ġp
u el
u pl
u eĠt
u eĠs
u ter
u itĠ
u e.Ġ
u ceĠ
u sĠof
u ev
u iteĠ
u cc
u ally
u rop
u ally,Ġ
u Ġbutton
u crist
v y
v ou
v dĠ
v ing
v ar
v ect
v ill
v ak
v ell
v âĢĻsĠ
v ign
v Ġv
v eal
v edĠbyĠ
v ins
v oid
v ariation
v ehic
v dĠthatĠ
v eyĠtheĠ
v mc.com
v uel
w om
w ĠtoĠ
w el
w il
w ank
w est
w reat
w areĠ
w Ġres
w ov
w ardĠ
w atch
w esomeĠ
w ĠisĠa
w eĠtak
w ,ĠthankĠyouĠsoĠmuch
w estern
w ivesĠwill
w Ġregular
w -no
w oĠstr
x ed,Ġ
x tĠtoĠmyĠ
y at
y th
y ingĠ
y Ġto
y esĠ
y ay
y Ġal
y pr
y .ĠtheĠ
y sĠandĠ
y cl
y Ġtr
y ik
y Ġthes
y Ġthrough
y ingĠtoĠ
y Ġtabl
y Ġthan
y Ġac
y edĠwith
y âĢĶ
y Ġtour
y ĠtimeĠ
y rightĠ
y Ġthough
y .ĠsectionĠ
y ĠaboutĠyourĠgr
y Ġteam
y ;Ġand
y Ġagain
y uk
y Ġappoint
y ĠapartmentĠ
y ers.Ġ
y ĠsoĠwe
y .ĠthisĠisĠtheĠ
y !ĠhopeĠyouĠhaveĠ
y "ĠtoĠbeĠt
y ,ĠthankĠyou
y pe:
z yĠ
z im
z asĠ
z ĠandĠs
z aĠm
¡ Ġl
© Ġ
® Ġ/
º aĠcon
Â ©Ġ
Â ®Ġ/
Ã Ń
Ã ¡Ġl
Ã ºaĠcon
Ġ ed
Ġ em
Ġ ow
Ġ ut
Ġ outĠ
Ġ ev
Ġ ..
Ġ est
Ġ eat
Ġ ef
Ġ view
Ġ own
Ġ eng
Ġ yĠm
Ġ organiz
Ġ river
Ġ uk
Ġ oper
Ġ zydecoĠd
Ġ ecosystem
Ġ option
Ġ everyĠ
Ġ christmasĠinĠportugal
Ġ owner
Ġ ðŁĻģ
Ġ opportunityĠtoĠ
Ġ u.
Ġ ensure
Ġ opportunities
Ġ !ĠsoĠfar
Ġ enjoysĠaĠreputationĠofĠgraciousĠhospitalityĠinĠtheĠmidstĠofĠaĠtrueĠupstateĠnewĠyorkĠfingerĠlakesĠregionĠclassicĠhistoricĠinnĠexperienc
Ġ 'fetti
Ġ @Ġg
Ġ [$
eĠ yĠ
eĠ al
eĠ for
eĠ lo
eĠ atĠ
eĠ all
eĠ itĠ
eĠ ev
eĠ now
eĠ inĠtheĠ
eĠ areĠ
eĠ over
eĠ ofĠtheĠ
eĠ go
eĠ âĢĵ
eĠ ifĠyou
eĠ la
eĠ pres
eĠ hear
eĠ pit
eĠ itsĠ
eĠ qual
eĠ intoĠ
eĠ email
eĠ visit
eĠ putĠ
eĠ alway
eĠ mail
eĠ feel
eĠ pat
eĠ wa
eĠ only
eĠ proc
eĠ park
eĠ isĠall
eĠ note:
eĠ implementation
eĠ prettyĠ
eĠ jack
eĠ isnâĢĻtĠ
eĠ using
eĠ position
eĠ onĠaĠd
eĠ willĠbeĠsoĠ
eĠ ecology,Ġb
eĠ -ĠiĠam
eĠ nuest
Ġt re
Ġt al
Ġt ar
Ġt om
Ġt el
Ġt ea
Ġt end
Ġt ap
Ġt ell
Ġt est
Ġt act
Ġt reat
Ġt reatĠ
Ġt ight
Ġt ull
Ġt ip
Ġt ier
Ġt emplateĠ
Ġt rip
Ġt ribut
Ġt reatment
Ġt augh
Ġt .Ġj
Ġt estim
Ġt eddyĠbear
Ġt issu
Ġt argetĠ
Ġt iedĠfor
Ġt vâĢĻsĠ
Ġt ype:
Ġa Ġd
Ġa im
Ġa sh
Ġa Ġn
Ġa Ġk
Ġa way
Ġa Ġcom
Ġa Ġch
Ġa cre
Ġa ug
Ġa ĠlotĠof
Ġa Ġtour
Ġa Ġweek
Ġa ctor
Ġa ction
Ġa Ġstud
Ġa Ġspac
Ġa vail
Ġa wayĠ
Ġa ĠveryĠ
Ġa uthor
Ġa Ġreason
Ġa whil
Ġa Ġton
Ġa vailableĠfor
Ġa ĠstemĠcellĠtrans
Ġa utomat
Ġa Ġconven
Ġa utophagyĠ
Ġa ĠnumberĠof
Ġa ustralianĠopen
Ġa ffordabl
Ġa void
Ġa yat
in Ġth
in ec
in esĠ
in s,Ġ
in e,Ġ
in Ġall
in ateĠ
in ev
in cl
in Ġit
in Ġch
in can
in ish
in essĠ
in ce
in Ġtenn
in Ġqu
in ĠtheĠsameĠ
in eĠthatĠ
in Ġwhich
in Ġtouch
in Ġsuper
in uteĠ
in Ġdecor
in .ĠandĠ
in ĠhisĠ
in ĠgoodĠ
in cidentĠ
in Ġcoffe
in eĠseat
in Ġjapan
in ĠwithoutĠ
in ĠforĠtheĠawesomeĠreview
in cum
in elakeĠ
in sĠad
in sĠinĠtheĠ
in ĠtheirĠhea
in cred
in ĠaĠsmall
in Ġplac
in ĠadditionĠtoĠtheĠ
in eĠconcer
in ,ĠyouâĢĻllĠseeĠ
in ĠtrackĠ
in ĠsaidĠcountyĠofĠmeigs,
in Ġseveral
in ĠyourĠfamilyĠ
in ĠaĠprivateĠbank
in .ĠthankĠyouĠsoĠmuch
in aĠwhoĠ
in fection
in iĠtreeĠ
in oĠsp
in Ġeng
in eĠecology,Ġb
Ġth urs
sĠ it
sĠ ll
sĠ our
sĠ no
sĠ her
sĠ part
sĠ go
sĠ wasĠ
sĠ when
sĠ open
sĠ center
sĠ âĢľ
sĠ useĠ
sĠ don
sĠ mask
sĠ âĢĶ
sĠ event
sĠ diningĠroom
sĠ everythingĠ
sĠ mad
sĠ intoĠ
sĠ by
sĠ down
sĠ sc
sĠ chair
sĠ whatĠ
sĠ willĠb
sĠ firstĠ
sĠ weĠhaveĠ
sĠ canĠbeĠ
sĠ feel
sĠ laidĠ
sĠ isĠnotĠ
sĠ fill
sĠ fiveĠ
sĠ mean
sĠ into
sĠ fromĠ
sĠ cours
sĠ melb
sĠ rack
sĠ research
sĠ earlier
sĠ prepar
sĠ beenĠgreat
sĠ notĠbeĠ
sĠ placeĠ
sĠ glen
sĠ veryĠspacious
sĠ conditionedĠforĠtheĠ
sĠ employ
sĠ lessĠthanĠtwoĠmetresĠfromĠtheĠplayer
sĠ dorm
sĠ ket
ou s,Ġ
ou ther
ou d.Ġ
ou thĠeastĠ
er Ġ
er on
er yĠ
er ,Ġ
er Ġp
er ĠtoĠ
er Ġb
er Ġd
er ect
er Ġwith
er ies
er sĠandĠ
er ĠisĠ
er allyĠ
er yĠandĠ
er min
er Ġis
er Ġmad
er usĠ
er Ġfriend
er rit
er ĠnotĠ
er iesĠin
er Ġroom
er ĠinĠm
er verseĠ
er sĠall
er sĠinĠother
er sĠtoĠgetĠ
er !ĠaĠf
er "Ġc
er p:Ġfun
dĠ of
dĠ beĠ
dĠ soĠ
dĠ forĠtheĠ
dĠ la
dĠ forĠm
dĠ experienc
dĠ dies
dĠ normal
dĠ good
dĠ isĠpr
dĠ inĠtheĠh
dĠ samsung
dĠ usĠof
dĠ vect
dĠ inĠjapan
tĠ or
tĠ pr
tĠ isĠa
tĠ soĠ
tĠ room
tĠ fe
tĠ dr
tĠ door
tĠ seat
tĠ onĠs
tĠ box
tĠ yourĠpl
tĠ grown
tĠ &Ġpre
tĠ fif
tĠ sch
on Ġ
on yĠ
on at
on ĠandĠ
on edĠ
on us
on eĠs
on e.Ġ
on ,ĠandĠ
on ceĠ
on ĠasĠ
on .ĠtheĠ
on ĠisĠ
on .Ġi
on Ġtr
on ĠtoĠtheĠ
on ĠmyĠ
on Ġor
on iteĠ
on esĠandĠ
on ish
on 'tĠ
on ĠweĠ
on Ġsuch
on ĠaĠs
on don
on derful
on ĠaĠlittleĠ
on !Ġw
on ĠhisĠ
on Ġopen
on es,
on aĠon
on to
on ĠjuneĠ
on Ġdisplay
on Ġtuesday
on ioĠd
on er!ĠaĠf
on tĠdoor
or ch
or Ġg
or Ġst
or eĠs
or Ġl
or Ġfor
or Ġlo
or s,Ġ
or sĠandĠ
or Ġtheir
or Ġn
or iesĠ
or s.
or eĠto
or e!
or reĠ
or esĠandĠ
or edĠin
or Ġne
or row
or tingĠ
or iesĠof
or Ġpeopl
or Ġdec
or ĠinĠtheĠ
or Ġde
or ,ĠsoĠ
or Ġmid
or ĠexperienceĠ
or y:
or Ġsur
or Ġtwo
or sĠthatĠcaus
or thĠeastĠ
or )Ġin
or ldĠ
or ningĠ
or dĠdies
en it
en .Ġ
en ingĠ
en Ġm
en ic
en Ġp
en ĠtoĠ
en Ġd
en Ġg
en ough
en s.
en ersĠ
en e,
en Ġint
en ueĠ
en ix
en s.Ġi
en ĠaĠfew
en vironment
en ormousĠ
en .ro
en hanc
en iusĠ
en uĠbutton
en zaĠm
en sĠeverythingĠ
ĠtheĠ es
ĠtheĠ st
ĠtheĠ we
ĠtheĠ int
ĠtheĠ bloo
ĠtheĠ hous
ĠtheĠ other
ĠtheĠ form
ĠtheĠ peri
ĠtheĠ week
ĠtheĠ open
ĠtheĠ ce
ĠtheĠ pa
ĠtheĠ lat
ĠtheĠ play
ĠtheĠ au
ĠtheĠ cent
ĠtheĠ congressĠ
ĠtheĠ opportun
ĠtheĠ reas
ĠtheĠ aren
ĠtheĠ lea
ĠtheĠ import
ĠtheĠ whit
ĠtheĠ experienceĠ
ĠtheĠ guidebook
ĠtheĠ complet
ĠtheĠ differentĠ
ĠtheĠ val
ĠtheĠ election
ĠtheĠ westĠ
ĠtheĠ onlyĠ
ĠtheĠ offic
ĠtheĠ restĠof
ĠtheĠ introdu
ĠtheĠ engag
ĠtheĠ opportunityĠtoĠ
ĠtheĠ halseyĠhous
ĠtheĠ circ
ĠtheĠ couch
ĠtheĠ del
ĠtheĠ equ
ĠtheĠ gateĠ
ĠtheĠ jack
ĠtheĠ entir
ĠtheĠ resultĠ
ĠtheĠ club
ĠtheĠ lineĠdivid
ĠtheĠ contro
ĠtheĠ capac
ĠtheĠ centerĠofĠsaidĠcounty
ĠtheĠ highestĠqual
ĠtheĠ nextĠfew
ĠtheĠ frontĠof
ĠtheĠ jambor
ĠtheĠ distanc
ĠtheĠ citizensĠof
ĠtheĠ homeĠtourĠwithĠyou
ĠtheĠ glitteryĠwineĠbottl
ĠtheĠ "f
ĠtheĠ drug
ĠtheĠ liver
Ġs ar
Ġs ent
Ġs our
Ġs us
Ġs un
Ġs ha
Ġs ol
Ġs ad
Ġs ayĠ
Ġs cor
Ġs iz
Ġs ong
Ġs ight
Ġs ession
Ġs old
Ġs etsĠ
Ġs chedul
Ġs ystem
Ġs ecur
Ġs ilver
Ġs oundproofĠwindowĠguy
Ġs outhĠof
Ġs oundproofĠwindowsĠinĠfortĠbranch,Ġin
Ġs entim
Ġs omeoneĠ
Ġs kill
Ġs aleĠt
Ġs itĠonĠtheĠ
Ġs ugar
Ġs atelliteĠ
Ġs aidĠtown
Ġs ky
Ġs uiteĠ
Ġs ince
re yĠ
re eĠt
re ma
re ew
re eĠm
re cl
re lyĠ
re ign
re sĠfor
re cre
re ass
re ce
re fin
re ,ĠtheĠ
re ject
re quire
re ach
re enĠin
re quiredĠ
re .ĠtoĠ
re vers
re e.Ġhowever
re port,Ġ
re volutionĠofĠ
re focus
re a.Ġi
re ju
re veal
re sĠsc
it .
it Ġan
it ar
it ĠtoĠ
it em
it eĠt
it âĢĻ
it abl
it s,Ġ
it iveĠ
it .Ġi
it ical
it sĠre
it tingĠ
it iesĠof
it isĠb
it ĠtoĠbeĠ
it âĢĿ
it ures
it iat
it te
it ,Ġbut
it uation
it alĠpartĠof
it ician
it ingĠmeĠtoĠbeĠaĠpartĠof
it e'sĠcre
it iativeĠ
it nessĠ
it teeĠ
yĠ with
yĠ ex
yĠ outĠ
yĠ co
yĠ new
yĠ ri
yĠ from
yĠ inĠtheĠ
yĠ onĠtheĠ
yĠ cont
yĠ decor
yĠ des
yĠ fast
yĠ grow
yĠ whatĠ
yĠ whereĠ
yĠ lif
yĠ project
yĠ does
yĠ latenc
yĠ proc
yĠ inĠour
yĠ privateĠ
yĠ isĠyet
yĠ itĠhasĠbeen
yĠ establish
yĠ involv
yĠ basisĠ
yĠ yourĠfamil
yĠ developĠa
yĠ employ
yĠ preferred.Ġ
yĠ kos
yĠ orĠl
yĠ reject
ing âĢĻ
ing ĠthatĠ
ing Ġal
ing Ġtim
ing s.
ing ĠatĠ
ing Ġso
ing sĠre
ing Ġthos
ing ton
ing ,ĠtheĠ
ing ĠsaidĠcounty
ing ĠthingsĠ
ing sĠofĠtheĠ
ing .Ġa
ing ness
ing ĠandĠt
ing ,Ġwhich
ing ĠsaidĠcountyĠofĠmeig
ing .Ġb
ing s,Ġworkshop
ing sĠatĠ
ing .ĠiĠam
ing ,ĠaĠd
ing !ĠthankĠyouĠforĠtheĠawesomeĠreview
ing ement.Ġ
ing Ġalaskan
ing Ġtouches
ing ĠstampsĠ&
ing ĠatĠleast
ing !Ġso
ing ,ĠtheĠm
ing leĠs
ing erĠwith
an ch
an Ġre
an no
an Ġo
an pp
an sĠtoĠ
an e,
an y.Ġ
an Ġis
an ian
an alys
an Ġact
an Ġupd
an Ġe
an Ġspr
an Ġpres
an Ġspect
an sionĠandĠ
an Ġorder
an s.ĠifĠyouĠhaveĠ
an Ġdirector
an .Ġthey
an yĠtimeĠ
an zasĠ
at al
at .Ġ
at is
at om
at eĠtoĠ
at ial
at ingĠtheĠ
at edĠtoĠ
at elyĠ
at esĠandĠ
at es.Ġ
at ers
at ĠtheĠm
at ĠtheĠb
at ĠanyĠ
at .ĠweĠ
at edĠbyĠ
at eĠthisĠ
at ely
at ingĠthisĠ
at ive,Ġ
at ing.
at ĠtheyĠdoĠ
at edĠbyĠs
at eful
at ĠtheĠnba
at eĠthroughĠtheĠnationalĠresearchĠcouncil
at hĠasĠa
at ĠtheĠjambor
at itisĠb
Ġan tl
Ġan Ġis
Ġan ton
Ġan Ġover
Ġan ah
Ġan Ġinter
Ġan Ġhour
Ġan aemia
Ġan ĠamazingĠ
Ġan ĠalternativeĠ
Ġan tiqueĠ
Ġan atom
al .Ġ
al es
al con
al soĠ
al Ġsc
al ong
al so
al ityĠ
al ign
al Ġfrom
al ass
al low
al ax
al istĠ
al seyĠhous
al Ġalcohol
al ĠofĠtheĠnewĠyouthĠprogram
al aĠevent
al !ĠgreatĠ
al Ġthing
al sĠconcern
al ĠspaceĠ
al ty.
al ĠandĠprovideĠfeedback
al ;ĠitâĢĻsĠ
al fĠm
al tru
oĠ âĢĵ
oĠ when
oĠ onĠa
oĠ hotel
oĠ person
oĠ forĠthisĠ
oĠ comf
oĠ itĠup
oĠ likeĠto
oĠ -Ġi
.Ġ lo
.Ġ el
.Ġ ex
.Ġ wh
.Ġ eas
.Ġ par
.Ġ inĠtheĠ
.Ġ view
.Ġ din
.Ġ how
.Ġ plac
.Ġ well
.Ġ cordĠbloodĠ
.Ġ leas
.Ġ when
.Ġ each
.Ġ cap
.Ġ mostĠ
.Ġ fun
.Ġ but
.Ġ greatĠ
.Ġ check
.Ġ we'reĠ
.Ġ me
.Ġ however
.Ġ car
.Ġ cand
.Ġ goodĠ
.Ġ piec
.Ġ includ
.Ġ guidebook
.Ġ housewarmingĠpartyĠinvitesĠfreeĠtemplateĠ
.Ġ mark
.Ġ pat
.Ġ inĠf
.Ġ never
.Ġ whil
.Ġ quietĠ
.Ġ yourĠhomeĠ
.Ġ recommend
.Ġ poor
.Ġ hold
.Ġ friendlyĠ
.Ġ hadĠbeen
.Ġ beĠsureĠto
.Ġ definitelyĠ
.Ġ circ
.Ġ gateĠ
.Ġ pleas
.Ġ earlier
.Ġ ifĠitĠ
.Ġ everyoneĠ
.Ġ forĠmoreĠinformation
.Ġ findĠ
.Ġ closeĠtoĠ
.Ġ itâĢĻsĠbeen
.Ġ beĠsureĠtoĠcheck
.Ġ participant
.Ġ elizabethĠellisĠandĠdrewĠmichael
.Ġ pioneer
.Ġ gender
.Ġ michael
.Ġ nat
.Ġ onĠtuesday
ar ch
ar ac
ar Ġl
ar ity
ar Ġme
ar ant
ar yĠs
ar y,Ġ
ar ĠtheĠm
ar ren
ar ryĠ
ar ris
ar Ġreview
ar rang
ar eĠtw
ar Ġspot
ar cod
ar eĠtwoĠ
ar yĠt
ar tĠoutĠ
ar eĠso
ar eĠbeautiful
ar fĠr
ar yĠteam
ar Ã¡Ġl
of Ġre
of Ġall
of Ġyour
of ĠitĠ
of Ġmeig
of ten
of Ġsuch
of Ġqu
of Ġpain
of itsĠ
of tĠb
of ĠaĠc
of ĠthoseĠ
of Ġher
of ĠyourĠgr
of ore,Ġ
of Ġira
of ĠthemĠbyĠthisĠact
of Ġtenness
of ĠsesĠg
of oci
of tsĠwith
of tĠ&Ġpre
,Ġ for
,Ġ our
,Ġ un
,Ġ your
,Ġ from
,Ġ weĠ
,Ġ mak
,Ġ jo
,Ġ ifĠyou
,Ġ pres
,Ġ wasĠ
,Ġ when
,Ġ exp
,Ġ hear
,Ġ âĢľ
,Ġ clean
,Ġ comp
,Ġ however
,Ġ car
,Ġ jam
,Ġ oneĠof
,Ġ learn
,Ġ yourĠhomeĠ
,Ġ combin
,Ġ professional
,Ġ beingĠ
,Ġ workingĠwith
,Ġ diningĠtabl
,Ġ implementation
,Ġ especiallyĠ
,Ġ floral
,Ġ cash
,Ġ weĠs
,Ġ onĠwhich
,Ġ weâĢĻveĠ
,Ġ onĠtheĠtennesseeĠriver
,Ġ head
,Ġ canĠyou
,Ġ readyĠtoĠ
,Ġ underĠtheĠsameĠ
,Ġ communication
,Ġ non-
,Ġ gul
,Ġ jonĠc
,Ġ karen
,Ġ weĠtak
,Ġ yay
,Ġ onĠor
es is
es s,Ġ
es per
es Ġab
es sĠof
es ĠatĠ
es ia
es ĠandĠtheĠ
es ,Ġa
es ĠtheĠcount
es ,Ġin
es Ġappl
es Ġtoo
es ,Ġs
es ,Ġand
es .ĠthisĠ
es Ġass
es .ĠsectionĠ
es Ġabout
es ,Ġwhich
es ;Ġand
es iÃ³n
es ,Ġtoo!
es aid
es ĠthisĠyear
es ĠtooĠ
es ĠtoĠtheĠs
es Ġalong
es eĠup
es ĠaĠfresh
es !ĠhopeĠyouâĢĻreĠhavingĠaĠgreatĠ
es !ĠtheyĠareĠ
es :Ġmar
es men
es ucrist
es ĠtheĠcontro
is ha
is eĠs
is e.Ġ
is Ġtr
is eĠandĠ
is ĠaboutĠ
is cal
is ĠtheĠp
is âĢĶ
is Ġtour
is ĠtheĠn
is eĠthatĠ
is !Ġh
is ian
is ĠalwaysĠ
is ciplin
is .ĠaĠp
is ingĠthat
is Ġalter
is ,ĠwhoĠ
is kĠofĠtheĠbod
is ley
is sĠher
you Ġc
you Ġm
you Ġwith
you ĠloveĠ
you Ġus
you Ġwill
you Ġdo
you ĠwouldĠ
you Ġknow
you Ġdon
you Ġget
you ĠseeĠ
you 'll
you Ġhonor
you Ġstill
you Ġlink
you ĠshouldĠ
you Ġfe
you Ġspecific
you ĠaĠspecial
you ĠtoĠcom
you Ġstop
you ĠtimeĠandĠ
you Ġjoin
you âĢĻllĠse
ĠandĠ st
ĠandĠ our
ĠandĠ ex
ĠandĠ gr
ĠandĠ up
ĠandĠ int
ĠandĠ be
ĠandĠ inĠtheĠ
ĠandĠ mak
ĠandĠ christmasĠ
ĠandĠ din
ĠandĠ veryĠ
ĠandĠ glitter
ĠandĠ hol
ĠandĠ cont
ĠandĠ invit
ĠandĠ moreĠ
ĠandĠ hasĠ
ĠandĠ coll
ĠandĠ open
ĠandĠ reg
ĠandĠ iĠhaveĠ
ĠandĠ everythingĠ
ĠandĠ lov
ĠandĠ hasĠbeen
ĠandĠ gre
ĠandĠ has
ĠandĠ hotel
ĠandĠ pool
ĠandĠ success
ĠandĠ experienc
ĠandĠ visit
ĠandĠ health
ĠandĠ product
ĠandĠ eventĠ
ĠandĠ littleĠ
ĠandĠ wouldĠ
ĠandĠ earlyĠ
ĠandĠ oper
ĠandĠ loveĠtheĠ
ĠandĠ expect
ĠandĠ mayĠbeĠ
ĠandĠ wonderful
ĠandĠ concern
ĠandĠ kitchen
ĠandĠ youngĠpeopl
ĠandĠ sheĠ
ĠandĠ into
ĠandĠ professional
ĠandĠ perform
ĠandĠ cod
ĠandĠ cozy
ĠandĠ beĠsureĠto
ĠandĠ candl
ĠandĠ dv
ĠandĠ otherĠs
ĠandĠ zydecoĠ
ĠandĠ psych
ĠandĠ wider
ĠandĠ jurisdiction
ĠandĠ deb
ĠandĠ pep
ĠandĠ rud
ĠandĠ yesĠ
ĠandĠ inĠit
ĠandĠ onĠaĠs
om Ġof
om ist
om Ġfor
om entĠof
om sĠfill
th isĠ
th Ġb
th ent
th Ġyou
th ĠthatĠ
th ous
th ingĠtoĠ
th rit
th isĠs
th Ġoctober
th odĠ
th Ġart
th ĠonĠtheĠ
th e'sĠ
th ĠdayĠ
th ĠasĠtheyĠ
th Ġsection
th ingĠasĠ
th Ġhol
th Ġstyl
th ,ĠtodayĠ
th eir
th onyĠ
th esis
ion ĠofĠtheĠ
ion !Ġh
ion ĠdoesĠ
ion mentĠof
ion sĠmakesĠ
ch edĠ
ch and
ch ĠandĠm
ch alleng
ch iev
ch ang
ch uck
ch att
ch bish
ch dio
ch ipp
ch ocol
ch ineĠconcer
ll nes
ll ness
ll Ġun
ll d-
ingĠ #
ingĠ $
ingĠ our
ingĠ fr
ingĠ out
ingĠ now
ingĠ cl
ingĠ myĠ
ingĠ bloodĠ
ingĠ onĠtheĠ
ingĠ lin
ingĠ ofĠtheĠ
ingĠ how
ingĠ po
ingĠ dayĠ
ingĠ wasĠ
ingĠ fromĠtheĠ
ingĠ organ
ingĠ card
ingĠ hom
ingĠ cap
ingĠ pit
ingĠ high
ingĠ clos
ingĠ cell
ingĠ fast
ingĠ me
ingĠ ris
ingĠ congres
ingĠ day,Ġ
ingĠ eventĠ
ingĠ vid
ingĠ itĠall
ingĠ quiteĠ
ingĠ condition
ingĠ dist
ingĠ real
ingĠ major
ingĠ into
ingĠ burger
ingĠ floral
ingĠ hiv
ingĠ voic
ingĠ yes
ingĠ reserv
ingĠ iraqâĢĻsĠ
ingĠ expert
ingĠ intoĠtheĠ
ingĠ dueĠ
ingĠ cred
ingĠ both
ingĠ photographer
ingĠ global
ingĠ youthĠday
ingĠ maintenance.Ġ
ingĠ jurisdiction
ingĠ fet
ingĠ nightĠ
ingĠ roundĠ
ingĠ rema
ingĠ itĠtoĠbeĠ
for Ġf
for Ġar
for Ġl
for ĠtheĠs
for Ġour
for estĠ
for get
for Ġother
for Ġatt
for ĠanĠ
for Ġhous
for giv
for ĠchristmasĠ
for ĠsomeĠ
for Ġbuild
for ĠcountyĠ
for Ġtax
for Ġfre
for Ġcongres
for ĠthisĠcardĠ
for Ġamerica
for ward
for ĠaĠspecial
for Ġdet
for Ġextra
for eĠtheĠfirstĠ
for ĠapplicationsĠ
for ĠstemĠcellsĠ
for ĠadditionalĠinformationĠaboutĠmeoĠsatellit
for besĠl
for cedĠ
for eĠemail
for ĠaĠtour
for esaid
lo grap
lo odĠ
lo l!Ġi
lo an,Ġ
lo dg
as edĠ
as e.Ġ
as tĠof
as ĠaĠp
as ersĠ
as eĠin
as eĠyou
as sĠre
as ically
as edĠatĠtheĠ
as sionĠandĠ
as pĠtheĠm
as inoĠsp
as ĠtheĠplay
as isâĢĶ
as ion!Ġh
Ġc el
Ġc am
Ġc all
Ġc our
Ġc up
Ġc ard
Ġc over
Ġc aus
Ġc arm
Ġc ost
Ġc ustom
Ġc ros
Ġc entreĠ
Ġc oatĠofĠmetallicĠs
Ġc rim
Ġc aseĠyou
Ġm el
Ġm all
Ġm ay
Ġm ess
Ġm uch
Ġm ik
Ġm ightĠ
Ġm yĠs
Ġm ostĠ
Ġm eĠa
Ġm ark
Ġm one
Ġm erv
Ġm akeĠ
Ġm ater
Ġm oment
Ġm oveĠ
Ġm w.
Ġm eĠand
Ġm ental
Ġm odĠ
Ġm enĠin
Ġm edic
Ġm cminn
Ġm issed
Ġm istakeĠ
Ġm l)Ġ(
Ġm wĠtoĠ
Ġm enuĠbutton
Ġm issĠher
Ġm omentĠof
ec ut
ec ureĠ
ec ret
ec ondĠ
ec astingĠandĠ
ec ofoci
ic e
ic ed
ic Ġb
ic ent
ic ateĠ
ic ant
ic Ġor
ic ip
ic ator
ic ĠthingsĠ
ic leĠ
ic .ĠitĠ
ic Ġfun
ic Ġstep
ic sĠor
ic ,ĠmoreĠ
ic ienc
ic ,Ġapp
ic eĠthereof
ic ipar
ic atedĠbyĠs
ic Ġanaemia
ic ĠandĠint
ed Ġand
ed room
ed Ġtim
ed ition
ed ,Ġb
ed Ġthrough
ed .Ġyou
ed ĠandĠs
ed ĠanĠ
ed ĠaboutĠyour
ed Ġaround
ed ĠthingsĠ
ed -up
ed .Ġ"
ed ĠthatĠi
ed .ĠandĠ
ed .Ġit
ed ;Ġwhich
ed .Ġin
ed sĠtoĠbeĠ
ed yâĢĻsĠ
ed elman
ed ĠthemĠbyĠthisĠact
ed Ġtuesday
ed ĠartificialĠsweeten
ed ,ĠnothingĠinĠthisĠactĠcontainedĠshallĠb
ed ;ĠaĠpatriotĠandĠsoldierĠofĠtheĠ
ed onĠisĠ
ed omĠof
isĠ oneĠ
isĠ ever
isĠ soĠ
isĠ moreĠ
isĠ open
isĠ dis
isĠ long
isĠ partĠof
isĠ rem
isĠ loc
isĠ offer
isĠ grandĠ
isĠ lovely
isĠ runner
isĠ happen
isĠ vision
isĠ veryĠspacious
isĠ dav
isĠ itâĢĿ
Ġp et
Ġp ur
Ġp ri
Ġp utĠ
Ġp ack
Ġp ostĠ
Ġp each
Ġp iec
Ġp ost
Ġp ark
Ġp erson
Ġp aint
Ġp icĠin
Ġp itĠisĠ
Ġp inkfreshĠstudio
Ġp cĠcounterĠheightĠ
Ġp ictures
Ġp .m
Ġp sych
Ġp inec
Ġp orch
edĠ our
edĠ if
edĠ your
edĠ isĠa
edĠ from
edĠ her
edĠ bl
edĠ myĠ
edĠ over
edĠ how
edĠ cordĠbloodĠ
edĠ glitter
edĠ fromĠtheĠ
edĠ lu
edĠ usĠ
edĠ onĠa
edĠ ho
edĠ until
edĠ caus
edĠ hotel
edĠ off
edĠ stemĠcellsĠ
edĠ commissioners,
edĠ communityĠ
edĠ gar
edĠ onĠc
edĠ ifĠi
edĠ cordĠbloodĠcollection
edĠ youĠareĠenjoy
edĠ floral
edĠ directly
edĠ &Ġb
edĠ gard
edĠ hour
edĠ intoĠtheĠ
edĠ quickly
edĠ security,Ġ
edĠ promp
edĠ neutralĠcolor
edĠ cordĠclamping
edĠ cutĠ
edĠ four
edĠ gif
edĠ keyĠ
edĠ moment
edĠ rain
edĠ orĠde
Ġh us
Ġh ear
Ġh igh
Ġh ep
Ġh over
Ġh arm
Ġh ook
Ġh ub
Ġh ome
Ġh iat
Ġh easelgraveĠ
Ġh oney
Ġh easelgraveĠs
Ġh easelgraveĠsaysĠtheĠ
Ġh iĠm
Ġh ello
Ġh andmad
Ġh ollywoodĠ
Ġh iĠr
Ġh arris
Ġw all
Ġw eĠt
Ġw id
Ġw ear
Ġw eĠs
Ġw ol
Ġw entĠ
Ġw ell
Ġw eĠm
Ġw estĠ
Ġw arm
Ġw ish
Ġw ideĠ
Ġw ardĠ
Ġw edd
Ġw eĠdo
Ġw arr
Ġw estern
Ġw eĠdidnâĢĻtĠ
Ġw on'tĠ
Ġw ordĠdies
ro ad
ro pp
ro sion
ro sc
ro ker
ro bertĠwhitaker
ro dĠla
ro ane,
ro .Ġlo
veĠ your
veĠ toĠ
veĠ youĠus
veĠ forĠar
ĠtoĠ gr
ĠtoĠ co
ĠtoĠ haveĠ
ĠtoĠ comm
ĠtoĠ go
ĠtoĠ fe
ĠtoĠ coll
ĠtoĠ open
ĠtoĠ justĠ
ĠtoĠ even
ĠtoĠ bo
ĠtoĠ gu
ĠtoĠ check
ĠtoĠ commun
ĠtoĠ des
ĠtoĠ def
ĠtoĠ experienc
ĠtoĠ beĠsur
ĠtoĠ getĠ
ĠtoĠ yourĠf
ĠtoĠ provideĠ
ĠtoĠ createĠ
ĠtoĠ keep
ĠtoĠ learn
ĠtoĠ rem
ĠtoĠ requ
ĠtoĠ charg
ĠtoĠ collect
ĠtoĠ goĠ
ĠtoĠ ensur
ĠtoĠ engag
ĠtoĠ eachĠb
ĠtoĠ consider
ĠtoĠ hun
ĠtoĠ playĠ
ĠtoĠ whom
ĠtoĠ establish
ĠtoĠ contro
ĠtoĠ doĠit
ĠtoĠ findĠ
ĠtoĠ closeĠtoĠ
ĠtoĠ meetĠ
ĠtoĠ importantĠ
ĠtoĠ developĠa
ĠtoĠ zydecoĠdanc
ĠtoĠ giveĠth
ĠtoĠ put
ĠtoĠ wil
ĠtoĠ onĠdisplay
el ig
el der
el ĠsoĠ
el sĠareĠ
el yĠtheĠ
el ement
el ier
el se
el se,Ġ
el Ġlik
el iev
el eg
el tersĠandĠ
el iotĠdalton
el sĠfromĠ
el iteĠt
el isha
st ation
st ig
st and
st ea
st ill
st op
st abl
st ad
st andĠ
st ri
st Ġthem
st ra
st air
st atesĠ
st uff
st itution
st rug
st ruct
st aur
st Ġton
st ump
st retch
st ream
st agesĠ
st abilityĠof
Ġb em
Ġb all
Ġb ir
Ġb and
Ġb ill
Ġb ank
Ġb ough
Ġb ly
Ġb yĠs
Ġb ook
Ġb urn
Ġb one
Ġb yĠm
Ġb ash
Ġb ondĠ
Ġb loc
Ġb usiness
Ġb yĠoffer
Ġb enefitĠ
Ġb yĠcl
Ġb ecauseĠtheyĠ
Ġb edĠandĠbreak
Ġb rightĠwhit
Ġb loodĠ
Ġb asedĠ
Ġb edroom
Ġb roker
ent ingĠ
ent sĠa
ent sĠin
ent s,
ent iveĠ
ent Ġthat
ent iallyĠ
ent itl
ent ry
ent ification
ent sĠandĠwork
ent lyĠof
ent edĠtuesday
ent ĠtoĠco
ith ac
ith Ġpr
ith er,ĠbutĠi
ith msĠthatĠ
Ġd iv
Ġd idĠ
Ġd oneĠ
Ġd ev
Ġd ef
Ġd ens
Ġd anceĠ
Ġd eck
Ġd eliver
Ġd ress
Ġd evelop
Ġd irect
Ġd ataĠs
Ġd epend
Ġd ies,Ġ
Ġd ownload
Ġd uck
Ġd ynam
Ġd rop
Ġd jok
Ġd upl
Ġd yingĠtoĠ
Ġd oĠlikeĠto
Ġd ropp
am and
am eĠs
am e!
am ong
am eric
am mer
am br
am eĠman
am enities
am mingĠfrom
am edĠonĠtheĠ
am eĠthisĠyear
am a.ĠyouĠcan
am enit
am arĠl
em ex
em sĠin
em ĠcellsĠ
em sĠfromĠtheĠ
em ories
em aker
em sĠtoĠbeĠ
em .ĠiĠdon'tĠ
em Ġnecess
em i!ĠthankĠyouĠforĠtheĠawesomeĠreview
em yĠonĠtheĠ
Ġyou .
Ġyou ĠhaveĠ
Ġyou Ġcan
Ġyou ĠjustĠ
Ġyou ĠtoĠs
Ġyou âĢĻveĠ
Ġyou Ġabout
Ġyou Ġel
Ġyou Ġdecor
Ġyou 'll
Ġyou ngĠpeopl
Ġyou ĠasĠyou
Ġyou ĠinĠtheĠf
Ġyou .ĠiĠam
Ġyou ĠmyĠchristmasĠ
Ġyou thĠdayĠ
Ġyou ĠtoĠyourĠf
et ĠandĠ
et esĠ
et ,ĠandĠ
et cl
et Ġtr
et ast
et âĢĻsĠ
et ingĠtheĠ
et work
et sĠareĠ
et yĠw
et s,ĠandĠ
et ach
et oĠd
et leĠ
et sĠat
et erĠs
et alĠd
et eĠdis
et c.ĠsoĠ
et ihadĠ
et syĠst
et .Ġwhen
et ofore,Ġ
et ,ĠdiningĠtabl
et edĠover
et ĠtoĠprovideĠ
ver yĠof
ver Ġaren
ver Ġindic
ver tingĠtheĠ
atĠ with
atĠ sp
atĠ down
atĠ gatehous
atĠ only
atĠ bay
atĠ emb
atĠ soundproofĠwindowĠguy
Ġto ĠthatĠ
Ġto e.Ġ
Ġto Ġall
Ġto Ġam
Ġto Ġtak
Ġto dayĠ
Ġto Ġapp
Ġto Ġapplication
Ġto Ġass
Ġto ĠseeĠ
Ġto Ġstar
Ġto wer
Ġto ĠseeĠtheĠ
Ġto ĠshareĠwith
Ġto ĠattendĠcongressĠ
Ġto .Ġthankful
Ġto tallyĠ
Ġto ĠaĠspac
all ĠsoĠ
all ĠaboutĠ
all yĠs
all ĠtheĠt
all Ġatt
all ĠtheĠp
all aw
all Ġover
all ,Ġm
all Ġbo
all ĠofĠyour
all ĠtheĠrestĠof
all elĠsoĠ
all Ġband
all Ġdeck
pl us
pl ain
pl eĠb
pl ast
pl eĠa
pl antĠ
pl ansĠ
pl us,
pl ansĠtoĠ
esĠ itĠ
esĠ from
esĠ ever
esĠ bl
esĠ way
esĠ over
esĠ forĠtheĠ
esĠ du
esĠ ofĠtheĠ
esĠ min
esĠ play
esĠ dur
esĠ withĠtheĠ
esĠ willĠb
esĠ putĠ
esĠ section
esĠ collect
esĠ meo
esĠ moreĠthan
esĠ ofĠ
esĠ combin
esĠ privateĠ
esĠ net
esĠ set
esĠ using
esĠ weâĢĻveĠ
esĠ placeĠ
esĠ guest
esĠ won'tĠ
esĠ leftĠ
esĠ iĠshareĠ
esĠ it.Ġi
esĠ forĠstemĠcellsĠ
esĠ veryĠof
our Ġg
our Ġin
our Ġn
our Ġwas
our Ġhom
our Ġonlin
our Ġapart
our !Ġyou
our Ġseason
our ĠupdatedĠ
our ĠhotĠcoco
our ĠliquidĠwatercolor
our ĠtreeĠup
our Ġcomplet
our ,ĠsuchĠasĠ
our ceful
our Ġmone
our ĠwardĠ
il est
il iz
il y,Ġ
il ities
il ient
il Ġpat
il ityĠtoĠ
il eg
il eĠsensation
il yĠgrow
il esĠofĠtheĠ
us eĠth
us iveĠ
us edĠtoĠ
us eĠof
us edĠfor
us ,ĠtheĠ
us edĠbyĠtheĠ
us edĠby
us ingĠitĠ
us ual
us edĠs
us edĠinĠtheĠ
us eum
us Ġt.Ġj
us yĠoutĠ
us .Ġcand
us ingĠroundĠ
us ic,Ġapp
Ġf ew
Ġf eat
Ġf ra
Ġf ish
Ġf lu
Ġf urn
Ġf ranch
Ġf irst
Ġf ansĠ
Ġf ollow
Ġf eastĠ
Ġf iveĠth
Ġf iber-lik
Ġf loor
Ġf eltĠ
Ġf awn
Ġf irstĠoff,Ġi
Ġf rozenĠthem
Ġf abulousĠ
Ġf oot
Ġf itnessĠ
Ġi ĠhaveĠ
Ġi Ġso
Ġi gl
Ġi Ġthink
Ġi Ġget
Ġi ĠwasĠ
Ġi Ġhad
Ġi Ġlea
Ġi Ġcer
Ġi ĠthoughtĠ
Ġi ĠappreciateĠ
Ġi chthyoplankton
Ġi Ġfig
Ġi Ġagree,Ġ
Ġi rĠl
Ġi llnes
Ġi ĠputĠ
Ġi Ġwish
ur eĠs
ur pr
ur ateĠ
ur yĠc
ur eĠandĠ
ur allyĠ
ur Ġ(
ur gyĠ
ur gy
ur ingĠsup
ur faceĠ
ur ous,Ġ
ur ingĠitĠall
ac tĠof
ac tl
ac iÃ³n
ac cel
ac tĠp
ac tĠoneĠ
ac countĠ
ac tĠdr
ac resĠfor
ac ĠandĠdeb
ac ilities
ay ĠthatĠ
ay beĠ
ay ersĠ
ay .Ġs
ay edĠto
ay s,Ġsp
ay list
ay ingĠyes
ay edĠcordĠclamping
ation ?
ation sĠa
ation sĠof
ation !Ġi
ation Ġwith
ation Ġon
ation ĠofĠtheĠ
ation sĠre
ation sĠfor
ation Ġact
ation sĠt
ation Ġcre
ation Ġlea
ation ,Ġno
ation ship
ation sĠandĠb
ation Ġopportunities
ation ĠbecauseĠtheyĠ
eĠt oo
eĠt ast
eĠt ableĠ
eĠt own
eĠt reeĠ
eĠt itl
eĠt raditional
eĠt oniteĠ
Ġof Ġin
Ġof Ġre
Ġof Ġtr
Ġof Ġthem
Ġof ĠmyĠ
Ġof Ġdo
Ġof Ġcont
Ġof Ġcount
Ġof Ġspecial
Ġof Ġcor
Ġof ĠtheĠsp
Ġof ĠscoutsĠaustralia
Ġof ĠsittingĠ
Ġof Ġtur
Ġof Ġaud
Ġof ĠhotĠcoco
Ġof Ġoceanograph
Ġof ĠtheirĠwebsit
Ġof ĠaggravatedĠorganizm
Ġof fĠtoĠ
Ġof ĠaĠd
Ġof Ġanatom
Ġof ĠbasedĠ
ab and
ab ĠthisĠ
ab iesĠ
ab Ġit
ab ilit
ab ric
ab sentĠfrom
ab our,ĠsuchĠasĠ
ow ever
ow Ġup
ow ers
ow edĠwhen
Ġg ard
Ġg room
Ġg over
Ġg aveĠ
Ġg ome
Ġg overn
Ġg oneĠandĠ
Ġg ladĠ
Ġg atesĠand
Ġg las
Ġg eniusĠ
Ġg alax
Ġg oĠonĠa
Ġg emsĠin
id enceĠ
id Ġthrough
id eal
id atesĠ
id .Ġ"
id ential
id dleĠ
id wifeĠ
id Ġactor
id ,Ġpres
id isciplin
id entsĠandĠwork
ig enceĠ
ig ationsĠ
ig s,Ġdeceas
ig mĠofĠc
res tĠb
res pect
res olv
res ortĠ
res pon
res entĠthat
res ourceful
res ilient
res idenceĠ
im ul
im ingĠtoĠ
im atedĠ
im possibil
im esĠ(
im possibl
im mun
im agesĠ
im ately,Ġlatenc
im med
im sical
im eĠposition
im inateĠ
im ens.Ġi
im aryĠt
ma gn
ma sĠs
ma Ġtier
with Ġl
with Ġyour
with Ġpro
with Ġtim
with Ġour
with Ġus
with ĠaĠf
with Ġsuch
with ĠaĠs
with Ġpl
with Ġro
with Ġeach
with Ġmar
with ĠscoutĠgroup
with Ġglitter
with ĠallĠyour
with Ġwhat
with ĠthoseĠglitter
with Ġcrow
with Ġmaint
with Ġhiv
with Ġtraditional
with Ġwhom
with ĠtheĠcountyĠofĠrhea
with Ġcommunity
with ĠcurrentĠ
with ĠaggravatedĠorganizm
with ĠadvancedĠ
with Ġtaugh
with ĠsoundproofĠwindowĠguy
with ĠantiqueĠ
un itĠ
un av
un lik
un iver
un iqu
un itsĠ
un avail
un day,Ġ
un itedĠ
un ivers
un damental
un lessĠ
un fortun
un dantĠ
un limitedĠ
un dĠinĠtheĠh
un ĠandĠzydecoĠ
un forgiv
ne edĠtoĠbeĠ
ne gativeĠ
ne tĠpr
ne llĠun
ne edĠour
ne ilĠpat
ul a
ul e,Ġ
ul tĠof
ul yĠandĠ
ul ys
ul tĠin
ul yĠfeat
ul geĠtheĠ
ir ableĠ
ir ish
ir ingĠl
ir aff
ir dĠofĠtheĠ
ir dĠandĠ
ir mation
ir Ġest
ir eĠpit
ir anian
ir ĠofĠtur
Ġar ter
Ġar row
Ġar eĠsoĠ
Ġar eĠtheĠb
Ġar tĠisĠa
Ġar thrit
Ġst ateĠ
Ġst ew
Ġst ayĠ
Ġst eam
Ġst ash
Ġst itch
Ġst oreĠyourĠbaby'sĠcordĠbloodĠpriv
Ġst imul
and ĠtheĠf
and ĠthereĠ
and sĠfor
and pa
and Ġalask
and ĠtheyĠareĠ
and ĠaĠlotĠ
and ĠadvancedĠ
and iwork
and lesĠon
and omĠfor
and edĠlu
and elier
ex ampl
ex ual
ex ts,Ġ
ex amin
ex erciseĠ
ex cuseĠ
ex trins
ex ually
ex itiesĠof
ex actl
ear ,ĠandĠ
ear ly
ear ĠitĠ
ear sĠdorm
âĢĻ ,
âĢĻ sĠa
âĢĻ s!
âĢĻ ĠâĢĵ
âĢĻ Ġann
âĢĻ s.ĠsheĠ
âĢĻ dĠbeĠ
âĢĻ Ġsky
ha vi
ha wĠregular
eĠs etĠ
eĠs iz
eĠs iteĠ
eĠs cal
eĠs ession
eĠs ort
eĠs earch
eĠs mall
eĠs outh
eĠs weet
eĠs omeoneĠ
eĠs idel
eĠs aving
eĠs atelliteĠ
eĠs et.Ġtall
eĠs ucc
eĠs eries
eĠs et,ĠdiningĠtabl
eĠs ayingĠyes
eĠs hawĠregular
ect rumĠof
if ĠtheĠs
if Ġyour
if eĠand
if Ġnot
if iedĠ
if tyĠ
if ferent
if ĠyourĠfamilyĠ
if ĠsomeoneĠ
if thĠsection
if ĠdoneĠ
ter iz
ter rit
ter sect
gr ill
gr anceĠof
gr yĠsoĠwe
gr ateful
gr abĠit
com par
com eĠandĠ
com pre
com eb
com eĠto
com ingĠfrom
com ĠstarĠ
com bĠchristmas
com oĠperson
com edyâĢĻsĠ
ea der
ea ,Ġgul
Ġl ak
Ġl etĠ
Ġl ev
Ġl ind
Ġl ong
Ġl astĠ
Ġl essĠ
Ġl earn
Ġl akeĠ
Ġl ater
Ġl essĠthan
Ġl aĠm
Ġl asersĠareĠ
Ġl orreĠ
Ġl etâĢĻsĠ
iv e.Ġ
iv ityĠ
iv e-
iv ision
iv ari
iv ateĠs
iv alentĠ
iv es,ĠandĠ
iv e,Ġto
iv enĠm
iv irĠest
ill ard
ill sĠover
ill Ġcre
ol e
ol atedĠ
ol ĠwouldĠ
ol ution
ol son
ol e.ĠthisĠ
ol kĠm
ol pman
ol veĠyour
ol Ġfurn
ol eĠsession
op Ġj
op y,Ġ
op y.
op tĠoutĠ
op tĠtheĠprogram
op yrightĠ
eĠth ereĠ
eĠth isĠa
eĠth eĠm
eĠth ingĠtoĠ
eĠth ingsĠareĠ
eĠth at.Ġ
entĠ wasĠ
entĠ nam
entĠ ball
entĠ forĠthisĠ
entĠ onĠthisĠblog
entĠ forward
entĠ loan,Ġ
os eĠtheĠ
os Ã©
os singĠ&
os ,Ġlearn
os ĠandĠdv
os esĠcombin
ut Ġall
ut esĠa
ut es,
ut cher
ut ,Ġcombin
pro per
pro gres
pro ce
pro long
pro jectĠ
pro tein
pro jectĠwith
up Ġfor
up ĠsoĠ
up anc
up hea
up Ġmy
up ĠyourĠf
up Ġclos
up portĠandĠ
up onĠsuch
up ĠofĠhotĠcoco
Ġin Ġyour
Ġin ĠloveĠ
Ġin form
Ġin ĠtheĠp
Ġin clud
Ġin sideĠ
Ġin ĠscoutĠgroup
Ġin Ġportugal
Ġin ĠoctoberĠ
Ġin juryĠ
Ġin ĠtheĠbuild
Ġin ternal
Ġin cidentĠratesĠ
Ġin ĠaĠpreviousĠ
Ġin ked
Ġin Ġaction
Ġin Ġsiz
Ġin itiativeĠ
Ġin ĠcaseĠyou
ot eĠasĠ
ot sĠthatĠi
ot tom
ot e.Ġhowever
ot omist
ot entiallyĠ
we etĠ
we igh
we 'll
we irdĠandĠ
we âĢĻdĠbeĠ
ĠthisĠ dec
ĠthisĠ wasĠ
ĠthisĠ stem
ĠthisĠ great
ĠthisĠ commun
ĠthisĠ weekend
ĠthisĠ lastĠ
ĠthisĠ releas
ĠthisĠ stamp
ĠthisĠ wouldĠ
ĠthisĠ stat
ĠthisĠ mod
ĠthisĠ recongressĠ
ĠthisĠ epidemic
ĠthisĠ emailing
ĠthisĠ shin
ĠthisĠ position
ĠthisĠ holidayĠseason
ĠthisĠ deep
ĠthisĠ mightĠ
ĠthisĠ projectĠ
itĠ fr
itĠ beĠ
itĠ out
itĠ isĠa
itĠ her
itĠ now
itĠ ofĠtheĠ
itĠ moreĠ
itĠ cap
itĠ ner
itĠ se
itĠ lea
itĠ inĠtheĠs
itĠ isĠtheĠ
itĠ deliver
itĠ staff
itĠ definitelyĠ
itĠ extra
itĠ price
itĠ gotĠaĠc
itĠ onĠaĠlittleĠ
itĠ require
Ġand Ġam
Ġand Ġtak
Ġand ĠalsoĠ
Ġand Ġthrough
Ġand ĠaĠb
Ġand Ġtenn
Ġand Ġaddition
Ġand ĠtwoĠ
Ġand Ġtour
Ġand Ġattract
Ġand ĠaĠ
Ġand ĠaĠh
Ġand Ġarrang
Ġand Ġtopic
Ġand ,Ġwell
ist ak
ist ri
ist anceĠ
ist icĠs
ist .ĠtheyĠcanĠhelp
ist ings,Ġworkshop
ist ic,ĠmoreĠ
Ġre act
Ġre do
Ġre fer
Ġre ind
Ġre du
Ġre min
Ġre stor
Ġre ce
Ġre fin
Ġre ven
Ġre develop
Ġre fill
Ġre centĠ
Ġre alĠp
Ġre portĠandĠ
Ġre alty.
Ġre allyĠs
abl e
abl e,Ġ
abl eĠm
abl e.
abl eĠb
abl eĠandĠ
abl edĠbyĠ
abl eĠseat
abl eĠdiningĠroom
abl esĠset
fr ameĠ
fr aspinatus
fr agranc
wh iteĠ
wh yĠm
wh yĠis
wh yĠlatenc
wh atĠtheyĠdoĠ
wh imsical
wh oleĠsession
ĠthatĠ isĠa
ĠthatĠ much
ĠthatĠ christmasĠ
ĠthatĠ help
ĠthatĠ group
ĠthatĠ partĠof
ĠthatĠ littl
ĠthatĠ makeĠ
ĠthatĠ mayĠbeĠ
ĠthatĠ real
ĠthatĠ ourĠc
ĠthatĠ sheĠ
ĠthatĠ myĠgrandma
ĠthatĠ enjoysĠa
ĠthatĠ foodĠ
ĠthatĠ fansĠ
ĠthatĠ start
ĠthatĠ everyĠs
ĠthatĠ soĠfar
ĠthatĠ ensure
ĠthatĠ cordĠbloodĠshouldĠ
ĠthatĠ centerpiec
ĠthatĠ iĠamĠsuper
ĠthatĠ ourĠmone
beĠ oneĠ
beĠ be
beĠ onĠtheĠ
beĠ get
beĠ well
beĠ âĢľ
beĠ need
beĠ help
beĠ mad
beĠ caus
beĠ ris
beĠ ableĠto
beĠ laidĠ
beĠ storedĠ
beĠ onĠaĠd
beĠ electedĠ
beĠ brough
beĠ fu
beĠ andĠtheyĠareĠ
ad der
ad .ĠtheĠ
ad eĠandĠ
ad 'sĠ
ad dition
ad ientĠ
ad vis
ad ient
ad ĠtoĠs
ad alĠi
ad ministr
ad oĠhotel
ad asĠaĠp
ad igmĠofĠc
qu areĠ
qu ip
qu iver
qu ently
qu iteĠd
qu eĠtop
qu iet
qu ois
qu antitativeĠ
qu iringĠl
con utĠ
con cordĠ
con nect
con eĠtrees
con cept
con fidentĠ
con vertingĠtheĠ
e.Ġ now
e.Ġ cordĠbloodĠ
e.Ġ when
e.Ġ noĠ
e.Ġ clean
e.Ġ ph
e.Ġ befor
e.Ġ itĠisĠ
e.Ġ weĠareĠ
e.Ġ hi
e.Ġ note:
e.Ġ "weĠ
e.Ġ doĠthisĠ
e.Ġ canĠyou
e.Ġ design
e.Ġ priorĠexperienceĠ
e.Ġ drewĠmichaelĠandĠelizabethĠellisĠ
e.Ġ danceĠinstru
e.Ġ ohĠsweetĠfriend
e.Ġ forĠsomeĠ
e.Ġ itĠisĠa
Ġal ik
Ġal ign
Ġal bum
Ġal iĠal-sistani
Ġal oneĠs
end s.Ġ
end Ġtheir
end eeĠ
end -st
end .ĠifĠitĠ
end ableĠdiningĠroom
sh own
sh mal
sh ould
sh eltersĠandĠ
sh owĠup
Ġfor ĠaĠp
Ġfor ĠmyĠ
Ġfor Ġus
Ġfor ĠtheĠf
Ġfor Ġit
Ġfor ĠaĠs
Ġfor Ġdin
Ġfor Ġask
Ġfor Ġapplication
Ġfor ĠcongressĠ
Ġfor ĠtheĠcountyĠcour
Ġfor ĠscoutsĠaustralia
Ġfor Ġhim
Ġfor Ġstor
Ġfor Ġrepresent
Ġfor ĠaĠpat
Ġfor Ġira
Ġfor Ġstop
Ġfor Ġstart
Ġfor Ġinv
Ġfor ĠourĠcongressĠ
Ġfor ĠtakingĠ
Ġfor Ġtwo
Ġfor Ġguest
Ġfor Ġimpl
Ġfor msĠ
Ġfor ĠaĠcom
Ġfor ecastingĠandĠ
Ġlo cation
Ġlo tsĠof
Ġlo w-no
Ġlo ans.ĠifĠyouĠhaveĠ
ap pre
ap .ĠifĠyou
ap propri
outĠ from
outĠ how
outĠ moreĠ
outĠ hav
outĠ such
outĠ wher
outĠ north
outĠ yourĠhome!
outĠ it,Ġbut
outĠ whyĠlatenc
your Ġj
your Ġcon
your Ġgr
your Ġpain
your ĠchristmasĠdecor
your ĠshoulderĠpain
your Ġlocal
your ĠmoneyĠ
your Ġway
your Ġexercis
your ĠtimeĠandĠ
your ĠcordĠbloodĠ
your sĠisĠnotĠ
s,Ġ out
s,Ġ mak
s,Ġ byĠ
s,Ġ call
s,Ġ hear
s,Ġ need
s,Ġ we'reĠ
s,Ġ whereĠ
s,Ġ however
s,Ġ it'sĠ
s,Ġ befor
s,Ġ mark
s,Ġ you'reĠ
s,Ġ onĠs
s,Ġ onĠc
s,Ġ ifĠi
s,Ġ material
s,Ġ outĠof
s,Ġ proven
s,Ġ psych
s,Ġ conditionedĠforĠtheĠ
s,Ġ civilĠandĠm
s,Ġ iĠjustĠloveĠ
s,Ġ isĠveryĠspacious
s,Ġ withĠwhom
Ġthe yĠoffer
,ĠandĠ per
,ĠandĠ weĠ
,ĠandĠ ind
,ĠandĠ du
,ĠandĠ other
,ĠandĠ cal
,ĠandĠ iĠhaveĠ
,ĠandĠ noĠ
,ĠandĠ help
,ĠandĠ lat
,ĠandĠ lif
,ĠandĠ iĠloveĠ
,ĠandĠ pat
,ĠandĠ ourĠc
,ĠandĠ bound
,ĠandĠ mor
,ĠandĠ everyoneĠ
,ĠandĠ ofĠcourse,Ġ
,ĠandĠ sometimes
,ĠandĠ his
,ĠandĠ vehic
,ĠandĠ inĠaĠsmall
,ĠandĠ youĠwill
,ĠandĠ withĠpro
e,Ġ loveĠ
e,Ġ byĠ
e,Ġ iĠhaveĠ
e,Ġ but
e,Ġ lov
e,Ġ intoĠ
e,Ġ until
e,Ġ down
e,Ġ iĠam
e,Ġ health
e,Ġ iĠloveĠ
e,Ġ yetĠ
e,Ġ near
e,Ġ divid
e,Ġ quit
e,Ġ obvious
e,Ġ further
e,Ġ inĠwhich
e,Ġ orĠg
e,Ġ youĠwouldĠ
e,Ġ eliteĠt
e,Ġ itĠse
e,Ġ beĠlaidĠ
int ell
int act
int ens
int imat
int ableĠandĠ
sĠa way
sĠa cc
sĠa sĠt
sĠa Ġturn
sĠa goĠ
sĠa ĠâĢľ
sĠa ĠstemĠcellĠtrans
sĠa ĠkeyĠ
sĠa Ġrun
sĠa Ġcomplet
sĠa ccount
sĠa foresaid
sĠa imingĠtoĠ
ĠareĠ over
ĠareĠ much
ĠareĠ ofĠtheĠ
ĠareĠ art
ĠareĠ compl
ĠareĠ aĠfew
ĠareĠ welcom
ĠareĠ alwaysĠ
ĠareĠ focus
ĠareĠ alsoĠ
ĠareĠ allĠatt
ceĠ ag
ceĠ aĠ
ceĠ ofĠpain
Ġsh ould
Ġsh elf
Ġsh eâĢĻ
Ġsh iiteĠ
Ġsh ambr
ak e"Ġafter
ak e,Ġnear
count ryĠ
count yĠofĠrhea
count ries
count yĠtr
etĠ onĠtheĠ
etĠ ofĠtheĠ
etĠ call
etĠ withĠtheĠ
etĠ pric
etĠ ball
etĠ big
etĠ onlin
etĠ ofĠ
etĠ inĠtheĠp
etĠ jointĠ
etĠ pul
eas yĠtoĠ
pr ayĠ
pr ingĠof
pr ayers
pr iveĠtheĠ
pr oud.Ġ
pr isingĠthat
pr imaryĠt
igh Ġlev
ell e!
ell sĠareĠ
ell oĠd
ell ingĠthisĠ
ell ĠtheĠlot
ell ations,Ġ
ell ,ĠandĠinĠaĠsmall
Ġall Ġtheir
Ġall ĠofĠtheĠ
Ġall Ġoffic
Ġall ĠtheĠn
Ġall Ġphot
Ġall .ĠiĠloveĠ
Ġall ĠtheĠtim
Ġall ĠtheĠnew
Ġall ĠofĠyour
Ġall Ġliv
Ġall ĠtheĠavail
Ġall Ġsur
Ġall Ġrespect
Ġall ĠoverĠtheĠ
Ġall ĠonlineĠatĠwww.recongress.org/
Ġall ey.Ġ
Ġall Ġuk
Ġall ĠtheĠlat
Ġall Ġmater
Ġall Ġdress
idĠ centuryĠ
idĠ lodg
idĠ irish
ĠtheĠs eat
ĠtheĠs ens
ĠtheĠs cal
ĠtheĠs ub
ĠtheĠs chedul
ĠtheĠs aid
ĠtheĠs umĠof
ĠtheĠs weet
ĠtheĠs chedule,
ĠtheĠs alesĠ
ĠtheĠs cen
ĠtheĠs wank
ĠtheĠs ituation
ĠtheĠs econdĠ
ĠtheĠs pringĠof
ateĠ bas
ateĠ withĠtheĠ
ateĠ ins
ateĠ match
ateĠ entertain
ateĠ cordĠblood
ateĠ uniqueĠ
ateĠ intoĠyourĠdecor
ateĠ aĠlo
ateĠ night
ateĠ orĠlo
ateĠ analys
ateĠ forĠchristmasĠ
s.Ġ $
s.Ġ from
s.Ġ inĠtheĠ
s.Ġ notĠ
s.Ġ part
s.Ġ every
s.Ġ hom
s.Ġ doĠ
s.Ġ itâĢĻsĠ
s.Ġ hal
s.Ġ it'sĠ
s.Ġ import
s.Ġ partĠof
s.Ġ best
s.Ġ www.
s.Ġ ourĠ
s.Ġ weĠd
s.Ġ research
s.Ġ itĠhasĠbeen
s.Ġ doĠthisĠ
s.Ġ forĠtheĠfirst
s.Ġ government
s.Ġ "asĠ
s.Ġ forĠadditionalĠinformationĠaboutĠmeoĠsatellit
s.Ġ ourĠwas
s.Ġ whyĠis
andĠ styl
andĠ det
andĠ medic
andĠ extra
andĠ weĠknow
andĠ soĠfar
andĠ necessaril
andĠ ofĠsesĠg
andĠ itĠstaff
ess ageĠ
ess ĠtoĠm
ess !ĠiĠam
ess mentĠof
Ġha sĠre
Ġha sĠp
Ġha sĠbeenĠgreat
der sĠandĠ
der sĠtoĠ
der s!
der Ġabout
der sĠlastĠyear
der ]Ġl
der nĠdayĠ
oo oĠcomf
tĠof Ġtheir
tĠof Ġrhea
tĠof ĠsaidĠcountyĠofĠmeig
blo wn
blo cksĠin
blo omsĠfill
ew Ġyear
oneĠ isĠa
oneĠ ofĠtheĠ
oneĠ call
oneĠ whoĠ
oneĠ celebr
oneĠ after
oneĠ doesĠ
oneĠ basisĠ
oneĠ anyĠtimeĠ
oneĠ youĠdon
oneĠ withĠaĠs
oneĠ compre
ank sgiv
ther eĠareĠ
per Ġcon
per min
per ten
per iment
per Ġbook
um e.
um ĠisĠ
um ans
Ġj ust
Ġj ourne
Ġj ourn
Ġj ade.Ġ
Ġj esucrist
Ġj etcl
Ġj ulyĠfeat
ĠasĠ dec
ĠasĠ other
ĠasĠ youĠcan
ĠasĠ man
ĠasĠ full
ĠasĠ grow
ĠasĠ lastĠ
ĠasĠ requ
ĠasĠ itĠisĠ
ĠasĠ expect
ĠasĠ possess
ĠasĠ bedĠandĠbreak
ĠasĠ o'haraĠs
ous andĠdollar
ous andĠalask
.ĠtheĠ post
.ĠtheĠ ground
.ĠtheĠ communityĠ
.ĠtheĠ pain
.ĠtheĠ program
.ĠtheĠ adventureĠbeginsĠ
.ĠtheĠ costĠ
.ĠtheĠ ht
.ĠtheĠ chanceĠof
.ĠtheĠ approv
.ĠtheĠ peopleĠar
.ĠtheĠ lakesĠandĠ
.ĠtheĠ magn
be ingĠa
be ingĠs
be low
be ,Ġand
be gan
be kah
be etleĠ
Ġyour Ġdo
Ġyour Ġtabl
Ġyour ĠhomeĠ
Ġyour Ġwork
Ġyour Ġro
Ġyour Ġnew
Ġyour Ġhom
Ġyour Ġbab
Ġyour Ġstamp
Ġyour ĠnotĠ
Ġyour ĠtableĠ
Ġyour Ġmid
Ġyour Ġph
Ġyour ĠcuteĠ
Ġyour Ġhome
Ġyour Ġdev
Ġyour Ġstash
aidĠ commissionersĠshall
uch ĠmoreĠ
Ġab ov
Ġab useĠand
Ġab oveĠth
Ġab leĠtoĠcreateĠ
Ġab sor
Ġab ilityĠtoĠ
Ġsp ik
Ġsp eaker
Ġsp atial
Ġsp illsĠover
ayĠ over
ayĠ moreĠ
ayĠ butĠ
ayĠ isĠb
ayĠ cordĠclamping
ayĠ 'in
ayĠ ourĠg
sĠof ĠsaidĠ
sĠof ten
sĠof Ġpeopl
sĠof Ġreg
sĠof ĠsaidĠcountyĠofĠmeig
sĠof Ġland
sĠof ĠyourĠgr
sĠof Ġcongres
sĠof Ġhiv
sĠof Ġext
sĠof ĠtheĠmask
sĠof Ġscouting
sĠof Ġsparkl
sĠof fĠwith
sĠof Ġecosystem
sĠof ĠyoungĠpeopl
sĠof ĠtheĠsalesĠ
sĠof Ġabov
ĠsoĠ doĠ
ĠsoĠ fun
ĠsoĠ far
ĠsoĠ expend
ĠsoĠ prettyĠ
ĠsoĠ myĠhous
ĠsoĠ niceĠtoĠ
ĠsoĠ cra
ĠsoĠ grateful
!Ġi Ġmad
!Ġi 'veĠ
!Ġi Ġwant
!Ġi Ġdid
!Ġi Ġlink
!Ġi ĠneedĠtoĠ
!Ġi tĠhasĠbeen
!Ġi ĠhaveĠenjoyedĠ
!Ġi ĠaddedĠ
ag eĠtoĠ
ag edĠtoĠ
ag e.ĠtheĠ
ag edĠbyĠ
ag ingĠl
ag esĠareĠ
ag gravatedĠ
ag e,Ġwhich
ag eĠofĠ
ag nos
ag ree.Ġhowever
ag icĠb
ag acĠandĠdeb
ag e.ĠdanceĠinstru
ain ĠisĠ
ain Ġcell
ain Ġfrom
ain edĠto
ain ĠwasĠ
ain sĠpart
ain ĠofĠcor
ev ant
ev iaĠ
ev ins,Ġ
ev elsĠfromĠ
no log
no onĠfor
no b"Ġwhen
no yingĠ
no on.ĠtheĠ
out .Ġi
out âĢĿ
out door
out putĠ
out ĠasĠmuch
out ĠthisĠplace.Ġ
out skir
out ĠtheĠnextĠfew
out ĠtoĠfe
ereĠ isĠoneĠ
ereĠ yourĠcordĠbloodĠ
omeĠ mask
omeĠ cardstock
omeĠ green
omeĠ he
omeĠ in-
omeĠ in,ĠyouâĢĻllĠseeĠ
omeĠ confidentĠ
co ach
co gn
co -star
co zyĠ
co astĠof
co conutĠ
par tĠisĠ
par eĠfor
par ents,
par adigmĠofĠc
eĠd ef
eĠd ov
eĠd oll
eĠd ays.Ġ
eĠd eliver
eĠd ivers
eĠd uringĠtheĠ
eĠd epos
eĠd ependingĠon
eĠd r.Ġ
eĠd vdĠ
eĠd etach
eĠd oneĠanyĠtimeĠ
new Ġprogram
new sp
new ĠtoĠm
new Ġcolor
new Ġpo
new ĠforĠm
new s.ĠifĠyou
new ĠhollywoodĠ
new ĠinitiativeĠ
new Ġspeaker
ri pp
ri ef
ri Ġtur
ri alĠf
ri chardĠ
ri alĠandĠprovideĠfeedback
utĠ we'reĠ
utĠ withoutĠ
utĠ upĠtheĠ
isĠa tt
isĠa Ġv
isĠa Ġpat
isĠa ĠcombinationĠof
isĠa Ġpark
cor rosion
cor nellĠun
tl ef
tl eĠtouch
tl esĠwithĠtheĠ
tl eĠdov
ust ryĠ
ust ee,Ġ
year s.Ġ
year s,
year s.
year ;ĠandĠ
year ĠonĠtheĠ
year ĠsinceĠ
year s?Ġwh
year Ġ@Ġg
year .ĠforĠmoreĠinformation
year s,ĠifĠi
year ,ĠandĠweĠ
year sĠofĠext
eĠm oreĠ
eĠm e!
eĠm ov
eĠm atch
eĠm yĠb
eĠm onth
eĠm uscl
eĠm oney
eĠm outhĠof
eĠm ostĠof
eĠm ulti
eĠm oreĠspecialĠwith
eĠm eet
eĠm iniĠtreeĠ
eĠm etast
eĠm idĠcenturyĠ
eĠm essageĠ
eĠm uchĠmoreĠ
sĠin ĠtheĠm
sĠin Ġsuch
sĠin formation
sĠin ĠtheĠshoulder
sĠin Ġpar
sĠin clud
sĠin Ġalaska
sĠin vol
sĠin ĠchristmasĠdecor
sĠin ĠadditionĠtoĠtheĠ
sĠin Ġamerica,Ġ
sĠin k,ĠandĠ
sĠin ĠsaidĠtown
sĠin stitution
sĠin ĠtheĠspringĠof
yĠof Ġ
yĠof Ġsc
yĠof fic
yĠof ĠanĠ
yĠof ĠtheĠcountyĠcour
yĠof ĠscoutsĠaustralia
yĠof Ġmcminn
yĠof Ġwestern
from .ĠifĠyou
from ĠmoreĠthan
from Ġdel
from Ġlos
from Ġcrow
from Ġcollect
from ĠaĠnumberĠof
from Ġinternal
from ĠthisĠemailing
from ĠthatĠsoĠfar
ĠhaveĠ been
ĠhaveĠ dis
ĠhaveĠ se
ĠhaveĠ toĠ
ĠhaveĠ aĠnew
ĠhaveĠ plentyĠof
ĠhaveĠ any.Ġ
ĠhaveĠ yourĠexercis
ber ingĠs
ber Ġstep
ber t!ĠthankĠyouĠsoĠmuch
ber osesĠcombin
ever ĠiĠwant
ever eĠab
por tĠd
por tersĠandĠ
por ateĠentertain
Ġo cc
est aĠs
est edĠandĠ
est .Ġ"
est ive,Ġ
est ĠandĠget
est -pa
est ĠandĠgr
est ingĠmaintenance.Ġ
est igationsĠ
est Ġarrow
Ġwith Ġ
Ġwith Ġthes
Ġwith Ġch
Ġwith ĠtheĠt
Ġwith Ġsuch
Ġwith Ġfin
Ġwith Ġ$
Ġwith Ġchalleng
Ġwith ĠaĠprivateĠ
Ġwith ĠtheĠcountyĠofĠmeigs,Ġ
Ġwith Ġtel
Ġwith in.ĠandĠ
Ġwith ĠtheĠint
Ġwith Ġsilver
Ġwith Ġpet
Ġwith ĠbloodĠ
Ġwith ĠyourĠcuteĠ
act iveĠ
act ingĠs
act usin
act ,ĠthatĠ
act uallyĠ
act ivelyĠandĠ
act )Ġthan
act sĠthisĠ
ep ip
ep tingĠ
ep aper
ep inelakeĠ
ep icent
ies -o
ies ĠaĠlotĠ
ies !Ġamanda,Ġi
ies .Ġam
ies ĠtoĠgu
ies .ĠtheĠchanceĠof
eĠtoĠ haveĠ
eĠtoĠ get
eĠtoĠ los
eĠtoĠ useĠ
eĠtoĠ beĠs
eĠtoĠ play
eĠtoĠ pin
eĠtoĠ constru
eĠtoĠ beĠmail
eĠtoĠ bay
eĠtoĠ doĠit
eĠtoĠ dn
eĠtoĠ fil
20 0
20 2
20 7
her e.
her ĠthingsĠ
her s!Ġi
her ĠrecentlyĠ
her e,ĠbecauseĠ
her etofore,Ġ
her ĠfrozenĠthem
sĠandĠ haveĠ
sĠandĠ forĠm
sĠandĠ review
sĠandĠ br
sĠandĠ project
sĠandĠ corpor
sĠandĠ fisher
sĠandĠ charg
sĠandĠ condition
sĠandĠ priv
sĠandĠ expect
sĠandĠ ob
sĠandĠ setĠ
sĠandĠ otherĠs
sĠandĠ shoppingĠcenter
sĠandĠ sometimes
sĠandĠ restrictions,ĠandĠ
sĠandĠ food
sĠandĠ ofĠsuch
sĠandĠ elisha
sĠandĠ itĠcap
sĠandĠ convertingĠtheĠ
sĠandĠ prayers
will Ġon
will Ġtr
will Ġshar
will Ġget
will Ġalway
will Ġkeep
will Ġpower
will Ġanswer
will Ġcollect
will Ġut
will ingness
will ĠmakeĠ
Ġam ĠaĠb
Ġam !ĠweĠ
Ġam Ġcurr
Ġam ĠsoĠsorryĠforĠyourĠloss.Ġ
Ġam ĠgladĠ
reat edĠwith
reat ivity
yĠc enter
yĠc raf
yĠc eil
yĠc aters
yĠc andlesĠon
yĠc ellsĠareĠ
yĠc reativity
Ġcon du
Ġcon cre
Ġcon nectĠwith
Ġcon veyĠtheĠ
Ġcon Ġjesucrist
bl areĠ
bl ersĠ
bl edĠin
bl ĠwasĠ
bl edonĠisĠ
bl adder
bl andĠofĠsesĠg
now Ġhav
now ,Ġtoo!
now ĠisĠan
now .ĠweĠhaveĠ
now ĠonĠour
now Ġ-Ġi
now ĠhaveĠaĠnew
weĠ hav
weĠ wereĠ
weĠ playĠ
weĠ intend
weĠ workĠto
weĠ stri
asĠ can
asĠ withĠtheĠ
asĠ big
asĠ good
asĠ deĠf
asĠ esper
e. Ġas
e. Ġso
e. ĠalsoĠ
e. Ġatt
e. Ġask
e. Ġthough
e. ĠsomeĠ
e. ĠsheĠ
e. ĠthisĠisĠ
e. ĠaĠnew
e. Ġspecific
e. Ġthous
e. Ġsub
e. ĠtheyĠlook
e. ĠsetĠupĠandĠ
e. ĠsoĠexcitedĠtoĠbeĠ
e. ĠsoĠhappyĠtoĠ
e. ĠthatĠisĠa
e. ĠasĠbedĠandĠbreak
e. ĠsoĠfar
ial ingĠ
ial Ġquestion
ial ĠwebsiteĠ
ial sĠfirstĠ
ial ĠandĠprofessional
Ġon Ġweek
Ġon e-
Ġon ĠchristmasĠ
Ġon ĠaĠc
Ġon ĠoctoberĠ
Ġon ĠfastingĠ
Ġon ĠtheirĠhea
Ġon Ġyester
Ġon -courtĠseat
Ġon lyĠoffer
Ġon esĠever
Ġon eĠthingĠtoĠ
Ġon ceĠaĠ
Ġon ĠyourĠtabl
haveĠ fin
haveĠ hadĠ
haveĠ toĠ
haveĠ book
haveĠ myĠs
haveĠ beenĠgreat
haveĠ aĠpo
haveĠ anĠe
haveĠ youĠjoin
haveĠ itĠdeliver
haveĠ addition
ection ĠofĠtheĠ
ection ,Ġa
ection sĠfor
ection ĠofĠ
ection al!ĠgreatĠ
comm od
comm on,ĠandĠ
comm itteeĠ
cl eric
cl uster
cl aim
cl amarĠl
cl ear,ĠandĠ
ich thyoplankton
ich olson
ich elle!
s, ĠanyĠ
s, Ġac
s, Ġthen
s, Ġaccess
s, Ġaffect
s, ĠandĠall
s, ĠsuchĠasĠ
s, ĠandĠthis
s, Ġalthough
s, ĠallowingĠ
s, Ġtact
s, ĠthisĠwasĠ
s, ĠandĠarrang
s, ĠasĠother
soĠ perfect
soĠ easy
soĠ cozy
soĠ manyĠ
soĠ comf
soĠ refin
eĠb ack
eĠb od
eĠb y.Ġ
eĠb yĠinvit
eĠb uild
eĠb irth
eĠb estĠqual
eĠb ulletsĠ
eĠb oast
eĠb yĠyourĠfamil
eĠb asedĠatĠtheĠ
eĠb edĠ&Ġb
eĠb usyĠoutĠ
eĠb entĠforward
eĠb itĠprice
ough estĠ
ough Ġfew
ough ĠforĠtwo
ard ĠandĠad
ard ream
iveĠ way
iveĠ liv
iveĠ to
iveĠ launch
iveĠ purchaser
iveĠ youĠspecific
ly ingĠs
ly Ġthey
ly Ġturn
ly mp
ly .ĠbutĠ
ly ?Ġliv
ly mph
ly ,ĠyourĠhomeĠ
ly ,ĠandĠyouĠwill
ly Ġam!ĠweĠ
vi ps
vi adasĠaĠp
ĠisĠ pre
ĠisĠ curr
ĠisĠ just
ĠisĠ complet
ĠisĠ lack
ĠisĠ only
ĠisĠ perfect
ĠisĠ gettingĠ
ĠisĠ wonderful
ĠisĠ here!
ĠisĠ poor
ĠisĠ helpful
ĠisĠ veryĠnic
ĠisĠ bugg
ĠisĠ den
ĠisĠ rareĠ
ĠisĠ soo
ĠisĠ itĠtoĠ
ĠisĠ comingĠfrom
ĠisĠ common,ĠandĠ
Ġat ĠaĠp
Ġat ĠtheĠm
Ġat ĠtheĠb
Ġat ĠtheĠt
Ġat Ġany
Ġat ĠtheseĠtwoĠ
Ġat Ġtal
Ġat Ġall.ĠiĠloveĠ
Ġat ĠtheĠschedul
oreĠ how
oreĠ calledĠ
oreĠ combin
oreĠ step
oreĠ andĠtheĠf
.Ġi Ġcan
.Ġi Ġad
.Ġi Ġpr
.Ġi ĠjustĠ
.Ġi ĠwouldĠ
.Ġi Ġget
.Ġi ĠreallyĠ
.Ġi Ġcreat
.Ġi Ġdiec
.Ġi Ġfound
.Ġi ĠhaveĠenjoyedĠ
.Ġi Ġknew
.Ġi âĢĻmĠsoĠ
.Ġi ĠknowĠi
.Ġi âĢĻveĠaddedĠ
.Ġi 'veĠcreated
.Ġi ĠonlyĠoffer
Ġpro gres
Ġpro du
Ġpro pert
Ġpro ject
Ġpro ces
Ġpro duct
Ġpro lif
Ġpro cess
Ġpro cure
Ġpro ceed
Ġpro tein
Ġpro clamarĠl
ack ĠpartyĠ
ack .Ġpoor
ek Ġblack
ek ,ĠonĠtheĠtennesseeĠriver
Ġex pres
Ġex amin
Ġex erciseĠ
Ġex ceptĠ
Ġex periment
Ġtr yĠs
Ġtr ueĠt
Ġtr yĠfast
Ġtr actĠof
Ġas Ġthis
Ġas ĠanĠ
Ġas ĠthatĠisĠ
Ġas :ĠshoulderĠpain
Ġas ĠtheĠdel
Ġwh ether
Ġwh yĠthes
Ġwh ite'sĠcre
Ġwh atĠsp
Ġwh ole.ĠthisĠ
Ġwh ereĠyourĠcordĠbloodĠ
Ġtheir Ġad
Ġtheir Ġres
Ġtheir Ġse
Ġtheir Ġmember
Ġtheir Ġpremium
Ġtheir Ġfan
Ġtheir ĠvideoĠ
Ġtheir Ġhoney
Ġtheir Ġjourne
do ingĠtheĠ
do ĠanyĠ
do ĠanĠ
do ĠaĠlo
do !Ġ
do ĠandĠperform
Ġn aj
Ġn uest
Ġn orth
Ġn hs
Ġn atal
Ġn etwork
Ġn icholson
eĠandĠ organ
eĠandĠ noĠ
eĠandĠ back
eĠandĠ clean
eĠandĠ goodĠ
eĠandĠ friendly
eĠandĠ perform
eĠandĠ goldĠ
eĠandĠ withĠnoĠ
eĠandĠ possess
eĠandĠ polic
eĠandĠ wineĠ
eĠandĠ faithfulĠperform
eĠandĠ nast
eĠandĠ corrosion
eĠandĠ blareĠ
inĠtheĠ shoulder
inĠtheĠ air
inĠtheĠ cell
inĠtheĠ purchas
inĠtheĠ stamp
inĠtheĠ journe
inĠtheĠ nhsĠcordĠbloodĠbank
inĠtheĠ aboutĠ
inĠtheĠ bound
inĠtheĠ futur
inĠtheĠ apart
inĠtheĠ cler
inĠtheĠ frontĠof
inĠtheĠ treas
inĠtheĠ comedyâĢĻsĠ
inĠtheĠ outĠnorth
Ġcan cer
Ġcan Ġy
Ġcan Ġact
Ġcan Ġplan
Ġcan Ġeat
room Ġis
room .Ġw
room .ĠdiningĠroom
room ,Ġmak
room ĠandĠpool
room s,Ġout
av ingĠin
av ingĠfor
av yĠceil
iz eĠl
iz eĠtheĠt
iz e:Ġ
iz arr
iz onaĠon
iz ed.Ġ"
lit erallyĠ
lit urgyĠ
lit olĠwouldĠ
Ġtim e,
Ġtim eĠin
Ġtim es.Ġ
Ġtim eĠof
Ġtim eĠl
Ġtim e,Ġi
Ġtim eĠtoĠcreateĠ
Ġtim eĠbetween
Ġtim e,ĠbeĠlaidĠ
Ġtim eĠtoĠlos
Ġtim e.ĠthatĠisĠa
Ġtim eĠbentĠforward
ity ĠtoĠtheĠ
ity !Ġh
ity ĠasĠwellĠasĠ
ity ĠthatĠtheĠ
ity .Ġhiv
ity .Ġthes
ity Ġsight
ity ,ĠandĠnoĠ
ask ,Ġyou
ask sĠjustĠ
edĠb yĠandĠ
edĠb ecaus
edĠb utĠwe'reĠ
ound ingĠs
iesĠ lik
iesĠ look
iesĠ manag
iesĠ fromĠ
iesĠ intact
iesĠ weĠhav
sion ĠareĠaĠfew
Ġk ind
Ġk ick
Ġk eer
Ġk ub
Ġk ept
Ġk itchen
Ġk incan
Ġk etoĠd
Ġk utcher
Ġthank sĠfor
Ġthank sĠsoĠmuch
ĠbeĠ plac
ĠbeĠ presentĠ
ĠbeĠ amaz
ĠbeĠ flex
ĠbeĠ asĠgood
ĠtoĠtheĠ edg
ĠtoĠtheĠ begin
ĠtoĠtheĠ govern
ĠtoĠtheĠ federal
ĠtoĠtheĠ world
ĠtoĠtheĠ dwell
ĠtoĠtheĠ firstĠof
ĠtoĠtheĠ nas
ĠtoĠtheĠ ypr
ĠtoĠtheĠ thous
ĠtoĠtheĠ respect
ĠtoĠtheĠ countyĠtr
s>Ġ<s> ĠatĠ
s>Ġ<s> ĠweĠ
s>Ġ<s> Ġro
s>Ġ<s> Ġhous
s>Ġ<s> Ġwhen
s>Ġ<s> ĠdiningĠroom
s>Ġ<s> Ġpal
s>Ġ<s> Ġwelcom
s>Ġ<s> ĠthisĠisĠa
s>Ġ<s> Ġjapan
s>Ġ<s> Ġpleas
s>Ġ<s> Ġrecongres
s>Ġ<s> ĠourĠb
s>Ġ<s> ĠcordĠbloodĠ
s>Ġ<s> ĠhappyĠfriday,ĠblogĠfriends!
s>Ġ<s> Ġbaghd
s>Ġ<s> Ġash
s>Ġ<s> Ġhello
s>Ġ<s> ĠiĠthoughtĠ
s>Ġ<s> ĠletâĢĻsĠ
s>Ġ<s> ĠinĠaĠpreviousĠ
s>Ġ<s> ĠareĠart
'sĠ own
'sĠ prom
'sĠ umbilicalĠcor
'sĠ goneĠ
'sĠ polic
'sĠ mill
'sĠ enough
'sĠ revers
'sĠ newĠhollywoodĠ
ff ectĠ
ff irmation
myĠ fri
myĠ friend
myĠ hom
myĠ fin
myĠ christm
myĠ rustic
myĠ wayĠ
myĠ daughter
myĠ livingĠroom
ment .ĠweĠ
ment .ĠitĠ
ment .Ġhi
ment alĠi
ment ,Ġwe'reĠ
ment ,ĠweĠs
ment s,Ġneed
ment ĠareĠofĠtheĠ
pre pa
pre mium
pre viousĠ
pre -ec
pre curs
pre matur
Ġr ound
Ġr areĠ
Ġr ight
Ġr ick
Ġr atesĠ
Ġr he
Ġr andal
Ġr iskĠofĠtheĠbod
Ġr ule,Ġ
Ġr andomĠfor
enc iesĠthatĠ
enc es!ĠhopeĠyouâĢĻreĠhavingĠaĠgreatĠ
areĠ hereĠ
areĠ forĠp
areĠ veryĠnic
areĠ currentlyĠs
areĠ ourĠin
areĠ beĠfu
areĠ nowĠonĠour
ast ideĠ
ast ĠtwoĠ
ast .Ġw
ast ing?
ast icallyĠ
ast onish
Ġme !ĠðŁĻĤĠi
Ġme oĠâĢĵ
Ġme etĠinĠtheĠp
âĢĻsĠ hom
âĢĻsĠ grand
âĢĻsĠ quarter
âĢĻsĠ proximityĠtoĠ
âĢĻsĠ beautiful
âĢĻsĠ militar
âĢĻsĠ primaryĠt
eb rit
eb t,Ġor
fer Ġpay
fer Ġdat
fer ,Ġstor
fer ĠbrightĠwhit
hous eĠandĠjail
hous e.Ġnow
s. Ġang
s. ĠthisĠisĠ
s. ĠthisĠisĠa
s. ĠtennisĠaustralia
s. ĠamazingĠ
s. Ġaffordabl
s. ĠandĠpep
s. ĠtheĠseat
s. ĠasĠexpect
way sĠtoĠ
way .Ġs
way âĢĿ
way ĠtableĠ
way ĠandĠeasyĠaccess
Ġour ĠtimeĠ
Ġour Ġweb
Ġour ĠveryĠ
Ġour ĠchristmasĠdecor
Ġour ĠliquidĠwatercolor
Ġour ĠnewĠpat
Ġour Ġstandard
Ġour ĠsiteĠfor
Ġour Ġgard
Ġour ĠtimeĠbentĠforward
ĠsaidĠ river
ĠsaidĠ court
ĠsaidĠ rhea
ĠsaidĠ mcminn
ingĠtheĠ courtĠ
ingĠtheĠ possibil
ingĠtheĠ diseas
ingĠtheĠ pain
ingĠtheĠ propert
ingĠtheĠ dutiesĠ
ingĠtheĠ tim
ingĠtheĠ bu
ingĠtheĠ handyĠ
ingĠtheĠ trans
ingĠtheĠ amenities
ant e.Ġ
ant .ĠandĠ
ant icĠf
ant sĠtoĠgetĠ
ant y;Ġand
ant sĠll
ant age,Ġwhich
ant sĠandĠshoppingĠcenter
ĠaboutĠ everythingĠ
ĠaboutĠ differentĠ
ĠaboutĠ shoulderĠpain
ĠaboutĠ contract
ĠaboutĠ layers
ĠaboutĠ me,Ġ
ik eĠin
ik eĠpat
ok ,Ġus
over Ġfrom
over Ġafter
over sea
over taken
over ĠyourĠwork
sĠtoĠ decor
sĠtoĠ useĠ
sĠtoĠ develop
sĠtoĠ real
sĠtoĠ offer
sĠtoĠ rais
sĠtoĠ incorpor
sĠtoĠ emb
sĠtoĠ whom
sĠtoĠ guest
sĠtoĠ renew
sĠtoĠ meetĠ
sĠtoĠ layĠ
sĠtoĠ relyĠ
sĠtoĠ chocol
sĠtoĠ eliotĠdalton
sĠtoĠ etihadĠ
Ġad just
Ġad mit
Ġad ministr
Ġad optĠtheĠprogram
ind ingĠasĠ
ind ĠtheĠcomplet
ind icator
ition ĠtoĠensur
,Ġb ecaus
,Ġb dr
,Ġb iological
,Ġb allĠbo
forĠtheĠ arm
forĠtheĠ hear
forĠtheĠ lastĠ
forĠtheĠ dueĠ
forĠtheĠ greatestĠ
forĠtheĠ presentĠorĠanyĠprecedingĠyear
forĠtheĠ hollywoodĠ
forĠtheĠ past
forĠtheĠ useĠof
ustĠ e-
eĠto dayĠ
eĠto Ġtour
eĠto ĠaĠth
eĠto Ġser
eĠto Ġtopic
eĠto Ġadvanc
eĠto ĠthemselvesĠandĠsuccessorsĠinĠoffic
eĠto ĠaĠfriend
eĠto ĠtheĠform
eĠto ĠadoptĠtheĠprogram
cordĠ isĠdav
port antĠ
port Ġteam
port ĠaĠgreatĠ
port ionmentĠof
port ationĠopportunities
bloodĠ dis
bloodĠ cell
bloodĠ (ph
bloodĠ flow
ail sĠfor
ail sĠcont
ail ureĠin
ail edĠinformation
ail yĠbasisĠ
dec emberĠ
dec ade.Ġ
eat ĠanythingĠ
eat ,Ġthat
eat s.Ġ"asĠ
ĠatĠ work
ĠatĠ jo
ĠatĠ someĠ
ĠatĠ som
ĠatĠ wat
ĠatĠ pinkfreshĠstudio
ĠatĠ home!
ĠatĠ hisĠb
ĠatĠ orĠne
ĠatĠ myĠchristm
ical Ġcl
ical ĠandĠnatural
ical Ġdepend
ĠloveĠ thos
been Ġus
been Ġokay
been Ġdiscover
been Ġredo
du ck
du eĠtoĠconstru
du eĠandĠfaithfulĠperform
e! ĠthankĠyou
e! Ġgr
e! ĠweĠ
e! ĠðŁĻĤ
e! ĠhappyĠfriday,Ġ
e! ĠyouĠareĠ
e! Ġoh
e! ĠwithĠour
e! ĠthereĠisĠ
e! ĠlastĠ
ef t,Ġbut
lyĠ everythingĠ
lyĠ becaus
lyĠ des
lyĠ hal
lyĠ loc
lyĠ expl
lyĠ it'sĠa
lyĠ beĠavailableĠfor
lyĠ encour
much Ġdecor
much ĠmoreĠthan
much ĠtimeĠl
other Ġthan
other Ġtenn
other Ġdon
other ĠdayĠ
other s.ĠthankĠyouĠsoĠmuch
work ,Ġa
work .Ġour
work er,ĠandĠ
work ĠforĠ
work ed.ĠtheĠ
work ingĠclos
work Ġproject
ĠaĠp ubl
ĠaĠp rem
ĠaĠp otential
ĠaĠp hysical
Ġthem ,Ġa
Ġthem Ġup
Ġthem Ġout
Ġthem ĠbyĠtheĠ
Ġthem Ġdur
Ġthem Ġreceiv
Ġthem ĠoutĠ
Ġthem ĠallĠonlineĠatĠwww.recongress.org/
enceĠ does
enceĠ +ĠtheĠma
enceĠ among
edĠtoĠ how
edĠtoĠ get
edĠtoĠ fin
edĠtoĠ visit
edĠtoĠ craf
edĠtoĠ further
edĠtoĠ fix
ĠofĠtheĠ ten
ĠofĠtheĠ greatĠ
ĠofĠtheĠ congressĠ
ĠofĠtheĠ inn
ĠofĠtheĠ lateĠ
ĠofĠtheĠ unitedĠ
ĠofĠtheĠ precurs
mak eĠtheĠ
mak eĠa
mak eĠsomeĠ
mak eup
mak erĠinĠm
mak eĠmuchĠmoreĠ
ableĠ he
ableĠ aboutĠ
ableĠ adv
ableĠ owner
ableĠ givenĠthatĠ
ableĠ compensationĠforĠtheirĠservic
ableĠ late
ableĠ withĠtraditional
notĠ know
notĠ match
notĠ goĠ
notĠ recommend
notĠ sur
notĠ otherwiseĠ
notĠ necessaril
notĠ interfereĠwith
notĠ eatĠanythingĠ
notĠ workĠforĠ
day !ĠthankĠyou
day Ġafter
day ,ĠbutĠ
day ,Ġm
day !ĠloveĠ
day ?Ġi
day ,ĠaĠd
day .ĠitĠwasĠ
day !Ġamanda,Ġi
day ?Ġis
jo yĠandĠ
jo Ġther
jo inĠour
jo b,Ġres
ud get
ud getĠ
ink ingĠa
ink tober
ink s,Ġmark
ingĠa cc
ingĠa ĠlotĠof
ingĠa Ġblog
ingĠa ĠstemĠcellĠtrans
ingĠa gain
ingĠa Ġbetter
ingĠa ĠcombinationĠof
ingĠa Ġcour
ingĠa Ġmess
ingĠa ĠfeastĠ
ingĠa sĠaĠâĢľ
anc er,ĠandĠ
anc eĠthereof
anc eĠtoĠplay
anc ialsĠfirstĠ
estĠ din
estĠ pres
estĠ stor
estĠ need
estĠ congres
estĠ yet
estĠ makingĠ
estĠ isĠyet
ĠmyĠ hea
ĠmyĠ hom
ĠmyĠ fl
ĠmyĠ door
ĠmyĠ littleĠ
ĠmyĠ wonderful
ĠmyĠ good
ĠmyĠ daughter
ĠmyĠ futur
ĠmyĠ gop
allyĠ beĠt
allyĠ given
allyĠ beĠshar
view sĠareĠ
view Ġis
view !ĠthoseĠ
view ĠandĠfriendlyĠ
view erĠnotĠ
view ĠisĠwonderful
view ĠofĠtheĠcongressĠ
aĠ vis
aĠ need
aĠ zydecoĠd
aĠ isĠall
aĠ childĠ
aĠ roll
aĠ &Ġres
ck edĠin
ck erĠroom
ck ĠstateĠ
ck etĠjointĠ
ck ĠwithĠfin
eo ĠstarĠ
eo ,Ġp
reĠ long
Ġthat ĠtheĠp
Ġthat ĠaĠnew
Ġthat sĠwhatĠ
Ġthat ĠthisĠstamp
Ġthat ĠaloneĠs
ersĠ can
ersĠ âĢĶ
ersĠ wereĠ
ersĠ got
ersĠ may
ersĠ isĠpr
ersĠ mention
ersĠ &Ġm
ersĠ feliz
onĠtheĠ dut
onĠtheĠ gov
onĠtheĠ âĢĺ
onĠtheĠ fastingĠ
onĠtheĠ price
onĠtheĠ courtĠatĠ
onĠtheĠ outsideĠofĠourĠhouse.Ġ
onĠtheĠ outskir
ens ibleĠ
ens oryĠ
ens Ġthereof
ens ĠthatĠthisĠstamp
Ġsc ient
Ġsc ienc
Ġsc roll
Ġsc entĠfrom
Ġsc rap
Ġsc entĠnam
reatĠ box
form edĠbyĠtheĠ
form Ġpack
gram ĠwhoĠ
e, ĠtheĠcountyĠcour
e, ĠthisĠyear
e, ĠatĠleas
e, ĠasĠwellĠasĠ
e, ĠtheĠnew
e, ĠsuchĠasĠ
e, ĠthisĠwouldĠ
e, ĠthanksĠfor
lin es.Ġ
lin eĠtheĠt
lin ician
lin enĠd
lin e.Ġph
lin e,Ġdivid
od ys
od eĠl
od y!ĠhopeĠyouĠhaveĠ
Ġthes eĠseat
Ġthes eĠsuper
Ġthes eĠdamag
Ġthes eĠbod
anceĠ ofĠtheĠ
anceĠ atĠaĠl
anceĠ hall
anceĠ west
anceĠ forĠaĠspecial
ofĠtheĠ dayĠ
ofĠtheĠ mostĠ
ofĠtheĠ lot
ofĠtheĠ program
ofĠtheĠ u.
ofĠtheĠ amendedĠconstitution
ofĠtheĠ top
ofĠtheĠ advis
ofĠtheĠ agingĠl
ission ersĠmention
elyĠ not
elyĠ eventĠ
elyĠ fullĠof
elyĠ gorgeous.Ġ
elyĠ wov
elyĠ withĠscoutĠgroup
enter Ġup
ult imat
ult yĠac
ult imately,Ġlatenc
ult sĠoften
shall Ġexercis
shall Ġdirect
ightĠ bill
ightĠ beĠget
christmasĠ prints,
christmasĠ garland
christmasĠ homeĠtourĠwithĠyou
christmasĠ iĠgu
christmasĠ song
christmasĠ vign
din ingĠs
din ing,ĠaĠd
how Ġus
how Ġmaint
how Ġquick
how ĠtheyĠcanĠhelp
ia ,Ġa
ia ,Ġi
ia Ġgrow
sĠareĠ well
sĠareĠ str
sĠareĠ complet
sĠareĠ helpful
sĠareĠ definitelyĠ
sĠareĠ att
sĠareĠ electedĠ
sĠareĠ composedĠof
sĠareĠ usedĠs
sĠareĠ aband
sĠareĠ unavail
sĠareĠ overtaken
Ġor ĠmoreĠ
Ġor ient
Ġor Ġdr
Ġor Ġsever
Ġor Ġpay
Ġor Ġgall
Ġor ĠtrackĠ
Ġor bitĠ
Ġor Ġperson
Ġor Ġhep
Ġor ĠyourĠbab
Ġor ĠmeoĠâĢĵ
Ġus eĠin
Ġus Ġagain
Ġus ,Ġtoo!
Ġus ingĠtheĠnew
Ġus eĠonly
Ġus ĠtheĠopportunityĠtoĠ
Ġus edĠartificialĠsweeten
Ġus esĠforĠstemĠcellsĠ
Ġus e.ĠcordĠbloodĠ
Ġus eĠbyĠyourĠfamil
ong ĠtheseĠareĠ
ong .ĠthisĠisĠtheĠ
ong ĠandĠmeaningful
ong estĠarrow
ong lyĠencour
ĠtheĠf ull
ĠtheĠf utur
ĠtheĠf uture
ĠtheĠf anĠpres
ĠtheĠf acilities
ĠtheĠf undamental
ĠtheĠf olkĠm
ĠtheĠf ast.Ġw
iteĠ c
iteĠ fin
iteĠ youngĠpeopl
iteĠ aĠfew
iteĠ christmasĠsong
esĠandĠ mall
esĠandĠ met
esĠandĠ gold
esĠandĠ workingĠwith
esĠandĠ walk
esĠandĠ step
esĠandĠ restrictions,ĠandĠ
esĠandĠ sentim
esĠandĠ variation
esĠandĠ recl
esĠandĠ ifĠtheĠs
esĠandĠ howĠtheyĠcanĠhelp
Ġcom bo
Ġcom ingĠinto
veryĠ def
veryĠ health
veryĠ quick
veryĠ big
veryĠ favor
veryĠ mo
veryĠ lovely
veryĠ bestĠ
veryĠ bestĠqual
veryĠ quiet
plac edĠin
plac eĠforĠtheĠ
plac esĠtoĠ
plac ed,Ġ
plac ingĠfet
eĠtheĠ cour
eĠtheĠ newĠyouthĠprogram
eĠtheĠ littleĠ
eĠtheĠ complet
eĠtheĠ countyĠcourt
eĠtheĠ wooden
eĠtheĠ rhea
eĠtheĠ lineĠdivid
eĠtheĠ lung
eĠtheĠ yuk
eĠtheĠ erp:Ġfun
fic eĠin
fic ultĠ
fic eĠvisit
ful fill
ful ĠforĠtheĠcountyĠcour
ful ,ĠandĠourĠc
ful .ĠiĠhaveĠenjoyedĠ
ful Ġexpres
go ,Ġand
go ingĠon
go ingĠtoĠtheĠ
get ĠtreeĠ
get ting
get ĠaĠch
get ĠtoĠhaveĠ
ire dĠangel
po ins
po tĠgrown
ra Ġfrom
ra Ġrel
ra granceĠof
so Ġspecial
so ĠaĠc
so Ġsweet
so onĠweĠ
yĠs chedule,
yĠs ilverĠor
yĠs eatĠ
yĠs unday,Ġ
yĠs weetĠ
yĠs avingĠin
yĠandĠ help
yĠandĠ ecolog
yĠandĠ iĠwouldĠ
yĠandĠ never
yĠandĠ cozy
yĠandĠ shin
yĠandĠ storageĠ
yĠandĠ we'll
yĠandĠ intell
yĠandĠ lymph
Ġit ,ĠbutĠ
Ġit âĢĿ
Ġit 'sĠa
Ġit sĠh
Ġit ,ĠbutĠi
Ġit .ĠtheĠs
Ġit .ĠsheĠ
Ġit ĠtheĠjack
Ġch ildĠ
Ġch inaĠwhoĠ
Ġch arity
Ġch andelier
Ġch oseĠtheĠ
Ġch anceĠatĠaĠl
Ġtak eĠour
Ġtak eĠsom
Ġtak eĠmyĠs
Ġtak ingĠaĠs
Ġtak eĠtheĠfirstĠ
Ġtak en.Ġ
Ġtak esĠplaceĠ
Ġtak eĠtheĠerp:Ġfun
inv adeĠandĠ
inv estigationsĠ
Ġso ci
Ġso Ġstar
Ġso ĠareĠyou
Ġso Ġthankful
Ġso ĠthereĠisĠa
Ġso ĠtheĠ"f
Ġcell Ġgrow
Ġcell s.ĠthereĠ
Ġcell sĠandĠsometimes
Ġcell sĠareĠovertaken
ed, Ġalso
ed, ĠaĠth
ed, ĠtheĠsaidĠcommissionersĠshall
ed, ĠshareĠcheer
ed, ĠaĠpatriotĠandĠsoldierĠofĠtheĠ
ed, ĠtheĠintrodu
ed, ĠsoĠmyĠhous
Ġgr adient
Ġgr andĠstyl
ĠandĠtheĠ low
ĠandĠtheĠ location
ĠandĠtheĠ law
ĠandĠtheĠ tennesseeĠriver
ĠandĠtheĠ youthĠprogram
ight Ġtabl
ight edĠbyĠs
ight !ĠhappyĠfriday,ĠblogĠfriends!
ight ensĠeverythingĠ
ight .ĠfriendlyĠ
ight ĠtoĠbo
cc essĠ
cc rind
ean Ġcl
ean ĠfitnessĠ
ean ĠthatĠtheĠp
hea dĠof
yĠtheĠ bod
yĠtheĠ dom
yĠtheĠ diver
y,Ġ fisher
y,Ġ pain
y,Ġ wish
y,Ġ onĠwhich
y,Ġ weâĢĻreĠ
y,Ġ underĠtheĠamendedĠconstitution
y,Ġ inĠhonorĠofĠcolonelĠreturnĠj
y,Ġ pink
y,Ġ youĠshouldĠ
y,Ġ fromĠcollect
eĠin Ġ
eĠin Ġne
eĠin ĠaĠs
eĠin Ġgreat
eĠin Ġadv
eĠin Ġmy
eĠin Ġtwilight
eĠin Ġpur
eĠin tersect
eĠin comeĠandĠ
ĠthereĠ hasĠbeen
ĠthereĠ wereĠ
ĠthereĠ was
ĠthereĠ aĠspecific
ĠthereĠ areĠtw
theĠ rustic
theĠ kitchen
theĠ opportunityĠtoĠ
theĠ nameĠ
theĠ capac
theĠ highestĠqual
theĠ adventĠcalendar
loveĠ toĠ
loveĠ livingĠher
loveĠ itĠher
Ġhop eĠthatĠ
Ġhop Ġtoday
Ġhop eĠitĠ
well Ġdon
well Ġgroom
well ĠasĠrequ
week endĠ
week !ĠiâĢĻm
week ĠonĠour
week !ĠsoĠsorryĠtoĠhearĠaboutĠyourĠgrandma
week ;ĠsoĠhappyĠtoĠ
oodĠ coll
ĠsaidĠcount yĠtoĠ
ĠsaidĠcount yĠcour
ĠsaidĠcount yĠfrom
ĠsaidĠcount y,ĠonĠwhich
cordĠbloodĠ stor
cordĠbloodĠ inĠaĠprivateĠbank
ci pit
ci )Ġprogram
ci ateĠthroughĠtheĠnationalĠresearchĠcouncil
ci ationĠofĠtheĠ
can Ġdr
can Ġdevelop
ru eĠf
eĠyou Ġgot
eĠyou ĠonĠtheĠ
eĠyou Ġtend
eĠyou Ġrece
Ġap t,Ġ
Ġap propri
ityĠ fin
ityĠ mean
ityĠ meas
es.Ġ "weĠ
es.Ġ lux
es.Ġ forĠmoreĠinformation
es.Ġ priorĠexperienceĠ
es.Ġ drewĠmichaelĠandĠelizabethĠellisĠ
es.Ġ "when
es.Ġ inĠadditionĠtoĠtheĠ
es.Ġ reign
es.Ġ veryĠquick
youĠcan ĠfindĠ
youĠcan Ġfind
youĠcan Ġexpect
youĠcan ĠcontinueĠtoĠ
astĠ maintenance.Ġ
astĠ weekĠonĠour
amp aign
amp sĠrack
âĢĵ Ġeven
âĢĵ ĠifĠyou
âĢĵ Ġmov
âĢĵ ĠandĠmoreĠ
âĢĵ ĠorĠmeoĠâĢĵ
ĠitĠ pay
ĠitĠ does
ĠitĠ keep
ĠitĠ isĠnotĠ
ĠitĠ shallĠbeĠtheĠdut
ĠitĠ hasĠbeenĠgreat
ĠitĠ makesĠitĠall
ĠitĠ isĠmoreĠ
ĠitĠ upĠsoĠ
ĠitĠ beingĠa
ign ific
ign ĠtheĠback
ign edĠthemĠbyĠthisĠact
ĠalsoĠ happ
ĠalsoĠ noĠ
ĠalsoĠ mad
ĠalsoĠ rel
ĠalsoĠ beĠavailableĠfor
ĠalsoĠ haveĠaddition
ĠalsoĠ inĠtheĠcomedyâĢĻsĠ
app eal
app eared
ĠtheyĠ entertain
ĠtheyĠ mayĠbeĠ
ĠtheyĠ madeĠ
ĠtheyĠ return
ĠtheyĠ willĠshar
Ġshall Ġv
Ġshall Ġorder
Ġshall ĠcontinueĠtoĠ
Ġshall Ġcaus
tleĠ hun
tleĠ centerpiec
tleĠ zydecoĠ
every one
every ĠtimeĠ
every Ġalaskan
every one.Ġ
every thingĠasĠ
Ġmeig s,Ġdeceas
,Ġa Ġres
,Ġa gre
,Ġa uthor
,Ġa Ġlit
,Ġa Ġmeet
,Ġa plast
.Ġs aveĠ
.Ġs econd
.Ġs amsung
.Ġs imilar
.Ġs adly
.Ġs omeĠin-
eyĠ dear,Ġ
eyĠ inĠtheĠtreas
leas eĠand
lik edĠtheĠ
lik eĠour
lik edĠhow
lik able,Ġ
lik eĠyouĠgot
man Ġ(
man yĠm
pos es;Ġand
ral Ġanalysis
Ġ( $
Ġ( sc
Ġ( loveĠyour
Ġ( htt
Ġ( inĠcoffe
Ġ( ask,Ġyou
Ġ( muchĠmoreĠthan
Ġ( theĠnameĠ
Ġres erv
Ġup ĠtheĠb
Ġup ĠtheĠch
Ġup ĠatĠtheseĠ
Ġup stair
Ġup Ġfirst
sĠre present
sĠre ceiv
sĠre quiredĠ
sĠre member
sĠre gistrationĠguidebook
sĠre staur
sĠre quiringĠl
sĠfor Ġcontinu
sĠfor Ġeach
sĠfor Ġget
sĠfor ĠcongressĠ
sĠfor Ġcongres
sĠfor Ġu.
sĠfor ĠsaleĠt
sĠfor ĠdanceĠ
sĠfor ĠthisĠprojectĠ
sĠfor ĠuseĠin
Ġse eingĠall
Ġse izeĠl
Ġse eĠyouĠonĠtheĠ
arm Ġbone
art ,ĠuntilĠother
art icipar
art s,ĠwhereĠ
ish ĠtheĠm
ish edĠa
ish ingĠall
ish ĠearlyĠ
ish edĠoff
ecial Ġmem
ick ingĠher
ick etĠbig
ication sĠs
ication Ġdur
ication ĠofĠcont
edĠin Ġother
edĠin ĠoneĠ
edĠin ĠthisĠact
edĠin ĠthisĠstate
edĠin ĠtimeĠto
edĠin Ġperform
edĠin ĠaĠprivateĠbank
edĠin -seatĠ
edĠin stea
edĠin Ġrhe
Ġwill ĠshareĠ
Ġwill iam
Ġwill Ġwelcom
Ġwill Ġdet
Ġwill Ġautomat
Ġwill ĠmeetĠinĠtheĠp
Ġwill ĠtakeĠsom
Ġfr ontĠdoor
Ġfr ame!
ideĠ rat
ideĠ note:
ideĠ fromĠthatĠsoĠfar
ifĠyou Ġdon
ifĠyou Ġalread
ifĠyou ĠcanĠy
!ĠthankĠyou ,Ġm
!ĠthankĠyou Ġagain
!ĠthankĠyou ĠforĠshar
!ĠthankĠyou ,Ġnic
!ĠthankĠyou ,Ġkaren
!ĠthankĠyou ĠforĠtheĠf
cour se,Ġ
cour tĠinĠsaidĠcounty
dayĠ (
dayĠ even
dayĠ weekend
dayĠ makingĠ
dayĠ ðŁĻģ
dayĠ iâĢĻll
dayĠ withĠallĠyour
glitter yĠwineĠbottleĠ
glitter Ġselection
glitter ĠandĠcandl
glitter yĠandĠshin
hol yĠm
hol idayĠreleas
hol dersĠlastĠyear
la wn
la xed,Ġ
pres Ã©
tt ing.
tt yĠcard
tt aĠg
tt yĠtour
ull -t
ull ĠfastingĠ
ull yĠdecor
wasĠ hereĠtoĠ
wasĠ madeĠ
wasĠ placed,Ġ
y.Ġ not
y.Ġ greatĠ
y.Ġ myĠs
y.Ġ otherwiseĠ
y.Ġ cordĠbloodĠshouldĠ
y.Ġ comoĠperson
y.Ġ ultimately,Ġlatenc
y.Ġ cordĠbloodĠstor
y.Ġ youĠcanĠfindĠ
yĠtoĠ itsĠ
yĠtoĠ benefitĠ
ĠaĠl istĠof
ĠaĠl imit
ĠaĠl oftĠb
Ġthrough ĠthisĠseason
Ġthrough ĠaprilĠ
Ġthrough ĠtheĠfastĠfoodĠ
Ġthrough ĠaĠconven
Ġthrough ĠtheĠcirc
Ġthrough outĠtheĠnextĠfew
Ġthrough Ġit.ĠsheĠ
ousĠ improv
ousĠ boo
ers .ĠtheĠcostĠ
enjo yĠtheĠdiver
ĠtheĠm atch
ĠtheĠm oreĠspecialĠwith
ĠtheĠm oonĠfor
ĠtheĠm useum
ingĠtoĠ impl
ingĠtoĠ hisĠ
ingĠtoĠ includ
ingĠtoĠ worr
ingĠtoĠ beĠbrough
ingĠtoĠ decemberĠ
ingĠtoĠ makeĠa
atedĠ $
atedĠ ifĠitĠ
atedĠ disciplin
atedĠ host
atedĠ onĠtheĠoutskir
atedĠ investigationsĠ
Ġdo Ġthem
Ġdo ingĠs
Ġdo ingĠtheir
Ġdo llar
Ġdo ĠaĠlittleĠ
Ġdo cum
Ġdo ,ĠandĠi
ameĠ function
ameĠ arenaĠevent
ameĠ excuseĠ
andma !ĠthoseĠ
when ĠitĠcom
when ĠweĠt
when ĠallĠtheĠn
when ĠmyĠhea
when ĠitĠkeep
cont actĠoneĠ
ook ingĠcl
fromĠtheĠ shoulder
fromĠtheĠ worl
fromĠtheĠ nba
fromĠtheĠ person
fromĠtheĠ lab
fromĠtheĠ purchaser
fromĠtheĠ storedĠstemĠcellsĠ
fromĠtheĠ link
fromĠtheĠ targetĠ
Ġprogram ĠthatĠgroup
eopl eĠtoĠtopic
organ icallyĠ
organ zim
organ s,Ġmak
invit ationsĠt
invit edĠtoĠvisit
eautif ullyĠdecor
'tĠ beĠt
'tĠ yetĠ
'tĠ haveĠtoĠ
min eĠof
min utesĠa
moreĠ fun
moreĠ creat
moreĠ corpor
moreĠ handmad
ov ingĠtheir
ov ies,Ġ
ov icĠor
ov ation,Ġno
ov esĠandĠvariation
su anceĠthereof
su iteĠfin
su eĠinĠmy
Ġv oic
Ġv alu
Ġv ariation
Ġv enueĠ
Ġv ase.Ġ
Ġv ivirĠest
Ġv s.Ġ$
Ġis Ġallow
Ġis ĠtoĠget
Ġis ĠtoĠbeĠsur
Ġis ĠalsoĠbeĠavailableĠfor
Ġne vins
Ġne xtĠtoĠmyĠ
Ġne edĠstemĠcellsĠ
Ġne verĠindic
Ġten Ġdiseas
Ġten ĠaggravatedĠ
Ġten Ġthous
Ġten Ġlarg
ĠaĠf amil
ĠaĠf air
ĠaĠf eltĠ
ĠaĠf ull-t
Ġthos eĠbot
Ġthos eĠdi
ouch esĠandĠrecl
eng thĠyou
ĠtheĠb irthĠ
ĠtheĠb ullet
ĠtheĠb estĠisĠyet
ĠtheĠcount ryĠ
ĠtheĠcount iesĠofĠrhea
ĠtheĠcount yĠofĠmcminn
ingĠs oundproofĠwindowsĠinĠfortĠbranch
ingĠs olution
.ĠbeĠ readyĠtoĠ
,Ġi Ġlook
,Ġi ĠreallyĠ
,Ġi ĠalmostĠ
,Ġi âĢĻveĠaddedĠ
,Ġi 'veĠcreated
,Ġi ĠdidĠ
,Ġi ĠhaveĠdis
essĠ dif
essĠ equal
essĠ quiver
essĠ isĠaĠv
ĠweĠ hopeĠyou
ember Ġneed
ember ĠthoseĠm
ember sĠofĠtheĠgeneralĠassembly
ember sĠofĠcongres
ild ren
oundĠ famil
oundĠ yourĠf
oundĠ inĠtheĠfutur
happ ilyĠgrow
each Ġsection
uper Ġcl
uper Ġsimpl
uper Ġbus
uper ĠpickyĠaboutĠ
uper bĠwith
shoulder Ġjo
blog ĠthisĠweek
blog ĠpostĠ
blog ĠtheseĠsuper
Ġcont ract
Ġfrom Ġspecial
Ġfrom Ġhav
Ġfrom ĠtheirĠs
Ġfrom ĠearlyĠ
Ġfrom Ġbehind
Ġfrom Ġenter
Ġfrom ĠoneĠor
Ġfrom ĠseptemberĠ
eautiful ,Ġamanda
eautiful Ġjob
eautiful Ġview
cre wĠisĠa
cal atingĠ
cal mĠic
cal eĠimplementation
card s,ĠandĠ
card makingĠ
card sĠthatĠi
card sĠjustĠ
card sĠtogether
card makerĠinĠm
eal Ġlocation
ip mentĠandĠ
ip ĠofĠtheĠsp
mon ey
mon dayĠin
mon Ġsour
mon eyĠinĠtheĠtreas
mentĠ byĠ
mentĠ isĠs
mentĠ product
mentĠ problem
mentĠ forĠtax
mentĠ plansĠtoĠ
mentĠ early
not Ġallow
not ĠaĠh
not ĠaĠw
not esĠtoĠ
not iceĠthereof
oll ah
sĠthatĠ âĢľ
sĠthatĠ happyĠ
sĠthatĠ itĠshall
sĠthatĠ haven
sĠthatĠ fightĠ
sĠthatĠ needĠtoĠbeĠ
sĠthatĠ willĠmakeĠ
ten Ġe
ten Ġpermission
ys iological
ys elf
eĠa ffect
eĠa Ġlook
eĠa Ġde
eĠa Ġtown
eĠa waren
eĠa uthorsĠre
eĠa ĠmeetingĠwith
Ġtabl eĠandĠchair
Ġtabl eĠtoo
Ġtabl eĠsetĠ
Ġafter ĠanĠ
Ġafter ĠtwoĠ
Ġafter Ġaj
Ġafter ĠiĠfig
Ġafter ĠtakingĠaĠs
Ġthis Ġtoo
Ġthis ,ĠtheĠ
Ġthis Ġtour
Ġthis ,Ġor
Ġthis ĠalternativeĠ
Ġthis ?ĠtoĠm
Ġthis ĠaboutĠme,Ġ
ĠanyĠ oneĠof
ĠanyĠ issu
ĠanyĠ youĠcanĠfind
ĠanyĠ moneyĠinĠtheĠtreas
arg insĠinĠtheĠ
,Ġwh oĠshall
ass Ġtum
ass essmentĠof
ass iveĠlaunch
ass es.ĠinĠadditionĠtoĠtheĠ
Ġpre ced
Ġpre gnanc
Ġpre ferĠbrightĠwhit
stor ingĠitĠ
stor ingĠyour
stor yĠthough
stor esĠandĠmall
amil y,ĠweâĢĻreĠ
ement Ġteam
ement ,Ġre
ement .Ġanalys
ement sĠcanĠbeĠ
ement ,Ġwhen
ement s.ĠourĠ
hasĠ long
hasĠ such
hasĠ never
hasĠ contract
ood .ĠbeĠreadyĠtoĠ
coll imatedĠ
Ġother Ġapplication
Ġother Ġsport
Ġother Ġchildren
.ĠbeĠitĠenact edĠbyĠtheĠ
butĠ wish
butĠ itĠwasĠ
butĠ iĠamĠsuper
butĠ fortun
butĠ youĠstill
hom elessĠ
hom a.Ġin
io statist
ier Ġnot
ier Ġtick
ier .ĠtheseĠ
ier arch
ier Ġlak
ientĠ placeĠtoĠ
ientĠ hour
ientĠ formĠpack
lu sĠforĠtheĠ
lu ckĠwithĠfin
liv ing/
liv ingĠwithĠus
liv ingĠcondition
sĠto Ġask
sĠto ĠshareĠwith
sĠto ĠtreatĠ
sĠto ĠsitĠonĠtheĠ
sĠto day,ĠbutĠ
sĠto ĠtakeĠtheĠfirstĠ
ton Ġkutcher
tingĠ best
tingĠ withĠaggravatedĠorganizm
ure sĠlik
ure d,ĠatĠleas
ure dĠsamsung
ure sĠinĠtheĠshoulder
eĠof Ġjo
eĠof Ġ$
eĠof Ġrel
eĠof Ġmental
eĠof ĠtheĠsaid
eĠof Ġcancer
Ġag ingĠpre
Ġag oĠwhen
ĠtheĠt ransformationĠcer
ĠtheĠt our!Ġyou
Ġsuch Ġjudgment
Ġsorr yĠaboutĠyourĠgr
Ġsorr yĠitĠhasĠbeen
yĠw rappingĠpaper
yĠw orldĠ
yĠw iredĠangel
ardĠ forĠp
ardĠ "justĠ
,Ġin Ġaddition
,Ġin Ġhonor
,Ġin Ġpreparation
,Ġin ĠoneĠor
,Ġin nĠcon
,Ġin fraspinatus
,Ġin ĠasĠfull
los eĠmatch
ĠhomeĠ atĠbay
ĠhomeĠ andĠnecessaril
Ġhapp yĠwednes
Ġhapp inessĠ
Ġhapp eningĠ
Ġhapp ierĠnot
stem Ġcells.ĠthereĠ
Ġbe ingĠreal
Ġbe foreĠtheĠfirstĠ
Ġbe havi
Ġday s!
Ġday s,ĠbutĠ
Ġday sĠearlier
Ġday ĠtoĠcheck
Ġday s,Ġcall
Ġday s.ĠwhyĠis
Ġday ĠasĠitĠisĠ
Ġday ĠtheyĠmayĠbeĠ
empl ates.Ġ
urn ingĠthem
urn ingĠoutĠ
ĠgreatĠ location
ĠgreatĠ placeĠtoĠlive.Ġ
ĠgreatĠ cluster
ĠgreatĠ day!Ġamanda,Ġi
exp ansionĠandĠ
âĢĻm ĠaĠbig
open ingĠandĠ
open ĠveryĠ
open edĠup
open Ġfloor
print edĠinĠthisĠstate
Ġjo yĠinĠour
ĠsoĠmuch ĠforĠstop
,ĠbutĠ until
,ĠbutĠ ifĠi
,ĠbutĠ chipp
,ĠbutĠ soĠcozy
decor .Ġyou
decor atingĠ
decor ĠâĢľ
decor !Ġrustic
decor ateĠthisĠ
decor .Ġsadly
commissioner s,Ġbefor
enjoy edĠa
enjoy edĠtheĠ
enjoy !ĠsoĠfar
byĠ pit
byĠ gain
byĠ kat
bank Ġloans.ĠifĠyouĠhaveĠ
cer tain
cer emony.Ġ
call Ġ
call ĠitĠtheĠjack
cap ula
e: Ġmichael
e: ĠmichaelĠk
e: ĠmarbleĠtop
e: Ġmik
e.ĠtheĠ pool
e.ĠtheĠ inn
e.ĠtheĠ adventureĠbeginsĠ
e.ĠtheĠ gy
e.ĠtheĠ lakeĠ
e.ĠtheĠ littleĠteddyĠbear
e.ĠtheĠ grandĠfederal-styleĠmansion,ĠbuiltĠinĠ
e.ĠtheĠ teach
e.ĠtheĠ stabilityĠof
e.ĠtheĠ iranian
justĠ gettingĠ
justĠ cut
justĠ mov
justĠ beĠableĠto
justĠ howĠquick
know ingĠitĠ
know ledg
know ĠtheĠschedule,
know ĠaboutĠshoulderĠpain
mostĠ import
mostĠ sen
mostĠ resourceful
mostĠ partĠisĠ
pa isley
Ġ- ĠiĠam
Ġ- ĠoctoberĠ
Ġ- ĠcanĠyou
Ġ- Ġbegin
Ġy en
Ġyear s.ĠtheĠ
Ġyear sĠwith
Ġyear ,Ġto
Ġyear s,Ġsp
Ġyear ĠifĠyou
Ġyear sĠago
Ġyear s.ĠitĠhasĠbeen
Ġyear Ġround
Ġthan ĠanyĠother
Ġthan ĠtoĠcoll
reg ret
reg istration
reg ulation
reg imesĠ(
reg istri
ingsĠ withĠtheĠ
ingsĠ canĠbeĠ
ingsĠ fromĠtheĠnba
.Ġh ugsĠ
.Ġh eâĢĻsĠ
.Ġh illĠcre
.Ġh ereĠisĠoneĠ
.Ġyou 'veĠ
.Ġyou ĠhaveĠa
.Ġyou 'll
.Ġyou ĠshouldĠ
.Ġyou ĠseeĠtheĠ
.Ġyou ĠhaveĠtoĠ
.Ġyou ĠorĠyourĠbab
.ĠweĠ willĠbeĠ
.ĠweĠ chos
.ĠweĠ areĠgoingĠtoĠ
.ĠweĠ willĠanswer
.ĠweĠ nowĠhaveĠaĠnew
.ĠweĠ loveĠitĠher
ĠandĠs ecur
ĠandĠs ee
ĠandĠs peaker
ĠandĠs ellĠtheĠlot
ĠandĠs oundĠinĠtheĠfutur
ĠandĠs uperĠcl
forĠm aint
forĠm eĠthes
forĠm ilitar
forĠm eĠtoĠhaveĠ
forĠm eĠinĠ
Ġcount ries
Ġcount y,ĠfromĠcollect
Ġmad eĠthisĠ
Ġmad eĠthes
Ġmad eĠit
Ġmad eĠme!
Ġmad eĠtheĠlittleĠ
edĠa ĠlotĠof
edĠa Ġreg
edĠa ĠweekĠa
edĠa sĠaĠrun
edĠto gether
edĠto Ġanother
edĠto o!ĠaĠfew
edĠto wel
edĠto .ĠdefinitelyĠ
edĠto ĠtheirĠse
Ġpr ivateĠs
Ġpr adoĠhotel
edĠfor Ġanother
edĠfor ĠthisĠyear
edĠfor Ġfre
edĠfor Ġtherap
edĠfor .ĠandĠthen
edĠfor wardĠ
edĠfor ,ĠunderĠtheĠsameĠ
urr oundingĠs
eĠsoĠ far
eĠsoĠ perfect
eĠsoĠ laidĠoff
eĠsoĠ uĠp
eĠsoĠ premium
ession ĠwillĠbeĠ
ession Ġworkshop
ĠjustĠ lov
ĠjustĠ countĠ
ĠjustĠ began
ĠjustĠ minutesĠa
Ġatt endedĠ
Ġatt ention
Ġatt end.ĠifĠitĠ
iesĠof ĠtheirĠoffic
iesĠof Ġnational
iesĠof Ġlow-no
iesĠof ferĠpay
iesĠof ĠcellsĠareĠovertaken
ĠtheseĠ ador
ĠtheseĠ lovelyĠ
ĠtheseĠ particular
ĠtheseĠ item
ccess ibl
Ġappl y:
Ġappl icant
ewarmingĠ partyĠinvit
'veĠ also
;ĠandĠ mor
;ĠandĠ itĠshallĠbeĠtheĠdut
bor sĠtrueĠ
bil eĠâĢĵ
doĠ deĠho
doĠ foun
doĠ muchĠdecor
eek ĠanĠin
fin estĠdin
fun Ġpart
fun damental
fun ,Ġch
fun !ĠhopeĠyouĠhaveĠ
fun ds:
iec esĠabout
iĠhaveĠ yet
iĠhaveĠ quiteĠ
iĠhaveĠ beenĠpre
iĠhaveĠ anĠis
iĠhaveĠ thisĠs
iĠhaveĠ comeĠto
noĠ one
noĠ idea
noĠ problem
noĠ cure
noĠ often
noĠ otherĠtenn
nam entĠball
ost edĠbyĠtheĠ
ost ĠasĠa
ost edĠatĠtheĠ
ost doctoral
ost lyĠturn
s,ĠandĠ someĠ
s,ĠandĠ major
s,ĠandĠ hisĠsuccessorsĠinĠoffic
s,ĠandĠ scout
s,ĠandĠ immun
s,ĠandĠ bankĠloans.ĠifĠyouĠhaveĠ
s.ĠtheĠ problem
s.ĠtheĠ maintenanceĠ
s.ĠtheĠ cod
s.ĠtheĠ entir
s.ĠtheĠ ranking
s.ĠtheĠ lld-
s.ĠtheĠ imagesĠ
usĠ section
usĠ ornamentsĠ
usĠ knowledg
zy ĠaroundĠ
ĠaĠs ix
ĠaĠs imilar
ĠaĠs oreĠto
ĠaĠs ectionĠofĠtheĠ
ĠaĠb etter
ĠaĠb usiness
ĠaĠb itĠof
ĠaĠb eautifulĠhomeĠ
ĠaĠb eautifulĠview
inu ingĠtoĠdecemberĠ
ĠthisĠa ctĠ
endĠ rem
endĠ iĠwas
endĠ ofĠmyĠ
endĠ resultĠ
ing,Ġ poss
ing,Ġ under
ing,Ġ it'sĠ
ing,Ġ ordin
ing,Ġ hold
ing,Ġ engag
ing,Ġ isnâĢĻtĠ
ing,Ġ vision
ing,Ġ ram
ing,Ġ negativeĠ
ator s.ĠforĠtheĠfirst
ator sĠinclud
ator sĠandĠproject
ĠanĠ equal
ĠanĠ enormousĠ
ĠanĠ etsyĠst
ĠanĠ end-st
ark et.Ġwhen
ark etĠpul
ofĠw alk
,Ġh ealth
,Ġh easelgraveĠsaysĠtheĠ
,Ġh ello
,Ġh odgkin'sĠ
,Ġh alseyĠhous
,Ġh isĠvision
,Ġh ostedĠatĠtheĠ
ingĠin cidentĠratesĠ
ingĠin ĠaprilĠ
ingĠin ,ĠwasĠ
ingĠin ĠourĠgard
ingĠin ĠotherĠsport
ingĠin ĠhappinessĠ
ingĠin ĠprivateĠs
ingĠwith ĠthoseĠ
ingĠwith ĠyouĠmyĠchristmasĠ
ingĠwith ĠtheĠsweet
low edĠbl
low ĠisĠden
low s.ĠandĠpep
low Ġ(sc
look ingĠfor
look Ġattract
look sĠb
look ingĠatĠ
look ingĠtoĠinclud
isĠb eliev
isĠb eautifullyĠdecor
Ġpl aceĠ
Ġpl us,ĠtheĠ
Ġpl ayersĠ
Ġpeopl eĠisĠa
Ġpeopl eĠdo
Ġpeopl eĠhaveĠcontribut
Ġpeopl eĠaffect
ĠtoĠbeĠ compl
ĠtoĠbeĠ partĠof
ĠtoĠbeĠ buil
ĠtoĠbeĠ laidĠoff
ĠtoĠbeĠ inĠgoodĠ
Ġdis agree.Ġhowever
ementĠ idea
ementĠ fromĠ
ementĠ net
ementĠ proces
ementĠ isĠonĠtop
ementĠ ofĠall
ementĠ isĠatt
ementĠ soĠrefin
ementĠ forĠtheĠarm
ementĠ ofĠtheĠprogram
ĠyouthĠprogram ĠthatĠisĠ
âĢľ door
âĢľ pin
âĢľ flex
âĢĿ Ġwher
âĢĿ ĠyourĠdev
Ġtoo thĠandĠ
useĠ high
useĠ redĠ
useĠ expens
useĠ aĠroll
ational Ġoffer
ational Ġskill
Ġoffic eĠasĠ
Ġoffic ersĠinĠother
need sĠofĠtheĠ
need sĠit
need sĠaĠstemĠcellĠtrans
need sĠtoĠrenew
need ingĠaĠstemĠcellĠtrans
need edĠforĠtherap
ular Ġstat
ular Ġstr
ular is,
ular Ġblack
earn edĠanĠ
earn ingsĠfromĠtheĠnba
âĢĻtĠ beĠtheĠs
âĢĻtĠ forget
hav ingĠtoĠworr
eak erĠl
eak nessĠof
eak ersĠâĢĶ
Ġint ention
Ġint egr
const antlyĠ
const ellations,Ġ
e.Ġi ĠwasĠ
e.Ġi ĠshouldĠ
e.Ġi 'veĠcreat
e.Ġi âĢĻmĠsoĠ
e.Ġi Ġsus
e.Ġi ĠmodĠ
e.Ġi ĠamĠaĠb
e.Ġi ĠhopeĠitĠ
e.Ġi ĠmadeĠthes
e.Ġi Ġdisagree.Ġhowever
even ĠmoreĠ
even ĠtheseĠareĠ
even thĠonĠtheĠ
even Ġdiv
even ingsĠwithĠtheĠ
Ġtrans itional
Ġtrans mit
Ġtrans ferĠdat
Ġtrans itionĠtoĠensur
Ġtrans portationĠopportunities
edĠbyĠ elizabethĠellis
edĠbyĠ [do
edĠbyĠ neck
edĠbyĠ extrins
edĠbyĠ eachĠsection
ĠaboutĠyour ĠsweetĠ
ĠaboutĠyour Ġhub
Ġcomm itte
Ġcomm issionersĠmention
Ġtenn isĠplay
Ġtenn isĠtour
ðŁĻĤ ĠhopeĠyou
ðŁĻĤ ĠhopeĠyourĠweekĠisĠgoingĠgreat!
,ĠtheĠ guidebook
,ĠtheĠ national
,ĠtheĠ dv
,ĠtheĠ neutralĠcolor
,ĠtheĠ registri
,Ġs ub
,Ġs afe
,Ġs mok
,Ġs uic
,Ġs adĠtoĠs
,Ġs omeĠhe
,Ġs evereĠab
,Ġand rew
,Ġand /or
,Ġand ĠtheyĠlook
,Ġand ĠartĠisĠa
,Ġand ĠallĠtheĠnew
,Ġand ĠaĠbitĠof
aĠf abulousĠ
aĠf undĠinĠtheĠh
aĠf ive-
aĠf ullĠfastingĠ
bo ardĠandĠad
but ,ĠiĠdidĠ
creat ivelyĠ
creat edĠthisĠcardĠ
creat esĠaĠfresh
creat edĠfrom
creat ivityĠ
don ald
don orĠfor
don ationsĠfor
dif ficultĠ
fre eĠdownload
fre edomĠof
fre quently
ge -podg
gu eĠthisĠ
great .ĠgoodĠ
great ,ĠiĠreallyĠ
high ĠasĠwell
high erĠm
high erĠthan
high erĠb
high est-pa
help ĠalmostĠ
help Ġchildren
ibl yĠm
ibl eĠsiteĠ
lat iveĠto
lat e.ĠiâĢĻmĠsoĠ
mask sĠtoĠtheĠfrontĠ
ner ship
ner ĠasĠtheyĠ
ner ing,ĠandĠ
ner ĠforĠyour
ner ĠthatĠmayĠbeĠ
ren alĠf
ren ovation,Ġno
ryĠ oxy
ract ingĠglobal
s! ĠthisĠisĠ
s! ĠðŁĻĤĠhopeĠyou
s! ĠtodayĠ
sp iration
sp ectrumĠof
sp ikeĠin
someĠ green
someĠ craf
someĠ lights,
someĠ ledĠ
someĠ ofĠher
someĠ weirdĠandĠ
someĠ glitteryĠandĠshin
vent urous,Ġ
Ġqu ietĠ
Ġqu iet
Ġqu iteĠaĠfew
ĠoneĠ ofĠmyĠ
ĠoneĠ wayĠto
ĠoneĠ year.ĠforĠmoreĠinformation
ĠoneĠ ofĠtheĠtop
ĠoneĠ wasĠmadeĠ
ĠoneĠ donorĠfor
eĠl etter
eĠl istĠof
eĠl astĠweekĠonĠour
eĠwith Ġdr
eĠwith ĠyourĠgr
eĠwith Ġsub
eĠwith ĠyouĠtoĠyourĠf
eĠwith Ġjade.Ġ
eĠwith Ġkind
eĠwith ĠtheseĠseat
Ġac quiredĠ
Ġac tĠor
intĠ gl
intĠ inĠtheĠs
intĠ inĠtheĠjourne
tĠwith ĠaĠlo
tĠwith Ġlin
tĠwith inĠth
one yĠandĠwe'll
ĠtheĠp apersĠ
ĠtheĠp astĠtwoĠ
ĠtheĠp iecesĠabout
yĠm eanĠthatĠtheĠp
yĠm emberĠneed
ingĠandĠ dr
ingĠandĠ rel
ingĠandĠ exercis
ingĠandĠ honor
ingĠandĠ incl
ingĠandĠ reju
Ġany Ġtax
Ġany Ġtherap
Ġany Ġtask
Ġany oneĠwhoĠ
Ġany ĠtimeĠof
Ġany way.Ġs
ingĠl istĠ
ingĠl imitedĠ
ingĠl ondon
ingĠl ampsĠrack
ingĠl earningsĠfromĠtheĠnba
ĠmoreĠ excit
ĠmoreĠ aboutĠ
ĠmoreĠ about
ĠmoreĠ hard
ĠmoreĠ countries
ĠmoreĠ newsp
edĠwith ĠaĠlittleĠ
edĠwith Ġlocal
edĠwith Ġgrac
edĠwith Ġboth
edĠwith Ġcel
edĠwith ĠmenuĠbutton
edĠwith ĠoneĠofĠmyĠ
Ġwork sĠinĠ
Ġwork edĠcaus
Ġwork ĠtoĠdevelopĠa
Ġwork sĠtoĠrais
ĠwouldĠ likeĠto
ĠwouldĠ haveĠhadĠ
Ġdin ing.Ġ
âĢĶ ĠitĠpay
Ġtop -t
Ġtop -endĠ
Ġtop ĠareĠsoĠ
ationĠof Ġjustic
ationĠof ĠsaidĠcountyĠcour
ationĠof ĠoneĠofĠtheĠtop
impl e,ĠasĠ
impl yĠcont
Ġaround ĠtheĠpro
Ġaround ĠtheĠshoulderĠjoint
Ġaround ĠtheĠbod
Ġaround ĠtoĠspendĠ
earch ĠintoĠ
âĢĻll ĠbeĠamaz
âĢĻll ĠtakeĠour
ific Ġapplication
ific Ġstruct
eĠthisĠ organiz
eĠthisĠ doctor
eĠthisĠ stampĠset
ution Ġshould
ĠlotĠof ĠthatĠfoodĠ
ĠlotĠof Ġvalu
countyĠcour tĠofĠmeig
countyĠcour tĠofĠsaidĠcounty
countyĠcour tĠofĠsaidĠcountyĠofĠmeig
ĠtheĠsaidĠ courtĠ
ĠtheĠsaidĠ commissioners,Ġbefor
ĠtheĠsaidĠ countyĠcourtĠofĠmeig
ĠtheĠsameĠ hal
ĠtheĠsameĠ power
ĠtheĠsameĠ concept
pert y.ĠgreatĠ
ĠasĠwell !ĠiĠam
ĠasĠwell .ĠcloseĠtoĠ
ĠasĠwell !Ġi'veĠ
Ġspecial ĠandĠhol
Ġspecial ĠratesĠ
event sĠs
event .Ġstill
event s.Ġit'sĠ
newĠyouthĠprogram ,Ġwith
newĠyouthĠprogram ,ĠscoutĠgroupsĠaroundĠaustralia
newĠyouthĠprogram .ĠtheĠapprov
Ġask ĠforĠtheĠ
Ġask edĠifĠi
Ġask ĠyourĠmid
Ġask Ġme!ĠðŁĻĤĠi
ffect edĠbyĠc
ffect ingĠalaskan
Ġrhea ĠcountyĠ
Ġaddition ally
Ġaddition ĠtoĠm
Ġaddition sĠofĠyourĠgr
diningĠroom ĠdiningĠroom
diningĠroom ;Ġwhich
diningĠroom ĠwithĠw
diningĠroom ĠandĠkitchen
diningĠroom Ġjetcl
diningĠroom Ġdining.Ġ
ĠhopeĠyou Ġhad
ĠsaidĠcounty ;ĠandĠshall
everythingĠ iĠoffer
everythingĠ wasĠplaced,Ġ
ĠtwoĠ differentĠ
ĠtwoĠ dollar
ĠtwoĠ progres
ĠtwoĠ otherĠdon
Ġcontinu esĠasĠ
Ġcontinu eĠintoĠ
Ġcontinu e.Ġspecific
,Ġshall Ġenter
,Ġshall Ġsell
,Ġshall ĠtakeĠ
,Ġshall ĠconveyĠtheĠ
.Ġst yl
.Ġst aff
.Ġst artĠoutĠ
.Ġst emĠcellsĠ
.Ġst eviaĠ
.ĠthisĠ str
.ĠthisĠ yearĠi
.ĠthisĠ couldĠ
.ĠthisĠ canĠres
.ĠthisĠ prolong
aw are
aw Ġdrop
clos ingĠcred
clos elyĠtheĠ
clos eĠtoĠaĠth
eer Ġawhil
eer ĠworkĠtoĠdevelopĠa
eam ,ĠandĠind
gl eĠtoĠdoĠit
ger .
ger Ġkitchen
ger âĢĻsĠbeautiful
greatĠ di
greatĠ shif
greatĠ room.Ġw
greatĠ gramĠwhoĠ
greatĠ freedomĠof
ient s,Ġyou'reĠ
ient lyĠloc
ient .ĠsomeĠin-
ient ,Ġsafe
ject ives,ĠandĠ
land sĠwith
land .ĠthereĠis
land ĠacquiredĠ
nâĢĻtĠ feel
nâĢĻtĠ metĠ
nâĢĻtĠ itĠbeĠ
nâĢĻtĠ doĠaĠlo
ock etĠofĠtheĠ
phot oĠshow
sit tingĠroom
sit comĠstarĠ
sit yĠofĠwestern
sit tingĠwithĠaggravatedĠorganizm
tain sĠchair
tain lyĠam!ĠweĠ
wor se.
Ġro tatorĠcuff
Ġro tation
Ġro bert!ĠthankĠyouĠsoĠmuch
Ġnew Ġyork
Ġnew Ġreven
ĠðŁĻĤ ĠhopeĠyourĠweekĠisĠgoingĠgreat!
ĠðŁĻĤ ĠhappyĠwednes
eĠf avor
eĠf oter
eĠf etalĠd
eĠf abric
eĠf amily,ĠweâĢĻreĠ
eĠf lowĠisĠden
Ġtour Ġweek
Ġtour .Ġsecond
ĠaĠm edical
ĠaĠm oment
ĠaĠm onth
ĠaĠm erryĠchristmas
ĠaĠm ajor
ĠaĠm inuteĠ
ĠaĠm idwifeĠ
ĠaĠm assiveĠlaunch
Ġthink Ġthere
Ġthink ĠthisĠstem
ĠthingsĠ gettingĠ
ĠthingsĠ haveĠbeenĠgreat
erv esĠa
erv ingĠasĠaĠâĢľ
onĠa uthorsĠre
onĠa utophagyĠ
onĠa Ġwarm
onĠa ĠhappierĠnot
ĠtheĠn hsĠcordĠbloodĠbank
ĠtheĠn blĠwasĠ
ĠtheĠshoulder ĠisĠa
ĠtheĠshoulder sĠâĢľ
rew ĠofĠspecial
read yĠto
review ĠofĠaggravatedĠorganizm
review s.ĠamazingĠ
itsĠ makingĠ
itsĠ difficultĠ
itâĢĻsĠ charg
itâĢĻsĠ gettingĠ
itâĢĻsĠ notĠsur
ativeĠ ofĠtheĠu.
.Ġw eĠtak
.Ġw aitingĠfor
.Ġw earĠitĠ
.Ġw olpman
.ĠifĠyou ĠattendedĠ
iseĠ comingĠ
iseĠ everyĠs
iseĠ collimatedĠ
ome whatĠ
check ingĠoutĠ
check edĠthingsĠ
edĠandĠ bas
edĠandĠ clean
edĠandĠ iĠloveĠ
edĠandĠ expend
edĠandĠ plentyĠof
Ġpar allelĠsoĠ
Ġhous eĠisnâĢĻtĠ
Ġhous e:ĠmichaelĠk
Ġwas ĠalsoĠtheĠ
Ġwas ĠtoĠcreateĠ
Ġwas Ġtaken.Ġ
Ġweek sĠagoĠ
ely !Ġyou
ely ĠthatĠyouĠhaveĠ
ely .Ġtop
ely ĠanĠend-st
Ġdec atur
Ġdec lineĠtheĠt
ett eĠsuper
ett e;ĠaĠpr
ett uceĠ
ett es.ĠthisĠ
ett iaĠgrow
ally Ġauthor
ally ,ĠaĠlit
ureĠ redu
ureĠ along
ureĠ outĠwher
mad eĠmyĠ
mad eĠsidel
mad eĠtoĠthemselvesĠandĠsuccessorsĠinĠoffic
mayĠ includ
mayĠ de
mayĠ notĠmatch
unt eerĠworkĠtoĠdevelopĠa
under groundĠ
under ĠtheĠprovision
under standĠ
nex tĠap
excit edĠwhen
excit edĠtoo!ĠaĠfew
excit ing,Ġengag
grandma Ġpass
grandma ĠpassedĠaway
grandma ĠgaveĠ
group .Ġto
compl exitiesĠof
eĠthatĠ sheĠ
eĠthatĠ scout
eĠthatĠ iĠhaveĠyet
eĠthatĠ createsĠaĠfresh
Ġreg ulator
Ġreg ionĠdoesĠ
qual ityĠfor
quire ments,Ġneed
Ġalso Ġstress
Ġalso ,ĠtoĠsaveĠ
Ġalso ,Ġfor
ĠforĠtheĠ stamp
ĠforĠtheĠ offic
ĠforĠtheĠ implementation
ĠforĠtheĠ occ
Ġthey ĠshallĠbeĠ
Ġthey ĠshallĠcaus
Ġshar p,Ġall
Ġshar ingĠcard
ctor sĠb
ction alĠd
ction ĠofĠtheĠnewĠyouthĠprogram
ction sĠareĠaband
sĠofĠtheĠ program
sĠofĠtheĠ amendedĠconstitution
sĠofĠtheĠ newĠprogram
!ĠiĠloveĠ thatĠ
!ĠiĠloveĠ thos
!ĠiĠloveĠ yourĠrustic
!ĠiĠloveĠ allĠtheĠt
Ġover Ġdes
Ġover Ġagain
Ġover ĠaĠphot
Ġover ĠrecentĠ
willĠbeĠ visit
willĠbeĠ opportunities
willĠbeĠ inĠplac
willĠbeĠ enhanc
Ġexperi ence.Ġmanag
Ġwhich ĠisĠrareĠ
Ġwhich ĠtheyĠshallĠcaus
ĠtimeĠ livingĠher
ĠtimeĠ iĠwantedĠtoĠ
ĠtimeĠ atĠanyĠ
ĠtimeĠ atĠgatehous
ĠtimeĠ fromĠtheĠlink
Ġknow ĠthereĠis
Ġknow ledg
Ġknow ĠtheĠimport
Ġknow ĠthatĠeveryĠs
Ġknow ĠsheâĢĻ
ĠsoĠsorr yĠtoĠhear
ĠsoĠsorr yĠagain
ĠcellsĠ isĠalter
weekend .Ġit
weekend !ĠyourĠhomeĠ
weekend !Ġwhat
weekend .ĠitâĢĻsĠbeen
weekend !ĠiĠloveĠyourĠrustic
ranch Ġsup
ranch ĠofĠscoutsĠaustralia
organiz edĠinĠtimeĠto
organiz ationalĠskill
organiz ationĠofĠsaidĠcountyĠcour
Ġapplication s
Ġapplication sĠandĠitĠcap
housewarmingĠpartyĠinvit ationsĠ
!Ġh ugsĠ
!Ġh owever
!Ġh eyĠdear,Ġ
!Ġh ostedĠbyĠtheĠ
'sĠa Ġpremium
'sĠa ĠgreatĠlocation
.Ġa ĠweekĠa
.Ġa ĠnumberĠof
.Ġa w,ĠthankĠyouĠsoĠmuch
.Ġa ĠproclamarĠl
au ces
au thor
ach iev
ach ingĠout
ach edĠinĠoneĠ
back Ġif
back ĠafterĠ
back âĢĿĠwher
ces ĠtheĠsp
ces ĠtheĠavail
ces anĠdirector
dur ingĠfast
e- proven
e- averag
e- sav
e- upĠfor
eeĠ epicent
e,ĠandĠ iĠloveĠ
e,ĠandĠ underĠtheĠsameĠ
e,ĠandĠ non-
e,ĠandĠ i'veĠbeen
e,ĠandĠ doĠanĠ
e,ĠandĠ youĠcanĠexpect
e,ĠandĠ checkedĠthingsĠ
giv ingĠb
giv ingĠdueĠ
ho an,Ġ
ho gĠh
ho enix
ho lograp
har borsĠtrueĠ
ian Ġorganiz
ium ĠinĠm
long Ġlast
long erĠisĠ
long ĠasĠtheĠdel
nor ,Ġm
nic eĠandĠclean
rightĠ hereĠ
rightĠ diec
rightĠ upĠmy
rightĠ nowĠisĠan
such ĠaĠth
such ĠaĠgreatĠ
such ĠaĠbig
such ĠanĠamazingĠ
such ĠasĠgrow
ures ,Ġre
ures ĠandĠcod
ures ĠaĠlistĠof
won âĢĻtĠbeĠtheĠs
yn dic
yn c-ed
Ġen ormousĠ
Ġen emyĠonĠtheĠ
Ġen ĠlaĠm
Ġen oughĠforĠtwo
Ġen Ġnuest
Ġout sid
Ġout .Ġtook
Ġout ĠtheĠentir
Ġout ĠtoĠdef
Ġout ĠtheĠfacilities
Ġout âĢĿĠyourĠdev
ĠchristmasĠ wreat
ĠâĢĵ ĠnoĠ
ĠâĢĵ Ġneed
ĠâĢĵ Ġaug
ĠâĢĵ ĠandĠyesĠ
ĠâĢĵ ĠwhatĠsp
ĠâĢĵ ĠtheĠshoulderĠisĠa
Ġeach .Ġfor
Ġeach Ġstretch
Ġeach Ġmoment
eĠisĠ $
eĠisĠ val
eĠisĠ my
eĠisĠ destro
eĠisĠ forcedĠ
eĠisĠ ifĠyouĠalread
eĠisĠ notĠallow
eĠglitter Ġbottl
eĠglitter Ġframe!
Ġtouch esĠin
Ġtouch esĠandĠsentim
inter activelyĠandĠ
Ġthen Ġhas
Ġthen ĠaĠmidwifeĠ
Ġthough ĠiĠwish
sĠwith Ġenvironment
sĠwith ĠthisĠmod
sĠwith outĠhav
sĠwith ĠaĠprem
eric ĠatĠhisĠb
eric ĠalsoĠstress
tĠin ĠyourĠnew
tĠin ĠdoingĠtheir
oreĠth eĠsouth
ityĠof ĠaĠnew
ityĠof Ġwhom
ityĠof ĠsaidĠcommissioner
ityĠof ĠtheseĠdamag
ityĠof ĠeachĠmoment
ann ingĠfrom
ann elĠof
ann ingĠnow
ann edĠcommunityĠ
ann âĢĻs!
antĠ seat
antĠ organs,Ġmak
ater Ġdat
ater fall
atingĠ hisĠ
atingĠ dies
atingĠ effect
atingĠ herĠthingsĠ
atingĠ inĠtheĠstamp
ated .ĠsectionĠ
ated ;Ġand
ated .ĠiĠloveĠ
ated Ġalong
ated ĠtoĠtheĠnhsĠcordĠbloodĠbank
ated .Ġmark
ated ĠthatĠlittl
,Ġm oreĠs
,Ġm usic,Ġapp
,Ġm yĠsweetĠ
youĠareĠ usingĠitĠ
youĠareĠ lookingĠfor
ĠandĠm cminn
ĠandĠm ccrind
thatĠ youĠp
thatĠ greenĠglitter
thatĠ youĠhonor
thatĠ canĠdr
ingĠp otential
ingĠp ublicĠbuilding
ingĠp inkfreshĠstudioĠ
ingĠp eopleĠtoĠtopic
ingĠof ĠcongressĠsp
ingĠof Ġhotel
ingĠof ĠyouĠasĠyou
ingĠof ĠofficersĠinĠother
ingĠfor ĠteddyĠbear
location :ĠtheĠ
location .ĠgreatĠ
location ĠforĠguest
location ĠsoĠexpend
location sĠforĠdanceĠ
ash Ġsit
ash Ġsav
ash ion.Ġ
Ġcl ericĠalsoĠstress
ectĠ match
ectĠ cordĠblood
ectĠ forĠother
edĠtheĠ needĠfor
edĠtheĠ elder
edĠtheĠ duck
Ġpat ient.ĠsomeĠin-
Ġhom es
Ġhom e,Ġ
Ġhom e,ĠthanksĠfor
eliz ador
str ates
str engthen
str engthĠyou
Ġbab yĠtoĠbenefitĠ
Ġdi yĠproject
Ġdi eĠandĠnoĠ
etsĠ c
etsĠ collect
etsĠ (ph
etsĠ grill
ĠtoĠs ell,ĠandĠinĠaĠsmall
alleng ingĠandĠincl
Ġfriend ,ĠbutĠi
Ġif ĠiĠam
Ġif ĠiĠwant
Ġif ĠprivateĠ
ĠiĠam ĠsoĠexcit
ĠiĠam ĠoffĠtoĠ
ĠiĠam ĠsoĠgrateful
ays.Ġ it'sĠa
ays.Ġ withĠnoĠ
Ġget ĠtoĠall
ide allyĠbeĠt
withĠtheĠ custom
withĠtheĠ interest
Ġstat ement.Ġ
Ġstat us.Ġcand
Ġstat ement,Ġwhen
Ġstat usĠknowledg
Ġstem mingĠfrom
Ġstamp Ġset
Ġstamp ĠsetsĠ
âĢĻveĠ enjoyedĠ
âĢĻveĠ enjoyedĠtheĠ
âĢĻreĠ right
eĠsp eakers
ĠinĠ room.ĠdiningĠroom
we'reĠ aĠnew
we'reĠ allĠaboutĠ
istor y,ĠandĠ
istor yĠandĠecolog
Ġalway sĠaimingĠtoĠ
Ġalway sĠremember
Ġlov e.Ġbefor
Ġlov e,Ġlov
Ġlov e.ĠsheĠ
Ġlov elyĠthatĠyouĠhaveĠ
Ġlook !ĠiĠneedĠtoĠ
intoĠ uphea
intoĠ locationsĠforĠdanceĠ
ĠshareĠ whatĠi
Ġallow edĠfour
Ġallow ĠyouĠtoĠs
Ġallow edĠaĠlotĠof
ctober .Ġ"
umber ĠoneĠwayĠto
!ĠiâĢĻm ĠsoĠexcit
!ĠiâĢĻm ĠinĠloveĠ
!ĠiâĢĻm ĠsoĠthankful
!ĠiâĢĻm ĠsoĠsorryĠtoĠhear
ageĠ provid
ageĠ nextĠyear
ageĠ participant
ageĠ renalĠf
river s,ĠandĠtheĠ
ĠhaveĠa Ġsweet
ĠhaveĠa ĠlistĠof
ĠhaveĠa ĠgreatĠday!Ġamanda,Ġi
ĠcongressĠ rat
Ġonlin e.ĠyouĠcan
Ġonlin eĠtoĠbeĠmail
clean ing
clean ,Ġnic
clean ĠandĠinvit
avail ableĠlate
ityĠtoĠ invadeĠandĠ
edĠbyĠtheĠ currentĠ
prett yĠwiredĠangel
post sĠover
post edĠinformation
post s,ĠthisĠwasĠ
post ureĠredu
ĠseeĠ itĠnow
ĠseeĠ whenĠitĠcom
month sĠor
month s;ĠfirstĠ
month 'sĠrevers
.ĠbeĠitĠenacted,Ġthat ĠtheĠpro
.ĠbeĠitĠenacted,Ġthat ĠtheĠcommissioner
.ĠbeĠitĠenacted,Ġthat ĠtheĠsaidĠcommissionersĠshall
.ĠbeĠitĠenacted,Ġthat ĠtheĠfirstĠ
.ĠbeĠitĠenacted,Ġthat ĠtheĠcitizensĠof
.ĠbeĠitĠenacted,Ġthat ĠallĠoffic
.ĠbeĠitĠenacted,Ġthat ĠtheĠsaidĠcommissioners,Ġbefor
nextĠ round
nextĠ proce
christmas ĠtreeĠ
chedul ed.ĠtheĠ
chedul e.ĠiĠshouldĠ
!ĠweĠ loveĠthatĠ
!ĠweĠ usedĠtoĠ
!ĠweĠ areĠhereĠ
18 0
18 5
aff ĠhasĠbeenĠgreat
ba dĠforĠtheĠ
by ĠthisĠact
by ĠandĠtak
by ĠthemĠreceiv
by ĠthisĠactĠ
by ĠtheĠsaidĠcountyĠcourtĠofĠmeig
becaus e
becaus e!ĠthereĠisĠ
caus e!ĠhappyĠfriday,Ġ
caus eĠaĠtown
dr .ĠjanetĠduffy-anderson
dr .Ġton
dr omeĠmask
d.Ġ older
d.Ġ ifĠnot
des criptions,Ġ
down sideĠ
down ĠtheĠma
down .ĠhereĠisĠoneĠ
eightĠ mil
eightĠ years,
eightĠ diningĠs
fast sĠgo
fast ingâĢĻ
full yĠfeat
full yĠal
full yĠex
grow thĠandĠ
grow ingĠincidentĠratesĠ
has n't
has ĠtheĠcapac
has ĠanĠetsyĠst
has nâĢĻtĠmetĠ
has ĠaĠmedical
hisĠ wood
hisĠ co-star
ior ĠshiiteĠ
ietĠ withoutĠ
iĠam ĠafterĠ
iĠam ĠhappyĠyouĠareĠenjoy
iĠam ĠsoĠexcitedĠtoĠbeĠ
iousĠ stagesĠ
iousĠ living/
just ĠtooĠ
just ĠthatĠmuch
leĠ holdersĠlastĠyear
lastĠ decade.Ġ
me etingĠtheĠ
me etsĠc
mer gingĠof
mer chand
mer .Ġsamsung
nes s,ĠiĠjustĠloveĠ
ness ĠandĠlov
olog icalĠdepend
ph oneĠandĠ
ph ysical
pay ĠtoĠcollect
pect sĠofĠtheĠprogram
purchas eĠor
purchas edĠbyĠ[do
purchas edĠbyĠtheĠcurrentĠ
ris kĠof
run k.Ġi
run ningĠaĠs
run Ġbusiness
sc enic
se enĠin
sĠtheĠ christmasĠseason
sĠtheĠ launch
sid eĠthereĠ
sid e!ĠwithĠour
sideĠ gyn
sideĠ atĠtheĠnba
season !ĠhopeĠyouâĢĻreĠhavingĠaĠgreatĠ
season ĠafterĠanĠ
ueĠ stream
ueĠ fromĠcrow
ven atingĠtheĠ
y'sĠ pat
eĠcon vention
eĠcon fetti
Ġteam Ġmember
ĠaĠc ustom
ins ettiaĠgrow
enanceĠ work
enanceĠ staff
ĠtheĠpro cess
Ġsit eĠtheĠs
Ġsit e.Ġnote:
ĠsomeĠ canc
ĠsomeĠ pinkfreshĠstudio
ĠsomeĠ insp
ĠsomeĠ ofĠitĠ
reak fastĠ
reak ĠtheĠfast.Ġw
itch .Ġb
yĠb ecom
yĠb reakĠtheĠfast.Ġw
ingĠtabl e.Ġ
atur dayĠeven
atur ,ĠinĠhonor
aryĠ general
aryĠ loun
aryĠ inĠsaidĠcountyĠofĠmeigs,
aryĠ group.Ġto
ofession allyĠauthor
,Ġyou ĠareĠtheĠb
,Ġyou ĠwillĠautomat
,Ġyou âĢĻreĠright
es. ĠtoĠget
es. ĠthereĠisĠ
es. Ġalcoholism
es. ĠasĠo'haraĠs
es. ĠsoĠstar
oment sĠoffer
oment ,ĠstemĠcellsĠ
oment sĠby
chair s.Ġhom
ingĠher Ġroom
ingĠher ĠthisĠholidayĠseason
ingĠher ĠaĠloftĠb
lop edĠgif
lot s,ĠpayableĠto
lot sĠofĠsparkl
lot sĠtoĠshareĠwith
edĠforĠtheĠ elect
edĠforĠtheĠ restĠof
edĠforĠtheĠ most
edĠforĠtheĠ veryĠdef
ĠwasĠ myĠgrandma
ĠwasĠ particular
eliver ĠscoutingĠ
ĠbutĠ itĠwasĠ
ĠbutĠ unlessĠ
ĠbutĠ veryĠfavor
email ingĠwasĠ
email ingĠlistĠ
ourne .Ġc
ourne ,ĠwhereĠ
Ġfin e.Ġas
uryĠ hospitalityĠ
uryĠ notĠotherwiseĠ
idea .ĠhopeĠyou
idea !ĠsoĠpretty
idea ĠofĠsittingĠ
ress ingĠtheĠpain
ress edĠwithĠaĠlittleĠ
irst Ġappoint
hadĠ suchĠaĠth
grand paĠisĠa
comp uter
ĠinĠtheĠ pool
ĠinĠtheĠ ecosystem
ĠinĠtheĠ us,
ĠinĠtheĠ accountĠ
ĠinĠtheĠ eveningsĠwithĠtheĠ
ĠandĠt empor
ĠandĠt alentĠ
ĠandĠt errit
ĠandĠt ightensĠeverythingĠ
ĠandĠt urningĠthem
Ġreview ,Ġhead
Ġreview edĠand
Ġreview s.ĠtheĠimagesĠ
whatĠ yourĠlocal
whereĠ weâĢĻdĠbeĠ
whereĠ yourĠpain
whereĠ noĠone
whereĠ creativityĠ
which Ġlast
which ĠiĠthink
which ĠsiteĠtheĠs
outĠgroup sĠbyĠ
ĠsheĠ hasĠanĠetsyĠst
Ġshoulder Ġdoes
Ġshoulder Ġalign
pric elessĠ
pric e,Ġbut
pric eĠofĠ$
Ġabout !Ġtoday
Ġabout ĠtheĠopen
Ġabout ĠanĠhour
Ġspac es.ĠforĠmoreĠinformation
eve yth
cord blood
cord ialĠandĠprofessional
cord ingĠtoĠhisĠ
ustom erĠm
ustom erĠs
ĠwithĠyou .Ġf
ĠwithĠyou !ĠiâĢĻmĠsoĠsorryĠtoĠhearĠaboutĠyourĠgrandma
ĠwithĠyou .Ġyou'll
willĠb enefitĠ
willĠb eĠbasedĠatĠtheĠ
Ġwhen Ġter
Ġwhen ĠiĠget
edĠby ĠthisĠact
edĠby ĠaĠstemĠcellĠtrans
edĠby ĠtheirĠvideoĠ
edĠby ĠsaidĠcourt
edĠby ĠanyĠoneĠof
makesĠ meĠ
makesĠ youĠfe
day,Ġ blogĠfriends!
hotel Ġlist
hotel Ġpropert
hotel Ġreserv
anceĠof ĠhisĠ
anceĠof Ġsav
anceĠof Ġpsych
shallĠb eĠdepos
however ĠtheyĠdoĠ
pool Ġareas
pool .Ġwhil
pool s.ĠtheĠmaintenanceĠ
cordĠbloodĠbank s.Ġwww.
cordĠbloodĠbank ing,Ġit'sĠ
!ĠthankĠyouĠsoĠmuch ,Ġre
!ĠthankĠyouĠsoĠmuch Ġ!ĠsoĠfar
!ĠthankĠyouĠsoĠmuch ,Ġjam
!ĠthankĠyouĠsoĠmuch ĠforĠask
!ĠthankĠyouĠsoĠmuch Ġshambr
happyĠ iĠget
atehous e.ĠnoĠ
,Ġwhich Ġmak
,Ġwhich ĠisĠcurr
,Ġwhich ĠworksĠtoĠrais
,Ġwhich ĠallowedĠfour
printabl e.
printabl esĠof
printabl eĠmyĠs
printabl esĠiĠshareĠ
calledĠ bloomsĠfill
calledĠ outâĢĿ
calledĠ inktober
experienc es.
experienc esĠwith
experienc e.ĠtheĠinn
nament sĠareĠs
nament eĠyĠ
nament ,Ġcash
visit ĠtheseĠitem
visit edĠtheĠelder
Ġthere foreĠemail
Ġtoo! ĠthanksĠsoĠmuch
Ġtoo! ĠmyĠlittleĠ
Ġcommun ity,Ġ
Ġcommun icationsĠs
gether ĠandĠget
gether ĠtoĠeachĠb
gether ĠwithĠyou.Ġyou'll
masksĠ car
masksĠ expl
ograph y.
ograph ic.ĠitĠ
ograph ĠwasĠtaken.Ġ
atellit es,Ġs
atellit eĠandĠback
atellit es.ĠtoĠget
ĠpartĠof ĠtheĠaren
Ġamanda ĠwithĠyourĠcuteĠ
drewĠmichael Ġwhil
esĠfreeĠtemplateĠ housewarmingĠpartyĠinvitesĠfreeĠtemplateĠ
!Ġyour Ġcenter
!Ġyour Ġstock
't ĠthinkĠthere
't ĠallowedĠaĠlotĠof
-up ĠforĠourĠcongressĠ
-up ĠwithĠ$
19 0
19 3
19 8
19 9
af elyĠandĠ
af fordabl
af ÃŃ
af ĠsouthĠof
af eĠandĠfriendly
ah Ġmall
ah Ġhook
br ainĠcell
bod yĠforĠtheĠ
bod iesĠlook
car Ġtrack
car ry
cand leĠholdersĠlastĠyear
fect .ĠsoĠ
famil ies.ĠtheĠchanceĠof
famil yĠandĠiĠwouldĠ
firstĠ christmasĠinĠportugal
firstĠ startĠwith
getĠ goodĠresult
goodĠ organizationalĠskill
general Ġwarr
gatehous eĠasĠ
gatehous eĠatĠ
gatehous e,ĠiĠhaveĠ
health ,Ġapp
health yĠcellsĠareĠ
ix Ġhospital
iat ely.Ġtop
ibil ity
jam esĠl
jam esĠbl
lif eĠh
lif e-sav
lea vingĠ
lea dĠnormal
lea dersĠtoĠ
mall ĠandĠhasĠ
match esĠareĠ
match es.ĠasĠo'haraĠs
non -t
non Ġstandard
non ,Ġjo
n'tĠ createĠaĠ
n'tĠ requir
n'tĠ muchĠtimeĠl
osĠ burger
osĠ (ex
oveĠ in.Ġ
oveĠ aĠfive-
oint edĠbyĠthisĠact
pin elakeĠ
pec ificĠstruct
putĠ âĢĵĠeven
piec eĠisĠa
piec e.ĠiĠmadeĠthes
son Ġnevins
sel fĠup
section Ġchalleng
section al;ĠitâĢĻsĠ
section sĠwithoutĠhav
seat sĠwereĠ
seyĠ withĠyour
scap edĠgard
scap ularis,
ty ĠtimeĠto
ty pe:Ġ
ty Ġacre
t,Ġ onceĠ
t,Ġ uponĠsuch
ubl ishedĠa
vail ableĠt
wayĠ weĠd
wayĠ moreĠfun
yĠst reet
yĠst epsĠa
Ġel iotĠdalton
Ġel ectionsĠfor
Ġel ement,Ġre
Ġel ectĠforĠother
ĠnotĠ beĠsoĠconstruedĠasĠtoĠ
ĠnotĠ sureĠ
ĠnotĠ beĠelectedĠ
ĠveryĠ larg
eĠand ĠthatĠtheyĠ
eĠand ĠtheirĠad
ĠaĠlo t!Ġi
Ġact sĠrequiredĠ
inĠtheĠs ameĠman
includ ingĠyouthĠday
includ esĠprivateĠ
sĠ& Ġchristmas
sĠ& Ġcard
sĠ& Ġpeach
sĠon !ĠmyĠ
sĠon Ġsar
sĠon ĠtheĠsecondĠ
sĠon Ġproduct
sĠon ĠourĠweb
sĠover ĠtheĠfour-
sĠover ĠtheĠpastĠf
sĠover Ġtime.ĠthatĠisĠa
erĠm erryĠ
erĠm obil
erĠm ovingĠtheir
erĠl evelsĠfromĠ
ond ,Ġwith
ond ĠandĠsecur
Ġset sĠofĠtheĠ
Ġset Ġtoday
Ġsuper Ġexcit
Ġsuper intend
releas edĠintoĠtheĠ
releas e,ĠinĠwhich
it'sĠ beenĠpre
it'sĠ clean,Ġnic
ingĠto Ġtap
ingĠto ĠstoreĠyourĠbaby'sĠcordĠbloodĠpriv
ingĠto Ġscroll
ingĠto Ġattend.ĠifĠitĠ
ingĠto getherĠandĠget
ingĠthisĠ exercis
ingĠthisĠ holidayĠseason
ingĠthisĠ season!ĠhopeĠyouâĢĻreĠhavingĠaĠgreatĠ
ingĠall ĠtheĠtim
ingĠtheir Ġpreparation
ingĠtheir Ġbaby'sĠcordĠblood
ingĠtheir Ġef
ansĠ liveĠ
antl yĠtheĠdom
antl y,Ġpain
Ġanalys esĠandĠworkingĠwith
Ġanalys es.ĠpriorĠexperienceĠ
alk ĠtheĠother
alk ĠaboutĠtheĠopen
alway sĠs
alway sĠad
.Ġ" we'reĠallĠaboutĠ
.Ġour Ġe
.Ġour ĠapartmentĠ
.Ġour ĠpatientĠportal
.Ġour ĠhouseĠisnâĢĻtĠ
.ĠitĠ does
.ĠmyĠ daughter
.ĠmyĠ grandpa
.ĠmyĠ hus
.ĠmyĠ greatĠgramĠwhoĠ
.ĠmyĠ grandmaĠgaveĠ
ofĠc oher
,Ġd emon
,Ġd amag
,Ġd ynam
,Ġd iab
,Ġd ivision
esĠa ffectingĠalaskan
es,Ġ definit
es,Ġ cost
es,Ġ forĠtheĠpresentĠorĠanyĠprecedingĠyear
es,Ġ homelessĠ
isĠtheĠ neighbor
isĠtheĠ veryĠbestĠ
ision Ġcap
ision -mak
ister -in-
ister Ġed
ister ĠmadeĠme!
ingĠm eĠonĠaĠd
ingĠm yĠcreativity
ingĠm ovesĠandĠvariation
ingĠon line.Ġph
ingĠon ĠtheĠsameĠhal
ingĠitĠ quarter
ingĠitĠ withĠus
Ġmar ia,Ġi
Ġmember sĠandĠtheĠ
Ġmember sĠnow
Ġmember sĠofĠtheĠgeneralĠassembly
ecess aryĠpublicĠbuilding
ecolog istĠwith
ecolog y'sĠpat
icĠs quareĠ
education ĠeventĠ
education ,ĠtheĠt
education ĠandĠearlyĠ
isĠs eventhĠonĠtheĠ
isĠs omewhatĠ
isĠs afeĠandĠfriendly
Ġphot ographer
Ġphot o,Ġ
Ġpart icip
Ġpart nership
Ġport alĠfrom
edĠup ĠforĠtheĠocc
Ġhas ĠalwaysĠ
Ġhas ĠaĠfriend
Ġhistor yĠofĠsc
ĠtoĠm yĠcard
ental ĠadditionsĠofĠyourĠgr
Ġdr .ĠlaurenĠro
Ġdr .Ġwolpman
Ġdes criptions,Ġ
Ġdes ervesĠa
ilit aryĠinĠsaidĠcountyĠofĠmeigs,
Ġfun drais
Ġid entification
Ġid ealĠlocation
ay,Ġ yourĠsweetĠword
ay,Ġ itâĢĻsĠbeen
Ġglam Ġhol
Ġglam ĠisĠperfect
result sĠofĠtheĠf
maz ing!Ġso
mail ĠmeĠand
ultĠ fromĠaĠnumberĠof
ultĠ leadersĠtoĠ
ĠaroundĠ here!
ĠaroundĠ here,ĠbecauseĠ
ĠaroundĠ forĠmaint
andmother sĠh
andmother .ĠyouĠhaveĠa
andmother .ĠmyĠhus
groundĠ break
groundĠ withĠour
ive,Ġ contribut
uteĠ gold
project sĠfirst
project sĠweĠhaveĠ
project sĠtoday,ĠbutĠ
product s.Ġi
product sĠthatĠi
product ive,ĠmoreĠ
Ġinter est.Ġ"
Ġinter estĠstor
ĠthisĠisĠ goingĠtoĠ
ĠthatĠi ĠcouldĠ
ĠthatĠi ĠcanĠplan
ĠthatĠi ĠwillĠshareĠ
ĠthatĠi ĠpreferĠbrightĠwhit
beĠa Ġperf
beĠa ĠhappeningĠ
quick ĠandĠeasyĠaccess
quick Ġtrip
yourĠf iveĠstarĠreview
Ġhav ingĠaĠblog
tĠofĠmeig s;ĠandĠ
tĠofĠmeig sĠnotĠbeĠ
ould ĠtheĠdrug
ould nâĢĻtĠitĠbeĠ
oneĠof ĠourĠb
oneĠof ĠthoseĠm
oneĠof Ġseveral
befor eĠtheĠt
befor eĠtheĠcountyĠcourt
befor eĠwithĠtheseĠseat
partĠof ĠtheirĠpremium
corpor atingĠherĠthingsĠ
yĠofĠtheĠ commissioners,
yĠofĠtheĠ stateĠ
yĠofĠtheĠ cler
Ġoctober Ġstock
weĠhaveĠ fansĠ
weĠhaveĠ butĠwish
soĠmuch .ĠhugsĠ
.ĠiĠloveĠ yourĠrustic
.ĠiĠloveĠ theĠadventĠcalendar
.ĠiĠloveĠ thatĠgreenĠglitter
Ġtrack ĠtoĠseeĠtheĠ
ĠtheirĠs ameĠexcuseĠ
ĠtheirĠs essionĠworkshop
does n'tĠhaveĠ
Ġnot ĠtheĠonlyĠ
Ġnot iced
Ġnot e,ĠthisĠyear
littleĠ coneĠtrees
littleĠ familyĠandĠiĠwouldĠ
ity,Ġ ourĠc
ity,Ġ ourĠn
ence.Ġ weĠar
ence.Ġ closeĠtoĠaĠth
ĠscoutĠgroup sĠt
entertain mentĠandĠ
entertain ment,Ġwe'reĠ
entertain mentĠproduct
provid ingĠst
provid esĠmoreĠthan
provid edĠfor,ĠunderĠtheĠsameĠ
provid edĠforĠtheĠelect
provideĠ fiber-lik
provideĠ nonĠstandard
Ġchalleng e,Ġwhich
Ġchalleng eĠisĠall
Ġchalleng ingĠmovesĠandĠvariation
ciateĠ willĠut
ciateĠ yourĠfiveĠstarĠreview
canĠbeĠ proc
canĠbeĠ collect
canĠbeĠ usedĠinĠtheĠ
rug byĠpit
rang eĠofĠ
astĠf ewĠyear
commissionersĠ secur
manag eĠdivers
manag ementĠisĠonĠtop
Ġresearch ĠbyĠtheĠ
Ġresearch Ġasso
Ġresearch ĠisĠlack
Ġupd atesĠand
courtĠ lessĠthanĠtwoĠmetresĠfromĠtheĠplayer
present ingĠtheirĠpreparation
ĠtheĠcountyĠcour tĠinĠsaidĠcounty
ĠtheĠcountyĠcour tĠofĠmeigsĠnotĠbeĠ
cardstock Ġselection
cardstock .ĠiĠdon'tĠ
cardstock .ĠyouĠmayĠ
cardstock ,ĠandĠaĠbitĠof
ollow .ĠbeĠsureĠtoĠcheck
Ġpremium Ġseat
Ġpremium ĠsportsĠ
collection .ĠfindĠ
collection ĠofĠbasedĠ
Ġagain .Ġhowever
.ĠbeĠitĠenacted,ĠthatĠ itĠshallĠbeĠtheĠdut
.ĠbeĠitĠenacted,ĠthatĠ saidĠcommissionerĠshall
.ĠbeĠitĠenacted,ĠthatĠ should
.ĠbeĠitĠenacted,ĠthatĠ forĠtheĠdueĠ
.ĠbeĠitĠenacted,ĠthatĠ jamesĠbl
ĠcountyĠ be,Ġand
experienceĠ inĠtenn
experienceĠ withĠtaugh
experienceĠ areĠourĠin
experienceĠ ofĠwalk
Ġattract ionsĠmakesĠ
Ġdiseas esĠwith
Ġdiseas esĠtoĠs
Ġdiseas esĠor
Ġdiseas e.ĠitĠisĠ
havingĠa Ġ
ĠintoĠ bondĠwith
ĠintoĠ fire
ĠintoĠ herĠfrozenĠthem
ĠintoĠ bloodĠcell
guidebook ,ĠyouĠcan
ĠdiningĠroom Ġcombo
ĠdiningĠroom Ġchandelier
ĠdiningĠroom sĠthatĠwillĠmakeĠ
photoĠ ofĠtheĠagingĠl
photoĠ release,ĠinĠwhich
.ĠifĠyouĠareĠ hop
.ĠifĠyouĠareĠ storingĠyour
.ĠifĠyouĠareĠ givingĠb
complet eĠour
Ġalaska ĠwillĠbeĠ
Ġalaska ,ĠandĠcal
Ġalaska ,Ġdiab
housewarmingĠpartyĠinvitesĠfreeĠtemplateĠ housewarmingĠinvitationĠtemplateĠ
ĠaĠlittleĠ quietĠ
differentĠ rul
differentĠ color
istrationĠguidebook .Ġguidebook
;ĠthenceĠ downĠtheĠma
;ĠthenceĠ runningĠaĠs
iÃ³n ĠyĠm
!Ġw e'veĠbeen
!Ġw onderful
!Ġw ishingĠall
,Ġtoo! Ġwhil
-t empor
-and -so
.ĠandĠ mostĠimport
15 5
30 8
are aĠisĠa
are a.ĠtheĠ
are asĠwithĠtheĠ
aĠb itĠof
aĠb uen
aĠb alcon
aĠb eautifulĠjob
bur gĠinĠ
big ĠofĠaĠd
best ĠtoĠfindĠ
best ĠtoĠstar
break sĠdown
ctĠ willĠbeĠinĠplac
doneĠ inĠsuper
doneĠ aĠbeautifulĠjob
dies .ĠaĠfew
dies ,ĠandĠallĠtheĠnew
fa ultyĠac
fĠof ĠmenĠin
fĠof Ġalaska,ĠandĠcal
feat hers!Ġi
feat uresĠaĠlistĠof
freeĠ ps
freeĠ eventsĠs
freeĠ housewarmingĠpartyĠinvitationsĠ
freeĠ printablesĠiĠshareĠ
flu enzaĠm
flu id.Ġ"
fisher iesĠscienceĠcenter
fisher iesĠmanag
ioĠ withĠaĠf
iber Ġnetwork
iĠwouldĠ haveĠdon
keep ĠeverythingĠ
keep sakesĠandĠ
light s,Ġsp
light sĠon!ĠmyĠ
learn Ġwhat
learn ĠmoreĠabout
met reĠlong
mark etĠtoĠprovideĠ
mark sĠaĠturn
nect ingĠwithĠthoseĠ
national Ġbasketball
odĠ forĠapplicationsĠ
oic esĠforĠtheĠ
pingĠ rock
pingĠ byĠandĠtak
peopl e.Ġclean
peopl e.ĠiĠdisagree.Ġhowever
ric sĠforĠuseĠin
rul esĠandĠrestrictions,ĠandĠ
seĠ ground
seĠ recre
som eĠspecial
sol utionĠshould
sup plies
sup raspinatus
sup portĠd
sup portĠaĠgreatĠ
sĠandĠtheĠ cost
sĠandĠtheĠ astonish
sĠandĠtheĠ mostĠresourceful
sĠaround ĠandĠclos
sĠaround ĠtheĠcountryĠ
secur ities,Ġ
ting ĠthemĠoutĠ
ting ĠthroughĠit.ĠsheĠ
ting ĠaroundĠtheĠshoulderĠjoint
tator s.ĠitâĢĻsĠ
uk ĠwhereĠyourĠcordĠbloodĠ
val ue.Ġ
val ,Ġdamag
vol unteerĠworkĠtoĠdevelopĠa
wa itingĠfor
wer ĠstandardĠ
wouldĠ beĠneed
wouldĠ beĠaĠperf
woodĠ christmasĠgarland
Ġ& ĠdieĠs
Ġ& ĠoverĠagain
Ġ: (
Ġ: )
Ġ: ).
Ġ: Ġtip
ĠisĠa Ġdisease.ĠitĠisĠ
eĠyour ĠatĠhome!
eĠyour selfĠup
eĠisĠa Ġ
eĠisĠa Ġrepresent
eĠasĠ bigĠofĠaĠd
Ġtu berosesĠcombin
Ġtu ckedĠin
Ġter esĠmin
Ġtall ĠtableĠandĠchair
ĠtableĠ runner
ĠtableĠ finestĠdin
Ġturn edĠout
Ġturn ĠaroundĠforĠmaint
ĠaĠ "s
ĠaĠh ammer
ĠaĠh ighĠlev
ĠasĠa Ġwedd
ĠasĠa Ġwhole.ĠthisĠ
Ġaccess ,ĠaĠmeet
Ġaustralia ,Ġbdr
Ġamaz ingĠtim
Ġamaz ing,ĠisnâĢĻtĠ
inĠf ishĠearlyĠ
inceĠ dat
inceĠ iĠhaveĠquiteĠ
sĠh uman
sĠh eightĠdiningĠs
sĠp otentiallyĠ
sĠfromĠtheĠ professional
dĠofĠtheĠ arts,ĠwhereĠ
tĠd ressedĠwithĠaĠlittleĠ
only ĠtheĠau
orsĠ prior
orsĠ wouldĠbeĠneed
ories )Ġis
ories ĠandĠinĠtheĠ
ories ĠtuckedĠin
enĠin Ġcap
ĠtheĠam az
ĠtheĠam enities
Ġsup portĠ
ĠsetĠ ofĠcard
ĠsetĠ isĠpartĠof
Ġsign ingĠmasksĠ
Ġsign -upĠforĠourĠcongressĠ
redĠ withĠcommunity
redĠ fromĠinternal
redĠ inĠtheĠpurchas
reallyĠ loveĠtheĠ
reallyĠ veryĠlovely
itedĠ inĠtheĠcler
itĠall Ġstart
ing. ĠtakingĠ
ingĠtoĠtheĠ bes
ingĠtoĠtheĠ viewerĠnotĠ
ingĠtoĠtheĠ appeal
atel y.ĠcordĠbloodĠstor
Ġanother .ĠsectionĠ
Ġanother ĠenemyĠonĠtheĠ
.Ġb arcod
.Ġb ranchĠsup
.Ġf estive,Ġ
.Ġf indĠtheĠcomplet
.Ġf astĠmaintenance.Ġ
.Ġit 'sĠaĠgreatĠlocation
.ĠyouĠcan Ġfind
.ĠyouĠcan Ġlearn
off ĠtheĠtown
,Ġre achingĠout
,Ġwith ĠincidentĠratesĠ
,Ġwith ĠasĠman
,ĠyouĠcan Ġstill
,ĠyouĠcan ĠconnectĠwith
,ĠyouĠcan ĠseeĠitĠnow
esĠareĠ myĠfavor
esĠareĠ aĠcom
istĠ whoĠ
istĠ youĠtoĠcom
youĠhaveĠ theĠhighestĠqual
youĠhaveĠ noĠidea
you'reĠ goingĠ
you'reĠ plann
you'reĠ constantlyĠ
ĠandĠi Ġstill
ĠandĠi ĠcanĠb
ĠandĠi Ġagree,Ġ
ĠandĠi Ġlove,Ġlov
th,Ġ eachĠb
th,Ġ coupl
th,Ġ protein
thos eĠspecial
thos eĠglitteryĠwineĠbottleĠ
charg edĠif
ingĠyour ĠlakeĠ
ingĠyour Ġpregnanc
ingĠyour ĠtimeĠlivingĠher
fort sĠonĠtheĠ
fort ableĠowner
loc atedĠonĠtheĠoutskir
load ĠtheĠwhit
Ġcre ek;ĠthenceĠ
Ġcre ationsĠandĠb
Ġcoll abor
Ġcoll ectionĠofĠ
Ġcolor Ġpal
Ġman yĠprivateĠ
Ġman nerĠasĠtheyĠ
Ġman yĠstepsĠa
Ġman !Ġwonderful
Ġmak ingĠreserv
Ġmak eĠtitl
Ġmak eĠthisĠa
ĠmayĠ nextĠproce
icĠin juryĠ
edg eĠofĠtheĠ
edic atedĠhost
edĠat ĠtheĠbirthĠ
isĠnotĠ veryĠhealth
isĠnotĠ suchĠaĠbig
Ġpal aâĢĻsĠ
Ġpal mer.Ġsamsung
edĠwhen ĠitĠcom
edĠwhen everĠyou
ĠhisĠ staff
Ġhad ĠanyĠissu
Ġhad ĠaboutĠanĠhour
ĠhereĠ andĠthereĠ
ĠhereĠ areĠveryĠnic
Ġhelp ?ĠtheĠm
Ġhelp ful.ĠiĠhaveĠenjoyedĠ
rock !Ġt
rock etedĠover
rock ĠexceptĠ
ĠtoĠpre -g
ĠtoĠpre pareĠfor
elect ivelyĠ
election ,ĠandĠtheĠ
styl e
Ġby ĠtheĠswank
Ġbot tom
Ġbot tleĠcenterpiec
Ġback ĠtoĠtheĠdwell
Ġback ĠatĠmyĠchristm
ĠbyĠtheĠ nameĠ
ĠbyĠtheĠ complexitiesĠof
Ġblog ĠhopĠtoday
ently ĠsittingĠ
Ġdid n't
Ġdid ĠaĠsimilar
Ġdid n'tĠcreateĠaĠ
emon y.
et. duffy-anderson
esĠon Ġdisplay
esĠon ĠtheirĠhoney
esĠon ĠtopĠareĠsoĠ
esĠwith Ġwood
ilver Ġpaint
Ġfan ĠofĠdo
Ġfan sĠtoĠuseĠ
Ġfan sĠtoĠsitĠonĠtheĠ
Ġfast ing?
Ġim proveĠ
Ġim portantĠ
aysĠtheĠ club
eĠtour ,ĠiĠhadĠsoĠmuchĠfun
ĠofĠ everythingĠasĠ
Ġgo ingĠso
Ġgo alsĠconcern
Ġgo ĠthroughĠthisĠseason
Ġgo tĠdressedĠwithĠaĠlittleĠ
Ġgot taĠs
Ġgot ĠtoĠmeetĠ
Ġgot ĠallĠdress
ĠgetĠ my
ĠgetĠ itĠonĠtheĠ
ĠgetĠ goodĠresult
ĠgetĠ yourĠmoneyĠ
ĠgoodĠ equ
ĠgoodĠ chanceĠof
ĠgoodĠ reason
Ġgrow ingĠinĠtheĠ
Ġgrow ĠveryĠlarg
never Ġmean
irth day,ĠaĠd
irth .Ġyou'veĠ
Ġart .ĠduringĠtheĠ
Ġstr ateg
Ġstr engthen
Ġstill ĠbeĠpresentĠ
Ġstep sĠaway
Ġstep ,Ġdemon
expl oredĠin
expl ainsĠpart
had ĠaroundĠ
had ĠaĠgreat
had ĠaĠpreviousĠ
had ĠaĠk
Ġlea vingĠ
Ġlea gueĠthisĠ
Ġlik eĠusing
Ġlik eĠmostĠof
Ġlink ingĠup
Ġlink Ġlist
ivity ĠandĠtalentĠ
oldĠ lateĠ
oldĠ photographer
oper ateĠwithĠtheĠ
oper atingĠeffect
eĠtheĠs urpr
eĠtheĠs ameĠarenaĠevent
eĠtheĠd ammingĠfrom
eĠthrough Ġfe
eĠthrough outĠmyĠ
eĠtheyĠ bel
eĠtheyĠ enterĠup
utur eĠmedical
proc essĠshouldĠ
problem ĠandĠiĠcanĠb
Ġinformation .Ġcheck
ĠthisĠc aj
ĠthisĠweek Ġto.Ġthankful
ĠthisĠweek !ĠthankĠyouĠforĠshar
ĠthisĠweek endĠiĠwas
itĠisĠ reallyĠveryĠlovely
Ġrel ationship
Ġrel atedĠdisciplin
Ġrep s.ĠdoĠ
Ġrep s,ĠallowingĠ
ĠreallyĠ loveĠthatĠ
ĠreallyĠ likedĠhow
Ġreason sĠlik
Ġreason ĠtoĠdoĠit
Ġreason ĠwhyĠthes
whoĠ couldĠ
whoĠ needĠour
whil eĠbeautiful
whil e,Ġfurther
ĠthatĠisĠ newĠtoĠm
ĠthatĠisĠ rightĠupĠmy
quiteĠ asĠbig
e.ĠyouĠcan ĠfindĠ
e.ĠyouĠcan ĠtryĠfast
e.ĠyouĠcan âĢĻtĠforget
yourĠhomeĠ isĠsoĠ
yourĠhomeĠ makesĠmeĠ
sĠat Ġaj
sĠat ĠtheĠcent
sĠat ĠtheĠmuseum
ĠshouldĠ look,Ġfeel
prom isedĠ
priv atelyĠ
s.Ġi ĠneedĠto
s.Ġi ĠhopeĠyouĠhad
essĠthan Ġ
perfect ĠadditionĠtoĠm
ĠasĠyou ĠdoĠthem
ĠasĠyou ĠcontinueĠintoĠ
ĠasĠyou âĢĻveĠenjoyedĠtheĠ
Ġsport ,ĠbutĠuntil
park le.Ġ
park le.ĠandĠ
park ĠjustĠminutesĠa
newĠyork Ġbroker
newĠyork ĠthatĠenjoysĠa
eĠman agedĠbyĠ
actor âĢĻsĠprimaryĠt
reatment .Ġhiv
reatment ?Ġac
reatment ,ĠandĠlif
yĠcan Ġkeep
weĠareĠ workingĠwith
weĠareĠ pleas
weĠareĠ justĠgettingĠ
ĠonĠtheĠ journeyĠofĠtheĠ
commend Ġthis,Ġor
Ġexcit edĠyouĠareĠenjoy
doctor sĠthink
dollar Ġspot
ĠnoĠ problemĠandĠiĠcanĠb
littl eĠminiĠtreeĠ
Ġkeep ĠeverythingĠ
Ġkeep ĠaĠfair
Ġmean ,ĠthatĠ
Ġmean sĠtoĠbeĠ
Ġmean while,Ġfurther
workshop s,ĠandĠmajor
makeĠ itĠmoreĠ
makeĠ oneĠofĠtheĠ
makeĠ oneĠofĠthoseĠm
Ġcompl ianc
Ġcompl icationĠdur
placeĠtoĠ liveĠ
goingĠtoĠ loveĠtheĠ
ĠitâĢĻsĠ myĠwayĠ
ĠitâĢĻsĠ beenĠokay
loveĠtheĠ glitteryĠwineĠbottl
rans action
ĠwillĠbeĠ usingĠall
ĠwillĠbeĠ blown
court sideĠatĠtheĠnba
friendly ,Ġres
friendly .Ġhi
friendly Ġstrateg
Ġvide os,Ġlearn
ĠneedĠtoĠ deal
ĠneedĠtoĠ weigh
ĠneedĠtoĠ learnĠwhat
ĠaĠfew ĠyearsĠago
blogĠhop Ġtom
blogĠhop ĠwithĠyou!ĠiâĢĻmĠsoĠsorryĠtoĠhearĠaboutĠyourĠgrandma
storedĠ inĠtheĠnhsĠcordĠbloodĠbank
ementation ĠfromĠearlyĠ
irstĠof ficeĠvisit
iological Ġoceanograph
iological )ĠtoĠ
ientĠportal Ġaccount
ientĠportal ,Ġyour
ĠtheĠtim e.ĠandĠ
ĠtheĠtim e-proven
stemĠcellsĠ mayĠbeĠ
expect ingĠitĠtoĠbeĠ
commissioners, ĠtoĠwhom
commissioners, ĠtoĠtheĠrespect
ceiv e,ĠasĠ
paint ,Ġso
paint edĠrain
paint edĠbyĠelizabethĠellis
paint .ĠmyĠgrandpa
ĠjustĠloveĠ theĠs
ĠjustĠloveĠ thisĠ
ĠjustĠloveĠ hisĠwood
born .ĠinĠf
born 'sĠumbilicalĠcor
born ĠdiseasesĠor
diseas e,ĠsuchĠasĠ
diseas e,ĠandĠnon-
diseas es.Ġalcoholism
iqueĠ ker
Ġappre ciationĠofĠtheĠ
Ġappoint ĠtheĠcommissioner
Ġappoint edĠbyĠtheĠcountyĠcourt
oney combĠchristmas
Ġworkshop ĠandĠspeaker
Ġworkshop sĠoverĠtheĠfour-
ĠasĠwellĠasĠ someĠglitteryĠandĠshin
ĠasĠwellĠasĠ providingĠst
oundproofĠwindowĠguy sĠnow
oundproofĠwindowĠguy sĠtoĠmeetĠ
www. ecofoci
worl dĠinĠjapan
maintenanceĠ isĠonĠtop
maintenanceĠ andĠitĠstaff
maintenanceĠ wasĠhereĠtoĠ
ĠtheyĠareĠ unableĠtoĠ
ĠtheyĠareĠ reallyĠknow
communityĠ hasĠbeenĠgreat
communityĠ withĠpl
Ġexperienc e,ĠbecauseĠ
Ġexperienc e.ĠsomeĠ
ĠscoutsĠaustralia Ġapprov
currentĠ list
currentĠ sittingĠroom
currentĠ whereĠcreativityĠ
eeĠriver ,ĠandĠbound
flor enceĠ+ĠtheĠma
normal ities,Ġ
wonderful ĠgemsĠin
Ġwebsit e.
Ġwebsit e.Ġdesign
ĠstemĠcell s.ĠtheĠproblem
âĢĻreĠhavingĠa ĠfabulousĠ
ĠonlineĠ about
ĠonlineĠ forĠour
payableĠto ĠthemselvesĠandĠsuccessorsĠinĠoffic
payableĠto ĠtheĠchairmanĠofĠtheĠcountyĠcourtĠofĠmeig
ĠfindĠ outĠhow
ĠfindĠ postedĠinformation
ĠshoulderĠpain ĠtoĠgo
yĠwineĠbottleĠ candl
inkfreshĠstudio ĠthatĠiĠwillĠshareĠ
outhĠof Ġtenness
outhĠof Ġwhite'sĠcre
Ġangel esĠar
Ġangel iqueĠker
Ġbuilding sĠas
oundproofĠwindowsĠinĠfortĠbranch,Ġin .ĠyouĠshouldĠ
cminn ĠcountyĠlin
Ġmillion Ġri
Ġmillion Ġdollar
ecosystem -basedĠ
ecosystem sĠtoĠdevelop
etween ĠtheĠcountyĠofĠmcminn
etween ĠeachĠstretch
ĠrecentlyĠ introduc
ĠrecentlyĠ it'sĠbeenĠpre
concern edĠaboutĠyour
Ġalcohol ĠabuseĠand
ĠsoĠsorryĠtoĠhearĠaboutĠyourĠgrandma .ĠmyĠgreatĠgramĠwhoĠ
!Ġyou ĠareĠalsoĠ
!Ġhapp yĠwednes
!Ġhapp yĠsunday,Ġ
!Ġhapp yĠworldĠ
'm ĠbeingĠreal
'm ĠsuperĠexcit
'm ĠnotĠtheĠonlyĠ
,ĠthatĠ isĠavailableĠfor
,ĠsoĠ itĠgotĠaĠc
,ĠsoĠ ifĠyouĠcanĠy
,ĠandĠtheĠ prettyĠ
,ĠandĠtheĠ almostĠ
,Ġamanda !ĠthoseĠglitter
,Ġamanda !ĠyourĠstock
-s caleĠimplementation
.ĠsoĠ itâĢĻsĠnotĠsur
/or Ġdupl
/or ĠshoulderĠalign
;Ġwhich ĠbondĠ
;ĠbutĠ saidĠcommissionerĠshall
adĠ (ap
aĠc oordin
aĠc asinoĠsp
aĠc ardĠ"justĠ
aĠm ap.ĠifĠyou
aur en.ro
aur antsĠandĠshoppingĠcenter
aĠn orth
aĠn uev
aĠn orthĠeastĠ
b&b âĢĻsĠproximityĠtoĠ
cut eĠdi
cut e.ĠtheĠlittleĠteddyĠbear
de urĠ(
de priveĠtheĠ
di etĠandĠ
di odeĠl
dleĠ earth
dleĠ notĠaĠh
deliver ed.Ġit
deliver Ġfiber-lik
ees.Ġ plus,
fiveĠ session
fiveĠ commissioners,ĠtoĠwhom
follow s:
follow .Ġpar
follow ingĠvid
gold ,ĠbutĠchipp
hi bition
hi Ġem
hereĠ andĠsoĠfar
iam Ġkeer
ious ly?Ġliv
kin sĠglen
kitchen )ĠbyĠ
lef tĠinĠyourĠnew
lier ĠandĠhealth
mo on
mo dernĠdayĠ
my ĠtimeĠatĠgatehous
mod elsĠareĠ
mod ge-podg
mission s.ĠforĠadditionalĠinformationĠaboutĠmeoĠsatellit
mean sĠsoĠmuch
mov ingĠintoĠtheĠ
mov esĠandĠstep
moreĠthan ĠaĠminuteĠ
moreĠthan ĠenoughĠforĠtwo
number sĠofĠhiv
nba Ġgam
nba Ġbasketball
n't Ġaffect
oid Ġarthrit
oid ableĠwithĠtraditional
pol itician
qâĢĻsĠ mostĠsen
ry er,Ġ
rat es.ĠsoĠstar
s: ĠyouĠcan
sĠar eĠsoĠpremium
sult antsĠll
tsĠof ĠtheĠtown
tsĠof Ġflu
tures ĠtheĠprogram
ual ĠlistĠof
win .Ġpat
wim Ġriver
wim bledonĠisĠ
wim ĠinĠtheĠpool
want ĠtoĠkeep
want ed,ĠsoĠmyĠhous
want sĠtoĠtakeĠtheĠfirstĠ
westĠ lou
westĠ fisheriesĠscienceĠcenter
wish ĠtheĠgateĠ
wiseĠ providedĠfor,ĠunderĠtheĠsameĠ
yetĠ stop
yĠaboutĠ bring
Ġun usual
Ġun itsĠmakingĠ
Ġno vak
Ġroom ĠbedĠandĠbreak
ĠâĢľ trip
Ġeven ĠtheĠliver
Ġeven ingĠtoĠmakeĠa
ĠâĢĶ Ġpres
ĠâĢĶ ĠlikeĠmostĠof
ĠeverythingĠ isĠgreat!ĠiĠloveĠtheĠ
Ġchristmas ĠasĠmuch
ĠearlyĠ mostĠoftenĠresultsĠin
eĠar tĠp
eĠforĠtheĠ presentĠorĠanyĠprecedingĠyear
eĠforĠtheĠ newĠyouthĠprogram,ĠscoutĠgroupsĠaroundĠaustralia
Ġtax es,Ġcost
Ġaw ,ĠthankĠyouĠsoĠmuch
ĠaĠw aterfall
ĠaĠw alkĠtheĠother
ĠaĠgreatĠ viewĠandĠfriendlyĠ
Ġaffect ĠtheĠes
in- seatĠ
inn ĠenjoysĠaĠreputationĠofĠgraciousĠhospitalityĠinĠtheĠmidstĠofĠaĠtrueĠupstateĠnewĠyorkĠfingerĠlakesĠregionĠclassicĠhistoricĠinnĠexperienc
inĠour Ġcommunities
information ĠaboutĠcontract
inĠthisĠa rea.Ġi
sĠb eĠtoĠbeĠs
sĠor Ġreact
sĠus ingĠtheĠnew
sĠus ĠtoĠgr
sĠus ingĠpinkfreshĠstudioĠ
sĠso onĠasĠ
sĠso ĠtheĠfrontĠof
sĠso ĠthatĠiĠcanĠplan
sĠcan Ġimpl
sĠcan 'tĠbeĠt
sĠcan ĠfindĠoutĠhow
erĠs omeoneĠ
ers,Ġ civilĠandĠm
ers,Ġ underĠtheĠamendedĠconstitution
ers,Ġ bloodĠdis
er,ĠandĠ isĠsomewhatĠ
dĠbloodĠ donationsĠfor
tĠp ayĠover
onĠs oundproofĠwindowĠguysĠtoĠmeetĠ
onlyĠ ifĠyourĠfamilyĠ
onlyĠ downsideĠ
onlin eĠlist
onlin e.ĠweĠareĠ
ordin atedĠinvestigationsĠ
ornament sĠareĠdefinitelyĠ
enities .Ġeas
ĠtheĠch ang
ĠtheĠch ildren
ĠtheĠnew Ġterm
ĠtheĠcommissioner sĠapp
Ġser iesĠofĠlow-no
Ġser iously?Ġliv
Ġsimpl eĠchristmasĠ
Ġsimpl e,ĠyetĠ
Ġsatellit es,Ġwhich
red itĠof
rel igiousĠeducation
rest rialĠf
rest ĠtimeĠbetween
rest aurantsĠandĠshoppingĠcenter
recongressĠ hasĠcontract
recommend ĠthisĠcommun
itĠa ĠvideoĠ
itĠa Ġdeath
itĠa Ġconven
yĠis ĠalmostĠ
yĠis .ĠasĠa
yĠfor Ġyou.
yĠhaveĠ theĠs
yĠhaveĠ theĠnumber
yĠhaveĠ aĠchildĠ
ing? Ġ
ang elizador
ating Ġspatial
ating !ĠthankĠyouĠagain
alĠd rivers,ĠandĠtheĠ
alask anĠspr
.Ġin fluenzaĠm
.ĠoneĠ ranking
.ĠoneĠ exampl
.ĠphotoĠ byĠkat
aril yĠbreakĠtheĠfast.Ġw
ofĠ epip
offer .ĠitĠdoes
offic e.ĠtheĠiranian
,Ġres earchĠintoĠ
,ĠmoreĠ interest
,ĠmoreĠ likable,Ġ
,Ġnot ĠtoĠprevent
es, ĠtheĠsumĠof
is, ĠtennisĠaustralia
is, ĠthenĠaĠmidwifeĠ
ism sĠareĠcomposedĠof
isĠall ĠtheĠtime.ĠandĠ
youngĠpeopl e.Ġthous
ĠandĠb indingĠasĠ
ĠandĠb udgetĠ
ĠandĠb iological)ĠtoĠ
then Ġit'sĠa
theĠs ameĠs
cher ĠinĠ
cher manĠ(
cheer !ĠhaveĠa
ingĠb adly
ingĠb usiness.ĠtheĠ
forĠp inkfreshĠstudioĠthatĠiĠwillĠshareĠ
forĠtheir Ġexp
forĠtheir ĠbabyĠtoĠbenefitĠ
forĠtheir ĠoctoberĠstock
Ġcreat iveĠway
Ġcreat ivityĠandĠtalentĠ
Ġcoffe eĠor
Ġcoffe emaker
Ġmid dleĠearth
ĠmoreĠthan Ġ
Ġmuscl esĠ(
icallyĠ beĠmail
ically Ġspread
ically ,ĠandĠwithĠpro
edĠthatĠ youĠareĠhappyĠ
edĠthatĠ itâĢĻ
edĠthatĠ poins
edback ,Ġprofessional
isĠon ĠtheirĠres
Ġph .d.Ġ
Ġph ysiological
Ġpo orĠdec
Ġpay ingĠmyĠ
Ġpres ence.ĠweĠar
Ġpurchas eĠnow
Ġpurchas eĠthisĠstampĠset
Ġpower sĠandĠpriv
Ġpower fulĠexpres
edĠs mar
edĠs mallĠandĠhasĠ
edĠof Ġregular
edĠout ĠallĠtheĠavail
edĠout .ĠiâĢĻveĠaddedĠ
edĠcell sĠtoĠtravel
edĠcell ularĠstr
edĠcell sĠorĠreact
Ġher Ġhouse.Ġ
Ġher .ĠiĠpr
Ġhour sĠinto
Ġhour sĠonĠsar
Ġhim ĠbyĠthisĠact
Ġhim ĠeachĠyear
Ġhea derĠphot
Ġhospital sĠacc
Ġhospital 'sĠpolic
Ġwood enĠg
Ġwood worker,ĠandĠ
Ġwelcom eĠmessageĠ
elb ourne,ĠwhereĠ
elf -medic
Ġbeautiful !ĠitĠhasĠbeen
Ġbeautiful Ġhome,ĠthanksĠfor
Ġbeautiful ĠdiningĠroomsĠthatĠwillĠmakeĠ
Ġblack ĠcoffeeĠor
ention edĠatĠtheĠ
entim entĠwasĠ
Ġdel ayĠcordĠclamping
Ġdel ightedĠbyĠs
Ġdur ingĠyourĠpregnanc
empor aryĠloun
ĠyouĠus edĠneutralĠcolor
ĠyouĠus ingĠaĠcombinationĠof
ĠyouĠus edĠasĠaĠrun
âĢĺ mentalĠi
âĢĺ fastingâĢĻ
atĠof ĠyouthĠdayĠ
ĠtooĠ hardĠ
ĠtoĠtheĠs eats.Ġ"asĠ
ĠtoĠtheĠs pecificĠstruct
ĠtoĠsp eakerĠl
Ġtook ĠtheĠlea
Ġtook Ġmuch
plies ĠandĠaĠ
plies .ĠiĠget
plant ĠthereĠisĠa
plant ,ĠtheĠregistri
plant edĠcellsĠorĠreact
esĠ( pca,Ġh
esĠin cur
esĠin Ġmedic
esĠwill Ġinclud
ourĠ entry
ourĠ viewĠisĠwonderful
us, ĠtheĠbrisban
Ġfe etĠonĠtheĠ
Ġfre eĠtoĠpin
Ġfour ĠpeopleĠisĠa
Ġfour th,ĠeachĠb
Ġfour ĠmusclesĠ(
Ġfind ĠtheirĠsessionĠworkshop
ĠiĠwant edĠtoĠre
urs ingĠhom
aceĠ inĠtheĠfrontĠof
ationsĠ committeeĠ
ation.Ġ unicef
ation.Ġ ðŁĻĤĠhopeĠyou
ation.Ġ educationĠandĠearlyĠ
eĠtim e,ĠandĠunderĠtheĠsameĠ
eĠtak ingĠlearningsĠfromĠtheĠnba
eĠtouch esĠfrom
eĠtouch edĠwithĠgrac
ĠofĠyour Ġlit
Ġoffer ingĠc
ĠofĠsaidĠcounty ,ĠshallĠsell
abil ity.Ġthes
about ĠtheĠnhsĠcordĠbloodĠbank
idayĠ decor!Ġrustic
restĠof ĠtheĠweek
imat e.ĠiĠsus
major ĠtennisĠtour
near ĠtheĠcenterĠofĠsaidĠcounty
near lyĠhal
Ġarrang eĠinĠadv
Ġarrang ementĠidea
Ġstor ingĠtheirĠbaby'sĠcordĠblood
Ġstress ĠtheĠbod
Ġstruct uresĠlik
Ġstruct ureĠalong
andsĠof ĠsaidĠcommissioner
andsĠof ĠscoutĠgroupsĠaroundĠaustralia
andsĠof ĠpeopleĠhaveĠcontribut
ear,Ġ resultingĠin
ear,Ġ itĠisĠreallyĠveryĠlovely
ification Ġsong
ification ĠandĠiĠhaveĠ
comingĠ overĠfrom
comingĠ fromĠtheĠshoulder
compos ingĠsaidĠcountyĠofĠmeig
Ġlin e,Ġto
Ġlin edĠfloral
Ġlit tleĠhun
Ġland ,ĠonĠwhich
Ġland scapedĠgard
Ġliv ing/
option s
option s,ĠandĠall
eĠther eĠtoĠser
eĠthes eĠwithĠjade.Ġ
eĠtheĠb atter
eĠtheĠb ondĠandĠsecur
entĠof Ġrestor
entĠof ĠaĠbusiness
utopha gyĠm
propert yĠwasĠ
propert y.ĠtheĠ
proxim ityĠtoĠtheĠ
ĠinĠm eĠ-ĠiĠam
weet nessĠof
ĠthisĠplac e!Ġ
ĠthisĠmonth ,ĠtheĠnational
ĠthisĠmonth ,ĠyouĠcanĠseeĠitĠnow
ĠandĠall ĠofĠit
ĠandĠall ĠofĠyourĠlit
ĠandĠad ultsĠoften
ĠandĠthen ĠtoĠshar
ĠandĠthen ĠhadĠaboutĠanĠhour
Ġret ailsĠfor
Ġreleas eĠblogĠhop
Ġreleas esĠweâĢĻveĠ
Ġreleas e.ĠyouĠcanĠtryĠfast
Ġrequire d,Ġshall
Ġrepresent ativeĠofĠtheĠu.
ableĠtoĠ completeĠour
wher e,ĠyouĠwouldĠ
wher eĠtheĠyuk
ĠthatĠw ingĠbutĠ
beĠmail edĠuntil
adies .Ġc
addedĠ products.Ġi
quarter .ĠaĠweekĠa
Ġalong ĠwithĠchalleng
ship /th
ĠforĠm yĠcardĠtoday
ĠforĠm yĠcraf
ĠforĠshar ingĠwithĠus
ĠforĠshar ingĠitĠwithĠus
Ġlocal ĠsportsĠ
apersĠ forĠmyĠ
apersĠ printedĠinĠthisĠstate
yourĠbaby'sĠ birth
s,Ġfor Ġexampl
s,Ġfor ĠdefrayingĠtheĠexpens
s,Ġfor Ġtaxes,Ġcost
s,Ġworkshop Ġtitl
s,Ġworkshop ,ĠandĠvehic
e,Ġwhich ĠtheyĠhaveĠ
sĠatĠ youthĠday
sĠatĠ higherĠm
Ġshow sĠthatĠhappyĠ
privateĠ cordĠbloodĠcollection
ĠallĠyour ĠimportantĠ
ĠallĠyour ĠgoalsĠconcern
ĠtheĠsam e.ĠsectionĠ
ĠhadĠ eith
oneĠandĠ woodĠchristmasĠgarland
perform ersĠisĠpr
person nel
Ġjudgment s,Ġor
Ġjudgment ;ĠandĠmor
Ġjapan ĠoverĠrecentĠ
Ġabsol uteĠgold
Ġspect ralĠanalysis
Ġspect ators.ĠforĠtheĠfirst
Ġspot lights,Ġsp
!ĠiĠam ĠhappyĠyouĠareĠenjoy
cost sĠonĠproduct
eĠdo ingĠthisĠexercis
eĠdin ingĠtable.Ġ
yearĠi Ġdiscover
yearĠi Ġinked
everyĠ yearĠsinceĠ
everyĠ otherĠdayĠ
Ġo'haraĠs aysĠtheĠclub
estim atedĠ$
estim entĠofĠaĠbusiness
ĠwithoutĠ writ
ĠwithoutĠ yourĠgr
epidemic :Ġm
epidemic ?ĠthisĠisĠa
ies,Ġ ecology,Ġb
here! ĠtheĠamenities
willĠhaveĠ mem
willĠhaveĠ anĠupd
willĠhaveĠ theĠopportunityĠtoĠ
willĠcontinu eĠitsĠ
willĠcontinu eĠtoĠget
willĠcontinu eĠtoĠadoptĠtheĠprogram
e.ĠandĠ weĠplayĠ
s,ĠandĠtheĠ citiz
s,ĠandĠtheĠ undergroundĠ
iveĠth eĠbestĠqual
Ġprovid esĠguest
ĠasĠtheyĠ bec
ĠwhoĠ isĠplay
Ġwhil eĠdoingĠthisĠexercis
Ġnumber s,ĠworkshopĠtitl
ĠtimeĠto Ġtime,ĠbeĠlaidĠ
myĠgrandma ĠjustĠlov
mentĠandĠ bloodĠflow
s.ĠthereĠ areĠtwoĠ
s.ĠthereĠ isĠaĠpark
,Ġbut ĠalwaysĠaimingĠtoĠ
ĠaĠpre ttyĠtour
ĠofĠtheĠcountyĠcour tĠpayĠover
ĠofĠtheĠnewĠyouthĠprogram .Ġsc
christmasĠinĠportugal ĠtakesĠplaceĠ
aĠnew Ġown
aĠâĢĵ ĠandĠinĠit
ensur ingĠthatĠ
ensur eĠthatĠscout
ensiveĠ isĠitâĢĿ
ensiveĠ volunteerĠworkĠtoĠdevelopĠa
e,ĠasĠ nearĠtheĠcenterĠofĠsaidĠcounty
diningĠtabl es:Ġmar
diningĠtabl eĠset.Ġtall
iredĠ byĠtheĠ
iredĠ higherĠb
iredĠ sectionsĠwithoutĠhav
poor Ġpost
rais esĠtheĠcontro
ĠtakeĠa Ġpeak
owner sĠinĠ
cordĠbloodĠcollection ĠisĠallow
Ġapprov edĠatĠ
Ġapprov edĠsecurity,Ġ
ityĠfor ĠpeopleĠaffect
ityĠfor Ġanother.ĠsectionĠ
ĠitĠcom esĠit.Ġi
manyĠ leadĠnormal
manyĠ restaurantsĠandĠshoppingĠcenter
ĠseeĠtheĠ arenaĠevent
hold ĠtheirĠoffic
law Ġbough
law fulĠforĠtheĠcountyĠcour
ĠaĠlarg eĠdetach
ĠdoesĠ fatĠ
ĠdoesĠ lookĠattract
contain sĠpotentiallyĠ
ĠisĠan noyingĠ
ĠisĠan ĠabsoluteĠgold
ĠthoseĠglitter Ġbottl
eachĠb ranchĠofĠscoutsĠaustralia
shoulderĠpain Ġas:ĠshoulderĠpain
shoulderĠpain ĠstemmingĠfrom
ivers ityĠasĠwellĠasĠ
mentĠof ĠsomeĠcanc
ysical ĠandĠbiological)ĠtoĠ
ateg ory:
ateg yĠcaters
ĠanyĠother Ġgroup
ĠanyĠother ĠactĠor
ðŁĻģ Ġhow
homeĠtour !ĠhostedĠbyĠtheĠ
ercial iseĠeveryĠs
Ġbehind ĠtheĠcouch
Ġbehind ĠtheĠscen
expend iture
printableĠ invitationsĠt
byĠd ialingĠ
Ġyes ,ĠtheĠneutralĠcolor
registrationĠguidebook ĠforĠcongressĠ
.ĠweĠhaveĠ gotĠaĠc
.ĠweĠhaveĠ ourĠcomplet
ĠcountiesĠin ĠthisĠstat
Ġpric e'sĠcre
'veĠbeen Ġbus
ĠaĠbig gerĠkitchen
Ġtherap ist.ĠtheyĠcanĠhelp
isĠbeautiful ĠandĠhas
isĠbeautiful .ĠtheĠpeopleĠar
isĠbeautiful .ĠiĠloveĠyourĠrustic
eakers ,ĠandĠmor
possibl e.Ġwhen
possibl eĠmetast
ĠtennisĠaustralia ĠisĠjustĠ
aĠfew Ġpictures
box ingĠday,Ġ
helpful ,ĠmoreĠlikable,Ġ
ibleĠ verseĠ
ibleĠ onĠtheĠprice
Ġtopic sĠpag
âĢĻllĠseeĠ lotsĠofĠsparkl
ĠlotĠofĠm ilest
ĠlotĠofĠm oneyĠandĠwe'll
ĠtheĠsaidĠcount yĠseatĠ
ĠtheĠsaidĠcommissionersĠshall ĠreportĠandĠ
,ĠshallĠbeĠ known
,ĠshallĠbeĠ entitl
,ĠshallĠbeĠ aĠfundĠinĠtheĠh
.Ġstill Ġfig
.Ġstill ,ĠspendingĠl
landscap eĠofĠcancer
ĠðŁĻĤĠhopeĠyou âĢĻreĠhavingĠaĠgreatĠ
ĠðŁĻĤĠhopeĠyou ĠhaveĠaĠgreatĠday!Ġamanda,Ġi
lovely .ĠiĠreallyĠ
etti asĠcan
ĠalsoĠtheĠ joyĠandĠ
organizm s"ĠisĠa
basedĠ stig
duringĠtheĠ christmasĠseason
aterial Ġcover
Ġclass !
ĠdieĠs et.
ĠdieĠs etĠcall
Ġdon'tĠ resentĠthat
ĠifĠyou Ġow
ĠinĠearning sĠinĠadditionĠtoĠtheĠ
ĠlovelyĠ walk
ĠlovelyĠ home!
ĠlovelyĠ restĠofĠtheĠweek
availableĠfor ĠfansĠtoĠuseĠ
pretty Ġand,Ġwell
becauseĠ unableĠtoĠ
halseyĠhous eĠwa
halseyĠhous eĠisĠaĠ
runner .ĠiĠalsoĠ
ĠtheĠprogram .ĠthereĠ
ĠsittingĠ courtsideĠatĠtheĠnba
emailing .ĠyouĠmayĠ
emailing sĠforĠcongressĠ
day,Ġfriend s!ĠtodayĠ
ĠsweetĠword sĠandĠprayers
beĠsureĠto ĠaskĠforĠtheĠ
drewĠmichaelĠandĠ paintedĠbyĠelizabethĠellis
!ĠyourĠhomeĠ isĠgorgeous
!ĠyourĠhomeĠ isĠlovely
candl es
generalĠassembl yĠofĠtheĠstateĠ
osĠen vuel
osĠen viadasĠaĠp
rusticĠglam ĠisĠjustĠ
rusticĠglam ĠforĠmyĠ
rusticĠglam ĠchristmasĠwreat
ondĠwith ĠsufficientĠ
ondĠwith ĠaĠwaterfall
antlyĠ improv
antlyĠ ifĠyour
ĠcounterĠheightĠ chairs.Ġhom
edĠupon ĠanĠequal
ilitar y,ĠunderĠtheĠamendedĠconstitution
Ġideas .Ġcar
Ġideas ĠandĠtopic
Ġideas ĠandĠturningĠthem
beĠaĠpartĠof ĠtheĠhomeĠtourĠwithĠyou
particip atingĠinĠtheĠstamp
Ġchildren ĠandĠadultsĠoften
ĠupdatedĠ hotelĠpropert
ĠtheĠshoulderĠjoint ĠalsoĠrel
ĠtheĠshoulderĠjoint ĠandĠtightensĠeverythingĠ
burger ĠfromĠm
celebr ityĠsight
celebr atingĠhisĠ
dutiesĠ enjoinedĠupon
dutiesĠ byĠthisĠactĠ
faith fullyĠex
wooden Ġreind
wooden ĠinĠroom.ĠdiningĠroom
ĠapartmentĠ livingĠroom
ately,Ġ you'll
ĠpassedĠa wayĠ
ĠfastingĠ regimesĠ(
ĠvideoĠ -ĠjustĠ
iesĠofĠrheaĠandĠ hamilton
ĠappreciateĠ yourĠsweetĠword
ĠappreciateĠ howĠus
ĠthemselvesĠandĠsuccessorsĠinĠoffic e;ĠandĠshall
aemia ,Ġaplast
aemia ,Ġhodgkin'sĠ
circ uitĠ
ceanograph yĠco
cription Ġrefill
damental sĠcours
directly ĠaboveĠth
directly ĠaffectĠtheĠes
tĠcoco aĠtoĠtheĠ
alĠinformationĠaboutĠ bankingĠ
ĠmetallicĠs election,ĠandĠtheĠ
Ġdeath ĠandĠcom
Ġdeath .Ġthis
ĠfingerĠlakesĠ experience.ĠtheĠinn
neighbor hood
neighbor s.ĠourĠwas
umbilicalĠcor dĠasĠwell
umbilicalĠcor dĠbloodĠdonationsĠfor
ĠtheĠcountyĠofĠmeigs,Ġ inĠhonorĠofĠcolonelĠreturnĠj
ĠtheĠcountyĠofĠmeigs,Ġ inĠall
eĠsoĠconstruedĠas ĠtoĠprevent
ificialĠsweeten ersĠall
adventureĠbeginsĠ sectionĠchalleng
!Ġa Ġremin
!Ġa ĠlotĠofĠthatĠfoodĠ
!ĠtheĠ registrationĠguidebookĠcontain
!ĠtheĠ onlyĠdownsideĠ
!Ġthank s,Ġfriend
!Ġthank sĠtoĠeliotĠdalton
!ĠmyĠ grandpaĠisĠa
!ĠgreatĠ location.ĠgreatĠ
%Ġof fĠtall
%Ġof ĠourĠtimeĠ
&Ġb rightĠdiec
,ĠasĠ weĠworkĠto
,ĠasĠ longĠasĠtheĠdel
,ĠtoĠtheĠ countyĠcourtĠofĠsaidĠcounty
,ĠtoĠtheĠ eightĠmil
,ĠtoĠbeĠ paidĠ
,ĠtoĠbeĠ known
-l astingĠandĠ
-o ctober.Ġ"
-basedĠ paradigmĠofĠc
.ĠtoĠ population
.ĠtheĠs entimentĠwasĠ
.ĠaĠp reviewĠofĠaggravatedĠorganizm
.ĠsheĠ obvious
.ĠthereĠis ,Ġhowever
;Ġprovid ed,ĠnothingĠinĠthisĠactĠcontainedĠshallĠb
;Ġprovid ed,Ġalso
?Ġi ĠdidĠaĠsimilar
aĠandĠ cornellĠun
aĠandĠ storingĠitĠ
aĠd eĠla
aĠwith inĠtheĠcell
aĠwith ĠnoĠproblemĠandĠiĠcanĠb
aĠon -courtĠseat
after noon.ĠtheĠ
affect ed,ĠaĠth
affect edĠbyĠextrins
bes âĢĻĠann
bro keĠandĠ
bro deurĠ(
bel ieveĠ
band ĠandĠ
band sĠgrand
bill ĠtoĠrequ
bentĠ postureĠredu
bentĠ willĠbeĠbasedĠatĠtheĠ
bestĠ prepar
byĠtheĠ countyĠcourtĠofĠsaidĠcountyĠofĠmeig
book ingĠsup
better ĠatĠthem
better ĠtoĠjustĠ
buil t.Ġ
cr avingĠfor
cr icketĠbig
clo cksĠin
clo tting.
centĠ ser
canc erĠis
costĠ $
couch ĠisĠsoo
cash ĠbyĠs
custom ersĠcan
dĠandĠ placent
dingĠ isĠavailableĠfor
dingĠ newĠspeaker
del ayedĠto
det ection,Ġa
divid ingĠlin
e? ĠtheĠreas
ee, ĠaĠlargeĠ
ee, ĠthatĠaĠnew
ehol dĠgood
ehol ders!
e!ĠiĠloveĠ ourĠapart
e!ĠiĠloveĠ thatĠyouĠp
foodĠ outĠtoĠfe
fastĠ locatedĠonĠtheĠoutskir
fiber-lik eĠsatelliteĠ
goneĠ âĢĵĠmov
gard ingĠsoundproofĠwindowsĠinĠfortĠbranch,Ġin
goldĠ dot
hn Ġstew
hn Ġrandal
han yĠthan
han Ġmeigs,Ġdeceas
hiv ĠorĠhep
hard ĠtoĠseeĠ
iĠm entionedĠatĠtheĠ
iedĠ itsĠc
iĠwill ĠdoĠaĠlittleĠ
iĠwill ĠgetĠitĠonĠtheĠ
iĠwas ĠaskedĠifĠi
jectĠ matter
kĠof ĠsaidĠcountyĠtoĠ
kill ĠofĠtheĠbod
lab rum
le.Ġ hisĠco-star
letĠ youĠknow
letĠ payableĠtoĠthemselvesĠandĠsuccessorsĠinĠoffic
l!Ġi fĠi
lessĠ stabl
lakeĠ viewĠis
meĠ ichthyoplankton
mar ineĠecology,Ġb
may beĠoneĠ
mun doĠdeĠho
mind sĠthink
mind -bo
member ingĠandĠhonor
most lyĠbecaus
medical Ġjourn
medical ĠusesĠforĠstemĠcellsĠ
melb ourn
material sĠâĢĶ
ning .ĠsectionĠ
ning ĠatĠaĠp
nav y.ĠsectionĠ
nav y,Ġpink
ois e,ĠiĠam
ointĠ below
ointĠ fiveĠcommissioners,ĠtoĠwhom
pur poses;Ġand
pur ificationĠsong
paidĠ moreĠthanĠenoughĠforĠtwo
pack age.ĠdanceĠinstru
pack ageĠnextĠyear
postĠ withĠl
postĠ onĠtheĠgov
podg edĠglitter
rack etĠball
right ?Ġafter
rins icĠfactor
raditional ĠcolorĠpal
s' ĠpitĠisĠ
s' Ġtop-t
ser tingĠaroundĠtheĠshoulderĠjoint
set ,ĠbutĠifĠi
sur eĠandĠcorrosion
sĠand /orĠshoulderĠalign
setĠ forĠtheirĠoctoberĠstock
sum eâĢĶ
sum iĠl
sĠthat ĠtheĠshoulderĠjointĠisĠ
sĠthat ĠallowĠyouĠtoĠs
sĠthrough outĠyourĠhome!
sĠthrough Ġart.ĠduringĠtheĠ
super Ġquick
super Ġexcited
tyĠ comeb
tim eĠtoĠfil
ts,Ġ explainsĠpart
uation ĠisĠannoyingĠ
uallyĠ weĠareĠjustĠgettingĠ
vide oĠforĠthisĠ
vide osĠandĠdv
voic eĠmail
was ĠaroundĠtoĠspendĠ
wall abiesĠ
wall Ġshelf
weĠs ugg
ward sĠtheĠlaunch
worr yĠaboutĠbring
writ e-upĠfor
waren essĠquiver
welcom ing
xy litolĠwouldĠ
yĠt reesĠ
yes ,ĠmoreĠs
yâĢĻ sĠandĠb
yâĢĻ sĠthroughoutĠyourĠhome!
y,ĠandĠ hisĠsuccessorsĠinĠoffic
yâĢĻsĠ system
Ġ/ ĠmichaelĠkorsĠ
Ġic eĠflowĠisĠden
Ġri chardĠ
Ġnow ,ĠinĠpreparation
Ġnow Ġonline.ĠyouĠcan
Ġvi ableĠb
Ġvi beĠonĠaĠd
ĠusĠ supportĠaĠgreatĠ
ĠusĠ byĠdialingĠ
Ġevent sĠdur
Ġevent s,Ġbut
ĠeventĠ pop-up
ĠespeciallyĠ loveĠhow
ĠespeciallyĠ withĠglitter
eĠh oneycombĠchristmas
eĠit emsĠfromĠtheĠ
eĠup ĠwithĠch
eĠchristmasĠ wonâĢĻtĠbeĠtheĠs
eĠho ene,
eĠblogĠhop !ĠiĠwill
Ġtum orsĠandĠ
Ġtask sĠthatĠhaven
Ġtick etĠpric
Ġtitl esĠthisĠyear
Ġtech niqu
Ġtech nolog
Ġare aĠmap.ĠifĠyou
Ġare aĠwithĠnoĠproblemĠandĠiĠcanĠb
ĠaĠr oughĠfew
ĠaĠr ally,ĠaĠlit
Ġaud iĠaustralia
ĠaĠgreat ĠandĠclos
Ġareas Ġacros
iner sĠandĠhaveĠ
iner ,ĠwhichĠallowedĠfour
in.Ġ dependingĠon
insp iredĠbyĠtheĠ
incorpor atedĠalong
Ġthing sĠtoĠincorpor
ĠthreeĠ acresĠfor
ĠthreeĠ years.
sĠcount y,ĠinĠhonorĠofĠcolonelĠreturnĠj
sĠcount y,ĠandĠhisĠsuccessorsĠinĠoffic
sĠforĠtheĠ wholeĠsession
sĠonĠtheĠ tableĠ
sĠcont emporaryĠloun
sĠbyĠ justĠcut
sĠwillĠbeĠ workingĠclos
sĠwillĠbeĠ availableĠlate
sĠdur ingĠthis
sĠgrand Ġayat
sĠmakesĠ itĠan
sĠcalledĠ imp
sĠcalledĠ stemĠcells.ĠthereĠ
sĠwereĠ built.Ġ
sĠfirst ?ĠiĠam
sĠconcern ingĠsoundproofĠwindowsĠinĠfortĠbranch,Ġin
oupl eĠitemsĠfromĠtheĠ
ers.Ġ managementĠisĠonĠtop
erĠthan ĠonceĠaĠ
erationĠof Ġabnormal
erationĠof ĠagingĠpre
er,ĠbutĠi ĠdoĠlikeĠto
dĠon ceĠag
dĠon ĠmyĠgop
tĠisĠ oneĠofĠourĠb
tĠoneĠ breaksĠdown
tĠhous eĠandĠjail
tĠhous eâĢĿ
tĠhasĠbeen Ġquiet
on- kus
on- oneĠbasisĠ
onesĠ donald
onesĠ highĠasĠwell
onĠyour Ġporch
onĠyour Ġbank
orĠ epsĠa
orĠ xylitolĠwouldĠ
ortĠ willĠcontinueĠitsĠ
oryĠ composingĠsaidĠcountyĠofĠmeig
ore,Ġ youĠm
order s,ĠandĠimmun
order ĠofĠtheĠcountyĠcourtĠpayĠover
en.ĠtheĠ cbsĠ
en.ĠtheĠ landscapeĠofĠcancer
ĠtheĠway ĠtoĠsaveĠ
ĠtheĠway .Ġpioneer
ĠtheĠlot sĠinĠsaidĠtown
ĠtheĠpossibil ityĠthatĠtheĠ
ĠtheĠpossibil ityĠofĠeachĠmoment
Ġsell ing,Ġunder
Ġsyn thesis
Ġsyn dromeĠmask
Ġsecond sĠ
Ġsecond s.ĠdoĠthisĠ
reet ingsĠandĠ
reesĠ youĠmad
redu ceĠlatencyĠandĠ
record ed.ĠandĠ
record ĠtheĠsame.ĠsectionĠ
it, ĠaskĠyourĠmid
it, ĠasĠwellĠasĠprovidingĠst
iture !ĠgreatĠlocation.ĠgreatĠ
yĠforĠtheĠ weekend
yĠwasĠ dea
ing.Ġ uniqu
ingĠst affĠhasĠbeenĠgreat
ing,ĠandĠ hy
ingsĠandĠ howĠmaint
ings, ĠtransportationĠopportunities
ings, ĠscoutsĠaustraliaĠapprov
ingĠthem e.Ġi'veĠcreat
ingĠthat Ġtoo
ingsĠareĠ lovely.ĠiĠreallyĠ
ingĠthis ĠtourĠweek
ateĠs auces
atĠaĠl aterĠdat
ĠanĠin fluenc
Ġanswer ĠyourĠph
ald win.Ġpat
alu atingĠspatial
alĠp ostĠasĠa
alesĠ ofĠcoher
aleĠt rulyĠ
almostĠ unlimitedĠ
alĠpartĠof Ġsport,ĠbutĠuntil
oĠof ĠsesĠg
oĠof ĠthemĠbyĠtheĠ
.Ġch arac
.Ġch emex
.Ġfor ĠourĠnewĠpat
.Ġnow ĠyourĠnotĠ
.Ġnow ĠiĠamĠoffĠtoĠ
.ĠbutĠ onĠaĠhappierĠnot
.ĠdiningĠroom ĠtallĠtableĠandĠchair
.Ġjust ĠtakeĠaĠlook
.Ġjust ĠtheĠval
.ĠduringĠtheĠ jambor
,Ġp ondĠwithĠaĠwaterfall
,Ġor ĠaĠfamil
,Ġus ingĠtheĠhandyĠ
,Ġwill Ġinv
,Ġwill iamĠkeer
,Ġwell Ġkept
,Ġwe'reĠ lookingĠtoĠinclud
esĠar eĠsoĠperfect
es,ĠandĠ exerciseĠ
esĠasĠ indicator
esĠtoĠs oundproofĠwindowsĠinĠfortĠbranch,Ġin.ĠyouĠshouldĠ
isedĠ options
isesĠ outĠfrom
isesĠ you'reĠconstantlyĠ
istĠwith Ġ$
isiÃ³n Ġev
isiÃ³n ĠenĠnuest
issed ;ĠbutĠi
youĠandĠ yourĠfamil
youĠandĠ isĠtheĠveryĠbestĠ
youĠp ayĠmoreĠ
youthĠprogram Ġreview,Ġhead
youĠmad eĠwithĠyourĠgr
youĠhav e.ĠsoĠhappyĠtoĠ
youĠhav e!ĠiĠloveĠthatĠyouĠp
ĠandĠg iveĠyouĠspecific
ĠandĠg eoĠstarĠ
ĠandĠcom fortableĠowner
ĠandĠcon nectingĠwithĠthoseĠ
ĠandĠfriendlyĠ .Ġnever
ion.Ġ otherĠthan
chos enĠtoĠ
childĠ supportĠd
chthyoplankton ĠdataĠs
ingĠ& Ġscrap
ingĠc upĠofĠhotĠcoco
ingĠup Ġjudgments,Ġor
ingĠinĠtheĠ communityĠhasĠbeenĠgreat
ingĠpre gnanc
ingĠbutĠ strug
ingĠmasksĠ intoĠlocationsĠforĠdanceĠ
forĠyou !ĠweĠareĠhereĠ
forĠall ĠtheĠsens
forĠall ĠmembersĠnow
forĠmyĠ homeĠ
asersĠareĠ ideal
Ġcal orieĠmeal
Ġcal ories)Ġis
ĠcouldĠ beĠcaus
Ġcenter .ĠdiningĠroomĠtallĠtableĠandĠchair
Ġclos erĠtoĠ
ĠcuteĠ christmasĠprints,
Ġmin dĠforĠm
Ġmin utes,
Ġmem oriesĠtuckedĠin
Ġmult idisciplin
Ġmult ivari
Ġmov ementĠforĠtheĠarm
Ġmatch ĠforĠyour
Ġmatch esĠplay
Ġmedical Ġbill
Ġmedical ĠhomeĠatĠbay
Ġmonth sĠalreadyĠ
Ġmonth sĠthatĠâĢľ
ĠmoneyĠ byĠthemĠreceiv
ecom ingĠ$
ictures queĠtop
ed. ĠafterĠaj
ed. Ġadditionally
edĠasĠ shown
edĠasĠ follows:
edĠtoĠtheĠ growingĠincidentĠratesĠ
edĠtoĠtheĠ nationalĠbasketball
edĠatĠ reass
edĠthisĠcardĠ forĠanĠ
edpĠspr ayĠ
edpĠspr ay.Ġs
isĠre laxed,Ġ
isĠre yâĢĻsĠandĠb
Ġpol kaĠd
Ġpol itical
Ġpleas edĠthatĠi
Ġpeak ĠinsideĠ
edĠinĠtheĠ meetingĠtheĠ
edĠonĠtheĠ newĠinitiativeĠ
ĠheĠ appeared
ĠheĠ hasnâĢĻtĠmetĠ
Ġhow Ġexp
Ġhard ĠtimeĠtoĠlos
Ġhard ĠatĠwork
Ġhuman itar
Ġhuman ĠinterestĠstor
Ġway sĠtoĠtreatĠ
Ġwher eĠtheĠrhea
roadĠ spectrumĠof
roadĠ rangeĠofĠ
rotatorĠcuff ĠcanĠbeĠ
rotatorĠcuff Ġmuscles
ĠtoĠcom e!ĠyouĠareĠ
ĠtoĠmyĠ projectsĠfirst
ĠtoĠwork .ĠifĠyouĠareĠconsideringĠ
ĠtoĠwork ĠandĠcoll
ĠtoĠbeĠt estedĠandĠ
elĠof Ġlong
elman ĠinĠoctoberĠ
start ingĠinĠaprilĠ
ĠbyĠ now,Ġtoo!
Ġbow lĠtheĠs
Ġbow ,ĠandĠhis
Ġbetter ĠinĠ
entreĠ courtĠatĠ
Ġdif ferent
Ġdif ficult
Ġdiec utĠwithoutĠ
amaz ing!ĠthankĠyouĠforĠtheĠawesomeĠreview
ĠyouĠandĠ joĠther
ĠyouĠandĠ yourĠbaby'sĠbirth
ĠyouĠareĠ inĠtrackĠ
et'sĠ holidayĠreleas
vers ialĠquestion
verag eĠdeliver
ĠtoĠshar eĠtheseĠwithĠjade.Ġ
ally,Ġ doesĠ
plusĠ ourĠliquidĠwatercolor
plusĠ money
plann edĠandĠplentyĠof
esĠor ĠaĠstud
esĠof Ġcondu
useĠm ulti
useĠm ore,ĠyouĠm
usingĠall ĠyourĠstamp
Ġfound ĠthatĠwrappingĠpaper
ĠfirstĠ presÃ©
ĠiĠmad e,ĠasĠwellĠasĠ
ureĠin Ġgeneral
ations,Ġ beĠsureĠtoĠaskĠforĠtheĠ
eĠtrees !ĠiĠmad
ĠofĠit .ĠiĠcan
ĠofĠthos eĠthingsĠareĠ
ĠofĠthos eĠinĠne
abor ateĠin
Ġgam ,Ġdynam
Ġgall eryĠ
Ġgeo ĠstarĠ
Ġgeo station
Ġgeneral Ġrule,Ġ
reserv ingĠatĠleast
imp actsĠthisĠ
imit sĠtoĠguest
iment edĠwheneverĠyou
withĠsaidĠ line,Ġdivid
withĠsaidĠ dividingĠlin
uniqueĠ fragranc
unicef .ĠweĠchos
needĠtoĠ payĠtoĠcollect
needĠtoĠ makeĠoneĠofĠthoseĠm
needĠfor Ġpolitical
ulin Ġrelease.ĠyouĠcanĠtryĠfast
ulator yĠandĠlymph
iration ĠandĠchristmasĠ
irthĠ else
iraqâĢĻsĠ politician
Ġaren aĠworkshop
Ġstyl e
Ġstretch .Ġhold
andal aĠcoordin
expert sĠandĠtheĠmostĠresourceful
earth Ġ(
eĠso ĠtheĠfanĠpres
eĠsom osĠenviadasĠaĠp
eĠsomeĠ cleaning
eĠsensation s.Ġfrom
granc e.Ġsub
eared Ġaim
Ġlif e.ĠthisĠ
Ġlif eĠwithĠkind
Ġlarg eĠdataĠs
ivelyĠandĠ quickly
ivesĠwill ĠneverĠindic
older ĠbutĠveryĠfavor
uture !ĠthisĠisĠ
utomat icallyĠspread
proces sĠapp
upĠtheĠ rotatorĠcuffĠcanĠbeĠ
ĠinĠtheĠf inish
Ġindic esĠandĠmet
weightĠ shif
weightĠ cardstockĠselection
weâĢĻreĠ ensuringĠthatĠ
ĠthisĠseason !iĠhaveĠ
itĠshall ĠbeĠasĠgood
itĠisĠb ecauseĠtheyĠ
itĠisĠb asically
ĠandĠan Ġanah
ĠandĠan thonyĠ
ĠandĠthis ĠarenaĠworkshop
istres s.ĠifĠyouĠhaveĠ
istres sĠink,ĠandĠ
istakeĠ is!Ġh
Ġread ersĠfeliz
Ġread yĠforĠtheĠweekend
Ġrecongres sĠatt
Ġreceiv edĠforĠtheĠrestĠof
ableĠt reatĠbox
able.Ġ everyĠalaskan
ĠthatĠyouĠhaveĠ thoseĠspecial
quit eĠbusyĠoutĠ
question sĠandĠsetĠ
question sĠtoĠask
conven ientĠhour
conven ientlyĠloc
consult ationĠwith
consult edĠonĠtheĠnewĠinitiativeĠ
e.Ġcheck ĠthemĠout
e.Ġcheck ĠonlineĠforĠour
Ġalter ationĠlea
ender gast
endees.Ġ recongressĠhasĠcontract
endees.Ġ weĠsugg
ĠforĠexampl e
ĠforĠexampl e.Ġ"weĠ
approv edĠtheĠnewĠyouthĠprogram
apart mentĠisĠs
outĠof ĠfourĠpeopleĠisĠa
yourĠpl aylist
s,Ġor Ġrefer
s,Ġfriend lierĠandĠhealth
s,ĠbutĠ you'reĠgoingĠ
s,Ġbut ĠalsoĠtheĠjoyĠandĠ
s,ĠpayableĠto ĠtheĠchairmanĠofĠtheĠcountyĠcourtĠofĠmeig
,ĠandĠi ĠgottaĠs
,ĠandĠs aidĠtown
,ĠandĠs ecureĠ
,ĠandĠitâĢĻsĠ soĠsweet
,ĠandĠitâĢĻsĠ justĠtooĠ
e,Ġi ĠappreciateĠhowĠus
e,ĠinĠf eeĠs
e,ĠinĠf act)Ġthan
sĠab outĠit,Ġbut
sĠab outĠthisĠplace.Ġ
sĠas ĠtheĠsaidĠcourtĠ
sĠall ĠworkshopĠandĠspeaker
sĠago ĠandĠiĠstill
sĠatt endees.ĠrecongressĠhasĠcontract
ĠareĠa ĠrealĠp
ĠareĠa utomaticallyĠspread
ĠareĠyou ĠreadyĠforĠtheĠweekend
aken Ġjust
ateĠin ĠmoreĠcountries
andĠveryĠ cordialĠandĠprofessional
andĠveryĠ friendly.Ġhi
andĠdollar s,ĠconditionedĠforĠtheĠ
derĠphot ographĠwasĠtaken.Ġ
tĠofĠsaidĠcounty ĠtoĠapp
umat oidĠarthrit
Ġjustic ia,Ġa
ĠyourĠchild 'sĠown
ĠyourĠchild ,ĠorĠaĠfamil
Ġabnormal ĠcellĠgrow
Ġspread .Ġcharac
sĠoffer edĠforĠtheĠveryĠdef
sĠofĠtheĠf ifthĠsection
ĠsoĠwe 'r
!ĠiĠalsoĠ haveĠmyĠs
!ĠiĠalsoĠ reallyĠloveĠtheĠ
!ĠiĠwill ĠgetĠtoĠall
!ĠiĠthink ĠthatĠcenterpiec
!ĠiĠthink ĠitĠmakesĠitĠall
nov ative,Ġ
nov ateĠorĠlo
parro tĠroom
parro tĠhouseâĢĿ
eĠdis abledĠbyĠ
eĠdataĠs ets,ĠandĠ
eĠdamag eĠtoĠdn
eĠdownload .ĠhousewarmingĠpartyĠinvitesĠfreeĠtemplateĠ
eĠdidnâĢĻtĠ doĠmuchĠdecor
uster ing,Ġordin
eĠmyĠ rusticĠglamĠchristmasĠwreat
eĠmask sĠrepresent
eĠmask sĠwereĠbuilt.Ġ
eĠmedical Ġintervention
sĠinĠtheĠ ukĠwhereĠyourĠcordĠbloodĠ
sĠinĠother ĠcountiesĠinĠthisĠstat
everĠyou Ġcall
portĠ forĠtheĠgreatestĠ
Ġoh ĠmyĠgood
Ġoz Ġ(
Ġoz .Ġstyl
Ġokay .ĠhadĠbeen
ĠwithĠw oodĠcoll
ĠwithĠour ĠofficeĠasĠ
epos itĠinĠtheĠs
iesĠthatĠ haven
hereĠtoĠ fulfill
hereb yĠappoint
hereb yĠestablish
sĠandĠwork .ĠsaveĠ
yĠcall edĠcutĠ
Ġcondition s.Ġimport
Ġcondition sĠcan'tĠbeĠt
weĠar eĠthereĠtoĠser
weĠknow ĠtheĠwayĠtoĠsaveĠ
ĠonĠ âĢĺfastingâĢĻ
ĠonĠaĠp ersonal
ĠonĠaĠp lac
haveĠdon eĠsomeĠcleaning
commendĠ havingĠaĠ
commendĠ itĠisĠbecauseĠtheyĠ
eĠbetween ĠtheĠcountiesĠofĠrhea
iveĠtheĠ guidebook,ĠyouĠcan
lyĠtouch edĠyour
lyĠtouch edĠbyĠtheirĠvideoĠ
ppingĠfor ĠquiteĠaĠfew
ppingĠfor besâĢĻĠann
ĠisĠnotĠ impossibil
ĠisĠnotĠ yetĠstop
ĠatĠthem Ġbelow
ĠatĠtheseĠ ladiesâĢĻ
.ĠiĠalsoĠ loveĠtheĠglitteryĠwineĠbottl
Ġproblem sĠand/orĠshoulderĠalign
Ġproblem s,ĠorĠrefer
ek;ĠthenceĠ withĠsaidĠdividingĠlin
Ġext endableĠdiningĠroom
Ġexpert ise.Ġ
Ġexpert s,ĠandĠscout
Ġexpect ationsĠre
Ġextra ĠhardĠtimeĠtoĠlos
Ġtraditional Ġgeostation
Ġasso ciateĠwillĠut
ĠtheirĠwebsit e,ĠandĠcheckedĠthingsĠ
Ġnm ĠirĠl
Ġnm ĠlasersĠareĠ
Ġnational Ġcharity
Ġnecess aryĠpublicĠbuilding
eĠandĠdon 'tĠhaveĠtoĠ
eĠandĠdon atedĠtoĠtheĠnhsĠcordĠbloodĠbank
eĠandĠchair sĠheightĠdiningĠs
inĠtheĠh ip
inĠtheĠp astĠfewĠyear
ĠcanĠb eĠdoneĠanyĠtimeĠ
ĠcanĠyou ĠgetĠyourĠmoneyĠ
ĠcanĠbeĠ usedĠby
aving sĠaccount
izedĠ useĠand
izedĠ expertsĠandĠtheĠmostĠresourceful
ityĠsup pliesĠandĠaĠ
ityĠsup portĠforĠtheĠgreatestĠ
edĠbyĠc actusin
sionĠof Ġmel
sionĠof ĠideasĠandĠtopic
Ġknew ĠwasĠtheĠ
ĠkeyĠ questionsĠtoĠask
ĠtoĠtheĠnhsĠcordĠbloodĠbank ,ĠandĠlat
s>Ġ<s>ĠtheĠ alaskaĠfisheriesĠscienceĠcenterĠinĠseattle,Ġwa
s>Ġ<s>ĠtheĠ rom
s>Ġ<s>ĠhereĠ atĠsoundproofĠwindowĠguy
s>Ġ<s>ĠhereĠ iĠamĠafterĠ
s>Ġ<s>Ġ" anĠact
s>Ġ<s>Ġ" aggravatedĠ
myĠhous eĠthatĠiĠhaveĠyet
myĠfavor iteĠchristmasĠsong
mention ĠtheĠst
Ġrun ĠfromĠseptemberĠ
encour ageĠparticipant
areĠgoingĠtoĠ florenceĠ+ĠtheĠma
s.ĠsheĠ literallyĠ
s.ĠthankĠyouĠsoĠmuch ĠforĠsharingĠitĠwithĠus
wayĠto ĠstayĠ
ĠourĠcongressĠ materialsĠâĢĶ
ingĠtheĠcountiesĠofĠrheaĠandĠ hamilton
ingĠtheĠcountiesĠofĠrheaĠandĠ roane,
antitativeĠ marineĠecology,Ġb
overĠtheĠ lastĠdecade.Ġ
overĠtheĠ cravingĠfor
Ġadd ĠtheĠfull
Ġadd ressingĠtheĠpain
ĠaddedĠ navy,Ġpink
,ĠbyĠ purchaseĠor
,ĠbyĠ orderĠofĠtheĠcountyĠcourtĠpayĠover
forĠtheĠfirst ĠtimeĠatĠanyĠ
port,Ġ waitingĠfor
ĠloveĠit !ĠðŁĻĤĠi
ĠloveĠit !ĠyourĠcenter
e!Ġ ðŁĺī
workĠto getherĠwithĠyou.Ġyou'll
ĠaĠphot oĠofĠthemĠbyĠtheĠ
edĠtoĠre ceive,ĠasĠ
notĠbeĠ chargedĠif
jointĠ inĠtheĠhip
ingĠaĠtrans plantĠ
ingĠaĠtrans plantĠthereĠisĠa
ĠmyĠchristmasĠ decorĠâĢľ
ĠmyĠgrandma !ĠthankĠyouĠsoĠmuchĠforĠask
ĠmyĠgrandma ĠgotĠtoĠmeetĠ
ĠthatĠtheĠ currentĠwhereĠcreativityĠ
ĠthatĠtheyĠ willĠtr
onĠtheĠtennesseeĠriver ,Ġwher
ĠtheseĠtwoĠ cardsĠtogether
placent aĠisĠ
ficult ĠtoĠcontro
ĠitĠall ĠturnedĠout
ĠtakeĠ bloodĠ(ph
involv esĠcollect
Ġcellular Ġbehavi
Ġcellular Ġdeath.Ġthis
Ġgroup sĠaroundĠtheĠcountryĠ
head ,ĠbutĠalwaysĠaimingĠtoĠ
headĠofĠtheĠ australianĠopen
headĠofĠtheĠ hum
loveĠyour ĠbottleĠcenterpiec
loveĠhow ĠyouĠdecor
canĠres ultĠfromĠaĠnumberĠof
ĠtheyĠhaveĠ forĠmilitar
ĠshallĠbeĠ hel
likeĠtoĠ rece
likeĠtoĠ useĠmore,ĠyouĠm
Ġrespect ingĠiraqâĢĻsĠ
sĠremin dĠusĠof
sĠremin dersĠandĠ
dayĠin ĠmyĠs
ullet s,Ġpsych
ulletsĠ headĠof
ðŁĺī ĠsoĠsorryĠagain
ĠtwelveĠ months;ĠfirstĠ
ĠtwelveĠ movesĠandĠstep
Ġtwilight ĠafterĠiĠfig
ĠthroughoutĠmyĠ organis
ĠthroughoutĠmyĠ decor.Ġsadly
enjoinedĠupon Ġthem,Ġa
ĠtheĠmask s.ĠmasksĠbeingĠ
Ġdoes Ġthis,ĠtheĠ
organis edĠbyĠandĠ
sufficientĠ forĠbuild
sufficientĠ funds:
ĠneedĠto ĠarrangeĠinĠadv
ĠaĠfresh ĠcoatĠofĠmetallicĠs
ĠtheĠback groundĠwithĠour
ĠtheĠbuild ingĠtheĠcourtĠ
ĠtheĠcountyĠofĠrhea ĠfromĠenter
essĠshouldĠ neverĠmean
ĠweĠhaveĠ openedĠup
ĠweĠhaveĠ theĠsameĠs
ĠweĠhadĠbeen ĠinĠportugal
ĠweĠhadĠbeen ĠdelightedĠbyĠs
happen ingĠinĠotherĠsport
ĠfromĠm eĠisĠnotĠallow
eautifulĠhomeĠ amand
sĠthatĠcaus eĠdamageĠtoĠdn
ĠafterĠtheĠ ageĠofĠ
ĠafterĠtheĠ placentaĠisĠ
,Ġwher eĠsoĠlaidĠoff
,ĠwhoĠ isĠbeliev
,ĠwhereĠ customersĠcan
storageĠ forĠhous
ĠotherĠblog gersĠandĠ
ĠotherĠblog gerâĢĻsĠbeautiful
Ġotherwis e,ĠitĠse
Ġotherwis e,ĠatĠleas
lux uryĠc
sĠtoĠa Ġvase.Ġ
sĠtogether ĠtheĠtime-proven
Ġbelow .
Ġbegin ĠwithĠ
ĠbeenĠan Ġintegr
Ġguest rooms,Ġout
prints, Ġalbum
Ġjob .ĠiĠjustĠ
Ġjoin ĠyouĠandĠjoĠther
bankingĠ involvesĠcollect
ceed sĠofĠtheĠsalesĠ
ugar Ġcreek;ĠthenceĠ
Ġ-Ġi 'veĠbeenĠbus
forĠmostĠ families.ĠtheĠchanceĠof
forĠmostĠ people.ĠiĠdisagree.Ġhowever
edĠaĠc opy.
edĠaĠc oupleĠitemsĠfromĠtheĠ
ĠprivateĠ cordĠbloodĠbanks.Ġwww.
centerĠofĠsaidĠcounty ;ĠatĠ
function .ĠthisĠcanĠres
ĠaĠsmall ĠmomentĠof
look,Ġfeel ,Ġhear
Ġplan s.Ġhal
Ġplac e.Ġso
ĠintoĠtheĠ cardmakerĠinĠm
ĠintoĠtheĠ currentĠsittingĠroom
Ġcommercial Ġdirector
Ġcommercial Ġcam
both ĠareĠaĠrealĠp
beĠshar ingĠthisĠtourĠweek
disciplin aryĠgroup.Ġto
greatestĠ riskĠof
renew edĠmyĠ
Ġquestion s,ĠandĠarrang
eĠlist ingĠonline.Ġph
Ġaccount ?Ġyou
Ġacros sĠalaska
ĠtheĠpastĠf iftyĠ
ĠanythingĠ youĠseeĠ
ĠdiningĠtabl eĠset,ĠdiningĠtabl
ĠdiningĠtabl eĠandĠchairsĠheightĠdiningĠs
âĢĻllĠse eĠmyĠrusticĠglamĠchristmasĠwreat
eĠthisĠyear ;ĠbutĠi
ĠtheĠsameĠisĠ letĠpayableĠtoĠthemselvesĠandĠsuccessorsĠinĠoffic
ĠtheĠsameĠisĠ herebyĠestablish
ĠaskĠfor Ġpermission
ĠaskĠfor ĠtheĠspecial
awn Ġfawn
glen oidĠ
gersĠandĠ dr.ĠjanetĠduffy-anderson
ĠnewĠpat ientĠformĠpack
ĠthingsĠdoneĠ inĠtheĠapart
ĠthingsĠdoneĠ forĠyou!ĠweĠareĠhereĠ
ĠtheĠnba ĠandĠalsoĠ
itsĠc ueĠfromĠcrow
.ĠweĠs louch
.ĠweĠs eekĠanĠin
omethingĠ quiteĠd
omethingĠ forĠpinkfreshĠstudioĠthatĠiĠwillĠshareĠ
lovelyĠ kend
ĠwasĠtheĠ previousĠ
maintain ĠaĠhighĠlev
ctionĠof ĠpalaâĢĻsĠ
ctionĠof ĠtumorsĠandĠ
ĠoverĠtheĠ territ
ĠamandaĠâĢĵ ĠfirstĠoff,Ġi
ĠamandaĠâĢĵ ĠyourĠhomeĠ
communication sĠforĠu.
ĠknowĠi ĠwillĠbeĠusingĠall
Ġscouting ĠshouldĠlook,Ġfeel
ĠscoutingĠ willĠbeĠenhanc
ĠapplicationsĠ mustĠ
.ĠasĠa Ġsoci
centuryĠ youngĠpeople.Ġthous
north westĠfisheriesĠscienceĠcenter
niceĠtoĠ justĠbeĠableĠto
won'tĠ evenĠdiv
Ġenvironment .ĠfastĠmaintenance.Ġ
ĠeachĠyear .ĠyouĠcanĠfind
eĠglitteryĠwineĠbottleĠ candleĠholdersĠlastĠyear
Ġtouches ĠthroughoutĠmyĠdecor.Ġsadly
return ĠallĠtheir
youĠareĠhappyĠ here!ĠtheĠamenities
ĠandĠmeaningful ĠtouchesĠthroughoutĠmyĠdecor.Ġsadly
edĠtheĠnewĠyouthĠprogram ĠforĠimpl
Ġperf ume.
ĠpatientĠportal ,ĠyouĠcanĠconnectĠwith
ĠwebsiteĠ (opportun
Ġdiet )Ġre
Ġdiet ,Ġsmok
ĠstampsĠ& Ġdies,Ġ
ĠstampĠ& ĠdieĠsetĠcall
ĠstampĠ& ĠdiecutĠwithoutĠ
eĠspend ĠaboutĠ
eĠspend ĠaĠlotĠof
ĠlooksĠ soĠperfect
ĠlooksĠ great.ĠgoodĠ
intoĠyourĠdecor !ĠloveĠyour
ĠshareĠcheer ĠretailsĠfor
ĠallowingĠ greatĠfreedomĠof
ĠhaveĠaĠmerryĠchristmas ĠasĠwell!ĠiĠam
ĠhaveĠaĠmerryĠchristmas !ĠthankĠyouĠsoĠmuch,Ġjam
ĠcongressĠsp eakers
edĠbyĠtheĠcountyĠcourt ĠaĠreason
post,ĠbutĠhowĠaboutĠweĠget ĠtoĠmyĠcard
post,ĠbutĠhowĠaboutĠweĠget ĠtoĠmyĠprojectsĠfirst
ĠaĠlittl eĠmoreĠspecialĠwith
ĠaĠlittl eĠbitĠprice
different ,ĠbutĠsoĠcozy
different !ĠhappyĠsunday,Ġ
nextĠfew Ġdays!
design Ġhouse:ĠmichaelĠk
fastingĠ ?Ġy
fullĠof ĠgoodĠequ
grown ĠinĠsiz
eĠconcer tsĠareĠs
reason ĠtoĠcomm
,ĠyouâĢĻllĠseeĠ allĠtheĠrestĠof
ĠwantedĠtoĠ grabĠit
ternal Ġrotation
grandpa ĠmadeĠtheĠlittleĠ
compan y,ĠyouĠshouldĠ
compan iesĠofferĠpay
whatĠi Ġdo,ĠandĠi
ĠspaceĠ atĠtheĠjambor
willĠbeĠsoĠ incred
ĠwhenĠyou Ġhover
makesĠitĠall ĠaĠlittleĠmoreĠspecialĠwith
ersonal ĠuseĠonly
Ġthereof ,ĠuntilĠother
Ġthere'sĠa ĠmistakeĠ
Ġthere'sĠa ĠgoodĠchanceĠof
Ġcommunity ĠandĠexpect
Ġcommunities .ĠtheĠmagn
beĠsureĠtoĠcheck ĠtheĠwe
inkfreshĠstudioĠ october
bring sĠtogetherĠtheĠtime-proven
familyĠ room,Ġmak
familyĠ runĠbusiness
n'tĠhaveĠ timeĠtoĠfil
oveĠth eĠmouthĠof
t,Ġor ĠevenĠtheĠliver
ĠtreeĠup .ĠmyĠdaughter
enefit sĠandĠtheĠcost
Ġanalysis ,Ġand/or
alwaysĠ showĠup
.ĠitĠwasĠ gold,ĠbutĠchipp
ofĠcard boardĠandĠad
ofĠcourse,Ġ iĠwillĠdoĠaĠlittleĠ
ingĠmeĠtoĠbeĠaĠpartĠof ĠyourĠhom
ĠmarbleĠtop ĠdiningĠtableĠset,ĠdiningĠtabl
ĠpartyĠ plannedĠandĠplentyĠof
ĠhasĠalsoĠ introduc
ĠhasĠalsoĠ dab
startĠwith ĠaĠlittleĠ
stampĠset ,ĠsomeĠhe
resultingĠin Ġprodu
importantĠ forĠtheirĠbabyĠtoĠbenefitĠ
ive,ĠmoreĠ resilient
Ġintervention .ĠasĠaĠsoci
weĠhaveĠa Ġhus
weĠhaveĠa Ġproces
ence.Ġmanag ementĠteam
ĠsaidĠcountyĠofĠmeigs, ĠanyĠtax
blogĠfriends!Ġi ĠamĠcurr
blogĠfriends!Ġi tĠhasĠbeenĠquiet
createĠaĠ uniqueĠfragranc
ĠcountyĠlin eĠintersect
;ĠandĠshallĠtakeĠb ond,Ġwith
;ĠandĠshallĠtakeĠb ondĠwithĠsufficientĠ
ĠtheĠshoulderĠjointĠisĠ veryĠmo
Ġbaby'sĠcordĠblood ,ĠyouĠcanĠstill
Ġassemblag esĠalong
Ġassemblag esĠasĠindicator
!ĠsoĠpretty !ĠiâĢĻmĠinĠloveĠ
cuss edĠonĠa
cuss esĠmeo
fluenc er"Ġc
lights, ĠasĠwellĠasĠsomeĠglitteryĠandĠshin
pop-up ĠspaceĠatĠtheĠjambor
population ,ĠwithĠincidentĠratesĠ
peopleĠar eĠmoreĠ
rulyĠ human
security,Ġ fromĠtheĠperson
Ġterm sĠandĠcondition
ĠsignĠup ĠforĠaĠpat
ĠsignĠup ĠonlineĠtoĠbeĠmail
requir eĠmedicalĠintervention
reallyĠknow ĠifĠiĠam
,ĠuntilĠtheĠ nextĠap
,ĠuntilĠtheĠ organizationĠofĠsaidĠcountyĠcour
ĠbackgroundĠ dies,ĠandĠallĠtheĠnew
ĠbackgroundĠ stampĠset,ĠsomeĠhe
emony.Ġ carry
et.Ġtall ĠwoodenĠg
ilverĠor namentsĠareĠs
ĠartificialĠsweeten ersĠmay
ĠstandardĠ supplies
quietĠplac e.ĠsoĠfar
quietĠplac eĠandĠwithĠnoĠ
promp tĠinĠdoingĠtheir
ĠtheĠspecial ĠrepresentativeĠofĠtheĠu.
yĠcardĠtoday !ĠiĠdid
Ġexcited Ġabout!Ġtoday
doctoral ĠassociateĠwillĠut
littleĠteddyĠbear ĠoneĠwasĠmadeĠ
ĠatĠleast ĠtwelveĠmonths;ĠfirstĠ
placeĠtoĠlive.Ġ veryĠquiet
ransformationĠcer emony.Ġcarry
storedĠstemĠcellsĠ soĠaĠc
irstĠoff,Ġi âĢĻmĠsorryĠtoĠhearĠaboutĠyourĠgrandmother
world 'sĠt
greenĠglitter Ġbow,ĠandĠhis
frontĠdoor !Ġlo
frontĠdoor .Ġfestive,Ġ
zydecoĠdanc e,ĠintoĠ
usiness.ĠtheĠ halseyĠhouseĠwa
gorgeous.Ġ yourĠhomeĠmakesĠmeĠ
ĠmillionĠinĠearning s.ĠnotĠ
ĠmillionĠinĠearning s.Ġang
Ġalcoholism ĠstressĠtheĠbod
!ĠloveĠyour ĠheaderĠphot
,ĠtodayĠ iĠamĠsoĠexcitedĠtoĠbeĠ
domin anceĠofĠpsych
domin antlyĠtheĠdom
distanc esĠtoĠtheĠs
garland ,ĠandĠper
government ĠtoĠimproveĠ
journeyĠofĠtheĠ newĠyouthĠprogram.ĠtheĠapprov
leftĠ youĠwith
wineĠ cav
ornamentsĠ youĠmadeĠwithĠyourĠgr
iteĠdecor ation!Ġi
iteĠdecor ation.ĠðŁĻĤĠhopeĠyou
,ĠnotĠtoĠ bad
,ĠnotĠtoĠ mentionĠtheĠst
ĠcurrentĠ ecosystemsĠtoĠdevelop
Ġmuscles ĠthatĠmakeĠ
icĠfactor Ġanalysis,Ġand/or
rozenĠthem eĠwillĠbeĠsoĠ
Ġboth Ġnhs
ĠtoĠspendĠ someĠcraf
eĠtime,Ġ withĠcurrentĠ
eĠtime,Ġ weâĢĻreĠensuringĠthatĠ
abilityĠof ĠaĠfull-t
idayĠreleas e,ĠandĠi'veĠbeen
composedĠof ĠthatĠpartĠof
ostĠoftenĠresultsĠin ĠthingsĠgettingĠ
proximityĠtoĠ performersĠisĠpr
ĠthisĠplace.Ġ faultyĠac
ĠthatĠwrappingĠpaper ĠyouĠusedĠasĠaĠrun
ĠalreadyĠ beenĠus
Ġabsolut elyĠgorgeous.Ġ
Ġabsolut eĠfavor
Ġo'haraĠsays.Ġ" forĠtheĠhollywoodĠ
Ġo'haraĠsays.Ġ" we'reĠaĠnew
ĠmeetingĠwith ĠtheĠspecialĠrepresentativeĠofĠtheĠu.
citizensĠof ĠsaidĠcountyĠofĠmeigs,ĠanyĠtax
courseĠwith ĠtheĠlineĠdivid
courseĠwith ĠsaidĠmcminn
ĠaĠlargeĠ rid
Ġyester dayĠinĠmyĠs
registrationĠguidebookĠcontain sĠaĠcomplet
ĠcountiesĠinĠthisĠstate ;ĠandĠtheĠsaidĠcountyĠofĠmeigsĠshall
ĠcountiesĠinĠthisĠstate ;Ġprovided,ĠnothingĠinĠthisĠactĠcontainedĠshallĠb
ĠpricesĠ chang
ĠpricesĠ reviews.ĠamazingĠ
ĠmichaelĠkorsĠ isĠlong
givenĠthatĠ youĠlink
ĠthoughtĠiĠwouldĠ blogĠtheseĠsuper
ĠthoughtĠiĠwouldĠ letĠyouĠknow
nextĠyear! Ġmeanwhile,Ġfurther
nextĠyear! ĠlovelyĠhome!
day,Ġfriends!Ġi ĠhopeĠthatĠ
day,Ġfriends!Ġi 'mĠsuperĠexcit
elizabethĠellisĠandĠdrewĠmichael .ĠelizabethĠellisĠandĠdrewĠmichael
faithfulĠperform anceĠofĠhisĠ
ately,Ġlatenc yĠisĠalmostĠ
Ġannounc eĠtheĠcomplet
Ġannounc ements.ĠourĠ
ĠpassedĠaway ĠthisĠweekĠto.Ġthankful
statistical Ġmodel
statistical Ġanalyses.ĠpriorĠexperienceĠ
Ġamerica,Ġ examin
eĠsoĠconstruedĠasĠtoĠ depriveĠtheĠ
+Ġclub ĠatĠ
+Ġclub ĠwillĠmeetĠinĠtheĠp
ceptĠ kitchen)ĠbyĠ
destro yĠtheĠbod
ehic le.ĠhisĠco-star
father ,Ġtoo!Ġwhil
father ĠpassedĠawayĠthisĠweekĠto.Ġthankful
global Ġpreced
groceryĠst oresĠandĠ
groceryĠst oreĠandĠtheĠf
ieldĠ $
ieldĠ forĠamerica
ladiesâĢĻ ĠchristmasĠdecor
oatĠofĠmetallicĠs prayĠ
pioneer ĠscoutĠgroupsĠt
wider Ġcommunity,Ġ
wifeĠ whatĠyourĠlocal
eĠhaveĠcontribut edĠtoĠtheĠgrowingĠincidentĠratesĠ
sĠlastĠyear ĠforĠmyĠcraf
onĠthisĠblog ,ĠusingĠtheĠhandyĠ
original ĠandĠloveĠtheĠ
original ĠgrandĠstyl
orieĠmeal ĠonĠfastingĠ
ĠtheĠsheriffĠof ĠsaidĠrhea
ĠtheĠsheriffĠof ĠsaidĠcountyĠfrom
ĠtheĠprovision sĠofĠtheĠfifthĠsection
Ġsummer ĠeveningĠtoĠmakeĠa
Ġsummer sĠagoĠandĠiĠstill
ĠsufficientĠ security,ĠfromĠtheĠperson
.ĠlaurenĠro gersĠ
.ĠhappyĠmon day,ĠblogĠfriends!
.ĠhappyĠmon day,Ġfriends!Ġi'mĠsuperĠexcit
ĠandĠprovideĠfeedback ,ĠasĠweĠworkĠto
ĠandĠnatural ĠcellularĠdeath.Ġthis
Ġmodel Ġavail
isĠgreat!ĠiĠloveĠtheĠ amenit
isĠgorgeous ĠandĠiĠlove,Ġlov
ĠpickyĠaboutĠ cardstock,ĠandĠaĠbitĠof
ĠheĠsays.Ġ" noĠotherĠtenn
ĠheĠsays.Ġ" thenĠit'sĠa
Ġhotel sĠtoĠoffer
ĠtoĠimproveĠ align
Ġbutton ĠwhenĠyouĠhover
Ġbaghd ad.ĠtheĠ
igiousĠeducation ,ĠinĠaddition
Ġal-sistani ,ĠwhoĠisĠbeliev
ĠforĠsuchĠanĠawesomeĠreview!ĠweĠ willĠkeep
ĠforĠsuchĠanĠawesomeĠreview!ĠweĠ willĠcontinueĠtoĠget
yourĠhome! ĠthoseĠbot
yourĠrequirement sĠandĠob
yourĠrequirement sĠconcerningĠsoundproofĠwindowsĠinĠfortĠbranch,Ġin
e,ĠinĠtheĠsumĠof ĠfiveĠth
e,ĠinĠtheĠsumĠof ĠtenĠthous
ceĠlatencyĠandĠ deliverĠfiber-lik
s.ĠmasksĠbeingĠ releasedĠintoĠtheĠ
Ġsparkl e.ĠyouĠcanâĢĻtĠforget
outsideĠofĠourĠhouse.Ġ ok
bertĠwhitaker ,Ġauthor
iveĠstarĠreview !ĠbeenĠan
oreĠyourĠbaby'sĠcordĠbloodĠpriv ately.ĠcordĠbloodĠstor
ĠtimesĠaĠday .ĠtheĠ
ĠtimesĠaĠday .ĠandĠmostĠimport
preferred.Ġ location:ĠtheĠ
ĠourĠprofessional sĠwhen
ĠourĠprofessional Ġknowledg
ĠofĠtheĠb&bĠteam Â®Ġ/
anceĠinstru ctionalĠd
ĠtheĠfastĠfoodĠ worldĠinĠjapan
ĠtheĠbrisban eĠconvention
,ĠiĠhadĠsoĠmuchĠfun !ĠyouĠareĠalsoĠ
sĠtoĠtravel ĠenormousĠ
âĢĻmĠsorryĠtoĠhearĠaboutĠyourĠgrandmother ,ĠandĠitâĢĻsĠsoĠsweet
shoppingĠcenter s.ĠthisĠisĠa
housewarmingĠinvitationĠtemplateĠ freeĠps
ĠadditionalĠinformationĠaboutĠmeoĠsatellit esĠandĠtheĠ
ĠsoĠsorryĠforĠyourĠloss.Ġ rightĠnowĠisĠan
currentlyĠs ervingĠasĠaĠâĢľ
interiorĠdesign erĠd
interiorĠdesign ĠtableĠfinestĠdin
interfereĠwith ĠautophagyĠ
eĠconnectivity ĠandĠthrough
eĠconnectivity ĠtoĠtheĠedg
compensationĠforĠtheirĠservic es,ĠtheĠsumĠof
;ĠandĠtheĠsaidĠcountyĠofĠmeigsĠshall ĠelectĠforĠother
iatricĠdrug sĠasĠt
iatricĠdrug sĠandĠtheĠastonish
.ĠifĠyouĠareĠconsideringĠ it,ĠaskĠyourĠmid
ĠaĠveryĠspecial ĠblogĠhopĠtoday
ĠaĠveryĠspecial ĠstampĠ&ĠdieĠsetĠcall
ĠdefrayingĠtheĠexpens esĠofĠ
eĠthroughĠtheĠnationalĠresearchĠcouncil ĠwebsiteĠ(opportun
.ĠjanetĠduffy-anderson Ġ(
,ĠnothingĠinĠthisĠactĠcontainedĠshallĠb eĠsoĠconstruedĠasĠtoĠprevent
adventĠcalendar ĠiĠmade,ĠasĠwellĠasĠ
ĠfreeĠprintableĠhousewarmingĠpartyĠinvitationĠtemplatesĠprintable.ĠhousewarmingĠpartyĠinvitesĠfreeĠtemplateĠ housewarmingĠinvitationĠtemplateĠfreeĠps
live,ĠlaughĠandĠbeĠhapp y"ĠtoĠbeĠt
live,ĠlaughĠandĠbeĠhapp y.ĠcomoĠperson
alaskaĠfisheriesĠscienceĠcenterĠinĠseattle,Ġwa ,ĠworkingĠwith
.ĠphotoĠbyĠdouglasĠreynolds.Ġ drewĠmichaelĠwhil
.ĠphotoĠbyĠdouglasĠreynolds.Ġ cancerĠis
enjoysĠaĠreputationĠofĠgraciousĠhospitalityĠinĠtheĠmidstĠofĠaĠtrueĠupstateĠnewĠyorkĠfingerĠlakesĠregionĠclassicĠhistoricĠinnĠexperienc e.ĠtheĠgrandĠfederal-styleĠmansion,ĠbuiltĠinĠ
ĠandĠonĠtheĠnationalĠhistoricĠregister,ĠhasĠaĠstatelyĠpresenceĠonĠattractivelyĠlandscapedĠgrounds.ĠtheĠ innĠenjoysĠaĠreputationĠofĠgraciousĠhospitalityĠinĠtheĠmidstĠofĠaĠtrueĠupstateĠnewĠyorkĠfingerĠlakesĠregionĠclassicĠhistoricĠinnĠexperienc
ĠandĠonĠtheĠnationalĠhistoricĠregister,ĠhasĠaĠstatelyĠpresenceĠonĠattractivelyĠlandscapedĠgrounds.ĠtheĠ halseyĠhouseĠisĠaĠ
!Ġand ĠthoseĠglitterĠbottl
!ĠthatĠ meansĠsoĠmuch
!Ġha ,Ġyay
!Ġsuch ĠaĠprettyĠtour
!ĠtheseĠ areĠso
!Ġthink ingĠofĠyouĠasĠyou
!ĠveryĠ quietĠplaceĠandĠwithĠnoĠ
!ĠitâĢĻsĠ ok,Ġus
!ĠrecentlyĠ iĠpurchas
!ĠsinceĠ movingĠintoĠtheĠ
!ĠitĠall ĠlooksĠsoĠperfect
!ĠwhenĠyou ĠpurchaseĠthisĠstampĠset
"in fluencer"Ġc
"quiteĠ aĠlotĠofĠm
#su ccessĠ
#gatehous epinelakeĠ
%Ġf atĠonly
%ĠofĠtheĠ netĠpr
%Ġno iseĠandĠ
%ĠandĠad rĠof
&Ġg reenĠin
'dĠ likeĠtoĠuseĠmore,ĠyouĠm
(i âĢĻmĠaĠbig
(ec o-fo
(theĠ armĠbone
(espec ially
)ĠandĠ dr.Ġton
)Ġm ostĠoftenĠresultsĠinĠthingsĠgettingĠ
)Ġor Ġrick
)ĠandĠtheĠ glenoidĠ
)ĠtoĠbeĠ atĠtheĠb
)ĠâĢĶ ĠtheĠoffic
)ĠofĠtheĠb&bĠteam ,ĠinnĠcon
*theĠnumber ĠoneĠthingĠtoĠ
,Ġth alass
,ĠtoĠ causeĠaĠtown
,Ġar chdio
,Ġas ĠthereĠhasĠbeen
,Ġthes eĠmasksĠrepresent
,ĠalsoĠ featuresĠaĠlistĠof
,Ġthen Ġyou'll
,ĠthereĠis ĠanĠalternativeĠ
,ĠalwaysĠ wellĠgroom
,Ġangel a
,Ġstress edĠinĠtheĠmeetingĠtheĠ
,ĠtheyĠdoĠ getĠgoodĠresult
,Ġannoun cesĠtheĠavail
,Ġalthough ĠresearchĠisĠlack
,ĠatĠtheĠsam eĠtime,ĠandĠunderĠtheĠsameĠ
,ĠtheĠfirstĠ inĠseveral
,ĠsweetĠfriend .Ġhow
-q .Ġbarcod
-in .ĠiĠad
-ter mč
-year Ġhiat
-dec adalĠi
-cal orieĠmealĠonĠfastingĠ
-month Ġredevelop
-born ĠclericĠalsoĠstress
-maintain edĠandĠclean
.Ġand Ġthere'sĠaĠgoodĠchanceĠof
.Ġas pectsĠofĠtheĠprogram
.org ĠhaveĠaĠlistĠof
.ĠanyĠ freeĠprintablesĠiĠshareĠ
.ĠandĠs inceĠiĠhaveĠquiteĠ
.Ġthough ĠtheĠguidebook
.ĠalwaysĠ useĠaĠroll
.ĠshoulderĠpain ĠisĠcommon,ĠandĠ
.ĠalsoĠtheĠ lakeĠviewĠis
.ht m.ĠyouĠcan
.ĠspendingĠl essĠisĠaĠv
.ĠatĠtheĠsam eĠtime,ĠweâĢĻreĠensuringĠthatĠ
/Ġtabl es.Ġreign
/guidebook .htm.ĠyouĠcan
02 2
09 9
28 6
37 0
:Ġc ouldĠtheĠdrug
:Ġl adies.Ġc
:Ġcont actĠdr
:ĠthisĠyear ĠthereĠareĠtw
:Ġmy vmc.com
;Ġw eâĢĻll
;Ġyou ĠwillĠbeĠblown
;Ġl auren.ro
;Ġfor ĠwhichĠtheyĠshallĠcaus
;ĠtoĠbeĠ composedĠofĠthatĠpartĠof
;Ġjan et.duffy-anderson
<s> ĠtheĠhalseyĠhous
?Ġin sufficientĠfunds:
?Ġlik elyĠnot
?ĠsetĠupĠandĠ useĠexpens
a.Ġ withĠmar
aĠandĠtheĠ almostĠunlimitedĠ
a,Ġa Ġregulator
aĠlotĠof Ġdynam
aĠpremium Ġtop-endĠ
aumat icĠinjuryĠ
a!ĠiâĢĻmĠsoĠsorryĠtoĠhearĠaboutĠyourĠgrandma ĠðŁĻģ
a;Ġact ÃºaĠcon
bb on!Ġw
bi eĠshawĠregular
bq ĠafterĠtakingĠaĠs
bt ĠandĠanthonyĠ
bat tlef
bĠf ashion.Ġ
bow Ġgradient
bandĠ celebratingĠhisĠ
bustĠ statisticalĠmodel
beĠtheĠ oneĠyouĠdon
bĠandĠcon sumeâĢĶ
byĠcall ingĠ
brightĠwhit e!ĠlastĠ
benefit sĠtheyĠcan
bĠsiteĠfor ĠupdatedĠhotelĠpropert
cg ,ĠaĠres
c.Ġ newĠyorkĠbroker
cĠj onesĠdonald
cult urallyĠ
castĠ âĢĶĠitĠpay
cedĠto Ġabsor
ccord ingĠtoĠtheĠbes
cuteĠ littleĠminiĠtreeĠ
dar Ġtestim
dem ographic.ĠitĠ
dol ences!ĠhopeĠyouâĢĻreĠhavingĠaĠgreatĠ
dĠat ĠtheĠhous
dsĠtoĠ brainĠcell
danc e.ĠtheĠteach
dingĠs omeĠgreen
datesĠ online.ĠweĠareĠ
draf tĠfe
d,Ġch urningĠoutĠ
dsĠtoĠa Ġprolif
dsĠpag eĠtoĠaĠfriend
dĠtakeĠaĠlook ĠbackĠatĠmyĠchristm
eth ically,ĠandĠwithĠpro
eim ĠareaĠmap.ĠifĠyou
e!Ġi tĠisĠoneĠofĠourĠb
eover ,ĠshallĠenter
eight -yearĠhiat
eign ty.
e;ĠandĠ doĠandĠperform
eeĠthatĠ youĠhaveĠtheĠhighestĠqual
eableĠto ĠtheĠprovisionsĠofĠtheĠfifthĠsection
e;ĠthenceĠ aĠnorthĠeastĠ
ft x
ftĠ masksĠcar
fĠp intĠgl
fus ion.ĠotherĠthan
fab ĠallĠtheĠtim
fig ureĠs
fĠl imitsĠtoĠguest
fell edĠcellularĠstr
found ĠthatĠiĠpreferĠbrightĠwhit
find ingĠaĠlotĠof
f.Ġit ĠtookĠmuch
factor ĠinĠearningsĠinĠadditionĠtoĠtheĠ
frozen ĠforĠstor
floor ĠandĠaddition
faction Ġscor
gor ithmsĠthatĠ
gen ĠaroundĠtheĠbod
gig ante.Ġ
gir lsĠand
gical Ġintervention.ĠasĠaĠsoci
gers @noaa.gov
ggl ingĠlimitedĠ
geĠab oveĠtheĠmouthĠof
gladĠ youĠstop
geĠdiningĠroom Ġwall
hen Ġdecatur
hy.Ġ piv
hould Ġtell
hensiveĠ package.ĠdanceĠinstru
heaselgraveĠsaysĠtheĠ oldĠphotographer
hmm m.Ġhi
hedge hogĠh
hĠiĠmad eĠlastĠweekĠonĠour
hodgkin'sĠ lymp
iar ?ĠinsufficientĠfunds:
ifor nia
iâĢĻ dĠtakeĠaĠlookĠbackĠatĠmyĠchristm
ieĠb aldwin.Ġpat
iĠcan ĠseeĠwhenĠitĠcom
ie! ĠtheĠglitteryĠwineĠbottl
ienceĠ andĠmedic
i'veĠ foundĠthatĠiĠpreferĠbrightĠwhit
iĠhous eĠdownload.ĠhousewarmingĠpartyĠinvitesĠfreeĠtemplateĠ
ience.Ġ itĠrequire
iĠno emi!ĠthankĠyouĠforĠtheĠawesomeĠreview
jad eĠgo
jum pingĠrock
judgment ,ĠandĠpat
jump ĠtoĠdes
kid ĠareaĠwithĠnoĠproblemĠandĠiĠcanĠb
ks,Ġ computer
kest elmanĠinĠoctoberĠ
kingĠtheĠ resultsĠofĠtheĠf
kok wimĠriver
key ĠtennisĠplay
k'sĠof ficeĠin
le,Ġ consultationĠwith
leb otomist
les.Ġ bothĠareĠaĠrealĠp
lamp sia
lĠ- ĠbutĠitĠwasĠ
liam entĠtoĠco
l.ĠoneĠ outĠofĠfourĠpeopleĠisĠa
liquidĠwatercolor ,ĠwhichĠmak
ledge ableĠaboutĠ
let'sĠ firstĠstartĠwith
lidel iner,ĠwhichĠallowedĠfour
litĠup ĠinĠtheĠeveningsĠwithĠtheĠ
lyĠcl ericĠatĠhisĠb
leuk aemia,Ġaplast
mum sĠfeel
mĠisĠ fullĠofĠgoodĠequ
mart phoneĠandĠ
meĠof f.ĠitĠtookĠmuch
meĠthisĠ prettyĠwiredĠangel
mĠalso .Ġ"we'reĠallĠaboutĠ
mingĠof ĠcellsĠisĠalter
m/ed itĠaĠvideoĠ
ndĠ yearĠ@Ġg
nol an.Ġthey
n.ĠtheĠ b&bâĢĻsĠproximityĠtoĠ
nack ĠforĠtakingĠ
nĠor ĠhisĠstaff
nityĠ unitsĠ
n.Ġs ecret
n,Ġs etĠofĠ
nativeĠ population,ĠwithĠincidentĠratesĠ
nĠe urop
o.Ġ estaĠs
oil ,ĠbeingĠ
oĠaĠp icturesqueĠtop
oĠtrack sĠatĠyouthĠday
o.ĠhopeĠyou âĢĻveĠenjoyedĠ
o.ĠthankĠyou !
pan yĠcalledĠcutĠ
pow erĠlevelsĠfromĠ
petĠ diningĠroomĠdiningĠroom
peek ingĠstampsĠ&
pedĠbyĠ forĠaĠtour
pectĠ yoursĠisĠnotĠ
paper ,ĠtheĠguidebook
pioĠ gigante.Ġ
potential ĠtheyĠhaveĠforĠmilitar
pcĠcounterĠheightĠ diningĠtableĠset.Ġtall
pable.Ġ itĠisĠtheĠ
pmĠc stĠton
qĠjan Ġkub
ron sĠatĠtheĠmuseum
roĠ mundoĠdeĠho
ringĠ youĠaĠspecial
rick Ġharris
randyĠ blandĠofĠsesĠg
stĠ centuryĠyoungĠpeople.Ġthous
syĠ notesĠtoĠ
sent ,ĠalsoĠfeaturesĠaĠlistĠof
satĠ report,Ġ
sâĢĻ Ġcomplianc
send ingĠaĠmess
spr itĠofĠtheĠ
sever alĠthing
sover eignty.
sport ingĠfr
seĠin Ġdifferent
ses.Ġ itĠlea
sĠalsoĠ factorĠinĠearningsĠinĠadditionĠtoĠtheĠ
sĠtheĠm cminnĠcountyĠlin
slam ĠdoesĠthis,ĠtheĠ
six ĠcommissionersĠmention
ses,Ġ newĠyorkĠthatĠenjoysĠa
s;ĠandĠshall ĠletĠ
sesĠwith ĠmoreĠthanĠ
sĠthemselv es.ĠdrewĠmichaelĠandĠelizabethĠellisĠ
schedule, Ġspotlights,Ġsp
s-l meĠichthyoplankton
sulin ĠandĠtempor
sĠtheĠfour- figureĠs
tĠandĠ paint,Ġso
tedĠ diseases.Ġalcoholism
tabl e.ĠiĠmodĠ
treat mentĠofĠsomeĠcanc
tast esĠputĠ
tingĠa ĠlittleĠhun
tĠandĠtheĠ circuitĠ
teĠl oftsĠwith
tĠtheĠsameĠ oneĠafter
tach e.ĠohĠsweetĠfriend
toĠtheĠ needsĠofĠtheĠ
tosĠen ĠvivirĠest
tĠtoĠtheĠfrontĠ lines.Ġ
tsĠthem ĠtoĠconsider
uit es,Ġa
ueĠs urfaceĠ
ually,Ġ weĠhaveĠaĠhus
vy weightĠcardstockĠselection
vou sĠaboutĠit,Ġbut
ving ĠspectralĠanalysis
var iousĠstagesĠ
vill agesĠareĠ
vell ousĠboo
vĠv ehicle.ĠhisĠco-star
vedĠbyĠ drewĠmichaelĠandĠpaintedĠbyĠelizabethĠellis
vdĠthatĠ bringsĠtogetherĠtheĠtime-proven
wom en.ĠtheĠlandscapeĠofĠcancer
wareĠ âĢĵĠandĠmoreĠ
wĠres istanceĠ
watch ĠmatchesĠplay
wesomeĠ andĠveryĠfriendly.Ġhi
western ĠideasĠandĠturningĠthem
wivesĠwill ĠsupportĠ
woĠstr ongestĠarrow
ysĠandĠ girlsĠand
ycl icalĠandĠnatural
yik esĠway
yĠthrough ĠscoutingĠwillĠbeĠenhanc
yĠtabl etsĠareĠ
yedĠwith ĠallĠofĠtheĠ
yâĢĶ felledĠcellularĠstr
yĠapartmentĠ doesn'tĠhaveĠ
yers.Ġ forĠdet
y.ĠthisĠisĠtheĠ activeĠ
y,ĠthankĠyou ĠforĠsuchĠanĠawesomeĠreview!ĠweĠwillĠcontinueĠtoĠget
zĠandĠs isterĠed
Ġoper ationsĠcommitteeĠ
ĠzydecoĠd anceĠinstructionalĠd
Ġoption ĠforĠus
ĠeveryĠ dayĠðŁĻģ
ĠchristmasĠinĠportugal ĠdoesĠlookĠattract
Ġowner ĠofferingĠc
ĠopportunityĠtoĠ look,Ġfeel,Ġhear
Ġensure sĠusĠtoĠgr
Ġ'fetti Ġfriend,ĠbutĠi
eĠal locationĠsoĠexpend
eĠlo ckerĠroom
eĠall ĠofĠthoseĠthingsĠareĠ
eĠev aluatingĠspatial
eĠinĠtheĠ newĠyouthĠprogram,Ġwith
eĠover viewĠofĠtheĠcongressĠ
eĠifĠyou ĠseeĠtheĠarenaĠevent
eĠpres ence.ĠmanagementĠteam
eĠhear ing,Ġvision
eĠqual ity.Ġhiv
eĠputĠ onĠhisĠ
eĠalway sĠatĠtheĠcent
eĠfeel ĠfreeĠtoĠpin
eĠproc essĠdif
eĠpark ĠfromĠspecial
eĠnote: Ġadministr
eĠprettyĠ littleĠconeĠtrees
eĠjack ĠsittingĠcourtsideĠatĠtheĠnba
eĠnuest raĠrel
Ġtre esĠonĠdisplay
Ġtar getĠtreeĠ
Ġtea .ĠsteviaĠ
Ġtest ingĠandĠt
Ġtreat mentĠearly
Ġtight .ĠourĠapartmentĠ
Ġtull eĠfabric
ĠtemplateĠ printable.
Ġtribut eĠconcertsĠareĠs
Ġtreatment ĠtoĠwork.ĠifĠyouĠareĠconsideringĠ
Ġtissu eĠandĠorgan
ĠtargetĠ whereĠyourĠpain
ĠtiedĠfor Ġfourth,ĠeachĠb
ĠtvâĢĻsĠ highest-pa
Ġtype: Ġfra
ĠaĠn onĠtr
Ġaway ĠatĠtheseĠladiesâĢĻ
ĠaĠweek ĠagoĠwhen
ĠawayĠ (especially
ĠaĠveryĠ quickĠtrip
ĠaĠton ĠtoĠlearn
ĠavailableĠfor ĠuseĠbyĠyourĠfamil
ĠaustralianĠopen ĠtitlesĠthisĠyear
Ġavoid ingĠmajor
inesĠ shoulderĠpainĠas:ĠshoulderĠpain
ine,Ġ manyĠleadĠnormal
inev itabl
inĠch annelĠof
inĠqu antitativeĠmarineĠecology,Ġb
inĠtheĠsameĠ quarter.ĠaĠweekĠa
ineĠthatĠ raisesĠtheĠcontro
inĠtouch ĠwithĠourĠofficeĠasĠ
inĠdecor ating!ĠthankĠyouĠagain
inĠhisĠ storedĠstemĠcellsĠsoĠaĠc
incidentĠ orĠpeopl
ineĠseat sĠaĠkeyĠ
inĠwithoutĠ knowingĠitĠ
inĠforĠtheĠawesomeĠreview !ĠweĠloveĠthatĠ
incum bentĠwillĠbeĠbasedĠatĠtheĠ
insĠad venturous,Ġ
inĠtheirĠhea vyweightĠcardstockĠselection
inĠyourĠfamilyĠ needsĠaĠstemĠcellĠtrans
in.ĠthankĠyouĠsoĠmuch Ġmerv
infection ,Ġcar
inĠeng land.ĠthereĠis
Ġthurs day!ĠthankĠyou
sĠour Ġattention
sĠno thingĠtoĠ
sĠwasĠ newĠforĠm
sĠopen ingĠnightĠ
sĠcenter .
sĠuseĠ frequently
sĠdon 'tĠthinkĠthere
sĠmask sĠinĠtheĠspringĠof
sĠevent s,ĠsuchĠasĠ
sĠdiningĠroom Ġideas.Ġcar
sĠmad eĠinĠpur
sĠintoĠ longĠlast
sĠwillĠb eĠmanagedĠbyĠ
sĠlaidĠ outĠwhyĠlatenc
sĠfiveĠ yearsĠofĠext
sĠmean ĠaĠlot!Ġi
sĠmelb ourne.Ġc
sĠresearch ,Ġbiological
sĠprepar ingĠtoĠimpl
sĠplaceĠ willĠbeĠ
sĠveryĠspacious ĠandĠcomfortableĠowner
sĠconditionedĠforĠtheĠ dueĠandĠfaithfulĠperform
sĠemploy ees.Ġplus,
sĠlessĠthanĠtwoĠmetresĠfromĠtheĠplayer s.ĠtheĠseat
sĠket onesĠhighĠasĠwell
outher nĠeurop
outhĠeastĠ course,Ġ
eron Ġo'haraĠsaysĠtheĠclub
erĠp itch.Ġb
erect ingĠpublicĠbuilding
ersĠandĠ pioneerĠscoutĠgroupsĠt
eryĠandĠ someĠledĠ
ermin eĠifĠyouĠseeĠtheĠarenaĠevent
erĠmad e,ĠorĠg
erusĠ (theĠarmĠbone
erĠfriend lyĠeverythingĠ
eriesĠin ĠjulyĠfeat
erverseĠ accel
ersĠtoĠgetĠ overĠtheĠcravingĠfor
dĠsoĠ manyĠm
dĠexperienc esĠatĠ
dĠisĠpr ofessionallyĠauthor
dĠvect orĠepsĠa
tĠsoĠ excitedĠwhen
tĠseat sĠtoĠetihadĠ
tĠonĠs aturdayĠeven
tĠbox ĠdieĠandĠnoĠ
tĠyourĠpl anningĠnow
tĠfif tyĠacre
tĠsch anpp
onat hanĠmeigs,Ġdeceas
onĠandĠ neilĠpat
onedĠ suchĠasĠgrow
on.Ġi ĠjustĠloveĠhisĠwood
onĠtoĠtheĠ kidĠareaĠwithĠnoĠproblemĠandĠiĠcanĠb
onĠmyĠ blogĠthisĠweek
onesĠandĠ mp
onĠopen ingĠdayĠ
ones, ĠalsoĠinĠtheĠcomedyâĢĻsĠ
onto ĠtheĠtour!Ġyou
onioĠd eĠnuestraĠrel
oner!ĠaĠf rozenĠthemeĠwillĠbeĠsoĠ
orĠst ake,Ġnear
ors,Ġ resultingĠinĠprodu
orĠtheir Ġcontract
orĠn ight.ĠfriendlyĠ
oriesĠ youĠhave.ĠsoĠhappyĠtoĠ
ors. ĠscentĠnam
ore! ĠforĠmyĠcardĠtoday
orrow !ĠitĠallĠlooksĠsoĠperfect
ortingĠ matchesĠareĠ
oriesĠof Ġher.ĠiĠpr
orĠinĠtheĠ afternoon.ĠtheĠ
or,ĠsoĠ welcoming
orĠmid wivesĠwillĠsupportĠ
orĠexperienceĠ withĠtim
orĠsur gicalĠintervention.ĠasĠaĠsoci
orĠtwo .ĠifĠyouĠareĠhop
orsĠthatĠcaus eĠtheĠdammingĠfrom
or)Ġin sertingĠaroundĠtheĠshoulderĠjoint
orningĠ orĠinĠtheĠafternoon.ĠtheĠ
enĠp agacĠandĠdeb
ens. ĠaĠlargeĠdetach
enersĠ âĢĵĠifĠyou
enĠint oĠaĠpicturesqueĠtop
enĠaĠfew ĠpeopleĠdo
environment .ĠforĠourĠnewĠpat
ĠtheĠbloo d.ĠifĠnot
ĠtheĠperi odĠforĠapplicationsĠ
ĠtheĠce oĠofĠsesĠg
ĠtheĠpa irĠofĠtur
ĠtheĠcongressĠ schedule,Ġspotlights,Ġsp
ĠtheĠopportun ityĠforĠpeopleĠaffect
ĠtheĠexperienceĠ includesĠprivateĠ
ĠtheĠdifferentĠ dutiesĠbyĠthisĠactĠ
ĠtheĠelection ĠofĠcount
ĠtheĠwestĠ coastĠof
ĠtheĠengag ementĠproces
ĠtheĠequ ivalentĠ
ĠtheĠresultĠ isĠalwaysĠ
ĠtheĠclub ĠrecentlyĠintroduc
ĠtheĠhighestĠqual ityĠfin
ĠtheĠdistanc e,ĠinĠfact)Ġthan
Ġsent ence.ĠcloseĠtoĠaĠth
Ġsun dayĠafter
Ġsha redĠwithĠcommunity
Ġsol idĠlodg
Ġsad dleĠnotĠaĠh
ĠsayĠ âĢľflex
Ġsession ĠbyĠm
Ġsold !ĠthanksĠtoĠeliotĠdalton
Ġschedul edĠforĠthisĠyear
Ġsystem s,Ġaffect
Ġsecur ityĠmeas
ĠsoundproofĠwindowsĠinĠfortĠbranch,Ġin .ĠweĠwillĠbeĠ
Ġsentim entsĠin
Ġsugar Ġ(inĠcoffe
ĠsatelliteĠ constellations,Ġ
ĠsuiteĠ atĠtheĠm
reyĠ edelman
reeĠt runk.Ġi
reew ays.Ġit'sĠa
reeĠm ilesĠofĠtheĠ
re,ĠtheĠ allaw
reach ĠtheĠchildren
requiredĠ ofĠthemĠbyĠthisĠact
re.ĠtoĠ bestĠprepar
refocus ingĠandĠreju
reveal ĠaĠveryĠspecialĠstampĠ&ĠdieĠsetĠcall
resĠsc outĠgroupsĠbyĠ
its,Ġ isĠseventhĠonĠtheĠ
itiveĠ function.ĠthisĠcanĠres
itsĠre centĠser
ittingĠ on.ĠiĠjustĠloveĠhisĠwood
itures ĠareĠautomaticallyĠspread
itiat ivesĠwillĠneverĠindic
italĠpartĠof ĠanyĠtask
itingĠmeĠtoĠbeĠaĠpartĠof ĠthisĠtour
yĠwith ĠsomeĠpinkfreshĠstudio
yĠnew ĠaudiĠaustralia
yĠri bbon!Ġw
yĠinĠtheĠ marketĠtoĠprovideĠ
yĠdes afÃŃ
yĠwhatĠ youĠareĠlookingĠfor
yĠwhereĠ everythingĠwasĠplaced,Ġ
yĠlif e.Ġatt
yĠdoes ĠthisĠepidemic
yĠproc essĠtoĠm
yĠisĠyet ĠanotherĠenemyĠonĠtheĠ
yĠinvolv ingĠaĠtransplantĠthereĠisĠa
yĠdevelopĠa ĠcomplicationĠdur
yĠemploy edĠinĠperform
yĠpreferred.Ġ goodĠorganizationalĠskill
yĠkos lowĠ(sc
yĠorĠl abour,ĠsuchĠasĠ
yĠreject ingĠtheĠtrans
ingĠal gorithmsĠthatĠ
ings. ĠaĠlittleĠbitĠprice
ingsĠre lativeĠto
ingĠthos eĠwithĠyouĠtoĠyourĠf
ington ĠgotĠallĠdress
ing,ĠtheĠ processĠapp
ingĠsaidĠcounty ,ĠtoĠtheĠcountyĠcourtĠofĠsaidĠcounty
ingĠthingsĠ iĠmentionedĠatĠtheĠ
ingsĠofĠtheĠ area.ĠtheĠ
ing.Ġa utophagyĠm
ing,Ġwhich ĠiĠamĠsoĠexcit
ing.Ġb eautifulĠhomeĠamand
ingsĠatĠ nbaĠgam
ing.ĠiĠam Ġwell
ingement.Ġ *theĠnumberĠoneĠthingĠtoĠ
ingĠtouches ĠtoĠtheĠfirstĠof
ing,ĠtheĠm all,Ġm
ingleĠs aleĠtrulyĠ
ingerĠwith ĠaĠhammer
anch isesĠyou'reĠconstantlyĠ
anĠre volutionĠofĠ
anno ckĠstateĠ
anĠo athĠasĠa
anĠspect rosc
anĠorder ĠfromĠtheirĠs
anzasĠ yĠdesafÃŃ
atis factionĠscor
ateĠtoĠ ourĠonlin
atedĠtoĠ eveyth
atesĠandĠ vips
at.ĠweĠ understandĠ
atedĠbyĠ greatĠshif
ately ĠthereĠwereĠ
atingĠthisĠ yearĠonĠtheĠ
ating. ĠalcoholĠabuseĠand
atitisĠb .ĠyouĠorĠyourĠbab
Ġantl ersĠgot
ĠanĠis olatedĠ
Ġanton y,ĠthankĠyouĠforĠsuchĠanĠawesomeĠreview!ĠweĠwillĠcontinueĠtoĠget
ĠanĠover draftĠfe
ĠanĠinter disciplinaryĠgroup.Ġto
ales ,ĠwhereĠcustomersĠcan
alĠsc alesĠofĠcoher
alityĠ work.Ġour
allow edĠbyĠtheĠcountyĠcourtĠaĠreason
alistĠ robertĠwhitaker
alĠalcohol ĠsyndromeĠmask
alĠofĠtheĠnewĠyouthĠprogram ĠforĠscoutsĠaustralia
alaĠevent sĠcenter.
alĠspaceĠ currentlyĠservingĠasĠaĠâĢľ
alfĠm en.ĠtheĠcbsĠ
altru istic,ĠmoreĠ
oĠitĠup Ġright
oĠ-Ġi ĠknowĠthereĠis
.Ġel ĠpradoĠhotel
.Ġex ternalĠrotation
.Ġwh yĠhaveĠtheĠnumber
.ĠinĠtheĠ unlik
.Ġview ĠfromĠbehind
.Ġdin ingĠcap
.Ġplac ingĠmasksĠintoĠlocationsĠforĠdanceĠ
.Ġwell ,ĠsadĠtoĠs
.ĠcordĠbloodĠ storedĠinĠtheĠnhsĠcordĠbloodĠbank
.Ġleas ingĠstaffĠhasĠbeenĠgreat
.Ġeach Ġpiec
.Ġcap riĠtur
.ĠmostĠ shoulderĠpainĠstemmingĠfrom
.Ġfun dingĠisĠavailableĠfor
.Ġbut ĠthisĠmightĠ
.Ġwe'reĠ readyĠto
.Ġme igs,Ġdeceas
.Ġpiec esĠleftĠ
.Ġinclud edĠisĠa
.ĠquietĠ neighborhood
.ĠyourĠhomeĠ isĠgorgeousĠandĠiĠlove,Ġlov
.Ġrecommend ĠthisĠcaj
.ĠbeĠsureĠto Ġsign-upĠforĠourĠcongressĠ
.Ġcirc ularĠblack
.ĠgateĠ hasĠnever
.Ġpleas eĠfeelĠfreeĠtoĠpin
.Ġearlier ĠthisĠmonth,ĠtheĠnational
.ĠeveryoneĠ needsĠtoĠrenew
.Ġparticipant sĠatĠaj
.Ġgender :Ġladies.Ġc
.Ġmichael Ġ/ĠmichaelĠkorsĠ
.Ġnat sumiĠl
.ĠonĠtuesday s,ĠandĠtheĠundergroundĠ
arĠme etsĠgrill
arant eeĠthatĠyouĠhaveĠtheĠhighestĠqual
aryĠs atellites.ĠtoĠget
ary,Ġ reservingĠatĠleast
arĠtheĠm outhĠofĠwhite'sĠcre
arren Ġpalmer.Ġsamsung
arryĠ kestelmanĠinĠoctoberĠ
arĠreview s.Ġaffordabl
arrang edĠcordĠbloodĠcollection
arĠspot ĠtargetĠtreeĠ
areĠbeautiful !ĠiĠthinkĠitĠmakesĠitĠall
arfĠr ingsĠcanĠbeĠ
aryĠteam .ĠtheĠpost
arÃ¡Ġl asĠesper
ofĠre memberingĠandĠhonor
ofĠyour ĠchildĠ
ofĠmeig sĠcounty,ĠinĠhonorĠofĠcolonelĠreturnĠj
ofĠqu alityĠwork.Ġour
ofitsĠ willĠbenefitĠ
ofĠaĠc oldĠlateĠ
ofĠthoseĠ cuteĠdi
ofĠyourĠgr andma!ĠthoseĠ
ofĠira qâĢĻsĠmostĠsen
ofĠtenness ee,ĠthatĠaĠnew
oftĠ&Ġpre ttyĠcard
,Ġour ĠfirstĠpresÃ©
,Ġun author
,Ġfrom ĠtimeĠtoĠtime,ĠbeĠlaidĠ
,ĠweĠ justĠmov
,ĠifĠyou ĠhaveĠany.Ġ
,Ġexp andedĠlu
,ĠâĢľ fiber-likeĠsatelliteĠ
,Ġclean ,ĠwellĠkept
,Ġcomp assionĠandĠ
,ĠoneĠof ĠtenĠaggravatedĠ
,Ġimplementation ĠinĠscoutĠgroup
,ĠespeciallyĠ duringĠtheĠchristmasĠseason
,Ġfloral ĠscentĠfrom
,ĠweâĢĻveĠ chosenĠtoĠ
,ĠcanĠyou Ġhelp?ĠtheĠm
,ĠreadyĠtoĠ workĠtogetherĠwithĠyou.Ġyou'll
,Ġcommunication sĠresearch,Ġbiological
,Ġnon- judgment,ĠandĠpat
,ĠjonĠc ryer,Ġ
,ĠweĠtak eĠaĠlook
,ĠonĠor ĠbeforeĠtheĠfirstĠ
ess,Ġ withĠtheĠinterest
esĠab undantĠ
essĠof Ġvoic
esia .ĠaĠproclamarĠl
esĠtheĠcount iesĠofĠrheaĠandĠhamilton
es,Ġin ĠallĠrespect
esĠappl y.ĠthisĠisĠtheĠactiveĠ
esĠtoo ,ĠiĠalmostĠ
es,Ġand ĠareĠover
esĠass ignedĠthemĠbyĠthisĠact
esiÃ³n Ġexamin
es,Ġtoo! ĠasĠyouĠcontinueĠintoĠ
esĠtooĠ getting
eseĠup .ĠbutĠthisĠmightĠ
es!ĠtheyĠareĠ allĠsoĠ
esmen ,ĠballĠbo
iseĠs ales,ĠwhereĠcustomersĠcan
isĠtr ainedĠto
isĠaboutĠ connect
iscal Ġyear,Ġto
isĠtheĠp inkfreshĠstudioĠoctober
isĠtheĠn umberĠoneĠwayĠto
iseĠthatĠ mayĠinclud
isian aĠzydecoĠd
is.ĠaĠp erverseĠaccel
is,ĠwhoĠ visitedĠtheĠelder
youĠc omeĠin,ĠyouâĢĻllĠseeĠ
youĠloveĠ soĠmuch.ĠhugsĠ
youĠdo ĠthisĠtoo
youĠget ĠtoĠspendĠsomeĠcraf
youĠtimeĠandĠ costsĠonĠproduct
youâĢĻllĠse eĠmyĠb
ĠandĠst oreĠyourĠbaby'sĠcordĠbloodĠprivately.ĠcordĠbloodĠstor
ĠandĠour Ġliving/
ĠandĠex hibition
ĠandĠup datesĠonline.ĠweĠareĠ
ĠandĠbe verageĠdeliver
ĠandĠmak ingĠherĠaĠloftĠb
ĠandĠdin etteĠsuper
ĠandĠveryĠ promptĠinĠdoingĠtheir
ĠandĠglitter ĠisĠjust
ĠandĠcont inuingĠtoĠdecemberĠ
ĠandĠopen ingĠtheĠpossibil
ĠandĠreg ularĠstat
ĠandĠeverythingĠ withĠmaint
ĠandĠhasĠbeen Ġsold!ĠthanksĠtoĠeliotĠdalton
ĠandĠgre etĠwithĠtheĠ
ĠandĠhotel Ġinformation.Ġcheck
ĠandĠsuccess ful,ĠandĠourĠc
ĠandĠexperienc eĠtheĠnewĠyouthĠprogram
ĠandĠvisit ,ĠiĠhadĠsoĠmuchĠfun!ĠyouĠareĠalsoĠ
ĠandĠproduct iveĠliv
ĠandĠeventĠ descriptions,Ġ
ĠandĠlittleĠ else,Ġ
ĠandĠwouldĠ likeĠtoĠrece
ĠandĠoper ateĠinĠmoreĠcountries
ĠandĠmayĠbeĠ lawfulĠforĠtheĠcountyĠcour
ĠandĠwonderful Ġexperience.Ġmanag
ĠandĠconcern ingĠsaidĠcounty,ĠtoĠtheĠcountyĠcourtĠofĠsaidĠcounty
ĠandĠyoungĠpeopl eĠinĠgreat
ĠandĠsheĠ willĠhaveĠmem
ĠandĠinto ĠtheĠfuture
ĠandĠbeĠsureĠto ĠaskĠforĠtheĠspecial
ĠandĠotherĠs exually
ĠandĠpsych ologicalĠdepend
ĠandĠwider -scaleĠimplementation
ĠandĠjurisdiction ĠasĠpossess
ĠandĠrud eĠandĠnast
ĠandĠonĠaĠs ideĠnote:
thĠb irthday,ĠaĠd
thent icĠstep
thĠthatĠ hasĠtheĠcapac
thĠoctober .ĠwhyĠhaveĠtheĠnumber
thodĠ isĠrelaxed,Ġ
thĠart icleĠ
the'sĠ onĠtheĠtennesseeĠriver,Ġwher
thĠasĠtheyĠ mayĠde
thĠhol idayĠrelease,ĠandĠi'veĠbeen
thĠstyl eĠdiningĠtable.Ġ
th,ĠtodayĠ isĠnotĠsuchĠaĠbig
their ĠfeetĠonĠtheĠ
ionĠofĠtheĠ registrationĠguidebookĠforĠcongressĠ
chedĠ itĠonĠaĠlittleĠ
chĠandĠm oveĠaĠfive-
challeng esĠsection
chiev ableĠgivenĠthatĠ
chuck ĠlorreĠ
chatt ingĠandĠdr
chbish opĠj
chineĠconcer tĠonĠsaturdayĠeven
llness âĢĻĠsky
ingĠour Ġexpertise.Ġ
ingĠbloodĠ leftĠinĠyourĠnew
ingĠonĠtheĠ journeyĠofĠtheĠnewĠyouthĠprogram.ĠtheĠapprov
ingĠofĠtheĠ masksĠtoĠtheĠfrontĠ
ingĠhow ĠtheyĠentertain
ingĠpo intĠinĠtheĠjourne
ingĠfromĠtheĠ citizensĠofĠsaidĠcountyĠofĠmeigs,ĠanyĠtax
ingĠorgan ismsĠareĠcomposedĠof
ingĠpit s.ĠmasksĠbeingĠreleasedĠintoĠtheĠ
ingĠhigh Ġcrim
ingĠcell sĠcalledĠstemĠcells.ĠthereĠ
ingĠme thodĠisĠrelaxed,Ġ
ingĠris eĠofĠmental
ingĠcongres s.ĠthereĠareĠtwoĠ
ingĠeventĠ organisedĠbyĠandĠ
ingĠquiteĠ proud.Ġ
ingĠdist antĠorgans,Ġmak
ingĠburger sĠtoĠchocol
ingĠfloral sĠ&Ġchristmas
ingĠhiv ,ĠoneĠofĠtenĠaggravatedĠ
ingĠvoic esĠnet
ingĠexpert iseĠthatĠmayĠinclud
[...]
