{"!":0,"\"":1,"#":2,"$":3,"%":4,"&":5,"'":6,"(":7,")":8,"*":9,"+":10,",":11,"-":12,".":13,"/":14,"0":15,"1":16,"2":17,"3":18,"4":19,"5":20,"6":21,"7":22,"8":23,"9":24,":":25,";":26,"<":27,">":28,"?":29,"@":30,"[":31,"]":32,"a":33,"b":34,"c":35,"d":36,"e":37,"f":38,"g":39,"h":40,"i":41,"j":42,"k":43,"l":44,"m":45,"n":46,"o":47,"p":48,"q":49,"r":50,"s":51,"t":52,"u":53,"v":54,"w":55,"x":56,"y":57,"z":58,"¡":59,"©":60,"®":61,"³":62,"º":63,"Â":64,"Ã":65,"â":66,"ð":67,"Ċ":68,"č":69,"Ġ":70,"Ģ":71,"ģ":72,"Ĥ":73,"ī":74,"ĵ":75,"Ķ":76,"ĺ":77,"Ļ":78,"ľ":79,"Ŀ":80,"Ł":81,"Ń":82,"eĠ":83,"Ġt":84,"Ġa":85,"in":86,"Ġth":87,"sĠ":88,"ou":89,"er":90,"dĠ":91,"tĠ":92,"on":93,"or":94,"en":95,"ĠtheĠ":96,"Ġs":97,"re":98,"it":99,"yĠ":100,"ing":101,"an":102,"at":103,"Ġan":104,"al":105,"oĠ":106,".Ġ":107,"ar":108,"of":109,",Ġ":110,"es":111,"is":112,"you":113,"ĠandĠ":114,"om":115,"th":116,"ion":117,"ch":118,"ll":119,"ingĠ":120,"for":121,"lo":122,"as":123,"Ġc":124,"Ġm":125,"ec":126,"ic":127,"ed":128,"isĠ":129,"Ġp":130,"edĠ":131,"Ġh":132,"Ġw":133,"ro":134,"veĠ":135,"ĠtoĠ":136,"el":137,"st":138,"Ġb":139,"ent":140,"ith":141,"Ġd":142,"am":143,"em":144,"Ġyou":145,"et":146,"âĢ":147,"ver":148,"atĠ":149,"Ġto":150,"all":151,"pl":152,"esĠ":153,"our":154,"il":155,"us":156,"Ġf":157,"Ġi":158,"ur":159,"ac":160,"oun":161,"ay":162,"ation":163,"eĠt":164,"Ġof":165,"ab":166,"ow":167,"Ġg":168,"id":169,"ig":170,"res":171,"im":172,"ma":173,"with":174,"un":175,"ne":176,"ul":177,"ir":178,"Ġar":179,"Ġst":180,"and":181,"ex":182,"ear":183,"âĢĻ":184,"ha":185,"eĠs":186,"ect":187,"if":188,"ter":189,"gr":190,"com":191,"ea":192,"Ġl":193,"iv":194,"ill":195,"ol":196,"op":197,"eĠth":198,"entĠ":199,"os":200,"ut":201,"pro":202,"up":203,"Ġin":204,"ot":205,"we":206,"ĠthisĠ":207,"itĠ":208,"Ġand":209,"ist":210,"Ġre":211,"abl":212,"fr":213,"wh":214,"ĠthatĠ":215,"beĠ":216,"ad":217,"qu":218,"con":219,"e.Ġ":220,"Ġal":221,"end":222,"sh":223,"Ġfor":224,"Ġlo":225,"ount":226,"ap":227,"outĠ":228,"your":229,"s,Ġ":230,"Ġthe":231,",ĠandĠ":232,"e,Ġ":233,"int":234,"s>":235,"sĠa":236,"Ġ<":237,"ĠareĠ":238,"ceĠ":239,"Ġsh":240,"ak":241,"count":242,"etĠ":243,"eas":244,"pr":245,"igh":246,"ell":247,"Ġall":248,"idĠ":249,"ĠtheĠs":250,"ateĠ":251,"s.Ġ":252,"andĠ":253,"ess":254,"Ġha":255,"der":256,"oo":257,"tĠof":258,"oul":259,"blo":260,"ew":261,"ct":262,"oneĠ":263,"ank":264,"ther":265,"per":266,"um":267,"Ġj":268,"ĠasĠ":269,"ous":270,".ĠtheĠ":271,"be":272,"Ġyour":273,"aidĠ":274,"uch":275,"Ġab":276,"Ġsp":277,"ayĠ":278,"sĠof":279,"ĠsoĠ":280,"!Ġi":281,"ag":282,"ain":283,"ev":284,"no":285,"out":286,"ereĠ":287,"omeĠ":288,"co":289,"par":290,"eĠd":291,"new":292,"..":293,"ri":294,"utĠ":295,"isĠa":296,"cor":297,"gh":298,"tl":299,"ust":300,"year":301,"eĠm":302,"sĠin":303,"yĠof":304,"from":305,"ĠhaveĠ":306,"ber":307,"ever":308,"por":309,"Ġo":310,"est":311,"Ġwith":312,"act":313,"ep":314,"ies":315,"ork":316,"eĠtoĠ":317,"20":318,"her":319,"sĠandĠ":320,"will":321,"Ġam":322,"reat":323,"yĠc":324,"Ġcon":325,"bl":326,"now":327,"weĠ":328,"asĠ":329,"e.":330,"ial":331,"Ġon":332,"haveĠ":333,"ection":334,"comm":335,"cl":336,"ich":337,"s,":338,"soĠ":339,"eĠb":340,"ough":341,"ard":342,"iveĠ":343,"ly":344,"pp":345,"rist":346,"vi":347,"ĠisĠ":348,"Ġat":349,"oreĠ":350,".Ġi":351,"Ġpro":352,"ack":353,"ek":354,"Ġex":355,"Ġtr":356,"Ġas":357,"christ":358,"Ġwh":359,"Ġtheir":360,"bloo":361,"do":362,"Ġn":363,"eĠandĠ":364,"inĠtheĠ":365,"Ġcan":366,"room":367,"201":368,"av":369,"iz":370,"lit":371,"Ġtim":372,"ity":373,"ask":374,"edĠb":375,"ound":376,"iesĠ":377,"sion":378,"Ġk":379,"Ġthank":380,"ĠbeĠ":381,"ĠtoĠtheĠ":382,"s>Ġ<":383,"Ġ</":384,"s>Ġ<s>":385,"'sĠ":386,"ff":387,"myĠ":388,"ment":389,"pre":390,"Ġr":391,"enc":392,"areĠ":393,"ast":394,"Ġme":395,"âĢĻsĠ":396,"eb":397,"fer":398,"hous":399,"s.":400,"way":401,"Ġour":402,"ĠsaidĠ":403,"ingĠtheĠ":404,"ant":405,"ĠaboutĠ":406,"ik":407,"ok":408,"over":409,"sĠtoĠ":410,"Ġad":411,"ind":412,"ition":413,",Ġb":414,"forĠtheĠ":415,"ustĠ":416,"eĠto":417,"cordĠ":418,"port":419,"bloodĠ":420,"ail":421,"dec":422,"eat":423,"gres":424,"ĠatĠ":425,"ical":426,"ĠloveĠ":427,"ouldĠ":428,"been":429,"du":430,"e!":431,"ef":432,"lyĠ":433,"much":434,"other":435,"work":436,"ĠaĠp":437,"Ġthem":438,"enceĠ":439,"edĠtoĠ":440,"ĠofĠtheĠ":441,"mak":442,"ableĠ":443,"notĠ":444,"christma":445,"day":446,"jo":447,"ud":448,"ink":449,"ingĠa":450,"anc":451,"estĠ":452,"ĠmyĠ":453,"allyĠ":454,"view":455,"ĠthankĠyou":456,"aĠ":457,"ck":458,"eo":459,"reĠ":460,"Ġthat":461,"ersĠ":462,"onĠtheĠ":463,"org":464,"ens":465,"Ġsc":466,"reatĠ":467,"form":468,"gram":469,"e,":470,"hot":471,"lin":472,"od":473,"Ġthes":474,"anceĠ":475,"ofĠtheĠ":476,"ission":477,"elyĠ":478,"enter":479,"ult":480,"prov":481,"shall":482,"ightĠ":483,"christmasĠ":484,"din":485,"how":486,"ia":487,"rough":488,"sĠareĠ":489,"Ġor":490,"Ġus":491,"ong":492,"ĠtheĠf":493,"iteĠ":494,"esĠandĠ":495,"Ġcom":496,"veryĠ":497,"plac":498,"eĠtheĠ":499,"oulder":500,"peri":501,"part":502,"00":503,"fic":504,"ful":505,"go":506,"get":507,"ire":508,"po":509,"ra":510,"so":511,"yĠs":512,"yĠandĠ":513,"Ġit":514,"Ġch":515,"Ġtak":516,"inv":517,"Ġso":518,"ingĠroom":519,"Ġcell":520,"ed,":521,"Ġgr":522,"ostĠ":523,"ĠandĠtheĠ":524,"ight":525,"...":526,"!!":527,"cc":528,"ean":529,"hea":530,"yĠtheĠ":531,"y,Ġ":532,"eĠin":533,"ĠthereĠ":534,"theĠ":535,"loveĠ":536,"Ġhop":537,"own":538,"well":539,"week":540,"oodĠ":541,"litter":542,"ĠsaidĠcount":543,"cordĠbloodĠ":544,"aus":545,"ci":546,"can":547,"ru":548,"ran":549,"eĠyou":550,"Ġap":551,"ityĠ":552,"es.Ġ":553,"youĠcan":554,"astĠ":555,"amp":556,"âĢĵ":557,"ĠitĠ":558,"ign":559,"ĠalsoĠ":560,"app":561,"ĠtheyĠ":562,"Ġshall":563,"tleĠ":564,"every":565,"commission":566,"Ġmeig":567,",Ġa":568,".Ġs":569,"dition":570,"eyĠ":571,"leas":572,"lik":573,"man":574,"pos":575,"ral":576,"Ġ(":577,"Ġres":578,"Ġup":579,"sĠre":580,"sĠfor":581,"Ġse":582,"arm":583,"art":584,"ish":585,"ecial":586,"ick":587,"ication":588,"edĠin":589,"Ġwill":590,"Ġfr":591,"ideĠ":592,"ifĠyou":593,"fri":594,"!ĠthankĠyou":595,"cit":596,"cour":597,"dayĠ":598,"fter":599,"glitter":600,"hol":601,"la":602,"pres":603,"tt":604,"ull":605,"wasĠ":606,"y.Ġ":607,"yĠtoĠ":608,"ðŁ":609,"Ġtw":610,"ĠaĠl":611,"Ġthrough":612,"ousĠ":613,"ers":614,"enjo":615,"ĠtheĠm":616,"ingĠtoĠ":617,"atedĠ":618,"thingĠ":619,"log":620,"Ġdo":621,"ameĠ":622,"andma":623,"eaut":624,"when":625,"cont":626,"ook":627,"fromĠtheĠ":628,"yĠcour":629,"Ġprogram":630,"eopl":631,"organ":632,"invit":633,"friend":634,"eautif":635,"'tĠ":636,"min":637,"moreĠ":638,"ov":639,"su":640,"Ġv":641,"Ġis":642,"Ġne":643,"Ġten":644,"ĠaĠf":645,"Ġthos":646,"ouch":647,"orr":648,"eng":649,"ĠtheĠb":650,"ĠtheĠcount":651,"reeĠ":652,"ingĠs":653,".ĠbeĠ":654,",Ġi":655,"essĠ":656,"ĠweĠ":657,"row":658,"ember":659,"ild":660,"oundĠ":661,"happ":662,"each":663,"uper":664,"shoulder":665,"blog":666,"Ġcont":667,"gressĠ":668,"Ġfrom":669,"eautiful":670,"cre":671,"cal":672,"cation":673,"card":674,"eal":675,"fe":676,"ip":677,"iver":678,"mon":679,"mentĠ":680,"not":681,"oll":682,"sĠthatĠ":683,"ten":684,"ys":685,"eĠa":686,"Ġtabl":687,"Ġafter":688,"Ġthis":689,"enact":690,"ate":691,"ĠanyĠ":692,"arg":693,",Ġwh":694,"ass":695,"Ġpre":696,"elp":697,"stor":698,"amil":699,"ement":700,"irs":701,"hasĠ":702,"itĠenact":703,"ood":704,"coll":705,"ustral":706,"Ġother":707,"ectionĠ":708,"ðŁĻ":709,".ĠbeĠitĠenact":710,").":711,"butĠ":712,"hom":713,"io":714,"ier":715,"ientĠ":716,"lu":717,"liv":718,"sĠto":719,"ton":720,"tingĠ":721,"ure":722,"eĠof":723,"Ġag":724,"erc":725,"ĠtheĠt":726,"Ġsuch":727,"Ġsorr":728,"yĠw":729,"ardĠ":730,",Ġin":731,"thĠprogram":732,"los":733,"ĠhomeĠ":734,"Ġhapp":735,"stem":736,"Ġbe":737,"Ġday":738,"empl":739,"urn":740,"Ġgu":741,"ĠgreatĠ":742,"exp":743,"âĢĻm":744,"open":745,"print":746,"Ġjo":747,"ĠsoĠmuch":748,",ĠbutĠ":749,"decor":750,"formation":751,"commissioner":752,"enjoy":753,".ĠbeĠitĠenacted,":754,"'reĠ":755,"ael":756,"byĠ":757,"bank":758,"ce":759,"cer":760,"call":761,"cap":762,"e:":763,"e.ĠtheĠ":764,"hear":765,"justĠ":766,"know":767,"mostĠ":768,"pa":769,"ug":770,"Ġ-":771,"Ġy":772,"Ġyear":773,"Ġthan":774,"Ġswe":775,"reg":776,"ingsĠ":777,"ans":778,".Ġh":779,".Ġyou":780,".ĠweĠ":781,"ĠandĠs":782,"forĠm":783,"Ġcount":784,"Ġmad":785,"edĠa":786,"edĠto":787,"Ġpr":788,"edĠfor":789,"urr":790,"experi":791,"eĠsoĠ":792,"ession":793,"ewarm":794,"ĠjustĠ":795,"ichael":796,"Ġatt":797,"iesĠof":798,"ĠtheseĠ":799,"ccess":800,"Ġappl":801,"ustralia":802,"ewarmingĠ":803,"'veĠ":804,";ĠandĠ":805,"bor":806,"bil":807,"center":808,"doĠ":809,"eek":810,"fin":811,"fun":812,"iec":813,"iĠhaveĠ":814,"noĠ":815,"nam":816,"ost":817,"pit":818,"s,ĠandĠ":819,"s.ĠtheĠ":820,"tion":821,"usĠ":822,"vis":823,"zy":824,"ĠaĠs":825,"ĠaĠb":826,"inu":827,"Ġther":828,"ĠthisĠa":829,"oup":830,"eral":831,"ort":832,"endĠ":833,"ities":834,"yĠinvit":835,"ing,Ġ":836,"ator":837,"atch":838,"ĠanĠ":839,"ark":840,"ofĠw":841,",Ġh":842,"ingĠin":843,"ingĠwith":844,"low":845,"look":846,"Ġmichael":847,"eck":848,"ecaus":849,"isĠb":850,"Ġpl":851,"Ġpeopl":852,"ĠtoĠbeĠ":853,"Ġdis":854,"ementĠ":855,"ĠyouthĠprogram":856,"âĢľ":857,"âĢĿ":858,"Ġtoo":859,"useĠ":860,"ational":861,"Ġoffic":862,"ideb":863,"need":864,"ular":865,"earn":866,"âĢĻtĠ":867,"hav":868,"grap":869,"eak":870,"Ġint":871,"const":872,"e.Ġi":873,"shop":874,"even":875,"ustic":876,"yĠofĠmeig":877,"Ġtrans":878,"edĠbyĠ":879,"housewarmingĠ":880,"ĠaboutĠyour":881,"Ġcomm":882,"poss":883,"Ġtenn":884,"ðŁĻĤ":885,"idebook":886,",ĠtheĠ":887,",Ġs":888,",Ġand":889,"aĠs":890,"aveĠ":891,"aĠf":892,"air":893,"bo":894,"beĠs":895,"but":896,"creat":897,"don":898,"dis":899,"dif":900,"eep":901,"fre":902,"ge":903,"gu":904,"great":905,"high":906,"help":907,"iqu":908,"ibl":909,"lat":910,"mask":911,"ner":912,"ograp":913,"ren":914,"ryĠ":915,"ract":916,"s!":917,"sp":918,"someĠ":919,"vent":920,"Ġqu":921,"ĠoneĠ":922,"eĠl":923,"eĠwith":924,"Ġac":925,"Ġapp":926,"intĠ":927,"tĠwith":928,"one":929,"ĠtheĠp":930,"yĠm":931,"ingĠandĠ":932,"Ġany":933,"thĠ":934,"chas":935,"ingĠl":936,"ĠmoreĠ":937,"Ġpain":938,"edĠwith":939,"Ġwork":940,"ĠwouldĠ":941,"Ġdin":942,"âĢĶ":943,"Ġtop":944,"play":945,"urchas":946,"ationĠof":947,"impl":948,"Ġaround":949,"earch":950,"âĢĻll":951,"ific":952,"eĠthisĠ":953,"ution":954,"proofĠw":955,"ĠlotĠof":956,"countyĠcour":957,"eason":958,"ĠtheĠsaidĠ":959,"ĠtheĠsameĠ":960,"pert":961,"ĠasĠwell":962,"Ġspecial":963,"event":964,"newĠyouthĠprogram":965,"riend":966,"Ġask":967,"oundproofĠw":968,"ffect":969,"Ġrhea":970,"Ġaddition":971,"indow":972,"diningĠroom":973,"partyĠinvit":974,"ĠhopeĠyou":975,"ĠsaidĠcounty":976,"everythingĠ":977,"ĠtwoĠ":978,"Ġcontinu":979,"irstĠ":980,"emplateĠ":981,"oundproofĠwindow":982,",Ġshall":983,".Ġst":984,".ĠthisĠ":985,"10":986,"88":987,"aw":988,"clos":989,"eer":990,"eam":991,"gl":992,"ger":993,"greatĠ":994,"ient":995,"ject":996,"land":997,"nâĢĻtĠ":998,"ober":999,"ock":1000,"phot":1001,"sit":1002,"tain":1003,"ub":1004,"uild":1005,"ww":1006,"wor":1007,"Ġro":1008,"Ġnew":1009,"ĠðŁĻĤ":1010,"eĠf":1011,"Ġtour":1012,"ĠaĠm":1013,"Ġthink":1014,"ĠthingsĠ":1015,"erv":1016,"onĠa":1017,"ĠtheĠn":1018,"ĠtheĠshoulder":1019,"rew":1020,"read":1021,"review":1022,"itsĠ":1023,"itâĢĻsĠ":1024,"atesĠ":1025,"atell":1026,"ativeĠ":1027,".Ġw":1028,".ĠifĠyou":1029,"iseĠ":1030,"ome":1031,"check":1032,"lov":1033,"edĠandĠ":1034,"Ġpar":1035,"Ġhous":1036,"Ġwas":1037,"Ġweek":1038,"ely":1039,"Ġdec":1040,"ett":1041,"ally":1042,"ureĠ":1043,"resh":1044,"mad":1045,"mayĠ":1046,"maint":1047,"unt":1048,"under":1049,"nex":1050,"excit":1051,"grandma":1052,"group":1053,"compl":1054,"ivateĠ":1055,"old":1056,"olor":1057,"eĠthatĠ":1058,"istr":1059,"Ġreg":1060,"qual":1061,"quire":1062,"Ġalask":1063,"Ġalso":1064,"ĠforĠtheĠ":1065,"Ġthey":1066,"Ġshar":1067,"akeĠ":1068,"ctor":1069,"ction":1070,"sĠofĠtheĠ":1071,"!ĠiĠloveĠ":1072,"Ġover":1073,"willĠbeĠ":1074,"Ġamand":1075,"commun":1076,"Ġexperi":1077,"christm":1078,"Ġwhich":1079,"ĠtimeĠ":1080,"Ġknow":1081,"Ġscout":1082,"ĠsoĠsorr":1083,"ĠcellsĠ":1084,"weekend":1085,"ranch":1086,"organiz":1087,"hasĠbeen":1088,"Ġapplication":1089,"housewarmingĠpartyĠinvit":1090,"!Ġh":1091,"'sĠa":1092,".Ġa":1093,"11":1094,"au":1095,"ach":1096,"bas":1097,"back":1098,"ces":1099,"cent":1100,"curr":1101,"dur":1102,"e-":1103,"eeĠ":1104,"e,ĠandĠ":1105,"fl":1106,"giv":1107,"ho":1108,"har":1109,"ian":1110,"ium":1111,"long":1112,"nor":1113,"nic":1114,"rightĠ":1115,"such":1116,"ures":1117,"won":1118,"yl":1119,"yn":1120,"Ġen":1121,"Ġout":1122,"ĠchristmasĠ":1123,"ĠâĢĵ":1124,"Ġeach":1125,"eĠisĠ":1126,"eĠglitter":1127,"Ġtouch":1128,"inter":1129,"Ġthen":1130,"Ġthough":1131,"sĠwith":1132,"eric":1133,"tĠb":1134,"tĠin":1135,"oreĠth":1136,"eneral":1137,"ret":1138,"ityĠof":1139,"ann":1140,"antĠ":1141,"ater":1142,"atingĠ":1143,"ated":1144,"oĠd":1145,",Ġm":1146,"youĠareĠ":1147,"ĠandĠm":1148,"thatĠ":1149,"ched":1150,"ingĠp":1151,"ingĠof":1152,"ingĠfor":1153,"location":1154,"ash":1155,"Ġcl":1156,"ectĠ":1157,"edĠtheĠ":1158,"edical":1159,"Ġper":1160,"Ġpat":1161,"Ġhom":1162,"Ġweb":1163,"eliz":1164,"str":1165,"Ġbab":1166,"Ġdi":1167,"Ġdon":1168,"etsĠ":1169,"ĠtoĠs":1170,"alleng":1171,"Ġfriend":1172,"Ġif":1173,"ĠiĠam":1174,"ays.Ġ":1175,"Ġget":1176,"Ġgreat":1177,"ide":1178,"withĠtheĠ":1179,"Ġstat":1180,"Ġstem":1181,"Ġstud":1182,"Ġstamp":1183,"âĢĻveĠ":1184,"âĢĻreĠ":1185,"eĠsp":1186,"opport":1187,"ĠinĠ":1188,"we'reĠ":1189,"istor":1190,"congressĠ":1191,"Ġalway":1192,"Ġlov":1193,"Ġlook":1194,"intoĠ":1195,"ĠshareĠ":1196,"Ġallow":1197,"ctober":1198,"umber":1199,"!ĠiâĢĻm":1200,"ageĠ":1201,"river":1202,"ĠhaveĠa":1203,"ĠcongressĠ":1204,"Ġonlin":1205,"clud":1206,"clean":1207,"eĠbot":1208,"Ġass":1209,"avail":1210,"ityĠtoĠ":1211,"edĠbyĠtheĠ":1212,"prett":1213,"post":1214,".ĠsectionĠ":1215,"ĠseeĠ":1216,"yĠtoĠhear":1217,"ĠaĠlit":1218,"month":1219,".ĠbeĠitĠenacted,Ġthat":1220,"ĠaboutĠyourĠgr":1221,"differ":1222,"until":1223,"nextĠ":1224,"christmas":1225,"chedul":1226,"opportun":1227,"!ĠweĠ":1228,".\"":1229,"18":1230,"40":1231,"aff":1232,"ba":1233,"by":1234,"becaus":1235,"cell":1236,"caus":1237,"dr":1238,"d.Ġ":1239,"des":1240,"def":1241,"down":1242,"drew":1243,"eightĠ":1244,"far":1245,"fast":1246,"full":1247,"fresh":1248,"gin":1249,"gre":1250,"grow":1251,"hal":1252,"has":1253,"hisĠ":1254,"ior":1255,"ietĠ":1256,"iĠam":1257,"iousĠ":1258,"just":1259,"leĠ":1260,"lam":1261,"lastĠ":1262,"me":1263,"mer":1264,"mium":1265,"nes":1266,"ness":1267,"olog":1268,"ph":1269,"pay":1270,"pect":1271,"purchas":1272,"rit":1273,"ris":1274,"run":1275,"sc":1276,"se":1277,"sĠtheĠ":1278,"sid":1279,"sideĠ":1280,"season":1281,"ueĠ":1282,"uff":1283,"ven":1284,"y'sĠ":1285,"ystem":1286,"Ġ...":1287,"eĠcon":1288,"Ġteam":1289,"ĠaĠc":1290,"ins":1291,"ineĠbot":1292,"enanceĠ":1293,"ĠtheĠpro":1294,"Ġsit":1295,"ĠsomeĠ":1296,"ĠsectionĠ":1297,"reas":1298,"reak":1299,"itch":1300,"yĠb":1301,"ingĠtabl":1302,"atur":1303,"alys":1304,"aren":1305,"aryĠ":1306,"ofession":1307,",Ġyou":1308,"es.":1309,"esomeĠ":1310,"isher":1311,"oment":1312,"chair":1313,"ingĠher":1314,"lop":1315,"lot":1316,"Ġcor":1317,"ecur":1318,"edĠforĠtheĠ":1319,"ĠwasĠ":1320,"Ġwant":1321,"eliver":1322,"ĠbutĠ":1323,"email":1324,"etter":1325,"esĠfre":1326,"ourne":1327,"Ġfin":1328,"uryĠ":1329,"eĠtemplateĠ":1330,"idea":1331,"ress":1332,"irst":1333,"hadĠ":1334,"tern":1335,"grand":1336,"comp":1337,"ospit":1338,"ĠinĠtheĠ":1339,"ĠandĠt":1340,"Ġreview":1341,"ableĠto":1342,"fron":1343,"whatĠ":1344,"whereĠ":1345,"which":1346,"congres":1347,"outĠgroup":1348,"ĠsheĠ":1349,"Ġshoulder":1350,"pric":1351,"Ġabout":1352,"Ġspac":1353,"eve":1354,"cord":1355,"ustom":1356,"ĠwithĠyou":1357,"willĠb":1358,"blem":1359,"Ġwhen":1360,"door":1361,"edĠby":1362,"duct":1363,"makesĠ":1364,"ableĠfor":1365,"day,Ġ":1366,"inkfresh":1367,"hotel":1368,"anceĠof":1369,"shallĠb":1370,"however":1371,"pool":1372,"cordĠbloodĠbank":1373,"!ĠthankĠyouĠsoĠmuch":1374,"erson":1375,"success":1376,"happyĠ":1377,"ealth":1378,"atehous":1379,",Ġwhich":1380,"yĠwineĠbot":1381,"printabl":1382,"calledĠ":1383,"ĠsweetĠ":1384,"experienc":1385,"nament":1386,"visit":1387,"zydec":1388,"Ġthere":1389,"ĠthisĠact":1390,"Ġtoo!":1391,"Ġcommun":1392,"beĠsur":1393,"gether":1394,"masksĠ":1395,"ograph":1396,"atellit":1397,"ĠpartĠof":1398,"istration":1399,"Ġamanda":1400,"oreĠthan":1401,"yĠtoĠhearĠaboutĠyourĠgr":1402,"drewĠmichael":1403,"esĠfreeĠtemplateĠ":1404,"ospital":1405,"inkfreshĠstud":1406,"!Ġyour":1407,"'t":1408,",\"":1409,"-up":1410,"19":1411,"100":1412,";Ġth":1413,";Ġand":1414,"af":1415,"ah":1416,"br":1417,"bin":1418,"bod":1419,"car":1420,"cand":1421,"dic":1422,"dedĠ":1423,"ethĠ":1424,"fect":1425,"famil":1426,"firstĠ":1427,"getĠ":1428,"goodĠ":1429,"general":1430,"gatehous":1431,"health":1432,"ix":1433,"iÃ":1434,"iat":1435,"ibil":1436,"jam":1437,"lif":1438,"lea":1439,"mal":1440,"mall":1441,"mother":1442,"match":1443,"non":1444,"n'tĠ":1445,"osĠ":1446,"oĠtheĠ":1447,"oveĠ":1448,"oint":1449,"pin":1450,"pec":1451,"putĠ":1452,"piec":1453,"rustic":1454,"son":1455,"sel":1456,"s!Ġi":1457,"section":1458,"seat":1459,"seyĠ":1460,"scap":1461,"ty":1462,"t,Ġ":1463,"ubl":1464,"ucation":1465,"vail":1466,"w.":1467,"wn":1468,"wayĠ":1469,"wereĠ":1470,"yĠst":1471,"³n":1472,"Ġ$":1473,"Ġel":1474,"ĠnotĠ":1475,"ĠveryĠ":1476,"eĠand":1477,"ĠtreeĠ":1478,"ĠaĠlo":1479,"Ġact":1480,"inĠtheĠs":1481,"includ":1482,"sĠ&":1483,"sĠon":1484,"sĠover":1485,"outh":1486,"erĠm":1487,"erĠl":1488,"ond":1489,"ondĠ":1490,"onor":1491,"orsĠin":1492,"enef":1493,"Ġset":1494,"Ġsuper":1495,"releas":1496,"it'sĠ":1497,"itution":1498,"ingĠto":1499,"ingĠthisĠ":1500,"ingĠall":1501,"ingĠtheir":1502,"ansĠ":1503,"antl":1504,"Ġang":1505,"Ġanalys":1506,"alk":1507,"alway":1508,".Ġ\"":1509,".Ġour":1510,".ĠitĠ":1511,".ĠmyĠ":1512,"ofĠc":1513,",Ġd":1514,"esĠa":1515,"es,Ġ":1516,"isĠtheĠ":1517,"ision":1518,"ister":1519,"thor":1520,"llar":1521,"ingĠm":1522,"ingĠon":1523,"ingĠitĠ":1524,"Ġcoun":1525,"Ġmar":1526,"Ġmember":1527,"ecess":1528,"ecolog":1529,"icĠs":1530,"education":1531,"isĠs":1532,"Ġphot":1533,"Ġpart":1534,"Ġport":1535,"edĠup":1536,"Ġhas":1537,"Ġhistor":1538,"ĠtoĠm":1539,"elgr":1540,"elcom":1541,"star":1542,"stamp":1543,"stock":1544,"Ġbuild":1545,"ental":1546,"Ġdr":1547,"Ġdes":1548,"embl":1549,"Ġtoday":1550,"ilit":1551,"usin":1552,"Ġfun":1553,"Ġid":1554,"ay,Ġ":1555,"abethĠ":1556,"Ġglam":1557,"result":1558,"import":1559,"maz":1560,"mail":1561,"ultĠ":1562,"ĠaroundĠ":1563,"Ġstar":1564,"andmother":1565,"groundĠ":1566,"ive,Ġ":1567,"uteĠ":1568,"project":1569,"product":1570,"Ġinter":1571,"ĠthisĠisĠ":1572,"whit":1573,"ĠthatĠi":1574,"beĠa":1575,"quick":1576,"endedĠ":1577,"ĠfortĠb":1578,"aper":1579,"yourĠf":1580,"easelgr":1581,"Ġhav":1582,"derful":1583,"tĠofĠmeig":1584,"ould":1585,"oneĠof":1586,"befor":1587,"eventĠ":1588,"partĠof":1589,"rip":1590,"corpor":1591,"sĠinĠfortĠb":1592,"yĠofĠtheĠ":1593,"Ġoctober":1594,"weĠhaveĠ":1595,"soĠmuch":1596,".ĠiĠloveĠ":1597,"Ġtrack":1598,"ĠtheirĠs":1599,"blood":1600,"does":1601,"Ġnot":1602,"littleĠ":1603,"ity,Ġ":1604,"ence.Ġ":1605,"itional":1606,"ĠthankĠyouĠsoĠmuch":1607,"ĠscoutĠgroup":1608,"entertain":1609,"provid":1610,"provideĠ":1611,"partic":1612,"Ġchild":1613,"Ġchalleng":1614,"ĠsaidĠcountyĠofĠmeig":1615,"ciateĠ":1616,"canĠbeĠ":1617,"rug":1618,"rang":1619,"astĠf":1620,"commissionersĠ":1621,"manag":1622,"Ġresearch":1623,"Ġupd":1624,"courtĠ":1625,"present":1626,"ĠtheĠcountyĠcour":1627,"blogĠfriend":1628,"createĠ":1629,"cardstock":1630,"feel":1631,"ollow":1632,"Ġpremium":1633,"collection":1634,"Ġagain":1635,"ĠhappyĠ":1636,"Ġguidebook":1637,".ĠbeĠitĠenacted,ĠthatĠ":1638,"Ġyork":1639,"Ġsweet":1640,"ĠcountyĠ":1641,"experienceĠ":1642,"Ġattract":1643,";ĠandĠshall":1644,"Ġdiseas":1645,"havingĠa":1646,"ĠintoĠ":1647,"guidebook":1648,"latenc":1649,"ĠdiningĠroom":1650,"oundproofĠwindowsĠinĠfortĠb":1651,"photoĠ":1652,"ĠtheĠshoulderĠjo":1653,".ĠifĠyouĠareĠ":1654,"Ġdecor":1655,"complet":1656,"Ġalaska":1657,"housewarmingĠpartyĠinvitesĠfreeĠtemplateĠ":1658,"elizabethĠ":1659,"Ġbaby'sĠ":1660,"Ġassembl":1661,"ĠaĠlittleĠ":1662,"differentĠ":1663,"ofessional":1664,"esomeĠreview":1665,"evelop":1666,"successorsĠin":1667,"istrationĠguidebook":1668,";ĠthenceĠ":1669,"iÃ³n":1670,"easelgraveĠ":1671,"oundproofĠwindowsĠinĠfortĠbranch":1672,"elizabethĠell":1673,"successorsĠinĠoffic":1674,"!Ġw":1675,"!ĠsoĠ":1676,"!ĠhopeĠyou":1677,"'ll":1678,"'har":1679,",Ġtoo!":1680,"-t":1681,"-and":1682,".ĠandĠ":1683,"15":1684,"21":1685,"30":1686,"66":1687,"ax":1688,"are":1689,"aĠb":1690,"aid":1691,"aint":1692,"ball":1693,"bur":1694,"beĠt":1695,"big":1696,"best":1697,"break":1698,"ctĠ":1699,"cel":1700,"cus":1701,"cmin":1702,"dut":1703,"doneĠ":1704,"dies":1705,"develop":1706,"fa":1707,"fĠof":1708,"feat":1709,"freeĠ":1710,"flu":1711,"fisher":1712,"first":1713,"gn":1714,"gment":1715,"gorg":1716,"gĠpeopl":1717,"hsĠ":1718,"ioĠ":1719,"iber":1720,"iĠloveĠ":1721,"iallyĠ":1722,"iĠwouldĠ":1723,"jor":1724,"keep":1725,"laidĠ":1726,"lack":1727,"light":1728,"learn":1729,"met":1730,"mark":1731,"nect":1732,"national":1733,"ngĠpeopl":1734,"odĠ":1735,"oic":1736,"ps":1737,"pat":1738,"pingĠ":1739,"pop":1740,"peopl":1741,"ric":1742,"rul":1743,"seĠ":1744,"sĠt":1745,"som":1746,"sol":1747,"sup":1748,"se,Ġ":1749,"sĠandĠtheĠ":1750,"sĠaround":1751,"secur":1752,"ting":1753,"toĠ":1754,"tra":1755,"tator":1756,"uk":1757,"uil":1758,"uthor":1759,"val":1760,"vid":1761,"vol":1762,"wa":1763,"wer":1764,"wat":1765,"wouldĠ":1766,"woodĠ":1767,"wood":1768,"yet":1769,"Ġ&":1770,"Ġ:":1771,"Ġe":1772,"ĠisĠa":1773,"eĠyour":1774,"eĠisĠa":1775,"eĠasĠ":1776,"Ġtu":1777,"Ġter":1778,"Ġtall":1779,"ĠtableĠ":1780,"Ġturn":1781,"ĠaĠ":1782,"ĠaĠh":1783,"ĠasĠa":1784,"Ġapart":1785,"Ġaccess":1786,"Ġaustralia":1787,"Ġamaz":1788,"init":1789,"inĠf":1790,"inceĠ":1791,"sĠh":1792,"sĠp":1793,"sĠs":1794,"sĠfromĠtheĠ":1795,"erryĠ":1796,"dĠofĠtheĠ":1797,"tĠd":1798,"onth":1799,"only":1800,"orsĠ":1801,"ories":1802,"enĠin":1803,"ĠtheĠam":1804,"Ġsup":1805,"ĠsetĠ":1806,"Ġsign":1807,"rem":1808,"redĠ":1809,"requ":1810,"reallyĠ":1811,"itl":1812,"itedĠ":1813,"itĠall":1814,"ing.":1815,"ingĠtoĠtheĠ":1816,"atel":1817,"Ġann":1818,"Ġanother":1819,".Ġb":1820,".Ġf":1821,".Ġit":1822,".ĠyouĠcan":1823,"off":1824,",Ġre":1825,",Ġwith":1826,",ĠyouĠcan":1827,",Ġuntil":1828,"esĠareĠ":1829,"espec":1830,"istĠ":1831,"istĠof":1832,"youĠhaveĠ":1833,"you'reĠ":1834,"ĠandĠi":1835,"th,Ġ":1836,"thos":1837,"charg":1838,"ingĠyour":1839,"ingĠfrom":1840,"fort":1841,"loc":1842,"load":1843,"ason":1844,"Ġcre":1845,"Ġcoll":1846,"Ġcolor":1847,"Ġman":1848,"Ġmill":1849,"Ġmak":1850,"ĠmayĠ":1851,"ecos":1852,"icĠin":1853,"icientĠ":1854,"edd":1855,"edg":1856,"edic":1857,"edĠat":1858,"isĠnotĠ":1859,"Ġpal":1860,"Ġpass":1861,"edĠwhen":1862,"ĠhisĠ":1863,"Ġhad":1864,"ĠhereĠ":1865,"Ġhelp":1866,"Ġhonor":1867,"rock":1868,"ĠtoĠpre":1869,"elect":1870,"election":1871,"stat":1872,"styl":1873,"Ġby":1874,"Ġbot":1875,"Ġback":1876,"ĠbyĠtheĠ":1877,"Ġblog":1878,"ential":1879,"ently":1880,"Ġde":1881,"Ġdid":1882,"ampl":1883,"emon":1884,"et.":1885,"etwe":1886,"very":1887,"esĠon":1888,"esĠwith":1889,"ilver":1890,"uscl":1891,"Ġfan":1892,"Ġfast":1893,"Ġim":1894,"aysĠtheĠ":1895,"ationĠt":1896,"eĠtw":1897,"eĠtour":1898,"ĠofĠ":1899,"ower":1900,"Ġgo":1901,"Ġgot":1902,"ĠgetĠ":1903,"ĠgoodĠ":1904,"Ġgrow":1905,"identĠ":1906,"never":1907,"irth":1908,"Ġart":1909,"Ġstr":1910,"Ġstand":1911,"Ġstill":1912,"Ġstep":1913,"expl":1914,"earlyĠ":1915,"had":1916,"grav":1917,"ground":1918,"Ġlea":1919,"Ġlik":1920,"Ġlink":1921,"ivid":1922,"ivity":1923,"ivelyĠ":1924,"oldĠ":1925,"oper":1926,"eĠtheĠs":1927,"eĠtheĠd":1928,"eĠthrough":1929,"eĠtheyĠ":1930,"utur":1931,"proc":1932,"problem":1933,"Ġinformation":1934,"ĠthisĠc":1935,"ĠthisĠyear":1936,"ĠthisĠweek":1937,"itĠisĠ":1938,"Ġrel":1939,"Ġrep":1940,"ĠreallyĠ":1941,"Ġrecent":1942,"Ġreason":1943,"whoĠ":1944,"whil":1945,"ĠthatĠisĠ":1946,"aditional":1947,"quiteĠ":1948,"quietĠ":1949,"condition":1950,"concer":1951,"e.ĠyouĠcan":1952,"Ġalco":1953,"shouldĠ":1954,"yourĠhomeĠ":1955,"sĠat":1956,"sĠaustralia":1957,"ĠshouldĠ":1958,"prom":1959,"priv":1960,"ĠtheĠsp":1961,"s.Ġi":1962,"essĠthan":1963,"perfect":1964,"uman":1965,"umĠof":1966,"ĠasĠyou":1967,"begin":1968,"Ġsport":1969,"ĠsoĠexcit":1970,"park":1971,"newĠyork":1972,"ribut":1973,"eĠman":1974,"estion":1975,"actor":1976,"ept":1977,"reatment":1978,"yĠcan":1979,"yĠcard":1980,"weĠareĠ":1981,"ĠonĠtheĠ":1982,"commend":1983,"Ġexcit":1984,"doctor":1985,"dollar":1986,"ĠnoĠ":1987,"avor":1988,"littl":1989,"iesĠin":1990,"Ġkeep":1991,"Ġmean":1992,"overn":1993,"Ġadv":1994,"cordĠblood":1995,"portal":1996,"ĠatĠleas":1997,"workshop":1998,"ĠaĠpr":1999,"Ġthemsel":2000,"edĠtoĠbeĠ":2001,"makeĠ":2002,"makingĠ":2003,"udgment":2004,"estĠqual":2005,"ensation":2006,"odg":2007,"Ġcompl":2008,"placeĠtoĠ":2009,"000":2010,"gov":2011,"goingĠtoĠ":2012,"gettingĠ":2013,"irect":2014,"raf":2015,"ĠitâĢĻsĠ":2016,"ĠthereĠis":2017,"loveĠtheĠ":2018,"ruct":2019,"rans":2020,"ĠwillĠbeĠ":2021,"court":2022,"logical":2023,"friendly":2024,"Ġvide":2025,"ĠneedĠtoĠ":2026,"ĠaĠfew":2027,"ĠthoseĠ":2028,"blogĠhop":2029,"storedĠ":2030,"ementation":2031,"irstĠof":2032,"collect":2033,"iological":2034,"ientĠportal":2035,"ercis":2036,"ĠtheĠtim":2037,"stemĠcellsĠ":2038,"Ġguy":2039,"expect":2040,",ĠbutĠi":2041,"commissioners,":2042,"ceiv":2043,"paint":2044,"ugal":2045,"Ġ--":2046,"ĠjustĠloveĠ":2047,"iesĠofĠrhea":2048,"born":2049,"constru":2050,"constitution":2051,"possibil":2052,"diseas":2053,"iqueĠ":2054,"Ġappre":2055,"Ġappoint":2056,"oney":2057,"Ġworkshop":2058,"ĠasĠwellĠasĠ":2059,"oundproofĠwindowĠguy":2060,"888":2061,"www.":2062,"worl":2063,"mayĠbeĠ":2064,"maintenanceĠ":2065,"ĠtheyĠareĠ":2066,"communityĠ":2067,"Ġexperienc":2068,"ĠscoutsĠaustralia":2069,"ĠsoĠsorryĠtoĠhearĠaboutĠyourĠgr":2070,"113":2071,"augh":2072,"currentĠ":2073,"eeĠriver":2074,"flor":2075,"normal":2076,"wonderful":2077,"ĠchristmasĠdecor":2078,"Ġwebsit":2079,"ays.Ġ\"":2080,"ĠstemĠcell":2081,"âĢĻreĠhavingĠa":2082,"eĠspecial":2083,"ĠalwaysĠ":2084,"ĠonlineĠ":2085,"definit":2086,"green":2087,"payableĠto":2088,"itchen":2089,"ĠfindĠ":2090,"frontĠ":2091,"ĠshoulderĠpain":2092,"yĠwineĠbottleĠ":2093,"zydecoĠd":2094,"inkfreshĠstudio":2095,"seyĠhous":2096,"outhĠof":2097,"Ġangel":2098,"Ġportugal":2099,"Ġbuilding":2100,"usiness":2101,"endedĠconstitution":2102,"commissionersĠshall":2103,"easelgraveĠs":2104,"oundproofĠwindowsĠinĠfortĠbranch,Ġin":2105,"'haraĠs":2106,"669":2107,"cminn":2108,"gorge":2109,"hsĠcordĠbloodĠbank":2110,"Ġmillion":2111,"ecosystem":2112,"etween":2113,"gravatedĠ":2114,"ĠrecentlyĠ":2115,"concern":2116,"Ġalcohol":2117,"Ġthemselv":2118,"ĠsoĠsorryĠtoĠhearĠaboutĠyourĠgrandma":2119,"!Ġyou":2120,"!ĠloveĠ":2121,"!Ġhapp":2122,"&b":2123,"'m":2124,",Ġto":2125,",ĠthatĠ":2126,",ĠsoĠ":2127,",ĠandĠtheĠ":2128,",Ġamanda":2129,"-s":2130,"-lik":2131,".ĠsoĠ":2132,".gov":2133,"/or":2134,"12":2135,"14":2136,"24":2137,"26":2138,"60":2139,";Ġwhich":2140,";ĠbutĠ":2141,"aa":2142,"az":2143,"adĠ":2144,"aĠc":2145,"aĠm":2146,"aem":2147,"aur":2148,"aĠn":2149,"b&b":2150,"ced":2151,"cir":2152,"cut":2153,"cean":2154,"crip":2155,"cidentĠ":2156,"de":2157,"di":2158,"dom":2159,"dam":2160,"dist":2161,"dleĠ":2162,"deliver":2163,"direct":2164,"daugh":2165,"ey":2166,"e'sĠ":2167,"ees.Ġ":2168,"fo":2169,"fed":2170,"fill":2171,"fiveĠ":2172,"follow":2173,"favor":2174,"gyĠ":2175,"goĠ":2176,"gar":2177,"got":2178,"good":2179,"gold":2180,"govern":2181,"he":2182,"hi":2183,"hereĠ":2184,"hind":2185,"hospital":2186,"iam":2187,"ious":2188,"iev":2189,"journe":2190,"kin":2191,"kitchen":2192,"lef":2193,"lier":2194,"mo":2195,"my":2196,"meo":2197,"mod":2198,"mission":2199,"mean":2200,"mov":2201,"moreĠthan":2202,"number":2203,"nba":2204,"n't":2205,"nhsĠcordĠbloodĠbank":2206,"ob":2207,"opl":2208,"oid":2209,"pol":2210,"pain":2211,"qâĢĻsĠ":2212,"ry":2213,"rat":2214,"rapp":2215,"s:":2216,"sĠar":2217,"sult":2218,"sci":2219,"te":2220,"tsĠof":2221,"tures":2222,"ual":2223,"vir":2224,"win":2225,"wim":2226,"want":2227,"westĠ":2228,"wish":2229,"wiseĠ":2230,"xim":2231,"y.":2232,"ych":2233,"yetĠ":2234,"yĠaboutĠ":2235,"y-and":2236,"yopl":2237,"zen":2238,"Ġun":2239,"Ġno":2240,"Ġroom":2241,"Ġopen":2242,"ĠâĢľ":2243,"Ġeven":2244,"ĠâĢĶ":2245,"ĠeverythingĠ":2246,"Ġchristmas":2247,"ĠearlyĠ":2248,"eĠar":2249,"eĠour":2250,"eĠforĠtheĠ":2251,"Ġton":2252,"Ġtax":2253,"Ġaw":2254,"ĠaĠth":2255,"ĠaĠw":2256,"ĠaĠgreatĠ":2257,"Ġaffect":2258,"ĠaĠnew":2259,"in-":2260,"inn":2261,"inĠour":2262,"information":2263,"inĠthisĠa":2264,"sĠb":2265,"sĠor":2266,"sĠus":2267,"sĠso":2268,"sĠcan":2269,"erĠs":2270,"ers,Ġ":2271,"er,ĠandĠ":2272,"dĠbloodĠ":2273,"tĠp":2274,"tĠco":2275,"onĠs":2276,"onĠc":2277,"onment":2278,"onlyĠ":2279,"onlin":2280,"orm":2281,"ordin":2282,"ornament":2283,"enities":2284,"ĠtheĠch":2285,"ĠtheĠnew":2286,"ĠtheĠcommissioner":2287,"Ġser":2288,"Ġspr":2289,"Ġsever":2290,"Ġseat":2291,"Ġsimpl":2292,"Ġseason":2293,"Ġsatellit":2294,"red":2295,"rel":2296,"real":2297,"rest":2298,"recongressĠ":2299,"recommend":2300,"itĠa":2301,"iteĠd":2302,"yĠis":2303,"yĠfor":2304,"yĠhaveĠ":2305,"ing?":2306,"ingerĠl":2307,"ang":2308,"ating":2309,"ates":2310,"ataĠs":2311,"alĠd":2312,"alask":2313,"alĠinformation":2314,".Ġj":2315,".Ġin":2316,".ĠoneĠ":2317,".ĠphotoĠ":2318,"ari":2319,"aril":2320,"arter":2321,"ofĠ":2322,"offer":2323,"offic":2324,"offe":2325,",Ġres":2326,",Ġno":2327,",ĠmoreĠ":2328,",Ġnot":2329,"es,":2330,"is,":2331,"ism":2332,"isĠall":2333,"youngĠpeopl":2334,"ĠandĠb":2335,"then":2336,"theĠs":2337,"thyopl":2338,"cher":2339,"cheer":2340,"ingĠb":2341,"forĠp":2342,"forĠtheir":2343,"Ġcer":2344,"Ġcreat":2345,"Ġcurr":2346,"Ġcuff":2347,"Ġcoffe":2348,"Ġmy":2349,"Ġmet":2350,"Ġmid":2351,"ĠmoreĠthan":2352,"Ġmuscl":2353,"ecific":2354,"econd":2355,"icĠf":2356,"icallyĠ":2357,"ically":2358,"icĠbuilding":2359,"edĠthatĠ":2360,"edĠas":2361,"edback":2362,"isĠon":2363,"Ġph":2364,"Ġpo":2365,"Ġpay":2366,"Ġpres":2367,"Ġpurchas":2368,"Ġpower":2369,"edĠs":2370,"edĠof":2371,"edĠout":2372,"edĠcell":2373,"Ġher":2374,"Ġhour":2375,"Ġhim":2376,"Ġhea":2377,"ĠheightĠ":2378,"Ġhospital":2379,"Ġwood":2380,"Ġwelcom":2381,"ros":2382,"rodu":2383,"rozen":2384,"elb":2385,"elf":2386,"elyĠandĠ":2387,"st,Ġ":2388,"stateĠ":2389,"state":2390,"staff":2391,"Ġbo":2392,"Ġbeautiful":2393,"Ġblack":2394,"ention":2395,"entim":2396,"Ġdel":2397,"Ġdur":2398,"ĠdayĠ":2399,"Ġdeat":2400,"amag":2401,"emic":2402,"empor":2403,"ĠyouĠus":2404,"âĢĺ":2405,"atĠof":2406,"ĠtooĠ":2407,"ĠtoĠtheĠs":2408,"ĠtoĠsp":2409,"Ġtook":2410,"Ġtown":2411,"allicĠs":2412,"plin":2413,"plies":2414,"plant":2415,"esĠ(":2416,"esĠin":2417,"esĠwill":2418,"ourĠ":2419,"ourĠc":2420,"ildĠ":2421,"us,":2422,"Ġfe":2423,"Ġfre":2424,"Ġfour":2425,"Ġfind":2426,"ĠfingerĠl":2427,"ĠiĠwant":2428,"urs":2429,"aceĠ":2430,"ationsĠ":2431,"ation.Ġ":2432,"eĠtim":2433,"eĠtop":2434,"eĠtak":2435,"eĠtouch":2436,"ĠofĠc":2437,"ĠofĠyour":2438,"Ġoffer":2439,"ĠofĠsaidĠcounty":2440,"abil":2441,"aboutĠ":2442,"about":2443,"Ġglitter":2444,"idayĠ":2445,"iday,Ġ":2446,"idemic":2447,"restĠof":2448,"imat":2449,"major":2450,"ung":2451,"uneĠ":2452,"near":2453,"neigh":2454,"ulation":2455,"Ġarrang":2456,"Ġstor":2457,"Ġstress":2458,"Ġstruct":2459,"andsĠof":2460,"ear,Ġ":2461,"eĠseat":2462,"ifĠi":2463,"ification":2464,"terĠheightĠ":2465,"grandĠ":2466,"comingĠ":2467,"compos":2468,"combin":2469,"Ġlin":2470,"Ġlit":2471,"Ġland":2472,"Ġliv":2473,"olv":2474,"opha":2475,"opeĠyou":2476,"option":2477,"eĠther":2478,"eĠthes":2479,"eĠtheĠt":2480,"eĠtheĠb":2481,"entĠof":2482,"ostĠof":2483,"utopha":2484,"proveĠ":2485,"program":2486,"propert":2487,"proxim":2488,"ĠinĠm":2489,"otential":2490,"weet":2491,"ĠthisĠisĠa":2492,"ĠthisĠplac":2493,"ĠthisĠmonth":2494,"ĠthisĠstate":2495,"itĠof":2496,"ĠandĠall":2497,"ĠandĠad":2498,"ĠandĠthen":2499,"Ġret":2500,"Ġreleas":2501,"Ġrequire":2502,"Ġrepresent":2503,"ableĠtoĠ":2504,"friday,Ġ":2505,"wher":2506,"ĠthatĠw":2507,"beĠmail":2508,"adv":2509,"adies":2510,"advent":2511,"addedĠ":2512,"quarter":2513,"consid":2514,"Ġalong":2515,"ĠalmostĠ":2516,"Ġalread":2517,"sheĠ":2518,"ship":2519,"ĠforĠ":2520,"ĠforĠm":2521,"ĠforĠshar":2522,"Ġlos":2523,"Ġlocal":2524,"apan":2525,"apersĠ":2526,"outĠmyĠ":2527,"yourĠbaby'sĠ":2528,"s,Ġfor":2529,"s,Ġworkshop":2530,"ĠtheyĠcan":2531,"e,Ġwhich":2532,"into":2533,"introdu":2534,"sĠatĠ":2535,"Ġshow":2536,"aker":2537,"akesĠ":2538,"easy":2539,"eastĠ":2540,"privateĠ":2541,"prior":2542,"professional":2543,"ĠallĠyour":2544,"idĠwat":2545,"ĠtheĠsam":2546,"s.ĠifĠyou":2547,"ĠhadĠ":2548,"oneĠandĠ":2549,"ankton":2550,"perform":2551,"person":2552,"ump":2553,"umbil":2554,"Ġjudgment":2555,"Ġjapan":2556,"beingĠ":2557,"ĠyourĠf":2558,"ĠyourĠgr":2559,"Ġabsol":2560,"Ġspect":2561,"Ġspot":2562,"Ġspecific":2563,"!ĠiĠam":2564,"noaa":2565,"cod":2566,"cost":2567,"cozy":2568,"eĠdo":2569,"eĠdin":2570,"isĠaustralia":2571,"yearĠi":2572,"sĠinĠportugal":2573,"yĠoffer":2574,"yĠofĠrhea":2575,"fromĠ":2576,"everyĠ":2577,"Ġo'haraĠs":2578,"estim":2579,"ĠwithoutĠ":2580,"epend":2581,"epidemic":2582,"ies,Ġ":2583,"here!":2584,"willĠhaveĠ":2585,"willĠcontinu":2586,"Ġameric":2587,"Ġcongres":2588,"e.ĠandĠ":2589,"ialĠsweet":2590,"s,Ġsp":2591,"s,ĠandĠtheĠ":2592,"iveĠth":2593,"viousĠ":2594,"Ġprovid":2595,"Ġexampl":2596,"ĠtrueĠ":2597,"ĠasĠtheyĠ":2598,"Ġwhat":2599,"ĠwhoĠ":2600,"Ġwhil":2601,"Ġnumber":2602,"ĠtimeĠto":2603,"iesĠsci":2604,"ffy-and":2605,"myĠgrandma":2606,"mentĠandĠ":2607,"Ġrustic":2608,"Ġmeet":2609,"ebr":2610,"s.ĠthereĠ":2611,"s.ĠsectionĠ":2612,"sĠtoĠbeĠ":2613,",Ġbut":2614,"icalĠcor":2615,"duffy-and":2616,"workingĠwith":2617,"ĠaĠpre":2618,"ĠaĠpat":2619,"enceĠcenter":2620,"ĠofĠtheĠcountyĠcour":2621,"ĠofĠtheĠnewĠyouthĠprogram":2622,"christmasĠinĠportugal":2623,"aĠnew":2624,"aĠâĢĵ":2625,"aĠevent":2626,"ensur":2627,"ensiveĠ":2628,"e,ĠasĠ":2629,"diningĠtabl":2630,"esĠandĠsuccessorsĠinĠoffic":2631,"goingĠ":2632,"iredĠ":2633,"poor":2634,"rais":2635,"ĠtakeĠa":2636,"Ġgrac":2637,"owner":2638,"ownload":2639,"cordĠbloodĠcollection":2640,"ciplin":2641,"Ġapprov":2642,"ityĠfor":2643,"ĠitĠcom":2644,"ĠtheyĠdoĠ":2645,"manyĠ":2646,"ĠseeĠtheĠ":2647,"citiz":2648,"cours":2649,"hold":2650,"law":2651,"presentĠ":2652,"ĠaĠlarg":2653,"ĠdoesĠ":2654,"contain":2655,"contribut":2656,"friendlyĠ":2657,"ĠisĠan":2658,"ĠthoseĠglitter":2659,"engag":2660,"ĠtheĠcountyĠofĠmeig":2661,"emberĠ":2662,"eachĠb":2663,"shoulderĠpain":2664,"ivers":2665,"mentĠof":2666,"note:":2667,"sĠthatĠi":2668,"tenness":2669,"ysical":2670,"ateg":2671,"ĠanyĠother":2672,"ðŁĻģ":2673,"homeĠtour":2674,"ĠaggravatedĠ":2675,"ercial":2676,"ercolor":2677,"ĠsuchĠasĠ":2678,"Ġbehind":2679,"expend":2680,"expens":2681,"printableĠ":2682,"enjoyedĠ":2683,"enjoysĠa":2684,"byĠd":2685,"e:Ġ":2686,"Ġyes":2687,"registrationĠguidebook":2688,".Ġhi":2689,".ĠweĠhaveĠ":2690,"ĠcountiesĠin":2691,"Ġpric":2692,"eĠsoĠconstru":2693,"'veĠbeen":2694,"'veĠcreat":2695,"ĠaĠbig":2696,"Ġtherap":2697,"ĠmichaelĠk":2698,"isĠbeautiful":2699,"earning":2700,"eakers":2701,"possibl":2702,"ĠtennisĠaustralia":2703,"aĠfew":2704,"box":2705,"helpful":2706,"iquidĠwat":2707,"ibleĠ":2708,"ographer":2709,"vention":2710,"Ġtopic":2711,"implementation":2712,"âĢĻllĠseeĠ":2713,"ificialĠsweet":2714,"ĠlotĠofĠm":2715,"countyĠcourt":2716,"ĠtheĠsaidĠcount":2717,"ĠtheĠsaidĠcommissionersĠshall":2718,",ĠshallĠbeĠ":2719,".Ġstill":2720,"awesomeĠreview":2721,"landscap":2722,"word":2723,"ĠðŁĻĤĠhopeĠyou":2724,"omeoneĠ":2725,"lovely":2726,"Ġhouse.Ġ":2727,"etti":2728,"ureĠbegin":2729,"quiredĠ":2730,"ĠalsoĠtheĠ":2731,"ĠforĠtheĠawesomeĠreview":2732,"ĠexperienceĠ":2733,"organizm":2734,"basedĠ":2735,"duringĠtheĠ":2736,"given":2737,"ĠthoughtĠ":2738,"retch":2739,"aterial":2740,"youĠareĠenjoy":2741,"ingĠpaper":2742,"Ġclass":2743,"Ġperform":2744,"ĠdieĠs":2745,"Ġdon'tĠ":2746,"ĠifĠyou":2747,"ĠinĠearning":2748,"ĠlovelyĠ":2749,"availableĠfor":2750,"pretty":2751,"prettyĠ":2752,"nextĠyear":2753,"chedule,":2754,"opportunityĠtoĠ":2755,"becauseĠ":2756,"halseyĠhous":2757,"runner":2758,"ĠtheĠprogram":2759,"ĠsittingĠ":2760,"yĠbear":2761,"emailing":2762,"hadĠbeen":2763,"day,Ġfriend":2764,"shallĠbeĠtheĠd":2765,"ĠsweetĠword":2766,"beĠsureĠto":2767,"drewĠmichaelĠandĠ":2768,"!ĠyourĠhomeĠ":2769,"candl":2770,"generalĠassembl":2771,"osĠen":2772,"rusticĠglam":2773,"ublicĠbuilding":2774,"vailableĠfor":2775,"ondĠwith":2776,"enefitĠ":2777,"antlyĠ":2778,"ĠcounterĠheightĠ":2779,"edĠupon":2780,"ilitar":2781,"Ġideas":2782,"ĠstarĠ":2783,"beĠaĠpartĠof":2784,"ĠoctoberĠ":2785,"particip":2786,"Ġchildren":2787,"ĠupdatedĠ":2788,"blogĠfriends!":2789,"ĠhappyĠfriday,Ġ":2790,"ĠtheĠshoulderĠjoint":2791,"elizabethĠellis":2792,"burger":2793,"celebr":2794,"dutiesĠ":2795,"faith":2796,"iber-lik":2797,"tatorĠcuff":2798,"wooden":2799,"ĠapartmentĠ":2800,"erryĠchristmas":2801,"ately,Ġ":2802,"Ġannoun":2803,"especiallyĠ":2804,"eddyĠbear":2805,"edĠatĠtheĠ":2806,"ĠpassedĠa":2807,"statist":2808,"ĠbyĠthisĠact":2809,"ĠfastingĠ":2810,"eĠtwoĠ":2811,"ĠthisĠcardĠ":2812,"Ġadvanc":2813,"ĠaĠprivateĠ":2814,"ĠvideoĠ":2815,"iesĠofĠrheaĠandĠ":2816,"ĠappreciateĠ":2817,"floral":2818,"ĠstemĠcellĠtrans":2819,"âĢĻreĠhavingĠaĠgreatĠ":2820,"definitelyĠ":2821,"easelgraveĠsaysĠtheĠ":2822,"ĠthemselvesĠandĠsuccessorsĠinĠoffic":2823,"147":2824,"aemia":2825,"circ":2826,"ceanograph":2827,"cription":2828,"damental":2829,"directly":2830,"daughter":2831,"federal":2832,"hospitalityĠ":2833,"rappingĠpaper":2834,"vironment":2835,"tĠcoco":2836,"alĠinformationĠaboutĠ":2837,"thyoplankton":2838,"ĠmetallicĠs":2839,"Ġdeath":2840,"ĠfingerĠlakesĠ":2841,"neighbor":2842,"adventureĠbegin":2843,"consider":2844,"umbilicalĠcor":2845,"noaa.gov":2846,"Ġamerica":2847,"iesĠscienceĠcenter":2848,"duffy-anderson":2849,"ĠtheĠcountyĠofĠmeigs,Ġ":2850,"tennesseeĠriver":2851,"eĠsoĠconstruedĠas":2852,"iquidĠwatercolor":2853,"ificialĠsweeten":2854,"shallĠbeĠtheĠdut":2855,"adventureĠbeginsĠ":2856,"!Ġa":2857,"!ĠtheĠ":2858,"!Ġthank":2859,"!ĠmyĠ":2860,"!ĠgreatĠ":2861,"!ĠðŁĻĤ":2862,"!Ġamanda":2863,"!ĠthoseĠ":2864,"\"weĠ":2865,"%Ġof":2866,"&Ġb":2867,"(ph":2868,"),":2869,"+Ġc":2870,",ĠasĠ":2871,",ĠtoĠtheĠ":2872,",ĠtoĠbeĠ":2873,",âĢĿ":2874,",ĠthankĠyouĠsoĠmuch":2875,"-l":2876,"-o":2877,"-courtĠ":2878,"-styl":2879,"-basedĠ":2880,".ĠtoĠ":2881,".ĠtheĠs":2882,".ĠaĠp":2883,".ĠsheĠ":2884,".ĠthereĠis":2885,"17":2886,"240":2887,"34":2888,"48":2889,"59":2890,"500":2891,"526":2892,";Ġprovid":2893,"?!":2894,"?Ġi":2895,"@noaa.gov":2896,"aj":2897,"aĠandĠ":2898,"aĠd":2899,"aĠwith":2900,"aĠon":2901,"after":2902,"affect":2903,"aqâĢĻsĠ":2904,"ban":2905,"bal":2906,"bes":2907,"bro":2908,"bel":2909,"bay":2910,"band":2911,"bill":2912,"bentĠ":2913,"bound":2914,"bestĠ":2915,"byĠtheĠ":2916,"book":2917,"better":2918,"buil":2919,"cr":2920,"clo":2921,"cil":2922,"coun":2923,"civ":2924,"centĠ":2925,"cess":2926,"cum":2927,"cep":2928,"couldĠ":2929,"canc":2930,"costĠ":2931,"couch":2932,"cure":2933,"cash":2934,"custom":2935,"craf":2936,"cĠcounterĠheightĠ":2937,"dv":2938,"dĠandĠ":2939,"dingĠ":2940,"del":2941,"det":2942,"dabl":2943,"dest":2944,"divid":2945,"e?":2946,"eg":2947,"eh":2948,"eof":2949,"ech":2950,"equ":2951,"ee,":2952,"ehol":2953,"equal":2954,"e!ĠiĠloveĠ":2955,"fat":2956,"fur":2957,"few":2958,"fereĠ":2959,"foodĠ":2960,"fastĠ":2961,"f,Ġi":2962,"fansĠ":2963,"futur":2964,"fetti":2965,"fiber-lik":2966,"gy":2967,"glo":2968,"gro":2969,"gateĠ":2970,"goneĠ":2971,"gain":2972,"gard":2973,"goldĠ":2974,"hd":2975,"hn":2976,"ht":2977,"han":2978,"hour":2979,"hun":2980,"hiv":2981,"hard":2982,"hamil":2983,"iĠm":2984,"iedĠ":2985,"iel":2986,"iet":2987,"ieĠm":2988,"ienc":2989,"iĠwill":2990,"iĠwas":2991,"jur":2992,"jack":2993,"jail":2994,"jectĠ":2995,"juryĠ":2996,"ker":2997,"kay":2998,"kĠof":2999,"kill":3000,"lab":3001,"list":3002,"le.Ġ":3003,"letĠ":3004,"lateĠ":3005,"l!Ġi":3006,"liveĠ":3007,"lessĠ":3008,"lakeĠ":3009,"ledg":3010,"lessĠthan":3011,"ladies":3012,"mm":3013,"mp":3014,"meĠ":3015,"mor":3016,"mit":3017,"mar":3018,"may":3019,"mid":3020,"mun":3021,"mind":3022,"myĠs":3023,"member":3024,"most":3025,"medical":3026,"mingĠfrom":3027,"medic":3028,"melb":3029,"material":3030,"ning":3031,"net":3032,"nav":3033,"nameĠ":3034,"natur":3035,"necess":3036,"nĠexperienc":3037,"ois":3038,"ointĠ":3039,"oatĠof":3040,"otĠcoco":3041,"pion":3042,"plo":3043,"pur":3044,"paidĠ":3045,"pack":3046,"postĠ":3047,"podg":3048,"pinkfreshĠstudio":3049,"pĠspr":3050,"publicĠbuilding":3051,"rank":3052,"rack":3053,"right":3054,"rhea":3055,"ratesĠ":3056,"rins":3057,"raditional":3058,"s'":3059,"ser":3060,"sed":3061,"set":3062,"sur":3063,"sĠand":3064,"setĠ":3065,"stĠof":3066,"sum":3067,"saidĠ":3068,"sĠthat":3069,"siteĠ":3070,"sĠthrough":3071,"super":3072,"sĠthink":3073,"swer":3074,"sung":3075,"to":3076,"tyĠ":3077,"tom":3078,"tim":3079,"ts,Ġ":3080,"u.":3081,"uation":3082,"ugh":3083,"uest":3084,"uallyĠ":3085,"uck":3086,"vingĠ":3087,"vide":3088,"voic":3089,"wis":3090,"was":3091,"wall":3092,"wid":3093,"weĠs":3094,"wif":3095,"weĠd":3096,"ward":3097,"worr":3098,"writ":3099,"waren":3100,"walk":3101,"welcom":3102,"xy":3103,"y:":3104,"yĠt":3105,"yes":3106,"yâĢĻ":3107,"y,ĠandĠ":3108,"yâĢĻsĠ":3109,"y,Ġb":3110,"ynam":3111,"ywoodĠ":3112,"Ã©":3113,"Ġ\"":3114,"Ġ/":3115,"Ġic":3116,"Ġri":3117,"Ġnow":3118,"Ġvi":3119,"Ġenter":3120,"ĠusĠ":3121,"Ġevent":3122,"ĠeventĠ":3123,"ĠespeciallyĠ":3124,"ĺī":3125,"eĠh":3126,"eĠor":3127,"eĠit":3128,"eĠab":3129,"eĠup":3130,"eĠhaveĠ":3131,"eĠchristmasĠ":3132,"eĠho":3133,"eĠblogĠhop":3134,"Ġtur":3135,"Ġtum":3136,"Ġtask":3137,"Ġtick":3138,"Ġtitl":3139,"Ġtech":3140,"Ġaj":3141,"Ġare":3142,"Ġapr":3143,"ĠaĠr":3144,"Ġaud":3145,"ĠaĠspecial":3146,"ĠaĠgreat":3147,"ĠaĠstat":3148,"Ġareas":3149,"ĠaĠtrueĠ":3150,"iner":3151,"inal":3152,"in.Ġ":3153,"inst":3154,"insp":3155,"incorpor":3156,"inĠhonor":3157,"inedĠupon":3158,"Ġthing":3159,"Ġthous":3160,"ĠthreeĠ":3161,"sĠcount":3162,"sĠnow":3163,"sĠforĠtheĠ":3164,"sĠonĠtheĠ":3165,"sĠshall":3166,"sĠlik":3167,"sĠcont":3168,"sĠbyĠ":3169,"sĠjustĠ":3170,"sĠwillĠbeĠ":3171,"sĠdur":3172,"sĠlastĠ":3173,"sĠgrand":3174,"sĠmakesĠ":3175,"sĠcalledĠ":3176,"sĠwereĠ":3177,"sĠsoĠmuch":3178,"sĠfirst":3179,"sĠconcern":3180,"oupl":3181,"ous.Ġ":3182,"ougl":3183,"erif":3184,"ers.Ġ":3185,"ersĠareĠ":3186,"erĠthan":3187,"erationĠof":3188,"er,ĠbutĠi":3189,"dĠon":3190,"dĠcongressĠ":3191,"tĠisĠ":3192,"tĠoutĠ":3193,"tĠoneĠ":3194,"tĠhous":3195,"tĠhasĠbeen":3196,"tĠwhit":3197,"on-":3198,"onel":3199,"onesĠ":3200,"onĠthisĠ":3201,"onĠfor":3202,"onĠyour":3203,"oneyĠ":3204,"onĠwhich":3205,"onĠattract":3206,"orĠ":3207,"ortĠ":3208,"oryĠ":3209,"orth":3210,"orig":3211,"ore,Ġ":3212,"order":3213,"orĠanyĠ":3214,"oreĠspecial":3215,"orieĠm":3216,"enĠan":3217,"en.ĠtheĠ":3218,"ensĠof":3219,"enanc":3220,"enĠro":3221,"ĠtheĠma":3222,"ĠtheĠsh":3223,"ĠtheĠway":3224,"ĠtheĠprov":3225,"ĠtheĠavail":3226,"ĠtheĠchair":3227,"ĠtheĠlot":3228,"ĠtheĠpossibil":3229,"ĠsesĠ":3230,"Ġsur":3231,"Ġsell":3232,"Ġsum":3233,"Ġsection":3234,"Ġsav":3235,"ĠsiteĠ":3236,"Ġsub":3237,"Ġsyn":3238,"Ġsuff":3239,"ĠsinceĠ":3240,"Ġselection":3241,"Ġsept":3242,"Ġsecond":3243,"rees":3244,"ream":3245,"reet":3246,"reesĠ":3247,"ree,Ġ":3248,"redu":3249,"reyn":3250,"restr":3251,"red.Ġ":3252,"recongres":3253,"record":3254,"resĠfromĠtheĠ":3255,"it,":3256,"iture":3257,"itativeĠ":3258,"it'sĠa":3259,"itingĠfor":3260,"yĠforĠtheĠ":3261,"yĠwasĠ":3262,"yĠfeat":3263,"ing/":3264,"ing.Ġ":3265,"ingĠst":3266,"ing,ĠandĠ":3267,"ingĠasĠ":3268,"ingsĠandĠ":3269,"ings,":3270,"ingĠthem":3271,"ingĠthat":3272,"ingsĠareĠ":3273,"ingful":3274,"ingĠthis":3275,"ani":3276,"an,Ġ":3277,"anetĠ":3278,"att":3279,"atus":3280,"ateĠs":3281,"atter":3282,"atĠaĠl":3283,"ĠanĠin":3284,"ĠanĠaw":3285,"Ġanswer":3286,"ald":3287,"alu":3288,"alĠp":3289,"alesĠ":3290,"alĠf":3291,"alĠi":3292,"aleĠt":3293,"alentĠ":3294,"alton":3295,"almostĠ":3296,"alĠpartĠof":3297,"oĠof":3298,".Ġc":3299,".Ġch":3300,".Ġfor":3301,".Ġnow":3302,".Ġla":3303,".ĠbutĠ":3304,".ĠdiningĠroom":3305,".Ġjust":3306,".ĠhappyĠ":3307,".ĠduringĠtheĠ":3308,"arr":3309,"ofĠour":3310,"ofĠmyĠ":3311,",Ġp":3312,",Ġor":3313,",Ġch":3314,",Ġus":3315,",Ġwill":3316,",Ġwell":3317,",Ġnic":3318,",Ġwe'reĠ":3319,",Ġfeel":3320,"esĠtoĠ":3321,"esĠar":3322,"es,ĠandĠ":3323,"esĠasĠ":3324,"esday":3325,"esĠtoĠs":3326,"estern":3327,"isedĠ":3328,"isesĠ":3329,"issu":3330,"istĠwith":3331,"isnâĢĻtĠ":3332,"isdic":3333,"isiÃ³n":3334,"issed":3335,"youĠandĠ":3336,"youth":3337,"youĠp":3338,"youthĠprogram":3339,"youĠmad":3340,"youĠhav":3341,"ĠandĠg":3342,"ĠandĠcom":3343,"ĠandĠbeĠ":3344,"ĠandĠcon":3345,"ĠandĠonĠtheĠ":3346,"ĠandĠget":3347,"ĠandĠclos":3348,"ĠandĠdrewĠmichael":3349,"ĠandĠprovideĠ":3350,"ĠandĠeasy":3351,"ĠandĠfriendlyĠ":3352,"ĠandĠnatur":3353,"omat":3354,"thĠandĠ":3355,"though":3356,"ion.Ġ":3357,"ionĠclass":3358,"chos":3359,"chardĠ":3360,"chanceĠof":3361,"childĠ":3362,"chthyoplankton":3363,"ingĠ&":3364,"ingĠc":3365,"ingĠup":3366,"ingĠoutĠ":3367,"ingĠyear":3368,"ingĠinĠtheĠ":3369,"ingĠpre":3370,"ingĠbutĠ":3371,"ingĠmasksĠ":3372,"forĠyou":3373,"forĠthisĠ":3374,"forĠall":3375,"forĠmyĠ":3376,"fordabl":3377,"loor":3378,"aspin":3379,"asĠaĠstat":3380,"asersĠareĠ":3381,"Ġcal":3382,"Ġcap":3383,"ĠcouldĠ":3384,"Ġcenter":3385,"Ġcrow":3386,"Ġclos":3387,"ĠcuteĠ":3388,"Ġmin":3389,"Ġmem":3390,"Ġmod":3391,"Ġmult":3392,"Ġmov":3393,"Ġmatch":3394,"Ġmedical":3395,"Ġmaint":3396,"Ġmonth":3397,"ĠmerryĠchristmas":3398,"ĠmoneyĠ":3399,"ecor":3400,"ecom":3401,"ectĠwith":3402,"icef":3403,"iction":3404,"icĠreg":3405,"ician":3406,"icĠhistor":3407,"ictures":3408,"ed.":3409,"ed,Ġ":3410,"edĠasĠ":3411,"ed.ĠtheĠ":3412,"edĠtoĠtheĠ":3413,"edĠatĠ":3414,"edge":3415,"ednes":3416,"edĠthisĠcardĠ":3417,"edpĠspr":3418,"isĠre":3419,"isĠpr":3420,"isĠgreat":3421,"isĠplay":3422,"isĠyet":3423,"isĠgorge":3424,"Ġpol":3425,"Ġpleas":3426,"Ġpick":3427,"Ġpeak":3428,"edĠinĠtheĠ":3429,"edĠonĠtheĠ":3430,"edĠshallĠb":3431,"edĠground":3432,"ĠheĠ":3433,"Ġhow":3434,"ĠheĠs":3435,"Ġhiv":3436,"Ġhol":3437,"Ġhot":3438,"Ġhard":3439,"Ġhuman":3440,"ĠhotĠcoco":3441,"Ġway":3442,"Ġwher":3443,"rop":3444,"roll":3445,"roadĠ":3446,"rotatorĠcuff":3447,"ĠtoĠim":3448,"ĠtoĠcom":3449,"ĠtoĠmyĠ":3450,"ĠtoĠwork":3451,"ĠtoĠget":3452,"ĠtoĠbeĠt":3453,"eltĠ":3454,"elveĠ":3455,"elĠof":3456,"elman":3457,"elessĠ":3458,"elakeĠ":3459,"step":3460,"start":3461,"ĠbyĠ":3462,"Ġbus":3463,"Ġbow":3464,"Ġbut":3465,"Ġbag":3466,"Ġbask":3467,"Ġbetter":3468,"entir":3469,"entyĠof":3470,"entreĠ":3471,"Ġdat":3472,"Ġdet":3473,"Ġdif":3474,"Ġdire":3475,"Ġdiec":3476,"Ġdrug":3477,"amin":3478,"amendedĠconstitution":3479,"amaz":3480,"amsung":3481,"emb":3482,"emplo":3483,"ĠyouĠandĠ":3484,"ĠyouĠareĠ":3485,"etim":3486,"et'sĠ":3487,"etball":3488,"vers":3489,"verag":3490,"verseĠ":3491,"atĠwww.":3492,"ĠtoĠshar":3493,"ally,Ġ":3494,"pleas":3495,"playĠ":3496,"plusĠ":3497,"plann":3498,"plentyĠof":3499,"esĠl":3500,"esĠor":3501,"esĠof":3502,"our-":3503,"ourn":3504,"ourse,Ġ":3505,"ilĠ":3506,"ilar":3507,"ilight":3508,"ilĠandĠm":3509,"using":3510,"useĠm":3511,"usingĠall":3512,"Ġfig":3513,"Ġfound":3514,"ĠfreeĠ":3515,"ĠfirstĠ":3516,"Ġira":3517,"ĠiĠmad":3518,"uringĠtheĠ":3519,"ureĠin":3520,"urenĠro":3521,"ayingĠtheĠ":3522,"ayers":3523,"ayĠseason":3524,"ations,Ġ":3525,"eĠteddyĠbear":3526,"eĠtrees":3527,"ĠofĠit":3528,"ĠofĠthos":3529,"abor":3530,"abul":3531,"Ġgam":3532,"Ġgall":3533,"Ġgeo":3534,"Ġgeneral":3535,"idel":3536,"idnâĢĻtĠ":3537,"idayĠseason":3538,"igiousĠ":3539,"research":3540,"reserv":3541,"resultĠ":3542,"imp":3543,"imit":3544,"iment":3545,"improv":3546,"imitedĠ":3547,"imilar":3548,"withoutĠ":3549,"withĠsaidĠ":3550,"withĠnoĠ":3551,"unch":3552,"uniqueĠ":3553,"unableĠtoĠ":3554,"unicef":3555,"neut":3556,"needĠtoĠ":3557,"needĠfor":3558,"ulin":3559,"ulator":3560,"iration":3561,"irthĠ":3562,"iraqâĢĻsĠ":3563,"Ġaren":3564,"Ġstop":3565,"Ġstart":3566,"Ġstock":3567,"Ġstyl":3568,"Ġstretch":3569,"andyĠ":3570,"andal":3571,"expert":3572,"extra":3573,"exercis":3574,"earth":3575,"earlier":3576,"eĠso":3577,"eĠsom":3578,"eĠsomeĠ":3579,"eĠsuper":3580,"eĠsensation":3581,"ifĠitĠ":3582,"tersĠandĠ":3583,"granc":3584,"comf":3585,"eared":3586,"Ġlif":3587,"Ġlist":3588,"Ġlast":3589,"Ġlarg":3590,"ĠlistĠof":3591,"ĠliquidĠwatercolor":3592,"ivelyĠandĠ":3593,"ivesĠwill":3594,"older":3595,"olonel":3596,"entĠfrom":3597,"entĠcal":3598,"uture":3599,"utationĠof":3600,"utomat":3601,"propr":3602,"proces":3603,"upĠtheĠ":3604,"upĠandĠ":3605,"upstateĠ":3606,"Ġinv":3607,"ĠinĠtheĠf":3608,"Ġindic":3609,"ĠinĠseat":3610,"otĠandĠs":3611,"weightĠ":3612,"weâĢĻveĠ":3613,"weâĢĻreĠ":3614,"ĠthisĠseason":3615,"itĠup":3616,"itĠonĠtheĠ":3617,"itĠshall":3618,"itĠwasĠ":3619,"itĠisĠb":3620,"itĠhasĠbeen":3621,"itĠshallĠbeĠtheĠdut":3622,"ĠandĠan":3623,"ĠandĠthis":3624,"istres":3625,"istakeĠ":3626,"istani":3627,"Ġread":3628,"Ġrecongres":3629,"Ġreceiv":3630,"ableĠt":3631,"able.Ġ":3632,"ablish":3633,"frayingĠtheĠ":3634,"whom":3635,"ĠthatĠyouĠhaveĠ":3636,"beĠavailableĠfor":3637,"ador":3638,"ade.Ġ":3639,"adly":3640,"quit":3641,"question":3642,"conven":3643,"consult":3644,"e.Ġcheck":3645,"e.Ġhowever":3646,"e.ĠhousewarmingĠpartyĠinvitesĠfreeĠtemplateĠ":3647,"Ġalter":3648,"Ġaltern":3649,"Ġal-s":3650,"Ġalthough":3651,"ender":3652,"endar":3653,"endingĠl":3654,"endees.Ġ":3655,"shin":3656,"shif":3657,"ĠforĠyour":3658,"ĠforĠsuch":3659,"ĠforĠtheirĠs":3660,"ĠforĠexampl":3661,"approv":3662,"apart":3663,"outĠof":3664,"yourĠpl":3665,"yourĠhom":3666,"yourĠdecor":3667,"yourĠrequire":3668,"yourĠrustic":3669,"yourĠsweetĠword":3670,"s,Ġor":3671,"s,Ġdec":3672,"s,Ġfriend":3673,"s,ĠbutĠ":3674,"s,Ġbut":3675,"s,ĠpayableĠto":3676,",ĠandĠi":3677,",ĠandĠs":3678,",ĠandĠitâĢĻsĠ":3679,"e,Ġi":3680,"e,Ġla":3681,"e,ĠinĠtheĠs":3682,"e,Ġwa":3683,"e,ĠinĠf":3684,"e,ĠbecauseĠ":3685,"intend":3686,"intoĠtheĠ":3687,"sĠab":3688,"sĠad":3689,"sĠas":3690,"sĠall":3691,"sĠapp":3692,"sĠago":3693,"sĠatt":3694,"ĠareĠa":3695,"ĠareĠyou":3696,"ceĠlatenc":3697,"aken":3698,"akesĠandĠ":3699,"countiesĠofĠrheaĠandĠ":3700,"ello":3701,"ateĠin":3702,"s.ĠmasksĠ":3703,"andĠveryĠ":3704,"andĠdollar":3705,"derĠphot":3706,"tĠofĠsaidĠcounty":3707,"umat":3708,"Ġjan":3709,"Ġjustic":3710,"ĠjuneĠ":3711,"ĠasĠmuch":3712,"ĠyourĠchild":3713,"ĠyourĠlos":3714,"Ġabnormal":3715,"Ġspark":3716,"Ġspread":3717,"ĠspendingĠl":3718,"sĠoffer":3719,"sĠofĠtheĠf":3720,"ĠsoĠwe":3721,"ĠsoĠhapp":3722,"!ĠiĠalsoĠ":3723,"!ĠiĠwill":3724,"!ĠiĠthink":3725,"agesĠ":3726,"nov":3727,"outsideĠ":3728,"cover":3729,"parro":3730,"paration":3731,"eĠdi":3732,"eĠdis":3733,"eĠdivid":3734,"eĠdataĠs":3735,"eĠdamag":3736,"eĠdownload":3737,"eĠdidnâĢĻtĠ":3738,"ries":3739,"riotĠandĠs":3740,"isĠavailableĠfor":3741,"tle,Ġwa":3742,"uster":3743,"eĠmyĠ":3744,"eĠmask":3745,"eĠmyĠs":3746,"eĠmedical":3747,"sĠinĠ":3748,"sĠinĠtheĠ":3749,"sĠinĠother":3750,"ĠhaveĠenjoyedĠ":3751,"bertĠwhit":3752,"everĠyou":3753,"everyĠs":3754,"portĠ":3755,"Ġoh":3756,"Ġoz":3757,"Ġoceanograph":3758,"Ġokay":3759,"establish":3760,"ĠwithĠw":3761,"ĠwithĠour":3762,"action":3763,"epos":3764,"epsĠa":3765,"iesĠthatĠ":3766,"eĠtoĠcheck":3767,"eĠtoĠcreateĠ":3768,"eĠtoĠbeĠaĠpartĠof":3769,"206":3770,"hereĠtoĠ":3771,"hereb":3772,"sĠandĠb":3773,"sĠandĠwork":3774,"yĠcl":3775,"yĠcall":3776,"Ġcondition":3777,"Ġconven":3778,"bleĠtop":3779,"weĠar":3780,"weĠget":3781,"weĠknow":3782,"asĠreyn":3783,"e.ĠthisĠ":3784,"e.ĠsectionĠ":3785,"ĠonĠ":3786,"ĠonĠour":3787,"ĠonĠaĠp":3788,"haveĠdon":3789,"commendĠ":3790,"cler":3791,"clamp":3792,"club":3793,"soĠfar":3794,"eĠbeautiful":3795,"eĠbetween":3796,"iveĠtheĠ":3797,"iveĠstar":3798,"lyĠtouch":3799,"ppingĠfor":3800,"vious":3801,"ĠisĠnotĠ":3802,"ĠisĠjustĠ":3803,"ĠisĠgoingĠ":3804,"ĠatĠthem":3805,"Ġatten":3806,"ĠatĠtheseĠ":3807,"ĠatĠtheĠsam":3808,"oreĠinformation":3809,"oreĠyourĠbaby'sĠ":3810,".ĠiĠam":3811,".ĠiĠalsoĠ":3812,".ĠiĠdon'tĠ":3813,"Ġproblem":3814,"ek;ĠthenceĠ":3815,"Ġexp":3816,"Ġext":3817,"Ġexpert":3818,"Ġexpect":3819,"Ġextra":3820,"Ġexercis":3821,"Ġtrav":3822,"Ġtraditional":3823,"Ġasso":3824,"Ġwhom":3825,"ĠtheirĠoffic":3826,"ĠtheirĠwebsit":3827,"ĠtheirĠhea":3828,"doesĠ":3829,"doĠthisĠ":3830,"Ġnm":3831,"Ġnational":3832,"Ġnecess":3833,"eĠandĠdon":3834,"eĠandĠchair":3835,"eĠandĠjail":3836,"inĠtheĠh":3837,"inĠtheĠp":3838,"inĠtheĠmid":3839,"ĠcanĠb":3840,"ĠcanĠyou":3841,"ĠcanĠbeĠ":3842,"aving":3843,"izedĠ":3844,"ĠtimeĠandĠ":3845,"ĠtimesĠa":3846,"ityĠsup":3847,"edĠbyĠc":3848,"edĠbyĠs":3849,"sionĠandĠ":3850,"sionĠof":3851,"sion,Ġb":3852,"Ġknew":3853,"ĠkeyĠ":3854,"Ġthankful":3855,"ĠtoĠtheĠfrontĠ":3856,"ĠtoĠtheĠnhsĠcordĠbloodĠbank":3857,"s>Ġ<s>ĠtheĠ":3858,"s>Ġ<s>ĠhereĠ":3859,"s>Ġ<s>Ġ\"":3860,"fficientĠ":3861,"myĠhous":3862,"myĠfavor":3863,"mention":3864,"prepar":3865,"prefer":3866,"preced":3867,"Ġrun":3868,"encour":3869,"areĠgoingĠtoĠ":3870,"astingĠandĠ":3871,"ferent":3872,"s.org":3873,"s.ĠsheĠ":3874,"s.ĠthankĠyouĠsoĠmuch":3875,"wayĠto":3876,"ĠourĠb":3877,"ĠourĠpr":3878,"ĠourĠcongressĠ":3879,"ĠsaidĠcommissioner":3880,"ingĠtheĠnew":3881,"ingĠtheĠcountiesĠofĠrheaĠandĠ":3882,"antitativeĠ":3883,"ĠaboutĠweĠget":3884,"overĠtheĠ":3885,"sĠtoĠgetĠ":3886,"Ġadd":3887,"ĠaddedĠ":3888,",ĠbyĠ":3889,"forĠtheĠfirst":3890,"cordĠclamp":3891,"port,Ġ":3892,"portĠandĠ":3893,"ĠloveĠit":3894,"beenĠpre":3895,"beenĠgreat":3896,"dueĠ":3897,"e!Ġ":3898,"eful":3899,"otherĠs":3900,"otherwiseĠ":3901,"workĠto":3902,"ĠaĠphot":3903,"ĠthemĠbyĠthisĠact":3904,"enceĠonĠattract":3905,"edĠtoĠre":3906,"ĠofĠtheĠbod":3907,"ĠofĠtheĠb&b":3908,"notĠbeĠ":3909,"jointĠ":3910,"ingĠaĠs":3911,"ingĠaĠtrans":3912,"ĠmyĠchristmasĠ":3913,"ĠmyĠgrandma":3914,"aĠisĠa":3915,"cksĠin":3916,"ĠthatĠtheĠ":3917,"ĠthatĠtheyĠ":3918,"onĠtheĠtennesseeĠriver":3919,"ensure":3920,"e,Ġto":3921,"lineĠdivid":3922,"ĠtheseĠtwoĠ":3923,"anceĠinst":3924,"elyĠpres":3925,"ulti":3926,"ultsĠin":3927,"proven":3928,"christmasĠseason":3929,"howĠaboutĠweĠget":3930,"Ġorder":3931,"ĠtheĠfirstĠ":3932,"ĠtheĠfastĠf":3933,"ĠtheĠfour-":3934,"Ġcombin":3935,"veryĠnic":3936,"placeĠ":3937,"placent":3938,"eĠtheĠfirstĠ":3939,"ficult":3940,"fulĠperform":3941,"ĠitĠall":3942,"ĠtakeĠ":3943,"ĠtakingĠ":3944,"ĠtakeĠb":3945,"involv":3946,"Ġcellular":3947,"Ġgroup":3948,"!!!":3949,"eaningful":3950,"head":3951,"headĠofĠtheĠ":3952,"ĠthereĠisĠ":3953,"ĠthereĠisĠa":3954,"theĠnumber":3955,"loveĠyour":3956,"loveĠhow":3957,"loveĠthatĠ":3958,"ĠhopeĠyour":3959,"cordĠbloodĠshouldĠ":3960,"cordĠbloodĠpriv":3961,"canĠyou":3962,"canĠres":3963,"ĠtheyĠhaveĠ":3964,"ĠtheyĠlook":3965,"ĠshallĠbeĠ":3966,"everyoneĠ":3967,",ĠaĠd":3968,",Ġapp":3969,"likeĠtoĠ":3970,"likeĠto":3971,"manĠofĠtheĠcountyĠcour":3972,"position":3973,"ralĠcolor":3974,"Ġrespect":3975,"ĠresultsĠin":3976,"sĠremin":3977,"edĠinformation":3978,"!ĠthankĠyouĠforĠtheĠawesomeĠreview":3979,"dayĠin":3980,"glitteryĠwineĠbot":3981,"holidayĠseason":3982,"ladĠ":3983,"launch":3984,"ullet":3985,"ulletsĠ":3986,"ðŁĺī":3987,"Ġtwo":3988,"ĠtwelveĠ":3989,"Ġtwilight":3990,"ĠthroughoutĠmyĠ":3991,"enjoinedĠupon":3992,"ĠtheĠmask":3993,"thingĠinĠthisĠa":3994,"Ġdoes":3995,"andmad":3996,"contro":3997,"contract":3998,"organis":3999,"invitationĠt":4000,"ministr":4001,"sufficientĠ":4002,"Ġneed":4003,"ĠneedĠto":4004,"ĠaĠfriend":4005,"ĠaĠfresh":4006,"ĠthoseĠm":4007,"engthen":4008,"ĠtheĠback":4009,"ĠtheĠbod":4010,"ĠtheĠbuild":4011,"ĠtheĠbris":4012,"ĠtheĠcountyĠofĠrhea":4013,"ingĠsup":4014,"ingĠsoundproofĠwindowsĠinĠfortĠbranch,Ġin":4015,",ĠiĠhadĠ":4016,"essĠshouldĠ":4017,"ĠweĠhaveĠ":4018,"ĠweĠhadĠbeen":4019,"happen":4020,"Ġcontain":4021,"ĠfromĠm":4022,"eautifulĠhomeĠ":4023,"cred":4024,"feedback":4025,"ollywoodĠ":4026,"sĠthatĠcaus":4027,"tenĠresultsĠin":4028,"ĠafterĠ":4029,"ĠafterĠtheĠ":4030,"argetĠ":4031,",Ġwher":4032,",ĠwhoĠ":4033,",ĠwhereĠ":4034,"Ġpreparation":4035,"storageĠ":4036,"amilyĠ":4037,"ement.Ġ":4038,"ustralian":4039,"ĠotherĠblog":4040,"Ġotherwis":4041,"home!":4042,"iotĠd":4043,"ierĠofĠtheĠ":4044,"lub":4045,"lux":4046,"live.Ġ":4047,"livingĠroom":4048,"livingĠher":4049,"live,Ġla":4050,"sĠtoĠa":4051,"sĠtogether":4052,"sĠtoĠtrav":4053,"eĠofĠ":4054,"Ġagree,Ġ":4055,"erciseĠ":4056,"ĠtheĠtown":4057,"ĠsorryĠtoĠhearĠaboutĠyourĠgr":4058,"yĠwednes":4059,"Ġbelow":4060,"Ġbegin":4061,"ĠbeenĠan":4062,"emplatesĠ":4063,"urnĠj":4064,"Ġguest":4065,"âĢĻmĠsoĠ":4066,"âĢĻmĠsorryĠtoĠhearĠaboutĠyourĠgr":4067,"prints,":4068,"Ġjob":4069,"Ġjoin":4070,",ĠbutĠhowĠaboutĠweĠget":4071,"formationĠcer":4072,"commissionerĠshall":4073,"bankingĠ":4074,"ceed":4075,"ceryĠst":4076,"capac":4077,"known":4078,"ugg":4079,"ugsĠ":4080,"ugar":4081,"Ġ-Ġi":4082,"regionĠclass":4083,".Ġhiv":4084,".ĠhopeĠyou":4085,".ĠyouĠmayĠ":4086,"forĠmostĠ":4087,"forĠmoreĠinformation":4088,"edĠaĠc":4089,"ĠprivateĠ":4090,"ĠtheseĠareĠ":4091,"centerpiec":4092,"centerĠofĠsaidĠcounty":4093,"doĠit":4094,"findĠ":4095,"function":4096,"vision":4097,"ĠaĠsmall":4098,"ities,Ġ":4099,",ĠhasĠaĠstat":4100,"ingĠwithĠus":4101,"look,Ġfeel":4102,"ecauseĠtheyĠ":4103,"Ġplan":4104,"Ġplac":4105,"Ġdisplay":4106,"Ġdiscover":4107,"useĠand":4108,"ationalĠresearch":4109,"haven":4110,"eaker":4111,"ĠintoĠtheĠ":4112,"shoppingĠ":4113,"yĠofĠmeigsĠshall":4114,"housewarmingĠinvitationĠt":4115,"Ġcommercial":4116,"possess":4117,"Ġtenness":4118,"aĠfisher":4119,"both":4120,"beĠshar":4121,"disciplin":4122,"guest":4123,"great!":4124,"greatestĠ":4125,"highestĠqual":4126,"renew":4127,"Ġquick":4128,"Ġquestion":4129,"ĠoneĠor":4130,"eĠlist":4131,"Ġaccount":4132,"Ġacros":4133,"intĠisĠ":4134,"ĠtheĠpastĠf":4135,"ĠanythingĠ":4136,"thĠeastĠ":4137,"ĠdiningĠtabl":4138,"player":4139,"âĢĻllĠse":4140,"eĠthisĠyear":4141,"utionĠofĠ":4142,"ĠtheĠsameĠisĠ":4143,"ĠaskĠfor":4144,"ĠadditionĠtoĠtheĠ":4145,"ĠadditionalĠinformationĠaboutĠ":4146,"ĠtwoĠmet":4147,"ĠcontinueĠtoĠ":4148,".ĠthisĠisĠtheĠ":4149,"101":4150,"awn":4151,"closeĠtoĠ":4152,"glen":4153,"gersĠandĠ":4154,"photographer":4155,"ĠnewĠpat":4156,"ĠthingsĠdoneĠ":4157,"ervic":4158,"onĠaĠd":4159,"ĠtheĠnba":4160,"ĠtheĠnationalĠresearch":4161,"readyĠtoĠ":4162,"itsĠc":4163,"itâĢĻsĠbeen":4164,"atelliteĠ":4165,".ĠweĠs":4166,"omethingĠ":4167,"lovelyĠ":4168,"edĠandĠbreak":4169,"ĠwasĠtheĠ":4170,"ĠweekĠa":4171,"ĠweekĠisĠgoingĠ":4172,"madeĠ":4173,"maintain":4174,"maintenanc":4175,"underĠtheĠsameĠ":4176,"underĠtheĠam":4177,"olds.Ġ":4178,"oldierĠofĠtheĠ":4179,"Ġregular":4180,"Ġalaskan":4181,"ctionĠof":4182,"sĠofĠtheĠgeneralĠassembl":4183,"!ĠiĠloveĠtheĠ":4184,"ĠoverĠtheĠ":4185,"ĠamandaĠâĢĵ":4186,"communication":4187,"ĠknowĠi":4188,"Ġscouting":4189,"ĠscoutingĠ":4190,"ĠsoĠsorryĠfor":4191,"hasĠbeenĠgreat":4192,"ĠapplicationsĠ":4193,"housewarmingĠpartyĠinvitationĠt":4194,".ĠasĠa":4195,"basisĠ":4196,"centuryĠ":4197,"currently":4198,"flex":4199,"north":4200,"niceĠtoĠ":4201,"rightĠwhit":4202,"won'tĠ":4203,"Ġenvironment":4204,"ĠeachĠyear":4205,"eĠglitteryĠwineĠbottleĠ":4206,"Ġtouches":4207,"interest":4208,"interior":4209,"interfereĠ":4210,"tĠinĠ":4211,"tĠinĠsaidĠcounty":4212,"return":4213,"youĠareĠhappyĠ":4214,"ĠandĠmeaningful":4215,"edĠtheĠnewĠyouthĠprogram":4216,"Ġperf":4217,"Ġpermission":4218,"ĠpatientĠportal":4219,"ĠwebsiteĠ":4220,"Ġdiet":4221,"ĠtoĠsaveĠ":4222,"ĠstemĠcellsĠ":4223,"ĠstampsĠ&":4224,"ĠstampĠ&":4225,"âĢĻveĠaddedĠ":4226,"eĠspend":4227,"ĠlooksĠ":4228,"intoĠyourĠdecor":4229,"ĠshareĠwith":4230,"ĠshareĠcheer":4231,"ĠallowingĠ":4232,"!ĠiâĢĻmĠsoĠsorryĠtoĠhearĠaboutĠyourĠgrandma":4233,"ĠhaveĠaĠmerryĠchristmas":4234,"ĠcongressĠsp":4235,"edĠbyĠtheĠcountyĠcourt":4236,"post,ĠbutĠhowĠaboutĠweĠget":4237,"ĠaĠlittl":4238,"different":4239,"nextĠfew":4240,"opportunities":4241,"182":4242,"design":4243,"fastingĠ":4244,"fullĠof":4245,"grown":4246,"hisĠsuccessorsĠinĠoffic":4247,"iĠamĠsuper":4248,"iousĠhospitalityĠ":4249,"meetĠ":4250,"nessĠof":4251,"purchaser":4252,"scout":4253,"seatĠ":4254,"eĠconcer":4255,"eĠconnect":4256,"reason":4257,"arenaĠevent":4258,"aryĠpublicĠbuilding":4259,",ĠyouâĢĻllĠseeĠ":4260,"ĠcordĠbloodĠ":4261,"ĠwantedĠtoĠ":4262,"ternal":4263,"grandpa":4264,"compan":4265,"compensation":4266,"frontĠof":4267,"whatĠi":4268,"price":4269,"ĠspaceĠ":4270,"Ġspacious":4271,"willĠbeĠsoĠ":4272,"ĠwhenĠyou":4273,"makesĠitĠall":4274,"ersonal":4275,"printable.ĠhousewarmingĠpartyĠinvitesĠfreeĠtemplateĠ":4276,"ĠsweetĠfriend":4277,"zydecoĠ":4278,"Ġthereof":4279,"Ġthere'sĠa":4280,"Ġcommunity":4281,"Ġcommunities":4282,"beĠsureĠtoĠcheck":4283,"inkfreshĠstudioĠ":4284,";ĠandĠtheĠsaidĠcount":4285,"bring":4286,"familyĠ":4287,"goodĠresult":4288,"iatric":4289,"jambor":4290,"non-":4291,"n'tĠhaveĠ":4292,"oveĠth":4293,"ty.":4294,"t,Ġor":4295,"ĠtreeĠup":4296,"ĠaĠlotĠ":4297,"enefit":4298,"Ġanalysis":4299,"alwaysĠ":4300,".ĠitĠwasĠ":4301,"ofĠcard":4302,"ofĠcourse,Ġ":4303,"ister,ĠhasĠaĠstat":4304,"ingĠmeĠtoĠbeĠaĠpartĠof":4305,"Ġcouncil":4306,"ĠmarbleĠtop":4307,"ecology,Ġb":4308,"ĠpartyĠ":4309,"ĠhasĠalsoĠ":4310,"ĠhistoricĠreg":4311,"startĠwith":4312,"stampĠset":4313,"Ġdesign":4314,"resultingĠin":4315,"importantĠ":4316,"ive,ĠmoreĠ":4317,"Ġintervention":4318,"quickly":4319,"yourĠfamil":4320,"weĠhaveĠa":4321,"soĠmuchĠfun":4322,"ĠtrackĠ":4323,"ence.Ġmanag":4324,"ĠscoutĠgroupsĠaround":4325,"particular":4326,"ĠsaidĠcountyĠofĠmeigs,":4327,"blogĠfriends!Ġi":4328,"createĠaĠ":4329,"ĠhappyĠyouĠareĠenjoy":4330,"ĠcountyĠlin":4331,";ĠandĠshallĠtakeĠb":4332,"ĠtheĠshoulderĠjointĠisĠ":4333,".ĠifĠyouĠareĠconsider":4334,"Ġbaby'sĠcordĠblood":4335,"Ġassemblag":4336,"esomeĠreview!ĠweĠ":4337,"elizabethĠellisĠ":4338,"!ĠsoĠfar":4339,"!ĠsoĠpretty":4340,"!ĠhopeĠyouĠhaveĠ":4341,"!ĠhopeĠyouâĢĻreĠhavingĠaĠgreatĠ":4342,"aidĠtown":4343,"ctĠcontain":4344,"cuss":4345,"developĠa":4346,"fluenc":4347,"gnanc":4348,"laidĠoff":4349,"lights,":4350,"nationalĠhistoricĠreg":4351,"psych":4352,"pop-up":4353,"population":4354,"peopleĠar":4355,"rulyĠ":4356,"sometim":4357,"security,Ġ":4358,"uiltĠinĠ":4359,"uthorsĠre":4360,"volutionĠofĠ":4361,"Ġtuesday":4362,"Ġterm":4363,"ĠaĠvery":4364,"ĠamazingĠ":4365,"sĠpag":4366,"ĠsetĠupĠandĠ":4367,"ĠsignĠup":4368,"requir":4369,"reallyĠknow":4370,",ĠuntilĠtheĠ":4371,",ĠuntilĠother":4372,"fortun":4373,"Ġcollect":4374,"icĠinnĠexperienc":4375,"ĠtoĠprevent":4376,"electedĠ":4377,"Ġbottl":4378,"ĠbackgroundĠ":4379,"ĠdefrayingĠtheĠ":4380,"emony.Ġ":4381,"et.Ġtall":4382,"veryĠspacious":4383,"ilverĠor":4384,"Ġimpl":4385,"ĠartificialĠsweeten":4386,"Ġstandard":4387,"ĠstandardĠ":4388,"ivelyĠlandscap":4389,"eĠthroughĠtheĠnationalĠresearch":4390,"ĠreputationĠof":4391,"quietĠplac":4392,"conditionedĠforĠtheĠ":4393,"promp":4394,"ĠtheĠspecial":4395,"ĠsportsĠ":4396,"ĠsoĠexcitedĠtoĠbeĠ":4397,"newĠyorkĠfingerĠlakesĠ":4398,"eĠmansion,Ġb":4399,"yĠcardĠtoday":4400,"Ġexcited":4401,"doctoral":4402,"littleĠteddyĠbear":4403,"ĠatĠleast":4404,"odgkin":4405,"Ġcomplet":4406,"placeĠtoĠlive.Ġ":4407,"ransformationĠcer":4408,"courtĠatĠ":4409,"storedĠstemĠcellsĠ":4410,"irstĠoff,Ġi":4411,"world":4412,"ĠonlineĠatĠwww.":4413,"greenĠglitter":4414,"frontĠdoor":4415,"zydecoĠdanc":4416,"usiness.ĠtheĠ":4417,"gorgeous.Ġ":4418,"ĠmillionĠinĠearning":4419,"Ġalcoholism":4420,"!ĠloveĠyour":4421,",ĠtodayĠ":4422,";ĠbutĠi":4423,"cidentĠratesĠ":4424,"domin":4425,"distanc":4426,"e'sĠcre":4427,"focus":4428,"garland":4429,"gotĠaĠc":4430,"government":4431,"journeyĠofĠtheĠ":4432,"leftĠ":4433,"meoĠsatellit":4434,"obvious":4435,"polic":4436,"sĠareĠs":4437,"tein":4438,"wineĠ":4439,"ormousĠ":4440,"ornamentsĠ":4441,"Ġseveral":4442,"iteĠdecor":4443,"atesĠand":4444,"alaskaĠfisher":4445,".ĠjanetĠ":4446,".ĠphotoĠbyĠd":4447,"ariation":4448,",ĠnothingĠinĠthisĠa":4449,",ĠnotĠtoĠ":4450,"ĠcurrentĠ":4451,"Ġmuscles":4452,"icĠfactor":4453,"isĠonĠtop":4454,"rozenĠthem":4455,"Ġboth":4456,"ĠtoĠspendĠ":4457,"eĠtime,Ġ":4458,"ĠofĠcolonel":4459,"abilityĠof":4460,"idayĠreleas":4461,"grandĠfederal":4462,"composedĠof":4463,"eĠthereof":4464,"ostĠoftenĠresultsĠin":4465,"utophagyĠ":4466,"proximityĠtoĠ":4467,"ĠthisĠplace.Ġ":4468,"ĠreturnĠj":4469,"ĠthatĠwrappingĠpaper":4470,"adventĠcal":4471,"ĠalreadyĠ":4472,"ĠtheyĠcanĠhelp":4473,"introduc":4474,"priorĠexperienceĠ":4475,"s.ĠifĠyouĠhaveĠ":4476,"ĠyourĠfamilyĠ":4477,"Ġabsolut":4478,"eĠdiningĠroom":4479,"Ġo'haraĠsays.Ġ\"":4480,"ependingĠon":4481,"ĠnumberĠof":4482,"ĠmeetingĠwith":4483,"ĠaĠpreviousĠ":4484,"ĠaĠpatriotĠandĠs":4485,"ĠtakeĠaĠlook":4486,"ĠgraciousĠhospitalityĠ":4487,"citizensĠof":4488,"courseĠwith":4489,"presentĠorĠanyĠ":4490,"ĠaĠlargeĠ":4491,"homeĠtourĠwithĠyou":4492,"ĠaggravatedĠorganizm":4493,"printableĠhousewarmingĠpartyĠinvitationĠt":4494,"enjoysĠaĠreputationĠof":4495,"Ġyester":4496,"registrationĠguidebookĠcontain":4497,"ĠcountiesĠinĠthisĠstate":4498,"ĠpricesĠ":4499,"'veĠcreated":4500,"ĠmichaelĠkorsĠ":4501,"givenĠthatĠ":4502,"ĠthoughtĠiĠwouldĠ":4503,"nextĠyear!":4504,"day,Ġfriends!Ġi":4505,"drewĠmichaelĠandĠelizabethĠellisĠ":4506,"participant":4507,"ĠhappyĠfriday,ĠblogĠfriends!":4508,"elizabethĠellisĠandĠdrewĠmichael":4509,"faithfulĠperform":4510,"ately,Ġlatenc":4511,"Ġannounc":4512,"ĠpassedĠaway":4513,"statistical":4514,"ĠadvancedĠ":4515,"ĠaĠprivateĠbank":4516,"criptions,Ġ":4517,"Ġamerica,Ġ":4518,"iesĠscienceĠcenterĠinĠseat":4519,"eĠsoĠconstruedĠasĠtoĠ":4520,"!ĠðŁĻĤĠi":4521,"!Ġamanda,Ġi":4522,"+Ġclub":4523,"-courtĠseat":4524,"-styleĠmansion,Ġb":4525,"177":4526,"countĠ":4527,"civilĠandĠm":4528,"ceptĠ":4529,"destro":4530,"ehic":4531,"father":4532,"further":4533,"global":4534,"groceryĠst":4535,"hamilton":4536,"ieldĠ":4537,"jurisdic":4538,"lessĠthanĠtwoĠmet":4539,"ladiesâĢĻ":4540,"necessaril":4541,"oatĠofĠmetallicĠs":4542,"pioneer":4543,"ranking":4544,"stĠofĠaĠtrueĠ":4545,"saidĠcommissionerĠshall":4546,"ughĠandĠbeĠ":4547,"wider":4548,"wifeĠ":4549,"eĠhaveĠcontribut":4550,"ĠaprilĠ":4551,"inĠhonorĠofĠcolonel":4552,"sĠlastĠyear":4553,"ouglasĠreyn":4554,"eriffĠof":4555,"onĠthisĠblog":4556,"original":4557,"oreĠspecialĠwith":4558,"orieĠmeal":4559,"ĠtheĠsheriffĠof":4560,"ĠtheĠprovision":4561,"ĠtheĠchairmanĠofĠtheĠcountyĠcour":4562,"ĠsesĠg":4563,"Ġsummer":4564,"ĠsiteĠfor":4565,"ĠsufficientĠ":4566,"ĠseptemberĠ":4567,"restriction":4568,"recongress.org":4569,"resĠfromĠtheĠplayer":4570,"ĠanĠawesomeĠreview!ĠweĠ":4571,".ĠlaurenĠro":4572,".ĠhappyĠmon":4573,"ofĠourĠhouse.Ġ":4574,"youthĠday":4575,"ĠandĠonĠtheĠnationalĠhistoricĠreg":4576,"ĠandĠprovideĠfeedback":4577,"ĠandĠeasyĠaccess":4578,"ĠandĠnatural":4579,"aspinatus":4580,"Ġmodel":4581,"icĠhistoricĠinnĠexperienc":4582,"isĠgreat!ĠiĠloveĠtheĠ":4583,"isĠgorgeous":4584,"ĠpickyĠaboutĠ":4585,"edĠgrounds.ĠtheĠ":4586,"ĠheĠsays.Ġ\"":4587,"Ġhotel":4588,"ĠtoĠimproveĠ":4589,"Ġbutton":4590,"Ġbaghd":4591,"Ġbasketball":4592,"Ġdirector":4593,"employ":4594,"ĠfreeĠprintableĠhousewarmingĠpartyĠinvitationĠt":4595,"abulousĠ":4596,"igiousĠeducation":4597,"neutralĠcolor":4598,"propri":4599,"upstateĠnewĠyorkĠfingerĠlakesĠ":4600,"ĠalternativeĠ":4601,"Ġal-sistani":4602,"ĠforĠsuchĠanĠawesomeĠreview!ĠweĠ":4603,"ĠforĠtheirĠservic":4604,"yourĠhome!":4605,"yourĠrequirement":4606,"s,Ġdeceas":4607,"e,ĠinĠtheĠsumĠof":4608,"ceĠlatencyĠandĠ":4609,"s.ĠmasksĠbeingĠ":4610,"ĠyourĠloss.Ġ":4611,"Ġsparkl":4612,"ĠsoĠhappyĠtoĠ":4613,"outsideĠofĠourĠhouse.Ġ":4614,"bertĠwhitaker":4615,"iveĠstarĠreview":4616,"ĠattendĠcongressĠ":4617,"oreĠyourĠbaby'sĠcordĠbloodĠpriv":4618,"inĠtheĠmidstĠofĠaĠtrueĠ":4619,"ĠtimesĠaĠday":4620,"preferred.Ġ":4621,"precedingĠyear":4622,"ĠourĠprofessional":4623,"cordĠclamping":4624,"enceĠonĠattractivelyĠlandscap":4625,"ĠofĠtheĠb&bĠteam":4626,"anceĠinstru":4627,"elyĠpresenceĠonĠattractivelyĠlandscap":4628,"ĠtheĠfastĠfoodĠ":4629,"ĠcombinationĠof":4630,"ĠhopeĠyourĠweekĠisĠgoingĠ":4631,"glitteryĠwineĠbottl":4632,"ĠtheĠbrisban":4633,",ĠiĠhadĠsoĠmuchĠfun":4634,"ustralianĠopen":4635,"iotĠdalton":4636,"live,ĠlaughĠandĠbeĠ":4637,"sĠtoĠtravel":4638,"emplatesĠprintable.ĠhousewarmingĠpartyĠinvitesĠfreeĠtemplateĠ":4639,"âĢĻmĠsorryĠtoĠhearĠaboutĠyourĠgrandmother":4640,"regionĠclassicĠhistoricĠinnĠexperienc":4641,"shoppingĠcenter":4642,"housewarmingĠinvitationĠtemplateĠ":4643,"ĠadditionalĠinformationĠaboutĠmeoĠsatellit":4644,"maintenance.Ġ":4645,"underĠtheĠamendedĠconstitution":4646,"sĠofĠtheĠgeneralĠassembly":4647,"ĠsoĠsorryĠforĠyourĠloss.Ġ":4648,"currentlyĠs":4649,"interiorĠdesign":4650,"interfereĠwith":4651,"eĠconnectivity":4652,"compensationĠforĠtheirĠservic":4653,";ĠandĠtheĠsaidĠcountyĠofĠmeigsĠshall":4654,"iatricĠdrug":4655,"ister,ĠhasĠaĠstatelyĠpresenceĠonĠattractivelyĠlandscap":4656,"ĠscoutĠgroupsĠaroundĠaustralia":4657,".ĠifĠyouĠareĠconsideringĠ":4658,"ctĠcontainedĠshallĠb":4659,"sometimes":4660,"ĠaĠveryĠspecial":4661,"ĠdefrayingĠtheĠexpens":4662,"eĠthroughĠtheĠnationalĠresearchĠcouncil":4663,"odgkin'sĠ":4664,"ĠonlineĠatĠwww.recongress.org":4665,"alaskaĠfisheriesĠscienceĠcenterĠinĠseat":4666,".ĠjanetĠduffy-anderson":4667,".ĠphotoĠbyĠdouglasĠreyn":4668,",ĠnothingĠinĠthisĠactĠcontainedĠshallĠb":4669,"grandĠfederal-styleĠmansion,Ġb":4670,"adventĠcalendar":4671,"ĠaĠpatriotĠandĠsoldierĠofĠtheĠ":4672,"ĠgraciousĠhospitalityĠinĠtheĠmidstĠofĠaĠtrueĠ":4673,"presentĠorĠanyĠprecedingĠyear":4674,"enjoysĠaĠreputationĠofĠgraciousĠhospitalityĠinĠtheĠmidstĠofĠaĠtrueĠ":4675,"jurisdiction":4676,"lessĠthanĠtwoĠmetresĠfromĠtheĠplayer":4677,"inĠhonorĠofĠcolonelĠreturnĠj":4678,"ĠtheĠchairmanĠofĠtheĠcountyĠcourtĠofĠmeig":4679,"restrictions,ĠandĠ":4680,"ĠandĠonĠtheĠnationalĠhistoricĠregister,ĠhasĠaĠstatelyĠpresenceĠonĠattractivelyĠlandscap":4681,"ĠfreeĠprintableĠhousewarmingĠpartyĠinvitationĠtemplatesĠprintable.ĠhousewarmingĠpartyĠinvitesĠfreeĠtemplateĠ":4682,"upstateĠnewĠyorkĠfingerĠlakesĠregionĠclassicĠhistoricĠinnĠexperienc":4683,"ĠhopeĠyourĠweekĠisĠgoingĠgreat!":4684,"live,ĠlaughĠandĠbeĠhapp":4685,"ĠonlineĠatĠwww.recongress.org/":4686,"alaskaĠfisheriesĠscienceĠcenterĠinĠseattle,Ġwa":4687,".ĠphotoĠbyĠdouglasĠreynolds.Ġ":4688,"grandĠfederal-styleĠmansion,ĠbuiltĠinĠ":4689,"enjoysĠaĠreputationĠofĠgraciousĠhospitalityĠinĠtheĠmidstĠofĠaĠtrueĠupstateĠnewĠyorkĠfingerĠlakesĠregionĠclassicĠhistoricĠinnĠexperienc":4690,"ĠandĠonĠtheĠnationalĠhistoricĠregister,ĠhasĠaĠstatelyĠpresenceĠonĠattractivelyĠlandscapedĠgrounds.ĠtheĠ":4691,"!Ġ":4692,"!Ġt":4693,"!Ġand":4694,"!ĠthatĠ":4695,"!Ġlo":4696,"!Ġha":4697,"!Ġso":4698,"!ĠaĠf":4699,"!).":4700,"!Ġsuch":4701,"!ĠtheseĠ":4702,"!iĠhaveĠ":4703,"!Ġthink":4704,"!ĠhaveĠa":4705,"!ĠveryĠ":4706,"!Ġtoday":4707,"!ĠthisĠisĠ":4708,"!ĠitâĢĻsĠ":4709,"!ĠaĠfew":4710,"!ĠtheyĠareĠ":4711,"!ĠrecentlyĠ":4712,"!ĠsoĠsorryĠtoĠhearĠaboutĠyourĠgrandma":4713,"!Ġwhat":4714,"!Ġrustic":4715,"!ĠthoseĠglitter":4716,"!ĠsinceĠ":4717,"!ĠitĠall":4718,"!ĠbeenĠan":4719,"!ĠwhenĠyou":4720,"!ĠhappyĠfriday,ĠblogĠfriends!":4721,"\",":4722,"\".":4723,"\"f":4724,"\"s":4725,"\"in":4726,"\"Ġc":4727,"\"asĠ":4728,"\"when":4729,"\"Ġafter":4730,"\"justĠ":4731,"\"Ġwhen":4732,"\"ĠisĠa":4733,"\"quiteĠ":4734,"\"ĠtoĠbeĠt":4735,"#su":4736,"#gatehous":4737,"%Ġf":4738,"%ĠofĠtheĠ":4739,"%Ġno":4740,"%ĠandĠad":4741,"&Ġ":4742,"&Ġm":4743,"&Ġg":4744,"&Ġres":4745,"&Ġpre":4746,"'.":4747,"'r":4748,"'in":4749,"'dĠ":4750,"'sĠof":4751,"'sĠt":4752,"'fetti":4753,"(i":4754,"(ec":4755,"(ex":4756,"(ap":4757,"(theĠ":4758,"(opportun":4759,"(espec":4760,")!":4761,")ĠandĠ":4762,")Ġm":4763,")ĠtoĠ":4764,")Ġin":4765,")Ġre":4766,")Ġor":4767,")ĠandĠtheĠ":4768,")Ġ(":4769,")Ġprogram":4770,")Ġis":4771,")Ġthan":4772,")ĠtoĠbeĠ":4773,")ĠâĢĶ":4774,")ĠbyĠ":4775,")ĠofĠtheĠb&bĠteam":4776,"*theĠnumber":4777,"+ĠtheĠma":4778,",Ġth":4779,",ĠtoĠ":4780,",Ġar":4781,",Ġall":4782,",Ġas":4783,",ĠthankĠyou":4784,",Ġthat":4785,",Ġthes":4786,",Ġso":4787,",ĠalsoĠ":4788,",ĠtheĠm":4789,",ĠtheĠt":4790,",Ġthen":4791,",ĠatĠleas":4792,",ĠthereĠis":4793,",ĠalwaysĠ":4794,",Ġangel":4795,",Ġstor":4796,",Ġstress":4797,",ĠtheyĠdoĠ":4798,",ĠsuchĠasĠ":4799,",Ġannoun":4800,",Ġalthough":4801,",ĠspendingĠl":4802,",ĠatĠtheĠsam":4803,",ĠtheĠfirstĠ":4804,",ĠtoĠsaveĠ":4805,",ĠstemĠcellsĠ":4806,",ĠsweetĠfriend":4807,",ĠscoutĠgroupsĠaroundĠaustralia":4808,"-$":4809,"-g":4810,"-q":4811,"-in":4812,"-ec":4813,"-ed":4814,"-st":4815,"-Ġi":4816,"-ter":4817,"-no":4818,"-year":4819,"-dec":4820,"-mak":4821,"-so":4822,"-cal":4823,"-pa":4824,"-ĠjustĠ":4825,"-endĠ":4826,"-bo":4827,"-ĠiĠam":4828,"-month":4829,"-star":4830,"-born":4831,"-fo":4832,"-in-":4833,"-medic":4834,"-podg":4835,"-maintain":4836,"-seatĠ":4837,".c":4838,".m":4839,".ro":4840,".Ġto":4841,".com":4842,".Ġand":4843,".Ġam":4844,".Ġas":4845,".ĠthankĠyou":4846,".org":4847,".Ġsc":4848,".Ġthes":4849,".ĠthereĠ":4850,".Ġthis":4851,".ĠanyĠ":4852,".ĠandĠs":4853,".ĠtheseĠ":4854,".Ġtop":4855,".Ġthey":4856,".Ġthough":4857,".d.Ġ":4858,".Ġanalys":4859,".ĠthankĠyouĠsoĠmuch":4860,".ĠaĠfew":4861,".ĠalwaysĠ":4862,".ĠshoulderĠpain":4863,".Ġton":4864,".Ġtook":4865,".ĠandĠthen":4866,".ĠalsoĠtheĠ":4867,".noaa.gov":4868,".ht":4869,".ĠspendingĠl":4870,".ĠatĠtheĠsam":4871,".Ġthankful":4872,".ĠtheyĠcanĠhelp":4873,"//":4874,"/th":4875,"/ed":4876,"/Ġtabl":4877,"/).":4878,"/guidebook":4879,"02":4880,"03":4881,"09":4882,"13":4883,"27":4884,"28":4885,"234":4886,"33":4887,"37":4888,"300":4889,"42":4890,"44":4891,"46":4892,"49":4893,"424":4894,"460":4895,"434":4896,"548":4897,"62":4898,"67":4899,"600":4900,"646":4901,"75":4902,"80":4903,"89":4904,"800":4905,"90":4906,"94":4907,"95":4908,"915":4909,"967":4910,":ĠtheĠ":4911,":Ġc":4912,":Ġm":4913,":Ġl":4914,":Ġcont":4915,":Ġmar":4916,":Ġfun":4917,":ĠthisĠyear":4918,":ĠshoulderĠpain":4919,":Ġmy":4920,"://":4921,";Ġw":4922,";Ġyou":4923,";Ġl":4924,";Ġfor":4925,";ĠatĠ":4926,";ĠtoĠbeĠ":4927,";Ġact":4928,";ĠaĠpr":4929,";ĠitâĢĻsĠ":4930,";ĠfirstĠ":4931,";Ġjan":4932,";ĠsoĠhappyĠtoĠ":4933,";ĠaĠpatriotĠandĠsoldierĠofĠtheĠ":4934,"<s>":4935,"?Ġyou":4936,"?Ġin":4937,"?Ġwh":4938,"?ĠtheĠm":4939,"?Ġis":4940,"?Ġafter":4941,"?Ġy":4942,"?âĢĿ":4943,"?Ġac":4944,"?ĠiĠam":4945,"?ĠtoĠm":4946,"?Ġlik":4947,"?Ġliv":4948,"?ĠthisĠisĠa":4949,"?ĠsetĠupĠandĠ":4950,"@Ġg":4951,"[$":4952,"[do":4953,"]Ġl":4954,"]).":4955,"a.Ġ":4956,"aĠg":4957,"aim":4958,"aĠlo":4959,"a.ĠtheĠ":4960,"aĠcon":4961,"aĠisĠ":4962,"a.Ġi":4963,"aĠtoĠtheĠ":4964,"aâĢĻsĠ":4965,"aĠcom":4966,"aĠandĠtheĠ":4967,"aign":4968,"a,Ġa":4969,"afe":4970,"a,Ġh":4971,"aĠlotĠof":4972,"aĠpremium":4973,"ajor":4974,"a.ĠyouĠcan":4975,"aĠworkshop":4976,"a.Ġin":4977,"aĠpo":4978,"aĠshow":4979,"aĠspecific":4980,"aĠwhoĠ":4981,"aĠlotĠofĠm":4982,"aitingĠfor":4983,"averag":4984,"agranc":4985,"aumat":4986,"a!ĠiâĢĻmĠsoĠsorryĠtoĠhearĠaboutĠyourĠgrandma":4987,"australianĠopen":4988,"a;Ġact":4989,"bb":4990,"bi":4991,"bq":4992,"bt":4993,"bu":4994,"bsĠ":4995,"bat":4996,"bec":4997,"bĠf":4998,"bow":4999,"bitĠ":5000,"bad":5001,"bandĠ":5002,"boo":5003,"bum":5004,"bĠwith":5005,"bition":5006,"bustĠ":5007,"brough":5008,"beĠtheĠ":5009,"bish":5010,"beautiful":5011,"birth":5012,"beĠtheĠs":5013,"bestĠqual":5014,"bĠchristmas":5015,"b,Ġres":5016,"bondĠwith":5017,"benefitĠ":5018,"bĠandĠcon":5019,"besĠl":5020,"byĠcall":5021,"bugg":5022,"bedĠandĠbreak":5023,"brightĠwhit":5024,"benefit":5025,"beĠsoĠconstruedĠasĠtoĠ":5026,"bĠsiteĠfor":5027,"b\"Ġwhen":5028,"cg":5029,"cen":5030,"c.Ġ":5031,"cedĠ":5032,"cur":5033,"col":5034,"ccount":5035,"cĠj":5036,"cutĠ":5037,"crist":5038,"cav":5039,"cult":5040,"cra":5041,"castĠ":5042,"cedĠto":5043,"cuseĠ":5044,"color":5045,"ccord":5046,"cuteĠ":5047,"cept":5048,"c.ĠsoĠ":5049,"curs":5050,"coupl":5051,"ceful":5052,"c-ed":5053,"c.com":5054,"ca,Ġh":5055,"cbsĠ":5056,"d-":5057,"dg":5058,"dn":5059,"den":5060,"dat":5061,"dar":5062,"dem":5063,"dab":5064,"dea":5065,"dol":5066,"dot":5067,"dĠthatĠ":5068,"dĠat":5069,"dav":5070,"deb":5071,"dsĠtoĠ":5072,"danc":5073,"dwell":5074,"dingĠs":5075,"deal":5076,"diver":5077,"dio":5078,"diec":5079,"deep":5080,"dĠasĠwell":5081,"d,Ġshall":5082,"deĠf":5083,"datesĠ":5084,"dantĠ":5085,"drug":5086,"draf":5087,"dĠangel":5088,"ds:":5089,"dorm":5090,"dear,Ġ":5091,"drais":5092,"deĠho":5093,"d,Ġch":5094,"dsĠtoĠa":5095,"dsĠpag":5096,"dependingĠon":5097,"dĠtakeĠaĠlook":5098,"danceĠinstru":5099,"d,ĠatĠleas":5100,"ee":5101,"eth":5102,"eveĠ":5103,"eith":5104,"eet":5105,"eatĠ":5106,"eil":5107,"eim":5108,"eir":5109,"eâĢĻ":5110,"eeĠs":5111,"egr":5112,"eup":5113,"ee,Ġ":5114,"ether":5115,"eum":5116,"e!Ġi":5117,"eâĢĻsĠ":5118,"eover":5119,"eight":5120,"eyĠtheĠ":5121,"eign":5122,"ey.Ġ":5123,"e;ĠandĠ":5124,"eâĢĿ":5125,"eâĢĶ":5126,"eâĢĻll":5127,"effect":5128,"eeĠthatĠ":5129,"eableĠto":5130,"eingĠall":5131,"e;ĠandĠshall":5132,"e;ĠthenceĠ":5133,"euk":5134,"e'veĠbeen":5135,"e\"Ġafter":5136,"e;ĠaĠpr":5137,"ft":5138,"fu":5139,"ftĠ":5140,"fĠm":5141,"fĠp":5142,"fĠtoĠ":5143,"fet":5144,"fatĠ":5145,"fall":5146,"four":5147,"fil":5148,"fus":5149,"fĠi":5150,"foun":5151,"fab":5152,"fig":5153,"fif":5154,"fĠl":5155,"fell":5156,"fĠwith":5157,"fection":5158,"found":5159,"fĠr":5160,"find":5161,"festĠ":5162,"fightĠ":5163,"fire":5164,"fĠ(":5165,"fĠup":5166,"food":5167,"flow":5168,"feliz":5169,"fix":5170,"fĠtall":5171,"f.Ġit":5172,"fidentĠ":5173,"factor":5174,"firstĠof":5175,"frozen":5176,"faceĠ":5177,"ffordabl":5178,"floor":5179,"faction":5180,"gor":5181,"gen":5182,"gan":5183,"gĠh":5184,"gig":5185,"gul":5186,"gir":5187,"gif":5188,"gop":5189,"gast":5190,"gical":5191,"gersĠ":5192,"geĠtheĠ":5193,"gers":5194,"gyĠm":5195,"ggl":5196,"gativeĠ":5197,"gyn":5198,"gingĠof":5199,"gĠinĠ":5200,"gistrationĠguidebook":5201,"giveĠth":5202,"geĠab":5203,"gender":5204,"gladĠ":5205,"geĠdiningĠroom":5206,"hs":5207,"hy":5208,"hen":5209,"his":5210,"hel":5211,"hall":5212,"hus":5213,"hop":5214,"hum":5215,"homeĠ":5216,"hanc":5217,"htt":5218,"hy.Ġ":5219,"hood":5220,"hardĠ":5221,"host":5222,"hisĠb":5223,"honor":5224,"hould":5225,"hĠasĠa":5226,"human":5227,"hopeĠyou":5228,"hensiveĠ":5229,"hysical":5230,"heaselgraveĠsaysĠtheĠ":5231,"hmm":5232,"hedge":5233,"hĠiĠmad":5234,"handyĠ":5235,"handmad":5236,"hollywoodĠ":5237,"hĠsweetĠfriend":5238,"hodgkin'sĠ":5239,"iar":5240,"ifor":5241,"iab":5242,"iâĢĻ":5243,"iĠl":5244,"ipar":5245,"ieĠb":5246,"ipp":5247,"iĠcan":5248,"iĠr":5249,"ie!":5250,"iwork":5251,"ienceĠ":5252,"ianc":5253,"iaĠ":5254,"iiteĠ":5255,"iĠgu":5256,"iedĠfor":5257,"i'veĠ":5258,"iusĠ":5259,"iâĢĻll":5260,"iativeĠ":5261,"iĠhous":5262,"ially":5263,"ioĠd":5264,"iĠget":5265,"iĠshareĠ":5266,"ihadĠ":5267,"iĠtreeĠ":5268,"ience.Ġ":5269,"iĠaustralia":5270,"iĠjustĠloveĠ":5271,"iĠno":5272,"iĠpurchas":5273,"iĠoffer":5274,"i'veĠbeen":5275,"i!ĠthankĠyouĠforĠtheĠawesomeĠreview":5276,"iĠwantedĠtoĠ":5277,"iĠal-sistani":5278,"ieveĠ":5279,"ju":5280,"jad":5281,"jum":5282,"jok":5283,"judgment":5284,"jonĠc":5285,"juneĠ":5286,"jump":5287,"jectĠwith":5288,"ky":5289,"kat":5290,"kĠm":5291,"ked":5292,"ket":5293,"kus":5294,"kid":5295,"kir":5296,"kos":5297,"kend":5298,"ks,Ġ":5299,"k,ĠandĠ":5300,"kest":5301,"k.Ġi":5302,"keĠandĠ":5303,"kingĠtheĠ":5304,"kok":5305,"keyĠ":5306,"karen":5307,"kah":5308,"key":5309,"kaĠd":5310,"kĠofĠtheĠbod":5311,"k'sĠof":5312,"lou":5313,"ldĠ":5314,"las":5315,"ledĠ":5316,"lac":5317,"loun":5318,"leĠs":5319,"le,Ġ":5320,"lĠtheĠs":5321,"layĠ":5322,"lyĠof":5323,"leb":5324,"link":5325,"les.Ġ":5326,"lamp":5327,"louch":5328,"liver":5329,"late":5330,"larg":5331,"lĠ-":5332,"lesĠon":5333,"ley":5334,"liam":5335,"l.ĠoneĠ":5336,"lung":5337,"lyĠoffer":5338,"le.ĠandĠ":5339,"liquidĠwatercolor":5340,"lsĠand":5341,"ledge":5342,"let'sĠ":5343,"layers":5344,"lidel":5345,"limitedĠ":5346,"litĠup":5347,"lakesĠandĠ":5348,"leĠtoĠcreateĠ":5349,"lyĠcl":5350,"l)Ġ(":5351,"leuk":5352,"mč":5353,"msĠ":5354,"men":5355,"mĠc":5356,"med":5357,"mem":5358,"mil":5359,"mation":5360,"mill":5361,"me,Ġ":5362,"metĠ":5363,"meas":5364,"mum":5365,"mĠisĠ":5366,"mok":5367,"mustĠ":5368,"mightĠ":5369,"mart":5370,"msĠthatĠ":5371,"meĠof":5372,"michael":5373,"meĠthisĠ":5374,"mĠalso":5375,"mingĠof":5376,"mph":5377,"matur":5378,"moment":5379,"m.ĠyouĠcan":5380,"mcminn":5381,"mĠofĠc":5382,"m.Ġhi":5383,"militar":5384,"mĠic":5385,"matter":5386,"mostĠoftenĠresultsĠin":5387,"m/ed":5388,"mc.com":5389,"ndĠ":5390,"nat":5391,"ningĠ":5392,"nas":5393,"nel":5394,"nol":5395,"nos":5396,"n.ĠtheĠ":5397,"nĠcon":5398,"nack":5399,"nast":5400,"nightĠ":5401,"nia":5402,"nĠor":5403,"night":5404,"nityĠ":5405,"n.Ġs":5406,"nessĠ":5407,"neck":5408,"n,Ġs":5409,"niqu":5410,"nativeĠ":5411,"nĠe":5412,"nĠdayĠ":5413,"nuest":5414,"nectĠwith":5415,"ningĠaĠs":5416,"o.Ġ":5417,"o,Ġ":5418,"oil":5419,"oter":5420,"oot":5421,"oidĠ":5422,"oĠsp":5423,"oher":5424,"oast":5425,"oĠaĠp":5426,"occ":5427,"oci":5428,"oĠshall":5429,"obil":5430,"october":5431,"oĠtrack":5432,"oĠstr":5433,"o'haraĠs":5434,"oordin":5435,"oĠshow":5436,"oxy":5437,"oonĠfor":5438,"o.ĠhopeĠyou":5439,"o!ĠaĠfew":5440,"o-fo":5441,"o.ĠthankĠyou":5442,"ocol":5443,"ohĠsweetĠfriend":5444,"pon":5445,"pan":5446,"pow":5447,"pul":5448,"piv":5449,"put":5450,"petĠ":5451,"pep":5452,"past":5453,"pink":5454,"pman":5455,"pĠtheĠm":5456,"pe:":5457,"peek":5458,"pedĠbyĠ":5459,"pectĠ":5460,"paper":5461,"pioĠ":5462,"power":5463,"potential":5464,"pe:Ġ":5465,"pcĠcounterĠheightĠ":5466,"pable.Ġ":5467,"paĠisĠa":5468,"peaker":5469,"p,Ġall":5470,"p:Ġfun":5471,"pca,Ġh":5472,"pmĠc":5473,"qĠjan":5474,"ron":5475,"roĠ":5476,"r.Ġ":5477,"rom":5478,"ringĠ":5479,"ram":5480,"rĠof":5481,"rid":5482,"rim":5483,"rĠl":5484,"rap":5485,"rum":5486,"rain":5487,"round":5488,"rareĠ":5489,"rind":5490,"rud":5491,"rick":5492,"roundĠ":5493,"rumĠof":5494,"randyĠ":5495,"raspinatus":5496,"stĠ":5497,"sor":5498,"sen":5499,"syĠ":5500,"sch":5501,"sent":5502,"satĠ":5503,"sâĢĻ":5504,"sect":5505,"sea":5506,"sĠthisĠ":5507,"send":5508,"spr":5509,"soo":5510,"sever":5511,"se.":5512,"sav":5513,"sover":5514,"sport":5515,"sical":5516,"sĠthem":5517,"sia":5518,"song":5519,"seĠin":5520,"ses.Ġ":5521,"sĠalsoĠ":5522,"sĠtheĠm":5523,"session":5524,"s;ĠandĠ":5525,"sureĠ":5526,"sgiv":5527,"slam":5528,"system":5529,"six":5530,"syĠst":5531,"ses,Ġ":5532,"s;ĠandĠshall":5533,"sĠalaska":5534,"sesĠwith":5535,"soundproofĠwindowĠguy":5536,"sĠthemselv":5537,"sych":5538,"sentim":5539,"sĠtheyĠcan":5540,"sĠtrueĠ":5541,"schedule,":5542,"s-l":5543,"singĠ&":5544,"samsung":5545,"sulin":5546,"sentĠfrom":5547,"sakesĠandĠ":5548,"sĠtoĠtheĠfrontĠ":5549,"sĠtheĠfour-":5550,"sĠalreadyĠ":5551,"s\"ĠisĠa":5552,"s;ĠfirstĠ":5553,"s?Ġwh":5554,"skir":5555,"t.Ġ":5556,"tĠandĠ":5557,"tedĠ":5558,"tation":5559,"top":5560,"tabl":5561,"t!Ġi":5562,"treat":5563,"tast":5564,"tingĠtheĠ":5565,"tableĠ":5566,"tingĠa":5567,"tallyĠ":5568,"tingĠroom":5569,"tĠandĠtheĠ":5570,"tru":5571,"tĠap":5572,"teach":5573,"taĠs":5574,"teĠl":5575,"tĠtheĠsameĠ":5576,"tober":5577,"tach":5578,"teeĠ":5579,"tsĠwith":5580,"treas":5581,"t!ĠthankĠyouĠsoĠmuch":5582,"toĠtheĠ":5583,"trip":5584,"trans":5585,"tiqueĠ":5586,"t,Ġbut":5587,"tĠtheĠprogram":5588,"tosĠen":5589,"trins":5590,"tĠtoĠmyĠ":5591,"taken":5592,"tĠtoĠtheĠfrontĠ":5593,"targetĠ":5594,"tsĠareĠs":5595,"tsĠthem":5596,"uen":5597,"uit":5598,"uic":5599,"uĠp":5600,"uel":5601,"upl":5602,"ueĠt":5603,"ueĠs":5604,"uter":5605,"uitĠ":5606,"ue.Ġ":5607,"uceĠ":5608,"usĠof":5609,"uev":5610,"uiteĠ":5611,"ucc":5612,"ually":5613,"urop":5614,"ually,Ġ":5615,"uĠbutton":5616,"ucrist":5617,"vy":5618,"vou":5619,"vdĠ":5620,"ving":5621,"var":5622,"vect":5623,"vill":5624,"vak":5625,"vell":5626,"vâĢĻsĠ":5627,"vign":5628,"vĠv":5629,"veal":5630,"vedĠbyĠ":5631,"vins":5632,"void":5633,"variation":5634,"vehic":5635,"vdĠthatĠ":5636,"veyĠtheĠ":5637,"vmc.com":5638,"vuel":5639,"wom":5640,"wĠtoĠ":5641,"wel":5642,"wil":5643,"wank":5644,"west":5645,"wreat":5646,"wareĠ":5647,"wĠres":5648,"wov":5649,"wardĠ":5650,"watch":5651,"wesomeĠ":5652,"wĠisĠa":5653,"weĠtak":5654,"w,ĠthankĠyouĠsoĠmuch":5655,"western":5656,"wivesĠwill":5657,"wĠregular":5658,"w-no":5659,"woĠstr":5660,"xed,Ġ":5661,"xtĠtoĠmyĠ":5662,"yat":5663,"yth":5664,"yingĠ":5665,"yĠto":5666,"yesĠ":5667,"yay":5668,"yĠal":5669,"ypr":5670,"y.ĠtheĠ":5671,"ysĠandĠ":5672,"ycl":5673,"yĠtr":5674,"yik":5675,"yĠthes":5676,"yĠthrough":5677,"yingĠtoĠ":5678,"yĠtabl":5679,"yĠthan":5680,"yĠac":5681,"yedĠwith":5682,"yâĢĶ":5683,"yĠtour":5684,"yĠtimeĠ":5685,"yrightĠ":5686,"yĠthough":5687,"y.ĠsectionĠ":5688,"yĠaboutĠyourĠgr":5689,"yĠteam":5690,"y;Ġand":5691,"yĠagain":5692,"yuk":5693,"yĠappoint":5694,"yĠapartmentĠ":5695,"yers.Ġ":5696,"yĠsoĠwe":5697,"y.ĠthisĠisĠtheĠ":5698,"y!ĠhopeĠyouĠhaveĠ":5699,"y\"ĠtoĠbeĠt":5700,"y,ĠthankĠyou":5701,"ype:":5702,"zyĠ":5703,"zim":5704,"zasĠ":5705,"zĠandĠs":5706,"zaĠm":5707,"¡Ġl":5708,"©Ġ":5709,"®Ġ/":5710,"ºaĠcon":5711,"Â©Ġ":5712,"Â®Ġ/":5713,"ÃŃ":5714,"Ã¡Ġl":5715,"ÃºaĠcon":5716,"Ġed":5717,"Ġem":5718,"Ġow":5719,"Ġut":5720,"ĠoutĠ":5721,"Ġev":5722,"Ġ..":5723,"Ġest":5724,"Ġeat":5725,"Ġef":5726,"Ġview":5727,"Ġown":5728,"Ġeng":5729,"ĠyĠm":5730,"Ġorganiz":5731,"Ġriver":5732,"Ġuk":5733,"Ġoper":5734,"ĠzydecoĠd":5735,"Ġecosystem":5736,"Ġoption":5737,"ĠeveryĠ":5738,"ĠchristmasĠinĠportugal":5739,"Ġowner":5740,"ĠðŁĻģ":5741,"ĠopportunityĠtoĠ":5742,"Ġu.":5743,"Ġensure":5744,"Ġopportunities":5745,"Ġ!ĠsoĠfar":5746,"ĠenjoysĠaĠreputationĠofĠgraciousĠhospitalityĠinĠtheĠmidstĠofĠaĠtrueĠupstateĠnewĠyorkĠfingerĠlakesĠregionĠclassicĠhistoricĠinnĠexperienc":5747,"Ġ'fetti":5748,"Ġ@Ġg":5749,"Ġ[$":5750,"eĠyĠ":5751,"eĠal":5752,"eĠfor":5753,"eĠlo":5754,"eĠatĠ":5755,"eĠall":5756,"eĠitĠ":5757,"eĠev":5758,"eĠnow":5759,"eĠinĠtheĠ":5760,"eĠareĠ":5761,"eĠover":5762,"eĠofĠtheĠ":5763,"eĠgo":5764,"eĠâĢĵ":5765,"eĠifĠyou":5766,"eĠla":5767,"eĠpres":5768,"eĠhear":5769,"eĠpit":5770,"eĠitsĠ":5771,"eĠqual":5772,"eĠintoĠ":5773,"eĠemail":5774,"eĠvisit":5775,"eĠputĠ":5776,"eĠalway":5777,"eĠmail":5778,"eĠfeel":5779,"eĠpat":5780,"eĠwa":5781,"eĠonly":5782,"eĠproc":5783,"eĠpark":5784,"eĠisĠall":5785,"eĠnote:":5786,"eĠimplementation":5787,"eĠprettyĠ":5788,"eĠjack":5789,"eĠisnâĢĻtĠ":5790,"eĠusing":5791,"eĠposition":5792,"eĠonĠaĠd":5793,"eĠwillĠbeĠsoĠ":5794,"eĠecology,Ġb":5795,"eĠ-ĠiĠam":5796,"eĠnuest":5797,"Ġtre":5798,"Ġtal":5799,"Ġtar":5800,"Ġtom":5801,"Ġtel":5802,"Ġtea":5803,"Ġtend":5804,"Ġtap":5805,"Ġtell":5806,"Ġtest":5807,"Ġtact":5808,"Ġtreat":5809,"ĠtreatĠ":5810,"Ġtight":5811,"Ġtull":5812,"Ġtip":5813,"Ġtier":5814,"ĠtemplateĠ":5815,"Ġtrip":5816,"Ġtribut":5817,"Ġtreatment":5818,"Ġtaugh":5819,"Ġt.Ġj":5820,"Ġtestim":5821,"ĠteddyĠbear":5822,"Ġtissu":5823,"ĠtargetĠ":5824,"ĠtiedĠfor":5825,"ĠtvâĢĻsĠ":5826,"Ġtype:":5827,"ĠaĠd":5828,"Ġaim":5829,"Ġash":5830,"ĠaĠn":5831,"ĠaĠk":5832,"Ġaway":5833,"ĠaĠcom":5834,"ĠaĠch":5835,"Ġacre":5836,"Ġaug":5837,"ĠaĠlotĠof":5838,"ĠaĠtour":5839,"ĠaĠweek":5840,"Ġactor":5841,"Ġaction":5842,"ĠaĠstud":5843,"ĠaĠspac":5844,"Ġavail":5845,"ĠawayĠ":5846,"ĠaĠveryĠ":5847,"Ġauthor":5848,"ĠaĠreason":5849,"Ġawhil":5850,"ĠaĠton":5851,"ĠavailableĠfor":5852,"ĠaĠstemĠcellĠtrans":5853,"Ġautomat":5854,"ĠaĠconven":5855,"ĠautophagyĠ":5856,"ĠaĠnumberĠof":5857,"ĠaustralianĠopen":5858,"Ġaffordabl":5859,"Ġavoid":5860,"Ġayat":5861,"inĠth":5862,"inec":5863,"inesĠ":5864,"ins,Ġ":5865,"ine,Ġ":5866,"inĠall":5867,"inateĠ":5868,"inev":5869,"incl":5870,"inĠit":5871,"inĠch":5872,"incan":5873,"inish":5874,"inessĠ":5875,"ince":5876,"inĠtenn":5877,"inĠqu":5878,"inĠtheĠsameĠ":5879,"ineĠthatĠ":5880,"inĠwhich":5881,"inĠtouch":5882,"inĠsuper":5883,"inuteĠ":5884,"inĠdecor":5885,"in.ĠandĠ":5886,"inĠhisĠ":5887,"inĠgoodĠ":5888,"incidentĠ":5889,"inĠcoffe":5890,"ineĠseat":5891,"inĠjapan":5892,"inĠwithoutĠ":5893,"inĠforĠtheĠawesomeĠreview":5894,"incum":5895,"inelakeĠ":5896,"insĠad":5897,"insĠinĠtheĠ":5898,"inĠtheirĠhea":5899,"incred":5900,"inĠaĠsmall":5901,"inĠplac":5902,"inĠadditionĠtoĠtheĠ":5903,"ineĠconcer":5904,"in,ĠyouâĢĻllĠseeĠ":5905,"inĠtrackĠ":5906,"inĠsaidĠcountyĠofĠmeigs,":5907,"inĠseveral":5908,"inĠyourĠfamilyĠ":5909,"inĠaĠprivateĠbank":5910,"in.ĠthankĠyouĠsoĠmuch":5911,"inaĠwhoĠ":5912,"infection":5913,"iniĠtreeĠ":5914,"inoĠsp":5915,"inĠeng":5916,"ineĠecology,Ġb":5917,"Ġthurs":5918,"sĠit":5919,"sĠll":5920,"sĠour":5921,"sĠno":5922,"sĠher":5923,"sĠpart":5924,"sĠgo":5925,"sĠwasĠ":5926,"sĠwhen":5927,"sĠopen":5928,"sĠcenter":5929,"sĠâĢľ":5930,"sĠuseĠ":5931,"sĠdon":5932,"sĠmask":5933,"sĠâĢĶ":5934,"sĠevent":5935,"sĠdiningĠroom":5936,"sĠeverythingĠ":5937,"sĠmad":5938,"sĠintoĠ":5939,"sĠby":5940,"sĠdown":5941,"sĠsc":5942,"sĠchair":5943,"sĠwhatĠ":5944,"sĠwillĠb":5945,"sĠfirstĠ":5946,"sĠweĠhaveĠ":5947,"sĠcanĠbeĠ":5948,"sĠfeel":5949,"sĠlaidĠ":5950,"sĠisĠnotĠ":5951,"sĠfill":5952,"sĠfiveĠ":5953,"sĠmean":5954,"sĠinto":5955,"sĠfromĠ":5956,"sĠcours":5957,"sĠmelb":5958,"sĠrack":5959,"sĠresearch":5960,"sĠearlier":5961,"sĠprepar":5962,"sĠbeenĠgreat":5963,"sĠnotĠbeĠ":5964,"sĠplaceĠ":5965,"sĠglen":5966,"sĠveryĠspacious":5967,"sĠconditionedĠforĠtheĠ":5968,"sĠemploy":5969,"sĠlessĠthanĠtwoĠmetresĠfromĠtheĠplayer":5970,"sĠdorm":5971,"sĠket":5972,"ous,Ġ":5973,"outher":5974,"oud.Ġ":5975,"outhĠeastĠ":5976,"erĠ":5977,"eron":5978,"eryĠ":5979,"er,Ġ":5980,"erĠp":5981,"erĠtoĠ":5982,"erĠb":5983,"erĠd":5984,"erect":5985,"erĠwith":5986,"eries":5987,"ersĠandĠ":5988,"erĠisĠ":5989,"erallyĠ":5990,"eryĠandĠ":5991,"ermin":5992,"erĠis":5993,"erĠmad":5994,"erusĠ":5995,"erĠfriend":5996,"errit":5997,"erĠnotĠ":5998,"eriesĠin":5999,"erĠroom":6000,"erĠinĠm":6001,"erverseĠ":6002,"ersĠall":6003,"ersĠinĠother":6004,"ersĠtoĠgetĠ":6005,"er!ĠaĠf":6006,"er\"Ġc":6007,"erp:Ġfun":6008,"dĠof":6009,"dĠbeĠ":6010,"dĠsoĠ":6011,"dĠforĠtheĠ":6012,"dĠla":6013,"dĠforĠm":6014,"dĠexperienc":6015,"dĠdies":6016,"dĠnormal":6017,"dĠgood":6018,"dĠisĠpr":6019,"dĠinĠtheĠh":6020,"dĠsamsung":6021,"dĠusĠof":6022,"dĠvect":6023,"dĠinĠjapan":6024,"tĠor":6025,"tĠpr":6026,"tĠisĠa":6027,"tĠsoĠ":6028,"tĠroom":6029,"tĠfe":6030,"tĠdr":6031,"tĠdoor":6032,"tĠseat":6033,"tĠonĠs":6034,"tĠbox":6035,"tĠyourĠpl":6036,"tĠgrown":6037,"tĠ&Ġpre":6038,"tĠfif":6039,"tĠsch":6040,"onĠ":6041,"onyĠ":6042,"onat":6043,"onĠandĠ":6044,"onedĠ":6045,"onus":6046,"oneĠs":6047,"one.Ġ":6048,"on,ĠandĠ":6049,"onceĠ":6050,"onĠasĠ":6051,"on.ĠtheĠ":6052,"onĠisĠ":6053,"on.Ġi":6054,"onĠtr":6055,"onĠtoĠtheĠ":6056,"onĠmyĠ":6057,"onĠor":6058,"oniteĠ":6059,"onesĠandĠ":6060,"onish":6061,"on'tĠ":6062,"onĠweĠ":6063,"onĠsuch":6064,"onĠaĠs":6065,"ondon":6066,"onderful":6067,"onĠaĠlittleĠ":6068,"on!Ġw":6069,"onĠhisĠ":6070,"onĠopen":6071,"ones,":6072,"onaĠon":6073,"onto":6074,"onĠjuneĠ":6075,"onĠdisplay":6076,"onĠtuesday":6077,"onioĠd":6078,"oner!ĠaĠf":6079,"ontĠdoor":6080,"orch":6081,"orĠg":6082,"orĠst":6083,"oreĠs":6084,"orĠl":6085,"orĠfor":6086,"orĠlo":6087,"ors,Ġ":6088,"orsĠandĠ":6089,"orĠtheir":6090,"orĠn":6091,"oriesĠ":6092,"ors.":6093,"oreĠto":6094,"ore!":6095,"orreĠ":6096,"oresĠandĠ":6097,"oredĠin":6098,"orĠne":6099,"orrow":6100,"ortingĠ":6101,"oriesĠof":6102,"orĠpeopl":6103,"orĠdec":6104,"orĠinĠtheĠ":6105,"orĠde":6106,"or,ĠsoĠ":6107,"orĠmid":6108,"orĠexperienceĠ":6109,"ory:":6110,"orĠsur":6111,"orĠtwo":6112,"orsĠthatĠcaus":6113,"orthĠeastĠ":6114,"or)Ġin":6115,"orldĠ":6116,"orningĠ":6117,"ordĠdies":6118,"enit":6119,"en.Ġ":6120,"eningĠ":6121,"enĠm":6122,"enic":6123,"enĠp":6124,"enĠtoĠ":6125,"enĠd":6126,"enĠg":6127,"enough":6128,"ens.":6129,"enersĠ":6130,"ene,":6131,"enĠint":6132,"enueĠ":6133,"enix":6134,"ens.Ġi":6135,"enĠaĠfew":6136,"environment":6137,"enormousĠ":6138,"en.ro":6139,"enhanc":6140,"eniusĠ":6141,"enuĠbutton":6142,"enzaĠm":6143,"ensĠeverythingĠ":6144,"ĠtheĠes":6145,"ĠtheĠst":6146,"ĠtheĠwe":6147,"ĠtheĠint":6148,"ĠtheĠbloo":6149,"ĠtheĠhous":6150,"ĠtheĠother":6151,"ĠtheĠform":6152,"ĠtheĠperi":6153,"ĠtheĠweek":6154,"ĠtheĠopen":6155,"ĠtheĠce":6156,"ĠtheĠpa":6157,"ĠtheĠlat":6158,"ĠtheĠplay":6159,"ĠtheĠau":6160,"ĠtheĠcent":6161,"ĠtheĠcongressĠ":6162,"ĠtheĠopportun":6163,"ĠtheĠreas":6164,"ĠtheĠaren":6165,"ĠtheĠlea":6166,"ĠtheĠimport":6167,"ĠtheĠwhit":6168,"ĠtheĠexperienceĠ":6169,"ĠtheĠguidebook":6170,"ĠtheĠcomplet":6171,"ĠtheĠdifferentĠ":6172,"ĠtheĠval":6173,"ĠtheĠelection":6174,"ĠtheĠwestĠ":6175,"ĠtheĠonlyĠ":6176,"ĠtheĠoffic":6177,"ĠtheĠrestĠof":6178,"ĠtheĠintrodu":6179,"ĠtheĠengag":6180,"ĠtheĠopportunityĠtoĠ":6181,"ĠtheĠhalseyĠhous":6182,"ĠtheĠcirc":6183,"ĠtheĠcouch":6184,"ĠtheĠdel":6185,"ĠtheĠequ":6186,"ĠtheĠgateĠ":6187,"ĠtheĠjack":6188,"ĠtheĠentir":6189,"ĠtheĠresultĠ":6190,"ĠtheĠclub":6191,"ĠtheĠlineĠdivid":6192,"ĠtheĠcontro":6193,"ĠtheĠcapac":6194,"ĠtheĠcenterĠofĠsaidĠcounty":6195,"ĠtheĠhighestĠqual":6196,"ĠtheĠnextĠfew":6197,"ĠtheĠfrontĠof":6198,"ĠtheĠjambor":6199,"ĠtheĠdistanc":6200,"ĠtheĠcitizensĠof":6201,"ĠtheĠhomeĠtourĠwithĠyou":6202,"ĠtheĠglitteryĠwineĠbottl":6203,"ĠtheĠ\"f":6204,"ĠtheĠdrug":6205,"ĠtheĠliver":6206,"Ġsar":6207,"Ġsent":6208,"Ġsour":6209,"Ġsus":6210,"Ġsun":6211,"Ġsha":6212,"Ġsol":6213,"Ġsad":6214,"ĠsayĠ":6215,"Ġscor":6216,"Ġsiz":6217,"Ġsong":6218,"Ġsight":6219,"Ġsession":6220,"Ġsold":6221,"ĠsetsĠ":6222,"Ġschedul":6223,"Ġsystem":6224,"Ġsecur":6225,"Ġsilver":6226,"ĠsoundproofĠwindowĠguy":6227,"ĠsouthĠof":6228,"ĠsoundproofĠwindowsĠinĠfortĠbranch,Ġin":6229,"Ġsentim":6230,"ĠsomeoneĠ":6231,"Ġskill":6232,"ĠsaleĠt":6233,"ĠsitĠonĠtheĠ":6234,"Ġsugar":6235,"ĠsatelliteĠ":6236,"ĠsaidĠtown":6237,"Ġsky":6238,"ĠsuiteĠ":6239,"Ġsince":6240,"reyĠ":6241,"reeĠt":6242,"rema":6243,"reew":6244,"reeĠm":6245,"recl":6246,"relyĠ":6247,"reign":6248,"resĠfor":6249,"recre":6250,"reass":6251,"rece":6252,"refin":6253,"re,ĠtheĠ":6254,"reject":6255,"require":6256,"reach":6257,"reenĠin":6258,"requiredĠ":6259,"re.ĠtoĠ":6260,"revers":6261,"ree.Ġhowever":6262,"report,Ġ":6263,"revolutionĠofĠ":6264,"refocus":6265,"rea.Ġi":6266,"reju":6267,"reveal":6268,"resĠsc":6269,"it.":6270,"itĠan":6271,"itar":6272,"itĠtoĠ":6273,"item":6274,"iteĠt":6275,"itâĢĻ":6276,"itabl":6277,"its,Ġ":6278,"itiveĠ":6279,"it.Ġi":6280,"itical":6281,"itsĠre":6282,"ittingĠ":6283,"itiesĠof":6284,"itisĠb":6285,"itĠtoĠbeĠ":6286,"itâĢĿ":6287,"itures":6288,"itiat":6289,"itte":6290,"it,Ġbut":6291,"ituation":6292,"italĠpartĠof":6293,"itician":6294,"itingĠmeĠtoĠbeĠaĠpartĠof":6295,"ite'sĠcre":6296,"itiativeĠ":6297,"itnessĠ":6298,"itteeĠ":6299,"yĠwith":6300,"yĠex":6301,"yĠoutĠ":6302,"yĠco":6303,"yĠnew":6304,"yĠri":6305,"yĠfrom":6306,"yĠinĠtheĠ":6307,"yĠonĠtheĠ":6308,"yĠcont":6309,"yĠdecor":6310,"yĠdes":6311,"yĠfast":6312,"yĠgrow":6313,"yĠwhatĠ":6314,"yĠwhereĠ":6315,"yĠlif":6316,"yĠproject":6317,"yĠdoes":6318,"yĠlatenc":6319,"yĠproc":6320,"yĠinĠour":6321,"yĠprivateĠ":6322,"yĠisĠyet":6323,"yĠitĠhasĠbeen":6324,"yĠestablish":6325,"yĠinvolv":6326,"yĠbasisĠ":6327,"yĠyourĠfamil":6328,"yĠdevelopĠa":6329,"yĠemploy":6330,"yĠpreferred.Ġ":6331,"yĠkos":6332,"yĠorĠl":6333,"yĠreject":6334,"ingâĢĻ":6335,"ingĠthatĠ":6336,"ingĠal":6337,"ingĠtim":6338,"ings.":6339,"ingĠatĠ":6340,"ingĠso":6341,"ingsĠre":6342,"ingĠthos":6343,"ington":6344,"ing,ĠtheĠ":6345,"ingĠsaidĠcounty":6346,"ingĠthingsĠ":6347,"ingsĠofĠtheĠ":6348,"ing.Ġa":6349,"ingness":6350,"ingĠandĠt":6351,"ing,Ġwhich":6352,"ingĠsaidĠcountyĠofĠmeig":6353,"ing.Ġb":6354,"ings,Ġworkshop":6355,"ingsĠatĠ":6356,"ing.ĠiĠam":6357,"ing,ĠaĠd":6358,"ing!ĠthankĠyouĠforĠtheĠawesomeĠreview":6359,"ingement.Ġ":6360,"ingĠalaskan":6361,"ingĠtouches":6362,"ingĠstampsĠ&":6363,"ingĠatĠleast":6364,"ing!Ġso":6365,"ing,ĠtheĠm":6366,"ingleĠs":6367,"ingerĠwith":6368,"anch":6369,"anĠre":6370,"anno":6371,"anĠo":6372,"anpp":6373,"ansĠtoĠ":6374,"ane,":6375,"any.Ġ":6376,"anĠis":6377,"anian":6378,"analys":6379,"anĠact":6380,"anĠupd":6381,"anĠe":6382,"anĠspr":6383,"anĠpres":6384,"anĠspect":6385,"ansionĠandĠ":6386,"anĠorder":6387,"ans.ĠifĠyouĠhaveĠ":6388,"anĠdirector":6389,"an.Ġthey":6390,"anyĠtimeĠ":6391,"anzasĠ":6392,"atal":6393,"at.Ġ":6394,"atis":6395,"atom":6396,"ateĠtoĠ":6397,"atial":6398,"atingĠtheĠ":6399,"atedĠtoĠ":6400,"atelyĠ":6401,"atesĠandĠ":6402,"ates.Ġ":6403,"aters":6404,"atĠtheĠm":6405,"atĠtheĠb":6406,"atĠanyĠ":6407,"at.ĠweĠ":6408,"atedĠbyĠ":6409,"ateĠthisĠ":6410,"ately":6411,"atingĠthisĠ":6412,"ative,Ġ":6413,"ating.":6414,"atĠtheyĠdoĠ":6415,"atedĠbyĠs":6416,"ateful":6417,"atĠtheĠnba":6418,"ateĠthroughĠtheĠnationalĠresearchĠcouncil":6419,"athĠasĠa":6420,"atĠtheĠjambor":6421,"atitisĠb":6422,"Ġantl":6423,"ĠanĠis":6424,"Ġanton":6425,"ĠanĠover":6426,"Ġanah":6427,"ĠanĠinter":6428,"ĠanĠhour":6429,"Ġanaemia":6430,"ĠanĠamazingĠ":6431,"ĠanĠalternativeĠ":6432,"ĠantiqueĠ":6433,"Ġanatom":6434,"al.Ġ":6435,"ales":6436,"alcon":6437,"alsoĠ":6438,"alĠsc":6439,"along":6440,"also":6441,"alityĠ":6442,"align":6443,"alĠfrom":6444,"alass":6445,"allow":6446,"alax":6447,"alistĠ":6448,"alseyĠhous":6449,"alĠalcohol":6450,"alĠofĠtheĠnewĠyouthĠprogram":6451,"alaĠevent":6452,"al!ĠgreatĠ":6453,"alĠthing":6454,"alsĠconcern":6455,"alĠspaceĠ":6456,"alty.":6457,"alĠandĠprovideĠfeedback":6458,"al;ĠitâĢĻsĠ":6459,"alfĠm":6460,"altru":6461,"oĠâĢĵ":6462,"oĠwhen":6463,"oĠonĠa":6464,"oĠhotel":6465,"oĠperson":6466,"oĠforĠthisĠ":6467,"oĠcomf":6468,"oĠitĠup":6469,"oĠlikeĠto":6470,"oĠ-Ġi":6471,".Ġlo":6472,".Ġel":6473,".Ġex":6474,".Ġwh":6475,".Ġeas":6476,".Ġpar":6477,".ĠinĠtheĠ":6478,".Ġview":6479,".Ġdin":6480,".Ġhow":6481,".Ġplac":6482,".Ġwell":6483,".ĠcordĠbloodĠ":6484,".Ġleas":6485,".Ġwhen":6486,".Ġeach":6487,".Ġcap":6488,".ĠmostĠ":6489,".Ġfun":6490,".Ġbut":6491,".ĠgreatĠ":6492,".Ġcheck":6493,".Ġwe'reĠ":6494,".Ġme":6495,".Ġhowever":6496,".Ġcar":6497,".Ġcand":6498,".ĠgoodĠ":6499,".Ġpiec":6500,".Ġinclud":6501,".Ġguidebook":6502,".ĠhousewarmingĠpartyĠinvitesĠfreeĠtemplateĠ":6503,".Ġmark":6504,".Ġpat":6505,".ĠinĠf":6506,".Ġnever":6507,".Ġwhil":6508,".ĠquietĠ":6509,".ĠyourĠhomeĠ":6510,".Ġrecommend":6511,".Ġpoor":6512,".Ġhold":6513,".ĠfriendlyĠ":6514,".ĠhadĠbeen":6515,".ĠbeĠsureĠto":6516,".ĠdefinitelyĠ":6517,".Ġcirc":6518,".ĠgateĠ":6519,".Ġpleas":6520,".Ġearlier":6521,".ĠifĠitĠ":6522,".ĠeveryoneĠ":6523,".ĠforĠmoreĠinformation":6524,".ĠfindĠ":6525,".ĠcloseĠtoĠ":6526,".ĠitâĢĻsĠbeen":6527,".ĠbeĠsureĠtoĠcheck":6528,".Ġparticipant":6529,".ĠelizabethĠellisĠandĠdrewĠmichael":6530,".Ġpioneer":6531,".Ġgender":6532,".Ġmichael":6533,".Ġnat":6534,".ĠonĠtuesday":6535,"arch":6536,"arac":6537,"arĠl":6538,"arity":6539,"arĠme":6540,"arant":6541,"aryĠs":6542,"ary,Ġ":6543,"arĠtheĠm":6544,"arren":6545,"arryĠ":6546,"arris":6547,"arĠreview":6548,"arrang":6549,"areĠtw":6550,"arĠspot":6551,"arcod":6552,"areĠtwoĠ":6553,"aryĠt":6554,"artĠoutĠ":6555,"areĠso":6556,"areĠbeautiful":6557,"arfĠr":6558,"aryĠteam":6559,"arÃ¡Ġl":6560,"ofĠre":6561,"ofĠall":6562,"ofĠyour":6563,"ofĠitĠ":6564,"ofĠmeig":6565,"often":6566,"ofĠsuch":6567,"ofĠqu":6568,"ofĠpain":6569,"ofitsĠ":6570,"oftĠb":6571,"ofĠaĠc":6572,"ofĠthoseĠ":6573,"ofĠher":6574,"ofĠyourĠgr":6575,"ofore,Ġ":6576,"ofĠira":6577,"ofĠthemĠbyĠthisĠact":6578,"ofĠtenness":6579,"ofĠsesĠg":6580,"ofoci":6581,"oftsĠwith":6582,"oftĠ&Ġpre":6583,",Ġfor":6584,",Ġour":6585,",Ġun":6586,",Ġyour":6587,",Ġfrom":6588,",ĠweĠ":6589,",Ġmak":6590,",Ġjo":6591,",ĠifĠyou":6592,",Ġpres":6593,",ĠwasĠ":6594,",Ġwhen":6595,",Ġexp":6596,",Ġhear":6597,",ĠâĢľ":6598,",Ġclean":6599,",Ġcomp":6600,",Ġhowever":6601,",Ġcar":6602,",Ġjam":6603,",ĠoneĠof":6604,",Ġlearn":6605,",ĠyourĠhomeĠ":6606,",Ġcombin":6607,",Ġprofessional":6608,",ĠbeingĠ":6609,",ĠworkingĠwith":6610,",ĠdiningĠtabl":6611,",Ġimplementation":6612,",ĠespeciallyĠ":6613,",Ġfloral":6614,",Ġcash":6615,",ĠweĠs":6616,",ĠonĠwhich":6617,",ĠweâĢĻveĠ":6618,",ĠonĠtheĠtennesseeĠriver":6619,",Ġhead":6620,",ĠcanĠyou":6621,",ĠreadyĠtoĠ":6622,",ĠunderĠtheĠsameĠ":6623,",Ġcommunication":6624,",Ġnon-":6625,",Ġgul":6626,",ĠjonĠc":6627,",Ġkaren":6628,",ĠweĠtak":6629,",Ġyay":6630,",ĠonĠor":6631,"esis":6632,"ess,Ġ":6633,"esper":6634,"esĠab":6635,"essĠof":6636,"esĠatĠ":6637,"esia":6638,"esĠandĠtheĠ":6639,"es,Ġa":6640,"esĠtheĠcount":6641,"es,Ġin":6642,"esĠappl":6643,"esĠtoo":6644,"es,Ġs":6645,"es,Ġand":6646,"es.ĠthisĠ":6647,"esĠass":6648,"es.ĠsectionĠ":6649,"esĠabout":6650,"es,Ġwhich":6651,"es;Ġand":6652,"esiÃ³n":6653,"es,Ġtoo!":6654,"esaid":6655,"esĠthisĠyear":6656,"esĠtooĠ":6657,"esĠtoĠtheĠs":6658,"esĠalong":6659,"eseĠup":6660,"esĠaĠfresh":6661,"es!ĠhopeĠyouâĢĻreĠhavingĠaĠgreatĠ":6662,"es!ĠtheyĠareĠ":6663,"es:Ġmar":6664,"esmen":6665,"esucrist":6666,"esĠtheĠcontro":6667,"isha":6668,"iseĠs":6669,"ise.Ġ":6670,"isĠtr":6671,"iseĠandĠ":6672,"isĠaboutĠ":6673,"iscal":6674,"isĠtheĠp":6675,"isâĢĶ":6676,"isĠtour":6677,"isĠtheĠn":6678,"iseĠthatĠ":6679,"is!Ġh":6680,"isian":6681,"isĠalwaysĠ":6682,"isciplin":6683,"is.ĠaĠp":6684,"isingĠthat":6685,"isĠalter":6686,"is,ĠwhoĠ":6687,"iskĠofĠtheĠbod":6688,"isley":6689,"issĠher":6690,"youĠc":6691,"youĠm":6692,"youĠwith":6693,"youĠloveĠ":6694,"youĠus":6695,"youĠwill":6696,"youĠdo":6697,"youĠwouldĠ":6698,"youĠknow":6699,"youĠdon":6700,"youĠget":6701,"youĠseeĠ":6702,"you'll":6703,"youĠhonor":6704,"youĠstill":6705,"youĠlink":6706,"youĠshouldĠ":6707,"youĠfe":6708,"youĠspecific":6709,"youĠaĠspecial":6710,"youĠtoĠcom":6711,"youĠstop":6712,"youĠtimeĠandĠ":6713,"youĠjoin":6714,"youâĢĻllĠse":6715,"ĠandĠst":6716,"ĠandĠour":6717,"ĠandĠex":6718,"ĠandĠgr":6719,"ĠandĠup":6720,"ĠandĠint":6721,"ĠandĠbe":6722,"ĠandĠinĠtheĠ":6723,"ĠandĠmak":6724,"ĠandĠchristmasĠ":6725,"ĠandĠdin":6726,"ĠandĠveryĠ":6727,"ĠandĠglitter":6728,"ĠandĠhol":6729,"ĠandĠcont":6730,"ĠandĠinvit":6731,"ĠandĠmoreĠ":6732,"ĠandĠhasĠ":6733,"ĠandĠcoll":6734,"ĠandĠopen":6735,"ĠandĠreg":6736,"ĠandĠiĠhaveĠ":6737,"ĠandĠeverythingĠ":6738,"ĠandĠlov":6739,"ĠandĠhasĠbeen":6740,"ĠandĠgre":6741,"ĠandĠhas":6742,"ĠandĠhotel":6743,"ĠandĠpool":6744,"ĠandĠsuccess":6745,"ĠandĠexperienc":6746,"ĠandĠvisit":6747,"ĠandĠhealth":6748,"ĠandĠproduct":6749,"ĠandĠeventĠ":6750,"ĠandĠlittleĠ":6751,"ĠandĠwouldĠ":6752,"ĠandĠearlyĠ":6753,"ĠandĠoper":6754,"ĠandĠloveĠtheĠ":6755,"ĠandĠexpect":6756,"ĠandĠmayĠbeĠ":6757,"ĠandĠwonderful":6758,"ĠandĠconcern":6759,"ĠandĠkitchen":6760,"ĠandĠyoungĠpeopl":6761,"ĠandĠsheĠ":6762,"ĠandĠinto":6763,"ĠandĠprofessional":6764,"ĠandĠperform":6765,"ĠandĠcod":6766,"ĠandĠcozy":6767,"ĠandĠbeĠsureĠto":6768,"ĠandĠcandl":6769,"ĠandĠdv":6770,"ĠandĠotherĠs":6771,"ĠandĠzydecoĠ":6772,"ĠandĠpsych":6773,"ĠandĠwider":6774,"ĠandĠjurisdiction":6775,"ĠandĠdeb":6776,"ĠandĠpep":6777,"ĠandĠrud":6778,"ĠandĠyesĠ":6779,"ĠandĠinĠit":6780,"ĠandĠonĠaĠs":6781,"omĠof":6782,"omist":6783,"omĠfor":6784,"omentĠof":6785,"omsĠfill":6786,"thisĠ":6787,"thĠb":6788,"thent":6789,"thĠyou":6790,"thĠthatĠ":6791,"thous":6792,"thingĠtoĠ":6793,"thrit":6794,"thisĠs":6795,"thĠoctober":6796,"thodĠ":6797,"thĠart":6798,"thĠonĠtheĠ":6799,"the'sĠ":6800,"thĠdayĠ":6801,"thĠasĠtheyĠ":6802,"thĠsection":6803,"thingĠasĠ":6804,"thĠhol":6805,"thĠstyl":6806,"th,ĠtodayĠ":6807,"their":6808,"thonyĠ":6809,"thesis":6810,"ionĠofĠtheĠ":6811,"ion!Ġh":6812,"ionĠdoesĠ":6813,"ionmentĠof":6814,"ionsĠmakesĠ":6815,"chedĠ":6816,"chand":6817,"chĠandĠm":6818,"challeng":6819,"chiev":6820,"chang":6821,"chuck":6822,"chatt":6823,"chbish":6824,"chdio":6825,"chipp":6826,"chocol":6827,"chineĠconcer":6828,"llnes":6829,"llness":6830,"llĠun":6831,"lld-":6832,"ingĠ#":6833,"ingĠ$":6834,"ingĠour":6835,"ingĠfr":6836,"ingĠout":6837,"ingĠnow":6838,"ingĠcl":6839,"ingĠmyĠ":6840,"ingĠbloodĠ":6841,"ingĠonĠtheĠ":6842,"ingĠlin":6843,"ingĠofĠtheĠ":6844,"ingĠhow":6845,"ingĠpo":6846,"ingĠdayĠ":6847,"ingĠwasĠ":6848,"ingĠfromĠtheĠ":6849,"ingĠorgan":6850,"ingĠcard":6851,"ingĠhom":6852,"ingĠcap":6853,"ingĠpit":6854,"ingĠhigh":6855,"ingĠclos":6856,"ingĠcell":6857,"ingĠfast":6858,"ingĠme":6859,"ingĠris":6860,"ingĠcongres":6861,"ingĠday,Ġ":6862,"ingĠeventĠ":6863,"ingĠvid":6864,"ingĠitĠall":6865,"ingĠquiteĠ":6866,"ingĠcondition":6867,"ingĠdist":6868,"ingĠreal":6869,"ingĠmajor":6870,"ingĠinto":6871,"ingĠburger":6872,"ingĠfloral":6873,"ingĠhiv":6874,"ingĠvoic":6875,"ingĠyes":6876,"ingĠreserv":6877,"ingĠiraqâĢĻsĠ":6878,"ingĠexpert":6879,"ingĠintoĠtheĠ":6880,"ingĠdueĠ":6881,"ingĠcred":6882,"ingĠboth":6883,"ingĠphotographer":6884,"ingĠglobal":6885,"ingĠyouthĠday":6886,"ingĠmaintenance.Ġ":6887,"ingĠjurisdiction":6888,"ingĠfet":6889,"ingĠnightĠ":6890,"ingĠroundĠ":6891,"ingĠrema":6892,"ingĠitĠtoĠbeĠ":6893,"forĠf":6894,"forĠar":6895,"forĠl":6896,"forĠtheĠs":6897,"forĠour":6898,"forestĠ":6899,"forget":6900,"forĠother":6901,"forĠatt":6902,"forĠanĠ":6903,"forĠhous":6904,"forgiv":6905,"forĠchristmasĠ":6906,"forĠsomeĠ":6907,"forĠbuild":6908,"forĠcountyĠ":6909,"forĠtax":6910,"forĠfre":6911,"forĠcongres":6912,"forĠthisĠcardĠ":6913,"forĠamerica":6914,"forward":6915,"forĠaĠspecial":6916,"forĠdet":6917,"forĠextra":6918,"foreĠtheĠfirstĠ":6919,"forĠapplicationsĠ":6920,"forĠstemĠcellsĠ":6921,"forĠadditionalĠinformationĠaboutĠmeoĠsatellit":6922,"forbesĠl":6923,"forcedĠ":6924,"foreĠemail":6925,"forĠaĠtour":6926,"foresaid":6927,"lograp":6928,"loodĠ":6929,"lol!Ġi":6930,"loan,Ġ":6931,"lodg":6932,"asedĠ":6933,"ase.Ġ":6934,"astĠof":6935,"asĠaĠp":6936,"asersĠ":6937,"aseĠin":6938,"aseĠyou":6939,"assĠre":6940,"asically":6941,"asedĠatĠtheĠ":6942,"assionĠandĠ":6943,"aspĠtheĠm":6944,"asinoĠsp":6945,"asĠtheĠplay":6946,"asisâĢĶ":6947,"asion!Ġh":6948,"Ġcel":6949,"Ġcam":6950,"Ġcall":6951,"Ġcour":6952,"Ġcup":6953,"Ġcard":6954,"Ġcover":6955,"Ġcaus":6956,"Ġcarm":6957,"Ġcost":6958,"Ġcustom":6959,"Ġcros":6960,"ĠcentreĠ":6961,"ĠcoatĠofĠmetallicĠs":6962,"Ġcrim":6963,"ĠcaseĠyou":6964,"Ġmel":6965,"Ġmall":6966,"Ġmay":6967,"Ġmess":6968,"Ġmuch":6969,"Ġmik":6970,"ĠmightĠ":6971,"ĠmyĠs":6972,"ĠmostĠ":6973,"ĠmeĠa":6974,"Ġmark":6975,"Ġmone":6976,"Ġmerv":6977,"ĠmakeĠ":6978,"Ġmater":6979,"Ġmoment":6980,"ĠmoveĠ":6981,"Ġmw.":6982,"ĠmeĠand":6983,"Ġmental":6984,"ĠmodĠ":6985,"ĠmenĠin":6986,"Ġmedic":6987,"Ġmcminn":6988,"Ġmissed":6989,"ĠmistakeĠ":6990,"Ġml)Ġ(":6991,"ĠmwĠtoĠ":6992,"ĠmenuĠbutton":6993,"ĠmissĠher":6994,"ĠmomentĠof":6995,"ecut":6996,"ecureĠ":6997,"ecret":6998,"econdĠ":6999,"ecastingĠandĠ":7000,"ecofoci":7001,"ice":7002,"iced":7003,"icĠb":7004,"icent":7005,"icateĠ":7006,"icant":7007,"icĠor":7008,"icip":7009,"icator":7010,"icĠthingsĠ":7011,"icleĠ":7012,"ic.ĠitĠ":7013,"icĠfun":7014,"icĠstep":7015,"icsĠor":7016,"ic,ĠmoreĠ":7017,"icienc":7018,"ic,Ġapp":7019,"iceĠthereof":7020,"icipar":7021,"icatedĠbyĠs":7022,"icĠanaemia":7023,"icĠandĠint":7024,"edĠand":7025,"edroom":7026,"edĠtim":7027,"edition":7028,"ed,Ġb":7029,"edĠthrough":7030,"ed.Ġyou":7031,"edĠandĠs":7032,"edĠanĠ":7033,"edĠaboutĠyour":7034,"edĠaround":7035,"edĠthingsĠ":7036,"ed-up":7037,"ed.Ġ\"":7038,"edĠthatĠi":7039,"ed.ĠandĠ":7040,"ed.Ġit":7041,"ed;Ġwhich":7042,"ed.Ġin":7043,"edsĠtoĠbeĠ":7044,"edyâĢĻsĠ":7045,"edelman":7046,"edĠthemĠbyĠthisĠact":7047,"edĠtuesday":7048,"edĠartificialĠsweeten":7049,"ed,ĠnothingĠinĠthisĠactĠcontainedĠshallĠb":7050,"ed;ĠaĠpatriotĠandĠsoldierĠofĠtheĠ":7051,"edonĠisĠ":7052,"edomĠof":7053,"isĠoneĠ":7054,"isĠever":7055,"isĠsoĠ":7056,"isĠmoreĠ":7057,"isĠopen":7058,"isĠdis":7059,"isĠlong":7060,"isĠpartĠof":7061,"isĠrem":7062,"isĠloc":7063,"isĠoffer":7064,"isĠgrandĠ":7065,"isĠlovely":7066,"isĠrunner":7067,"isĠhappen":7068,"isĠvision":7069,"isĠveryĠspacious":7070,"isĠdav":7071,"isĠitâĢĿ":7072,"Ġpet":7073,"Ġpur":7074,"Ġpri":7075,"ĠputĠ":7076,"Ġpack":7077,"ĠpostĠ":7078,"Ġpeach":7079,"Ġpiec":7080,"Ġpost":7081,"Ġpark":7082,"Ġperson":7083,"Ġpaint":7084,"ĠpicĠin":7085,"ĠpitĠisĠ":7086,"ĠpinkfreshĠstudio":7087,"ĠpcĠcounterĠheightĠ":7088,"Ġpictures":7089,"Ġp.m":7090,"Ġpsych":7091,"Ġpinec":7092,"Ġporch":7093,"edĠour":7094,"edĠif":7095,"edĠyour":7096,"edĠisĠa":7097,"edĠfrom":7098,"edĠher":7099,"edĠbl":7100,"edĠmyĠ":7101,"edĠover":7102,"edĠhow":7103,"edĠcordĠbloodĠ":7104,"edĠglitter":7105,"edĠfromĠtheĠ":7106,"edĠlu":7107,"edĠusĠ":7108,"edĠonĠa":7109,"edĠho":7110,"edĠuntil":7111,"edĠcaus":7112,"edĠhotel":7113,"edĠoff":7114,"edĠstemĠcellsĠ":7115,"edĠcommissioners,":7116,"edĠcommunityĠ":7117,"edĠgar":7118,"edĠonĠc":7119,"edĠifĠi":7120,"edĠcordĠbloodĠcollection":7121,"edĠyouĠareĠenjoy":7122,"edĠfloral":7123,"edĠdirectly":7124,"edĠ&Ġb":7125,"edĠgard":7126,"edĠhour":7127,"edĠintoĠtheĠ":7128,"edĠquickly":7129,"edĠsecurity,Ġ":7130,"edĠpromp":7131,"edĠneutralĠcolor":7132,"edĠcordĠclamping":7133,"edĠcutĠ":7134,"edĠfour":7135,"edĠgif":7136,"edĠkeyĠ":7137,"edĠmoment":7138,"edĠrain":7139,"edĠorĠde":7140,"Ġhus":7141,"Ġhear":7142,"Ġhigh":7143,"Ġhep":7144,"Ġhover":7145,"Ġharm":7146,"Ġhook":7147,"Ġhub":7148,"Ġhome":7149,"Ġhiat":7150,"ĠheaselgraveĠ":7151,"Ġhoney":7152,"ĠheaselgraveĠs":7153,"ĠheaselgraveĠsaysĠtheĠ":7154,"ĠhiĠm":7155,"Ġhello":7156,"Ġhandmad":7157,"ĠhollywoodĠ":7158,"ĠhiĠr":7159,"Ġharris":7160,"Ġwall":7161,"ĠweĠt":7162,"Ġwid":7163,"Ġwear":7164,"ĠweĠs":7165,"Ġwol":7166,"ĠwentĠ":7167,"Ġwell":7168,"ĠweĠm":7169,"ĠwestĠ":7170,"Ġwarm":7171,"Ġwish":7172,"ĠwideĠ":7173,"ĠwardĠ":7174,"Ġwedd":7175,"ĠweĠdo":7176,"Ġwarr":7177,"Ġwestern":7178,"ĠweĠdidnâĢĻtĠ":7179,"Ġwon'tĠ":7180,"ĠwordĠdies":7181,"road":7182,"ropp":7183,"rosion":7184,"rosc":7185,"roker":7186,"robertĠwhitaker":7187,"rodĠla":7188,"roane,":7189,"ro.Ġlo":7190,"veĠyour":7191,"veĠtoĠ":7192,"veĠyouĠus":7193,"veĠforĠar":7194,"ĠtoĠgr":7195,"ĠtoĠco":7196,"ĠtoĠhaveĠ":7197,"ĠtoĠcomm":7198,"ĠtoĠgo":7199,"ĠtoĠfe":7200,"ĠtoĠcoll":7201,"ĠtoĠopen":7202,"ĠtoĠjustĠ":7203,"ĠtoĠeven":7204,"ĠtoĠbo":7205,"ĠtoĠgu":7206,"ĠtoĠcheck":7207,"ĠtoĠcommun":7208,"ĠtoĠdes":7209,"ĠtoĠdef":7210,"ĠtoĠexperienc":7211,"ĠtoĠbeĠsur":7212,"ĠtoĠgetĠ":7213,"ĠtoĠyourĠf":7214,"ĠtoĠprovideĠ":7215,"ĠtoĠcreateĠ":7216,"ĠtoĠkeep":7217,"ĠtoĠlearn":7218,"ĠtoĠrem":7219,"ĠtoĠrequ":7220,"ĠtoĠcharg":7221,"ĠtoĠcollect":7222,"ĠtoĠgoĠ":7223,"ĠtoĠensur":7224,"ĠtoĠengag":7225,"ĠtoĠeachĠb":7226,"ĠtoĠconsider":7227,"ĠtoĠhun":7228,"ĠtoĠplayĠ":7229,"ĠtoĠwhom":7230,"ĠtoĠestablish":7231,"ĠtoĠcontro":7232,"ĠtoĠdoĠit":7233,"ĠtoĠfindĠ":7234,"ĠtoĠcloseĠtoĠ":7235,"ĠtoĠmeetĠ":7236,"ĠtoĠimportantĠ":7237,"ĠtoĠdevelopĠa":7238,"ĠtoĠzydecoĠdanc":7239,"ĠtoĠgiveĠth":7240,"ĠtoĠput":7241,"ĠtoĠwil":7242,"ĠtoĠonĠdisplay":7243,"elig":7244,"elder":7245,"elĠsoĠ":7246,"elsĠareĠ":7247,"elyĠtheĠ":7248,"element":7249,"elier":7250,"else":7251,"else,Ġ":7252,"elĠlik":7253,"eliev":7254,"eleg":7255,"eltersĠandĠ":7256,"eliotĠdalton":7257,"elsĠfromĠ":7258,"eliteĠt":7259,"elisha":7260,"station":7261,"stig":7262,"stand":7263,"stea":7264,"still":7265,"stop":7266,"stabl":7267,"stad":7268,"standĠ":7269,"stri":7270,"stĠthem":7271,"stra":7272,"stair":7273,"statesĠ":7274,"stuff":7275,"stitution":7276,"strug":7277,"struct":7278,"staur":7279,"stĠton":7280,"stump":7281,"stretch":7282,"stream":7283,"stagesĠ":7284,"stabilityĠof":7285,"Ġbem":7286,"Ġball":7287,"Ġbir":7288,"Ġband":7289,"Ġbill":7290,"Ġbank":7291,"Ġbough":7292,"Ġbly":7293,"ĠbyĠs":7294,"Ġbook":7295,"Ġburn":7296,"Ġbone":7297,"ĠbyĠm":7298,"Ġbash":7299,"ĠbondĠ":7300,"Ġbloc":7301,"Ġbusiness":7302,"ĠbyĠoffer":7303,"ĠbenefitĠ":7304,"ĠbyĠcl":7305,"ĠbecauseĠtheyĠ":7306,"ĠbedĠandĠbreak":7307,"ĠbrightĠwhit":7308,"ĠbloodĠ":7309,"ĠbasedĠ":7310,"Ġbedroom":7311,"Ġbroker":7312,"entingĠ":7313,"entsĠa":7314,"entsĠin":7315,"ents,":7316,"entiveĠ":7317,"entĠthat":7318,"entiallyĠ":7319,"entitl":7320,"entry":7321,"entification":7322,"entsĠandĠwork":7323,"entlyĠof":7324,"entedĠtuesday":7325,"entĠtoĠco":7326,"ithac":7327,"ithĠpr":7328,"ither,ĠbutĠi":7329,"ithmsĠthatĠ":7330,"Ġdiv":7331,"ĠdidĠ":7332,"ĠdoneĠ":7333,"Ġdev":7334,"Ġdef":7335,"Ġdens":7336,"ĠdanceĠ":7337,"Ġdeck":7338,"Ġdeliver":7339,"Ġdress":7340,"Ġdevelop":7341,"Ġdirect":7342,"ĠdataĠs":7343,"Ġdepend":7344,"Ġdies,Ġ":7345,"Ġdownload":7346,"Ġduck":7347,"Ġdynam":7348,"Ġdrop":7349,"Ġdjok":7350,"Ġdupl":7351,"ĠdyingĠtoĠ":7352,"ĠdoĠlikeĠto":7353,"Ġdropp":7354,"amand":7355,"ameĠs":7356,"ame!":7357,"among":7358,"americ":7359,"ammer":7360,"ambr":7361,"ameĠman":7362,"amenities":7363,"ammingĠfrom":7364,"amedĠonĠtheĠ":7365,"ameĠthisĠyear":7366,"ama.ĠyouĠcan":7367,"amenit":7368,"amarĠl":7369,"emex":7370,"emsĠin":7371,"emĠcellsĠ":7372,"emsĠfromĠtheĠ":7373,"emories":7374,"emaker":7375,"emsĠtoĠbeĠ":7376,"em.ĠiĠdon'tĠ":7377,"emĠnecess":7378,"emi!ĠthankĠyouĠforĠtheĠawesomeĠreview":7379,"emyĠonĠtheĠ":7380,"Ġyou.":7381,"ĠyouĠhaveĠ":7382,"ĠyouĠcan":7383,"ĠyouĠjustĠ":7384,"ĠyouĠtoĠs":7385,"ĠyouâĢĻveĠ":7386,"ĠyouĠabout":7387,"ĠyouĠel":7388,"ĠyouĠdecor":7389,"Ġyou'll":7390,"ĠyoungĠpeopl":7391,"ĠyouĠasĠyou":7392,"ĠyouĠinĠtheĠf":7393,"Ġyou.ĠiĠam":7394,"ĠyouĠmyĠchristmasĠ":7395,"ĠyouthĠdayĠ":7396,"ĠyouĠtoĠyourĠf":7397,"etĠandĠ":7398,"etesĠ":7399,"et,ĠandĠ":7400,"etcl":7401,"etĠtr":7402,"etast":7403,"etâĢĻsĠ":7404,"etingĠtheĠ":7405,"etwork":7406,"etsĠareĠ":7407,"etyĠw":7408,"ets,ĠandĠ":7409,"etach":7410,"etoĠd":7411,"etleĠ":7412,"etsĠat":7413,"eterĠs":7414,"etalĠd":7415,"eteĠdis":7416,"etc.ĠsoĠ":7417,"etihadĠ":7418,"etsyĠst":7419,"et.Ġwhen":7420,"etofore,Ġ":7421,"et,ĠdiningĠtabl":7422,"etedĠover":7423,"etĠtoĠprovideĠ":7424,"veryĠof":7425,"verĠaren":7426,"verĠindic":7427,"vertingĠtheĠ":7428,"atĠwith":7429,"atĠsp":7430,"atĠdown":7431,"atĠgatehous":7432,"atĠonly":7433,"atĠbay":7434,"atĠemb":7435,"atĠsoundproofĠwindowĠguy":7436,"ĠtoĠthatĠ":7437,"Ġtoe.Ġ":7438,"ĠtoĠall":7439,"ĠtoĠam":7440,"ĠtoĠtak":7441,"ĠtodayĠ":7442,"ĠtoĠapp":7443,"ĠtoĠapplication":7444,"ĠtoĠass":7445,"ĠtoĠseeĠ":7446,"ĠtoĠstar":7447,"Ġtower":7448,"ĠtoĠseeĠtheĠ":7449,"ĠtoĠshareĠwith":7450,"ĠtoĠattendĠcongressĠ":7451,"Ġto.Ġthankful":7452,"ĠtotallyĠ":7453,"ĠtoĠaĠspac":7454,"allĠsoĠ":7455,"allĠaboutĠ":7456,"allyĠs":7457,"allĠtheĠt":7458,"allĠatt":7459,"allĠtheĠp":7460,"allaw":7461,"allĠover":7462,"all,Ġm":7463,"allĠbo":7464,"allĠofĠyour":7465,"allĠtheĠrestĠof":7466,"allelĠsoĠ":7467,"allĠband":7468,"allĠdeck":7469,"plus":7470,"plain":7471,"pleĠb":7472,"plast":7473,"pleĠa":7474,"plantĠ":7475,"plansĠ":7476,"plus,":7477,"plansĠtoĠ":7478,"esĠitĠ":7479,"esĠfrom":7480,"esĠever":7481,"esĠbl":7482,"esĠway":7483,"esĠover":7484,"esĠforĠtheĠ":7485,"esĠdu":7486,"esĠofĠtheĠ":7487,"esĠmin":7488,"esĠplay":7489,"esĠdur":7490,"esĠwithĠtheĠ":7491,"esĠwillĠb":7492,"esĠputĠ":7493,"esĠsection":7494,"esĠcollect":7495,"esĠmeo":7496,"esĠmoreĠthan":7497,"esĠofĠ":7498,"esĠcombin":7499,"esĠprivateĠ":7500,"esĠnet":7501,"esĠset":7502,"esĠusing":7503,"esĠweâĢĻveĠ":7504,"esĠplaceĠ":7505,"esĠguest":7506,"esĠwon'tĠ":7507,"esĠleftĠ":7508,"esĠiĠshareĠ":7509,"esĠit.Ġi":7510,"esĠforĠstemĠcellsĠ":7511,"esĠveryĠof":7512,"ourĠg":7513,"ourĠin":7514,"ourĠn":7515,"ourĠwas":7516,"ourĠhom":7517,"ourĠonlin":7518,"ourĠapart":7519,"our!Ġyou":7520,"ourĠseason":7521,"ourĠupdatedĠ":7522,"ourĠhotĠcoco":7523,"ourĠliquidĠwatercolor":7524,"ourĠtreeĠup":7525,"ourĠcomplet":7526,"our,ĠsuchĠasĠ":7527,"ourceful":7528,"ourĠmone":7529,"ourĠwardĠ":7530,"ilest":7531,"iliz":7532,"ily,Ġ":7533,"ilities":7534,"ilient":7535,"ilĠpat":7536,"ilityĠtoĠ":7537,"ileg":7538,"ileĠsensation":7539,"ilyĠgrow":7540,"ilesĠofĠtheĠ":7541,"useĠth":7542,"usiveĠ":7543,"usedĠtoĠ":7544,"useĠof":7545,"usedĠfor":7546,"us,ĠtheĠ":7547,"usedĠbyĠtheĠ":7548,"usedĠby":7549,"usingĠitĠ":7550,"usual":7551,"usedĠs":7552,"usedĠinĠtheĠ":7553,"useum":7554,"usĠt.Ġj":7555,"usyĠoutĠ":7556,"us.Ġcand":7557,"usingĠroundĠ":7558,"usic,Ġapp":7559,"Ġfew":7560,"Ġfeat":7561,"Ġfra":7562,"Ġfish":7563,"Ġflu":7564,"Ġfurn":7565,"Ġfranch":7566,"Ġfirst":7567,"ĠfansĠ":7568,"Ġfollow":7569,"ĠfeastĠ":7570,"ĠfiveĠth":7571,"Ġfiber-lik":7572,"Ġfloor":7573,"ĠfeltĠ":7574,"Ġfawn":7575,"ĠfirstĠoff,Ġi":7576,"ĠfrozenĠthem":7577,"ĠfabulousĠ":7578,"Ġfoot":7579,"ĠfitnessĠ":7580,"ĠiĠhaveĠ":7581,"ĠiĠso":7582,"Ġigl":7583,"ĠiĠthink":7584,"ĠiĠget":7585,"ĠiĠwasĠ":7586,"ĠiĠhad":7587,"ĠiĠlea":7588,"ĠiĠcer":7589,"ĠiĠthoughtĠ":7590,"ĠiĠappreciateĠ":7591,"Ġichthyoplankton":7592,"ĠiĠfig":7593,"ĠiĠagree,Ġ":7594,"ĠirĠl":7595,"Ġillnes":7596,"ĠiĠputĠ":7597,"ĠiĠwish":7598,"ureĠs":7599,"urpr":7600,"urateĠ":7601,"uryĠc":7602,"ureĠandĠ":7603,"urallyĠ":7604,"urĠ(":7605,"urgyĠ":7606,"urgy":7607,"uringĠsup":7608,"urfaceĠ":7609,"urous,Ġ":7610,"uringĠitĠall":7611,"actĠof":7612,"actl":7613,"aciÃ³n":7614,"accel":7615,"actĠp":7616,"actĠoneĠ":7617,"accountĠ":7618,"actĠdr":7619,"acresĠfor":7620,"acĠandĠdeb":7621,"acilities":7622,"ayĠthatĠ":7623,"aybeĠ":7624,"ayersĠ":7625,"ay.Ġs":7626,"ayedĠto":7627,"ays,Ġsp":7628,"aylist":7629,"ayingĠyes":7630,"ayedĠcordĠclamping":7631,"ation?":7632,"ationsĠa":7633,"ationsĠof":7634,"ation!Ġi":7635,"ationĠwith":7636,"ationĠon":7637,"ationĠofĠtheĠ":7638,"ationsĠre":7639,"ationsĠfor":7640,"ationĠact":7641,"ationsĠt":7642,"ationĠcre":7643,"ationĠlea":7644,"ation,Ġno":7645,"ationship":7646,"ationsĠandĠb":7647,"ationĠopportunities":7648,"ationĠbecauseĠtheyĠ":7649,"eĠtoo":7650,"eĠtast":7651,"eĠtableĠ":7652,"eĠtown":7653,"eĠtreeĠ":7654,"eĠtitl":7655,"eĠtraditional":7656,"eĠtoniteĠ":7657,"ĠofĠin":7658,"ĠofĠre":7659,"ĠofĠtr":7660,"ĠofĠthem":7661,"ĠofĠmyĠ":7662,"ĠofĠdo":7663,"ĠofĠcont":7664,"ĠofĠcount":7665,"ĠofĠspecial":7666,"ĠofĠcor":7667,"ĠofĠtheĠsp":7668,"ĠofĠscoutsĠaustralia":7669,"ĠofĠsittingĠ":7670,"ĠofĠtur":7671,"ĠofĠaud":7672,"ĠofĠhotĠcoco":7673,"ĠofĠoceanograph":7674,"ĠofĠtheirĠwebsit":7675,"ĠofĠaggravatedĠorganizm":7676,"ĠoffĠtoĠ":7677,"ĠofĠaĠd":7678,"ĠofĠanatom":7679,"ĠofĠbasedĠ":7680,"aband":7681,"abĠthisĠ":7682,"abiesĠ":7683,"abĠit":7684,"abilit":7685,"abric":7686,"absentĠfrom":7687,"abour,ĠsuchĠasĠ":7688,"owever":7689,"owĠup":7690,"owers":7691,"owedĠwhen":7692,"Ġgard":7693,"Ġgroom":7694,"Ġgover":7695,"ĠgaveĠ":7696,"Ġgome":7697,"Ġgovern":7698,"ĠgoneĠandĠ":7699,"ĠgladĠ":7700,"ĠgatesĠand":7701,"Ġglas":7702,"ĠgeniusĠ":7703,"Ġgalax":7704,"ĠgoĠonĠa":7705,"ĠgemsĠin":7706,"idenceĠ":7707,"idĠthrough":7708,"ideal":7709,"idatesĠ":7710,"id.Ġ\"":7711,"idential":7712,"iddleĠ":7713,"idwifeĠ":7714,"idĠactor":7715,"id,Ġpres":7716,"idisciplin":7717,"identsĠandĠwork":7718,"igenceĠ":7719,"igationsĠ":7720,"igs,Ġdeceas":7721,"igmĠofĠc":7722,"restĠb":7723,"respect":7724,"resolv":7725,"resortĠ":7726,"respon":7727,"resentĠthat":7728,"resourceful":7729,"resilient":7730,"residenceĠ":7731,"imul":7732,"imingĠtoĠ":7733,"imatedĠ":7734,"impossibil":7735,"imesĠ(":7736,"impossibl":7737,"immun":7738,"imagesĠ":7739,"imately,Ġlatenc":7740,"immed":7741,"imsical":7742,"imeĠposition":7743,"iminateĠ":7744,"imens.Ġi":7745,"imaryĠt":7746,"magn":7747,"masĠs":7748,"maĠtier":7749,"withĠl":7750,"withĠyour":7751,"withĠpro":7752,"withĠtim":7753,"withĠour":7754,"withĠus":7755,"withĠaĠf":7756,"withĠsuch":7757,"withĠaĠs":7758,"withĠpl":7759,"withĠro":7760,"withĠeach":7761,"withĠmar":7762,"withĠscoutĠgroup":7763,"withĠglitter":7764,"withĠallĠyour":7765,"withĠwhat":7766,"withĠthoseĠglitter":7767,"withĠcrow":7768,"withĠmaint":7769,"withĠhiv":7770,"withĠtraditional":7771,"withĠwhom":7772,"withĠtheĠcountyĠofĠrhea":7773,"withĠcommunity":7774,"withĠcurrentĠ":7775,"withĠaggravatedĠorganizm":7776,"withĠadvancedĠ":7777,"withĠtaugh":7778,"withĠsoundproofĠwindowĠguy":7779,"withĠantiqueĠ":7780,"unitĠ":7781,"unav":7782,"unlik":7783,"univer":7784,"uniqu":7785,"unitsĠ":7786,"unavail":7787,"unday,Ġ":7788,"unitedĠ":7789,"univers":7790,"undamental":7791,"unlessĠ":7792,"unfortun":7793,"undantĠ":7794,"unlimitedĠ":7795,"undĠinĠtheĠh":7796,"unĠandĠzydecoĠ":7797,"unforgiv":7798,"needĠtoĠbeĠ":7799,"negativeĠ":7800,"netĠpr":7801,"nellĠun":7802,"needĠour":7803,"neilĠpat":7804,"ula":7805,"ule,Ġ":7806,"ultĠof":7807,"ulyĠandĠ":7808,"ulys":7809,"ultĠin":7810,"ulyĠfeat":7811,"ulgeĠtheĠ":7812,"irableĠ":7813,"irish":7814,"iringĠl":7815,"iraff":7816,"irdĠofĠtheĠ":7817,"irdĠandĠ":7818,"irmation":7819,"irĠest":7820,"ireĠpit":7821,"iranian":7822,"irĠofĠtur":7823,"Ġarter":7824,"Ġarrow":7825,"ĠareĠsoĠ":7826,"ĠareĠtheĠb":7827,"ĠartĠisĠa":7828,"Ġarthrit":7829,"ĠstateĠ":7830,"Ġstew":7831,"ĠstayĠ":7832,"Ġsteam":7833,"Ġstash":7834,"Ġstitch":7835,"ĠstoreĠyourĠbaby'sĠcordĠbloodĠpriv":7836,"Ġstimul":7837,"andĠtheĠf":7838,"andĠthereĠ":7839,"andsĠfor":7840,"andpa":7841,"andĠalask":7842,"andĠtheyĠareĠ":7843,"andĠaĠlotĠ":7844,"andĠadvancedĠ":7845,"andiwork":7846,"andlesĠon":7847,"andomĠfor":7848,"andedĠlu":7849,"andelier":7850,"exampl":7851,"exual":7852,"exts,Ġ":7853,"examin":7854,"exerciseĠ":7855,"excuseĠ":7856,"extrins":7857,"exually":7858,"exitiesĠof":7859,"exactl":7860,"ear,ĠandĠ":7861,"early":7862,"earĠitĠ":7863,"earsĠdorm":7864,"âĢĻ,":7865,"âĢĻsĠa":7866,"âĢĻs!":7867,"âĢĻĠâĢĵ":7868,"âĢĻĠann":7869,"âĢĻs.ĠsheĠ":7870,"âĢĻdĠbeĠ":7871,"âĢĻĠsky":7872,"havi":7873,"hawĠregular":7874,"eĠsetĠ":7875,"eĠsiz":7876,"eĠsiteĠ":7877,"eĠscal":7878,"eĠsession":7879,"eĠsort":7880,"eĠsearch":7881,"eĠsmall":7882,"eĠsouth":7883,"eĠsweet":7884,"eĠsomeoneĠ":7885,"eĠsidel":7886,"eĠsaving":7887,"eĠsatelliteĠ":7888,"eĠset.Ġtall":7889,"eĠsucc":7890,"eĠseries":7891,"eĠset,ĠdiningĠtabl":7892,"eĠsayingĠyes":7893,"eĠshawĠregular":7894,"ectrumĠof":7895,"ifĠtheĠs":7896,"ifĠyour":7897,"ifeĠand":7898,"ifĠnot":7899,"ifiedĠ":7900,"iftyĠ":7901,"ifferent":7902,"ifĠyourĠfamilyĠ":7903,"ifĠsomeoneĠ":7904,"ifthĠsection":7905,"ifĠdoneĠ":7906,"teriz":7907,"territ":7908,"tersect":7909,"grill":7910,"granceĠof":7911,"gryĠsoĠwe":7912,"grateful":7913,"grabĠit":7914,"compar":7915,"comeĠandĠ":7916,"compre":7917,"comeb":7918,"comeĠto":7919,"comingĠfrom":7920,"comĠstarĠ":7921,"combĠchristmas":7922,"comoĠperson":7923,"comedyâĢĻsĠ":7924,"eader":7925,"ea,Ġgul":7926,"Ġlak":7927,"ĠletĠ":7928,"Ġlev":7929,"Ġlind":7930,"Ġlong":7931,"ĠlastĠ":7932,"ĠlessĠ":7933,"Ġlearn":7934,"ĠlakeĠ":7935,"Ġlater":7936,"ĠlessĠthan":7937,"ĠlaĠm":7938,"ĠlasersĠareĠ":7939,"ĠlorreĠ":7940,"ĠletâĢĻsĠ":7941,"ive.Ġ":7942,"ivityĠ":7943,"ive-":7944,"ivision":7945,"ivari":7946,"ivateĠs":7947,"ivalentĠ":7948,"ives,ĠandĠ":7949,"ive,Ġto":7950,"ivenĠm":7951,"ivirĠest":7952,"illard":7953,"illsĠover":7954,"illĠcre":7955,"ole":7956,"olatedĠ":7957,"olĠwouldĠ":7958,"olution":7959,"olson":7960,"ole.ĠthisĠ":7961,"olkĠm":7962,"olpman":7963,"olveĠyour":7964,"olĠfurn":7965,"oleĠsession":7966,"opĠj":7967,"opy,Ġ":7968,"opy.":7969,"optĠoutĠ":7970,"optĠtheĠprogram":7971,"opyrightĠ":7972,"eĠthereĠ":7973,"eĠthisĠa":7974,"eĠtheĠm":7975,"eĠthingĠtoĠ":7976,"eĠthingsĠareĠ":7977,"eĠthat.Ġ":7978,"entĠwasĠ":7979,"entĠnam":7980,"entĠball":7981,"entĠforĠthisĠ":7982,"entĠonĠthisĠblog":7983,"entĠforward":7984,"entĠloan,Ġ":7985,"oseĠtheĠ":7986,"osÃ©":7987,"ossingĠ&":7988,"os,Ġlearn":7989,"osĠandĠdv":7990,"osesĠcombin":7991,"utĠall":7992,"utesĠa":7993,"utes,":7994,"utcher":7995,"ut,Ġcombin":7996,"proper":7997,"progres":7998,"proce":7999,"prolong":8000,"projectĠ":8001,"protein":8002,"projectĠwith":8003,"upĠfor":8004,"upĠsoĠ":8005,"upanc":8006,"uphea":8007,"upĠmy":8008,"upĠyourĠf":8009,"upĠclos":8010,"upportĠandĠ":8011,"uponĠsuch":8012,"upĠofĠhotĠcoco":8013,"ĠinĠyour":8014,"ĠinĠloveĠ":8015,"Ġinform":8016,"ĠinĠtheĠp":8017,"Ġinclud":8018,"ĠinsideĠ":8019,"ĠinĠscoutĠgroup":8020,"ĠinĠportugal":8021,"ĠinĠoctoberĠ":8022,"ĠinjuryĠ":8023,"ĠinĠtheĠbuild":8024,"Ġinternal":8025,"ĠincidentĠratesĠ":8026,"ĠinĠaĠpreviousĠ":8027,"Ġinked":8028,"ĠinĠaction":8029,"ĠinĠsiz":8030,"ĠinitiativeĠ":8031,"ĠinĠcaseĠyou":8032,"oteĠasĠ":8033,"otsĠthatĠi":8034,"ottom":8035,"ote.Ġhowever":8036,"otomist":8037,"otentiallyĠ":8038,"weetĠ":8039,"weigh":8040,"we'll":8041,"weirdĠandĠ":8042,"weâĢĻdĠbeĠ":8043,"ĠthisĠdec":8044,"ĠthisĠwasĠ":8045,"ĠthisĠstem":8046,"ĠthisĠgreat":8047,"ĠthisĠcommun":8048,"ĠthisĠweekend":8049,"ĠthisĠlastĠ":8050,"ĠthisĠreleas":8051,"ĠthisĠstamp":8052,"ĠthisĠwouldĠ":8053,"ĠthisĠstat":8054,"ĠthisĠmod":8055,"ĠthisĠrecongressĠ":8056,"ĠthisĠepidemic":8057,"ĠthisĠemailing":8058,"ĠthisĠshin":8059,"ĠthisĠposition":8060,"ĠthisĠholidayĠseason":8061,"ĠthisĠdeep":8062,"ĠthisĠmightĠ":8063,"ĠthisĠprojectĠ":8064,"itĠfr":8065,"itĠbeĠ":8066,"itĠout":8067,"itĠisĠa":8068,"itĠher":8069,"itĠnow":8070,"itĠofĠtheĠ":8071,"itĠmoreĠ":8072,"itĠcap":8073,"itĠner":8074,"itĠse":8075,"itĠlea":8076,"itĠinĠtheĠs":8077,"itĠisĠtheĠ":8078,"itĠdeliver":8079,"itĠstaff":8080,"itĠdefinitelyĠ":8081,"itĠextra":8082,"itĠprice":8083,"itĠgotĠaĠc":8084,"itĠonĠaĠlittleĠ":8085,"itĠrequire":8086,"ĠandĠam":8087,"ĠandĠtak":8088,"ĠandĠalsoĠ":8089,"ĠandĠthrough":8090,"ĠandĠaĠb":8091,"ĠandĠtenn":8092,"ĠandĠaddition":8093,"ĠandĠtwoĠ":8094,"ĠandĠtour":8095,"ĠandĠattract":8096,"ĠandĠaĠ":8097,"ĠandĠaĠh":8098,"ĠandĠarrang":8099,"ĠandĠtopic":8100,"Ġand,Ġwell":8101,"istak":8102,"istri":8103,"istanceĠ":8104,"isticĠs":8105,"ist.ĠtheyĠcanĠhelp":8106,"istings,Ġworkshop":8107,"istic,ĠmoreĠ":8108,"Ġreact":8109,"Ġredo":8110,"Ġrefer":8111,"Ġreind":8112,"Ġredu":8113,"Ġremin":8114,"Ġrestor":8115,"Ġrece":8116,"Ġrefin":8117,"Ġreven":8118,"Ġredevelop":8119,"Ġrefill":8120,"ĠrecentĠ":8121,"ĠrealĠp":8122,"ĠreportĠandĠ":8123,"Ġrealty.":8124,"ĠreallyĠs":8125,"able":8126,"able,Ġ":8127,"ableĠm":8128,"able.":8129,"ableĠb":8130,"ableĠandĠ":8131,"abledĠbyĠ":8132,"ableĠseat":8133,"ableĠdiningĠroom":8134,"ablesĠset":8135,"frameĠ":8136,"fraspinatus":8137,"fragranc":8138,"whiteĠ":8139,"whyĠm":8140,"whyĠis":8141,"whyĠlatenc":8142,"whatĠtheyĠdoĠ":8143,"whimsical":8144,"wholeĠsession":8145,"ĠthatĠisĠa":8146,"ĠthatĠmuch":8147,"ĠthatĠchristmasĠ":8148,"ĠthatĠhelp":8149,"ĠthatĠgroup":8150,"ĠthatĠpartĠof":8151,"ĠthatĠlittl":8152,"ĠthatĠmakeĠ":8153,"ĠthatĠmayĠbeĠ":8154,"ĠthatĠreal":8155,"ĠthatĠourĠc":8156,"ĠthatĠsheĠ":8157,"ĠthatĠmyĠgrandma":8158,"ĠthatĠenjoysĠa":8159,"ĠthatĠfoodĠ":8160,"ĠthatĠfansĠ":8161,"ĠthatĠstart":8162,"ĠthatĠeveryĠs":8163,"ĠthatĠsoĠfar":8164,"ĠthatĠensure":8165,"ĠthatĠcordĠbloodĠshouldĠ":8166,"ĠthatĠcenterpiec":8167,"ĠthatĠiĠamĠsuper":8168,"ĠthatĠourĠmone":8169,"beĠoneĠ":8170,"beĠbe":8171,"beĠonĠtheĠ":8172,"beĠget":8173,"beĠwell":8174,"beĠâĢľ":8175,"beĠneed":8176,"beĠhelp":8177,"beĠmad":8178,"beĠcaus":8179,"beĠris":8180,"beĠableĠto":8181,"beĠlaidĠ":8182,"beĠstoredĠ":8183,"beĠonĠaĠd":8184,"beĠelectedĠ":8185,"beĠbrough":8186,"beĠfu":8187,"beĠandĠtheyĠareĠ":8188,"adder":8189,"ad.ĠtheĠ":8190,"adeĠandĠ":8191,"ad'sĠ":8192,"addition":8193,"adientĠ":8194,"advis":8195,"adient":8196,"adĠtoĠs":8197,"adalĠi":8198,"administr":8199,"adoĠhotel":8200,"adasĠaĠp":8201,"adigmĠofĠc":8202,"quareĠ":8203,"quip":8204,"quiver":8205,"quently":8206,"quiteĠd":8207,"queĠtop":8208,"quiet":8209,"quois":8210,"quantitativeĠ":8211,"quiringĠl":8212,"conutĠ":8213,"concordĠ":8214,"connect":8215,"coneĠtrees":8216,"concept":8217,"confidentĠ":8218,"convertingĠtheĠ":8219,"e.Ġnow":8220,"e.ĠcordĠbloodĠ":8221,"e.Ġwhen":8222,"e.ĠnoĠ":8223,"e.Ġclean":8224,"e.Ġph":8225,"e.Ġbefor":8226,"e.ĠitĠisĠ":8227,"e.ĠweĠareĠ":8228,"e.Ġhi":8229,"e.Ġnote:":8230,"e.Ġ\"weĠ":8231,"e.ĠdoĠthisĠ":8232,"e.ĠcanĠyou":8233,"e.Ġdesign":8234,"e.ĠpriorĠexperienceĠ":8235,"e.ĠdrewĠmichaelĠandĠelizabethĠellisĠ":8236,"e.ĠdanceĠinstru":8237,"e.ĠohĠsweetĠfriend":8238,"e.ĠforĠsomeĠ":8239,"e.ĠitĠisĠa":8240,"Ġalik":8241,"Ġalign":8242,"Ġalbum":8243,"ĠaliĠal-sistani":8244,"ĠaloneĠs":8245,"ends.Ġ":8246,"endĠtheir":8247,"endeeĠ":8248,"end-st":8249,"end.ĠifĠitĠ":8250,"endableĠdiningĠroom":8251,"shown":8252,"shmal":8253,"should":8254,"sheltersĠandĠ":8255,"showĠup":8256,"ĠforĠaĠp":8257,"ĠforĠmyĠ":8258,"ĠforĠus":8259,"ĠforĠtheĠf":8260,"ĠforĠit":8261,"ĠforĠaĠs":8262,"ĠforĠdin":8263,"ĠforĠask":8264,"ĠforĠapplication":8265,"ĠforĠcongressĠ":8266,"ĠforĠtheĠcountyĠcour":8267,"ĠforĠscoutsĠaustralia":8268,"ĠforĠhim":8269,"ĠforĠstor":8270,"ĠforĠrepresent":8271,"ĠforĠaĠpat":8272,"ĠforĠira":8273,"ĠforĠstop":8274,"ĠforĠstart":8275,"ĠforĠinv":8276,"ĠforĠourĠcongressĠ":8277,"ĠforĠtakingĠ":8278,"ĠforĠtwo":8279,"ĠforĠguest":8280,"ĠforĠimpl":8281,"ĠformsĠ":8282,"ĠforĠaĠcom":8283,"ĠforecastingĠandĠ":8284,"Ġlocation":8285,"ĠlotsĠof":8286,"Ġlow-no":8287,"Ġloans.ĠifĠyouĠhaveĠ":8288,"appre":8289,"ap.ĠifĠyou":8290,"appropri":8291,"outĠfrom":8292,"outĠhow":8293,"outĠmoreĠ":8294,"outĠhav":8295,"outĠsuch":8296,"outĠwher":8297,"outĠnorth":8298,"outĠyourĠhome!":8299,"outĠit,Ġbut":8300,"outĠwhyĠlatenc":8301,"yourĠj":8302,"yourĠcon":8303,"yourĠgr":8304,"yourĠpain":8305,"yourĠchristmasĠdecor":8306,"yourĠshoulderĠpain":8307,"yourĠlocal":8308,"yourĠmoneyĠ":8309,"yourĠway":8310,"yourĠexercis":8311,"yourĠtimeĠandĠ":8312,"yourĠcordĠbloodĠ":8313,"yoursĠisĠnotĠ":8314,"s,Ġout":8315,"s,Ġmak":8316,"s,ĠbyĠ":8317,"s,Ġcall":8318,"s,Ġhear":8319,"s,Ġneed":8320,"s,Ġwe'reĠ":8321,"s,ĠwhereĠ":8322,"s,Ġhowever":8323,"s,Ġit'sĠ":8324,"s,Ġbefor":8325,"s,Ġmark":8326,"s,Ġyou'reĠ":8327,"s,ĠonĠs":8328,"s,ĠonĠc":8329,"s,ĠifĠi":8330,"s,Ġmaterial":8331,"s,ĠoutĠof":8332,"s,Ġproven":8333,"s,Ġpsych":8334,"s,ĠconditionedĠforĠtheĠ":8335,"s,ĠcivilĠandĠm":8336,"s,ĠiĠjustĠloveĠ":8337,"s,ĠisĠveryĠspacious":8338,"s,ĠwithĠwhom":8339,"ĠtheyĠoffer":8340,",ĠandĠper":8341,",ĠandĠweĠ":8342,",ĠandĠind":8343,",ĠandĠdu":8344,",ĠandĠother":8345,",ĠandĠcal":8346,",ĠandĠiĠhaveĠ":8347,",ĠandĠnoĠ":8348,",ĠandĠhelp":8349,",ĠandĠlat":8350,",ĠandĠlif":8351,",ĠandĠiĠloveĠ":8352,",ĠandĠpat":8353,",ĠandĠourĠc":8354,",ĠandĠbound":8355,",ĠandĠmor":8356,",ĠandĠeveryoneĠ":8357,",ĠandĠofĠcourse,Ġ":8358,",ĠandĠsometimes":8359,",ĠandĠhis":8360,",ĠandĠvehic":8361,",ĠandĠinĠaĠsmall":8362,",ĠandĠyouĠwill":8363,",ĠandĠwithĠpro":8364,"e,ĠloveĠ":8365,"e,ĠbyĠ":8366,"e,ĠiĠhaveĠ":8367,"e,Ġbut":8368,"e,Ġlov":8369,"e,ĠintoĠ":8370,"e,Ġuntil":8371,"e,Ġdown":8372,"e,ĠiĠam":8373,"e,Ġhealth":8374,"e,ĠiĠloveĠ":8375,"e,ĠyetĠ":8376,"e,Ġnear":8377,"e,Ġdivid":8378,"e,Ġquit":8379,"e,Ġobvious":8380,"e,Ġfurther":8381,"e,ĠinĠwhich":8382,"e,ĠorĠg":8383,"e,ĠyouĠwouldĠ":8384,"e,ĠeliteĠt":8385,"e,ĠitĠse":8386,"e,ĠbeĠlaidĠ":8387,"intell":8388,"intact":8389,"intens":8390,"intimat":8391,"intableĠandĠ":8392,"sĠaway":8393,"sĠacc":8394,"sĠasĠt":8395,"sĠaĠturn":8396,"sĠagoĠ":8397,"sĠaĠâĢľ":8398,"sĠaĠstemĠcellĠtrans":8399,"sĠaĠkeyĠ":8400,"sĠaĠrun":8401,"sĠaĠcomplet":8402,"sĠaccount":8403,"sĠaforesaid":8404,"sĠaimingĠtoĠ":8405,"ĠareĠover":8406,"ĠareĠmuch":8407,"ĠareĠofĠtheĠ":8408,"ĠareĠart":8409,"ĠareĠcompl":8410,"ĠareĠaĠfew":8411,"ĠareĠwelcom":8412,"ĠareĠalwaysĠ":8413,"ĠareĠfocus":8414,"ĠareĠalsoĠ":8415,"ĠareĠallĠatt":8416,"ceĠag":8417,"ceĠaĠ":8418,"ceĠofĠpain":8419,"Ġshould":8420,"Ġshelf":8421,"ĠsheâĢĻ":8422,"ĠshiiteĠ":8423,"Ġshambr":8424,"ake\"Ġafter":8425,"ake,Ġnear":8426,"countryĠ":8427,"countyĠofĠrhea":8428,"countries":8429,"countyĠtr":8430,"etĠonĠtheĠ":8431,"etĠofĠtheĠ":8432,"etĠcall":8433,"etĠwithĠtheĠ":8434,"etĠpric":8435,"etĠball":8436,"etĠbig":8437,"etĠonlin":8438,"etĠofĠ":8439,"etĠinĠtheĠp":8440,"etĠjointĠ":8441,"etĠpul":8442,"easyĠtoĠ":8443,"prayĠ":8444,"pringĠof":8445,"prayers":8446,"priveĠtheĠ":8447,"proud.Ġ":8448,"prisingĠthat":8449,"primaryĠt":8450,"ighĠlev":8451,"elle!":8452,"ellsĠareĠ":8453,"elloĠd":8454,"ellingĠthisĠ":8455,"ellĠtheĠlot":8456,"ellations,Ġ":8457,"ell,ĠandĠinĠaĠsmall":8458,"ĠallĠtheir":8459,"ĠallĠofĠtheĠ":8460,"ĠallĠoffic":8461,"ĠallĠtheĠn":8462,"ĠallĠphot":8463,"Ġall.ĠiĠloveĠ":8464,"ĠallĠtheĠtim":8465,"ĠallĠtheĠnew":8466,"ĠallĠofĠyour":8467,"ĠallĠliv":8468,"ĠallĠtheĠavail":8469,"ĠallĠsur":8470,"ĠallĠrespect":8471,"ĠallĠoverĠtheĠ":8472,"ĠallĠonlineĠatĠwww.recongress.org/":8473,"Ġalley.Ġ":8474,"ĠallĠuk":8475,"ĠallĠtheĠlat":8476,"ĠallĠmater":8477,"ĠallĠdress":8478,"idĠcenturyĠ":8479,"idĠlodg":8480,"idĠirish":8481,"ĠtheĠseat":8482,"ĠtheĠsens":8483,"ĠtheĠscal":8484,"ĠtheĠsub":8485,"ĠtheĠschedul":8486,"ĠtheĠsaid":8487,"ĠtheĠsumĠof":8488,"ĠtheĠsweet":8489,"ĠtheĠschedule,":8490,"ĠtheĠsalesĠ":8491,"ĠtheĠscen":8492,"ĠtheĠswank":8493,"ĠtheĠsituation":8494,"ĠtheĠsecondĠ":8495,"ĠtheĠspringĠof":8496,"ateĠbas":8497,"ateĠwithĠtheĠ":8498,"ateĠins":8499,"ateĠmatch":8500,"ateĠentertain":8501,"ateĠcordĠblood":8502,"ateĠuniqueĠ":8503,"ateĠintoĠyourĠdecor":8504,"ateĠaĠlo":8505,"ateĠnight":8506,"ateĠorĠlo":8507,"ateĠanalys":8508,"ateĠforĠchristmasĠ":8509,"s.Ġ$":8510,"s.Ġfrom":8511,"s.ĠinĠtheĠ":8512,"s.ĠnotĠ":8513,"s.Ġpart":8514,"s.Ġevery":8515,"s.Ġhom":8516,"s.ĠdoĠ":8517,"s.ĠitâĢĻsĠ":8518,"s.Ġhal":8519,"s.Ġit'sĠ":8520,"s.Ġimport":8521,"s.ĠpartĠof":8522,"s.Ġbest":8523,"s.Ġwww.":8524,"s.ĠourĠ":8525,"s.ĠweĠd":8526,"s.Ġresearch":8527,"s.ĠitĠhasĠbeen":8528,"s.ĠdoĠthisĠ":8529,"s.ĠforĠtheĠfirst":8530,"s.Ġgovernment":8531,"s.Ġ\"asĠ":8532,"s.ĠforĠadditionalĠinformationĠaboutĠmeoĠsatellit":8533,"s.ĠourĠwas":8534,"s.ĠwhyĠis":8535,"andĠstyl":8536,"andĠdet":8537,"andĠmedic":8538,"andĠextra":8539,"andĠweĠknow":8540,"andĠsoĠfar":8541,"andĠnecessaril":8542,"andĠofĠsesĠg":8543,"andĠitĠstaff":8544,"essageĠ":8545,"essĠtoĠm":8546,"ess!ĠiĠam":8547,"essmentĠof":8548,"ĠhasĠre":8549,"ĠhasĠp":8550,"ĠhasĠbeenĠgreat":8551,"dersĠandĠ":8552,"dersĠtoĠ":8553,"ders!":8554,"derĠabout":8555,"dersĠlastĠyear":8556,"der]Ġl":8557,"dernĠdayĠ":8558,"oooĠcomf":8559,"tĠofĠtheir":8560,"tĠofĠrhea":8561,"tĠofĠsaidĠcountyĠofĠmeig":8562,"blown":8563,"blocksĠin":8564,"bloomsĠfill":8565,"ewĠyear":8566,"oneĠisĠa":8567,"oneĠofĠtheĠ":8568,"oneĠcall":8569,"oneĠwhoĠ":8570,"oneĠcelebr":8571,"oneĠafter":8572,"oneĠdoesĠ":8573,"oneĠbasisĠ":8574,"oneĠanyĠtimeĠ":8575,"oneĠyouĠdon":8576,"oneĠwithĠaĠs":8577,"oneĠcompre":8578,"anksgiv":8579,"thereĠareĠ":8580,"perĠcon":8581,"permin":8582,"perten":8583,"periment":8584,"perĠbook":8585,"ume.":8586,"umĠisĠ":8587,"umans":8588,"Ġjust":8589,"Ġjourne":8590,"Ġjourn":8591,"Ġjade.Ġ":8592,"Ġjesucrist":8593,"Ġjetcl":8594,"ĠjulyĠfeat":8595,"ĠasĠdec":8596,"ĠasĠother":8597,"ĠasĠyouĠcan":8598,"ĠasĠman":8599,"ĠasĠfull":8600,"ĠasĠgrow":8601,"ĠasĠlastĠ":8602,"ĠasĠrequ":8603,"ĠasĠitĠisĠ":8604,"ĠasĠexpect":8605,"ĠasĠpossess":8606,"ĠasĠbedĠandĠbreak":8607,"ĠasĠo'haraĠs":8608,"ousandĠdollar":8609,"ousandĠalask":8610,".ĠtheĠpost":8611,".ĠtheĠground":8612,".ĠtheĠcommunityĠ":8613,".ĠtheĠpain":8614,".ĠtheĠprogram":8615,".ĠtheĠadventureĠbeginsĠ":8616,".ĠtheĠcostĠ":8617,".ĠtheĠht":8618,".ĠtheĠchanceĠof":8619,".ĠtheĠapprov":8620,".ĠtheĠpeopleĠar":8621,".ĠtheĠlakesĠandĠ":8622,".ĠtheĠmagn":8623,"beingĠa":8624,"beingĠs":8625,"below":8626,"be,Ġand":8627,"began":8628,"bekah":8629,"beetleĠ":8630,"ĠyourĠdo":8631,"ĠyourĠtabl":8632,"ĠyourĠhomeĠ":8633,"ĠyourĠwork":8634,"ĠyourĠro":8635,"ĠyourĠnew":8636,"ĠyourĠhom":8637,"ĠyourĠbab":8638,"ĠyourĠstamp":8639,"ĠyourĠnotĠ":8640,"ĠyourĠtableĠ":8641,"ĠyourĠmid":8642,"ĠyourĠph":8643,"ĠyourĠcuteĠ":8644,"ĠyourĠhome":8645,"ĠyourĠdev":8646,"ĠyourĠstash":8647,"aidĠcommissionersĠshall":8648,"uchĠmoreĠ":8649,"Ġabov":8650,"ĠabuseĠand":8651,"ĠaboveĠth":8652,"ĠableĠtoĠcreateĠ":8653,"Ġabsor":8654,"ĠabilityĠtoĠ":8655,"Ġspik":8656,"Ġspeaker":8657,"Ġspatial":8658,"ĠspillsĠover":8659,"ayĠover":8660,"ayĠmoreĠ":8661,"ayĠbutĠ":8662,"ayĠisĠb":8663,"ayĠcordĠclamping":8664,"ayĠ'in":8665,"ayĠourĠg":8666,"sĠofĠsaidĠ":8667,"sĠoften":8668,"sĠofĠpeopl":8669,"sĠofĠreg":8670,"sĠofĠsaidĠcountyĠofĠmeig":8671,"sĠofĠland":8672,"sĠofĠyourĠgr":8673,"sĠofĠcongres":8674,"sĠofĠhiv":8675,"sĠofĠext":8676,"sĠofĠtheĠmask":8677,"sĠofĠscouting":8678,"sĠofĠsparkl":8679,"sĠoffĠwith":8680,"sĠofĠecosystem":8681,"sĠofĠyoungĠpeopl":8682,"sĠofĠtheĠsalesĠ":8683,"sĠofĠabov":8684,"ĠsoĠdoĠ":8685,"ĠsoĠfun":8686,"ĠsoĠfar":8687,"ĠsoĠexpend":8688,"ĠsoĠprettyĠ":8689,"ĠsoĠmyĠhous":8690,"ĠsoĠniceĠtoĠ":8691,"ĠsoĠcra":8692,"ĠsoĠgrateful":8693,"!ĠiĠmad":8694,"!Ġi'veĠ":8695,"!ĠiĠwant":8696,"!ĠiĠdid":8697,"!ĠiĠlink":8698,"!ĠiĠneedĠtoĠ":8699,"!ĠitĠhasĠbeen":8700,"!ĠiĠhaveĠenjoyedĠ":8701,"!ĠiĠaddedĠ":8702,"ageĠtoĠ":8703,"agedĠtoĠ":8704,"age.ĠtheĠ":8705,"agedĠbyĠ":8706,"agingĠl":8707,"agesĠareĠ":8708,"aggravatedĠ":8709,"age,Ġwhich":8710,"ageĠofĠ":8711,"agnos":8712,"agree.Ġhowever":8713,"agicĠb":8714,"agacĠandĠdeb":8715,"age.ĠdanceĠinstru":8716,"ainĠisĠ":8717,"ainĠcell":8718,"ainĠfrom":8719,"ainedĠto":8720,"ainĠwasĠ":8721,"ainsĠpart":8722,"ainĠofĠcor":8723,"evant":8724,"eviaĠ":8725,"evins,Ġ":8726,"evelsĠfromĠ":8727,"nolog":8728,"noonĠfor":8729,"nob\"Ġwhen":8730,"noyingĠ":8731,"noon.ĠtheĠ":8732,"out.Ġi":8733,"outâĢĿ":8734,"outdoor":8735,"outputĠ":8736,"outĠasĠmuch":8737,"outĠthisĠplace.Ġ":8738,"outskir":8739,"outĠtheĠnextĠfew":8740,"outĠtoĠfe":8741,"ereĠisĠoneĠ":8742,"ereĠyourĠcordĠbloodĠ":8743,"omeĠmask":8744,"omeĠcardstock":8745,"omeĠgreen":8746,"omeĠhe":8747,"omeĠin-":8748,"omeĠin,ĠyouâĢĻllĠseeĠ":8749,"omeĠconfidentĠ":8750,"coach":8751,"cogn":8752,"co-star":8753,"cozyĠ":8754,"coastĠof":8755,"coconutĠ":8756,"partĠisĠ":8757,"pareĠfor":8758,"parents,":8759,"paradigmĠofĠc":8760,"eĠdef":8761,"eĠdov":8762,"eĠdoll":8763,"eĠdays.Ġ":8764,"eĠdeliver":8765,"eĠdivers":8766,"eĠduringĠtheĠ":8767,"eĠdepos":8768,"eĠdependingĠon":8769,"eĠdr.Ġ":8770,"eĠdvdĠ":8771,"eĠdetach":8772,"eĠdoneĠanyĠtimeĠ":8773,"newĠprogram":8774,"newsp":8775,"newĠtoĠm":8776,"newĠcolor":8777,"newĠpo":8778,"newĠforĠm":8779,"news.ĠifĠyou":8780,"newĠhollywoodĠ":8781,"newĠinitiativeĠ":8782,"newĠspeaker":8783,"ripp":8784,"rief":8785,"riĠtur":8786,"rialĠf":8787,"richardĠ":8788,"rialĠandĠprovideĠfeedback":8789,"utĠwe'reĠ":8790,"utĠwithoutĠ":8791,"utĠupĠtheĠ":8792,"isĠatt":8793,"isĠaĠv":8794,"isĠaĠpat":8795,"isĠaĠcombinationĠof":8796,"isĠaĠpark":8797,"corrosion":8798,"cornellĠun":8799,"tlef":8800,"tleĠtouch":8801,"tlesĠwithĠtheĠ":8802,"tleĠdov":8803,"ustryĠ":8804,"ustee,Ġ":8805,"years.Ġ":8806,"years,":8807,"years.":8808,"year;ĠandĠ":8809,"yearĠonĠtheĠ":8810,"yearĠsinceĠ":8811,"years?Ġwh":8812,"yearĠ@Ġg":8813,"year.ĠforĠmoreĠinformation":8814,"years,ĠifĠi":8815,"year,ĠandĠweĠ":8816,"yearsĠofĠext":8817,"eĠmoreĠ":8818,"eĠme!":8819,"eĠmov":8820,"eĠmatch":8821,"eĠmyĠb":8822,"eĠmonth":8823,"eĠmuscl":8824,"eĠmoney":8825,"eĠmouthĠof":8826,"eĠmostĠof":8827,"eĠmulti":8828,"eĠmoreĠspecialĠwith":8829,"eĠmeet":8830,"eĠminiĠtreeĠ":8831,"eĠmetast":8832,"eĠmidĠcenturyĠ":8833,"eĠmessageĠ":8834,"eĠmuchĠmoreĠ":8835,"sĠinĠtheĠm":8836,"sĠinĠsuch":8837,"sĠinformation":8838,"sĠinĠtheĠshoulder":8839,"sĠinĠpar":8840,"sĠinclud":8841,"sĠinĠalaska":8842,"sĠinvol":8843,"sĠinĠchristmasĠdecor":8844,"sĠinĠadditionĠtoĠtheĠ":8845,"sĠinĠamerica,Ġ":8846,"sĠink,ĠandĠ":8847,"sĠinĠsaidĠtown":8848,"sĠinstitution":8849,"sĠinĠtheĠspringĠof":8850,"yĠofĠ":8851,"yĠofĠsc":8852,"yĠoffic":8853,"yĠofĠanĠ":8854,"yĠofĠtheĠcountyĠcour":8855,"yĠofĠscoutsĠaustralia":8856,"yĠofĠmcminn":8857,"yĠofĠwestern":8858,"from.ĠifĠyou":8859,"fromĠmoreĠthan":8860,"fromĠdel":8861,"fromĠlos":8862,"fromĠcrow":8863,"fromĠcollect":8864,"fromĠaĠnumberĠof":8865,"fromĠinternal":8866,"fromĠthisĠemailing":8867,"fromĠthatĠsoĠfar":8868,"ĠhaveĠbeen":8869,"ĠhaveĠdis":8870,"ĠhaveĠse":8871,"ĠhaveĠtoĠ":8872,"ĠhaveĠaĠnew":8873,"ĠhaveĠplentyĠof":8874,"ĠhaveĠany.Ġ":8875,"ĠhaveĠyourĠexercis":8876,"beringĠs":8877,"berĠstep":8878,"bert!ĠthankĠyouĠsoĠmuch":8879,"berosesĠcombin":8880,"everĠiĠwant":8881,"evereĠab":8882,"portĠd":8883,"portersĠandĠ":8884,"porateĠentertain":8885,"Ġocc":8886,"estaĠs":8887,"estedĠandĠ":8888,"est.Ġ\"":8889,"estive,Ġ":8890,"estĠandĠget":8891,"est-pa":8892,"estĠandĠgr":8893,"estingĠmaintenance.Ġ":8894,"estigationsĠ":8895,"estĠarrow":8896,"ĠwithĠ":8897,"ĠwithĠthes":8898,"ĠwithĠch":8899,"ĠwithĠtheĠt":8900,"ĠwithĠsuch":8901,"ĠwithĠfin":8902,"ĠwithĠ$":8903,"ĠwithĠchalleng":8904,"ĠwithĠaĠprivateĠ":8905,"ĠwithĠtheĠcountyĠofĠmeigs,Ġ":8906,"ĠwithĠtel":8907,"Ġwithin.ĠandĠ":8908,"ĠwithĠtheĠint":8909,"ĠwithĠsilver":8910,"ĠwithĠpet":8911,"ĠwithĠbloodĠ":8912,"ĠwithĠyourĠcuteĠ":8913,"activeĠ":8914,"actingĠs":8915,"actusin":8916,"act,ĠthatĠ":8917,"actuallyĠ":8918,"activelyĠandĠ":8919,"act)Ġthan":8920,"actsĠthisĠ":8921,"epip":8922,"eptingĠ":8923,"epaper":8924,"epinelakeĠ":8925,"epicent":8926,"ies-o":8927,"iesĠaĠlotĠ":8928,"ies!Ġamanda,Ġi":8929,"ies.Ġam":8930,"iesĠtoĠgu":8931,"ies.ĠtheĠchanceĠof":8932,"eĠtoĠhaveĠ":8933,"eĠtoĠget":8934,"eĠtoĠlos":8935,"eĠtoĠuseĠ":8936,"eĠtoĠbeĠs":8937,"eĠtoĠplay":8938,"eĠtoĠpin":8939,"eĠtoĠconstru":8940,"eĠtoĠbeĠmail":8941,"eĠtoĠbay":8942,"eĠtoĠdoĠit":8943,"eĠtoĠdn":8944,"eĠtoĠfil":8945,"200":8946,"202":8947,"207":8948,"here.":8949,"herĠthingsĠ":8950,"hers!Ġi":8951,"herĠrecentlyĠ":8952,"here,ĠbecauseĠ":8953,"heretofore,Ġ":8954,"herĠfrozenĠthem":8955,"sĠandĠhaveĠ":8956,"sĠandĠforĠm":8957,"sĠandĠreview":8958,"sĠandĠbr":8959,"sĠandĠproject":8960,"sĠandĠcorpor":8961,"sĠandĠfisher":8962,"sĠandĠcharg":8963,"sĠandĠcondition":8964,"sĠandĠpriv":8965,"sĠandĠexpect":8966,"sĠandĠob":8967,"sĠandĠsetĠ":8968,"sĠandĠotherĠs":8969,"sĠandĠshoppingĠcenter":8970,"sĠandĠsometimes":8971,"sĠandĠrestrictions,ĠandĠ":8972,"sĠandĠfood":8973,"sĠandĠofĠsuch":8974,"sĠandĠelisha":8975,"sĠandĠitĠcap":8976,"sĠandĠconvertingĠtheĠ":8977,"sĠandĠprayers":8978,"willĠon":8979,"willĠtr":8980,"willĠshar":8981,"willĠget":8982,"willĠalway":8983,"willĠkeep":8984,"willĠpower":8985,"willĠanswer":8986,"willĠcollect":8987,"willĠut":8988,"willingness":8989,"willĠmakeĠ":8990,"ĠamĠaĠb":8991,"Ġam!ĠweĠ":8992,"ĠamĠcurr":8993,"ĠamĠsoĠsorryĠforĠyourĠloss.Ġ":8994,"ĠamĠgladĠ":8995,"reatedĠwith":8996,"reativity":8997,"yĠcenter":8998,"yĠcraf":8999,"yĠceil":9000,"yĠcaters":9001,"yĠcandlesĠon":9002,"yĠcellsĠareĠ":9003,"yĠcreativity":9004,"Ġcondu":9005,"Ġconcre":9006,"ĠconnectĠwith":9007,"ĠconveyĠtheĠ":9008,"ĠconĠjesucrist":9009,"blareĠ":9010,"blersĠ":9011,"bledĠin":9012,"blĠwasĠ":9013,"bledonĠisĠ":9014,"bladder":9015,"blandĠofĠsesĠg":9016,"nowĠhav":9017,"now,Ġtoo!":9018,"nowĠisĠan":9019,"now.ĠweĠhaveĠ":9020,"nowĠonĠour":9021,"nowĠ-Ġi":9022,"nowĠhaveĠaĠnew":9023,"weĠhav":9024,"weĠwereĠ":9025,"weĠplayĠ":9026,"weĠintend":9027,"weĠworkĠto":9028,"weĠstri":9029,"asĠcan":9030,"asĠwithĠtheĠ":9031,"asĠbig":9032,"asĠgood":9033,"asĠdeĠf":9034,"asĠesper":9035,"e.Ġas":9036,"e.Ġso":9037,"e.ĠalsoĠ":9038,"e.Ġatt":9039,"e.Ġask":9040,"e.Ġthough":9041,"e.ĠsomeĠ":9042,"e.ĠsheĠ":9043,"e.ĠthisĠisĠ":9044,"e.ĠaĠnew":9045,"e.Ġspecific":9046,"e.Ġthous":9047,"e.Ġsub":9048,"e.ĠtheyĠlook":9049,"e.ĠsetĠupĠandĠ":9050,"e.ĠsoĠexcitedĠtoĠbeĠ":9051,"e.ĠsoĠhappyĠtoĠ":9052,"e.ĠthatĠisĠa":9053,"e.ĠasĠbedĠandĠbreak":9054,"e.ĠsoĠfar":9055,"ialingĠ":9056,"ialĠquestion":9057,"ialĠwebsiteĠ":9058,"ialsĠfirstĠ":9059,"ialĠandĠprofessional":9060,"ĠonĠweek":9061,"Ġone-":9062,"ĠonĠchristmasĠ":9063,"ĠonĠaĠc":9064,"ĠonĠoctoberĠ":9065,"ĠonĠfastingĠ":9066,"ĠonĠtheirĠhea":9067,"ĠonĠyester":9068,"Ġon-courtĠseat":9069,"ĠonlyĠoffer":9070,"ĠonesĠever":9071,"ĠoneĠthingĠtoĠ":9072,"ĠonceĠaĠ":9073,"ĠonĠyourĠtabl":9074,"haveĠfin":9075,"haveĠhadĠ":9076,"haveĠtoĠ":9077,"haveĠbook":9078,"haveĠmyĠs":9079,"haveĠbeenĠgreat":9080,"haveĠaĠpo":9081,"haveĠanĠe":9082,"haveĠyouĠjoin":9083,"haveĠitĠdeliver":9084,"haveĠaddition":9085,"ectionĠofĠtheĠ":9086,"ection,Ġa":9087,"ectionsĠfor":9088,"ectionĠofĠ":9089,"ectional!ĠgreatĠ":9090,"commod":9091,"common,ĠandĠ":9092,"committeeĠ":9093,"cleric":9094,"cluster":9095,"claim":9096,"clamarĠl":9097,"clear,ĠandĠ":9098,"ichthyoplankton":9099,"icholson":9100,"ichelle!":9101,"s,ĠanyĠ":9102,"s,Ġac":9103,"s,Ġthen":9104,"s,Ġaccess":9105,"s,Ġaffect":9106,"s,ĠandĠall":9107,"s,ĠsuchĠasĠ":9108,"s,ĠandĠthis":9109,"s,Ġalthough":9110,"s,ĠallowingĠ":9111,"s,Ġtact":9112,"s,ĠthisĠwasĠ":9113,"s,ĠandĠarrang":9114,"s,ĠasĠother":9115,"soĠperfect":9116,"soĠeasy":9117,"soĠcozy":9118,"soĠmanyĠ":9119,"soĠcomf":9120,"soĠrefin":9121,"eĠback":9122,"eĠbod":9123,"eĠby.Ġ":9124,"eĠbyĠinvit":9125,"eĠbuild":9126,"eĠbirth":9127,"eĠbestĠqual":9128,"eĠbulletsĠ":9129,"eĠboast":9130,"eĠbyĠyourĠfamil":9131,"eĠbasedĠatĠtheĠ":9132,"eĠbedĠ&Ġb":9133,"eĠbusyĠoutĠ":9134,"eĠbentĠforward":9135,"eĠbitĠprice":9136,"oughestĠ":9137,"oughĠfew":9138,"oughĠforĠtwo":9139,"ardĠandĠad":9140,"ardream":9141,"iveĠway":9142,"iveĠliv":9143,"iveĠto":9144,"iveĠlaunch":9145,"iveĠpurchaser":9146,"iveĠyouĠspecific":9147,"lyingĠs":9148,"lyĠthey":9149,"lyĠturn":9150,"lymp":9151,"ly.ĠbutĠ":9152,"ly?Ġliv":9153,"lymph":9154,"ly,ĠyourĠhomeĠ":9155,"ly,ĠandĠyouĠwill":9156,"lyĠam!ĠweĠ":9157,"vips":9158,"viadasĠaĠp":9159,"ĠisĠpre":9160,"ĠisĠcurr":9161,"ĠisĠjust":9162,"ĠisĠcomplet":9163,"ĠisĠlack":9164,"ĠisĠonly":9165,"ĠisĠperfect":9166,"ĠisĠgettingĠ":9167,"ĠisĠwonderful":9168,"ĠisĠhere!":9169,"ĠisĠpoor":9170,"ĠisĠhelpful":9171,"ĠisĠveryĠnic":9172,"ĠisĠbugg":9173,"ĠisĠden":9174,"ĠisĠrareĠ":9175,"ĠisĠsoo":9176,"ĠisĠitĠtoĠ":9177,"ĠisĠcomingĠfrom":9178,"ĠisĠcommon,ĠandĠ":9179,"ĠatĠaĠp":9180,"ĠatĠtheĠm":9181,"ĠatĠtheĠb":9182,"ĠatĠtheĠt":9183,"ĠatĠany":9184,"ĠatĠtheseĠtwoĠ":9185,"ĠatĠtal":9186,"ĠatĠall.ĠiĠloveĠ":9187,"ĠatĠtheĠschedul":9188,"oreĠhow":9189,"oreĠcalledĠ":9190,"oreĠcombin":9191,"oreĠstep":9192,"oreĠandĠtheĠf":9193,".ĠiĠcan":9194,".ĠiĠad":9195,".ĠiĠpr":9196,".ĠiĠjustĠ":9197,".ĠiĠwouldĠ":9198,".ĠiĠget":9199,".ĠiĠreallyĠ":9200,".ĠiĠcreat":9201,".ĠiĠdiec":9202,".ĠiĠfound":9203,".ĠiĠhaveĠenjoyedĠ":9204,".ĠiĠknew":9205,".ĠiâĢĻmĠsoĠ":9206,".ĠiĠknowĠi":9207,".ĠiâĢĻveĠaddedĠ":9208,".Ġi'veĠcreated":9209,".ĠiĠonlyĠoffer":9210,"Ġprogres":9211,"Ġprodu":9212,"Ġpropert":9213,"Ġproject":9214,"Ġproces":9215,"Ġproduct":9216,"Ġprolif":9217,"Ġprocess":9218,"Ġprocure":9219,"Ġproceed":9220,"Ġprotein":9221,"ĠproclamarĠl":9222,"ackĠpartyĠ":9223,"ack.Ġpoor":9224,"ekĠblack":9225,"ek,ĠonĠtheĠtennesseeĠriver":9226,"Ġexpres":9227,"Ġexamin":9228,"ĠexerciseĠ":9229,"ĠexceptĠ":9230,"Ġexperiment":9231,"ĠtryĠs":9232,"ĠtrueĠt":9233,"ĠtryĠfast":9234,"ĠtractĠof":9235,"ĠasĠthis":9236,"ĠasĠanĠ":9237,"ĠasĠthatĠisĠ":9238,"Ġas:ĠshoulderĠpain":9239,"ĠasĠtheĠdel":9240,"Ġwhether":9241,"ĠwhyĠthes":9242,"Ġwhite'sĠcre":9243,"ĠwhatĠsp":9244,"Ġwhole.ĠthisĠ":9245,"ĠwhereĠyourĠcordĠbloodĠ":9246,"ĠtheirĠad":9247,"ĠtheirĠres":9248,"ĠtheirĠse":9249,"ĠtheirĠmember":9250,"ĠtheirĠpremium":9251,"ĠtheirĠfan":9252,"ĠtheirĠvideoĠ":9253,"ĠtheirĠhoney":9254,"ĠtheirĠjourne":9255,"doingĠtheĠ":9256,"doĠanyĠ":9257,"doĠanĠ":9258,"doĠaĠlo":9259,"do!Ġ":9260,"doĠandĠperform":9261,"Ġnaj":9262,"Ġnuest":9263,"Ġnorth":9264,"Ġnhs":9265,"Ġnatal":9266,"Ġnetwork":9267,"Ġnicholson":9268,"eĠandĠorgan":9269,"eĠandĠnoĠ":9270,"eĠandĠback":9271,"eĠandĠclean":9272,"eĠandĠgoodĠ":9273,"eĠandĠfriendly":9274,"eĠandĠperform":9275,"eĠandĠgoldĠ":9276,"eĠandĠwithĠnoĠ":9277,"eĠandĠpossess":9278,"eĠandĠpolic":9279,"eĠandĠwineĠ":9280,"eĠandĠfaithfulĠperform":9281,"eĠandĠnast":9282,"eĠandĠcorrosion":9283,"eĠandĠblareĠ":9284,"inĠtheĠshoulder":9285,"inĠtheĠair":9286,"inĠtheĠcell":9287,"inĠtheĠpurchas":9288,"inĠtheĠstamp":9289,"inĠtheĠjourne":9290,"inĠtheĠnhsĠcordĠbloodĠbank":9291,"inĠtheĠaboutĠ":9292,"inĠtheĠbound":9293,"inĠtheĠfutur":9294,"inĠtheĠapart":9295,"inĠtheĠcler":9296,"inĠtheĠfrontĠof":9297,"inĠtheĠtreas":9298,"inĠtheĠcomedyâĢĻsĠ":9299,"inĠtheĠoutĠnorth":9300,"Ġcancer":9301,"ĠcanĠy":9302,"ĠcanĠact":9303,"ĠcanĠplan":9304,"ĠcanĠeat":9305,"roomĠis":9306,"room.Ġw":9307,"room.ĠdiningĠroom":9308,"room,Ġmak":9309,"roomĠandĠpool":9310,"rooms,Ġout":9311,"avingĠin":9312,"avingĠfor":9313,"avyĠceil":9314,"izeĠl":9315,"izeĠtheĠt":9316,"ize:Ġ":9317,"izarr":9318,"izonaĠon":9319,"ized.Ġ\"":9320,"literallyĠ":9321,"liturgyĠ":9322,"litolĠwouldĠ":9323,"Ġtime,":9324,"ĠtimeĠin":9325,"Ġtimes.Ġ":9326,"ĠtimeĠof":9327,"ĠtimeĠl":9328,"Ġtime,Ġi":9329,"ĠtimeĠtoĠcreateĠ":9330,"ĠtimeĠbetween":9331,"Ġtime,ĠbeĠlaidĠ":9332,"ĠtimeĠtoĠlos":9333,"Ġtime.ĠthatĠisĠa":9334,"ĠtimeĠbentĠforward":9335,"ityĠtoĠtheĠ":9336,"ity!Ġh":9337,"ityĠasĠwellĠasĠ":9338,"ityĠthatĠtheĠ":9339,"ity.Ġhiv":9340,"ity.Ġthes":9341,"ityĠsight":9342,"ity,ĠandĠnoĠ":9343,"ask,Ġyou":9344,"asksĠjustĠ":9345,"edĠbyĠandĠ":9346,"edĠbecaus":9347,"edĠbutĠwe'reĠ":9348,"oundingĠs":9349,"iesĠlik":9350,"iesĠlook":9351,"iesĠmanag":9352,"iesĠfromĠ":9353,"iesĠintact":9354,"iesĠweĠhav":9355,"sionĠareĠaĠfew":9356,"Ġkind":9357,"Ġkick":9358,"Ġkeer":9359,"Ġkub":9360,"Ġkept":9361,"Ġkitchen":9362,"Ġkincan":9363,"ĠketoĠd":9364,"Ġkutcher":9365,"ĠthanksĠfor":9366,"ĠthanksĠsoĠmuch":9367,"ĠbeĠplac":9368,"ĠbeĠpresentĠ":9369,"ĠbeĠamaz":9370,"ĠbeĠflex":9371,"ĠbeĠasĠgood":9372,"ĠtoĠtheĠedg":9373,"ĠtoĠtheĠbegin":9374,"ĠtoĠtheĠgovern":9375,"ĠtoĠtheĠfederal":9376,"ĠtoĠtheĠworld":9377,"ĠtoĠtheĠdwell":9378,"ĠtoĠtheĠfirstĠof":9379,"ĠtoĠtheĠnas":9380,"ĠtoĠtheĠypr":9381,"ĠtoĠtheĠthous":9382,"ĠtoĠtheĠrespect":9383,"ĠtoĠtheĠcountyĠtr":9384,"s>Ġ<s>ĠatĠ":9385,"s>Ġ<s>ĠweĠ":9386,"s>Ġ<s>Ġro":9387,"s>Ġ<s>Ġhous":9388,"s>Ġ<s>Ġwhen":9389,"s>Ġ<s>ĠdiningĠroom":9390,"s>Ġ<s>Ġpal":9391,"s>Ġ<s>Ġwelcom":9392,"s>Ġ<s>ĠthisĠisĠa":9393,"s>Ġ<s>Ġjapan":9394,"s>Ġ<s>Ġpleas":9395,"s>Ġ<s>Ġrecongres":9396,"s>Ġ<s>ĠourĠb":9397,"s>Ġ<s>ĠcordĠbloodĠ":9398,"s>Ġ<s>ĠhappyĠfriday,ĠblogĠfriends!":9399,"s>Ġ<s>Ġbaghd":9400,"s>Ġ<s>Ġash":9401,"s>Ġ<s>Ġhello":9402,"s>Ġ<s>ĠiĠthoughtĠ":9403,"s>Ġ<s>ĠletâĢĻsĠ":9404,"s>Ġ<s>ĠinĠaĠpreviousĠ":9405,"s>Ġ<s>ĠareĠart":9406,"'sĠown":9407,"'sĠprom":9408,"'sĠumbilicalĠcor":9409,"'sĠgoneĠ":9410,"'sĠpolic":9411,"'sĠmill":9412,"'sĠenough":9413,"'sĠrevers":9414,"'sĠnewĠhollywoodĠ":9415,"ffectĠ":9416,"ffirmation":9417,"myĠfri":9418,"myĠfriend":9419,"myĠhom":9420,"myĠfin":9421,"myĠchristm":9422,"myĠrustic":9423,"myĠwayĠ":9424,"myĠdaughter":9425,"myĠlivingĠroom":9426,"ment.ĠweĠ":9427,"ment.ĠitĠ":9428,"ment.Ġhi":9429,"mentalĠi":9430,"ment,Ġwe'reĠ":9431,"ment,ĠweĠs":9432,"ments,Ġneed":9433,"mentĠareĠofĠtheĠ":9434,"prepa":9435,"premium":9436,"previousĠ":9437,"pre-ec":9438,"precurs":9439,"prematur":9440,"Ġround":9441,"ĠrareĠ":9442,"Ġright":9443,"Ġrick":9444,"ĠratesĠ":9445,"Ġrhe":9446,"Ġrandal":9447,"ĠriskĠofĠtheĠbod":9448,"Ġrule,Ġ":9449,"ĠrandomĠfor":9450,"enciesĠthatĠ":9451,"ences!ĠhopeĠyouâĢĻreĠhavingĠaĠgreatĠ":9452,"areĠhereĠ":9453,"areĠforĠp":9454,"areĠveryĠnic":9455,"areĠcurrentlyĠs":9456,"areĠourĠin":9457,"areĠbeĠfu":9458,"areĠnowĠonĠour":9459,"astideĠ":9460,"astĠtwoĠ":9461,"ast.Ġw":9462,"asting?":9463,"asticallyĠ":9464,"astonish":9465,"Ġme!ĠðŁĻĤĠi":9466,"ĠmeoĠâĢĵ":9467,"ĠmeetĠinĠtheĠp":9468,"âĢĻsĠhom":9469,"âĢĻsĠgrand":9470,"âĢĻsĠquarter":9471,"âĢĻsĠproximityĠtoĠ":9472,"âĢĻsĠbeautiful":9473,"âĢĻsĠmilitar":9474,"âĢĻsĠprimaryĠt":9475,"ebrit":9476,"ebt,Ġor":9477,"ferĠpay":9478,"ferĠdat":9479,"fer,Ġstor":9480,"ferĠbrightĠwhit":9481,"houseĠandĠjail":9482,"house.Ġnow":9483,"s.Ġang":9484,"s.ĠthisĠisĠ":9485,"s.ĠthisĠisĠa":9486,"s.ĠtennisĠaustralia":9487,"s.ĠamazingĠ":9488,"s.Ġaffordabl":9489,"s.ĠandĠpep":9490,"s.ĠtheĠseat":9491,"s.ĠasĠexpect":9492,"waysĠtoĠ":9493,"way.Ġs":9494,"wayâĢĿ":9495,"wayĠtableĠ":9496,"wayĠandĠeasyĠaccess":9497,"ĠourĠtimeĠ":9498,"ĠourĠweb":9499,"ĠourĠveryĠ":9500,"ĠourĠchristmasĠdecor":9501,"ĠourĠliquidĠwatercolor":9502,"ĠourĠnewĠpat":9503,"ĠourĠstandard":9504,"ĠourĠsiteĠfor":9505,"ĠourĠgard":9506,"ĠourĠtimeĠbentĠforward":9507,"ĠsaidĠriver":9508,"ĠsaidĠcourt":9509,"ĠsaidĠrhea":9510,"ĠsaidĠmcminn":9511,"ingĠtheĠcourtĠ":9512,"ingĠtheĠpossibil":9513,"ingĠtheĠdiseas":9514,"ingĠtheĠpain":9515,"ingĠtheĠpropert":9516,"ingĠtheĠdutiesĠ":9517,"ingĠtheĠtim":9518,"ingĠtheĠbu":9519,"ingĠtheĠhandyĠ":9520,"ingĠtheĠtrans":9521,"ingĠtheĠamenities":9522,"ante.Ġ":9523,"ant.ĠandĠ":9524,"anticĠf":9525,"antsĠtoĠgetĠ":9526,"anty;Ġand":9527,"antsĠll":9528,"antage,Ġwhich":9529,"antsĠandĠshoppingĠcenter":9530,"ĠaboutĠeverythingĠ":9531,"ĠaboutĠdifferentĠ":9532,"ĠaboutĠshoulderĠpain":9533,"ĠaboutĠcontract":9534,"ĠaboutĠlayers":9535,"ĠaboutĠme,Ġ":9536,"ikeĠin":9537,"ikeĠpat":9538,"ok,Ġus":9539,"overĠfrom":9540,"overĠafter":9541,"oversea":9542,"overtaken":9543,"overĠyourĠwork":9544,"sĠtoĠdecor":9545,"sĠtoĠuseĠ":9546,"sĠtoĠdevelop":9547,"sĠtoĠreal":9548,"sĠtoĠoffer":9549,"sĠtoĠrais":9550,"sĠtoĠincorpor":9551,"sĠtoĠemb":9552,"sĠtoĠwhom":9553,"sĠtoĠguest":9554,"sĠtoĠrenew":9555,"sĠtoĠmeetĠ":9556,"sĠtoĠlayĠ":9557,"sĠtoĠrelyĠ":9558,"sĠtoĠchocol":9559,"sĠtoĠeliotĠdalton":9560,"sĠtoĠetihadĠ":9561,"Ġadjust":9562,"Ġadmit":9563,"Ġadministr":9564,"ĠadoptĠtheĠprogram":9565,"indingĠasĠ":9566,"indĠtheĠcomplet":9567,"indicator":9568,"itionĠtoĠensur":9569,",Ġbecaus":9570,",Ġbdr":9571,",Ġbiological":9572,",ĠballĠbo":9573,"forĠtheĠarm":9574,"forĠtheĠhear":9575,"forĠtheĠlastĠ":9576,"forĠtheĠdueĠ":9577,"forĠtheĠgreatestĠ":9578,"forĠtheĠpresentĠorĠanyĠprecedingĠyear":9579,"forĠtheĠhollywoodĠ":9580,"forĠtheĠpast":9581,"forĠtheĠuseĠof":9582,"ustĠe-":9583,"eĠtodayĠ":9584,"eĠtoĠtour":9585,"eĠtoĠaĠth":9586,"eĠtoĠser":9587,"eĠtoĠtopic":9588,"eĠtoĠadvanc":9589,"eĠtoĠthemselvesĠandĠsuccessorsĠinĠoffic":9590,"eĠtoĠaĠfriend":9591,"eĠtoĠtheĠform":9592,"eĠtoĠadoptĠtheĠprogram":9593,"cordĠisĠdav":9594,"portantĠ":9595,"portĠteam":9596,"portĠaĠgreatĠ":9597,"portionmentĠof":9598,"portationĠopportunities":9599,"bloodĠdis":9600,"bloodĠcell":9601,"bloodĠ(ph":9602,"bloodĠflow":9603,"ailsĠfor":9604,"ailsĠcont":9605,"ailureĠin":9606,"ailedĠinformation":9607,"ailyĠbasisĠ":9608,"decemberĠ":9609,"decade.Ġ":9610,"eatĠanythingĠ":9611,"eat,Ġthat":9612,"eats.Ġ\"asĠ":9613,"ĠatĠwork":9614,"ĠatĠjo":9615,"ĠatĠsomeĠ":9616,"ĠatĠsom":9617,"ĠatĠwat":9618,"ĠatĠpinkfreshĠstudio":9619,"ĠatĠhome!":9620,"ĠatĠhisĠb":9621,"ĠatĠorĠne":9622,"ĠatĠmyĠchristm":9623,"icalĠcl":9624,"icalĠandĠnatural":9625,"icalĠdepend":9626,"ĠloveĠthos":9627,"beenĠus":9628,"beenĠokay":9629,"beenĠdiscover":9630,"beenĠredo":9631,"duck":9632,"dueĠtoĠconstru":9633,"dueĠandĠfaithfulĠperform":9634,"e!ĠthankĠyou":9635,"e!Ġgr":9636,"e!ĠweĠ":9637,"e!ĠðŁĻĤ":9638,"e!ĠhappyĠfriday,Ġ":9639,"e!ĠyouĠareĠ":9640,"e!Ġoh":9641,"e!ĠwithĠour":9642,"e!ĠthereĠisĠ":9643,"e!ĠlastĠ":9644,"eft,Ġbut":9645,"lyĠeverythingĠ":9646,"lyĠbecaus":9647,"lyĠdes":9648,"lyĠhal":9649,"lyĠloc":9650,"lyĠexpl":9651,"lyĠit'sĠa":9652,"lyĠbeĠavailableĠfor":9653,"lyĠencour":9654,"muchĠdecor":9655,"muchĠmoreĠthan":9656,"muchĠtimeĠl":9657,"otherĠthan":9658,"otherĠtenn":9659,"otherĠdon":9660,"otherĠdayĠ":9661,"others.ĠthankĠyouĠsoĠmuch":9662,"work,Ġa":9663,"work.Ġour":9664,"worker,ĠandĠ":9665,"workĠforĠ":9666,"worked.ĠtheĠ":9667,"workingĠclos":9668,"workĠproject":9669,"ĠaĠpubl":9670,"ĠaĠprem":9671,"ĠaĠpotential":9672,"ĠaĠphysical":9673,"Ġthem,Ġa":9674,"ĠthemĠup":9675,"ĠthemĠout":9676,"ĠthemĠbyĠtheĠ":9677,"ĠthemĠdur":9678,"ĠthemĠreceiv":9679,"ĠthemĠoutĠ":9680,"ĠthemĠallĠonlineĠatĠwww.recongress.org/":9681,"enceĠdoes":9682,"enceĠ+ĠtheĠma":9683,"enceĠamong":9684,"edĠtoĠhow":9685,"edĠtoĠget":9686,"edĠtoĠfin":9687,"edĠtoĠvisit":9688,"edĠtoĠcraf":9689,"edĠtoĠfurther":9690,"edĠtoĠfix":9691,"ĠofĠtheĠten":9692,"ĠofĠtheĠgreatĠ":9693,"ĠofĠtheĠcongressĠ":9694,"ĠofĠtheĠinn":9695,"ĠofĠtheĠlateĠ":9696,"ĠofĠtheĠunitedĠ":9697,"ĠofĠtheĠprecurs":9698,"makeĠtheĠ":9699,"makeĠa":9700,"makeĠsomeĠ":9701,"makeup":9702,"makerĠinĠm":9703,"makeĠmuchĠmoreĠ":9704,"ableĠhe":9705,"ableĠaboutĠ":9706,"ableĠadv":9707,"ableĠowner":9708,"ableĠgivenĠthatĠ":9709,"ableĠcompensationĠforĠtheirĠservic":9710,"ableĠlate":9711,"ableĠwithĠtraditional":9712,"notĠknow":9713,"notĠmatch":9714,"notĠgoĠ":9715,"notĠrecommend":9716,"notĠsur":9717,"notĠotherwiseĠ":9718,"notĠnecessaril":9719,"notĠinterfereĠwith":9720,"notĠeatĠanythingĠ":9721,"notĠworkĠforĠ":9722,"day!ĠthankĠyou":9723,"dayĠafter":9724,"day,ĠbutĠ":9725,"day,Ġm":9726,"day!ĠloveĠ":9727,"day?Ġi":9728,"day,ĠaĠd":9729,"day.ĠitĠwasĠ":9730,"day!Ġamanda,Ġi":9731,"day?Ġis":9732,"joyĠandĠ":9733,"joĠther":9734,"joinĠour":9735,"job,Ġres":9736,"udget":9737,"udgetĠ":9738,"inkingĠa":9739,"inktober":9740,"inks,Ġmark":9741,"ingĠacc":9742,"ingĠaĠlotĠof":9743,"ingĠaĠblog":9744,"ingĠaĠstemĠcellĠtrans":9745,"ingĠagain":9746,"ingĠaĠbetter":9747,"ingĠaĠcombinationĠof":9748,"ingĠaĠcour":9749,"ingĠaĠmess":9750,"ingĠaĠfeastĠ":9751,"ingĠasĠaĠâĢľ":9752,"ancer,ĠandĠ":9753,"anceĠthereof":9754,"anceĠtoĠplay":9755,"ancialsĠfirstĠ":9756,"estĠdin":9757,"estĠpres":9758,"estĠstor":9759,"estĠneed":9760,"estĠcongres":9761,"estĠyet":9762,"estĠmakingĠ":9763,"estĠisĠyet":9764,"ĠmyĠhea":9765,"ĠmyĠhom":9766,"ĠmyĠfl":9767,"ĠmyĠdoor":9768,"ĠmyĠlittleĠ":9769,"ĠmyĠwonderful":9770,"ĠmyĠgood":9771,"ĠmyĠdaughter":9772,"ĠmyĠfutur":9773,"ĠmyĠgop":9774,"allyĠbeĠt":9775,"allyĠgiven":9776,"allyĠbeĠshar":9777,"viewsĠareĠ":9778,"viewĠis":9779,"view!ĠthoseĠ":9780,"viewĠandĠfriendlyĠ":9781,"viewerĠnotĠ":9782,"viewĠisĠwonderful":9783,"viewĠofĠtheĠcongressĠ":9784,"aĠvis":9785,"aĠneed":9786,"aĠzydecoĠd":9787,"aĠisĠall":9788,"aĠchildĠ":9789,"aĠroll":9790,"aĠ&Ġres":9791,"ckedĠin":9792,"ckerĠroom":9793,"ckĠstateĠ":9794,"cketĠjointĠ":9795,"ckĠwithĠfin":9796,"eoĠstarĠ":9797,"eo,Ġp":9798,"reĠlong":9799,"ĠthatĠtheĠp":9800,"ĠthatĠaĠnew":9801,"ĠthatsĠwhatĠ":9802,"ĠthatĠthisĠstamp":9803,"ĠthatĠaloneĠs":9804,"ersĠcan":9805,"ersĠâĢĶ":9806,"ersĠwereĠ":9807,"ersĠgot":9808,"ersĠmay":9809,"ersĠisĠpr":9810,"ersĠmention":9811,"ersĠ&Ġm":9812,"ersĠfeliz":9813,"onĠtheĠdut":9814,"onĠtheĠgov":9815,"onĠtheĠâĢĺ":9816,"onĠtheĠfastingĠ":9817,"onĠtheĠprice":9818,"onĠtheĠcourtĠatĠ":9819,"onĠtheĠoutsideĠofĠourĠhouse.Ġ":9820,"onĠtheĠoutskir":9821,"ensibleĠ":9822,"ensoryĠ":9823,"ensĠthereof":9824,"ensĠthatĠthisĠstamp":9825,"Ġscient":9826,"Ġscienc":9827,"Ġscroll":9828,"ĠscentĠfrom":9829,"Ġscrap":9830,"ĠscentĠnam":9831,"reatĠbox":9832,"formedĠbyĠtheĠ":9833,"formĠpack":9834,"gramĠwhoĠ":9835,"e,ĠtheĠcountyĠcour":9836,"e,ĠthisĠyear":9837,"e,ĠatĠleas":9838,"e,ĠasĠwellĠasĠ":9839,"e,ĠtheĠnew":9840,"e,ĠsuchĠasĠ":9841,"e,ĠthisĠwouldĠ":9842,"e,ĠthanksĠfor":9843,"lines.Ġ":9844,"lineĠtheĠt":9845,"linician":9846,"linenĠd":9847,"line.Ġph":9848,"line,Ġdivid":9849,"odys":9850,"odeĠl":9851,"ody!ĠhopeĠyouĠhaveĠ":9852,"ĠtheseĠseat":9853,"ĠtheseĠsuper":9854,"ĠtheseĠdamag":9855,"ĠtheseĠbod":9856,"anceĠofĠtheĠ":9857,"anceĠatĠaĠl":9858,"anceĠhall":9859,"anceĠwest":9860,"anceĠforĠaĠspecial":9861,"ofĠtheĠdayĠ":9862,"ofĠtheĠmostĠ":9863,"ofĠtheĠlot":9864,"ofĠtheĠprogram":9865,"ofĠtheĠu.":9866,"ofĠtheĠamendedĠconstitution":9867,"ofĠtheĠtop":9868,"ofĠtheĠadvis":9869,"ofĠtheĠagingĠl":9870,"issionersĠmention":9871,"elyĠnot":9872,"elyĠeventĠ":9873,"elyĠfullĠof":9874,"elyĠgorgeous.Ġ":9875,"elyĠwov":9876,"elyĠwithĠscoutĠgroup":9877,"enterĠup":9878,"ultimat":9879,"ultyĠac":9880,"ultimately,Ġlatenc":9881,"ultsĠoften":9882,"shallĠexercis":9883,"shallĠdirect":9884,"ightĠbill":9885,"ightĠbeĠget":9886,"christmasĠprints,":9887,"christmasĠgarland":9888,"christmasĠhomeĠtourĠwithĠyou":9889,"christmasĠiĠgu":9890,"christmasĠsong":9891,"christmasĠvign":9892,"diningĠs":9893,"dining,ĠaĠd":9894,"howĠus":9895,"howĠmaint":9896,"howĠquick":9897,"howĠtheyĠcanĠhelp":9898,"ia,Ġa":9899,"ia,Ġi":9900,"iaĠgrow":9901,"sĠareĠwell":9902,"sĠareĠstr":9903,"sĠareĠcomplet":9904,"sĠareĠhelpful":9905,"sĠareĠdefinitelyĠ":9906,"sĠareĠatt":9907,"sĠareĠelectedĠ":9908,"sĠareĠcomposedĠof":9909,"sĠareĠusedĠs":9910,"sĠareĠaband":9911,"sĠareĠunavail":9912,"sĠareĠovertaken":9913,"ĠorĠmoreĠ":9914,"Ġorient":9915,"ĠorĠdr":9916,"ĠorĠsever":9917,"ĠorĠpay":9918,"ĠorĠgall":9919,"ĠorĠtrackĠ":9920,"ĠorbitĠ":9921,"ĠorĠperson":9922,"ĠorĠhep":9923,"ĠorĠyourĠbab":9924,"ĠorĠmeoĠâĢĵ":9925,"ĠuseĠin":9926,"ĠusĠagain":9927,"Ġus,Ġtoo!":9928,"ĠusingĠtheĠnew":9929,"ĠuseĠonly":9930,"ĠusĠtheĠopportunityĠtoĠ":9931,"ĠusedĠartificialĠsweeten":9932,"ĠusesĠforĠstemĠcellsĠ":9933,"Ġuse.ĠcordĠbloodĠ":9934,"ĠuseĠbyĠyourĠfamil":9935,"ongĠtheseĠareĠ":9936,"ong.ĠthisĠisĠtheĠ":9937,"ongĠandĠmeaningful":9938,"ongestĠarrow":9939,"onglyĠencour":9940,"ĠtheĠfull":9941,"ĠtheĠfutur":9942,"ĠtheĠfuture":9943,"ĠtheĠfanĠpres":9944,"ĠtheĠfacilities":9945,"ĠtheĠfundamental":9946,"ĠtheĠfolkĠm":9947,"ĠtheĠfast.Ġw":9948,"iteĠc":9949,"iteĠfin":9950,"iteĠyoungĠpeopl":9951,"iteĠaĠfew":9952,"iteĠchristmasĠsong":9953,"esĠandĠmall":9954,"esĠandĠmet":9955,"esĠandĠgold":9956,"esĠandĠworkingĠwith":9957,"esĠandĠwalk":9958,"esĠandĠstep":9959,"esĠandĠrestrictions,ĠandĠ":9960,"esĠandĠsentim":9961,"esĠandĠvariation":9962,"esĠandĠrecl":9963,"esĠandĠifĠtheĠs":9964,"esĠandĠhowĠtheyĠcanĠhelp":9965,"Ġcombo":9966,"ĠcomingĠinto":9967,"veryĠdef":9968,"veryĠhealth":9969,"veryĠquick":9970,"veryĠbig":9971,"veryĠfavor":9972,"veryĠmo":9973,"veryĠlovely":9974,"veryĠbestĠ":9975,"veryĠbestĠqual":9976,"veryĠquiet":9977,"placedĠin":9978,"placeĠforĠtheĠ":9979,"placesĠtoĠ":9980,"placed,Ġ":9981,"placingĠfet":9982,"eĠtheĠcour":9983,"eĠtheĠnewĠyouthĠprogram":9984,"eĠtheĠlittleĠ":9985,"eĠtheĠcomplet":9986,"eĠtheĠcountyĠcourt":9987,"eĠtheĠwooden":9988,"eĠtheĠrhea":9989,"eĠtheĠlineĠdivid":9990,"eĠtheĠlung":9991,"eĠtheĠyuk":9992,"eĠtheĠerp:Ġfun":9993,"ficeĠin":9994,"ficultĠ":9995,"ficeĠvisit":9996,"fulfill":9997,"fulĠforĠtheĠcountyĠcour":9998,"ful,ĠandĠourĠc":9999,"ful.ĠiĠhaveĠenjoyedĠ":10000,"fulĠexpres":10001,"go,Ġand":10002,"goingĠon":10003,"goingĠtoĠtheĠ":10004,"getĠtreeĠ":10005,"getting":10006,"getĠaĠch":10007,"getĠtoĠhaveĠ":10008,"iredĠangel":10009,"poins":10010,"potĠgrown":10011,"raĠfrom":10012,"raĠrel":10013,"ragranceĠof":10014,"soĠspecial":10015,"soĠaĠc":10016,"soĠsweet":10017,"soonĠweĠ":10018,"yĠschedule,":10019,"yĠsilverĠor":10020,"yĠseatĠ":10021,"yĠsunday,Ġ":10022,"yĠsweetĠ":10023,"yĠsavingĠin":10024,"yĠandĠhelp":10025,"yĠandĠecolog":10026,"yĠandĠiĠwouldĠ":10027,"yĠandĠnever":10028,"yĠandĠcozy":10029,"yĠandĠshin":10030,"yĠandĠstorageĠ":10031,"yĠandĠwe'll":10032,"yĠandĠintell":10033,"yĠandĠlymph":10034,"Ġit,ĠbutĠ":10035,"ĠitâĢĿ":10036,"Ġit'sĠa":10037,"ĠitsĠh":10038,"Ġit,ĠbutĠi":10039,"Ġit.ĠtheĠs":10040,"Ġit.ĠsheĠ":10041,"ĠitĠtheĠjack":10042,"ĠchildĠ":10043,"ĠchinaĠwhoĠ":10044,"Ġcharity":10045,"Ġchandelier":10046,"ĠchoseĠtheĠ":10047,"ĠchanceĠatĠaĠl":10048,"ĠtakeĠour":10049,"ĠtakeĠsom":10050,"ĠtakeĠmyĠs":10051,"ĠtakingĠaĠs":10052,"ĠtakeĠtheĠfirstĠ":10053,"Ġtaken.Ġ":10054,"ĠtakesĠplaceĠ":10055,"ĠtakeĠtheĠerp:Ġfun":10056,"invadeĠandĠ":10057,"investigationsĠ":10058,"Ġsoci":10059,"ĠsoĠstar":10060,"ĠsoĠareĠyou":10061,"ĠsoĠthankful":10062,"ĠsoĠthereĠisĠa":10063,"ĠsoĠtheĠ\"f":10064,"ĠcellĠgrow":10065,"Ġcells.ĠthereĠ":10066,"ĠcellsĠandĠsometimes":10067,"ĠcellsĠareĠovertaken":10068,"ed,Ġalso":10069,"ed,ĠaĠth":10070,"ed,ĠtheĠsaidĠcommissionersĠshall":10071,"ed,ĠshareĠcheer":10072,"ed,ĠaĠpatriotĠandĠsoldierĠofĠtheĠ":10073,"ed,ĠtheĠintrodu":10074,"ed,ĠsoĠmyĠhous":10075,"Ġgradient":10076,"ĠgrandĠstyl":10077,"ĠandĠtheĠlow":10078,"ĠandĠtheĠlocation":10079,"ĠandĠtheĠlaw":10080,"ĠandĠtheĠtennesseeĠriver":10081,"ĠandĠtheĠyouthĠprogram":10082,"ightĠtabl":10083,"ightedĠbyĠs":10084,"ight!ĠhappyĠfriday,ĠblogĠfriends!":10085,"ightensĠeverythingĠ":10086,"ight.ĠfriendlyĠ":10087,"ightĠtoĠbo":10088,"ccessĠ":10089,"ccrind":10090,"eanĠcl":10091,"eanĠfitnessĠ":10092,"eanĠthatĠtheĠp":10093,"headĠof":10094,"yĠtheĠbod":10095,"yĠtheĠdom":10096,"yĠtheĠdiver":10097,"y,Ġfisher":10098,"y,Ġpain":10099,"y,Ġwish":10100,"y,ĠonĠwhich":10101,"y,ĠweâĢĻreĠ":10102,"y,ĠunderĠtheĠamendedĠconstitution":10103,"y,ĠinĠhonorĠofĠcolonelĠreturnĠj":10104,"y,Ġpink":10105,"y,ĠyouĠshouldĠ":10106,"y,ĠfromĠcollect":10107,"eĠinĠ":10108,"eĠinĠne":10109,"eĠinĠaĠs":10110,"eĠinĠgreat":10111,"eĠinĠadv":10112,"eĠinĠmy":10113,"eĠinĠtwilight":10114,"eĠinĠpur":10115,"eĠintersect":10116,"eĠincomeĠandĠ":10117,"ĠthereĠhasĠbeen":10118,"ĠthereĠwereĠ":10119,"ĠthereĠwas":10120,"ĠthereĠaĠspecific":10121,"ĠthereĠareĠtw":10122,"theĠrustic":10123,"theĠkitchen":10124,"theĠopportunityĠtoĠ":10125,"theĠnameĠ":10126,"theĠcapac":10127,"theĠhighestĠqual":10128,"theĠadventĠcalendar":10129,"loveĠtoĠ":10130,"loveĠlivingĠher":10131,"loveĠitĠher":10132,"ĠhopeĠthatĠ":10133,"ĠhopĠtoday":10134,"ĠhopeĠitĠ":10135,"wellĠdon":10136,"wellĠgroom":10137,"wellĠasĠrequ":10138,"weekendĠ":10139,"week!ĠiâĢĻm":10140,"weekĠonĠour":10141,"week!ĠsoĠsorryĠtoĠhearĠaboutĠyourĠgrandma":10142,"week;ĠsoĠhappyĠtoĠ":10143,"oodĠcoll":10144,"ĠsaidĠcountyĠtoĠ":10145,"ĠsaidĠcountyĠcour":10146,"ĠsaidĠcountyĠfrom":10147,"ĠsaidĠcounty,ĠonĠwhich":10148,"cordĠbloodĠstor":10149,"cordĠbloodĠinĠaĠprivateĠbank":10150,"cipit":10151,"ci)Ġprogram":10152,"ciateĠthroughĠtheĠnationalĠresearchĠcouncil":10153,"ciationĠofĠtheĠ":10154,"canĠdr":10155,"canĠdevelop":10156,"rueĠf":10157,"eĠyouĠgot":10158,"eĠyouĠonĠtheĠ":10159,"eĠyouĠtend":10160,"eĠyouĠrece":10161,"Ġapt,Ġ":10162,"Ġappropri":10163,"ityĠfin":10164,"ityĠmean":10165,"ityĠmeas":10166,"es.Ġ\"weĠ":10167,"es.Ġlux":10168,"es.ĠforĠmoreĠinformation":10169,"es.ĠpriorĠexperienceĠ":10170,"es.ĠdrewĠmichaelĠandĠelizabethĠellisĠ":10171,"es.Ġ\"when":10172,"es.ĠinĠadditionĠtoĠtheĠ":10173,"es.Ġreign":10174,"es.ĠveryĠquick":10175,"youĠcanĠfindĠ":10176,"youĠcanĠfind":10177,"youĠcanĠexpect":10178,"youĠcanĠcontinueĠtoĠ":10179,"astĠmaintenance.Ġ":10180,"astĠweekĠonĠour":10181,"ampaign":10182,"ampsĠrack":10183,"âĢĵĠeven":10184,"âĢĵĠifĠyou":10185,"âĢĵĠmov":10186,"âĢĵĠandĠmoreĠ":10187,"âĢĵĠorĠmeoĠâĢĵ":10188,"ĠitĠpay":10189,"ĠitĠdoes":10190,"ĠitĠkeep":10191,"ĠitĠisĠnotĠ":10192,"ĠitĠshallĠbeĠtheĠdut":10193,"ĠitĠhasĠbeenĠgreat":10194,"ĠitĠmakesĠitĠall":10195,"ĠitĠisĠmoreĠ":10196,"ĠitĠupĠsoĠ":10197,"ĠitĠbeingĠa":10198,"ignific":10199,"ignĠtheĠback":10200,"ignedĠthemĠbyĠthisĠact":10201,"ĠalsoĠhapp":10202,"ĠalsoĠnoĠ":10203,"ĠalsoĠmad":10204,"ĠalsoĠrel":10205,"ĠalsoĠbeĠavailableĠfor":10206,"ĠalsoĠhaveĠaddition":10207,"ĠalsoĠinĠtheĠcomedyâĢĻsĠ":10208,"appeal":10209,"appeared":10210,"ĠtheyĠentertain":10211,"ĠtheyĠmayĠbeĠ":10212,"ĠtheyĠmadeĠ":10213,"ĠtheyĠreturn":10214,"ĠtheyĠwillĠshar":10215,"ĠshallĠv":10216,"ĠshallĠorder":10217,"ĠshallĠcontinueĠtoĠ":10218,"ĠshallĠcaus":10219,"tleĠhun":10220,"tleĠcenterpiec":10221,"tleĠzydecoĠ":10222,"everyone":10223,"everyĠtimeĠ":10224,"everyĠalaskan":10225,"everyone.Ġ":10226,"everythingĠasĠ":10227,"Ġmeigs,Ġdeceas":10228,",ĠaĠres":10229,",Ġagre":10230,",Ġauthor":10231,",ĠaĠlit":10232,",ĠaĠmeet":10233,",Ġaplast":10234,".ĠsaveĠ":10235,".Ġsecond":10236,".Ġsamsung":10237,".Ġsimilar":10238,".Ġsadly":10239,".ĠsomeĠin-":10240,"eyĠdear,Ġ":10241,"eyĠinĠtheĠtreas":10242,"leaseĠand":10243,"likedĠtheĠ":10244,"likeĠour":10245,"likedĠhow":10246,"likable,Ġ":10247,"likeĠyouĠgot":10248,"manĠ(":10249,"manyĠm":10250,"poses;Ġand":10251,"ralĠanalysis":10252,"Ġ($":10253,"Ġ(sc":10254,"Ġ(loveĠyour":10255,"Ġ(htt":10256,"Ġ(inĠcoffe":10257,"Ġ(ask,Ġyou":10258,"Ġ(muchĠmoreĠthan":10259,"Ġ(theĠnameĠ":10260,"Ġreserv":10261,"ĠupĠtheĠb":10262,"ĠupĠtheĠch":10263,"ĠupĠatĠtheseĠ":10264,"Ġupstair":10265,"ĠupĠfirst":10266,"sĠrepresent":10267,"sĠreceiv":10268,"sĠrequiredĠ":10269,"sĠremember":10270,"sĠregistrationĠguidebook":10271,"sĠrestaur":10272,"sĠrequiringĠl":10273,"sĠforĠcontinu":10274,"sĠforĠeach":10275,"sĠforĠget":10276,"sĠforĠcongressĠ":10277,"sĠforĠcongres":10278,"sĠforĠu.":10279,"sĠforĠsaleĠt":10280,"sĠforĠdanceĠ":10281,"sĠforĠthisĠprojectĠ":10282,"sĠforĠuseĠin":10283,"ĠseeingĠall":10284,"ĠseizeĠl":10285,"ĠseeĠyouĠonĠtheĠ":10286,"armĠbone":10287,"art,ĠuntilĠother":10288,"articipar":10289,"arts,ĠwhereĠ":10290,"ishĠtheĠm":10291,"ishedĠa":10292,"ishingĠall":10293,"ishĠearlyĠ":10294,"ishedĠoff":10295,"ecialĠmem":10296,"ickingĠher":10297,"icketĠbig":10298,"icationsĠs":10299,"icationĠdur":10300,"icationĠofĠcont":10301,"edĠinĠother":10302,"edĠinĠoneĠ":10303,"edĠinĠthisĠact":10304,"edĠinĠthisĠstate":10305,"edĠinĠtimeĠto":10306,"edĠinĠperform":10307,"edĠinĠaĠprivateĠbank":10308,"edĠin-seatĠ":10309,"edĠinstea":10310,"edĠinĠrhe":10311,"ĠwillĠshareĠ":10312,"Ġwilliam":10313,"ĠwillĠwelcom":10314,"ĠwillĠdet":10315,"ĠwillĠautomat":10316,"ĠwillĠmeetĠinĠtheĠp":10317,"ĠwillĠtakeĠsom":10318,"ĠfrontĠdoor":10319,"Ġframe!":10320,"ideĠrat":10321,"ideĠnote:":10322,"ideĠfromĠthatĠsoĠfar":10323,"ifĠyouĠdon":10324,"ifĠyouĠalread":10325,"ifĠyouĠcanĠy":10326,"!ĠthankĠyou,Ġm":10327,"!ĠthankĠyouĠagain":10328,"!ĠthankĠyouĠforĠshar":10329,"!ĠthankĠyou,Ġnic":10330,"!ĠthankĠyou,Ġkaren":10331,"!ĠthankĠyouĠforĠtheĠf":10332,"course,Ġ":10333,"courtĠinĠsaidĠcounty":10334,"dayĠ(":10335,"dayĠeven":10336,"dayĠweekend":10337,"dayĠmakingĠ":10338,"dayĠðŁĻģ":10339,"dayĠiâĢĻll":10340,"dayĠwithĠallĠyour":10341,"glitteryĠwineĠbottleĠ":10342,"glitterĠselection":10343,"glitterĠandĠcandl":10344,"glitteryĠandĠshin":10345,"holyĠm":10346,"holidayĠreleas":10347,"holdersĠlastĠyear":10348,"lawn":10349,"laxed,Ġ":10350,"presÃ©":10351,"tting.":10352,"ttyĠcard":10353,"ttaĠg":10354,"ttyĠtour":10355,"ull-t":10356,"ullĠfastingĠ":10357,"ullyĠdecor":10358,"wasĠhereĠtoĠ":10359,"wasĠmadeĠ":10360,"wasĠplaced,Ġ":10361,"y.Ġnot":10362,"y.ĠgreatĠ":10363,"y.ĠmyĠs":10364,"y.ĠotherwiseĠ":10365,"y.ĠcordĠbloodĠshouldĠ":10366,"y.ĠcomoĠperson":10367,"y.Ġultimately,Ġlatenc":10368,"y.ĠcordĠbloodĠstor":10369,"y.ĠyouĠcanĠfindĠ":10370,"yĠtoĠitsĠ":10371,"yĠtoĠbenefitĠ":10372,"ĠaĠlistĠof":10373,"ĠaĠlimit":10374,"ĠaĠloftĠb":10375,"ĠthroughĠthisĠseason":10376,"ĠthroughĠaprilĠ":10377,"ĠthroughĠtheĠfastĠfoodĠ":10378,"ĠthroughĠaĠconven":10379,"ĠthroughĠtheĠcirc":10380,"ĠthroughoutĠtheĠnextĠfew":10381,"ĠthroughĠit.ĠsheĠ":10382,"ousĠimprov":10383,"ousĠboo":10384,"ers.ĠtheĠcostĠ":10385,"enjoyĠtheĠdiver":10386,"ĠtheĠmatch":10387,"ĠtheĠmoreĠspecialĠwith":10388,"ĠtheĠmoonĠfor":10389,"ĠtheĠmuseum":10390,"ingĠtoĠimpl":10391,"ingĠtoĠhisĠ":10392,"ingĠtoĠinclud":10393,"ingĠtoĠworr":10394,"ingĠtoĠbeĠbrough":10395,"ingĠtoĠdecemberĠ":10396,"ingĠtoĠmakeĠa":10397,"atedĠ$":10398,"atedĠifĠitĠ":10399,"atedĠdisciplin":10400,"atedĠhost":10401,"atedĠonĠtheĠoutskir":10402,"atedĠinvestigationsĠ":10403,"ĠdoĠthem":10404,"ĠdoingĠs":10405,"ĠdoingĠtheir":10406,"Ġdollar":10407,"ĠdoĠaĠlittleĠ":10408,"Ġdocum":10409,"Ġdo,ĠandĠi":10410,"ameĠfunction":10411,"ameĠarenaĠevent":10412,"ameĠexcuseĠ":10413,"andma!ĠthoseĠ":10414,"whenĠitĠcom":10415,"whenĠweĠt":10416,"whenĠallĠtheĠn":10417,"whenĠmyĠhea":10418,"whenĠitĠkeep":10419,"contactĠoneĠ":10420,"ookingĠcl":10421,"fromĠtheĠshoulder":10422,"fromĠtheĠworl":10423,"fromĠtheĠnba":10424,"fromĠtheĠperson":10425,"fromĠtheĠlab":10426,"fromĠtheĠpurchaser":10427,"fromĠtheĠstoredĠstemĠcellsĠ":10428,"fromĠtheĠlink":10429,"fromĠtheĠtargetĠ":10430,"ĠprogramĠthatĠgroup":10431,"eopleĠtoĠtopic":10432,"organicallyĠ":10433,"organzim":10434,"organs,Ġmak":10435,"invitationsĠt":10436,"invitedĠtoĠvisit":10437,"eautifullyĠdecor":10438,"'tĠbeĠt":10439,"'tĠyetĠ":10440,"'tĠhaveĠtoĠ":10441,"mineĠof":10442,"minutesĠa":10443,"moreĠfun":10444,"moreĠcreat":10445,"moreĠcorpor":10446,"moreĠhandmad":10447,"ovingĠtheir":10448,"ovies,Ġ":10449,"ovicĠor":10450,"ovation,Ġno":10451,"ovesĠandĠvariation":10452,"suanceĠthereof":10453,"suiteĠfin":10454,"sueĠinĠmy":10455,"Ġvoic":10456,"Ġvalu":10457,"Ġvariation":10458,"ĠvenueĠ":10459,"Ġvase.Ġ":10460,"ĠvivirĠest":10461,"Ġvs.Ġ$":10462,"ĠisĠallow":10463,"ĠisĠtoĠget":10464,"ĠisĠtoĠbeĠsur":10465,"ĠisĠalsoĠbeĠavailableĠfor":10466,"Ġnevins":10467,"ĠnextĠtoĠmyĠ":10468,"ĠneedĠstemĠcellsĠ":10469,"ĠneverĠindic":10470,"ĠtenĠdiseas":10471,"ĠtenĠaggravatedĠ":10472,"ĠtenĠthous":10473,"ĠtenĠlarg":10474,"ĠaĠfamil":10475,"ĠaĠfair":10476,"ĠaĠfeltĠ":10477,"ĠaĠfull-t":10478,"ĠthoseĠbot":10479,"ĠthoseĠdi":10480,"ouchesĠandĠrecl":10481,"engthĠyou":10482,"ĠtheĠbirthĠ":10483,"ĠtheĠbullet":10484,"ĠtheĠbestĠisĠyet":10485,"ĠtheĠcountryĠ":10486,"ĠtheĠcountiesĠofĠrhea":10487,"ĠtheĠcountyĠofĠmcminn":10488,"ingĠsoundproofĠwindowsĠinĠfortĠbranch":10489,"ingĠsolution":10490,".ĠbeĠreadyĠtoĠ":10491,",ĠiĠlook":10492,",ĠiĠreallyĠ":10493,",ĠiĠalmostĠ":10494,",ĠiâĢĻveĠaddedĠ":10495,",Ġi'veĠcreated":10496,",ĠiĠdidĠ":10497,",ĠiĠhaveĠdis":10498,"essĠdif":10499,"essĠequal":10500,"essĠquiver":10501,"essĠisĠaĠv":10502,"ĠweĠhopeĠyou":10503,"emberĠneed":10504,"emberĠthoseĠm":10505,"embersĠofĠtheĠgeneralĠassembly":10506,"embersĠofĠcongres":10507,"ildren":10508,"oundĠfamil":10509,"oundĠyourĠf":10510,"oundĠinĠtheĠfutur":10511,"happilyĠgrow":10512,"eachĠsection":10513,"uperĠcl":10514,"uperĠsimpl":10515,"uperĠbus":10516,"uperĠpickyĠaboutĠ":10517,"uperbĠwith":10518,"shoulderĠjo":10519,"blogĠthisĠweek":10520,"blogĠpostĠ":10521,"blogĠtheseĠsuper":10522,"Ġcontract":10523,"ĠfromĠspecial":10524,"ĠfromĠhav":10525,"ĠfromĠtheirĠs":10526,"ĠfromĠearlyĠ":10527,"ĠfromĠbehind":10528,"ĠfromĠenter":10529,"ĠfromĠoneĠor":10530,"ĠfromĠseptemberĠ":10531,"eautiful,Ġamanda":10532,"eautifulĠjob":10533,"eautifulĠview":10534,"crewĠisĠa":10535,"calatingĠ":10536,"calmĠic":10537,"caleĠimplementation":10538,"cards,ĠandĠ":10539,"cardmakingĠ":10540,"cardsĠthatĠi":10541,"cardsĠjustĠ":10542,"cardsĠtogether":10543,"cardmakerĠinĠm":10544,"ealĠlocation":10545,"ipmentĠandĠ":10546,"ipĠofĠtheĠsp":10547,"money":10548,"mondayĠin":10549,"monĠsour":10550,"moneyĠinĠtheĠtreas":10551,"mentĠbyĠ":10552,"mentĠisĠs":10553,"mentĠproduct":10554,"mentĠproblem":10555,"mentĠforĠtax":10556,"mentĠplansĠtoĠ":10557,"mentĠearly":10558,"notĠallow":10559,"notĠaĠh":10560,"notĠaĠw":10561,"notesĠtoĠ":10562,"noticeĠthereof":10563,"ollah":10564,"sĠthatĠâĢľ":10565,"sĠthatĠhappyĠ":10566,"sĠthatĠitĠshall":10567,"sĠthatĠhaven":10568,"sĠthatĠfightĠ":10569,"sĠthatĠneedĠtoĠbeĠ":10570,"sĠthatĠwillĠmakeĠ":10571,"tenĠe":10572,"tenĠpermission":10573,"ysiological":10574,"yself":10575,"eĠaffect":10576,"eĠaĠlook":10577,"eĠaĠde":10578,"eĠaĠtown":10579,"eĠawaren":10580,"eĠauthorsĠre":10581,"eĠaĠmeetingĠwith":10582,"ĠtableĠandĠchair":10583,"ĠtableĠtoo":10584,"ĠtableĠsetĠ":10585,"ĠafterĠanĠ":10586,"ĠafterĠtwoĠ":10587,"ĠafterĠaj":10588,"ĠafterĠiĠfig":10589,"ĠafterĠtakingĠaĠs":10590,"ĠthisĠtoo":10591,"Ġthis,ĠtheĠ":10592,"ĠthisĠtour":10593,"Ġthis,Ġor":10594,"ĠthisĠalternativeĠ":10595,"Ġthis?ĠtoĠm":10596,"ĠthisĠaboutĠme,Ġ":10597,"ĠanyĠoneĠof":10598,"ĠanyĠissu":10599,"ĠanyĠyouĠcanĠfind":10600,"ĠanyĠmoneyĠinĠtheĠtreas":10601,"arginsĠinĠtheĠ":10602,",ĠwhoĠshall":10603,"assĠtum":10604,"assessmentĠof":10605,"assiveĠlaunch":10606,"asses.ĠinĠadditionĠtoĠtheĠ":10607,"Ġpreced":10608,"Ġpregnanc":10609,"ĠpreferĠbrightĠwhit":10610,"storingĠitĠ":10611,"storingĠyour":10612,"storyĠthough":10613,"storesĠandĠmall":10614,"amily,ĠweâĢĻreĠ":10615,"ementĠteam":10616,"ement,Ġre":10617,"ement.Ġanalys":10618,"ementsĠcanĠbeĠ":10619,"ement,Ġwhen":10620,"ements.ĠourĠ":10621,"hasĠlong":10622,"hasĠsuch":10623,"hasĠnever":10624,"hasĠcontract":10625,"ood.ĠbeĠreadyĠtoĠ":10626,"collimatedĠ":10627,"ĠotherĠapplication":10628,"ĠotherĠsport":10629,"ĠotherĠchildren":10630,".ĠbeĠitĠenactedĠbyĠtheĠ":10631,"butĠwish":10632,"butĠitĠwasĠ":10633,"butĠiĠamĠsuper":10634,"butĠfortun":10635,"butĠyouĠstill":10636,"homelessĠ":10637,"homa.Ġin":10638,"iostatist":10639,"ierĠnot":10640,"ierĠtick":10641,"ier.ĠtheseĠ":10642,"ierarch":10643,"ierĠlak":10644,"ientĠplaceĠtoĠ":10645,"ientĠhour":10646,"ientĠformĠpack":10647,"lusĠforĠtheĠ":10648,"luckĠwithĠfin":10649,"living/":10650,"livingĠwithĠus":10651,"livingĠcondition":10652,"sĠtoĠask":10653,"sĠtoĠshareĠwith":10654,"sĠtoĠtreatĠ":10655,"sĠtoĠsitĠonĠtheĠ":10656,"sĠtoday,ĠbutĠ":10657,"sĠtoĠtakeĠtheĠfirstĠ":10658,"tonĠkutcher":10659,"tingĠbest":10660,"tingĠwithĠaggravatedĠorganizm":10661,"uresĠlik":10662,"ured,ĠatĠleas":10663,"uredĠsamsung":10664,"uresĠinĠtheĠshoulder":10665,"eĠofĠjo":10666,"eĠofĠ$":10667,"eĠofĠrel":10668,"eĠofĠmental":10669,"eĠofĠtheĠsaid":10670,"eĠofĠcancer":10671,"ĠagingĠpre":10672,"ĠagoĠwhen":10673,"ĠtheĠtransformationĠcer":10674,"ĠtheĠtour!Ġyou":10675,"ĠsuchĠjudgment":10676,"ĠsorryĠaboutĠyourĠgr":10677,"ĠsorryĠitĠhasĠbeen":10678,"yĠwrappingĠpaper":10679,"yĠworldĠ":10680,"yĠwiredĠangel":10681,"ardĠforĠp":10682,"ardĠ\"justĠ":10683,",ĠinĠaddition":10684,",ĠinĠhonor":10685,",ĠinĠpreparation":10686,",ĠinĠoneĠor":10687,",ĠinnĠcon":10688,",Ġinfraspinatus":10689,",ĠinĠasĠfull":10690,"loseĠmatch":10691,"ĠhomeĠatĠbay":10692,"ĠhomeĠandĠnecessaril":10693,"ĠhappyĠwednes":10694,"ĠhappinessĠ":10695,"ĠhappeningĠ":10696,"ĠhappierĠnot":10697,"stemĠcells.ĠthereĠ":10698,"ĠbeingĠreal":10699,"ĠbeforeĠtheĠfirstĠ":10700,"Ġbehavi":10701,"Ġdays!":10702,"Ġdays,ĠbutĠ":10703,"ĠdaysĠearlier":10704,"ĠdayĠtoĠcheck":10705,"Ġdays,Ġcall":10706,"Ġdays.ĠwhyĠis":10707,"ĠdayĠasĠitĠisĠ":10708,"ĠdayĠtheyĠmayĠbeĠ":10709,"emplates.Ġ":10710,"urningĠthem":10711,"urningĠoutĠ":10712,"ĠgreatĠlocation":10713,"ĠgreatĠplaceĠtoĠlive.Ġ":10714,"ĠgreatĠcluster":10715,"ĠgreatĠday!Ġamanda,Ġi":10716,"expansionĠandĠ":10717,"âĢĻmĠaĠbig":10718,"openingĠandĠ":10719,"openĠveryĠ":10720,"openedĠup":10721,"openĠfloor":10722,"printedĠinĠthisĠstate":10723,"ĠjoyĠinĠour":10724,"ĠsoĠmuchĠforĠstop":10725,",ĠbutĠuntil":10726,",ĠbutĠifĠi":10727,",ĠbutĠchipp":10728,",ĠbutĠsoĠcozy":10729,"decor.Ġyou":10730,"decoratingĠ":10731,"decorĠâĢľ":10732,"decor!Ġrustic":10733,"decorateĠthisĠ":10734,"decor.Ġsadly":10735,"commissioners,Ġbefor":10736,"enjoyedĠa":10737,"enjoyedĠtheĠ":10738,"enjoy!ĠsoĠfar":10739,"byĠpit":10740,"byĠgain":10741,"byĠkat":10742,"bankĠloans.ĠifĠyouĠhaveĠ":10743,"certain":10744,"ceremony.Ġ":10745,"callĠ":10746,"callĠitĠtheĠjack":10747,"capula":10748,"e:Ġmichael":10749,"e:ĠmichaelĠk":10750,"e:ĠmarbleĠtop":10751,"e:Ġmik":10752,"e.ĠtheĠpool":10753,"e.ĠtheĠinn":10754,"e.ĠtheĠadventureĠbeginsĠ":10755,"e.ĠtheĠgy":10756,"e.ĠtheĠlakeĠ":10757,"e.ĠtheĠlittleĠteddyĠbear":10758,"e.ĠtheĠgrandĠfederal-styleĠmansion,ĠbuiltĠinĠ":10759,"e.ĠtheĠteach":10760,"e.ĠtheĠstabilityĠof":10761,"e.ĠtheĠiranian":10762,"justĠgettingĠ":10763,"justĠcut":10764,"justĠmov":10765,"justĠbeĠableĠto":10766,"justĠhowĠquick":10767,"knowingĠitĠ":10768,"knowledg":10769,"knowĠtheĠschedule,":10770,"knowĠaboutĠshoulderĠpain":10771,"mostĠimport":10772,"mostĠsen":10773,"mostĠresourceful":10774,"mostĠpartĠisĠ":10775,"paisley":10776,"Ġ-ĠiĠam":10777,"Ġ-ĠoctoberĠ":10778,"Ġ-ĠcanĠyou":10779,"Ġ-Ġbegin":10780,"Ġyen":10781,"Ġyears.ĠtheĠ":10782,"ĠyearsĠwith":10783,"Ġyear,Ġto":10784,"Ġyears,Ġsp":10785,"ĠyearĠifĠyou":10786,"ĠyearsĠago":10787,"Ġyears.ĠitĠhasĠbeen":10788,"ĠyearĠround":10789,"ĠthanĠanyĠother":10790,"ĠthanĠtoĠcoll":10791,"regret":10792,"registration":10793,"regulation":10794,"regimesĠ(":10795,"registri":10796,"ingsĠwithĠtheĠ":10797,"ingsĠcanĠbeĠ":10798,"ingsĠfromĠtheĠnba":10799,".ĠhugsĠ":10800,".ĠheâĢĻsĠ":10801,".ĠhillĠcre":10802,".ĠhereĠisĠoneĠ":10803,".Ġyou'veĠ":10804,".ĠyouĠhaveĠa":10805,".Ġyou'll":10806,".ĠyouĠshouldĠ":10807,".ĠyouĠseeĠtheĠ":10808,".ĠyouĠhaveĠtoĠ":10809,".ĠyouĠorĠyourĠbab":10810,".ĠweĠwillĠbeĠ":10811,".ĠweĠchos":10812,".ĠweĠareĠgoingĠtoĠ":10813,".ĠweĠwillĠanswer":10814,".ĠweĠnowĠhaveĠaĠnew":10815,".ĠweĠloveĠitĠher":10816,"ĠandĠsecur":10817,"ĠandĠsee":10818,"ĠandĠspeaker":10819,"ĠandĠsellĠtheĠlot":10820,"ĠandĠsoundĠinĠtheĠfutur":10821,"ĠandĠsuperĠcl":10822,"forĠmaint":10823,"forĠmeĠthes":10824,"forĠmilitar":10825,"forĠmeĠtoĠhaveĠ":10826,"forĠmeĠinĠ":10827,"Ġcountries":10828,"Ġcounty,ĠfromĠcollect":10829,"ĠmadeĠthisĠ":10830,"ĠmadeĠthes":10831,"ĠmadeĠit":10832,"ĠmadeĠme!":10833,"ĠmadeĠtheĠlittleĠ":10834,"edĠaĠlotĠof":10835,"edĠaĠreg":10836,"edĠaĠweekĠa":10837,"edĠasĠaĠrun":10838,"edĠtogether":10839,"edĠtoĠanother":10840,"edĠtoo!ĠaĠfew":10841,"edĠtowel":10842,"edĠto.ĠdefinitelyĠ":10843,"edĠtoĠtheirĠse":10844,"ĠprivateĠs":10845,"ĠpradoĠhotel":10846,"edĠforĠanother":10847,"edĠforĠthisĠyear":10848,"edĠforĠfre":10849,"edĠforĠtherap":10850,"edĠfor.ĠandĠthen":10851,"edĠforwardĠ":10852,"edĠfor,ĠunderĠtheĠsameĠ":10853,"urroundingĠs":10854,"eĠsoĠfar":10855,"eĠsoĠperfect":10856,"eĠsoĠlaidĠoff":10857,"eĠsoĠuĠp":10858,"eĠsoĠpremium":10859,"essionĠwillĠbeĠ":10860,"essionĠworkshop":10861,"ĠjustĠlov":10862,"ĠjustĠcountĠ":10863,"ĠjustĠbegan":10864,"ĠjustĠminutesĠa":10865,"ĠattendedĠ":10866,"Ġattention":10867,"Ġattend.ĠifĠitĠ":10868,"iesĠofĠtheirĠoffic":10869,"iesĠofĠnational":10870,"iesĠofĠlow-no":10871,"iesĠofferĠpay":10872,"iesĠofĠcellsĠareĠovertaken":10873,"ĠtheseĠador":10874,"ĠtheseĠlovelyĠ":10875,"ĠtheseĠparticular":10876,"ĠtheseĠitem":10877,"ccessibl":10878,"Ġapply:":10879,"Ġapplicant":10880,"ewarmingĠpartyĠinvit":10881,"'veĠalso":10882,";ĠandĠmor":10883,";ĠandĠitĠshallĠbeĠtheĠdut":10884,"borsĠtrueĠ":10885,"bileĠâĢĵ":10886,"doĠdeĠho":10887,"doĠfoun":10888,"doĠmuchĠdecor":10889,"eekĠanĠin":10890,"finestĠdin":10891,"funĠpart":10892,"fundamental":10893,"fun,Ġch":10894,"fun!ĠhopeĠyouĠhaveĠ":10895,"funds:":10896,"iecesĠabout":10897,"iĠhaveĠyet":10898,"iĠhaveĠquiteĠ":10899,"iĠhaveĠbeenĠpre":10900,"iĠhaveĠanĠis":10901,"iĠhaveĠthisĠs":10902,"iĠhaveĠcomeĠto":10903,"noĠone":10904,"noĠidea":10905,"noĠproblem":10906,"noĠcure":10907,"noĠoften":10908,"noĠotherĠtenn":10909,"namentĠball":10910,"ostedĠbyĠtheĠ":10911,"ostĠasĠa":10912,"ostedĠatĠtheĠ":10913,"ostdoctoral":10914,"ostlyĠturn":10915,"s,ĠandĠsomeĠ":10916,"s,ĠandĠmajor":10917,"s,ĠandĠhisĠsuccessorsĠinĠoffic":10918,"s,ĠandĠscout":10919,"s,ĠandĠimmun":10920,"s,ĠandĠbankĠloans.ĠifĠyouĠhaveĠ":10921,"s.ĠtheĠproblem":10922,"s.ĠtheĠmaintenanceĠ":10923,"s.ĠtheĠcod":10924,"s.ĠtheĠentir":10925,"s.ĠtheĠranking":10926,"s.ĠtheĠlld-":10927,"s.ĠtheĠimagesĠ":10928,"usĠsection":10929,"usĠornamentsĠ":10930,"usĠknowledg":10931,"zyĠaroundĠ":10932,"ĠaĠsix":10933,"ĠaĠsimilar":10934,"ĠaĠsoreĠto":10935,"ĠaĠsectionĠofĠtheĠ":10936,"ĠaĠbetter":10937,"ĠaĠbusiness":10938,"ĠaĠbitĠof":10939,"ĠaĠbeautifulĠhomeĠ":10940,"ĠaĠbeautifulĠview":10941,"inuingĠtoĠdecemberĠ":10942,"ĠthisĠactĠ":10943,"endĠrem":10944,"endĠiĠwas":10945,"endĠofĠmyĠ":10946,"endĠresultĠ":10947,"ing,Ġposs":10948,"ing,Ġunder":10949,"ing,Ġit'sĠ":10950,"ing,Ġordin":10951,"ing,Ġhold":10952,"ing,Ġengag":10953,"ing,ĠisnâĢĻtĠ":10954,"ing,Ġvision":10955,"ing,Ġram":10956,"ing,ĠnegativeĠ":10957,"ators.ĠforĠtheĠfirst":10958,"atorsĠinclud":10959,"atorsĠandĠproject":10960,"ĠanĠequal":10961,"ĠanĠenormousĠ":10962,"ĠanĠetsyĠst":10963,"ĠanĠend-st":10964,"arket.Ġwhen":10965,"arketĠpul":10966,"ofĠwalk":10967,",Ġhealth":10968,",ĠheaselgraveĠsaysĠtheĠ":10969,",Ġhello":10970,",Ġhodgkin'sĠ":10971,",ĠhalseyĠhous":10972,",ĠhisĠvision":10973,",ĠhostedĠatĠtheĠ":10974,"ingĠincidentĠratesĠ":10975,"ingĠinĠaprilĠ":10976,"ingĠin,ĠwasĠ":10977,"ingĠinĠourĠgard":10978,"ingĠinĠotherĠsport":10979,"ingĠinĠhappinessĠ":10980,"ingĠinĠprivateĠs":10981,"ingĠwithĠthoseĠ":10982,"ingĠwithĠyouĠmyĠchristmasĠ":10983,"ingĠwithĠtheĠsweet":10984,"lowedĠbl":10985,"lowĠisĠden":10986,"lows.ĠandĠpep":10987,"lowĠ(sc":10988,"lookingĠfor":10989,"lookĠattract":10990,"looksĠb":10991,"lookingĠatĠ":10992,"lookingĠtoĠinclud":10993,"isĠbeliev":10994,"isĠbeautifullyĠdecor":10995,"ĠplaceĠ":10996,"Ġplus,ĠtheĠ":10997,"ĠplayersĠ":10998,"ĠpeopleĠisĠa":10999,"ĠpeopleĠdo":11000,"ĠpeopleĠhaveĠcontribut":11001,"ĠpeopleĠaffect":11002,"ĠtoĠbeĠcompl":11003,"ĠtoĠbeĠpartĠof":11004,"ĠtoĠbeĠbuil":11005,"ĠtoĠbeĠlaidĠoff":11006,"ĠtoĠbeĠinĠgoodĠ":11007,"Ġdisagree.Ġhowever":11008,"ementĠidea":11009,"ementĠfromĠ":11010,"ementĠnet":11011,"ementĠproces":11012,"ementĠisĠonĠtop":11013,"ementĠofĠall":11014,"ementĠisĠatt":11015,"ementĠsoĠrefin":11016,"ementĠforĠtheĠarm":11017,"ementĠofĠtheĠprogram":11018,"ĠyouthĠprogramĠthatĠisĠ":11019,"âĢľdoor":11020,"âĢľpin":11021,"âĢľflex":11022,"âĢĿĠwher":11023,"âĢĿĠyourĠdev":11024,"ĠtoothĠandĠ":11025,"useĠhigh":11026,"useĠredĠ":11027,"useĠexpens":11028,"useĠaĠroll":11029,"ationalĠoffer":11030,"ationalĠskill":11031,"ĠofficeĠasĠ":11032,"ĠofficersĠinĠother":11033,"needsĠofĠtheĠ":11034,"needsĠit":11035,"needsĠaĠstemĠcellĠtrans":11036,"needsĠtoĠrenew":11037,"needingĠaĠstemĠcellĠtrans":11038,"neededĠforĠtherap":11039,"ularĠstat":11040,"ularĠstr":11041,"ularis,":11042,"ularĠblack":11043,"earnedĠanĠ":11044,"earningsĠfromĠtheĠnba":11045,"âĢĻtĠbeĠtheĠs":11046,"âĢĻtĠforget":11047,"havingĠtoĠworr":11048,"eakerĠl":11049,"eaknessĠof":11050,"eakersĠâĢĶ":11051,"Ġintention":11052,"Ġintegr":11053,"constantlyĠ":11054,"constellations,Ġ":11055,"e.ĠiĠwasĠ":11056,"e.ĠiĠshouldĠ":11057,"e.Ġi'veĠcreat":11058,"e.ĠiâĢĻmĠsoĠ":11059,"e.ĠiĠsus":11060,"e.ĠiĠmodĠ":11061,"e.ĠiĠamĠaĠb":11062,"e.ĠiĠhopeĠitĠ":11063,"e.ĠiĠmadeĠthes":11064,"e.ĠiĠdisagree.Ġhowever":11065,"evenĠmoreĠ":11066,"evenĠtheseĠareĠ":11067,"eventhĠonĠtheĠ":11068,"evenĠdiv":11069,"eveningsĠwithĠtheĠ":11070,"Ġtransitional":11071,"Ġtransmit":11072,"ĠtransferĠdat":11073,"ĠtransitionĠtoĠensur":11074,"ĠtransportationĠopportunities":11075,"edĠbyĠelizabethĠellis":11076,"edĠbyĠ[do":11077,"edĠbyĠneck":11078,"edĠbyĠextrins":11079,"edĠbyĠeachĠsection":11080,"ĠaboutĠyourĠsweetĠ":11081,"ĠaboutĠyourĠhub":11082,"Ġcommitte":11083,"ĠcommissionersĠmention":11084,"ĠtennisĠplay":11085,"ĠtennisĠtour":11086,"ðŁĻĤĠhopeĠyou":11087,"ðŁĻĤĠhopeĠyourĠweekĠisĠgoingĠgreat!":11088,",ĠtheĠguidebook":11089,",ĠtheĠnational":11090,",ĠtheĠdv":11091,",ĠtheĠneutralĠcolor":11092,",ĠtheĠregistri":11093,",Ġsub":11094,",Ġsafe":11095,",Ġsmok":11096,",Ġsuic":11097,",ĠsadĠtoĠs":11098,",ĠsomeĠhe":11099,",ĠsevereĠab":11100,",Ġandrew":11101,",Ġand/or":11102,",ĠandĠtheyĠlook":11103,",ĠandĠartĠisĠa":11104,",ĠandĠallĠtheĠnew":11105,",ĠandĠaĠbitĠof":11106,"aĠfabulousĠ":11107,"aĠfundĠinĠtheĠh":11108,"aĠfive-":11109,"aĠfullĠfastingĠ":11110,"boardĠandĠad":11111,"but,ĠiĠdidĠ":11112,"creativelyĠ":11113,"createdĠthisĠcardĠ":11114,"createsĠaĠfresh":11115,"createdĠfrom":11116,"creativityĠ":11117,"donald":11118,"donorĠfor":11119,"donationsĠfor":11120,"difficultĠ":11121,"freeĠdownload":11122,"freedomĠof":11123,"frequently":11124,"ge-podg":11125,"gueĠthisĠ":11126,"great.ĠgoodĠ":11127,"great,ĠiĠreallyĠ":11128,"highĠasĠwell":11129,"higherĠm":11130,"higherĠthan":11131,"higherĠb":11132,"highest-pa":11133,"helpĠalmostĠ":11134,"helpĠchildren":11135,"iblyĠm":11136,"ibleĠsiteĠ":11137,"lativeĠto":11138,"late.ĠiâĢĻmĠsoĠ":11139,"masksĠtoĠtheĠfrontĠ":11140,"nership":11141,"nerĠasĠtheyĠ":11142,"nering,ĠandĠ":11143,"nerĠforĠyour":11144,"nerĠthatĠmayĠbeĠ":11145,"renalĠf":11146,"renovation,Ġno":11147,"ryĠoxy":11148,"ractingĠglobal":11149,"s!ĠthisĠisĠ":11150,"s!ĠðŁĻĤĠhopeĠyou":11151,"s!ĠtodayĠ":11152,"spiration":11153,"spectrumĠof":11154,"spikeĠin":11155,"someĠgreen":11156,"someĠcraf":11157,"someĠlights,":11158,"someĠledĠ":11159,"someĠofĠher":11160,"someĠweirdĠandĠ":11161,"someĠglitteryĠandĠshin":11162,"venturous,Ġ":11163,"ĠquietĠ":11164,"Ġquiet":11165,"ĠquiteĠaĠfew":11166,"ĠoneĠofĠmyĠ":11167,"ĠoneĠwayĠto":11168,"ĠoneĠyear.ĠforĠmoreĠinformation":11169,"ĠoneĠofĠtheĠtop":11170,"ĠoneĠwasĠmadeĠ":11171,"ĠoneĠdonorĠfor":11172,"eĠletter":11173,"eĠlistĠof":11174,"eĠlastĠweekĠonĠour":11175,"eĠwithĠdr":11176,"eĠwithĠyourĠgr":11177,"eĠwithĠsub":11178,"eĠwithĠyouĠtoĠyourĠf":11179,"eĠwithĠjade.Ġ":11180,"eĠwithĠkind":11181,"eĠwithĠtheseĠseat":11182,"ĠacquiredĠ":11183,"ĠactĠor":11184,"intĠgl":11185,"intĠinĠtheĠs":11186,"intĠinĠtheĠjourne":11187,"tĠwithĠaĠlo":11188,"tĠwithĠlin":11189,"tĠwithinĠth":11190,"oneyĠandĠwe'll":11191,"ĠtheĠpapersĠ":11192,"ĠtheĠpastĠtwoĠ":11193,"ĠtheĠpiecesĠabout":11194,"yĠmeanĠthatĠtheĠp":11195,"yĠmemberĠneed":11196,"ingĠandĠdr":11197,"ingĠandĠrel":11198,"ingĠandĠexercis":11199,"ingĠandĠhonor":11200,"ingĠandĠincl":11201,"ingĠandĠreju":11202,"ĠanyĠtax":11203,"ĠanyĠtherap":11204,"ĠanyĠtask":11205,"ĠanyoneĠwhoĠ":11206,"ĠanyĠtimeĠof":11207,"Ġanyway.Ġs":11208,"ingĠlistĠ":11209,"ingĠlimitedĠ":11210,"ingĠlondon":11211,"ingĠlampsĠrack":11212,"ingĠlearningsĠfromĠtheĠnba":11213,"ĠmoreĠexcit":11214,"ĠmoreĠaboutĠ":11215,"ĠmoreĠabout":11216,"ĠmoreĠhard":11217,"ĠmoreĠcountries":11218,"ĠmoreĠnewsp":11219,"edĠwithĠaĠlittleĠ":11220,"edĠwithĠlocal":11221,"edĠwithĠgrac":11222,"edĠwithĠboth":11223,"edĠwithĠcel":11224,"edĠwithĠmenuĠbutton":11225,"edĠwithĠoneĠofĠmyĠ":11226,"ĠworksĠinĠ":11227,"ĠworkedĠcaus":11228,"ĠworkĠtoĠdevelopĠa":11229,"ĠworksĠtoĠrais":11230,"ĠwouldĠlikeĠto":11231,"ĠwouldĠhaveĠhadĠ":11232,"Ġdining.Ġ":11233,"âĢĶĠitĠpay":11234,"Ġtop-t":11235,"Ġtop-endĠ":11236,"ĠtopĠareĠsoĠ":11237,"ationĠofĠjustic":11238,"ationĠofĠsaidĠcountyĠcour":11239,"ationĠofĠoneĠofĠtheĠtop":11240,"imple,ĠasĠ":11241,"implyĠcont":11242,"ĠaroundĠtheĠpro":11243,"ĠaroundĠtheĠshoulderĠjoint":11244,"ĠaroundĠtheĠbod":11245,"ĠaroundĠtoĠspendĠ":11246,"earchĠintoĠ":11247,"âĢĻllĠbeĠamaz":11248,"âĢĻllĠtakeĠour":11249,"ificĠapplication":11250,"ificĠstruct":11251,"eĠthisĠorganiz":11252,"eĠthisĠdoctor":11253,"eĠthisĠstampĠset":11254,"utionĠshould":11255,"ĠlotĠofĠthatĠfoodĠ":11256,"ĠlotĠofĠvalu":11257,"countyĠcourtĠofĠmeig":11258,"countyĠcourtĠofĠsaidĠcounty":11259,"countyĠcourtĠofĠsaidĠcountyĠofĠmeig":11260,"ĠtheĠsaidĠcourtĠ":11261,"ĠtheĠsaidĠcommissioners,Ġbefor":11262,"ĠtheĠsaidĠcountyĠcourtĠofĠmeig":11263,"ĠtheĠsameĠhal":11264,"ĠtheĠsameĠpower":11265,"ĠtheĠsameĠconcept":11266,"perty.ĠgreatĠ":11267,"ĠasĠwell!ĠiĠam":11268,"ĠasĠwell.ĠcloseĠtoĠ":11269,"ĠasĠwell!Ġi'veĠ":11270,"ĠspecialĠandĠhol":11271,"ĠspecialĠratesĠ":11272,"eventsĠs":11273,"event.Ġstill":11274,"events.Ġit'sĠ":11275,"newĠyouthĠprogram,Ġwith":11276,"newĠyouthĠprogram,ĠscoutĠgroupsĠaroundĠaustralia":11277,"newĠyouthĠprogram.ĠtheĠapprov":11278,"ĠaskĠforĠtheĠ":11279,"ĠaskedĠifĠi":11280,"ĠaskĠyourĠmid":11281,"ĠaskĠme!ĠðŁĻĤĠi":11282,"ffectedĠbyĠc":11283,"ffectingĠalaskan":11284,"ĠrheaĠcountyĠ":11285,"Ġadditionally":11286,"ĠadditionĠtoĠm":11287,"ĠadditionsĠofĠyourĠgr":11288,"diningĠroomĠdiningĠroom":11289,"diningĠroom;Ġwhich":11290,"diningĠroomĠwithĠw":11291,"diningĠroomĠandĠkitchen":11292,"diningĠroomĠjetcl":11293,"diningĠroomĠdining.Ġ":11294,"ĠhopeĠyouĠhad":11295,"ĠsaidĠcounty;ĠandĠshall":11296,"everythingĠiĠoffer":11297,"everythingĠwasĠplaced,Ġ":11298,"ĠtwoĠdifferentĠ":11299,"ĠtwoĠdollar":11300,"ĠtwoĠprogres":11301,"ĠtwoĠotherĠdon":11302,"ĠcontinuesĠasĠ":11303,"ĠcontinueĠintoĠ":11304,"Ġcontinue.Ġspecific":11305,",ĠshallĠenter":11306,",ĠshallĠsell":11307,",ĠshallĠtakeĠ":11308,",ĠshallĠconveyĠtheĠ":11309,".Ġstyl":11310,".Ġstaff":11311,".ĠstartĠoutĠ":11312,".ĠstemĠcellsĠ":11313,".ĠsteviaĠ":11314,".ĠthisĠstr":11315,".ĠthisĠyearĠi":11316,".ĠthisĠcouldĠ":11317,".ĠthisĠcanĠres":11318,".ĠthisĠprolong":11319,"aware":11320,"awĠdrop":11321,"closingĠcred":11322,"closelyĠtheĠ":11323,"closeĠtoĠaĠth":11324,"eerĠawhil":11325,"eerĠworkĠtoĠdevelopĠa":11326,"eam,ĠandĠind":11327,"gleĠtoĠdoĠit":11328,"ger.":11329,"gerĠkitchen":11330,"gerâĢĻsĠbeautiful":11331,"greatĠdi":11332,"greatĠshif":11333,"greatĠroom.Ġw":11334,"greatĠgramĠwhoĠ":11335,"greatĠfreedomĠof":11336,"ients,Ġyou'reĠ":11337,"ientlyĠloc":11338,"ient.ĠsomeĠin-":11339,"ient,Ġsafe":11340,"jectives,ĠandĠ":11341,"landsĠwith":11342,"land.ĠthereĠis":11343,"landĠacquiredĠ":11344,"nâĢĻtĠfeel":11345,"nâĢĻtĠmetĠ":11346,"nâĢĻtĠitĠbeĠ":11347,"nâĢĻtĠdoĠaĠlo":11348,"ocketĠofĠtheĠ":11349,"photoĠshow":11350,"sittingĠroom":11351,"sitcomĠstarĠ":11352,"sityĠofĠwestern":11353,"sittingĠwithĠaggravatedĠorganizm":11354,"tainsĠchair":11355,"tainlyĠam!ĠweĠ":11356,"worse.":11357,"ĠrotatorĠcuff":11358,"Ġrotation":11359,"Ġrobert!ĠthankĠyouĠsoĠmuch":11360,"ĠnewĠyork":11361,"ĠnewĠreven":11362,"ĠðŁĻĤĠhopeĠyourĠweekĠisĠgoingĠgreat!":11363,"ĠðŁĻĤĠhappyĠwednes":11364,"eĠfavor":11365,"eĠfoter":11366,"eĠfetalĠd":11367,"eĠfabric":11368,"eĠfamily,ĠweâĢĻreĠ":11369,"eĠflowĠisĠden":11370,"ĠtourĠweek":11371,"Ġtour.Ġsecond":11372,"ĠaĠmedical":11373,"ĠaĠmoment":11374,"ĠaĠmonth":11375,"ĠaĠmerryĠchristmas":11376,"ĠaĠmajor":11377,"ĠaĠminuteĠ":11378,"ĠaĠmidwifeĠ":11379,"ĠaĠmassiveĠlaunch":11380,"ĠthinkĠthere":11381,"ĠthinkĠthisĠstem":11382,"ĠthingsĠgettingĠ":11383,"ĠthingsĠhaveĠbeenĠgreat":11384,"ervesĠa":11385,"ervingĠasĠaĠâĢľ":11386,"onĠauthorsĠre":11387,"onĠautophagyĠ":11388,"onĠaĠwarm":11389,"onĠaĠhappierĠnot":11390,"ĠtheĠnhsĠcordĠbloodĠbank":11391,"ĠtheĠnblĠwasĠ":11392,"ĠtheĠshoulderĠisĠa":11393,"ĠtheĠshouldersĠâĢľ":11394,"rewĠofĠspecial":11395,"readyĠto":11396,"reviewĠofĠaggravatedĠorganizm":11397,"reviews.ĠamazingĠ":11398,"itsĠmakingĠ":11399,"itsĠdifficultĠ":11400,"itâĢĻsĠcharg":11401,"itâĢĻsĠgettingĠ":11402,"itâĢĻsĠnotĠsur":11403,"ativeĠofĠtheĠu.":11404,".ĠweĠtak":11405,".ĠwaitingĠfor":11406,".ĠwearĠitĠ":11407,".Ġwolpman":11408,".ĠifĠyouĠattendedĠ":11409,"iseĠcomingĠ":11410,"iseĠeveryĠs":11411,"iseĠcollimatedĠ":11412,"omewhatĠ":11413,"checkingĠoutĠ":11414,"checkedĠthingsĠ":11415,"edĠandĠbas":11416,"edĠandĠclean":11417,"edĠandĠiĠloveĠ":11418,"edĠandĠexpend":11419,"edĠandĠplentyĠof":11420,"ĠparallelĠsoĠ":11421,"ĠhouseĠisnâĢĻtĠ":11422,"Ġhouse:ĠmichaelĠk":11423,"ĠwasĠalsoĠtheĠ":11424,"ĠwasĠtoĠcreateĠ":11425,"ĠwasĠtaken.Ġ":11426,"ĠweeksĠagoĠ":11427,"ely!Ġyou":11428,"elyĠthatĠyouĠhaveĠ":11429,"ely.Ġtop":11430,"elyĠanĠend-st":11431,"Ġdecatur":11432,"ĠdeclineĠtheĠt":11433,"etteĠsuper":11434,"ette;ĠaĠpr":11435,"ettuceĠ":11436,"ettes.ĠthisĠ":11437,"ettiaĠgrow":11438,"allyĠauthor":11439,"ally,ĠaĠlit":11440,"ureĠredu":11441,"ureĠalong":11442,"ureĠoutĠwher":11443,"madeĠmyĠ":11444,"madeĠsidel":11445,"madeĠtoĠthemselvesĠandĠsuccessorsĠinĠoffic":11446,"mayĠinclud":11447,"mayĠde":11448,"mayĠnotĠmatch":11449,"unteerĠworkĠtoĠdevelopĠa":11450,"undergroundĠ":11451,"underĠtheĠprovision":11452,"understandĠ":11453,"nextĠap":11454,"excitedĠwhen":11455,"excitedĠtoo!ĠaĠfew":11456,"exciting,Ġengag":11457,"grandmaĠpass":11458,"grandmaĠpassedĠaway":11459,"grandmaĠgaveĠ":11460,"group.Ġto":11461,"complexitiesĠof":11462,"eĠthatĠsheĠ":11463,"eĠthatĠscout":11464,"eĠthatĠiĠhaveĠyet":11465,"eĠthatĠcreatesĠaĠfresh":11466,"Ġregulator":11467,"ĠregionĠdoesĠ":11468,"qualityĠfor":11469,"quirements,Ġneed":11470,"ĠalsoĠstress":11471,"Ġalso,ĠtoĠsaveĠ":11472,"Ġalso,Ġfor":11473,"ĠforĠtheĠstamp":11474,"ĠforĠtheĠoffic":11475,"ĠforĠtheĠimplementation":11476,"ĠforĠtheĠocc":11477,"ĠtheyĠshallĠbeĠ":11478,"ĠtheyĠshallĠcaus":11479,"Ġsharp,Ġall":11480,"ĠsharingĠcard":11481,"ctorsĠb":11482,"ctionalĠd":11483,"ctionĠofĠtheĠnewĠyouthĠprogram":11484,"ctionsĠareĠaband":11485,"sĠofĠtheĠprogram":11486,"sĠofĠtheĠamendedĠconstitution":11487,"sĠofĠtheĠnewĠprogram":11488,"!ĠiĠloveĠthatĠ":11489,"!ĠiĠloveĠthos":11490,"!ĠiĠloveĠyourĠrustic":11491,"!ĠiĠloveĠallĠtheĠt":11492,"ĠoverĠdes":11493,"ĠoverĠagain":11494,"ĠoverĠaĠphot":11495,"ĠoverĠrecentĠ":11496,"willĠbeĠvisit":11497,"willĠbeĠopportunities":11498,"willĠbeĠinĠplac":11499,"willĠbeĠenhanc":11500,"Ġexperience.Ġmanag":11501,"ĠwhichĠisĠrareĠ":11502,"ĠwhichĠtheyĠshallĠcaus":11503,"ĠtimeĠlivingĠher":11504,"ĠtimeĠiĠwantedĠtoĠ":11505,"ĠtimeĠatĠanyĠ":11506,"ĠtimeĠatĠgatehous":11507,"ĠtimeĠfromĠtheĠlink":11508,"ĠknowĠthereĠis":11509,"Ġknowledg":11510,"ĠknowĠtheĠimport":11511,"ĠknowĠthatĠeveryĠs":11512,"ĠknowĠsheâĢĻ":11513,"ĠsoĠsorryĠtoĠhear":11514,"ĠsoĠsorryĠagain":11515,"ĠcellsĠisĠalter":11516,"weekend.Ġit":11517,"weekend!ĠyourĠhomeĠ":11518,"weekend!Ġwhat":11519,"weekend.ĠitâĢĻsĠbeen":11520,"weekend!ĠiĠloveĠyourĠrustic":11521,"ranchĠsup":11522,"ranchĠofĠscoutsĠaustralia":11523,"organizedĠinĠtimeĠto":11524,"organizationalĠskill":11525,"organizationĠofĠsaidĠcountyĠcour":11526,"Ġapplications":11527,"ĠapplicationsĠandĠitĠcap":11528,"housewarmingĠpartyĠinvitationsĠ":11529,"!ĠhugsĠ":11530,"!Ġhowever":11531,"!ĠheyĠdear,Ġ":11532,"!ĠhostedĠbyĠtheĠ":11533,"'sĠaĠpremium":11534,"'sĠaĠgreatĠlocation":11535,".ĠaĠweekĠa":11536,".ĠaĠnumberĠof":11537,".Ġaw,ĠthankĠyouĠsoĠmuch":11538,".ĠaĠproclamarĠl":11539,"auces":11540,"author":11541,"achiev":11542,"achingĠout":11543,"achedĠinĠoneĠ":11544,"backĠif":11545,"backĠafterĠ":11546,"backâĢĿĠwher":11547,"cesĠtheĠsp":11548,"cesĠtheĠavail":11549,"cesanĠdirector":11550,"duringĠfast":11551,"e-proven":11552,"e-averag":11553,"e-sav":11554,"e-upĠfor":11555,"eeĠepicent":11556,"e,ĠandĠiĠloveĠ":11557,"e,ĠandĠunderĠtheĠsameĠ":11558,"e,ĠandĠnon-":11559,"e,ĠandĠi'veĠbeen":11560,"e,ĠandĠdoĠanĠ":11561,"e,ĠandĠyouĠcanĠexpect":11562,"e,ĠandĠcheckedĠthingsĠ":11563,"givingĠb":11564,"givingĠdueĠ":11565,"hoan,Ġ":11566,"hogĠh":11567,"hoenix":11568,"holograp":11569,"harborsĠtrueĠ":11570,"ianĠorganiz":11571,"iumĠinĠm":11572,"longĠlast":11573,"longerĠisĠ":11574,"longĠasĠtheĠdel":11575,"nor,Ġm":11576,"niceĠandĠclean":11577,"rightĠhereĠ":11578,"rightĠdiec":11579,"rightĠupĠmy":11580,"rightĠnowĠisĠan":11581,"suchĠaĠth":11582,"suchĠaĠgreatĠ":11583,"suchĠaĠbig":11584,"suchĠanĠamazingĠ":11585,"suchĠasĠgrow":11586,"ures,Ġre":11587,"uresĠandĠcod":11588,"uresĠaĠlistĠof":11589,"wonâĢĻtĠbeĠtheĠs":11590,"yndic":11591,"ync-ed":11592,"ĠenormousĠ":11593,"ĠenemyĠonĠtheĠ":11594,"ĠenĠlaĠm":11595,"ĠenoughĠforĠtwo":11596,"ĠenĠnuest":11597,"Ġoutsid":11598,"Ġout.Ġtook":11599,"ĠoutĠtheĠentir":11600,"ĠoutĠtoĠdef":11601,"ĠoutĠtheĠfacilities":11602,"ĠoutâĢĿĠyourĠdev":11603,"ĠchristmasĠwreat":11604,"ĠâĢĵĠnoĠ":11605,"ĠâĢĵĠneed":11606,"ĠâĢĵĠaug":11607,"ĠâĢĵĠandĠyesĠ":11608,"ĠâĢĵĠwhatĠsp":11609,"ĠâĢĵĠtheĠshoulderĠisĠa":11610,"Ġeach.Ġfor":11611,"ĠeachĠstretch":11612,"ĠeachĠmoment":11613,"eĠisĠ$":11614,"eĠisĠval":11615,"eĠisĠmy":11616,"eĠisĠdestro":11617,"eĠisĠforcedĠ":11618,"eĠisĠifĠyouĠalread":11619,"eĠisĠnotĠallow":11620,"eĠglitterĠbottl":11621,"eĠglitterĠframe!":11622,"ĠtouchesĠin":11623,"ĠtouchesĠandĠsentim":11624,"interactivelyĠandĠ":11625,"ĠthenĠhas":11626,"ĠthenĠaĠmidwifeĠ":11627,"ĠthoughĠiĠwish":11628,"sĠwithĠenvironment":11629,"sĠwithĠthisĠmod":11630,"sĠwithoutĠhav":11631,"sĠwithĠaĠprem":11632,"ericĠatĠhisĠb":11633,"ericĠalsoĠstress":11634,"tĠinĠyourĠnew":11635,"tĠinĠdoingĠtheir":11636,"oreĠtheĠsouth":11637,"ityĠofĠaĠnew":11638,"ityĠofĠwhom":11639,"ityĠofĠsaidĠcommissioner":11640,"ityĠofĠtheseĠdamag":11641,"ityĠofĠeachĠmoment":11642,"anningĠfrom":11643,"annelĠof":11644,"anningĠnow":11645,"annedĠcommunityĠ":11646,"annâĢĻs!":11647,"antĠseat":11648,"antĠorgans,Ġmak":11649,"aterĠdat":11650,"aterfall":11651,"atingĠhisĠ":11652,"atingĠdies":11653,"atingĠeffect":11654,"atingĠherĠthingsĠ":11655,"atingĠinĠtheĠstamp":11656,"ated.ĠsectionĠ":11657,"ated;Ġand":11658,"ated.ĠiĠloveĠ":11659,"atedĠalong":11660,"atedĠtoĠtheĠnhsĠcordĠbloodĠbank":11661,"ated.Ġmark":11662,"atedĠthatĠlittl":11663,",ĠmoreĠs":11664,",Ġmusic,Ġapp":11665,",ĠmyĠsweetĠ":11666,"youĠareĠusingĠitĠ":11667,"youĠareĠlookingĠfor":11668,"ĠandĠmcminn":11669,"ĠandĠmccrind":11670,"thatĠyouĠp":11671,"thatĠgreenĠglitter":11672,"thatĠyouĠhonor":11673,"thatĠcanĠdr":11674,"ingĠpotential":11675,"ingĠpublicĠbuilding":11676,"ingĠpinkfreshĠstudioĠ":11677,"ingĠpeopleĠtoĠtopic":11678,"ingĠofĠcongressĠsp":11679,"ingĠofĠhotel":11680,"ingĠofĠyouĠasĠyou":11681,"ingĠofĠofficersĠinĠother":11682,"ingĠforĠteddyĠbear":11683,"location:ĠtheĠ":11684,"location.ĠgreatĠ":11685,"locationĠforĠguest":11686,"locationĠsoĠexpend":11687,"locationsĠforĠdanceĠ":11688,"ashĠsit":11689,"ashĠsav":11690,"ashion.Ġ":11691,"ĠclericĠalsoĠstress":11692,"ectĠmatch":11693,"ectĠcordĠblood":11694,"ectĠforĠother":11695,"edĠtheĠneedĠfor":11696,"edĠtheĠelder":11697,"edĠtheĠduck":11698,"Ġpatient.ĠsomeĠin-":11699,"Ġhomes":11700,"Ġhome,Ġ":11701,"Ġhome,ĠthanksĠfor":11702,"elizador":11703,"strates":11704,"strengthen":11705,"strengthĠyou":11706,"ĠbabyĠtoĠbenefitĠ":11707,"ĠdiyĠproject":11708,"ĠdieĠandĠnoĠ":11709,"etsĠc":11710,"etsĠcollect":11711,"etsĠ(ph":11712,"etsĠgrill":11713,"ĠtoĠsell,ĠandĠinĠaĠsmall":11714,"allengingĠandĠincl":11715,"Ġfriend,ĠbutĠi":11716,"ĠifĠiĠam":11717,"ĠifĠiĠwant":11718,"ĠifĠprivateĠ":11719,"ĠiĠamĠsoĠexcit":11720,"ĠiĠamĠoffĠtoĠ":11721,"ĠiĠamĠsoĠgrateful":11722,"ays.Ġit'sĠa":11723,"ays.ĠwithĠnoĠ":11724,"ĠgetĠtoĠall":11725,"ideallyĠbeĠt":11726,"withĠtheĠcustom":11727,"withĠtheĠinterest":11728,"Ġstatement.Ġ":11729,"Ġstatus.Ġcand":11730,"Ġstatement,Ġwhen":11731,"ĠstatusĠknowledg":11732,"ĠstemmingĠfrom":11733,"ĠstampĠset":11734,"ĠstampĠsetsĠ":11735,"âĢĻveĠenjoyedĠ":11736,"âĢĻveĠenjoyedĠtheĠ":11737,"âĢĻreĠright":11738,"eĠspeakers":11739,"ĠinĠroom.ĠdiningĠroom":11740,"we'reĠaĠnew":11741,"we'reĠallĠaboutĠ":11742,"istory,ĠandĠ":11743,"istoryĠandĠecolog":11744,"ĠalwaysĠaimingĠtoĠ":11745,"ĠalwaysĠremember":11746,"Ġlove.Ġbefor":11747,"Ġlove,Ġlov":11748,"Ġlove.ĠsheĠ":11749,"ĠlovelyĠthatĠyouĠhaveĠ":11750,"Ġlook!ĠiĠneedĠtoĠ":11751,"intoĠuphea":11752,"intoĠlocationsĠforĠdanceĠ":11753,"ĠshareĠwhatĠi":11754,"ĠallowedĠfour":11755,"ĠallowĠyouĠtoĠs":11756,"ĠallowedĠaĠlotĠof":11757,"ctober.Ġ\"":11758,"umberĠoneĠwayĠto":11759,"!ĠiâĢĻmĠsoĠexcit":11760,"!ĠiâĢĻmĠinĠloveĠ":11761,"!ĠiâĢĻmĠsoĠthankful":11762,"!ĠiâĢĻmĠsoĠsorryĠtoĠhear":11763,"ageĠprovid":11764,"ageĠnextĠyear":11765,"ageĠparticipant":11766,"ageĠrenalĠf":11767,"rivers,ĠandĠtheĠ":11768,"ĠhaveĠaĠsweet":11769,"ĠhaveĠaĠlistĠof":11770,"ĠhaveĠaĠgreatĠday!Ġamanda,Ġi":11771,"ĠcongressĠrat":11772,"Ġonline.ĠyouĠcan":11773,"ĠonlineĠtoĠbeĠmail":11774,"cleaning":11775,"clean,Ġnic":11776,"cleanĠandĠinvit":11777,"availableĠlate":11778,"ityĠtoĠinvadeĠandĠ":11779,"edĠbyĠtheĠcurrentĠ":11780,"prettyĠwiredĠangel":11781,"postsĠover":11782,"postedĠinformation":11783,"posts,ĠthisĠwasĠ":11784,"postureĠredu":11785,"ĠseeĠitĠnow":11786,"ĠseeĠwhenĠitĠcom":11787,"monthsĠor":11788,"months;ĠfirstĠ":11789,"month'sĠrevers":11790,".ĠbeĠitĠenacted,ĠthatĠtheĠpro":11791,".ĠbeĠitĠenacted,ĠthatĠtheĠcommissioner":11792,".ĠbeĠitĠenacted,ĠthatĠtheĠsaidĠcommissionersĠshall":11793,".ĠbeĠitĠenacted,ĠthatĠtheĠfirstĠ":11794,".ĠbeĠitĠenacted,ĠthatĠtheĠcitizensĠof":11795,".ĠbeĠitĠenacted,ĠthatĠallĠoffic":11796,".ĠbeĠitĠenacted,ĠthatĠtheĠsaidĠcommissioners,Ġbefor":11797,"nextĠround":11798,"nextĠproce":11799,"christmasĠtreeĠ":11800,"cheduled.ĠtheĠ":11801,"chedule.ĠiĠshouldĠ":11802,"!ĠweĠloveĠthatĠ":11803,"!ĠweĠusedĠtoĠ":11804,"!ĠweĠareĠhereĠ":11805,"180":11806,"185":11807,"affĠhasĠbeenĠgreat":11808,"badĠforĠtheĠ":11809,"byĠthisĠact":11810,"byĠandĠtak":11811,"byĠthemĠreceiv":11812,"byĠthisĠactĠ":11813,"byĠtheĠsaidĠcountyĠcourtĠofĠmeig":11814,"because":11815,"because!ĠthereĠisĠ":11816,"cause!ĠhappyĠfriday,Ġ":11817,"causeĠaĠtown":11818,"dr.ĠjanetĠduffy-anderson":11819,"dr.Ġton":11820,"dromeĠmask":11821,"d.Ġolder":11822,"d.ĠifĠnot":11823,"descriptions,Ġ":11824,"downsideĠ":11825,"downĠtheĠma":11826,"down.ĠhereĠisĠoneĠ":11827,"eightĠmil":11828,"eightĠyears,":11829,"eightĠdiningĠs":11830,"fastsĠgo":11831,"fastingâĢĻ":11832,"fullyĠfeat":11833,"fullyĠal":11834,"fullyĠex":11835,"growthĠandĠ":11836,"growingĠincidentĠratesĠ":11837,"hasn't":11838,"hasĠtheĠcapac":11839,"hasĠanĠetsyĠst":11840,"hasnâĢĻtĠmetĠ":11841,"hasĠaĠmedical":11842,"hisĠwood":11843,"hisĠco-star":11844,"iorĠshiiteĠ":11845,"ietĠwithoutĠ":11846,"iĠamĠafterĠ":11847,"iĠamĠhappyĠyouĠareĠenjoy":11848,"iĠamĠsoĠexcitedĠtoĠbeĠ":11849,"iousĠstagesĠ":11850,"iousĠliving/":11851,"justĠtooĠ":11852,"justĠthatĠmuch":11853,"leĠholdersĠlastĠyear":11854,"lastĠdecade.Ġ":11855,"meetingĠtheĠ":11856,"meetsĠc":11857,"mergingĠof":11858,"merchand":11859,"mer.Ġsamsung":11860,"ness,ĠiĠjustĠloveĠ":11861,"nessĠandĠlov":11862,"ologicalĠdepend":11863,"phoneĠandĠ":11864,"physical":11865,"payĠtoĠcollect":11866,"pectsĠofĠtheĠprogram":11867,"purchaseĠor":11868,"purchasedĠbyĠ[do":11869,"purchasedĠbyĠtheĠcurrentĠ":11870,"riskĠof":11871,"runk.Ġi":11872,"runningĠaĠs":11873,"runĠbusiness":11874,"scenic":11875,"seenĠin":11876,"sĠtheĠchristmasĠseason":11877,"sĠtheĠlaunch":11878,"sideĠthereĠ":11879,"side!ĠwithĠour":11880,"sideĠgyn":11881,"sideĠatĠtheĠnba":11882,"season!ĠhopeĠyouâĢĻreĠhavingĠaĠgreatĠ":11883,"seasonĠafterĠanĠ":11884,"ueĠstream":11885,"ueĠfromĠcrow":11886,"venatingĠtheĠ":11887,"y'sĠpat":11888,"eĠconvention":11889,"eĠconfetti":11890,"ĠteamĠmember":11891,"ĠaĠcustom":11892,"insettiaĠgrow":11893,"enanceĠwork":11894,"enanceĠstaff":11895,"ĠtheĠprocess":11896,"ĠsiteĠtheĠs":11897,"Ġsite.Ġnote:":11898,"ĠsomeĠcanc":11899,"ĠsomeĠpinkfreshĠstudio":11900,"ĠsomeĠinsp":11901,"ĠsomeĠofĠitĠ":11902,"reakfastĠ":11903,"reakĠtheĠfast.Ġw":11904,"itch.Ġb":11905,"yĠbecom":11906,"yĠbreakĠtheĠfast.Ġw":11907,"ingĠtable.Ġ":11908,"aturdayĠeven":11909,"atur,ĠinĠhonor":11910,"aryĠgeneral":11911,"aryĠloun":11912,"aryĠinĠsaidĠcountyĠofĠmeigs,":11913,"aryĠgroup.Ġto":11914,"ofessionallyĠauthor":11915,",ĠyouĠareĠtheĠb":11916,",ĠyouĠwillĠautomat":11917,",ĠyouâĢĻreĠright":11918,"es.ĠtoĠget":11919,"es.ĠthereĠisĠ":11920,"es.Ġalcoholism":11921,"es.ĠasĠo'haraĠs":11922,"es.ĠsoĠstar":11923,"omentsĠoffer":11924,"oment,ĠstemĠcellsĠ":11925,"omentsĠby":11926,"chairs.Ġhom":11927,"ingĠherĠroom":11928,"ingĠherĠthisĠholidayĠseason":11929,"ingĠherĠaĠloftĠb":11930,"lopedĠgif":11931,"lots,ĠpayableĠto":11932,"lotsĠofĠsparkl":11933,"lotsĠtoĠshareĠwith":11934,"edĠforĠtheĠelect":11935,"edĠforĠtheĠrestĠof":11936,"edĠforĠtheĠmost":11937,"edĠforĠtheĠveryĠdef":11938,"ĠwasĠmyĠgrandma":11939,"ĠwasĠparticular":11940,"eliverĠscoutingĠ":11941,"ĠbutĠitĠwasĠ":11942,"ĠbutĠunlessĠ":11943,"ĠbutĠveryĠfavor":11944,"emailingĠwasĠ":11945,"emailingĠlistĠ":11946,"ourne.Ġc":11947,"ourne,ĠwhereĠ":11948,"Ġfine.Ġas":11949,"uryĠhospitalityĠ":11950,"uryĠnotĠotherwiseĠ":11951,"idea.ĠhopeĠyou":11952,"idea!ĠsoĠpretty":11953,"ideaĠofĠsittingĠ":11954,"ressingĠtheĠpain":11955,"ressedĠwithĠaĠlittleĠ":11956,"irstĠappoint":11957,"hadĠsuchĠaĠth":11958,"grandpaĠisĠa":11959,"computer":11960,"ĠinĠtheĠpool":11961,"ĠinĠtheĠecosystem":11962,"ĠinĠtheĠus,":11963,"ĠinĠtheĠaccountĠ":11964,"ĠinĠtheĠeveningsĠwithĠtheĠ":11965,"ĠandĠtempor":11966,"ĠandĠtalentĠ":11967,"ĠandĠterrit":11968,"ĠandĠtightensĠeverythingĠ":11969,"ĠandĠturningĠthem":11970,"Ġreview,Ġhead":11971,"ĠreviewedĠand":11972,"Ġreviews.ĠtheĠimagesĠ":11973,"whatĠyourĠlocal":11974,"whereĠweâĢĻdĠbeĠ":11975,"whereĠyourĠpain":11976,"whereĠnoĠone":11977,"whereĠcreativityĠ":11978,"whichĠlast":11979,"whichĠiĠthink":11980,"whichĠsiteĠtheĠs":11981,"outĠgroupsĠbyĠ":11982,"ĠsheĠhasĠanĠetsyĠst":11983,"ĠshoulderĠdoes":11984,"ĠshoulderĠalign":11985,"pricelessĠ":11986,"price,Ġbut":11987,"priceĠofĠ$":11988,"Ġabout!Ġtoday":11989,"ĠaboutĠtheĠopen":11990,"ĠaboutĠanĠhour":11991,"Ġspaces.ĠforĠmoreĠinformation":11992,"eveyth":11993,"cordblood":11994,"cordialĠandĠprofessional":11995,"cordingĠtoĠhisĠ":11996,"ustomerĠm":11997,"ustomerĠs":11998,"ĠwithĠyou.Ġf":11999,"ĠwithĠyou!ĠiâĢĻmĠsoĠsorryĠtoĠhearĠaboutĠyourĠgrandma":12000,"ĠwithĠyou.Ġyou'll":12001,"willĠbenefitĠ":12002,"willĠbeĠbasedĠatĠtheĠ":12003,"ĠwhenĠter":12004,"ĠwhenĠiĠget":12005,"edĠbyĠthisĠact":12006,"edĠbyĠaĠstemĠcellĠtrans":12007,"edĠbyĠtheirĠvideoĠ":12008,"edĠbyĠsaidĠcourt":12009,"edĠbyĠanyĠoneĠof":12010,"makesĠmeĠ":12011,"makesĠyouĠfe":12012,"day,ĠblogĠfriends!":12013,"hotelĠlist":12014,"hotelĠpropert":12015,"hotelĠreserv":12016,"anceĠofĠhisĠ":12017,"anceĠofĠsav":12018,"anceĠofĠpsych":12019,"shallĠbeĠdepos":12020,"howeverĠtheyĠdoĠ":12021,"poolĠareas":12022,"pool.Ġwhil":12023,"pools.ĠtheĠmaintenanceĠ":12024,"cordĠbloodĠbanks.Ġwww.":12025,"cordĠbloodĠbanking,Ġit'sĠ":12026,"!ĠthankĠyouĠsoĠmuch,Ġre":12027,"!ĠthankĠyouĠsoĠmuchĠ!ĠsoĠfar":12028,"!ĠthankĠyouĠsoĠmuch,Ġjam":12029,"!ĠthankĠyouĠsoĠmuchĠforĠask":12030,"!ĠthankĠyouĠsoĠmuchĠshambr":12031,"happyĠiĠget":12032,"atehouse.ĠnoĠ":12033,",
[...]
