#version: 0.2
e Ġ
Ġ t
Ġ a
i n
Ġt h
s Ġ
e r
o n
t Ġ
d Ġ
o r
e n
Ġth eĠ
o u
a n
r e
Ġ s
a t
in g
i t
Ġa n
y Ġ
a l
. Ġ
a r
e s
o Ġ
o f
, Ġ
i c
i s
i on
Ġ c
o m
Ġan dĠ
t h
i l
e l
Ġ w
y ou
Ġ p
f or
s t
e dĠ
e d
Ġt oĠ
r o
c h
Ġ m
Ġ b
i sĠ
a s
en t
Ġ h
e c
â Ģ
o w
Ġ d
l e
u s
a c
o l
v eĠ
u r
Ġ f
i d
i m
e sĠ
it h
i g
v er
e m
Ġ in
e t
at ion
a tĠ
a m
Ġt o
u n
i r
l o
ing Ġ
l eĠ
a d
i f
w h
Ġ of
t er
al l
u l
o p
Ġa l
âĢ Ļ
il l
Ġa r
Ġ you
a y
Ġ g
e x
a g
eĠ th
re s
i tĠ
a b
h a
w ith
ou r
o s
Ġ n
Ġs t
u t
Ġan d
p l
Ġ l
a k
p ro
c om
en tĠ
eĠ t
Ġth atĠ
o t
Ġ <
s >
eĠ s
ig h
q u
u p
r i
eĠ of
Ġ re
a in
c on
e ar
ec t
r om
u m
ou n
. ĠtheĠ
Ġth isĠ
s .Ġ
Ġth e
p er
an d
a sĠ
u c
e w
i v
e .Ġ
es s
o o
e v
l yĠ
is t
a p
an dĠ
b e
sĠ of
Ġar eĠ
es t
th er
s Ġa
e p
s ,Ġ
Ġ for
er eĠ
a yĠ
ĠtheĠ s
en c
i veĠ
u d
e ,Ġ
w or
Ġt r
an c
Ġs h
el l
d er
Ġ on
ou l
Ġw h
Ġw ith
an t
c l
you r
Ġal l
o tĠ
o c
b eĠ
p or
Ġa sĠ
s ĠandĠ
w eĠ
g r
Ġa c
ar t
at eĠ
g h
e ver
i p
t ion
o ver
ou t
, ĠandĠ
en d
tĠ of
Ġp ro
ac k
âĢĻ sĠ
e a
f rom
b u
eĠ in
i al
ha veĠ
Ġc on
Ġ v
Ġ< /
Ġ< s>
s> Ġ<s>
sĠ in
p r
Ġyou r
e tĠ
2 0
l y
eĠth eĠ
s h
Ġa d
o d
ou gh
oul dĠ
e f
u st
ow n
o ther
w ill
Ġ r
ar d
b er
l i
Ġa t
f er
Ġc h
Ġa s
ab leĠ
ĠtheĠ m
Ġc om
c an
ic h
Ġ isĠ
eĠ m
w e
ou tĠ
Ġ or
it yĠ
a v
m ent
Ġa b
for m
it y
a il
ĠtheĠ c
ĠtheĠ f
, Ġs
Ġc an
u b
eĠ d
i z
ac t
n otĠ
is h
in d
eĠt oĠ
Ġth at
re c
an g
wor k
ĠtheĠ b
Ġ j
eĠ a
i es
Ġ k
eĠ andĠ
on g
por t
n ow
ig n
edĠ b
ed ĠtoĠ
in t
ĠtheĠ p
h er
er v
igh t
Ġ ex
a st
a veĠ
e .
eĠ c
s .
all yĠ
Ġ i
m an
Ġthe ir
es tĠ
Ġa p
en s
it ion
o k
Ġ lo
Ġs p
y ear
Ġa tĠ
d uc
i b
Ġ (
s oĠ
eĠ b
eĠ p
i a
com p
c re
ĠtheĠ d
t r
i esĠ
edĠ in
Ġ is
s ĠtoĠ
ic al
ic k
u ch
e as
Ġt im
n e
as s
us tĠ
bu tĠ
ing Ġa
' sĠ
e al
0 0
igh tĠ
ar k
o g
Ġp l
w asĠ
Ġa m
con t
o b
ul t
a f
y Ġs
. .
20 1
u re
v id
eĠ f
âĢ ľ
er sĠ
m ak
t oĠ
Ġ it
m entĠ
er s
Ġh aveĠ
e g
Ġw ill
l in
.Ġ i
v i
es sĠ
li k
m or
s p
Ġthe yĠ
âĢ Ŀ
ĠtheĠ t
ou s
i dĠ
a ch
Ġ le
com m
Ġth em
Ġth ereĠ
o st
at er
h ow
Ġa f
on eĠ
wh en
p os
en g
n ew
w ay
b r
l ow
el p
. Ġs
Ġa Ġs
be en
oun d
d o
sĠ for
a w
es ,Ġ
y ,Ġ
cl ud
t o
es .Ġ
wh ich
Ġ our
Ġ us
Ġf rom
ing ĠtheĠ
st r
erv ic
os tĠ
p le
e at
sĠ s
Ġto Ġs
in c
Ġw or
, ĠtheĠ
a dĠ
i enc
it t
Ġac c
Ġt ak
ing Ġs
ic ation
if Ġyou
r ough
eĠ for
o v
oo dĠ
Ġ un
ro w
an tĠ
eĠ h
p res
Ġth an
d r
n ot
f ul
Ġa g
e op
Ġth es
y .Ġ
u g
ing ĠtoĠ
an s
yĠ of
b ut
ing Ġin
g o
o ol
i re
Ġa Ġp
ev en
Ġto ĠtheĠ
t ain
l l
a us
s tĠ
ea ch
is s
ar g
re m
ar eĠ
âĢ ĵ
ver s
âĢĻ tĠ
oo k
) .
el yĠ
w ell
as tĠ
Ġan Ġ
Ġt e
u sĠ
ur eĠ
Ġal soĠ
s ,
i an
ĠandĠ s
e ,
Ġ itĠ
in ter
e y
ect ion
Ġb eĠ
at edĠ
u al
Ġa Ġf
in k
ha sĠ
1 9
eĠt o
e k
p h
Ġm or
a re
Ġ res
om eĠ
em ber
b o
ur n
s id
f ic
s ĠareĠ
en er
ar dĠ
ĠtheĠ h
d ay
re g
s el
ou sĠ
y st
ro om
Ġa Ġb
w as
you Ġcan
Ġth rough
em p
r ic
Ġm yĠ
m yĠ
Ġw asĠ
eop leĠ
oo d
re at
Ġad d
Ġn ew
oun dĠ
Ġaf ter
. ĠthisĠ
m on
pro vid
ec tĠ
m in
e b
ĠtheĠ l
Ġt w
Ġa Ġc
es ĠandĠ
a ir
Ġab outĠ
Ġn e
Ġa Ġ
ag eĠ
p re
oun t
Ġas s
f in
wh atĠ
b ec
re ad
f l
i k
ing Ġp
Ġan yĠ
Ġa Ġm
us in
el op
es ign
g et
sĠ on
e el
le t
lo c
e th
wh oĠ
at a
y p
e -
em ent
ing ,Ġ
edĠ with
form ation
d is
ev elop
edĠ on
lo ok
Ġof ĠtheĠ
d on
in ĠtheĠ
sĠ with
esĠ of
c ess
en dĠ
am p
eĠth atĠ
ing ĠandĠ
j o
pl ac
ation al
ar yĠ
p ar
h elp
at ch
r it
w ereĠ
or d
b yĠ
ul ar
Ġth en
s o
s e
ol og
yst em
ver yĠ
edĠb y
ing Ġb
Ġg r
ing Ġm
u tĠ
Ġh er
Ġ year
ar i
un der
it sĠ
ib leĠ
eĠ isĠ
Ġa Ġl
Ġwor k
s on
ol l
e ep
Ġa sĠa
Ġa Ġd
i x
ow er
an n
f ir
Ġthe y
in clud
y ĠandĠ
at or
lo s
el i
Ġcom p
gr am
' tĠ
ing .Ġ
Ġth is
m e
v is
per ienc
d i
ub l
pro duc
vi ew
e yĠ
w ouldĠ
n oĠ
Ġp r
ĠtheĠ g
eĠ on
if ic
1 0
if fer
an yĠ
ar n
edĠb yĠ
ing Ġc
re qu
Ġs e
, Ġand
Ġac t
sh ip
as h
s Ġand
u th
Ġcon t
ed .Ġ
a z
ec on
k now
ou p
Ġb e
eĠ with
qu al
ever y
ed Ġto
ri v
Ġ up
re atĠ
ol dĠ
ter n
s c
all y
ingĠ for
j ect
r at
s ĠthatĠ
h eĠ
eĠ you
ĠtheĠ n
) ,
Ġa Ġg
il d
g an
Ġat t
c ar
al k
ear ch
j ustĠ
d oĠ
ro s
ust om
id ent
ha p
in Ġ
e ther
re t
c o
y ĠtoĠ
Ġan y
ur r
am il
Ġh isĠ
Ġp er
g etĠ
b l
Ġwh ich
ut ion
b as
g u
a x
f r
ing Ġd
c r
,Ġ m
s it
f ect
Ġc l
Ġh asĠ
Ġth er
ch n
edĠ for
ch ool
Ġh ow
Ġ op
eal th
p art
Ġs om
n er
wh il
an k
Ġ other
dĠ of
p on
ol d
e ad
as eĠ
v el
u f
t on
Ġre c
lo y
h isĠ
es ĠtoĠ
le g
ingĠ on
Ġst ud
ent er
ess ion
ec k
ingĠ of
Ġap pl
h igh
sĠ m
,Ġ i
Ġth os
em entĠ
re l
Ġap p
at h
.Ġ m
ch ang
.Ġ itĠ
b ack
m er
b le
ri p
Ġd is
20 0
ex t
el ect
p ect
a id
i ent
sel f
un d
s om
y s
ed ,Ġ
.Ġ weĠ
per t
am eĠ
al u
Ġs up
Ġm on
Ġthes eĠ
ap p
f ac
e .ĠtheĠ
ic t
c al
anc eĠ
Ġa Ġh
s Ġto
wor l
at iveĠ
um p
Ġ im
ac tĠ
Ġm ak
ation Ġof
c er
Ġth ink
it ies
re d
st or
ol low
emp loy
Ġw eĠ
on eĠof
ĠtheĠ r
Ġin d
con s
Ġs ervic
Ġb o
ab il
Ġa v
Ġab out
sĠ from
pl ay
Ġwh en
our c
d ayĠ
,Ġ butĠ
Ġ y
ar m
esĠ in
et er
c or
r a
.Ġ in
m all
ityĠ of
s .ĠtheĠ
n o
ar tĠ
Ġf in
re eĠ
Ġd o
um ber
r eĠ
is ion
at ur
et t
ĠtheĠ w
o int
at t
ed ĠandĠ
un t
.. .
m ed
wh ereĠ
on lyĠ
m uch
r yĠ
r on
st and
Ġsp ec
r y
it al
oul d
t en
Ġ -
Ġa Ġw
b y
m ad
th eĠ
Ġar t
ro p
Ġtw oĠ
ab le
rec t
s ur
u res
es .
Ġ over
Ġtr ans
i qu
e qu
we en
d ec
Ġp art
ul l
n âĢĻtĠ
it ch
ne ed
v ent
if i
oc k
et ween
of f
be for
d own
ant ĠtoĠ
Ġcom m
is tĠ
Ġm in
ol ution
ur ch
Ġte chn
ing Ġto
Ġm an
im port
.Ġ h
our s
Ġ en
for t
ol or
l if
sĠ or
edĠ s
Ġst r
Ġb r
bec aus
itĠ isĠ
Ġpro duc
Ġth ough
5 0
a ,Ġ
ing Ġf
ic eĠ
res s
o veĠ
in u
Ġthan k
l ong
Ġof Ġ
Ġand ĠtheĠ
ep t
est ion
oc i
c le
Ġa re
ing Ġh
Ġp h
i el
Ġw ouldĠ
Ġd i
ex perienc
in eĠ
ble m
Ġwh atĠ
pr of
itt leĠ
a idĠ
ark et
g iv
v ol
at ed
k eep
et ter
Ġall ow
str uc
Ġb yĠ
âĢ Ķ
e h
op en
eĠs h
ri end
j ust
Ġd on
a h
por tĠ
it eĠ
Ġte am
l ight
sĠ (
Ġs oĠ
ha dĠ
ever yĠ
c over
at her
Ġag ain
in st
ing Ġwith
3 0
ĠtoĠ beĠ
ro ll
l and
s ,ĠandĠ
Ġth ing
ir stĠ
ers on
ubl ic
e er
i o
p ec
Ġk now
Ġb usin
Ġit sĠ
m ostĠ
st at
e eĠ
t im
Ġa w
ar y
per son
i er
e an
ap h
i vers
m ayĠ
iv id
p eopleĠ
ro l
Ġst or
Ġ out
Ġal so
: Ġ
k in
v ir
mor eĠ
im p
ĠasĠ well
s ĠtheĠ
pro gram
Ġ qu
uc k
Ġw as
d esign
Ġw e
Ġm ayĠ
eĠof ĠtheĠ
pon s
ex tĠ
,Ġ you
Ġd ay
iss ion
Ġt yp
lo g
v est
w er
ab l
g ener
edĠ m
al Ġ
we b
comm un
iffer entĠ
ed ĠtheĠ
we ek
u allyĠ
, Ġa
it iesĠ
ail ableĠ
man ag
us h
ef fect
1 2
d evelop
ex c
c all
or t
eĠth an
Ġat ĠtheĠ
Ġin ter
st ud
Ġin ĠtheĠ
u it
ol ic
pres ent
h as
in n
eĠ your
el y
,Ġ which
Ġal way
Ġs c
Ġh elp
sid er
Ġan other
le arn
how ever
ec ur
wh at
Ġn otĠ
ed uc
Ġl if
g er
man yĠ
Ġg u
Ġc ar
t t
Ġa ir
op er
Ġl ik
Ġsh ow
un n
g l
Ġsh eĠ
as on
le ad
Ġre g
d ition
n am
esĠ for
Ġt urn
ed g
Ġto p
d ur
gan iz
Ġin Ġ
Ġt er
is m
ev ent
i um
will Ġb
Ġd ec
00 0
.Ġ you
,Ġ p
ingĠ your
Ġ âĢĵ
Ġa ut
pro v
Ġ own
er ic
at ter
o Ġs
eĠ itĠ
,Ġ h
comp an
eĠt r
Ġadd ition
on ĠtheĠ
Ġc r
re p
hap p
d ep
l a
as k
is ter
ot t
f il
r al
eĠ and
Ġh igh
Ġtr ain
ession al
Ġg o
n or
sĠ b
ri but
it or
e !
,Ġ or
y m
es c
requ ire
e âĢĻsĠ
Ġf r
Ġad v
e ak
Ġh om
un ch
ist or
pos s
Ġlo ok
a ut
l im
ch eck
dr en
il dren
Ġm ed
Ġb u
le as
if ication
! !
e u
en ef
id eĠ
worl d
a j
Ġne ed
Ġpl ac
Ġst at
Ġ ro
Ġn ot
in al
ou tĠof
it âĢĻsĠ
,Ġ weĠ
Ġsh ouldĠ
haveĠ a
h om
o ic
v en
Ġp ar
cre as
un c
Ġs o
Ġre l
s up
eĠ w
re dĠ
es ,
Ġp erson
Ġd oĠ
is Ġa
o in
Ġtr ad
1 5
k ill
sĠ c
Ġan n
Ġp eopleĠ
et ail
oc ial
sĠof ĠtheĠ
ac tion
im pl
y .
Ġa uth
sĠ you
i at
Ġ if
e ed
l essĠ
t e
iss u
ent lyĠ
int o
m ain
id e
pl an
ustom er
Ġ "
st ill
Ġor der
g iveĠ
ist r
ĠtheĠm ostĠ
ater ial
re am
es ĠareĠ
,Ġ d
th ing
all eng
Ġmor eĠ
1 8
r ang
er t
ĠandĠ p
ent al
.Ġ p
of t
ent sĠ
pro c
Ġs al
Ġw eb
b al
w ard
if ul
e.Ġ i
r ist
Ġ âĢľ
.Ġ ifĠyou
Ġthos eĠ
f ectĠ
.Ġ d
Ġc o
haveĠ been
Ġst art
e veĠ
n et
Ġin st
Ġpro vid
pr ic
f re
ent ial
Ġj ustĠ
ast er
bo th
en jo
comp let
re al
ic ip
gr aph
g row
re ak
,Ġ b
hasĠ been
, âĢĿ
2 5
s ,Ġs
od el
fir stĠ
f ollow
s u
,Ġ c
âĢ ĺ
eĠth at
a Ġ
.Ġ b
Ġp res
wh er
on -
es ĠthatĠ
of fer
ha v
a u
i or
l ist
sĠ can
tr act
1 1
v alu
cont inu
lik eĠ
Ġal ong
ex p
Ġpro gram
will ĠbeĠ
Ġas k
e ?
e ir
g re
Ġa Ġt
c as
w ater
eĠ or
Ġa Ġn
oun c
uch ĠasĠ
Ġa Ġv
it edĠ
Ġd ata
bu ild
Ġappl ication
d ef
h ous
le vel
per form
gr oup
ivid ual
w in
e ,ĠandĠ
over n
f eel
pres s
w ar
Â Ń
- s
a per
Ġcomm un
b or
r is
esĠ with
con sider
Ġb l
Ġb ack
' veĠ
ot o
um an
in formation
ill ion
ableĠ toĠ
Ġact iv
u k
eas on
r ight
s Ġar
Ġtechn olog
k n
Ġa Ġlo
ĠtheĠb estĠ
h ear
yĠ c
âĢĻ ll
av el
eli ver
a .Ġ
. "
h and
Ġex perienc
e br
at ic
us s
Ġun der
i allyĠ
st art
Ġb y
res pons
oun tr
' ll
g oĠ
j ectĠ
l aw
Ġs ystem
Ġs chool
Ġb utĠ
Ġcon s
ed .
ĠthatĠ you
rec e
unc tion
w ayĠ
ĠandĠ m
Ġp re
e et
ou th
il dĠ
âĢĻ veĠ
uc cess
af f
vir on
a im
g ether
n ever
Ġs it
Ġs ub
at iv
pro t
ity ĠtoĠ
b ook
w ant
ĠandĠ d
Ġd esign
. ,
g oodĠ
h im
Ġ each
ĠandĠ c
el ow
ing .
ĠandĠ f
Ġd own
fer enc
Ġap pro
n 'tĠ
o os
eĠt im
qu estion
ib il
Ġthey ĠareĠ
produc t
re allyĠ
ing Ġt
ul ation
Ġa Ġre
lo veĠ
, Ġt
b in
Ġan Ġin
im ag
vers ion
eĠ from
,Ġ f
n ational
Ð ¾
sĠ d
on c
em ail
Ġacc ess
c ent
l iv
av or
.Ġ for
gr ad
port un
n ess
Ġto day
1 00
ac ter
op tion
eĠof Ġ
ev ic
Ġd r
Ġd evelop
âĢĻ sĠa
Ġlo veĠ
m ember
Ġin formation
ri b
aj or
e :
Ġh as
mentĠ of
g am
ĠtheĠf irstĠ
ug g
' m
ic leĠ
r ightĠ
Ġ &
st er
âĢĻ reĠ
l ess
on ly
res earch
Ġand Ġt
Ġspec ial
c ouldĠ
i entĠ
i ousĠ
ĠtoĠ d
c ur
eĠ i
le x
ist ic
Ġb ec
ation .Ġ
,Ġs oĠ
i oĠ
,Ġ itĠ
ch i
âĢĻ s
Ġg et
Ġam eric
me an
c k
p ut
leĠ of
tĠof ĠtheĠ
ob il
loc k
l edg
Ġa Ġnew
s Ġthat
res h
sh ouldĠ
sp ec
v ari
eĠth eĠs
ri ver
equ ip
1 6
o ot
Ġs er
lo ad
e e
at esĠ
om en
if y
ĠthereĠ ar
h ad
Ġh ealth
pro blem
pr is
econ om
eĠth isĠ
er c
yĠ for
ap t
m ar
Ġ ifĠyou
sĠ p
Ġs ign
,Ġ in
ic ular
be aut
urch as
eĠ is
ro ad
h ol
ver t
Ġwh oĠ
cre d
wh o
Ġst and
f amil
g reatĠ
n g
in it
us ic
con n
s :
Ġth re
,Ġ with
pro cess
vid e
unt il
f ind
em b
ubl ish
act ic
c ount
o il
Ġan Ġex
Ġc ouldĠ
Ġh adĠ
19 9
t or
al soĠ
ĠtheĠs am
Ġgr oup
id entĠ
un ivers
pl ain
Ġsh op
Ġpl an
1 4
Ġf l
econ dĠ
Ġther e
Ġan al
ur ther
eng th
or der
Ġv i
umber Ġof
eĠ (
eĠ an
ing ĠthatĠ
edĠ from
Ġm ar
Ġf re
Ġmon th
2 4
w rit
or k
es ĠtheĠ
esĠ on
ingĠ you
ingĠ up
ĠaĠf ew
ou ch
qu ick
Ġon ĠtheĠ
Ġcomp an
struc tion
h ead
it iveĠ
yĠ in
.Ġ if
res ult
edĠ p
Ġb as
Ġh our
c los
r un
id enc
Ġpl ay
Ġalway sĠ
b eĠs
en n
s ervic
os p
Ġwh il
Ġpr of
w w
y l
Ġre qu
be g
Ġwh at
employ e
Ġproduc t
1 3
Ġf amil
âĢĻ m
Ġar ound
Ġmin ut
i -
i ec
Ġt alk
edĠ up
sĠa b
Ġacc ord
fin dĠ
1 7
el f
e en
h on
bec om
ganiz ation
w r
re ason
ent ion
Ġle ad
ros s
h ealth
cre ateĠ
when Ġyou
o x
Ġ even
sĠ isĠ
at ing
us er
inc eĠ
c urr
p ost
ec ess
Ġ Ð
.Ġ f
ch ar
Ġm ember
Ġh ad
le tĠ
og n
educ ation
l arg
Ġg etĠ
qual ityĠ
l ightĠ
l astĠ
s er
Ġf il
Ġin to
Ġ el
ch alleng
ĠtheĠt im
d ata
es s.Ġ
Ġch ang
atur al
p ri
Ġw ay
id ea
cl ick
ard en
m ark
Ġam az
Ġtak eĠ
it 'sĠ
b ab
j ob
yĠ m
cont rol
a i
Ġar oundĠ
ever al
Ġav ailableĠ
g ood
r or
or g
en der
es sĠof
Ġof f
ri veĠ
enjo y
o der
re ach
Ġf ac
esĠ s
can Ġb
ens iveĠ
b usin
for ĠtheĠ
di rect
Ġare a
y n
,Ġ but
ith er
lo v
ĠthereĠ isĠ
ple aseĠ
iel d
re port
es .ĠtheĠ
ĠandĠ i
f eat
u ter
Ġh ous
Ġst ill
ot ion
eng in
whil eĠ
vol v
m al
Ġs ur
.Ġ w
ex pect
est abl
eter min
establ ish
f riend
ĠtoĠ mak
ir st
int oĠ
Ġsp ac
c oll
il yĠ
ent ic
ur pos
if t
ul tĠ
itch en
inst all
viron ment
sĠ haveĠ
id d
uf act
Ġwe ek
Ġn oĠ
Ġn ow
Ġl iv
m et
Ġ every
sĠ will
ol leg
Ġre al
um ent
can ĠbeĠ
act or
Ġtim eĠ
lin k
lin eĠ
o h
Ġt ow
Ġt each
Ġc ours
for c
ent ly
ur al
ir l
um mer
low er
. com
is ĠtheĠ
ef ul
imp leĠ
Ġp at
Ġcom ple
! Ġi
on der
id g
Ġtr avel
from ĠtheĠ
Ġin clud
Ġg oodĠ
Ġl aw
sĠ wereĠ
ol it
ĠthatĠ isĠ
ear lyĠ
ne edĠtoĠ
th ough
with ĠtheĠ
Ġex am
emp t
econ d
ĠtoĠ p
Ġh and
eĠth eir
sĠa tĠ
edĠby ĠtheĠ
kn own
f ar
Ġan t
Ġc or
wh ether
ab or
sĠin ĠtheĠ
a it
Ġw ell
ch ed
loc al
u eĠ
y ,
Ġw ant
Ġtr y
ener g
Ġ u
ing leĠ
Ġto ol
eĠs p
iesĠ of
ple as
a Ġs
Ġt ell
er g
en ough
ĠtoĠ m
âĢĻ r
af et
h ea
r am
Ġt est
re st
ing Ġfrom
al i
es pec
,Ġ w
Ġof fer
wor d
Ġag re
Ġne edĠtoĠ
Ġweb sit
b estĠ
c ard
Ġs uch
Ġfor ĠtheĠ
Ġc li
et c
giv en
le an
op portun
Ġwor l
m ission
o on
.Ġ butĠ
es Ġand
Ġc as
Ġg am
con f
web sit
Ġpro c
comm end
Ġbe for
Ġbo th
uccess ful
at eg
you Ġwill
em or
et im
prof essional
al f
ad d
Ġar eĠs
Ġyou Ġcan
ed d
Ġin t
Ġto gether
ir eĠ
m ov
.Ġ âĢľ
st ep
ens ion
cle an
Ġa Ġr
er ,Ġ
es ter
Ġw ater
Ġm anyĠ
anc ial
Ġbusin essĠ
person al
ing sĠ
ut ter
Ġpro blem
au gh
beaut iful
e atĠ
Ġre ad
ity ĠandĠ
cre en
Ġle vel
Ġp os
ol der
ation ship
lo t
oin tĠ
- p
c olor
e ,Ġs
f ter
Ġs omeĠ
Ġw antĠtoĠ
le f
le sĠ
s.Ġ i
ap pl
uf f
ple ment
4 0
il ar
ir c
ĠthisĠ isĠ
cont ain
mor eĠthan
en ch
ou b
Ġs m
Ġf eel
Ġwith ĠtheĠ
Ġthat ĠtheĠ
do or
do esĠ
istr ation
a uth
m a
Ġ $
' s
. Ġa
Ġc ount
eĠth em
um b
do es
ĠasĠwell ĠasĠ
.Ġ our
am er
eĠth eyĠ
os tĠof
oun tĠ
Ġas ĠtheĠ
ast ic
get t
don âĢĻtĠ
s !
.Ġ c
Ġg ener
Ġv is
er s,Ġ
ed ĠthatĠ
wh yĠ
beĠ a
ful l
Ġh im
cl us
Ġch ildren
ĠtheĠt op
g ot
Ġt our
es Ġto
im ilar
Ġv ari
Ġass oci
f ill
Ð µ
Ġd ef
us eĠ
lo or
âĢĻ t
cl ass
ĠhaveĠ a
go ingĠtoĠ
ire dĠ
Ġbusin ess
eu rop
p ass
w atch
of ĠtheĠ
ĠandĠ b
ĠatĠ le
ib le
cer n
vent ion
, "
Ġ z
in ation
,Ġ n
pro ject
Ġre t
e ither
tr a
Ġperson al
oder n
s ?
is eĠ
ĠandĠ h
Ġof fic
pl ayĠ
uc c
sĠa sĠ
ure dĠ
fir m
import antĠ
poss ibleĠ
w antĠtoĠ
Ġs w
Ġall Ġof
Ġac tion
eth od
Ġthank Ġyou
0 9
d u
y leĠ
er al
re duc
Ġw ereĠ
Ġd ur
âĢĻ dĠ
ind ust
Ġsp eak
Ġle g
gu id
worl dĠ
l andĠ
o or
s )
on Ġ
th atĠ
sh ow
ang u
dis c
ret urn
f ound
u x
for Ġ
edĠ c
ro duc
as sĠ
o dĠ
eĠ up
Ġh eĠ
Ġh av
Ġal read
pro pert
eop le
b ur
ens ur
inter est
p ower
t al
sĠ lik
el com
cl aim
ip p
ind ow
cre at
enef it
p ay
ing ĠtheĠs
Ġc ent
Ġc oll
uc t
Ġpro cess
Ġj ust
ĠthereĠ areĠ
l ittleĠ
in s
ing Ġthem
ch em
ri al
f oc
h ereĠ
ir dĠ
op ular
Ð¾ Ð
u leĠ
yĠ isĠ
ch oos
im m
Ġg reatĠ
sĠof Ġ
sĠa t
Ġtr ack
Ġman ag
v it
er Ġ
el ebr
eĠs ur
anc eĠof
pos ition
bas edĠon
a ur
e am
u ation
Ġb ut
im at
lo bal
eĠs om
s.Ġ weĠ
ure sĠ
me et
ĠhasĠ been
ed ĠasĠ
ol id
ir t
sĠandĠ s
Ġpro pert
Ġtw o
yĠ b
ed room
ingĠ or
Ġst ep
jo in
er .Ġ
ic allyĠ
ch rist
Ġacc ount
mon th
par tĠof
under stand
Ġstud ent
k ey
Ġb etween
ain t
ep end
Ġpro t
eĠm or
ob ject
happ en
m y
Ġs mall
Ġm arket
Ġl ong
ĠthatĠ i
up port
ann el
ĠaĠg reatĠ
6 0
Ġan s
em on
ot ential
oo g
Ġcon dition
2 2
n ia
p rom
Ġc olor
Ġto o
ag esĠ
Ġn or
bu y
sel v
- in
d at
m ay
Ġc all
ch arg
Ġto oĠ
ingĠ isĠ
iz edĠ
Ġter m
g ain
h el
Ġt em
ĠtoĠ your
per fectĠ
Ġch ar
ity ,Ġ
ach in
19 8
h ard
.ĠtheĠ s
Ġpro ject
ef fort
cont actĠ
ĠthereĠ is
b etter
on d
at form
Ġd ifferentĠ
ig ital
com pl
Ġex c
Ġwill Ġb
p utĠ
v al
Ð ¸
Ġa ud
ic tion
Ġl in
e.Ġ weĠ
Ġfor m
, ĠthisĠ
b all
Ð °
for nia
ac c
itĠ wasĠ
ity .Ġ
Ġauth or
d ist
ing Ġtheir
Ġb ook
fir st
ron ic
ufact ur
p at
w alk
yĠ with
Ġm et
Ġm illion
Ġof Ġs
pl ann
pro veĠ
itt en
i i
ir m
ab outĠ
oo th
comp et
b eli
g reat
Ġd ist
im um
am ag
Ġg re
eĠin ĠtheĠ
Ġwill ĠbeĠ
n ear
Ġ eas
it em
Ġm ustĠ
op p
pl or
edĠin ĠtheĠ
' reĠ
b ig
l ic
ro k
Ġd id
Ġg l
itĠ is
con dition
sĠa c
ea ut
Ġad dĠ
ember Ġ
d eal
s m
of fic
Ġc reat
Ġp ost
ch ildren
im al
Ġsh ar
bu il
Ġle arn
vis it
c ap
Ġ x
in vest
re present
.Ġ "
st ar
Ġst artĠ
Ġrec e
ecur ityĠ
ribut ion
net work
entic ator
espec iallyĠ
s ol
in a
or ig
Ġc over
Ġal though
ot el
row n
Ġass ist
Ġappro ach
eĠ g
es ,ĠandĠ
Ġm ad
et yĠof
if fic
ex am
od yĠ
ef fic
or tĠ
re view
al t
ec ut
Ġf riend
Ġin tern
oun tĠof
s>Ġ<s> Ġ
reg ion
reg ard
endĠ of
som eth
e z
n extĠ
Ġa chi
re leas
Ġw in
esĠ from
oun tain
Ġfor Ġ
haveĠ toĠ
Ġvi ew
e ac
e 'sĠ
f un
l iveĠ
in creas
it .Ġ
ed ,
oun ter
Ġv ide
Ġis su
af t
Ġbec aus
2 1
Ġm ay
Ġm uch
ur s
un itedĠ
ag eĠof
ep tĠ
Ġfin dĠ
l at
m ustĠ
Ġt reat
Ġth reeĠ
er tain
Ġb etter
ect or
ev entĠ
pr int
know ledg
. ĠasĠ
8 0
b ar
Ġm y
Ġam ong
ĠaĠl ittleĠ
Ġspec ific
Ġdon âĢĻtĠ
. ĠtheyĠ
n ecess
Ġst ateĠ
ear n
wor th
require d
rece iv
2 3
d om
h op
r ac
ing ton
ĠthisĠ s
impl yĠ
ris k
vert is
y -
ation sĠ
wh ol
sĠin clud
fl u
cle ar
d es
e )
ation ĠandĠ
itĠ of
up er
leg al
Ġstr ong
i am
re commend
.Ġ with
ĠtheĠs ameĠ
out ĠtheĠ
comp anyĠ
eng ag
go al
Ġop er
. Ġt
.Ġ when
,Ġ l
et work
ut il
Ġon lyĠ
look ingĠfor
gre en
. ĠandĠ
re adĠ
Ġh ear
our n
import ant
d en
w oĠ
ing ,
ed Ġa
ad v
Ġar ch
Ġst rat
con c
sh op
rec ogn
Ġcont inu
main tain
y âĢĻsĠ
er s.Ġ
ter m
Ġres earch
Ġsup port
Ġadv anc
econom ic
if tĠ
Ġal tern
ord in
struc t
n umber
Ġ oc
il it
im ateĠ
un iqu
ul yĠ
Ġapp ear
sur anc
. âĢĿ
Ñ ģ
ep ar
rem ain
Ġy ork
. Ġall
w id
on lin
st ateĠ
ol ar
esĠ you
un g
effect iveĠ
tt p
Ġtrad ition
i od
p t
Ġc ap
Ġc amp
ĠtoĠ b
Ġto ok
ep tion
gr oundĠ
ly Ġs
s. ĠthisĠ
Ġlo cal
s, Ġand
eĠto ĠtheĠ
- c
n essĠ
re f
Ġp ass
edĠ f
ir d
ingĠ itĠ
Ġre allyĠ
Ġon eĠ
wouldĠ beĠ
ĠaĠg oodĠ
/ /
k id
m ightĠ
s omeĠ
sĠ f
Ġm e
Ġh istor
edĠin Ġ
comm itt
urn it
iffer ent
dep end
n es
Ġ veryĠ
,Ġ g
Ġp ric
Ġin vest
enc our
ip leĠ
Ġdon 'tĠ
esc rib
Ġans wer
u .
in Ġs
ing ĠthisĠ
.Ġ youĠcan
ch e
Ġm ov
lo adĠ
ex ist
Ġre p
Ġr ight
rec ord
eĠb yĠ
mak eĠ
d el
l ater
Ġt ouch
en vironment
ing Ġw
Ġin toĠ
eĠt ak
Ġad min
e. ĠthisĠ
ous lyĠ
are d
riv ateĠ
rip tion
n ic
um er
oc ument
pr actic
eĠm an
9 0
e ,ĠtheĠ
l ish
r ad
r ain
s k
of ten
om ent
Ġp ay
Ġp oint
Ġf eat
Ġall ĠtheĠ
av ailableĠ
doĠ notĠ
Ġaut om
. Ġafter
a is
ĠhaveĠ toĠ
ĠtoĠs e
Ġper form
bl ack
conn ect
s or
Ġ outĠ
in ner
an Ġ
.Ġ k
st andĠ
Ġg row
gr ound
pr im
Ġab leĠ
ark etĠ
eat h
Ġmed ia
Ġcomple t
p ack
Ġa Ġch
Ġs ay
ic at
Ġp ower
Ġn ational
pl ant
Ġop en
iel dĠ
Ġalong Ġwith
Ġstrat eg
) Ġ
, Ġthen
j ur
o ,Ġ
u ally
ĠtoĠ c
Ġh app
le ep
Ġf irstĠ
ingĠ room
res sĠ
ind ividual
Ġtak eĠa
bo x
f all
l es
l am
t il
en u
.Ġ it
el ection
ro ck
us edĠ
Ġact uallyĠ
abil ity
b etween
i ou
Ġt rip
you ĠareĠ
Ġp ublic
eng lish
Ġmor eĠthan
ys ical
Ġind ividual
ounc il
' sĠa
a .
a ign
or s
Ġf ind
Ġf ull
qu it
ableĠ to
ure d
comm on
vis ion
iffer enc
befor eĠ
Ġanal ys
d id
m ost
m arket
u le
er veĠ
er ship
Ġs aidĠ
is k
ed ĠatĠ
âĢ ¢
Ġd ep
ud g
e,Ġ i
Ġwh ereĠ
d ifferentĠ
g overn
r en
on don
Ġc ustomer
Ġh op
et ic
ation ,Ġ
ies ĠandĠ
: //
b on
d idĠ
d eliver
e em
v an
Ñ Ĥ
re v
Ġs et
Ġp ark
ed .ĠtheĠ
ur b
our t
Ġl arg
eĠs aid
eĠof fer
sp ir
w is
y c
y Ġsh
er sĠandĠ
Ġb ar
im prov
esĠ or
all yĠs
com fort
rec tĠ
ibleĠ for
rat her
ifi edĠ
char acter
p oint
eĠ wasĠ
ing Ġand
ĠtoĠ getĠ
Ġre m
weĠ can
over Ġ
eĠin formation
ign ific
sp ect
Ġwor d
dr aw
Ġaw ayĠ
Ġaddition al
oog leĠ
c aus
l or
v ia
Ð ½
ic le
el s
Ġm ightĠ
Ġm aterial
Ġn etwork
ut t
ough t
.Ġs oĠ
fin ish
pon d
elect ric
Ġsup pl
cer tain
- m
w all
Ġh omeĠ
weĠ haveĠ
Ġatt ack
part icip
, ĠasĠ
- f
5 00
b reak
p ag
s ystem
Ġc re
Ġm ostĠ
ingĠ our
Ġcl ass
cer t
Ġtow ard
' t
- d
c a
c are
w oodĠ
y Ġand
sĠ us
Ġs aid
for d
s.Ġ in
eĠd o
eg re
atedĠ with
ph on
don 'tĠ
Ġsom eth
i ateĠ
m atter
an ch
st on
ag n
ĠtheĠs p
oc tor
Ġatt end
off e
Ġthough t
Ġqu estion
Ġprof essional
Ġexam ple
r ich
ed ĠtoĠtheĠ
Ġm ain
wh it
oc ol
pr inc
ĠitĠ isĠ
Ġameric an
. Ġsh
s et
in dĠ
qu ar
ult ipleĠ
loc ation
Ġcli ent
e oneĠ
h ib
i anc
n ight
on t
Ġs id
ing ĠatĠ
Ġc urr
th ingĠ
ro y
all y,Ġ
iv al
Ġdi rect
olit ical
ĠatĠle astĠ
y Ġto
ing Ġan
.Ġ heĠ
Ġb eg
ul b
ev alu
Ġv ol
abil ityĠ
lim it
oto graph
osp ital
- up
2 6
a uc
h am
k itchen
u aryĠ
sĠ up
is tĠof
ies .Ġ
eĠandĠ s
ers ĠareĠ
qual ity
Ġind ust
sĠab outĠ
g otĠ
Ã ©
Ġt own
or n
,Ġ j
is c
Ġc ustom
Ġp olic
for Ġyou
Ġm ean
Ġd idĠ
ex pert
Ġn am
Ġst aff
eĠs oĠ
Ġac ros
Ġv alu
eb ook
rep air
ou d
re et
Ġs ocial
ing ĠtheĠd
.Ġ n
ĠandĠ w
el ev
Ġw rit
ĠtoĠ f
Ġd el
Ġf ollow
notĠ beĠ
ob tain
se em
iffic ult
- bas
e um
w areĠ
Ġ usĠ
yĠ f
om an
ro adĠ
provid eĠ
unt eer
however ,Ġ
Ġann ual
a âĢĻsĠ
m atch
s âĢĻ
y .ĠtheĠ
Ġ ...
sĠ is
er ver
at edĠin
it ution
le ar
entĠ of
eĠm on
iz eĠ
ire d
ĠaĠlo tĠof
h istor
l ack
m m
w ood
id eal
if f
Ġon eĠof
Ġex p
stud ent
4 5
r unn
in Ġyour
.Ġ g
.Ġ j
Ġc ert
ĠtoĠ help
Ġb ig
Ġd etail
ur eĠof
em erg
Ġar tĠ
enc eĠ
ell ow
ult ural
inter national
elect ronic
engin eer
Ġalread yĠ
s y
Ġt ri
Ġt ax
er ĠandĠ
it ut
st ock
edĠ of
Ġm odel
im plement
op h
Ġl astĠ
be ing
rec tion
ĠtheĠp h
mayĠ beĠ
Ġbu ild
i Ġ
m eĠ
y er
Ġd u
us edĠtoĠ
ver ag
act iv
Ġis ĠtheĠ
.. ..
oci et
oper ation
" .
. ĠsheĠ
m en
s uch
Ġ *
re li
Ġan g
ar r
,Ġ for
,Ġ youĠcan
Ġc ol
Ġc ell
Ġd evic
ĠtheĠs h
ea v
yĠof ĠtheĠ
ĠtheĠh igh
eaut iful
unitedĠ stat
, ĠtheyĠ
v ill
Ġt re
sĠ whoĠ
at eĠtheĠ
st ant
Ġm us
Ġd ayĠ
us eĠof
ex plor
Ġst op
Ġl ight
ĠtheĠc ountr
when Ġi
ful lyĠ
reg ister
Ġcomp anyĠ
o vi
s ,ĠtheĠ
es p
edĠ or
edĠ out
Ġh uman
ow l
op t
Ġg iv
Ġl ist
Ġthat ĠtheyĠ
Ġk n
Ġex t
âĢĿ .
Ġgr ad
produc tion
Ġabout ĠtheĠ
nor th
te gr
ugg est
) ĠandĠ
- t
e gr
y et
in Ġf
sĠ âĢĵ
edĠ her
ingĠ it
ev idenc
Ġlo c
bo ardĠ
was h
.ĠthisĠ isĠ
med iat
' r
v eh
w ear
Ġs earch
at is
os s
Ġl a
Ġl ittleĠ
int roduc
ĠtoĠs eeĠ
let ter
Ġim ag
dec ision
i eĠ
Ġ room
ar ant
es h
le av
e,Ġ butĠ
over all
ĠtheĠf irst
Ġk eep
Ġ- -
ecur ity
Ġorder ĠtoĠ
busin essĠ
f air
i ation
p ublic
Ġf un
lo th
ri or
ell entĠ
Ġon lin
Ġtak en
rel ationship
.ĠitĠ isĠ
vide oĠ
o id
p ick
s erv
y t
y le
it er
.Ġ on
esĠ (
Ġal mostĠ
with outĠ
our ne
up pl
anc e,Ġ
ea dĠ
Ġj ob
duc t
vi ousĠ
ĠaĠs mall
olog ical
ĠaĠl arg
g ress
r id
or ganization
ing ĠtoĠtheĠ
Ġc los
Ġn o
Ġre view
ang er
e. Ġs
Ġcont rol
enter tain
ĠaĠh igh
spec ial
2 8
a ĠandĠ
c ustom
g en
n âĢĻt
p ark
Ġ event
sĠ which
tĠ in
us b
ag ain
eĠth rough
ĠthisĠ year
Ġtr u
ust ral
eĠh as
la unch
oub leĠ
7 0
c ol
d riv
m itt
n on-
Ġm ind
Ġm eet
un eĠ
itĠ was
ha ir
con cern
anc e.Ġ
sĠin Ġ
eas yĠtoĠ
Ġpl ann
Ġacc ept
rem ember
Ġhow ĠtoĠ
kin dĠof
onder ful
h omeĠ
n etĠ
n ov
p ublish
Ñ Ģ
or yĠ
es eĠ
Ġc lean
Ġp ag
for Ġyour
st aff
ed Ġat
un k
pro jectĠ
out sid
s>Ġ<s> ĠtheĠ
Ġad vertis
Ġthat âĢĻsĠ
Ġun ivers
e, Ġand
ett ing
effect iv
Ġann ounc
e ur
h y
h ar
i ous
m od
Ġs ourc
Ġh ead
ol v
Ġf our
ig ation
Ġg iveĠ
our tĠ
Ġn ever
be h
Ġcon n
Ġun til
ug ar
Ġdo esĠ
Ġart icleĠ
Ġbl ack
s ĠtoĠtheĠ
u itĠ
eĠ atĠ
ou dĠ
Ġs ens
Ġw alk
ch Ġ
com bin
ea dĠof
from Ġ
ber t
int egr
ra is
rece iveĠ
- tim
e chn
i pl
l ast
w ardĠ
ic ian
el in
ed ĠasĠa
Ġm il
im in
Ġst ar
entĠ in
ess ag
eĠin ter
eĠp h
ick et
19 6
commun ityĠ
g ar
s ub
eĠ it
Ġt ext
an el
ing ĠtheĠc
Ġf ew
Ġof Ġyour
res pond
cl ub
bo ard
Ġop tion
sur anceĠ
a ud
i ar
w ould
Ġth ous
al m
Ġp rom
ro t
ateĠ andĠ
Ġres ult
Ġres pons
long er
equip ment
angu ag
, Ġsh
c up
p ic
u el
u af
an a
es tĠof
Ġd eal
lo odĠ
ear th
ap pro
ĠtheĠs ervic
Ġlo v
Ġit em
rem ium
produc tĠ
ath room
exc it
c am
c ours
i Ġam
sĠ byĠ
ing .ĠtheĠ
.Ġ (
you ng
ch oic
ent r
im b
ab in
ot os
ess ential
eĠin Ġ
Ġab oveĠ
ail yĠ
Ġlo s
sĠon ĠtheĠ
ĠaĠl ong
doĠ you
Ġstud entsĠ
dec id
orig inal
ĠableĠ toĠ
3 5
e ign
f o
i res
s Ġt
w elcom
Ġa ug
re plac
Ġs olution
Ġs kill
at es
Ġc are
il Ġ
pro per
eĠs pec
Ġre port
ĠareĠ you
Ġv eh
ust ain
eĠd ay
comm erc
to ber
Ġres ourc
reg ular
Ġany oneĠ
part icular
Ġworl dĠ
sol ut
w itch
Ġa Ġcon
er yĠ
re a
ec ret
Ġd em
le aveĠ
Ġyou ĠareĠ
ay er
Ġg ood
ĠtheĠm ain
iz ation
eg g
Ġun iqu
rem ov
ĠtheĠl astĠ
pre tt
whatĠ you
ident ial
ourn al
) :
d etermin
i ĠwasĠ
r ation
w .
Ġ ever
en ior
Ġs k
it ter
,Ġ includ
Ġh ereĠ
os eĠ
Ġand Ġthen
weĠ areĠ
,Ġs o
Ġcan Ġb
lik eĠtoĠ
fort un
wr itten
f low
v oic
Ġs eason
Ġc red
th em
ed Ġthat
ec aus
le v
Ġto tal
eĠs ureĠ
ĠthisĠ is
e.Ġ in
ther n
to -
Ġass ess
se qu
urr ound
mer c
Ġen jo
roll er
. ĠtoĠ
a Ġc
a ul
d etail
l ab
Ġa Ġcom
or Ġ
of tĠ
ch air
all ow
be am
edĠtoĠ beĠ
ĠhaveĠ been
ingĠs ystem
dis cover
appl ication
a Ġb
e ek
Ġt on
er ror
ic ro
Ġw omen
im proveĠ
ad em
res ourc
be ingĠ
art ment
Ġch arg
ĠtheĠf ut
Ġit âĢĻsĠ
sp ac
Ġagain stĠ
f ig
f our
g irl
Ġt en
or Ġof
or ganiz
re w
ed eral
Ġf e
Ġin Ġs
Ġg overn
ex plain
ag u
oo tĠ
enc yĠ
ĠtheĠp res
eĠc all
mak eĠa
usĠ on
bas ic
Ġinter est
europ ean
2 7
e on
p m
p olic
Ġa pr
in o
er man
at ingĠ
el d
edĠ d
im ent
Ġar eĠtheĠ
ab out
per fect
sĠa s
eĠm ak
we et
s. Ġs
Ġlo tĠof
comm od
reat h
uf fer
Ġagain st
gener al
erc is
Ġthere for
encour ag
3 3
? Ġi
c ut
f urther
or dĠ
it ation
es :
el t
ch urch
com eĠ
Ġfor Ġyour
wor dĠ
Ġch eck
ĠtheĠb as
sĠtoĠ beĠ
way ĠtoĠ
Ġfrom ĠtheĠ
str ateg
amp leĠ
se en
rel at
cons ist
ide asĠ
, Ġst
- year
c ost
e ;
n atural
y etĠ
re fer
Ġs port
of Ġcours
,Ġ âĢľ
is on
Ġm od
ow der
Ġar m
Ġl and
ĠtheĠs c
Ġch oos
ableĠ andĠ
Ġtim eĠtoĠ
cont ent
af fic
ric tĠ
oll ar
gan is
ret t
oneĠof ĠtheĠ
Ġgu id
sup port
shouldĠ beĠ
bab lyĠ
h our
m as
s ;
s al
t m
Ġ âĢĶ
ing Ġthrough
th isĠ
Ġp ack
le aseĠ
Ġf ish
ver y
oun sel
ud d
ant ag
Ġcon tain
Ġad vis
Ġor Ġ
Ġor ganization
Ġab il
arg et
beg in
amer a
f a
h old
w on
eĠ asĠ
Ġt al
Ġa Ġst
an y
al way
al so
es Ġthat
Ġc enter
Ġb od
Ġb eli
if yĠ
ha vi
and sĠof
cl ient
etĠ up
Ġr un
eĠc ar
usin essĠ
Ġcomp uter
commun ication
Ġgo al
! Ġ
b log
c rit
k eyĠ
r um
sĠ i
ing Ġst
Ġb estĠ
Ġh on
id er
id eas
eĠth ereĠ
ap an
cl in
ĠasĠ you
ies ,Ġ
str ong
ix t
Ġcomp et
manag ementĠ
graph ic
list en
beg inn
ux ur
c ardĠ
g res
h uman
m eas
Ġ end
Ġt ask
in ar
yĠ d
.Ġ myĠ
ed ic
id ay
ir th
ab lyĠ
com ment
art mentĠ
.Ġs om
Ġhelp Ġyou
proc essĠ
prot ect
ww w.
emon str
- b
b eĠtheĠ
t op
Ġ everyĠ
Ġth irdĠ
Ġs ection
Ġb elow
ingĠ is
enc eĠof
anc er
Ġwh er
reg istration
Ġunder stand
elev ision
b est
i et
.Ġ whatĠ
,Ġ whoĠ
il t
be y
s,Ġ butĠ
your self
Ġpl ant
usin ess
Ġyear sĠ
Ġse eĠ
sc ap
Ġatt empt
Ġknow ledg
vide o
Ġchar acter
c c
e /
e tĠof
h n
p urchas
s ay
Ġa Ġsh
sĠ &
at ure
.Ġ but
,Ġ k
Ġc od
Ġof Ġm
ĠthatĠ weĠ
por ter
Ġv al
Ġk id
sĠm ayĠ
Ġdis c
ĠtheĠr ightĠ
Ġinst all
8 00
f oundĠ
o z
Ġt ast
in volv
ed Ġthrough
ad a
ex tra
ough tĠ
ail able
eĠd is
cont entĠ
Ġle t
sĠs uchĠasĠ
not ic
ĠaĠ veryĠ
ĠtheĠn extĠ
Ġper c
Ġsc ienc
Ġauth enticator
oft war
Ġret urn
lic ens
o -
t ak
Ġ =
Ġa Ġj
ĠtheĠ tr
al eĠ
Ġp urchas
ed Ġand
as c
Ġf irm
Ġto dayĠ
Ġn extĠ
notĠ onlyĠ
eĠb ack
eĠp art
Ġtim e.Ġ
Ġthem selv
rem oveĠ
ingĠp art
ash ion
rip t
cal i
busin ess
lef tĠ
aur ant
d em
f und
m aterial
o idĠ
w ait
or eĠ
.Ġ l
Ġc al
ec om
Ġd es
us uallyĠ
eĠth ey
pl atform
ot or
eĠs ervic
ly ,Ġ
lik eĠa
19 7
are dĠ
Ġadd ress
fin ancial
Ġatt ention
equip mentĠ
Ġworl d
beli eveĠ
Ġachi eveĠ
- -
/ or
2 9
f ew
g arden
m i
m us
p aper
y ĠthatĠ
Ġt v
re as
ing ,ĠandĠ
es ,Ġs
Ġc aus
Ġp eople
edĠ it
ed ĠtoĠs
ch an
Ġb reak
and id
e,Ġ which
Ġwith Ġ
Ġch rist
eĠm ayĠ
sĠfor ĠtheĠ
mon eyĠ
pre p
help Ġyou
bl u
Ġbo x
alĠ est
press ion
vari ousĠ
augh ter
Ġgener al
sy ch
c od
d ust
o ak
at eĠs
Ġc ost
ex act
Ġn ov
igh bor
Ġre ason
ist an
s,Ġ which
Ġwh o
por ateĠ
ass oci
mad eĠ
Ġtechn iqu
Ġthough tĠ
Ġstand ard
4 4
h ost
p opular
s -
w ish
it iv
Ġc ould
ur g
os ition
up portĠ
ear li
Ġch oic
Ġch annel
estĠ in
ĠtheĠd ay
Ġqu ick
ĠshouldĠ beĠ
grow th
respons ibleĠfor
does nâĢĻtĠ
fortun at
, ĠtheĠm
c amp
f unction
s aid
Ġ ]
Ġs ol
at e.Ġ
it ud
el tĠ
ur t
Ġf act
Ġto ĠtheĠs
Ġof ĠtheĠs
res pect
with in
s.Ġ m
sh eĠ
ĠtheĠb ack
ib lyĠ
bec omeĠ
jo hn
Ġfin ish
Ġstr uct
Ġaw ard
pri ateĠ
etim esĠ
Ġintern ational
arant e
. m
. Ġand
c op
h e
y ,ĠandĠ
on e.Ġ
ing oĠ
Ġp ict
Ġh ar
ul s
Ġar en
ha sĠs
gr and
Ġch alleng
ityĠ for
work Ġwith
Ġk itchen
eĠp res
comp uter
me etĠ
Ġapp oint
tract or
who ĠareĠ
ecut iveĠ
. ĠthatĠ
b i
b ank
h alf
o th
r im
r out
s olution
v ot
yĠ or
ic Ġ
Ġc ertain
ĠandĠ in
edĠ into
ĠtoĠ get
Ġf unction
em por
ingĠ out
per hap
sĠa fter
ea ster
ĠtheĠc as
mak esĠ
Ġaf ric
pos tĠ
br ing
so on
by ĠtheĠ
Ġpar tĠof
rang eĠof
uss ion
avor it
Ġtry ingĠtoĠ
lef t
a Ġd
e o
m it
p ain
Ġt u
ing ĠaboutĠ
.Ġ now
ĠandĠ other
el ig
Ġw indow
for dĠ
ec ision
ation Ġin
ab ric
Ġl ow
be ach
s,Ġ or
eĠd own
ĠitĠ com
Ġpart icip
manag ement
ott om
cas ion
ĠaĠv ari
def in
sĠthat ĠareĠ
init elyĠ
doesĠ notĠ
. c
c ul
i 'm
m oveĠ
Ġ qualityĠ
or ne
Ġs ha
Ġs iz
ing ĠtheĠm
es tern
Ġc am
ĠtoĠ you
ĠtoĠ us
Ġb ab
Ġf oodĠ
ation Ġfor
ag g
ri esĠ
ayĠ of
ell er
bu ildĠ
Ġcan ĠbeĠ
Ġus er
ph as
,Ġand ĠtheĠ
every oneĠ
ĠtheĠr ight
eĠsh ouldĠ
Ġreg ion
poss ible
Ġtradition al
e oĠ
i ally
n ightĠ
r up
s l
Â ®
in ion
ing ĠtheĠp
ĠandĠ st
ĠtoĠ keep
Ġf oc
Ġf ron
ver yĠs
Ġin Ġyour
up d
av our
eĠp eopleĠ
cont act
ĠaĠs ingleĠ
ĠtheĠl at
requ ir
Ġtrans fer
Ġthing sĠ
bor n
afet yĠ
quar ter
, ĠthatĠ
j u
m il
t u
w a
en h
re fl
ing Ġthat
.Ġ how
Ġp ol
ed ia
ag on
pro pos
ri ef
ell ig
Ġcon sider
eĠd esign
iesĠ in
19 5
require ment
elf -
Ġpat ient
ali fornia
cali fornia
, ĠtheĠs
n ut
r ap
r ank
z z
Ġa way
ing lyĠ
Ġc irc
om eth
ĠtoĠ haveĠ
ingĠ (
Ġyou ng
Ġst ock
Ġpro jectĠ
eĠm yĠ
ĠtheĠb o
Ġj an
eĠb y
amp ion
every thing
Ġsup er
dur ingĠtheĠ
Ġrel ationship
ĠthoseĠ whoĠ
famil yĠ
Ġfil m
foc us
c ustomer
h ensiveĠ
p iec
Ġ ent
er Ġof
er ia
you ĠhaveĠ
Ġm ethod
Ġf ut
up on
Ġr ad
eĠtoĠ beĠ
new Ġyork
Ġrec ord
Ġpart ner
Ġactiv ities
Ġaccord ingĠtoĠ
ched ul
7 5
d riveĠ
f ather
m iss
r idg
s ign
Ġ [
Ġ version
in tĠ
at al
Ġan imal
Ġc olleg
ro ther
ch ain
Ġm en
Ġto Ġa
Ġg ett
ag re
itĠ in
con ferenc
Ġtr affic
part ner
Ġover Ġ
becaus eĠ
Ġbu y
yĠsh ower
. Ġthis
8 8
c ook
e in
i Ġw
r ical
s Ġthrough
w are
re etĠ
Ġs pr
ch annel
le yĠ
ac cess
Ġf und
em otion
ingĠ outĠ
ex per
eĠth eĠt
Ġn on-
Ġst ay
Ġtr ust
Ġtr ail
ea f
ityĠ in
ment ion
ĠtheĠc ar
rec ip
Ġlo t
ĠtheĠh ous
every th
fil m
ĠthereĠisĠ noĠ
hea dĠ
flu enc
che ap
k ind
l edĠ
Ġ outĠof
ing s,Ġ
ing ĠtheĠb
ar yĠs
ic ag
el ement
ed ition
ĠtoĠ do
Ġm obil
ingĠ g
ag az
Ġl im
con tr
con ven
Ġon c
Ġwith outĠ
erv ation
Ġtheir Ġown
Ġfrom Ġ
ifĠyou ĠareĠ
ĠaĠp art
are a
requ est
Ġse em
Ġcont ent
fr am
cons um
ateg or
Ġpos s
3 6
f ast
i .
o iceĠ
w omen
re -
.Ġ r
.Ġ however
st op
ch ap
ur l
ur eĠandĠ
am eric
Ġn atural
Ġsh ould
s>Ġ<s> Ġi
pr act
act iveĠ
Ġap prov
Ġle f
Ġsup portĠ
Ġind ia
clus iveĠ
b it
c ool
f resh
j ack
l as
m ail
v il
in der
sĠ when
ing ĠmyĠ
Ġf ound
qu ir
sĠa p
ĠtheĠs it
ud get
oc cur
form er
vis itĠ
Ġare asĠ
Ġtyp eĠof
Ġtyp esĠof
compan y
ven u
Ġnor th
Ġgrow th
% Ġof
, ĠtheĠc
9 9
b um
i ber
p ayĠ
s /
s chool
v eg
y cl
Ġt oldĠ
er tion
ĠtheĠ world
ic on
im mediat
em br
lo p
ingĠ new
Ġsh all
Ġon ly
ant astic
we etĠ
eĠb etween
Ġis ĠtoĠ
Ġpl atform
comm ission
plac eĠ
Ġcl ub
Ġapp rec
Ġservic eĠ
Ġproduc tĠ
Ġproduc tion
Ġmed ical
oft wareĠ
curr entlyĠ
Ġaud ienc
b ulb
k ing
m ajor
n a
t .Ġ
Ġt ip
sĠ h
on Ġyour
ing er
ing Ġher
Ġan yĠs
il m
for tĠ
ed om
ig g
Ġar riv
Ġar rang
with Ġ
qu ot
e.Ġ you
Ġtr yĠtoĠ
Ġac commod
ableĠ for
ĠtheĠm on
eĠm in
ĠtheĠc or
ĠtheĠp astĠ
Ġis Ġa
.Ġi Ġam
.ĠthisĠ is
Ġne edĠ
rel ax
cons ult
Ġen vironment
Ġautom atic
ustral ia
commerc ial
' dĠ
e edĠ
f ail
l er
l uck
m odel
n umberĠof
r and
s ĠtoĠs
Ġt it
ĠtheĠ st
at ureĠ
ing Ġat
yĠ (
es ĠandĠs
am in
am ountĠof
ad ata
Ġst ayĠ
e,Ġ or
Ġwh ether
we ightĠ
Ġthat 'sĠ
br and
ĠalsoĠ beĠ
ĠaĠb ig
Ġfin ancial
Ġdo es
eĠtr ans
!! !
Ġdevelop ment
Ġrequ ire
Ġrece iveĠ
havi or
ĠaĠvari etyĠof
. ĠtheseĠ
f ix
j an
p urpos
ing !
el y,Ġ
isĠ s
ur v
lo od
op ulation
ex ercis
Ġst ick
per iod
s,Ġ includ
Ġtr ump
Ġac ross
sh all
we ather
Ġex pert
ens ureĠ
sid eĠ
look Ġfor
Ġsom eĠof
, Ġan
y nam
Ġ ey
al read
.Ġ itâĢĻsĠ
ed ical
ĠtoĠ our
Ġb ingoĠ
Ġh is
op tim
cl as
ĠtheĠf act
Ġk eyĠ
Ġtim e,Ġ
lik eĠtheĠ
ection Ġof
Ġres pect
under standĠ
oup leĠof
ret ail
Ġther ap
ementĠ of
ext rem
Ġtop ic
ĠaĠn umberĠof
Ġameric a
Ġvide o
, ĠtoĠ
3 2
a Ġm
d escrib
e up
i Ġcan
n ext
s um
w arm
in ĠthisĠ
or sĠ
yĠ beam
Ġc op
Ġp aper
Ġb edroom
ent ication
im ple
esĠ inĠtheĠ
Ġin creas
wh y
Ġg od
Ġst eel
Ġwith Ġyour
Ġcom bin
Ġab solut
ĠtheĠf in
soĠ much
Ġtim eĠandĠ
vi ol
ĠtheĠl arg
Ġcont actĠ
enter pris
Ġreg ard
buil tĠ
atis f
6 4
r of
v in
ing Ġall
.Ġ your
.Ġ onc
,Ġ on
,Ġ if
is od
Ġw all
edĠ hisĠ
Ġm usic
Ġb i
Ġb al
un it
eĠth is
itĠ for
ab as
igh tĠof
eĠof Ġyour
Ġre st
uc tion
we ight
Ġj ack
ĠtheĠp art
ib r
ach ineĠ
program m
require dĠ
Ġpres ent
Ġcommun ityĠ
a ĠisĠ
e âĢĿ
i Ġs
m c
m is
p ointĠ
in Ġa
sĠ your
er sĠin
Ġs kin
Ġc ard
ĠandĠ your
Ġst yleĠ
Ġl ak
e.Ġ itĠ
comp ar
mor n
ĠtheyĠ wereĠ
Ġaf ford
Ġadd res
ĠanyĠ other
Ġpr im
ingĠon ĠtheĠ
no th
Ġen ough
hadĠ been
coll ect
hel dĠ
recogn iz
3 4
f oodĠ
f loor
h oneĠ
h ttp
m usic
w o
Ġ email
eĠ l
ĠtheĠ in
re di
ing redi
it iz
,Ġ heĠ
Ġp m
edĠ myĠ
ch olar
ent re
ent ir
Ġh ard
ir ror
lo an
os h
Ġn umber
con duct
sĠof Ġs
ep isod
anc eĠtoĠ
s>Ġ<s> ĠthisĠ
Ġch ild
ĠtheĠm arket
man y
ĠtheĠd ata
.Ġi ĠhaveĠ
Ġacc ur
pre par
ax imum
commun ity
develop ment
ched uleĠ
yĠshower ĠbingoĠ
3 1
i ĠhaveĠ
m obil
p ot
Ġ .
er Ġin
Ġs econd
ing Ġcon
it ect
,Ġ isĠ
ic ally
il eĠ
el dĠ
Ġp iec
ed ĠthisĠ
ro leĠ
ol f
ingĠ l
Ġg arden
Ġand Ġa
eĠs ystem
con struction
be gan
sĠa go
ĠasĠ much
haveĠ th
Ġad just
Ġex ist
e. g
eas ier
.Ġs o
inc .Ġ
dr ink
ĠitĠ wasĠ
fl or
Ġpr actic
Ġpart icular
compan iesĠ
spec ific
oot ball
Ġwhil eĠ
energ yĠ
u. s.Ġ
3 00
a -
d ifficult
n ation
r oĠ
u is
v ict
Ġ education
er .
al Ġs
Ġp ain
Ġp otential
Ġd riv
us ingĠa
Ġf ail
Ġf ood
Ġf actor
et Ġal
ag e,Ġ
ag ram
ab it
ot oĠ
ri edĠ
ear ly
ly .Ġ
ĠtheĠf ollow
ĠtheĠb ook
ĠtheĠd evelop
provid esĠ
ident ifi
chang eĠ
Ġav oidĠ
Ġwhen Ġyou
Ġare as
ĠdoĠ notĠ
wr ong
Ġu af
e org
m ix
Ġ ob
Ġt ableĠ
on dĠ
re stor
Ġs inc
ĠandĠ g
ed Ġas
Ġf resh
ag e.Ġ
Ġre present
con st
Ġthe yĠs
ew ork
Ġfor c
eĠd evelop
Ġk ey
cre t
Ġit 'sĠ
br idg
ov en
min ut
pre vent
Ġbe en
qual ityĠof
urr entĠ
cr aft
Ġop portun
ient ific
med ical
urch aseĠ
Ġstr ength
Ġbr and
becaus eĠof
proc ed
direct or
moreĠthan Ġ
Ġgre en
- r
b od
d rop
l ad
t own
on ent
re ally
ing sĠandĠ
is l
Ġc alifornia
il y
Ġp ort
Ġp ublish
for Ġm
Ġb log
isĠ of
ol k
Ġof ĠtheĠc
Ġg ar
Ġg oĠ
Ġl ess
ĠthatĠ itĠ
eĠs omeĠ
eĠof ten
iv il
s,Ġ c
weĠ will
Ġat tract
ĠtheĠm in
ĠtheĠp eopleĠ
comp lex
eas ilyĠ
eĠto Ġs
se eĠ
Ġart ist
Ġtrans port
olid ay
tober Ġ
. Ġthey
b ag
f it
f ish
m other
m ind
Î ´
er sĠtoĠ
ic ateĠ
Ġw ar
st all
ch in
Ġm arketĠ
Ġb enefit
ac ation
ation ĠofĠtheĠ
pl ent
ĠthatĠ s
qu er
sĠa d
anc eĠandĠ
art mentĠof
edĠb yĠs
ult i-
rem ot
vers ation
eĠthatĠ you
ĠtheĠn ational
Ġany th
Ġcl aim
med ia
Ġdec ision
esc ription
Ġshop p
Ġleg al
Ġthous andsĠof
- w
5 5
b el
p et
eĠ at
sĠ likeĠ
ĠtheĠ new
Ġs everal
at e,Ġ
es sĠin
ic l
ed Ġt
ed itor
ed nes
leĠ andĠ
eĠth en
ĠtheĠs econdĠ
gr at
gr ap
s>Ġ<s> Ġw
Ġch e
erv is
eĠc ouldĠ
eĠb as
eas yĠ
mak eĠsur
âĢĿ ,
Ġacc ountĠ
Ġthes eĠs
ĠaĠf ull
pre t
pre fer
Ġatt orne
vol um
call edĠ
ym pt
hear t
Ġbec om
pri or
opportun ityĠtoĠ
christ ian
Ġaltern ativeĠ
ympt om
. ĠthereĠ
b b
f reeĠ
h ood
m emor
y a
or m
Ġs erv
ing ĠtoĠs
ar en
ar ch
ed ,ĠandĠ
Ġm ill
Ġh y
Ġd river
Ġf reeĠ
s.Ġ for
e,Ġ you
ant ic
Ġr ac
eĠa fter
eĠc or
ne edĠ
eĠfor ĠtheĠ
befor eĠtheĠ
down load
Ġtechnolog yĠ
ĠtheĠsam eĠtim
rok en
Ġachi ev
rather Ġthan
, ĠtheĠf
Ġa im
on tĠ
re ferenc
re lev
th at
il ver
Ġw ish
Ġm al
Ġd ry
Ġf all
eĠth ing
eĠs how
Ġre member
Ġr ang
ĠisĠ notĠ
eĠd ep
eĠc r
Ġsp end
af tĠ
Ġaf fect
ingĠs ervic
ĠitĠ is
Ġass ign
par ent
ingĠb ack
ĠtheĠg am
dec or
Ġreg ular
Ġdec id
Ġcommun ication
grad u
univers ityĠof
sĠasĠ well
Ġtem per
ignific antĠ
veh icleĠ
alĠest ateĠ
l ip
n 't
s iz
Ġ '
eĠ work
sĠ -
ou sĠs
ing ĠhisĠ
Ġan Ġun
.Ġ un
.Ġ inĠ
,Ġ it
ed Ġtheir
Ġd at
us eful
ur eĠtoĠ
ver ageĠ
am a
am m
eĠs ay
Ġre duc
Ġre ach
eĠin clud
will iam
ber g
int end
tr ans
to ĠtheĠ
Ġus eĠ
str a
pres entĠ
ĠdoĠ you
eed back
.ĠifĠyou ĠareĠ
Ġcommun ity
Ġfamil yĠ
feat ures
conf ig
clus ion
util iz
c olleg
c elebr
d in
e il
i ,Ġ
r ent
y z
Ġa th
sĠ per
ic in
Ġm eas
Ġin suranc
am ent
ir it
Ġof Ġp
eĠth er
os ;
pl antĠ
Ġl ondon
ĠthatĠ wasĠ
qu iteĠ
e.Ġ ifĠyou
Ġwh it
oc casion
pr en
ly ĠandĠ
sh ar
Ġtim esĠ
Ġmor eĠinformation
Ġthrough ĠtheĠ
Ġany thing
ĠtheĠw ayĠ
Ġtechn ical
vol unteer
ĠasĠwell Ġas
Ġvari ousĠ
agaz in
yĠshowerĠbingoĠ card
b enef
c ast
d est
e "
i edĠ
n av
s etĠ
Ġt arget
Ġth reat
er sĠof
re portĠ
.Ġ we
,Ġ your
ĠandĠ you
Ġb ill
ent ireĠ
Ġd eliver
lo tĠ
Ġar eĠt
ĠthatĠ youĠcan
um entĠ
s.Ġ ifĠyou
and er
Ġad ult
Ġr ental
Ġch urch
av ell
Ġk ind
cre am
Ġam ountĠof
mak eĠsureĠ
Ġpr inc
sĠand ĠtheĠ
abil ityĠtoĠ
sĠab out
lot sĠof
imat elyĠ
necess ar
eĠman ag
Ġanalys is
chap ter
b an
b elow
d og
e ight
g all
j ourne
m os
p a
p ict
r u
r y.Ġ
r uct
s Ġall
s ourc
s uit
eĠ will
Ġs un
Ġs qu
Ġs outh
ing ĠtheĠf
ing ,Ġs
it self
es ĠatĠ
es ia
om in
st yleĠ
Ġm ajor
us p
Ġf urther
un ion
itĠ with
Ġl iveĠ
Ġl ink
ot iv
ri k
.ĠtheĠ c
iv elyĠ
be at
Ġon Ġ
ea st
haveĠ theĠ
Ġcon cern
Ġcom mon
rec entĠ
ĠtheĠd is
ĠtheĠd ep
ass ion
Ġag enc
whil eĠtheĠ
high lyĠ
Ġapp leĠ
.ĠitĠ is
wher eĠtheĠ
becom eĠa
Ġamaz on
oub t
auth or
Ġx Ġ
beh ind
1 50
3 8
4 8
g in
m asĠ
n ik
o .Ġ
y ,Ġs
y ĠandĠs
Ð º
Ġt end
ing ĠandĠs
es .Ġs
,Ġ ch
Ġc ook
ĠandĠ isĠ
Ġw atch
Ġp ick
us eĠtheĠ
us edĠfor
ol veĠ
Ġin tegr
Ġg otĠ
Ġg irl
eĠs ub
up ĠtoĠ
up grad
s.Ġ h
Ġfor Ġyou
weĠ ar
Ġac tĠ
end antĠ
Ġpro pos
âĢĻsĠ s
Ġr at
man ufactur
ach i
ric t
Ġact iveĠ
Ġrec entĠ
Ġmon eyĠ
Ġservic esĠ
import antĠtoĠ
ĠmayĠ beĠ
sĠcan Ġb
Ġser ver
createĠ a
Ġpos ition
Ġrep air
urb an
enh anc
d ifferent
i âĢĻm
o le
p in
r ul
s a
sĠ out
Ġs creen
at elyĠ
it ment
al Ġp
el yĠtoĠ
edĠ h
edĠ us
ed Ġthem
ĠtoĠ learn
Ġin ĠtheĠm
Ġof ĠtheĠp
Ġg lobal
Ġst ation
ri endĠ
s.Ġ itĠ
ĠtheĠs ub
Ġwh ol
Ġwith in
oc rat
Ġcon f
ĠtheĠb est
Ġj oin
ers ,
Ġtak esĠ
go dĠ
inter netĠ
reg n
reg ul
me ans
Ġwhich ĠisĠ
Ġcl ick
ingĠof ĠtheĠ
Ġapp eal
Ġdis cover
Ġaw es
Ġstat ement
enjo yĠ
respons ibil
viron mentĠ
Ġsur v
Ġassoci ation
Ġcre ateĠ
americ an
" ,
- to-
. Ġthen
? ?
g od
g oogleĠ
j udg
l u
Ð »
Ġ ì
Ġt elevision
Ġs ecurityĠ
is ĠtoĠ
Ġc ult
Ġm ark
Ġb eautiful
ac yĠ
Ġg en
with Ġyour
con firm
ap os;
ud getĠ
20 2
eĠm anyĠ
av idĠ
eĠd ec
Ġk new
sp eak
Ġacc essĠ
inter net
dis play
esĠof ĠtheĠ
eĠon ĠtheĠ
high -
rel atedĠ
und red
employ er
Ġcomm itt
ept emberĠ
ĠnotĠ beĠ
oper at
epar ateĠ
did nâĢĻtĠ
5 7
? Ġ
c ountr
d ev
d oneĠ
e y.Ġ
f ood
g or
r ing
y ester
Ð ²
in form
Ġth urs
er ĠtoĠ
at o
is lam
om et
el yĠs
el y.Ġ
Ġw on
Ġw ear
ent ryĠ
id oĠ
im ension
if Ġi
Ġof Ġb
Ġof Ġd
op pos
Ġn ight
pro bablyĠ
iv ision
Ġsh ort
ateĠ in
eĠc as
elect rical
ump ster
employ eeĠ
lif eĠ
Ġaut oĠs
Ġfr am
Ġnot ic
cred itĠ
09 3
Ġtem pl
Ġrece iv
Ġarch itect
Ġapr ilĠ
Ġ= Ġ
exact lyĠ
& apos;
c enter
d a
d amag
e ightĠ
l ar
m art
m aster
p al
r ateĠ
y Ġst
in vit
an al
ing Ġmor
yĠ on
.Ġ her
,Ġ when
ic ens
Ġw ood
Ġf low
ir on
ag r
Ġl ab
ot ton
con v
ist sĠ
sĠa v
sĠa sĠa
e,Ġ but
Ġwh yĠ
Ġj ulyĠ
her e.Ġ
man yĠof
Ġsp ot
Ġsp ect
Ġtak eĠtheĠ
ug eĠ
ph otograph
co hol
stand ardĠ
Ġcons ult
Ġpre par
prot ection
univers ityĠ
Ġproc essĠ
ĠatĠle ast
prom ot
Ġcamp aign
Ġenjo y
- th
- term
. ĠthereĠar
d evic
f ut
i en
i rect
n on
p ast
r ill
s ens
Ð ´
Ġt om
er Ġthan
il k
el eg
Ġw ould
Ġp leas
st anc
ĠtoĠ h
Ġf irst
id ayĠ
Ġin it
ha el
sĠof fer
sĠandĠ other
ĠtheĠf ron
iz z
eĠp ar
cont ribut
ĠtheyĠ can
ĠaĠp er
mon itor
ĠaĠm in
ingĠd own
Ġther eâĢĻsĠ
Ġind epend
ourc e,Ġ
educ ational
hav ingĠa
Ġprogram m
Ġdevelop mentĠ
couldĠ beĠ
Ġstand ardĠ
rest aurant
disc uss
ynam ic
pren eur
. Ġthank
a Ġin
b re
c u
f astĠ
g b
m ic
z er
Ġs av
Ġs elect
ing .Ġi
.Ġ what
Ġc areĠ
Ġc ountr
st uff
ed ĠaboutĠ
ch ildĠ
Ġm ic
âĢ ĭ
us ion
Ġto ĠtheĠm
ex hib
os en
ak istan
ri es
ist ak
sĠof f
Ġtr yĠ
Ġon Ġyour
Ġad vent
ef fectĠ
Ġat Ġall
Ġcom pl
Ġcom merc
Ġor ig
ies ĠtoĠ
ies ĠthatĠ
Ġex pect
og ether
ĠtheyĠ haveĠ
ingĠin ĠtheĠ
well -
ĠaĠ year
Ġyear sĠof
Ġman ufactur
ĠsoĠ much
complet elyĠ
perform anc
Ġactiv itiesĠ
Ġaccord ingĠto
curr entĠ
Ġvis it
effic ienc
roy al
Ġkn own
Ġloc ation
ĠtheĠlat estĠ
ingredi ent
, Ġall
b ill
c ult
d igital
g ather
g ift
g lobal
j ournal
l ak
m odern
o ist
p ol
r ub
s ha
u gh
w ent
Ġt ab
Ġt icket
in ĠtheĠm
ou bl
re str
Ġs ummer
ing Ġspac
Ġan Ġa
Ġc ool
th etic
st ation
st reet
ro b
ch ild
Ġm emor
Ġh ol
ur su
Ġf ig
Ġin suranceĠ
all y.Ġ
.ĠtheĠ t
ĠthisĠ week
cl imb
sĠin to
ind epend
eĠb ecaus
sid eĠtheĠ
Ġass istĠ
under ĠtheĠ
vis itor
Ġcont entĠ
Ġbe h
ra el
sup er
Ġbl u
ĠanĠex c
.com /
Ġbut ton
Ġang el
Ġtu es
, Ġal
b odyĠ
e qual
f iveĠ
g aveĠ
h ardĠ
m r
m ooth
w ast
Ð ¼
eĠ ar
an ag
Ġan yĠof
.Ġ us
.Ġ even
ic tĠ
Ġc ityĠ
Ġw r
you Ġknow
you 'll
Ġd amag
Ġf oundĠ
Ġto ĠtheĠp
pl us
ot al
um n
est ic
est im
Ġtr end
ĠasĠ itĠ
Ġac adem
Ġcon tr
sh own
li br
Ġch em
iz on
ies .
eĠc o
eĠc over
eĠf in
ers Ġand
vi ous
Ġpr int
ros sĠ
ident ify
cr im
Ġsom eoneĠ
employ mentĠ
sĠfrom ĠtheĠ
develop mentĠ
idd leĠ
Ġvide oĠ
mustĠ beĠ
alway sĠ
d f
f actor
i ver
j ay
j ew
m ostĠof
p c
r ental
y sĠ
Ġ /
on sor
Ġs ett
om ain
edĠ our
Ġm odern
Ġh air
Ġd ocument
Ġf an
Ġf ill
ig ger
em phas
Ġg ot
ag eĠd
res ultĠ
Ġre mov
um m
ant lyĠ
weĠ wereĠ
Ġcon c
ef f
Ġr unn
rec over
Ġpl antĠ
ure ,Ġ
ĠtheĠt woĠ
Ġour Ġ
row d
eĠh isĠ
Ġnew Ġyork
fin al
includ esĠ
sc or
gu arante
Ġappl y
sĠm ad
sĠm ustĠ
Ġim p
ĠaĠw ideĠ
ger man
Ġadv ic
sup pl
giveĠ you
sĠar eĠs
equip p
plain t
mark etĠ
urnit ureĠ
ĠmoreĠthan Ġ
ĠautoĠs ource,Ġ
: ĠtheĠ
c z
e y,Ġ
h andĠ
h otel
n atur
r ition
y !
Â £
in ĠtheĠs
Ġth row
or Ġin
en z
Ġs uit
ing s.Ġ
al d
om atic
Ġp utĠ
st eel
isĠ notĠ
Ġf iveĠ
esĠ will
if Ġyour
Ġyou Ġwill
Ġg reat
eĠt woĠ
e.Ġ for
sĠof Ġd
Ġtr uck
Ġwith Ġa
own er
li qu
cre w
eas tĠ
eĠf oundĠ
.Ġi 'm
mor e.Ġ
ĠtheĠt eam
row ser
ph ysical
ĠaĠb itĠ
provid es
olog yĠ
heĠ wasĠ
Ġstud entĠ
app oint
imp actĠ
,Ġwhich ĠisĠ
sĠb etween
exp ensiveĠ
ebr uaryĠ
Ġant i-
network ĠautoĠsource,Ġ
-bas edĠ
Ġcert ification
prett yĠ
Ġrequire ment
. ĠatĠ
; Ġ
b ol
c areĠ
k a
l id
m ap
r as
r ick
s '
Ñ ĥ
Ġt estĠ
in oĠ
or tĠof
en abl
ou ble
Ġs af
.Ġ from
es id
ic a
th rough
Ġb ag
Ġh ost
im press
lo om
ingĠ over
Ġof ĠtheĠm
Ġar th
ex pos
Ġn umberĠof
ut ton
Ġand ĠtheĠs
pl ug
ĠthatĠ is
Ġsh o
oul der
ip honeĠ
,ĠandĠ i
sĠin toĠ
Ġr ightĠ
Ġch ildĠ
eĠm ad
Ġj oh
ĠtheĠp ower
Ġtheir Ġ
inc eĠtheĠ
Ġun it
eĠh igh
pres sĠ
ph oto
yst al
read yĠtoĠ
Ġrec ogn
,ĠbutĠ i
ĠwouldĠ beĠ
nor m
conn ection
emb lyĠ
Ġvi ol
ilit aryĠ
Ġcurr entĠ
* *
c apt
d et
e ousĠ
f e
n ameĠ
r an
s w
s ell
v entĠ
w entĠ
Ġs atur
es ,Ġand
om b
el ess
Ġw id
st artĠ
ed it
Ġb each
id a
Ġin f
Ġin ĠthisĠ
ation s.Ġ
Ġal bum
ri an
Ġre leas
s,Ġ p
Ġcon vention
pr iceĠ
Ġr isk
eĠa Ġb
ies ĠareĠ
eg ir
lik eĠto
how ĠtoĠ
how Ġmuch
ĠaĠp erson
Ġte en
inter view
ection Ġ
ĠaĠc oupleĠof
help ful
az z
gan ic
Ġim port
abil ityĠof
Ġav ailable
io dĠ
Ġlik eĠ
te in
class ic
propert yĠ
compl ish
buil t
exam ple
comfort ableĠ
Ġabil ityĠtoĠ
ĠitĠcom esĠtoĠ
1 20
7 8
b a
f am
g a
m ill
o y
s i
â Ĥ
in Ġm
in sp
sĠ willĠbeĠ
er Ġfor
ing ĠanĠ
al s
es ?
,Ġ our
,Ġ even
Ġc lear
Ġc ounsel
th eĠs
st ay
st ream
edĠ over
ed lyĠ
ed ĠtheĠs
ch atĠ
Ġb illion
Ġh ttp
ur eĠin
Ġf loor
ig en
ill ust
Ġyou th
ha w
Ġl anguag
up dat
Ġre main
um in
s,Ġ but
ant a
gr ic
Ġr out
ĠtheĠb od
Ġj uneĠ
eĠh ad
pres identĠ
not ĠtoĠ
loc atedĠin
fr ank
old en
Ġbo ard
Ġwhen Ġi
inn ov
unn el
Ġappro x
Ġfl or
quick ly
Ġcent ur
my self
Ġdid nâĢĻtĠ
eĠinter est
bey ond
earli er
entre preneur
h i
p ool
r in
y 'sĠ
Ï ī
Ġ oldĠ
on eĠs
Ġs ell
Ġs eat
it ness
al ĠandĠ
.Ġ pleaseĠ
,Ġ "
th Ġof
il legal
el er
el ectĠ
Ġw antĠ
you ĠmayĠ
Ġm er
Ġb ench
Ġh eat
Ġd ream
Ġto t
our Ġ
Ġre adĠ
con utĠ
con tract
ep per
Ġsh areĠ
ĠasĠ i
end or
Ġv ill
sĠin Ġyour
ĠisĠ s
ĠtheĠf inal
ast ruct
ĠtheĠd ist
butĠ i
eĠf eat
vi ouslyĠ
str ength
ĠtheĠh ear
yp t
eĠthatĠ isĠ
Ġup ĠtoĠ
amil yĠ
fr astruct
Ġmon ey
play er
cor rect
.Ġin Ġaddition
Ġ- Ġ
prof it
prof il
Ġlif eĠ
build ing
Ġminut esĠ
Ġoffic ial
Ġsw itch
object iv
beli ev
effic ient
Ġadmin istration
refl ect
. org
a ith
b us
c ell
c ash
d ivid
e ch
e ableĠ
n in
p rec
p ath
r y,Ġ
t ag
w indow
eĠ again
Ġt el
Ġt ap
on lineĠ
en alt
an ish
Ġs ession
Ġs ucc
ing ly
ing Ġthis
it âĢĻsĠa
th eir
Ġp eac
Ġp anel
ro of
ent ral
Ġh ill
Ġh alf
us edĠin
us ual
ol ec
esĠ wereĠ
Ġin ĠtheĠs
lo b
wh eel
Ġyou ĠhaveĠ
eĠth es
Ġst reet
be havior
Ġon lineĠ
oc cup
por tion
out com
bu yĠ
Ġcon ferenc
Ġas ĠtheyĠ
ĠtheĠf ull
rec entlyĠ
Ġk m
ĠtheĠp ast
ick en
ersĠ can
lik elyĠtoĠ
row s
Ġthan Ġ
Ġte ch
19 4
ageĠ isĠ
dis eas
vis ual
ĠtheĠg ener
uf fic
ump tion
stand ard
imp act
exc ellentĠ
Ġdec or
Ġcompan iesĠ
idd en
uccessful lyĠ
auth enticator
Ġvis itor
eĠmor eĠ
orig in
Ġgovern ment
Ġath let
h oodĠ
m ethod
p ush
r ay
r aw
w if
y :
Ñ ĭ
on e,Ġ
Ġs chem
it s
,Ġ itĠisĠ
Ġw ash
st ag
ĠtoĠ work
ĠtoĠ provid
Ġh otel
ec tĠof
us her
ig er
Ġin s
Ġto ĠtheĠc
ingĠ us
wh iteĠ
Ġof Ġour
Ġal most
ab oveĠ
Ġand ĠareĠ
rom is
est ival
ever yĠs
pr intĠ
ity .
Ġtim e.
ure .Ġ
eĠf eel
ersĠ whoĠ
ĠtheĠt yp
comm endĠ
ĠthereĠ was
br ight
ĠaĠb eautiful
Ġass um
edĠwith ĠtheĠ
par tĠ
ix el
includ es
Ġbe ing
tern al
ret ch
med iateĠ
nor mal
cred ibleĠ
lightĠ bulb
Ġcomple x
Ġproc ed
du eĠtoĠ
compet ition
Ġoper ation
committ e
eĠtak en
Ġperc entĠ
grap her
f lex
o sĠ
p o
s tĠof
s âĢĿ
y self
eĠ âĢĵ
er ies
ou thern
Ġs etĠ
Ġs cor
ar y,Ġ
,Ġ v
Ġw eĠd
you âĢĻll
edĠ off
Ġm atch
Ġd et
Ġof ĠthisĠ
ul a
ul um
itĠ s
ab et
eĠt echn
ot yp
igh ter
Ġre li
ess or
enc ounter
ĠasĠ weĠ
Ġpro per
can n
ĠtheĠf r
ĠtheĠf ac
ang el
ĠtheĠp ublic
Ġtim eĠin
ob serv
ersĠ with
mak eĠtheĠ
which ĠisĠ
eĠh om
ingĠin to
19 1
reg ulation
Ġafter ĠtheĠ
pre hensiveĠ
par tĠofĠtheĠ
.ĠitĠ was
Ġmak eĠ
Ġdo or
Ġtrans action
Ġph oto
ĠwhatĠ you
light lyĠ
gener allyĠ
Ġinter view
Ġgu est
Ġter min
Ġrel ation
Ġcons ist
Ġsit uation
Ġsub ject
augh tĠ
chem ical
Ġprot ection
necess aryĠ
agn os
usb and
Ġcred itĠ
plent yĠof
Ġcommerc ial
. Ġat
d river
d aughter
m ir
p aidĠ
sĠ haveĠbeen
Ġs aveĠ
Ġs inceĠ
es ,ĠtheĠ
,Ġ however
Ġc ash
Ġp et
Ġp leaseĠ
st ick
Ġd igital
Ġd eath
le adĠ
ig r
Ġto ĠtheĠb
if ĠtheĠ
Ġal cohol
res olution
itĠ will
with out
Ġand Ġall
Ġl ightĠ
ĠthatĠ will
ot a
eĠs c
up per
anc eĠin
end edĠ
Ġcom ment
tr ad
iesĠ for
ĠtheyĠ will
ingĠs om
ans wer
loc atedĠ
edĠon ĠtheĠ
rel ig
no thing
eh older
into ĠtheĠ
exp ens
quick lyĠ
Ġtreat ment
ordin ator
rev eal
Ġdirect or
Ġacros sĠtheĠ
ĠdoesĠ notĠ
rett yĠ
Ġbeli eveĠ
Ġlet ter
empor aryĠ
veg et
[ Ġuaf
d ocument
h or
l ength
Ġ +
in i
sĠ over
ing :
Ġan im
yĠ is
es ĠasĠ
,Ġ whereĠ
ĠandĠ weĠ
Ġp or
ch ampion
Ġto Ġtak
Ġof Ġa
iv e.Ġ
sĠof Ġyour
Ġsh ip
cl oudĠ
tĠof Ġ
Ġcon struction
od d
Ġas pect
ment al
year sĠ
Ġle tĠ
Ġtak es
eĠh ous
ĠtheĠh om
mon ey
fl ict
yp sum
sc ription
fr ont
fac eĠ
ĠweĠ haveĠ
ĠaĠw ay
vir t
real iz
Ġpres identĠ
exp and
foc usĠon
Ġmanag ementĠ
aur antĠ
perfectĠ for
princ ip
Ġvol unteer
introduc tion
Ġconn ection
eĠspec ial
. ĠasĠa
9 5
a q
c ould
g on
k er
l istĠ
m ag
p otential
s eason
Ñ ı
Ġth us
er s.
or row
Ġs implyĠ
ing u
es usĠ
,Ġ myĠ
is p
Ġc elebr
ĠandĠ how
edĠ him
ro d
Ġm ix
Ġm aster
Ġm achin
Ġh or
le ,Ġ
Ġf ar
Ġf arm
esĠ isĠ
em al
Ġin ch
ul lyĠ
res um
ut or
eĠs olution
qu is
eĠof f
s,Ġ weĠ
out door
ĠtheĠc ours
eĠc ount
comp re
ne ighbor
og a
af ter
.Ġi Ġthink
Ġthes eĠp
ĠaĠp h
ĠtheĠl aw
whatĠ isĠ
ingĠm achin
co ach
Ġcl as
Ġhow ever
som eĠof
ys ician
oneĠof ĠtheĠmostĠ
cor por
exc eption
sup portĠ
ee ch
Ġanal yz
Ġmar chĠ
employe esĠ
feat ur
Ġcoll ection
offic ial
Ġaug ustĠ
lab el
networkĠautoĠsource,Ġ inc.Ġ
. )
4 2
e ut
f ieldĠ
h z
m om
n dĠ
p ac
p eople
s "
w edd
an i
at ient
.Ġ noĠ
,Ġ notĠ
Ġc rit
el imin
Ġp ers
Ġp urpos
Ġp rivateĠ
for get
ĠtoĠ doĠ
ch er
Ġm eĠ
Ġd in
lo stĠ
ingĠ experienc
ad ian
ad dition
pl usĠ
ot ic
Ġre v
ud den
Ġall Ġover
Ġac knowledg
,ĠandĠ s
od ay
we âĢĻveĠ
ĠtheĠc o
Ġj apan
ĠtheĠp ar
ful ly
ph oneĠ
ph otos
ĠtheĠn or
ĠweĠ can
cons umer
Ġfin anc
wer eĠs
Ġso on
Ġauth entication
bal anc
eĠthat ĠtheĠ
want Ġto
indust ryĠ
Ġcoll ect
whol eĠ
adv antag
Ġhapp en
Ġla unch
Ġconn ect
particular lyĠ
Ġtal ent
ĠthirdĠ part
itiz en
Ġjoh n
networkĠautoĠsource,Ġinc.Ġ '
, Ġafter
4 6
c ostĠ
g utter
g iftĠ
i os
j ection
k en
k ar
m at
m un
m ax
m artĠ
r ush
s ureĠ
t a
t iveĠ
y ?
sĠ weĠ
sĠ wouldĠ
on Ġour
Ġs an
Ġs leep
ing ?
of Ġ
ic eĠc
Ġc up
Ġc loth
Ġw ayĠ
Ġp olitical
ro ok
Ġm ultipleĠ
ent iallyĠ
le astĠ
ur ric
ur pris
ig an
Ġof Ġf
Ġar ab
ab ul
pl astic
Ġac id
eĠin d
eĠin toĠ
Ġcon tractor
Ġr ich
ber tĠ
now Ġi
Ġsp irit
Ġam b
ure ment
lik elyĠ
eĠfor Ġyour
eĠh im
oll ection
ubl ication
ĠtheĠg u
Ġse eĠtheĠ
Ġse ek
uth or
.ĠitĠ wasĠ
Ġart icle
what ever
lead ership
Ġlook ingĠfor
Ġro ck
imag in
Ġsign ific
Ġrequ est
click Ġher
hea dĠof
Ġcli entĠ
pat ient
ĠtheĠhigh estĠ
yt ic
abin et
sĠas s
3 9
b enefit
d eb
f arm
f ield
i ĠwouldĠ
l essĠof
n el
s :Ġ
u sĠs
w onder
z en
Ġ :
in Ġb
Ġth usĠ
on esĠ
or ganis
ĠtheĠ other
Ġs impleĠ
it âĢĻs
.Ġ not
es !
es Ġa
ĠandĠ can
el cz
you th
ed !
Ġb ank
Ġd eb
Ġd octor
Ġf ire
Ġf ield
ig ration
em in
Ġin Ġa
ation Ġwith
am ong
am az
ex tr
Ġst ag
eĠt eam
oun der
ĠareĠ notĠ
est in
your Ġown
Ġad opt
Ġap par
cre ativeĠ
ĠtheĠd ef
ersĠ for
ersĠ haveĠ
sĠfor Ġ
each Ġother
inter ior
ĠaĠd is
ann a
car ri
Ġper cent
ĠtheĠw ater
vent or
down loadĠ
becaus eĠi
iel dĠof
Ġdi et
esc ap
Ġadv oc
ee per
conf idenc
Ġint roduc
does n'tĠ
yc leĠ
Ġmain tain
, ĠtheĠb
4 00
a ult
c )
k el
k new
m itĠ
p ir
w antĠ
Ġ either
Ġt un
sĠ com
sĠ soĠ
sĠ willĠb
or ough
Ġs ound
it .
ar eĠof
,Ġ r
ĠandĠ for
th on
Ġp ump
ĠtoĠ findĠ
ro g
Ġm yĠs
Ġm iss
as m
im ul
im ageĠ
Ġof ten
ul tr
res tĠ
Ġn eg
Ġl ater
com b
ĠthatĠ can
ap ital
ep h
s,Ġ b
Ġv ot
work shop
Ġi ĠhaveĠ
Ġlo an
uch Ġas
ass ertion
cont roll
ure sĠof
Ġag ent
was her
ĠaĠ âĢľ
fin allyĠ
whatĠ i
sĠwith ĠtheĠ
amp aign
di rectĠ
ities ĠandĠ
eter an
Ġhigh Ġschool
Ġrel ig
ocial Ġmedia
def initelyĠ
Ġpre fer
ugg estion
lastĠ year
Ġel ement
pass ion
govern mentĠ
-year -
easter n
ĠtheĠlarg estĠ
3 7
f c
f requ
g ameĠ
i antĠ
i ator
j am
k y
l ateĠ
m b
m essag
o ter
p riv
r uit
s af
s uchĠasĠ
t d
y es,Ġ
Â ·
Ġ âĢĺ
Ġt ea
on eĠin
al ak
.Ġ br
.Ġ each
.Ġ whil
ar yĠof
es .Ġi
,Ġ ifĠyou
,Ġ especiallyĠ
Ġc ha
el ic
Ġw edd
Ġp c
Ġp rior
Ġp owder
edĠ itĠ
edĠ outĠ
ĠtoĠ find
Ġd etermin
Ġd ifferenc
ol ym
id -
esĠ can
ation .
ingĠ r
eĠth ink
res erv
res ident
Ġst ain
ak eĠ
ĠthatĠ your
Ġre fer
Ġre commend
s,Ġ with
e,Ġ itĠ
e,Ġ with
Ġwh eel
cl ar
Ġv ision
Ġad apt
eĠa Ġfew
ign or
ens eĠ
comp ut
cre ated
tr ain
ne g
Ġam ount
sp ection
sp aper
ĠtheĠt own
ĠthereĠ wasĠ
ĠthereĠ isĠa
sĠfor Ġyour
but ton
was ĠtheĠ
noĠ longer
oup leĠ
gu ard
ingĠof f
Ġim prov
ten anc
Ġtrans form
gener ation
Ġsc en
proc essĠof
Ġprovid esĠ
'veĠ been
hand leĠ
Ġby ĠtheĠ
put t
Ġfac il
ĠmustĠ beĠ
Ñģ ÑĤ
ĠawayĠ from
certain lyĠ
appro priateĠ
) Ġand
, Ġas
b en
c astĠ
c irc
e âĢĻ
h ill
l uxur
n ap
r andĠ
t ail
w onderful
y ber
y .Ġi
Ġ qual
Ġt ex
in spir
Ġs am
Ġs ong
,Ġ un
Ġc ut
edĠ intoĠ
ed Ġan
isĠ on
le agu
esĠ includ
em pl
ation ĠisĠ
ingĠ k
eĠth eĠin
ha redĠ
Ġst uff
lyĠ on
be ingĠa
est imat
Ġsh ortĠ
your Ġ
pr ay
sh mi
Ġcom fort
eĠm ain
Ġthat ĠareĠ
Ġex per
ult imateĠ
mak es
Ġit self
ers Ġto
ach el
Ġle ather
ĠaĠs er
ĠaĠs impleĠ
ĠtoĠs ay
Ġthes eĠf
ph il
ĠtheĠl ong
ĠaĠm on
loc ated
Ġgr and
Ġher it
ator yĠ
tern ational
sc en
gu est
Ġdis eas
.ĠweĠ haveĠ
Ġman y
Ġreg ister
Ġcr im
avor iteĠ
ĠanĠex t
ser ver
needĠtoĠ beĠ
hea v
Ġret ail
conutĠ water
' sĠin
4 9
6 5
b ear
c atch
d oc
i ed
s ayĠ
eĠ all
Ġt y
Ġt rial
in v
in com
sĠ if
sĠ by
er Ġor
Ġs ingleĠ
Ġs ociet
at om
at ell
ar row
es Ġar
es .ĠthisĠ
,Ġ is
th es
il der
Ġw ait
for Ġa
Ġm other
Ġh eĠsaid
Ġd ark
id oĠs
Ġin volv
ir an
Ġof ĠtheĠb
op inion
Ġthe or
per s
ev il
Ġtr uth
Ġv it
ĠisĠ in
ĠtheĠc urrentĠ
eĠb ook
Ġacc ident
eĠh elp
ĠaĠb etter
Ġthrough out
ingĠp h
co in
fr ontĠ
high er
.ĠweĠ areĠ
reeĠ jay
ĠaĠw eb
able .Ġ
Ġbr andĠ
design edĠtoĠ
week end
Ġaut osp
ott ish
sĠb elow
impl y
ĠmoreĠ aboutĠ
mean sĠ
univers ity
curr ently
Ġteach er
known ĠasĠ
Ġagre ement
hel d
Ġfeat ures
udd h
Ġparticip ant
extrem elyĠ
ednes day
Ġdry er
Ġawes om
undred sĠof
gor ith
alak shmi
reeĠjay alakshmi
reeĠjayalakshmi Ġautosp
? âĢĿ
a )
b c
d g
d ream
h ir
k i
l ondon
p ull
q l
u sĠin
w oman
â Ī
Ġ Î
Ġ engin
sĠ her
ĠtheĠ ch
an other
re ar
at ĠtheĠ
Ġan c
.Ġ .Ġ
is ,Ġ
Ġc hair
ĠandĠ sh
th eĠb
el m
Ġw arm
Ġp al
Ġp riv
edĠ (
edĠ down
ow ard
ol om
am ental
Ġof Ġc
ul tĠof
ex chang
ex ecutiveĠ
Ġl at
Ġl icens
pro vision
eĠt yp
ri z
con vention
con struct
.ĠtheĠ n
Ġfor Ġa
Ġtr ulyĠ
sĠandĠ b
end ar
Ġv an
ly ingĠpart
ĠtheĠc r
ind ian
Ġj un
Ġex tra
Ġex plor
eĠp at
ĠtheĠd esign
ers ey
Ġle aveĠ
19 2
provid eĠa
eth odĠ
e- mail
Ġyear s.Ġ
Ġthey âĢĻreĠ
Ġdis play
app ear
sĠfrom Ġ
.Ġh ereĠ
struc tor
fil iat
oft ware
ĠaĠlo tĠ
ativ elyĠ
Ġthere 'sĠ
servic eĠ
larg eĠ
bab ly
yn d
indust ry
Ġmanag ement
val id
urnit ur
Ġperform anc
spect iveĠ
eĠmon th
crit ical
Ġlef tĠ
) Ġin
. ĠthankĠyou
. Ġalthough
3 50
d ict
f avorit
h ot
h eat
l ay
m oment
s mall
u j
u in
w est
w inn
Ġt or
Ġa id
Ġa ustralia
on eĠb
Ġs ing
Ġs ix
ar oundĠ
es âĢĻ
ĠandĠ itĠ
Ġb el
isĠ in
Ġh eav
Ġd egre
em per
Ġin struction
am b
Ġto Ġtheir
ingĠ v
Ġof Ġtheir
res ist
Ġn ut
Ġn av
pro of
eĠs al
and ĠtheĠ
iv e,Ġ
ess el
est ation
Ġfor mer
Ġac complish
ityĠ isĠ
ub ject
ĠtheĠp re
Ġi Ġam
Ġap artmentĠ
ass iveĠ
ersĠ b
ers ,ĠandĠ
lik ely
inc or
even Ġthough
bec am
fl avor
ĠtheĠg overn
Ġany way
leg isl
fac ilit
ĠweĠ areĠ
import anceĠof
,Ġyou Ġwill
stud entsĠ
manyĠ peopleĠ
Ġhigh -
oin tĠof
valu eĠof
hous eĠ
ibil ity
ibil ityĠof
Ġsign al
ĠÐ ¿
possibleĠ toĠ
Ġdur ingĠtheĠ
indust rial
Ġcoll abor
ĠthreeĠ year
esĠthat ĠareĠ
emotion al
Ġabsolut elyĠ
ervis or
idoĠs erver
reeĠjayalakshmiĠautosp in
% .
. Ġst
4 7
b road
b edroom
d eep
e etĠ
h is
m yĠs
m achin
w al
w eĠs
w estĠ
Ġ quality
eĠ can
Ġth ick
er iesĠ
en th
en ableĠ
re commendĠ
Ġs on
Ġs end
Ġs imilar
at eĠof
ing ĠanyĠ
al ong
es ĠtoĠtheĠ
Ġc ourt
el essĠ
Ġw er
Ġw inter
Ġp ut
Ġp ool
Ġm is
Ġb est
Ġb owl
Ġh old
Ġh ospital
ec os
Ġf ix
id o
Ġto ĠthisĠ
Ġto ĠtheĠd
ingĠ itsĠ
Ġg utter
res tĠof
Ġl ast
eĠt ogether
s.Ġ "
ess ageĠ
sĠof ĠthisĠ
Ġtr an
Ġsh ot
cl ip
Ġall Ġyour
Ġr ound
Ġat ĠtheĠsameĠtim
Ġas Ġan
eĠd ata
iz ed
work ingĠon
Ġj ourne
her it
eĠp ower
comp ens
comp onent
Ġpl us
mak eĠitĠ
Ġtw oĠs
Ġne ighbor
pre ventĠ
ĠaĠm ajor
olog y
Ġcont act
eĠwith ĠtheĠ
rat iveĠ
Ġatt ach
Ġav oid
no on
att oo
ifi ed
experienc eĠ
itiesĠ of
continu eĠtoĠ
hol iday
conn ectĠ
enn isĠ
Ġprof il
Ġlead ership
Ġwant Ġto
disc us
Ġpropert yĠ
Ġprot ect
Ġterm sĠof
region al
Ġclass ic
sequ enc
Ġgovern mentĠ
clin ical
tu beĠ
alread yĠ
regn anc
igen ousĠ
' networkĠautoĠsource,Ġinc.Ġ'
) Ġor
, ĠasĠwellĠasĠ
? ĠwhatĠ
g at
l abor
n r
p sĠ
p eac
u ro
w ild
Ġa verag
in em
Ġth ird
en vironmentĠ
Ġs aw
Ġs ecurity
ing -
Ġan ton
.Ġ âĢ¢
es ;
,Ġ us
,Ġ etc
Ġc ity
Ġc offe
Ġp .m
ĠtoĠ giveĠ
ch ester
Ġm c
Ġm p
le y
ol ph
ur fac
ill a
ag eĠandĠ
ag eĠfor
Ġn m
Ġre dĠ
um stanc
enc e.Ġ
Ġon e-
gr ant
gr av
eĠin Ġyour
eĠin to
Ġv ict
Ġr ail
Ġr ank
Ġch i
Ġch in
Ġab us
work ingĠwith
ne edĠto
ass ess
og u
ure .
ersĠ on
mor eĠs
ĠtheĠt echn
air yĠbeam
Ġne edĠto
sit eĠ
fac tion
abil ities
able ,Ġ
equ ival
land scap
:Ġ "
Ġinter estĠ
Ġadv antag
Ġro ad
Ġinst itution
sĠar ound
uss ian
prot ectĠ
Ġdown load
Ġser veĠ
Ġser iesĠ
Ġaccord ingĠtoĠtheĠ
ĠÐ ²
Ġinto ĠtheĠ
direct lyĠ
friend lyĠ
Ġant iqu
Ġsm artĠ
angu ageĠ
Ġhav en
uniqu eĠ
depend ingĠon
Ġfoc us
Ġche ap
Ġthurs day
idoĠ uaf
Ġtues day
Ġarth rit
-year- oldĠ
b adĠ
d egre
g asĠ
j ump
l an
l ass
l unch
m eal
m ultipleĠ
n i
o ch
p ageĠ
s pr
s creen
u i
sĠ befor
er tĠ
en a
re venu
Ġs elf
at ingĠtheĠ
it z
it Ġall
it nessĠ
ar y.Ġ
es us
ĠandĠ k
Ġw oodĠ
ed er
ed icat
Ġh andĠ
Ġd est
ac eĠ
im on
esĠ haveĠ
et a
ingĠ outĠof
ad vis
if ĠitĠ
Ġof Ġg
Ġg aveĠ
ag ar
itĠ from
Ġn ecess
Ġst ream
eĠs o
qu een
con versation
asĠ well
ap on
ĠtheĠs chool
cl er
Ġv ia
sh ould
ableĠ of
we ak
ail or
rec ently
e. com
Ġap ple
Ġsp endĠ
ib l
comp os
Ġtim eĠfor
Ġthem .Ġ
ost lyĠ
aw n
Ġacc eler
pres ident
rem ier
19 0
Ġthrough outĠ
min dĠ
ĠtheĠl if
endĠ up
ord an
eli veryĠ
ĠtheĠg reatĠ
ific ateĠ
Ġact ually
every on
ead lin
Ġappl ic
som e
cons erv
Ġbo ardĠ
Ġfin al
lif t
becaus eĠitĠ
Ġph on
Ġph otograph
design edĠfor
exc eptĠ
rep ut
grow n
yĠc ouncil
ibil ityĠ
Ġdr ug
vari etyĠof
got ten
bur g
interest edĠin
lat estĠ
umer ousĠ
hy dr
ĠgiveĠ you
Ġveh icleĠ
ustain ableĠ
immediat elyĠ
-th e-
âĤ ¬
gorith m
ecos ystem
- h
? Ġhow
b irth
d iction
f itĠ
i Ġthink
j on
j un
j apan
n al
in Ġour
in suranc
sĠ under
en ess
an e
Ġs ec
ing ĠasĠ
ing Ġabout
it uation
ar ies
es ĠtoĠs
es thetic
ic ial
Ġc av
Ġp ress
ĠtoĠ br
ch ina
ch osen
Ġm ac
Ġb ath
Ġh eldĠ
Ġd ev
Ġd eep
us al
ation sĠandĠ
all el
Ġg ain
ex press
ex ecut
os itiveĠ
Ġl as
Ġl essĠ
Ġre d
ain tĠ
con stant
s.Ġ d
s.Ġ our
s.Ġ âĢľ
e.Ġ butĠ
Ġfor t
Ġtr avell
your Ġf
oc ean
sĠandĠ p
ip hon
ĠtheĠc ount
eĠd ur
eĠd etail
Ġj ournal
int ag
comp ared
Ġpl ayĠ
ob l
eg al
.Ġi âĢĻm
sp ar
sp end
ingĠs oĠ
ug gl
eĠto oĠ
Ġres ident
pre -
ing,Ġ butĠ
rit ish
Ġbe ingĠ
fac il
ĠtheĠw all
Ġtyp icallyĠ
Ġlif e.Ġ
gl as
lead er
sĠcan ĠbeĠ
gre ater
Ġappro priateĠ
Ġaccess or
rightĠ now
apt op
Ġpat tern
opportun ities
Ġint ellig
Ð¾Ð ²
Ġdid n'tĠ
Ġadvanc edĠ
Ġaltern ativ
-tim eĠ
Ġaren âĢĻtĠ
- sh
0 1
6 9
b ound
b urn
c ourt
d e
e ,ĠsoĠ
h en
h an
h ang
h ug
k ick
m etĠ
m ountain
p i
p an
r ust
s ett
s everal
t leĠ
x x
Ø §
Ġ #
eĠ v
eĠ our
Ġa Ġk
er ĠisĠ
re ward
at eĠtoĠ
at e.
ing .Ġs
ing Ġwork
it !
.Ġ byĠ
.Ġ it'sĠ
ar c
es Ġat
,Ġ we
is land
ĠandĠ will
Ġp ath
edĠ st
ĠtoĠ know
Ġb re
Ġb enef
Ġd en
le sĠof
Ġf eet
im iz
et ch
Ġto Ġshow
leĠ in
ad or
Ġof Ġin
ul y
eĠth eseĠ
Ġn ear
Ġst yle
Ġl ength
eĠs aidĠ
e.Ġ youĠcan
ĠtheĠs up
ĠtheĠs how
ĠtheĠs pec
Ġtr ustĠ
ateĠ a
ateĠ with
Ġad ultĠ
eĠm ov
,Ġs uchĠasĠ
Ġj o
eĠa ir
eĠa rea
eĠc olor
man ual
Ġ( $
eĠp ost
ingĠa rea
eĠf ac
Ġit al
ers âĢĻ
Ġaf fectĠ
ĠtoĠs aveĠ
go ingĠon
vers eĠ
ĠaĠm ember
rit or
itsĠ own
ĠaĠd ifferentĠ
di et
Ġappl i
und ayĠ
unt e
ĠaĠw eek
Ġen forc
ingĠh im
Ġph ysical
Ġsc ot
Ġdec emberĠ
eĠtr ain
happ yĠ
check Ġout
iat iv
ward ĠtoĠ
Ġdown loadĠ
cred it
Ġthere âĢĻsĠa
Ġaround ĠtheĠ
ser veĠ
olit ic
Ġcent ral
contactĠ us
adv anc
Ð½ Ð¸
relat edĠtoĠ
Ġ] .
ĠaĠpart icular
pract ical
, ĠtheĠd
, Ġthey
. Ġan
. Ġalso
0 4
4 1
a ug
b roken
d emonstr
f ol
h ospital
l ag
o em
p u
r d
r isĠ
r ific
Ġ ep
Ġ establish
in ess
Ġth om
sĠ butĠ
Ġs il
ing sĠof
ing ĠwasĠ
ing Ġhow
Ġc apt
ĠandĠ itsĠ
th ma
il tĠ
el v
for Ġexample
ĠtoĠ com
Ġm ax
Ġb er
Ġb adĠ
Ġb reath
Ġd ailyĠ
Ġd ollar
us ing
Ġf ir
Ġf ast
esĠ inĠ
em bl
ation s,Ġ
ad o
ad vertis
ay mentĠ
ex clusiveĠ
Ġn on
Ġst reetĠ
Ġand Ġtheir
ak er
entĠ with
ri vers
Ġthe at
e.Ġ h
est ĠandĠ
s,Ġ etc
Ġfor Ġm
wor ry
Ġtr ueĠ
oc toberĠ
por tĠof
Ġpro bablyĠ
eĠin t
Ġcon duct
Ġv ir
s>Ġ<s> Ġm
Ġr id
Ġr ub
li ber
Ġch icag
eĠm ostĠ
form at
act ical
rec ordĠ
Ġk or
Ġk ill
edĠb ack
Ġis Ġan
pos itiveĠ
new s
ĠaĠp rof
arg etĠ
ĠtheĠh istor
sel ect
ĠaĠ quick
se ek
di rection
ĠtheĠn umberĠof
Ġany whereĠ
Ġany thingĠ
cr aftĠ
Ġop t
ext end
Ġav ail
need edĠtoĠ
giv esĠ
rep eat
lim itedĠ
te ch
Ġinst itut
fre edom
Ġsub jectĠ
Ġdr ink
less on
ify Ġthem
met adata
Ġevery thing
Ġtell Ġyou
Ġtogether Ġwith
09 4
du eĠto
conc ept
Ġcap ital
Ġpay mentĠ
wash ington
atis faction
associ ation
Ġfron tĠof
Ġjan uaryĠ
Ġtransport ation
sĠav ailableĠ
Ġbeh ind
Ġapprox imatelyĠ
, ĠsheĠ
2 50
8 5
? Ġy
a Ġ(
b ell
c ross
d ig
g reg
i ans
m w
m ult
n d
s ight
w ind
y .Ġs
Ġ ver
eĠ when
Ġt emp
in f
sĠ l
ĠtheĠ year
an iel
re in
Ġs ayĠ
Ġs oundĠ
Ġs iteĠ
Ġs uccessful
ing Ġprocess
.Ġ justĠ
,Ġ pleaseĠ
Ġc ostĠ
om eg
th irdĠ
th Ġcentur
you t
Ġp in
ed Ġafter
Ġm oment
Ġb us
Ġb yĠs
Ġh ardĠ
Ġd inner
ur der
Ġin nov
ation sĠof
Ġto Ġall
eĠt oday
ĠthatĠ heĠ
eĠs ens
eĠof ĠtheĠm
.ĠtheĠ d
.ĠtheĠ f
s.Ġ youĠcan
per c
Ġon ĠthisĠ
oc us
bu f
ber ryĠ
ĠtheĠm an
ĠtheĠm ajor
ĠtheĠf ield
ĠtheĠf ilm
int ention
Ġex plain
s. com
Ġlo g
eĠp olic
cre atedĠ
iesĠ with
og en
ersĠ (
Ġit sĠs
.Ġi ĠwasĠ
es,Ġ includ
es.Ġ in
sĠs o
Ġacc eptĠ
ingĠin Ġ
Ġres ist
ĠtheĠh elp
emp ower
ĠaboutĠ your
look ingĠtoĠ
ann ual
includ eĠ
requ estĠ
qual ification
high estĠ
.ĠweĠ will
att leĠ
sur v
just ic
io dĠof
gl ass
la ugh
chi ef
hol der
cred iblyĠ
init ial
letĠ usĠ
coll ection
Ġtow el
full Ġof
goingĠtoĠ beĠ
found ation
sĠat ĠtheĠ
ii i
iffic ultĠ
effic ientĠ
required ĠtoĠ
Ġinvest ment
del ic
Ġlist en
beh indĠ
Ġappoint ment
vict or
stra ight
iceĠc ream
, Ġthough
. h
/ s
8 7
b yĠs
c aseĠ
c ameĠ
d am
e :Ġ
g ressĠ
j ud
l en
n ess.Ġ
r dĠ
r ound
s ession
s inceĠ
u z
Ñ Į
Ġa Ġspecial
Ġa gric
Ġth orough
sĠ w
sĠ outĠ
sĠ wasĠ
on om
on ĠthisĠ
re alĠestateĠ
ar a
ar ian
es k
,Ġ itâĢĻsĠ
ic lesĠ
ĠandĠ re
Ġw ast
st yle
edĠ under
ed Ġall
ed .Ġs
ĠtoĠ beĠs
ro ot
ch a
Ġb lock
Ġb eaut
Ġb loodĠ
Ġb rother
us ingĠtheĠ
ac count
Ġf air
ig u
Ġin ĠmyĠ
Ġof ĠmyĠ
ul in
Ġg all
Ġg erman
itĠ can
our th
Ġn ext
Ġand /or
ak eholder
pro gress
entĠ on
qu ant
ri dĠ
eĠof fic
oo st
enc e,Ġ
Ġtr a
cl ientĠ
ack Ġof
Ġcom par
Ġor ganiz
,Ġs om
Ġcan ada
ĠtheĠp urpos
Ġex chang
Ġsp e
eĠp oint
tr ack
Ġtim es
Ġtim eĠto
Ġpl usĠ
ers ĠthatĠ
eng land
ienc eĠ
ifĠyou ĠhaveĠ
eĠfor Ġ
yĠof Ġ
ingĠin toĠ
19 3
ĠaĠc ar
look ĠatĠ
olog ist
ari oĠ
car ryĠ
Ġsom e
stor yĠ
cons in
cor porateĠ
ock et
ingĠh igh
ĠwhatĠ isĠ
Ġout door
ĠasĠwell ĠasĠa
,Ġyou âĢĻll
ĠatĠtheĠ endĠof
Ġair port
Ġreg ulation
fil ter
Ġro of
him self
larg estĠ
Ġfac ebook
esĠs uchĠasĠ
lov elyĠ
Ġinclud esĠ
Ġbefor eĠ
Ġcount ri
Ġtem por
Ġgre ater
Ġeas ilyĠ
regard lessĠof
dom in
des p
iam i
environment al
Ġbeg inn
ĠdidĠ notĠ
Ġext rem
entertain ment
effectiv elyĠ
Ġcare er
Ġfut ureĠ
contr actĠ
ĠareasĠ of
ĠtheĠdevelop mentĠof
ĠtheĠgener al
) ĠtoĠ
, ĠanĠ
, Ġalthough
. Ġthes
. Ġanother
0 7
a a
b our
c m
c ancer
e over
f li
f ire
g org
i Ġwill
m el
m ok
p aint
r h
s en
s ec
y ellow
Ã ¼
Ġt ag
sĠ dur
ou dĠof
ar ia
,Ġ whil
is edĠ
Ġw onder
Ġp ast
for ward
st ead
ed Ġabout
ĠtoĠ ensur
Ġm ag
Ġb road
Ġh otĠ
Ġd epend
us i
us eĠa
ac cur
ter ior
ay ment
Ġg oogleĠ
ex actĠ
ab ly
Ġn ic
Ġst ra
Ġst yl
Ġl i
Ġl ayer
eĠt ook
sĠof fic
sĠa m
s,Ġ m
cl assĠ
Ġyour self
Ġr ain
Ġcan 'tĠ
int ens
Ġi ĠwasĠ
Ġsp eed
comp le
cre aseĠ
edĠin ĠthisĠ
Ġis rael
eas y
Ġle av
when ĠtheĠ
bo oĠ
Ġthrough outĠtheĠ
pre viousĠ
fin anc
whatĠ weĠ
get sĠ
sĠon Ġyour
se e
ingĠb utĠ
Ġyear sĠago
ari o
ident ifyĠ
Ġstud yĠ
high light
ĠweĠ ar
sur pris
off eeĠ
befor eĠyou
ingĠto gether
Ġallow sĠyou
ĠitsĠ own
Ġaw aren
stud entĠ
Ġgu ard
Ġlik eĠtheĠ
ĠdoĠ i
Ġalong ĠtheĠ
âĢĻveĠ been
loveĠ toĠ
Ġaccess ĠtoĠ
Ġplay er
Ġlead er
whether Ġyou
eĠsp ac
Ġvari etyĠof
Ġpersonal Ġdata
sĠlik eĠa
olid ayĠ
ĠtooĠ much
Ġpass ion
u. s.
ĠtoĠse eĠtheĠ
govern ment
Ġbeg an
ipl in
Ġuniqu eĠ
elig ibleĠ
aryĠs chool
Ġapprec iat
b lock
c ityĠ
d oubt
f itt
l ect
n essĠof
p il
p ump
p urchaseĠ
r ink
s av
s uccessful
u v
v oc
w iseĠ
Ñ ħ
Ġ enc
Ġt able
sĠ shouldĠ
Ġs hap
Ġs eptemberĠ
yĠ p
.Ġ notĠ
.Ġ however,Ġ
ar ound
ar ilyĠ
is Ġan
is ĠthatĠ
Ġc lin
Ġc aseĠ
ĠandĠ n
ĠandĠ un
ĠandĠ hisĠ
Ġp ageĠ
ch ocol
Ġm oveĠ
isĠ not
Ġh eadĠ
Ġd escription
ur d
em Ġcell
et ition
et ric
ation Ġand
ingĠ un
wh oĠs
Ġal ign
ay lor
Ġg ather
with Ġyou
com ingĠ
eĠt urn
Ġre plac
s.Ġ you
per iodĠ
uc ial
e.Ġ on
ap or
sĠof Ġm
sĠa gain
Ġfor eign
ant ly
ĠasĠ partĠof
Ġv oic
od ium
other wis
can Ġhelp
ich el
ĠisĠ not
eĠm arket
Ġab ov
eĠd i
eĠd evic
Ġsp ok
Ġsp read
year Ġ
eĠp ark
tr action
cont ribution
yĠs ervic
ure lyĠ
comm and
ĠthereĠ wereĠ
br it
eat her
inter pret
Ġafter noon
provid er
fl ictĠ
ingĠp eopleĠ
don esia
esĠof Ġ
ĠaĠl if
Ġse en
,Ġand Ġthen
sc al
car ry
co al
Ġper iod
Ġrec over
Ġappl ianc
ient ist
Ġcomm itment
becaus eĠtheĠ
inst itut
Ġbusin ess.Ġ
stat eĠof
Ġaut oĠ
dep os
Ġlook ĠatĠ
Ġpar ent
wayĠ of
Ġeach Ġother
cent r
Ġdr aw
famil iar
emb ly
Ġfre eĠtoĠ
ĠtoĠmak eĠ
Ġassoci atedĠwith
Ġprot ocol
Ġcreat iveĠ
cap ital
print ableĠ
Ġmy self
whol es
encour ageĠ
prim aryĠ
esp it
usb andĠ
uaf v
Ġadvis or
Ġsection Ġ
chan ism
Ġsatur day
âĪ Ĵ
) ;
, Ġto
, ĠtheĠp
. s.Ġ
. ĠanĠ
a res
b ad
c utĠ
d ark
d octor
g un
k eptĠ
l iter
n ger
o ard
s ent
s ĠtheĠs
s man
y ĠtheĠ
z on
ing Ġplac
.Ġ or
.Ġ hisĠ
.Ġ pleas
,Ġ noĠ
ic ienc
Ġc amer
Ġc andid
Ġp ot
for um
ed ĠtheĠc
ed ĠtheĠp
ch anc
Ġb ott
Ġb rown
Ġd ifferent
ver ify
Ġin jur
Ġar r
Ġg ift
ag e.
itĠ on
os oph
Ġst opp
Ġl ower
eĠt alk
eĠof Ġour
con sc
be an
sĠof ĠtheĠc
s,Ġ i
Ġwith Ġour
ĠasĠ possible
Ġac qu
art ridg
haveĠ to
pr inter
Ġr en
Ġr ather
eĠm ay
eĠm ember
form Ġof
eĠd id
eĠtoĠ your
work sĠ
ĠtheĠb ottom
her e.
s. ĠtheyĠ
Ġlo ck
Ġsp onsor
ĠtheĠd i
ĠtheĠd ecision
Ġtim eĠwith
Ġtim eĠyou
ne edĠfor
Ġpl ug
Ġaf fair
oneĠ with
ĠaĠp ar
ĠaĠp ower
Ġres olution
yst er
ĠtheĠl iv
ik eĠ
ĠaĠm an
let t
Ġgr aph
under tak
every thingĠ
Ġper hap
ingĠd is
rel ated
elect edĠ
ĠaĠh and
Ġcomm ission
prof itĠ
eĠsh op
inst eadĠof
Ġaw ardĠ
itiesĠ for
stud yĠ
.Ġyou Ġwill
ĠâĢĵ Ġ
eĠand ĠtheĠ
Ġtrain ing
Ġfr iday
check ĠoutĠ
,ĠweĠ areĠ
te chn
18 0
respons ibleĠ
Ġtoday âĢĻsĠ
edĠup on
Ġel ection
Ġway ĠtoĠ
coll abor
color ingĠp
appl ic
Ġcount yĠ
eĠsom eth
christ masĠ
prom is
Ġgl as
exam in
necess ary
Ġhear t
Ġcontinu eĠtoĠ
pack ag
improv ement
eĠdo es
Ġcustom ersĠ
expert is
Ġmus eum
perhap sĠ
Ġafric an
eĠmin ister
Ġdat abas
gin ia
Ġchem ical
virt ual
! "
) Ġfor
, ĠatĠ
, ĠaĠs
b ak
c ounter
d ateĠ
h arm
i ac
j er
j uneĠ
l ord
l anguag
m p
o dĠof
s ound
w inter
x iet
y thon
in Ġt
Ġth read
sĠ whereĠ
tĠ s
re pl
Ġs pl
Ġs uccess
Ġs election
at es,Ġ
ing Ġstrateg
it ĠandĠ
al esĠ
al tern
is it
Ġc ancer
th eĠp
Ġw is
Ġp ad
Ġp opular
st itut
ed ?
Ġm icro
âĢ ²
Ġd og
Ġd rop
Ġd omain
le -
le .Ġ
us ingĠ
ac ific
ol a
ol in
ol idĠ
ur eĠtheĠ
Ġf ebruaryĠ
et on
am inĠ
am booĠ
Ġto Ġt
Ġto Ġst
Ġto ĠachieveĠ
un dr
ingĠ i
wh os
ul at
ab b
with Ġa
Ġl unch
pro gres
eĠt oldĠ
ĠthatĠ h
con cret
.ĠtheĠ b
s.Ġ if
iv ely
ist ry
Ġwh iteĠ
gr andĠ
bu g
Ġv eg
other Ġhand
Ġr ul
Ġat l
Ġat Ġany
eĠm aterial
ĠtheĠf loor
,Ġs p
eĠd ef
man n
ition al
Ġ( s
ĠtheĠd ifferenc
ne got
cont roller
eĠf il
oneĠ isĠ
str ument
ingĠtoĠ beĠ
yĠof fer
bo y
ingĠp er
amp leĠof
ann er
sit uation
fac ebook
Ġmak esĠ
Ġmak eĠa
cor ner
Ġph il
ĠwouldĠ likeĠtoĠ
log g
Ġreg istration
Ġcr usher
s,Ġs oĠ
hand l
ĠaĠre al
cent ur
acter ia
ĠifĠyou ĠareĠ
Ġcompan ies
idea Ġof
Ġtow ardĠ
espec ially
Ġpos itiveĠ
Ġsm art
may beĠ
acc ept
represent ativ
mightĠ beĠ
committ eeĠ
didĠ notĠ
Ġrem ot
Ġext ension
ĠtheĠfut ure
Ġdisc ussion
Ġchrist ian
Ġnov emberĠ
fortunat ely
embr an
sĠasĠwell ĠasĠ
Ġcommitt e
ĠanĠexc ellentĠ
sĠass oci
olym pic
, Ġar
6 7
_ uafv
a e
a ver
b loodĠ
c loth
d al
d ress
d ifferenc
g eorg
h oldĠ
j ectĠof
l istĠof
p leĠ
r .Ġ
r ail
r ug
w ire
y Ġstor
eĠ k
eĠ was
Ġt ank
er âĢĻsĠ
en ,Ġ
en ateĠ
Ġs em
Ġs ecur
Ġs econdĠ
Ġs ector
Ġs oftwar
Ġs afetyĠ
ing ĠtheĠt
it sĠs
al con
ic sĠ
Ġc amera
ĠandĠ on
ĠandĠ even
th re
el se
Ġw estern
you ĠtoĠ
Ġp ayĠ
Ġp ostĠ
Ġp ush
for Ġall
st yl
ed .Ġi
ed ĠatĠtheĠ
ĠtoĠ myĠ
ro idĠ
Ġm om
Ġb it
Ġh ors
le ans
le ather
us c
Ġin Ġm
Ġin Ġour
et al
am eter
lo tt
ad eĠ
Ġof ĠtheĠf
Ġg ameĠ
ex ual
with ĠthisĠ
Ġl abor
Ġl iter
Ġl uxur
com esĠ
ri a
s.Ġ itĠisĠ
and -
ev olution
ĠasĠ soon
s>Ġ<s> Ġh
Ġr ug
Ġat ĠthisĠ
Ġcom prehensiveĠ
eĠm ustĠ
Ġor ganis
ĠtheĠb igg
Ġi 'm
soĠ far
ĠtheĠd ayĠ
Ġis ĠalsoĠ
Ġtim eĠof
Ġtim eĠi
wasĠ post
es,Ġ butĠ
y,Ġ or
Ġus eĠtheĠ
reat ment
mon t
provid edĠ
ĠaĠ $
fl ag
ĠaĠl istĠof
Ġwork shop
sĠand Ġtheir
ĠtheĠn am
hap ter
Ġany on
Ġsom eon
Ġstud iesĠ
app leĠ
stor m
ept ember
prof essor
Ġteam Ġof
ĠtoĠbeĠ a
tim eĠ
nam ent
compan yâĢĻsĠ
ask et
eu ro
Ġsal t
Ġstart edĠ
icip al
hear d
start edĠ
cent ral
vide os
Ġbas ic
Ġspeak er
Ġtreat mentĠ
engag ement
conc il
Ġanswer :
Ġmov ement
iou sĠs
Ġbeg in
Ġgiv en
ĠaĠlarg eĠ
ustral ian
Ġassess ment
Ġland scap
fa ith
avour it
las er
Ġtab let
. ĠtheyĠareĠ
5 9
g ent
h es
i ativeĠ
l d
l ap
m ac
m and
m ovi
s Ġthem
s ection
Ñ ĩ
Ġ |
Ġ er
Ġ effort
Ġa h
Ġa Ġplac
Ġa lex
in Ġtheir
in ĠmyĠ
in fo
on ĠmyĠ
tĠ with
re lyingĠpart
Ġs afet
al egal
.Ġ y
.Ġ can
.Ġ do
.Ġ inĠtheĠ
.Ġ whenĠyou
oĠ c
,Ġ br
ion i
ĠandĠ ch
el yĠandĠ
st reetĠ
ed ,ĠtheĠ
ĠtoĠ offer
as p
Ġf avorit
Ġf abric
im mer
esĠ your
Ġin c
Ġin ĠtheĠc
ation sĠfor
am entĠ
Ġof ĠhisĠ
Ġyou ĠtoĠ
Ġand ĠthatĠ
pro bably
com esĠwith
up load
rom ot
um bl
iv or
sĠa tt
ep ic
Ġfor Ġall
ĠtheĠs ystem
Ġsh or
Ġon eĠs
Ġall -
Ġv irt
Ġyour Ġown
Ġad am
Ġch ina
Ġch ampion
Ġcan Ġi
Ġcan âĢĻtĠ
act ual
act uallyĠ
ind on
ind ia
work Ġin
ition Ġof
eĠb edroom
eas il
ass ign
eĠf r
eĠf ound
ersĠ from
.Ġi ĠloveĠ
sp ot
ost on
y,Ġ butĠ
es.Ġ weĠ
ful fill
Ġag eĠ
ans ion
ĠaĠp r
e, ĠthisĠ
inter estĠ
ĠbeĠ ableĠtoĠ
ĠaĠf re
ĠtheĠl ast
Ġtw ent
ĠaĠc all
ingĠp r
ingĠm on
Ġwork ingĠwith
wouldĠ haveĠ
ĠtheĠg re
Ġcont ribut
eĠyou Ġwith
.Ġm ay
ext ension
ĠtwoĠ year
Ġmin dĠ
giv esĠyou
web inar
exc el
exc ell
willĠb eĠa
Ġfr idayĠ
poss iblyĠ
level Ġof
Ġaccess ibleĠ
ugg leĠ
obil eĠ
Ġthre e-
ĠhadĠ been
Ġfil ter
Ġsur pris
personal Ġdata
Ġtour ism
Ġdef in
class room
ucc essĠ
imm un
christ mas
compet itiveĠ
Ġdist rictĠ
invest ig
kid sĠ
sor b
ĠableĠ to
Ġlarg eĠ
ĠlastĠ year
entertain mentĠ
appro ach
Ġaug ust
chan ical
rup t
vil le
utor ial
compre hensiveĠ
ĠaĠmon th
( s
- to
5 4
6 00
9 00
a Ġis
a way
b atter
c offe
d m
d ish
f ear
f ashion
f abric
h eal
j ul
n earlyĠ
o of
s witch
w ideĠ
y ard
y ardĠ
Ġ e
Ġ o
eĠ -
Ġt attoo
sĠ hisĠ
er emon
or al
ĠtheĠ work
re tĠ
Ġs cr
Ġs ugar
.Ġ v
.Ġ whyĠ
,Ġ pleas
Ġc ouncil
ĠandĠ hasĠ
th an
Ġw ind
Ġp artĠ
Ġp rep
Ġp sych
ed ĠaĠb
ĠtoĠ re
ĠtoĠ other
Ġm os
Ġm ult
Ġm ovi
Ġb all
Ġb odyĠ
Ġd escrib
ac qu
Ġto Ġthem
un lessĠ
ad min
wh elm
all yĠandĠ
Ġal t
our ism
Ġst on
eĠt op
eĠs erv
eĠs upport
Ġre f
s.Ġ heĠ
and om
ew ay
e.Ġ our
ĠtheĠs id
iveĠ andĠ
Ġtr ick
out stand
end oz
ack ag
Ġv acation
sh o
Ġj ul
Ġj ew
e. ĠsoĠ
man ageĠ
man ner
ĠtheĠd etail
ĠhaveĠ theĠ
Ġus edĠ
are lyĠ
ĠaĠc r
ĠaboutĠ it
Ġass et
Ġass ertion
sĠwith outĠ
ĠaĠd ay
ĠtheĠg reat
eĠyou ĠhaveĠ
ĠaĠg reat
co .
gu y
ath an
Ġim plement
Ġind ian
arm ac
med icin
Ġtrans mission
Ġph ys
Ġallow sĠ
Ġwe ightĠ
manag er
Ġair Ġcondition
Ġfr anc
Ġco -
s,Ġs uchĠasĠ
Ġunder standĠ
Ġmar ri
Ġmonth sĠ
Ġbas edĠon
hon or
lastĠ week
Ġsur fac
install ation
Ġlaw yer
ched ule
Ġjust ic
Ġdist ribution
Ġoc toberĠ
Ġadmin istr
particip ant
Ġindust ryĠ
Ġsocial Ġmedia
ideal Ġfor
oph istic
Ġenjo yĠ
ofĠcours e,Ġ
tm l
eĠthey ĠareĠ
Ġlim it
Ġspect rum
chatĠ room
ingu ish
, Ġtoo
5 2
a Ġh
b ow
c b
c ourtĠ
d iss
e i
g estĠ
i ouslyĠ
j unction
l b
l c
l amp
m ount
m osp
n urs
r uleĠ
s Ġthan
s implyĠ
w arn
y d
z ad
Â °
Ġ object
Ġ evalu
Ġ engineer
eĠ areĠ
eĠ hasĠ
Ġt il
Ġt ur
Ġa uction
in ĠtheĠc
sĠ g
sĠ down
sĠ show
on Ġp
ĠtheĠ onlyĠ
ou pl
Ġs and
Ġs uggest
Ġs elf-
at edĠbyĠ
ing Ġsh
ing Ġcan
ing Ġwater
ar rang
,Ġ california
Ġw est
Ġp rec
st uck
edĠ when
ed ,Ġs
ed ĠandĠs
ch icag
Ġm atter
Ġm irror
ent ry
Ġd eck
us esĠ
ac adem
im ental
ig eria
Ġin donesia
am per
lo st
ingĠ other
ad ium
Ġal ert
ill ino
Ġyou ĠmayĠ
ha re
with Ġour
Ġand ĠalsoĠ
Ġl istĠof
eĠs chool
ri dĠof
Ġre ferenc
con duc
e.Ġ âĢľ
sĠof ĠtheĠs
Ġsh ad
ant ageĠof
Ġall ĠofĠtheĠ
art icleĠ
ateĠ for
eĠin creas
eĠin dust
Ġat ĠtheĠtim
Ġas thma
ĠtheĠm ountain
we 'reĠ
ity .ĠtheĠ
eĠd eliver
rec ruit
work edĠwith
ĠtheĠb ig
Ġj udg
ong o
Ġ( g
ingĠa fter
'sĠ s
eĠf ram
ers .ĠtheĠ
eg ment
mor eĠf
eng uin
.Ġs eeĠ
Ġwor th
Ġun ion
dr ug
ph ys
Ġres ultĠof
Ġtw itter
whoĠ haveĠ
e- up
rit ical
Ġcont ribution
eĠyou ĠareĠ
Ġatt itud
doĠ not
co -
Ġper fectĠ
fr uit
Ġcl imb
Ġrec ordĠ
,Ġi Ġam
ĠtheseĠ areĠ
cal cul
Ġim m
Ġthink Ġof
red Ġto
.Ġin Ġfact
mad eĠa
ock tail
ingĠh om
oper ator
compan ies
ym bol
Ġro adĠ
Ġrel ax
Ġauth entic
def init
press ureĠ
war r
hear tĠ
,ĠsoĠ i
Ġmember ship
umb ia
pat tern
ref resh
Ġtoward sĠ
care er
unitedĠstat esĠ
vill ag
Ġdem and
bey ondĠ
sĠmayĠ beĠ
Ġpartner ship
conven ienc
Ġlef t
Ġarrang ement
Ġorig in
oist ur
equipp edĠwith
haw k
ersĠb ibleĠ
, ĠareĠ
- on
e âĢĻdĠ
h al
h eĠisĠ
h abit
m otiv
p op
s inc
s ĠanĠ
s ummer
t g
ì Ŀ
Ġ ic
Ġ emb
Ġ util
Ġ ideasĠ
eĠ as
Ġt ough
on to
an ic
Ġs now
Ġs enior
ing Ġwhich
it 's
yĠ wasĠ
al on
ar b
ar in
ar ri
ar iesĠ
,Ġ from
,Ġ justĠ
ic ator
is ation
Ġc m
Ġc ameĠ
Ġc ounter
el der
Ġp akistan
st eadĠof
edĠ g
ed ĠtheĠf
ĠtoĠ createĠ
ro veĠ
Ġm eal
Ġm ission
Ġm otor
Ġb udget
ent ĠandĠ
Ġh um
Ġd riveĠ
le mon
us edĠto
Ġf eltĠ
Ġin Ġf
Ġin form
un ish
ingĠ âĢĵ
ul f
âĢĻ .
ag er
Ġl ibr
pro tein
com eĠtoĠ
eĠt ax
ĠthatĠ wouldĠ
e.Ġ itĠisĠ
be ingĠs
s,Ġ in
s,Ġ you
e,Ġ weĠ
cl oud
ĠasĠ long
sĠandĠ c
gr ac
gr ain
pr oud
eĠtheĠ bestĠ
sh ort
ust er
can 'tĠ
ich igan
eĠm od
we âĢĻll
we âĢĻreĠ
Ġor ganic
av id
,Ġs c
eĠd on
eĠa re
ĠtheĠp oss
Ġex act
Ġ( h
Ġ( or
Ġis ĠthatĠ
Ġis ĠaĠs
ne y
ne ither
eĠf amil
mak eĠyour
ĠtheĠt otal
Ġthem Ġin
way sĠtoĠ
.Ġs omeĠ
sĠs om
eĠh and
dr y
go esĠ
go ingĠto
ll c
Ġres um
Ġres erv
sid eĠof
Ġadd ressĠ
ĠaĠc ertain
ĠaboutĠ how
eth nic
whoĠ isĠ
ingĠb yĠ
under st
sc op
ingĠfor ĠtheĠ
ingĠd ay
Ġcl imateĠ
Ġther e.Ġ
Ġrec ip
ingĠof Ġ
Ġmon day
ĠaĠh ealth
ĠaĠh alf
whereĠ you
sur fac
Ġtrans formation
ingĠto ol
Ġare a.Ġ
Ġph otos
ublic an
gl ad
Ġgo dĠ
eu erman
Ġann ivers
lessĠ gutter
wher eĠtheyĠ
ĠtoĠd etermin
chi ev
Ġfl ash
eĠan other
Ġrequ ir
click Ġon
opportun ity
claim edĠ
creat ingĠa
-in ch
hard ĠtoĠ
dist ribut
invest mentĠ
eĠdo esĠ
Ġacros sĠ
ĠtoĠhelp Ġyou
emerg enc
emerg encyĠ
reli ableĠ
stant ial
Ġcred it
Ġpack ag
won âĢĻtĠ
edic atedĠ
dem and
camp aign
Ġsol idĠ
Ġafric a
propos al
focus edĠon
88 8
Ġrest aurant
ĠtheĠnor th
abul ousĠ
neg ativeĠ
euerman n
' .
( andĠ
, ĠasĠa
. ĠthatâĢĻsĠ
c eĠ
c at
d p
d eath
e asĠ
f an
g oneĠ
i Ġwas
p en
p astĠ
s d
s am
s ĠthisĠ
s ĠtheyĠ
s ung
u zz
v acation
y rightĠ
z o
z ip
Ð ¿
Ġ em
Ġ roll
Ġt i
Ġth in
sĠ v
sĠ itĠ
or ang
Ġs ea
Ġs ecret
at ingĠin
ing sĠareĠ
ing ĠwhatĠ
it leĠ
,Ġ (
,Ġ it'sĠ
,Ġ whileĠ
is Ġalso
om estic
ĠandĠ l
ĠandĠ our
th ,Ġ
Ġw ent
Ġw elcom
Ġw oman
Ġp remium
st antĠ
ed ĠtheĠm
ed ĠaĠp
ed ĠthatĠtheĠ
ch ip
Ġm ap
Ġh all
Ġh oliday
Ġd ut
Ġd emonstr
us ed
Ġf ellow
Ġin Ġc
Ġto ĠavoidĠ
un day
ingĠ &
ul k
Ġal gorithm
Ġar gu
Ġg iftĠ
ag en
ag ent
ab outĠtheĠ
Ġn ation
Ġn atur
Ġl iqu
com eĠin
eĠs heĠ
ri beĠ
eĠof Ġc
Ġre stor
con clud
s.Ġ p
s.Ġ butĠ
ess ay
Ġtr oubl
Ġall erg
gr ab
Ġcon firm
s>Ġ<s> Ġb
sh ot
will ĠnotĠ
Ġr h
can âĢĻtĠ
Ġor ang
eĠd ayĠ
notĠ justĠ
notĠ only
ind ex
ĠtheĠb all
ĠtheĠb enefit
eĠa ĠlotĠof
ĠtheĠp ict
eĠc reat
Ġ( b
eĠp oss
ĠtheĠd oor
yĠs ystem
when ever
when ĠitĠcomesĠtoĠ
.Ġs e
ĠaĠs econdĠ
Ġus edĠtoĠ
str ict
eĠh ereĠ
not e:
ingĠin dust
even Ġif
arg in
rem ind
s, ĠthisĠ
ĠitĠ was
atedĠ from
Ġres ultĠ
bo ot
mon dĠ
edĠby Ġa
ingĠb e
ĠaĠd ec
ann ounc
di vers
requ ires
az il
know Ġhow
Ġbe am
ĠaĠg ener
Ġsom eĠs
.ĠweĠ ar
employ ment
ĠtheĠr isk
att ack
Ġart work
need sĠtoĠ
eĠsh opp
Ġstor y
gener ateĠ
Ġsc ientific
Ġgu arante
Ġair yĠbeam
Ġlik elyĠ
gl assĠ
prov en
eĠtr avel
Ġcr is
ven ueĠ
ĠanĠin t
ee z
Ġhous eĠ
Ġcor por
Ġdef initelyĠ
guid elin
dist ribution
engag ementĠ
Ġinvest mentĠ
Ġadmin ist
draw n
auc tion
col our
Ġunivers ityĠ
aud i
ĠtheĠbas ic
rout in
elig ibleĠfor
rand om
Ġafford ableĠ
ĠaĠwideĠ rangeĠof
Ġrecogn ition
Ġconvention ĠheldĠ
.ĠtheĠn adĠ
omeg aĠ
! )
% ,
( p
) ĠisĠ
, ĠthereĠareĠ
- of
- minut
. d
. Ġthat
0 6
b il
b ed
d ial
d ollar
f t
f eed
f lower
f eltĠ
i etĠ
i olog
j i
m att
p atch
q :
r oundĠ
s n
s ĠalsoĠ
u sĠof
u sĠfor
v r
Ġ .Ġ
Ġ oil
Ġ Ïī
eĠ weĠ
Ġt ol
Ġt all
in fluenc
sĠ work
on ic
on ym
or Ġother
en roll
Ġs low
Ġs endĠ
Ġs cal
at tĠ
at ed.Ġ
ing s.
it ,Ġ
.Ġ dr
es ĠasĠa
,Ġ mak
,Ġ new
is ĠanĠ
is cal
th ey
il eg
Ġw al
Ġw entĠ
Ġw estĠ
Ġp ur
st ayĠ
ed ication
ed ĠanĠ
ĠtoĠ go
Ġm r
Ġb ed
Ġb rowser
Ġh eatĠ
Ġd e
Ġd er
us eum
Ġf lex
esĠ which
esĠ âĢĵ
Ġin Ġwhich
Ġin vit
ex clus
ex pression
our selv
Ġand ĠtheĠc
com eĠup
eĠt oo
eĠs uch
up il
Ġre pl
Ġre portĠ
s,Ġ d
anc el
ell ect
der iv
ant on
out putĠ
ea redĠ
Ġcon cret
s>Ġ<s> Ġin
sĠin Ġour
will ingĠtoĠ
Ġr am
ableĠ t
can adian
eĠm eet
ĠtheĠf l
notĠ been
ish op
Ġj am
eĠa f
edĠb etween
edĠb elow
eĠc urr
eĠc ertain
Ġi Ġcan
Ġi âĢĻm
man ufact
eĠp re
eĠp ict
comp at
ass ist
ure mentĠ
ersĠ will
mak ingĠa
eg reeĠ
ous eĠ
ous ly
ost er
way Ġto
br oughtĠ
ingĠs c
Ġthes eĠb
y.Ġ weĠ
but ter
ĠaĠp rivateĠ
min imum
Ġtw ic
Ġass emblyĠ
sĠwith in
plac eĠtoĠ
ingĠb ook
Ġcomp onent
di agnos
ĠtheĠg arden
Ġse tĠof
qual ifi
Ġup dat
ĠtheĠn umber
fr anc
,Ġm ayĠ
edĠfor ĠtheĠ
Ġrec entlyĠ
Ġstud io
chang esĠ
back ĠtoĠ
und redĠ
Ġim mediat
ityĠof ĠtheĠ
no .Ġ
ures ĠandĠ
lif e.Ġ
eĠsh all
Ġinter action
Ġter ritor
ral ph
proc eed
Ġprovid es
valu eĠ
Ġask edĠ
perform anceĠ
ĠanĠin creas
mean whil
ĠifĠyou ĠhaveĠ
Ġwhat ever
Ġminut es.Ġ
findĠ outĠ
ĠÐ ½
ĠavailableĠ in
direct ly
empt yĠ
Ġcli entsĠ
Ġsm ooth
power ful
Ġexc ellentĠ
fun dĠ
recogn ition
Ġme ans
Ġdu eĠtoĠ
Ġcol our
bert a
decid edĠtoĠ
proper lyĠ
ĠtheĠsc en
asc in
rim inal
embr ac
relev antĠ
yĠshowerĠbingoĠcard sĠ
Ġthreat en
endantĠ lightĠbulb
Ġpropos al
Ġwhol eĠ
islam ic
Ġindepend entĠ
Ġimport antĠ
Ġwash ington
Ġpers pect
Ġanc ientĠ
! ĠthankĠyou
) Ġis
, ĠtheĠt
5 6
a ultĠ
b rother
c t
c ouncil
e yĠs
h ou
h otĠ
i ĠhadĠ
m achineĠ
s ac
s ia
s aidĠ
u lesĠ
w estern
z a
Ã ¶
Ġ energ
Ġ earn
Ġ ideas
Ġt extĠ
sĠ youĠcan
sĠ basedĠon
sĠ regard
er y
Ġs even
at edĠtoĠ
ing ful
it u
Ġan Ġhour
al ,Ġ
.Ġ ch
.Ġ well
.Ġ oneĠof
ar ter
oĠ isĠ
,Ġ wasĠ
ic esĠ
ic atedĠ
Ġw inn
Ġp op
Ġp astĠ
Ġp aul
st itution
edĠ itsĠ
ĠtoĠ $
ro cer
ro bertĠ
ch and
Ġm ention
Ġm ountain
Ġm essag
ow el
Ġd aughter
us es
ac y
ac leĠ
ol iveĠ
ur ation
ur eĠto
Ġf ur
Ġf light
id e,Ġ
esĠ lik
Ġin Ġb
Ġin Ġtheir
et m
Ġto ĠtakeĠ
ir r
ir tĠ
ingĠ event
Ġal umin
eĠth os
Ġand ĠtheyĠ
pl ic
Ġl ad
s.Ġ however
e.Ġ if
ess ayĠ
sĠof Ġour
Ġfor Ġtheir
ĠtheĠs un
e,Ġ youĠcan
Ġtr igger
anc e.
Ġall Ġ
otĠ of
sĠandĠ servic
ateĠ your
Ġpro v
haveĠ you
ĠtheĠm ost
we 'll
eĠd ist
ĠtheĠb ar
eĠa ut
ies tĠ
int ageĠ
eĠc oll
s. Ġafter
eĠb usinessĠ
comp il
Ġis ĠanĠ
Ġis land
ick er
Ġpl astic
ersĠ or
ers '
lin e.Ġ
Ġthem .
eng er
br andĠ
to oĠ
ervic eĠ
sĠs uch
ĠtheĠh ol
ĠtheĠh ealth
ĠtheĠh oliday
mon tĠ
amp ton
Ġgr ant
Ġyear s,Ġ
Ġwork Ġwith
los s
inĠ other
co ordin
bas is
part yĠ
esĠtoĠ beĠ
Ġstud y
high Ġschool
ath em
.Ġm ostĠ
chang eĠtheĠ
som etimesĠ
ĠtheseĠ ar
cal m
sĠto gether
actĠ with
cons ervation
dayĠ of
much Ġmor
Ġart istĠ
Ġtrans ition
dec ad
edĠs omeĠ
Ġbr idg
Ġthank sĠtoĠ
Ġthank sĠfor
eh oldĠ
Ġtyp eĠ
Ġsc ript
Ġgu y
ym n
Ġbu ildĠ
sĠc ouldĠ
Ġif ĠtheĠ
lessĠ steel
istr yĠof
proc ess.Ġ
.ĠifĠyou ĠhaveĠ
Ġco ach
Ġprovid eĠ
win dĠ
ebr u
uss ia
.Ġif ĠtheĠ
Ġaround ĠtheĠworld
ox y
ali bu
auth nr
fill edĠwith
09 2
disc ussion
ensur eĠthatĠ
Ġnor mal
epar at
Ġme etĠ
Ġanalys isĠ
character istic
Ġindust ry
Ġindust rial
Ġimag in
Ġsens or
Ġveh icle
Ġwher eĠtheĠ
rup tion
Ġlot sĠof
ĠtheĠfact ĠthatĠ
Ġrang eĠof
agr aph
plaint iff
impress iveĠ
eut ic
urric ulum
estin ian
Ġrelig ion
atell it
olom it
Ġvict or
ĠtheĠbigg estĠ
! ĠtheĠ
, ĠthereĠar
. ĠthereĠareĠ
0 8
2 16
7 00
a qu
a Ġfor
c rib
c ategor
d ut
e iv
f riendĠ
g art
h o
h eatĠ
i 'veĠ
p rivateĠ
p olitical
s ch
w eĠoffer
y an
Ä ģ
Ġ equipment
Ġt argetĠ
Ġa Ġstrong
Ġa egir
Ġs in
Ġs oul
Ġs impl
ing ,Ġand
it ĠtoĠ
it ĠalsoĠ
yĠ from
.Ġ oneĠ
.Ġ manyĠ
es )
,Ġ byĠ
is ĠaĠs
Ġc ast
Ġc ross
ĠandĠ mor
ĠandĠ sp
th ink
il ig
Ġw ir
Ġw onderful
Ġw eather
Ġp air
Ġp ull
Ġp aint
for ĠmyĠ
for wardĠ
for eign
edĠ your
ed :
ed ĠaĠs
Ġm m
Ġm ust
Ġb uck
Ġb atter
Ġb athroom
Ġh ug
ol our
Ġf oot
Ġf aith
em en
Ġin sid
am ber
Ġof Ġthem
Ġof ĠtheseĠ
res idential
itĠ wouldĠ
eĠs e
ri ev
Ġre ally
con vert
s.Ġ with
asĠ of
oo ter
ap prov
be atĠ
e,Ġ in
Ġsh oot
Ġsh ipp
Ġsh eĠsaid
ell a
Ġwith out
over eign
end ant
Ġpro gress
ea per
Ġcon tract
Ġv en
sĠin ter
sĠin ĠtheĠs
eĠm ightĠ
av en
ĠtheĠc ap
work Ġon
Ġj ersey
ies .ĠtheĠ
ies ,ĠandĠ
int ellig
erv ision
Ġex pos
eĠc ap
eĠb ar
cre ativ
ĠtheĠd eaf
Ġle as
Ġthem ĠtoĠ
.Ġs inc
aw l
Ġus uallyĠ
ingĠs omeĠ
ingĠs kill
ingĠin formation
ĠitĠ will
ĠaĠf reeĠ
ph ereĠ
eb all
ĠaĠ "
fin ally
get ĠtheĠ
dis appoint
Ġthey âĢĻr
ingĠc ap
riv al
Ġatt endĠ
co on
Ġther e.
Ġop tim
Ġsom etim
Ġstud ioĠ
ĠaĠh ug
red eem
need edĠ
Ġcomm and
Ġdi rection
inst itution
what ĠtheyĠ
ĠsheĠ wasĠ
Ġcr ystal
Ġgo ingĠtoĠ
world âĢĻsĠ
te en
Ġcommun ities
prot ocol
eĠtim eĠ
member ship
ĠcouldĠ beĠ
Ġrequ ired
ĠÐ ¸
letĠ meĠ
ĠavailableĠ for
Ġliv ingĠroom
eful lyĠ
Ġagre ementĠ
Ġproc ess.Ġ
gett ingĠ
Ġvis ual
Ð¾Ð ³
Ġmet al
rok er
des ir
rad io
Ġpay ment
princ ipl
Ġdetail s:
Ġkn if
eĠspec ific
clin ic
Ġcompet ition
nut rition
Ġposs ibleĠ
Ġarriv al
makeĠsureĠ you
ĠtheĠdep artmentĠof
Ġlab el
exhib ition
rub ber
fam ousĠ
uffic ientĠ
usal em
" ĠandĠ
. -
6 6
7 2
a ip
d ailyĠ
e âĢĻsĠa
f act
f ederal
f eedback
h at
h idden
i ant
l ayer
p remium
r yp
s ea
s ĠtheĠm
s earch
s kill
s ecurityĠ
t os
t ri
u allyĠs
v as
v ac
v eteran
w an
Ù Ħ
Ġ os
Ġ enter
Ġt reatĠ
in jur
sĠ back
sĠ wer
er 'sĠ
on ,Ġ
en em
re allyĠs
Ġs l
Ġs ideĠ
Ġs cholar
at edĠby
at tern
ing s,
ing Ġapplication
ing Ġplant
Ġan Ġamaz
Ġan xiet
.Ġ whereĠ
is Ġthat
is ĠaĠc
Ġc ategor
Ġc otton
ĠandĠ haveĠ
th rop
el ong
Ġw ild
Ġp uls
Ġp rettyĠ
for Ġtheir
st ack
ed en
ro le
Ġm el
Ġd ish
Ġd ivid
us ,Ġ
us lim
ac tĠof
Ġf requ
Ġf ather
esĠ onĠtheĠ
ig or
em ble
Ġin com
Ġin ĠtheĠf
ation .ĠtheĠ
am ousĠ
Ġto y
all ic
Ġg ender
ag eĠin
ha ven
our se
Ġn ature
ut ral
Ġl an
eĠt each
ĠthatĠ was
eĠof ĠthisĠ
con version
s.Ġ b
per mission
and a
ist ryĠ
sĠa f
Ġfor ward
wor n
gr ill
gr ind
from Ġyour
eĠin vest
pr oudĠof
Ġad h
Ġr ais
li z
we 'veĠ
we âĢĻr
Ġab und
Ġab sorb
ĠtheĠb ank
port sĠ
ign al
ĠtheĠp al
Ġap artĠ
ĠatĠ hom
Ġ( t
eĠp urchas
Ġtim e,
ingĠa Ġb
af eĠ
eĠf l
eĠf ull
ersĠ wereĠ
ĠhaveĠ you
comm itment
oneĠ or
es,Ġ or
es.Ġ our
Ġour Ġwebsit
inc t
eĠh ealth
dr ain
ureĠ isĠ
ph otoĠ
bo atĠ
sĠareĠ notĠ
eth ic
Ġyear Ġ
ĠaĠl ow
eli ev
ĠaĠg u
ident ity
co ast
fr iger
Ġop inion
som eoneĠ
ed,Ġ butĠ
cor respond
ĠaĠw ell
ock etĠ
Ġbr ush
ept ic
Ġdi rectĠ
keep Ġyour
pec tĠof
ush ion
eĠtr ad
Ġmed icin
Ġbu yĠ
Ġstat ementĠ
Ġpar am
valu ableĠ
exp ectĠ
Ġcons um
Ġpre viousĠ
Ġsub scription
ness ĠandĠ
vari et
ee pl
Ġmar ch
feat ure
Ġevery th
Ġvari et
eĠsur eĠtoĠ
Ġtwo -
Ġexc it
Ġdist rict
invest or
Ġhistor ic
che es
Ġright sĠ
Ġcomplet eĠ
ren ew
Ġrem over
Ġsuppl yĠ
Ġgrad u
inĠf act
Ġthous andĠ
Ġprom is
Ġprom ot
fig ureĠ
Ġtherefor e,Ġ
Ġperc entĠof
mus eum
prep ared
fortunat elyĠ
exper tĠ
pract iceĠ
vil leĠ
king dom
Ġattorne y
omet ric
ĠaĠmin imum
restr iction
Ġwr itten
Ġacadem ic
ageĠd oor
illegal Ġfish
Ġsignific antĠ
ĠaĠser iesĠof
aminĠ dĠ
( s)
, ĠaĠm
. ĠalsoĠ
. ĠthereĠisĠ
0 5
b andĠ
b ott
c p
c ad
d pr
d ead
e '
e or
e âĢĻs
f i
f antastic
g arn
h usband
i ĠcouldĠ
m l
m o
n ail
n ature
p ed
p ursu
t c
t yĠ
u dĠ
y ,ĠtheĠ
ê ³
Ġ ë
Ġ eat
Ġ effect
Ġ Ñģ
eĠ which
eĠ aboutĠ
Ġa Ġwork
Ġa head
er as
en forc
ou redĠ
an it
re leaseĠ
at il
at ingĠs
at ientĠ
ing ĠareĠ
ing sĠin
it ĠtheĠ
.Ġ over
.Ġ other
,Ġ of
,Ġ right
ic ul
is ĠalsoĠ
is diction
Ġc atch
Ġc ultural
Ġc ivil
Ġc hapter
ĠandĠ with
Ġp an
for ĠthisĠ
for ĠtheĠs
edĠ outĠof
ed in
ĠtoĠ goĠ
ro ph
ch icken
ent in
ent ire
Ġd am
le af
ac ular
ol i
ur eĠfor
Ġf lower
Ġf ashion
im ult
im ulation
esĠ f
em an
Ġin Ġmind
Ġin fluenc
et nam
am ic
Ġto ĠtheĠt
un ableĠtoĠ
ir aq
lo vel
ul ly
op tĠ
eĠth re
eĠth ingsĠ
ab eth
ab solut
ha k
Ġst rik
Ġst retch
ut ual
Ġand ĠtoĠ
pro s
eĠt own
ri ber
Ġre alĠestateĠ
rom an
rom antic
oun g
.ĠtheĠ m
s.Ġ when
e.Ġ heĠ
ev olv
be ingĠp
ĠtheĠs eason
e,Ġ h
e,Ġ m
Ġtr im
Ġwh y
Ġwith ĠthisĠ
oc tober
Ġac quir
art in
over nor
tĠof f
bu st
Ġcon v
sh in
Ġad mission
Ġr r
Ġch ronic
Ġas ĠanĠ
can notĠ
we al
notĠ haveĠ
ĠtheĠb ox
eĠc los
eĠc ustom
eĠc ours
Ġi ĠloveĠ
Ġi ĠhadĠ
ens eĠof
ok ay
Ġlo tĠ
ne yĠ
ass embly
ingĠa re
Ġpl at
eĠf un
Ġit .Ġ
sp read
Ġle adĠ
Ġle mon
inc ident
rem ark
are er
sĠareĠ availableĠ
ĠaĠb itĠof
mon d
ĠtheĠl a
eth odĠof
dis count
sĠwith Ġ
par entsĠ
help edĠ
olog y,Ġ
Ġcomp ared
anyĠ question
Ġse eĠa
sĠthatĠ you
sĠthatĠ will
ĠaĠg ood
getĠ your
bl ank
,Ġm ar
.Ġm r
worl dĠof
Ġbo il
Ġy et
no thingĠ
Ġover all
Ġman ual
Ġstr ang
Ġbr ing
ress ion
ingĠh ealth
prof ession
giv es
eĠsh ipp
:Ġ âĢľ
commun icateĠ
itiesĠ in
what âĢĻsĠ
Ġlik eĠa
onĠtheĠ otherĠhand
happ y
happ yĠtoĠ
Ġadv iceĠ
!! !!
Ġstat istic
,ĠweĠ haveĠ
Ġsal esĠ
complet eĠ
win ner
ĠaĠlo cal
hear dĠ
ĠthatĠyou ĠareĠ
want sĠtoĠ
less Ġthan
Ġspecial iz
Ġser iesĠof
vert ical
Ġanal ytic
employe eâĢĻsĠ
reason ableĠ
ox id
ĠÐ ¼
expect edĠtoĠ
establish edĠ
ĠtoĠmak eĠa
idd leĠof
ĠnoĠ longer
Ġant icip
Ġwant edĠtoĠ
youĠwill ĠbeĠ
ĠareĠs oĠ
ĠallĠof Ġyour
ĠheĠ wasĠ
pay ment
Ð¾Ð »
Ġtrack er
sĠac t
Ġintern etĠ
liveĠ in
90 1
Ġhapp yĠ
Ġtri edĠtoĠ
Ġfun dĠ
remov al
relat edĠto
Ġdes k
Ġsol di
Ġregion al
propos edĠ
sĠap pl
ĠtheĠmon th
ĠtheĠcor ner
Ġdoes nâĢĻtĠ
const itution
necessar yĠtoĠ
chapter Ġ
ocrat ic
entryĠ wasĠpost
vious ly
Ġconc ept
Ġaspect sĠof
addition al
achel or
Ġgraph ic
concil iation
warr ant
, Ġthat
, ĠthereĠ
, ĠaĠb
, ĠaĠc
- Ġ
. Ġsp
0 3
7 7
b att
b ird
c lo
c ription
j ulyĠ
k et
l ac
l uc
l ash
n tĠ
n iceĠ
o et
o graph
p sych
r aid
s imilar
v endor
w imm
w eld
y ,Ġand
eĠ ad
Ġt issu
Ġa sh
in creaseĠ
on ĠtheĠs
on eĠtoĠ
on Ġtheir
Ġs n
Ġs um
Ġs yn
Ġs quar
ing .ĠthisĠ
ing Ġprogram
ing ĠaroundĠ
it en
.Ġ re
.Ġ itsĠ
.Ġ dur
es pres
es Ġthrough
,Ġ not
,Ġ wher
om e
th m
Ġw rot
Ġp ointĠ
Ġp opulation
st unn
st opp
st euermann
edĠ how
ĠtoĠ hisĠ
ĠtoĠ ensureĠ
ch ill
ch ron
Ġb on
Ġb eat
isĠ (
isĠ now
ec ast
le ast
Ġf ieldĠ
Ġf ootball
esĠ is
em tos
Ġin ĠtheĠp
Ġin ĠorderĠtoĠ
ation sĠin
Ġto ĠtheĠf
Ġto Ġshar
Ġal leg
âĢĻ ,
Ġar riveĠ
Ġg e
Ġg as
with inĠtheĠ
Ġl anguageĠ
ot tĠ
eĠs everal
qu iet
ri es,Ġ
con cent
ew ayĠ
e.Ġ when
lyĠ with
ap s
s,Ġ itĠ
ĠtheĠs ummer
enc eĠin
Ġon ĠmyĠ
Ġwith Ġm
cl imateĠ
ack et
ea red
Ġcon ven
ly n
Ġr ule
Ġat Ġa
Ġch ocol
Ġas ia
outĠ on
Ġab s
ĠtheĠc olor
ĠtheĠc ustomer
Ġcan notĠ
eĠd eal
eĠtoĠ our
eĠandĠ i
edĠb as
e. Ġafter
eĠc lean
ens or
ĠatĠ work
ib ly
ingĠa sĠa
Ġit âĢĻs
sp iredĠ
br ightĠ
br anch
Ġus eful
not e,Ġ
rem is
ĠtheĠl and
pre dict
yp to
ĠofĠtheĠ year
don ald
jo int
plac esĠ
noĠ idea
Ġact ual
oup on
Ġup Ġwith
ident if
ĠhisĠ own
ingĠd ata
oneĠof Ġour
.Ġin ĠthisĠ
ĠaĠw onderful
vent ur
eĠsh ar
just ĠasĠ
ingĠwith ĠtheĠ
Ġqu it
Ġtyp ical
Ġturn over
Ġcr aft
dep artmentĠof
Ġhigh er
,ĠweĠ will
te am
Ġinst agram
right ĠtoĠ
Ġtechnolog iesĠ
Ġpre -
want edĠtoĠ
.Ġfor Ġexample
Ġser ies
Ġshop ifyĠthem
eĠan Ġ
hon est
Ġu .s.Ġ
rest aurantĠ
Ġz eal
Ġleg isl
foc usĠ
oog le
prom otion
better Ġthan
invest ment
Ġmay beĠ
wid elyĠ
depend entĠ
Ġlarg er
eĠmon eyĠ
Ġassess mentĠ
crit eria
ider -
beginn ingĠof
Ġunderstand ingĠof
tak en
fortunat ely,Ġ
ĠtheĠcas eĠof
eĠdown load
Ġsha re
Ġapprov al
Ġaccommod ation
Ġautomatic allyĠ
chin es
ednes dayĠ
Ġkind sĠof
57 6
anal ys
Ġremov al
innov ativeĠ
Ġtot allyĠ
Ġathlet ic
champion ship
quis ition
Ġspirit ual
jun ior
indon esia
ellect ual
imult ane
! Ġh
! ĠweĠ
% Ġoff
) ĠtheĠ
, Ġab
, Ġadd
- off
. Ġto
. Ġam
. tag
4 3
6 2
9 8
? ĠtheĠ
? Ġif
c amera
c andid
d imension
e ater
g ender
h all
i Ġknow
j ok
l ed
l es,Ġ
m ell
m icro
n od
p g
p ur
p oor
p uls
r ud
s s
s ĠtheĠp
s ix
s hap
v c
x l
x Ġ
Ð ±
Ð ·
ð Ł
Ġ q
Ġ ip
Ġ endĠ
Ġ english
Ġ electric
Ġa i
Ġa .m
in Ġan
in Ġtouch
sĠ âĢĶ
er r
ĠtheĠ stor
ĠtheĠ perfectĠ
ou is
ou sĠin
Ġs we
Ġs etĠup
at i
at l
ing ĠatĠtheĠ
ing Ġproduct
.Ġ is
.Ġ beĠ
.Ġ whileĠ
es ir
oĠ (
oĠ d
,Ġ her
,Ġ inĠtheĠ
,Ġ however,Ġ
is an
Ġc ourtĠ
om a
om entĠ
th eĠf
el ter
you Ġwith
you âĢĻreĠ
you ĠneedĠtoĠ
Ġp ed
st y
ent or
ent enc
Ġd ifficult
Ġd umpster
us ually
ol t
ol ish
ur eĠs
esĠ d
esĠ us
ation ĠtoĠ
ation Ġ(
am ar
if ĠtheyĠ
âĢĻ sĠtheĠ
ill ow
ex ampleĠ
res idenc
Ġl uck
pro b
eĠt ool
ri er
rom otion
um entsĠ
.ĠtheĠ firstĠ
e.Ġ whatĠ
ĠtheĠs mall
Ġtr ap
anc e,
anc eĠwith
Ġon eĠofĠtheĠ
gh an
over whelm
s>Ġ<s> Ġp
s>Ġ<s> Ġour
etĠ with
ef fortĠ
own edĠ
Ġat ĠtheĠm
Ġat ĠtheĠtop
can Ġi
can ĠalsoĠ
form al
ĠtheĠc ity
,Ġs ay
iz abeth
ĠtheĠb usiness
eĠandĠ mor
ĠtheĠp ump
e. Ġall
Ġap artment
ĠatĠ s
edĠin formation
Ġis lam
eas ily
ne ak
eĠf ollow
eg on
ingĠs ession
ingĠs ometh
eĠfor Ġyou
Ġun itedĠ
dr yer
Ġthes eĠc
go ĠtoĠ
arg ain
e, Ġthen
atedĠ for
Ġadd edĠ
Ġtw ist
esĠandĠ other
let âĢĻsĠ
look sĠlik
plac e.Ġ
Ġgr ound
includ edĠ
noĠ matter
Ġpr act
ĠtheĠg ameĠ
Ġse qu
Ġbe ingĠa
Ġup on
sc ienc
ros oftĠ
gu ilt
fr ust
rip tĠ
ext ensiveĠ
Ġbo ot
cor n
able sĠ
lif eĠandĠ
Ġbr ain
becaus eĠtheyĠ
experienc eĠin
Ġout sid
Ġday sĠof
gener ic
Ġinter estĠin
oper ateĠ
Ġturn edĠout
willĠb eĠs
.Ġyou ĠmayĠ
Ġhigh lyĠ
Ġrel atedĠ
hav ingĠ
Ġback groundĠ
sĠar eĠtheĠ
Ġexperienc eĠ
Ġexperienc eĠin
eĠtim eĠtoĠ
onc eĠyou
ugg estĠ
Ġ& Ġco
process or
Ġcompan y
canĠb eĠd
Ġsur ger
expect edĠ
met al
Ġcas eĠof
ateg oryĠ
augh t
Ġans w
sĠac ros
Ġshar p
buil der
Ġassist antĠ
someth ingĠ
knowledg eĠof
Ġoc cur
committ edĠtoĠ
ignific antlyĠ
Ġdu i
ĠtheĠfirst Ġtim
Ġprom otion
abin etĠ
ecom p
Ġquick lyĠ
eĠpres ent
Ġpol ish
rap id
Ġapprec iateĠ
atisf y
Ġbal anc
Ġless Ġthan
dest ination
ĠaĠper fectĠ
Ġimp actĠ
norm allyĠ
prec ed
Ġcrim inal
ynd rom
uro log
edicat edĠtoĠ
rein forc
ĠaĠpower ful
Ġveg et
zad iten
ĠconventionĠheldĠ in
! Ġyou
) Ġwith
. a
0 2
0 22
a ,
b and
b athroom
b reath
c ium
d l
d oubleĠ
h itĠ
i ew
i anceĠ
m g
m otor
m istak
o op
s kin
s afet
u an
u eĠtoĠ
y oga
Â ©
Ð ³
Ġt unnel
Ġt ennisĠ
Ġt utorial
Ġa ust
Ġa headĠof
in -
in ĠtheĠf
in suranceĠ
sĠ mor
sĠ hadĠ
on yĠ
tĠ g
or Ġfor
or Ġher
ĠtheĠ per
ĠtheĠ âĢľ
at ingĠa
at edĠandĠ
ing Ġcondition
ing Ġproject
ing ham
Ġan k
.Ġ mor
ar yĠandĠ
ic les
ic hael
is ĠaĠm
Ġc ur
Ġc ardĠ
Ġc rown
th ĠandĠ
Ġw ire
Ġw ideĠ
Ġw ednesday
you ĠshouldĠ
Ġp riz
st rip
ĠtoĠ her
ĠtoĠ choos
ch est
Ġm l
Ġm ostĠof
Ġb ad
Ġb irth
Ġd eĠ
Ġd os
Ġd ub
ac ros
Ġf ear
Ġf ederal
im mediateĠ
ver ification
am atic
ir k
Ġof ĠtheĠd
Ġal ter
Ġg al
ag eĠofĠ
Ġn ik
Ġst ack
Ġl ateĠ
eĠt ry
ot ter
con tractor
con flict
s.Ġ on
iv ity
ev iceĠ
sĠof Ġb
est yleĠ
sĠa re
s,Ġ h
Ġfor um
enc y
enc eĠandĠ
Ġtr oubleĠ
Ġon ĠtheĠs
oc urr
ĠasĠ possibleĠ
sĠandĠ m
Ġpro vision
s>Ġ<s> Ġs
sĠin volv
other Ġthan
Ġas pir
eĠd idĠ
eĠd isc
work ingĠin
Ġj os
edĠb ecaus
int on
ĠtheĠp eac
her eĠtoĠ
Ġex tr
Ġex ecutiveĠ
e. ĠanyĠ
eĠc am
eĠc lear
s. ĠsoĠ
eĠb ec
eĠb usiness
eĠp osition
ass emblyĠ
ingĠa Ġ
ult imat
.Ġi 'veĠ
sp ok
eng ineĠ
elp h
.Ġs c
Ġtak ingĠa
row dĠ
eĠh ead
y.Ġ in
iss an
s, ĠasĠwellĠasĠ
atedĠ on
bo ostĠ
urn ish
sĠareĠ a
reg im
myĠ own
fl at
fl ash
fl amm
e- of
ingĠm an
ĠaĠd ist
Ġpr inter
ific at
Ġse atĠ
ed.Ġ in
Ġatt ribut
bl anc
bas edĠ
fr ench
ingĠd esign
,Ġm ay
Ġsom etimesĠ
Ġstud ies
,Ġi ĠhaveĠ
self -
Ġmak eĠyour
ationĠof Ġ
ĠtheĠw in
med ium
whereĠ youĠcan
ron tĠof
mad eĠof
mad eĠfrom
Ġpart yĠ
Ġtechn ician
becaus eĠyou
Ġdi vers
ated ĠtheĠ
everyĠ day
cover ageĠ
vir ginia
Ġqu arter
Ġday sĠ
week endĠ
manag edĠtoĠ
,Ġwhich Ġis
Ġalway sĠa
Ġalway sĠs
manyĠ other
Ġair lin
Ġair portĠ
Ġdec lar
prov inc
dep artment
Ġfr ank
main ten
e.Ġi 'veĠ
Ġinst ance,Ġ
Ġinst eadĠof
hav ingĠtoĠ
Ġcons erv
ĠanĠin tegr
ĠtoĠd eliver
erc iseĠ
mar ri
Ġgroup Ġof
eĠan y
Ġreal iz
enough ĠtoĠ
Ġoffer sĠ
Ġproc eed
ĠaĠr ang
Ġsm il
ĠtheĠtop Ġ
reduc eĠtheĠ
imm igration
buy er
Ġeas ier
sĠac ross
deal Ġwith
cap ableĠof
Ġfriend sĠandĠ
receiv edĠ
receiv ed
del et
Ġfeat ur
Ġnational Ġpark
enu in
Ġdep os
lor dĠ
anch is
Ġcurr entlyĠ
Ġvol um
histor ic
reli ef
veh icle
uppl ier
ious ly
Ġsport sĠ
Ġdisc uss
Ġcould nâĢĻtĠ
Ġpict ur
eo graph
Ġrad io
atal og
exper iment
Ġdoes n'tĠ
grat eful
Ġconf idenc
conv inc
restr ict
Ġfig .Ġ
Ġcontr ast
eĠfin ish
sĠmustĠ beĠ
liqu id
insp iredĠ
ypt ocurr
ĠtheĠpre viousĠ
ido Ġauthenticator
ibl ical
obl igation
desp it
Ġadministr ator
mosp her
ersĠbibleĠ coloringĠp
Ġadminist rativeĠ
aip ur
ecomp uter
, Ġam
, ĠaĠp
, ĠthereĠisĠ
, ĠthisĠisĠ
5 8
? Ġwell
a Ġl
b m
b n
b leĠ
c ow
c utt
d os
d ens
d iffer
e âĢĶ
f le
g oldĠ
h un
h ash
i edĠwith
j ac
l on
m ith
n c
n os
n eck
n umerousĠ
o ir
p aul
r Ġ
s Ġan
s eat
s ink
s ocial
t ar
t woĠ
v a
v ic
Â »
Ù ħ
Ġ employe
Ġ egg
Ġ episod
Ġt ar
Ġt ight
Ġt ah
Ġt abl
Ġa Ġsp
Ġa idĠ
sĠ provid
sĠ who
sĠ whoĠareĠ
on n
en essĠof
ou ver
Ġs ureĠ
Ġs ister
Ġs electĠ
at abas
ing Ġthes
ing Ġthing
ing Ġwas
ing Ġaround
it ial
.Ġ both
.Ġ whether
.Ġ don'tĠ
es Ġall
es ĠandĠtheĠ
,Ġ re
ic o
ic an
Ġc at
om ach
ĠandĠ her
Ġp en
Ġp as
Ġp eter
Ġp aidĠ
Ġp ixel
edĠ sh
ed .ĠthisĠ
ro otĠ
ch or
Ġm g
Ġm olec
as Ġa
ec ureĠ
Ġd ig
us a
us pect
ol ina
ur eĠm
Ġf uel
id i
Ġin -
Ġin Ġh
et up
atĠ leastĠ
lo dg
ingĠ re
ad oĠ
wh oseĠ
Ġof Ġh
Ġof Ġl
Ġar rest
ex as
ex clud
ag ic
res tĠofĠtheĠ
res erveĠ
itĠ or
with Ġm
Ġn earlyĠ
Ġst andĠ
Ġre fl
Ġre put
con vers
con sequenc
e.Ġ c
e.Ġ myĠ
ĠareĠ a
est on
ep tĠof
Ġfor ĠthisĠ
anc ell
Ġsh ower
Ġon -
Ġwh om
your Ġneed
art ist
over ĠtheĠ
Ġpro tein
ea h
haveĠ an
Ġv ent
Ġyour Ġhom
Ġad or
own ersĠ
other ap
Ġch rom
ĠtheĠm ember
ĠtheĠm oreĠ
av ailable
eĠd oĠ
work ersĠ
Ġex pression
eĠc ost
s. ĠandĠ
Ġi Ġthink
Ġ( p
eĠb ut
eĠb yĠs
eĠb oth
eĠp ay
ick etĠ
ick man
ingĠa gain
cont in
mak ingĠitĠ
mak eup
Ġwill ĠnotĠ
sp onsor
Ġaf filiat
oneĠ can
.Ġs o,Ġ
aw ard
es.Ġ itĠ
Ġus ingĠ
ĠtoĠs ell
Ġtak eĠyour
ingĠs chool
ingĠs olution
pres erv
Ġag lim
but ĠtheĠ
ingĠin ter
Ġmor eĠs
Ġres idential
youĠcan Ġse
reat iveĠ
ĠaĠc lear
par allel
veryĠ bestĠ
ingĠb ut
Ġgr am
ingĠm ethod
eĠisĠ notĠ
wouldĠ you
wouldĠ beĠa
ingĠc l
Ġcont roll
riv en
heĠ was
ĠtheĠn ation
Ġatt estation
Ġper mission
bl ess
cr ack
Ġsom eĠcas
,Ġi âĢĻm
Ġdis order
ĠweĠ wereĠ
oneĠof ĠtheĠbestĠ
cons olid
no is
att end
att ach
med ic
ures .Ġ
ingĠf ac
Ġph otoĠ
experienc edĠ
peopleĠ whoĠ
pons or
Ġalway s
Ġgu ess
Ġaut o
eĠtr ack
Ġtrain er
Ġfr ench
Ġmed ic
Ġmed ication
Ġplac eĠ
ĠandĠp epper
net ic
continu eĠ
ĠaĠlo t
ĠaĠlo v
law yer
Ġcons umer
product iveĠ
Ġaccess Ġto
liv ingĠroom
less ĠthanĠ
pris on
greatĠ for
ecess aryĠ
ĠtheĠtim eĠ
Ġfac ial
friend ly
coll ectĠ
Ġcor porateĠ
ĠtoĠm oveĠ
etc .Ġ
Ġint ens
Ġtour ist
du i
Ġalread y
Ġsmall er
-in -
contactĠ usĠ
Ġexc el
val le
Ġaud ioĠ
dist rictĠ
Ġmet adata
ĠthisĠs eason
des k
Ġhear tĠ
important ly
edĠa way
Ġinvest ig
eĠman ufactur
quit eĠa
Ġrem odel
particip ateĠin
again stĠ
determin eĠ
Ġval le
involv edĠin
believeĠ thatĠ
Ġcertain lyĠ
kind leĠ
conven ient
immediat ely
Ġtit leĠ
Ġaccur ateĠ
vict im
Ġopportun ities
Ġstrength en
bel ong
gradu ateĠ
dest roy
mos phereĠ
usp ension
ĠtheĠfron tĠ
Ġmic hael
Ġorig inal
ĠtheĠhear tĠof
washer Ġdryer
Ġnut rition
legisl ation
Ġlas er
ĠaĠprof essional
letĠusĠ know
ichel angel
weal th
! âĢĿ
, ĠtheyĠareĠ
- dayĠ
. Ġas
1 30
3 45
5 1
7 3
a er
a Ġf
a Ġk
b w
b itĠ
b itĠof
c ity
c ounsel
d ar
g al
g ov
i j
i atedĠ
m illion
o ardĠ
p tĠ
p as
p ectĠ
p air
p eak
r yĠtoĠ
t yp
u es
v d
v astĠ
y ;
y e
Ð ¹
í ķ
Ġ >
Ġ ,Ġ
Ġ econom
Ġ error
Ġ enterpris
Ġa Ġspecific
in ĠtheĠp
in Ġwhich
sĠ each
sĠ hasĠ
sĠ haveĠa
er a
er Ġand
on e-
or gan
ĠtheĠ worldĠ
ou ston
an Ġin
Ġs y
Ġs or
Ġs oft
Ġs etting
Ġs atisfaction
ing Ġcompan
it l
al anc
.Ġ check
.Ġ follow
.Ġ doĠyou
ic oĠ
ic ism
is a
is nâĢĻtĠ
Ġc ities
ĠandĠ notĠ
ĠandĠ help
th eyĠ
Ġp ic
Ġp il
Ġp utt
st rik
edĠ via
ed ;
ĠtoĠ dis
ĠtoĠ develop
ro id
ro leĠof
ch en
Ġm ail
Ġb eĠa
Ġb ey
Ġb oughtĠ
Ġb udgetĠ
Ġd ress
ur ing
esĠ m
em aleĠ
Ġin Ġorder
am ak
am ount
un i
ir i
lo on
ingĠ group
ingĠ job
ingĠ eventĠ
ul tra
Ġar g
ex ternal
res id
ha usĠ
Ġn ightĠ
Ġst rip
pl at
com ic
com pris
com esĠfrom
com fortĠ
ĠthatĠ in
ĠthatĠ our
ĠthatĠ hasĠ
eĠs ection
up com
eĠof ĠtheĠs
Ġre cr
s.Ġ how
s.Ġ whatĠ
e.Ġ "
e.Ġ with
be er
sĠa goĠ
s,Ġ whoĠ
Ġfor ĠmyĠ
Ġfor ĠhisĠ
ĠtheĠs kill
e,Ġ includ
Ġsh eet
Ġall ĠaboutĠ
out lin
,ĠandĠ other
ea u
eĠin stall
Ġcon versation
pr inceĠ
pr ais
pr ilĠ
Ġad option
will ĠalsoĠ
Ġr ent
Ġr aw
ĠtheĠm or
Ġcom b
eĠm uch
outĠ for
av ing
av ityĠ
ĠtheĠc enter
iz eĠtheĠ
eĠtoĠ getĠ
Ġthat ĠthisĠ
work er
Ġj ump
Ġj esusĠ
e. Ġa
e. ĠandĠ
Ġsp eech
Ġ( âĢľ
eĠb r
eĠb elow
eĠb ox
ĠtheĠd em
Ġis ĠaĠm
ne gl
ingĠa Ġnew
wasĠ notĠ
cont emporaryĠ
eĠf re
.Ġi ĠwouldĠ
.Ġi âĢĻveĠ
âĢĿ ĠandĠ
Ġle ak
when Ġh
br ain
to ol
ĠtoĠs upportĠ
Ġtak eĠcar
ingĠs oon
eĠh ear
even ĠmoreĠ
rem odel
inter nal
Ġmor eĠin
Ġres idenc
ĠtheĠh uman
Ġafter Ġ
ing,Ġ or
eĠthatĠ i
ingĠb ecaus
ĠaĠd i
fir med
wouldĠ notĠ
eĠon lyĠ
ingĠc enter
requ ireĠ
Ġbe half
qual ityĠandĠ
ĠaĠg lobal
co astĠ
ingĠd i
cr ush
back Ġin
Ġdis playĠ
.ĠweĠ alsoĠ
Ġsup porter
ĠaĠh om
Ġim proveĠ
Ġmak eĠtheĠ
Ġmak eĠitĠ
abil itiesĠ
Ġy esĠ
ĠtheĠw r
need sĠof
Ġen vironmentĠ
edĠs ervic
Ġstr aw
long -term
pec ial
stat ement
stat istic
person allyĠ
,Ġyou 'll
log in
edĠm eĠ
stud y
stud io
has ĠtheĠ
learn ĠmoreĠaboutĠ
Ġcar bon
oper ational
Ġlik eĠtoĠ
unn yĠ
nam entĠ
.Ġyou ĠareĠ
fil iateĠ
ification Ġof
world wid
,ĠweĠ can
Ġso ,Ġ
issu esĠ
Ġco ast
fre eĠof
complet eĠtheĠ
offer sĠ
ĠaĠv ide
consider ed
kn if
unction al
never Ġbeen
Ġappro pri
ĠwhoĠ isĠ
emb edd
Ġfl avor
edĠfrom ĠtheĠ
clos eĠtoĠ
wr ap
larg elyĠ
feat ureĠ
Ġevery on
Ġevery oneĠ
websit eĠ
gett ingĠa
Ġz on
ins ight
Ð¾Ð ´
eĠmor eĠthan
val idĠ
Ġauthor iz
cap ac
haveĠtoĠ beĠ
Ġoper at
ordin aryĠ
rad ioĠ
Ġfeat ure
ignific ant
care ful
Ġcurr ent
Ġpolic yĠ
Ġexp ens
strateg ic
Ġbeli ef
Ġcompet itor
prep areĠ
exact ly
agre ement
sĠap p
ĠtheĠsit uation
eĠtrans fer
jan uaryĠ
stra ightĠ
Ġprinc ip
Ġsun day
ĠtheĠfron t
independ entĠ
crim inal
[Ġuaf authnr
ypsum Ġpowder
uddh istĠ
Ġtran spar
Ġthird -
Ġdest ination
liber al
athem atic
! ).
( b
, ĠaĠ
, Ġthis
. Ġthough
. Ġtop
. ĠthereĠis
4 80
9 1
? Ġor
a .ĠtheĠ
b uck
b ench
c leĠ
c ript
f lyĠ
f ight
f uel
g e
h p
h um
m id
o .
o at
p anel
r yĠandĠ
r ington
r ule
s an
s aw
s giv
s ugar
t v
u rop
w rot
x im
y al
y dr
Î »
Ġ earlyĠ
Ġ etĠal
Ġt ill
Ġt reeĠ
Ġa x
Ġa verageĠ
in ,Ġ
in sid
in Ġorder
Ġth irt
sĠ our
sĠ near
re lyĠon
Ġs q
Ġs weet
at edĠb
at ely
ing /
ing Ġch
ing Ġwell
Ġan atom
.Ġ -
.Ġ donâĢĻtĠ
es is
oĠ of
,Ġ lik
,Ġ both
,Ġ who
Ġc abinet
ĠandĠ over
ĠandĠ new
Ġp ound
Ġp ink
Ġp atch
st ress
ed )
ĠtoĠ itsĠ
ĠtoĠ haveĠa
ĠtoĠ reach
ro ch
ch oiceĠ
Ġb and
Ġb ik
Ġb ioĠ
Ġh ir
Ġd an
us ersĠ
us pic
ol eĠ
ur k
Ġf ullyĠ
im per
esĠ over
esĠ byĠ
ver g
Ġto Ġspeak
un icipal
lo ans
ingĠ usĠ
leĠ d
if Ġh
ul ner
Ġal on
Ġyou ĠneedĠtoĠ
Ġg asĠ
ex tract
eĠth oseĠ
Ġst amp
Ġand rew
Ġl andĠ
pro hib
com eĠfrom
igh bour
ri es.Ġ
s.Ġ myĠ
iv esĠ
ĠtheĠs iz
ĠtheĠs erver
anc ouver
Ġon Ġa
Ġwith Ġher
oc rac
sĠandĠ condition
weĠ know
over com
Ġpro b
Ġv oter
Ġad achi
od y
other wiseĠ
Ġr is
li ver
li ament
fer til
ĠtheĠm et
ĠtheĠm anyĠ
Ġcom eĠ
can Ġyou
eĠm et
Ġor Ġother
ĠtheĠc ityĠ
ĠtheĠf amil
eĠd ifferentĠ
Ġex ercis
Ġex ampleĠ
s. ĠsheĠ
Ġap art
ia h
cre tion
cre ating
tr uth
Ġis ĠaĠf
sĠtoĠ help
ult ureĠ
ult imatelyĠ
eĠf ind
mak eĠan
vi ation
mor eĠin
âĢĿ Ġin
ĠtheĠt our
ĠtheĠt wo
pos al
br ush
br ought
.Ġs uch
sĠfor Ġsal
inc tĠ
ingĠs it
eĠh eĠ
Ġthan ĠtheĠ
dr ill
dr ais
Ġag entĠ
Ġthes eĠday
go ingĠ
bo at
ĠmyĠ f
ĠmyĠ own
Ġnew s
.ĠthisĠ will
ingĠp rof
edĠon Ġ
edĠon lyĠ
rit ain
ord ination
ingĠb oth
oll abor
ĠaĠd ailyĠ
edĠbyĠ our
ingĠc ost
az yĠ
car th
ident ical
Ġany wher
edĠfor Ġ
Ġrec all
Ġappl yĠfor
Ġthos eĠs
rel ativ
back groundĠ
Ġy ard
Ġy oga
Ġfin allyĠ
ital ian
rop ical
ures ,Ġ
Ġmin or
ingĠto oĠ
Ġstr ain
Ġdi abet
vol unte
Ġdon 't
everyĠ year
Ġthing sĠthatĠ
Ġday s
nam eĠisĠ
nor thern
Ġfr uitĠ
Ġlook Ġat
Ġpar tĠofĠtheĠ
gre w
bor der
sĠar oundĠ
Ġtechnolog y
goĠ on
Ġsit e.Ġ
grad eĠ
hol ster
iec eĠof
ĠavailableĠ toĠ
canĠb eĠs
intoĠ your
Ġexam in
ĠtoĠp utĠ
Ġwell -
Ġbefor eĠyou
Ġvis itĠ
uredĠ in
ĠallĠof Ġour
Ġhav ingĠa
creat eĠtheĠ
acc essĠ
Ġvide os
ĠdonâĢĻtĠ know
required :
recommend ation
Ġoc casion
Ġpass word
Ġhistor ical
Ġsay sĠ
between Ġ
iou sĠandĠ
Ġanalys isĠof
Ġset up
Ġrem oveĠ
cert ifi
cert ification
-bas ed
eum at
ÑĢ Ð°
Ġmil k
Ġlov elyĠ
Ġresourc esĠ
Ġapr il
Ġagainst ĠtheĠ
Ġtherefor eĠ
ĠyearsĠ old
ĠtheĠbo ardĠ
icon ic
ĠproductĠ weight
lookĠfor ward
Ġgar ageĠdoor
relev ant
nav ig
Ġrental Ġtracker
responsibil ityĠfor
countr yĠ
Ġwon 'tĠ
Ġtom orrow
illust rat
origin allyĠ
Ġcomfort ableĠ
doc umentĠ
eĠpat rol
incor por
Ġarthrit is
constant lyĠ
Ġbenef itsĠ
Ġkor ea
Ġcompar ison
fli x
co. uk
ĠweightĠ los
ĠtheĠla unch
emtos econdĠ
ĠproductĠweight :Ġ
! ĠthisĠ
( e.g
, ĠthereĠis
. ).
. Ġadd
6 8
a un
a verag
b eĠt
b ourn
b udget
b udgetĠ
b esid
c os
c ak
c ycl
d ot
d ifficultĠ
g olf
h ab
i ĠloveĠ
i Ġhad
j esusĠ
o esĠ
o graphic
p s
p etĠ
p aid
s f
s ess
s âĢĶ
t w
u eĠto
v ar
v ital
w ir
y r
y uk
Ġ est
eĠ anyĠ
eĠ stor
in er
in yĠ
in flu
sĠ it
or ient
ĠtheĠ k
an eĠ
an imal
Ġs uchĠasĠ
Ġs oftwareĠ
Ġs ilver
at oĠ
ing ;
ing s
ing ĠtheseĠ
ing Ġwhen
al bum
.Ġ will
.Ġ doĠ
ar yĠtoĠ
is ĠaĠp
Ġc af
ĠandĠ wasĠ
ĠandĠ getĠ
il et
el et
Ġw eĠs
edĠ isĠ
ed ĠaĠc
ed ium
ed ĠaroundĠ
ĠtoĠ w
ĠtoĠ useĠ
ro vers
ch rom
ch arm
Ġb en
Ġb ali
Ġb ootĠ
Ġh usband
Ġd iction
ur tĠ
Ġf eedback
im entĠ
ig are
Ġin fo
et ical
Ġto ĠthatĠ
Ġto Ġthink
Ġto Ġtalk
Ġto ĠstartĠ
ingĠ relationship
ul ateĠ
Ġyou 'll
Ġg old
Ġg eorg
res cu
itĠ up
our ish
Ġn od
Ġst akeholder
Ġand Ġan
Ġand Ġto
Ġand ĠtheĠp
pl ash
Ġl ineĠ
eĠs er
qu eryĠ
con flictĠ
and in
uc oĠ
be ingĠin
be ingĠd
sĠof ten
Ġfor Ġour
ĠtheĠs al
ĠtheĠs kin
ĠtheĠs outh
iveĠ of
Ġsh eĠisĠ
Ġwith Ġyou
end a
end edĠup
Ġv in
Ġv endor
s>Ġ<s> Ġd
sĠin Ġtheir
other Ġ
will ĠhaveĠ
Ġr ust
Ġr uleĠ
ber n
eĠm atch
eĠm edical
we 'r
ĠtheĠc los
ĠtheĠf ound
ĠtheĠf oodĠ
,Ġs inc
eĠd iv
eĠd ecision
eĠd irect
rec k
work edĠ
ĠtheĠb ritish
Ġj u
Ġk inder
ign ition
int el
eĠc ould
eĠc ustomer
s. ĠthisĠisĠ
Ġi i
man yĠs
Ġsp entĠ
Ġ( f
eĠb utton
eĠp owder
comp on
comp osition
sĠtoĠ your
ass ag
Ġpl ent
cont ext
eĠf ill
Ġit âĢĻsĠa
eg ar
.Ġi Ġwas
sp eed
ĠtheyĠ couldĠ
âĢĿ )
ĠtheĠt ool
when ĠitĠ
eng ageĠ
eng landĠ
new spaper
br id
y,Ġ which
Ġus eĠa
str ain
Ġwor dĠ
ingĠs uch
eĠfor Ġall
eĠh op
not ification
each er
ĠanĠ open
s, Ġthen
ĠaĠf un
fic ial
ĠaĠb l
ĠwasĠ in
ĠtheĠl ist
pre viouslyĠ
read yĠfor
look ingĠatĠ
endĠ ofĠtheĠ
veryĠ well
Ġgr andĠ
ĠaĠd ata
los som
wouldĠ likeĠtoĠ
noĠ oneĠ
10 1
ash boardĠ
az a
eĠwith outĠ
Ġup d
co ordinator
co conutĠwater
Ġper fect
cr uis
cr isp
Ġhow Ġmuch
old Ġtest
leg end
leg allyĠ
sĠm ightĠ
ĠaĠh ugeĠ
sĠto oĠ
sĠto day
red itĠ
play ersĠ
ra h
ĠtwoĠ of
Ġen roll
ept or
Ġallow Ġyou
light ly
ĠsoĠ manyĠ
Ġstor ageĠ
commun ities
ger an
esĠfor ĠtheĠ
Ġtop Ġ
event uallyĠ
ym met
poss ess
Ġmed ium
Ġso il
ĠpeopleĠ whoĠ
rang ingĠfrom
Ġsal eĠ
Ġpres enc
exp lo
law Ġfirm
product sĠ
.Ġfor ĠmoreĠinformation
eĠofĠ $
result sĠin
sĠab outĠtheĠ
canĠb eĠa
ĠtoĠp ayĠ
Ġtest imon
ucc essĠof
ensur eĠthat
eĠsom eoneĠ
s.ĠweĠ haveĠ
compl iment
big gestĠ
Ġcover ag
des erv
adv antageĠof
recogn is
wid th
Ġcamp us
ĠtoĠb eĠtheĠ
Ġperform anceĠ
.Ġk g
.Ġit âĢĻsĠa
election Ġof
Ġclass room
s.Ġin Ġaddition
Ġdirect ly
ingĠtheĠd ist
overall ĠproductĠweight:Ġ
custom ersĠ
outsid eĠtheĠ
Ġveh icl
regular lyĠ
ĠaĠcom bin
perfect lyĠ
Ġbeli ev
ĠaĠsh ortĠ
ĠtheĠtr ans
asc ular
Ġchrist masĠ
Ġquick ly
Ġappoint mentĠ
Ġfoc usĠon
Ġfron t
avour iteĠ
mil k
wa itĠ
Ġjan u
agre ementĠ
Ġbedroom Ġbench
http s
const antĠ
s>Ġ<s>Ġw elcom
Ġthurs dayĠ
Ġfram ework
Ġtempl ateĠ
Ð´ Ðµ
eleg antĠ
jew ish
mb h
Ġtex asĠ
Ġvit amin
ĠÎ ¼
wholes al
ĠtheĠdi rection
definit ely
oxy gen
ichelangel o
Ġrecr uit
igare tt
% ĠofĠtheĠ
, ĠalsoĠ
, ĠaĠf
- a
- mak
- level
- and-
. ĠatĠtheĠ
/ m
3 60
? "
? Ġyou
? Ġwhat
] ,
_ assertion
b eĠtoĠ
c i
c ienc
f estival
h u
k enn
l av
l es.Ġ
m ust
n l
n y
o hawk
p .
p p
r il
t est
t ax
u ally,Ġ
y cle
Ã ł
Ġ ec
Ġ ear
Ġ river
Ġ evidenc
Ġt ailor
Ġa .
in Ġall
in essĠ
in aryĠ
in struction
in ĠorderĠtoĠ
Ġth rill
sĠ shouldĠbeĠ
on Ġm
on toĠ
ĠtheĠ problem
ĠtheĠ user
ĠtheĠ opportunityĠtoĠ
ou sĠandĠ
re action
Ġs ch
Ġs le
Ġs ort
Ġs izeĠ
Ġs uffer
Ġs eparateĠ
Ġs outhern
at ent
ing ĠmoreĠ
ing ĠanĠin
ing ĠprocessĠ
it a
it ar
it 'sĠa
yĠ hasĠ
.Ġ &
.Ġ [
.Ġ car
.Ġ call
.Ġ goodĠ
ar il
ar ab
,Ġ z
,Ġ oneĠ
,Ġ inc
,Ġ whatĠ
,Ġ inĠ
ic ated
is ĠaĠf
ĠandĠ beĠ
th ew
el lo
el and
Ġw a
Ġw are
Ġw arr
Ġp oll
Ġp red
Ġp urchaseĠ
edĠ âĢľ
edĠ dur
ed ĠaĠf
ed ĠawayĠ
ch art
Ġm ental
Ġm agazin
Ġb ulb
Ġb ottom
isĠ for
Ġh ang
Ġd avidĠ
ur ger
Ġf riendĠ
Ġin spir
lo ver
lo tion
if th
Ġof Ġan
Ġof Ġall
ul u
op ter
op position
Ġal p
Ġar row
Ġyou âĢĻll
ag ueĠ
res ortĠ
itĠ seem
Ġn ameĠ
ut ah
Ġand Ġam
Ġand Ġadd
eĠt our
ĠthatĠ itĠisĠ
eĠs kill
eĠs uper
qu ietĠ
Ġre action
Ġre venu
con grat
.ĠtheĠ onlyĠ
ist a
sĠof Ġall
sĠof ĠtheĠm
est rian
s,Ġ youĠcan
enc od
Ġtr ul
anc yĠ
anc eĠon
Ġsh in
Ġsh ift
ell ingĠ
Ġon eĠor
art icle
,ĠandĠ isĠ
,ĠandĠ weĠ
end ing
ea way
Ġcon junction
s>Ġ<s> Ġon
s>Ġ<s> ĠifĠyou
ly -
Ġad equ
od or
will Ġhelp
li b
Ġat traction
Ġch anc
Ġch oiceĠ
Ġas id
eĠm e
eĠm ajor
we igh
Ġor Ġin
av oid
ment or
Ġab str
form atĠ
ĠtheĠf ederal
,Ġs uch
iz eĠyour
notĠ in
eĠtoĠ do
rec ycl
Ġj er
Ġj on
Ġj ointĠ
Ġj aipur
Ġex hib
eĠc enter
eĠc ounter
s. Ġall
Ġi 'veĠ
year sĠof
Ġ( andĠ
eĠp aper
eĠp ointĠ
ĠtheĠd ifferentĠ
Ġis ĠaĠp
Ġam ountĠ
Ġit sĠm
ers ,Ġs
Ġwill iam
mor e,Ġ
ĠtheĠt w
new sĠ
.Ġs inceĠ
do ingĠ
Ġus ingĠa
ingĠtheĠ rightĠ
str aw
ĠtoĠs om
ifĠyou Ġcan
Ġthan Ġever
not ĠtheĠ
Ġag o
s, ĠandĠtheĠ
ey eĠ
Ġres pond
ĠtheĠh ospital
ĠaĠb usinessĠ
Ġnew spaper
oundĠ of
mon ic
ĠaĠm uch
edĠwith in
dis clos
dis playĠ
look sĠ
look edĠ
don âĢĻt
inĠtheĠ world
ingĠm ember
ingĠm aterial
Ġher e.Ġ
Ġyear sĠandĠ
ĠaĠd ayĠ
fir eĠ
Ġcomp ut
view Ġof
eĠon Ġyour
Ġse e
Ġbe havior
edĠto gether
Ġup grad
tern oon
ĠaĠg row
fr iday
Ġther mal
ner ship
pon ent
,Ġi ĠwasĠ
Ġdis count
elect ro
Ġmon itor
cal endar
Ġmak eup
ĠtheĠr ac
abil ityĠandĠ
cor dĠ
att ention
att empt
Ġpart iesĠ
ingĠto p
Ġthank sĠto
long -
cle ans
experienc e.Ġ
s,ĠandĠ other
stat us
Ġday s.Ġ
gener ally
effect sĠof
12 5
Ġinter pret
Ġshow cas
gl adĠ
Ġtop -
dur ingĠa
compan y,Ġ
Ġhigh light
require sĠ
Ġfr uit
sup pos
eĠw ant
sĠc los
Ġif Ġi
.Ġp rior
25 2
exp ansion
Ġask Ġfor
ĠaĠn ic
ĠaĠn atural
def ens
Ġtechnolog ies
ĠthatĠyou Ġwill
Ġsit u
ĠaĠre ason
cur ric
,ĠitĠ wasĠ
eĠtheĠs ameĠ
Ġhealth ĠandĠ
Ġthre eĠs
14 0
result ingĠin
osp el
Ġoff ens
direct orĠof
lov esĠ
.com .
Ġcomple tion
whether Ġor
Ġgam esĠ
conf idential
Ġlevel Ġof
contain sĠ
Ġsm ok
umb leĠ
Ġhim self
ĠtheĠtop ic
Ġassoci ateĠ
Ġdef ens
indust ry.Ġ
bur s
hereĠ ar
month lyĠ
pat ientĠ
Ġmet allic
someth ing
adv ic
Ġarch ae
Ġoc ean
Ġstrateg ic
did n'tĠ
most lyĠ
Ġword s,Ġ
particip ateĠ
vill ageĠ
esp iteĠ
driv en
outsid eĠof
Ġunivers ity
sub ject
Ġrespons ibil
cours eĠ
Ġtotal ĠofĠ
ĠaĠcom mon
Ġfe etĠ
won 'tĠ
Ġthemselv esĠ
wait ingĠfor
Ġnov ember
upd ateĠ
Ġcirc umstanc
fram ework
weightĠ los
ĠtheĠfin ish
Ġadjust ment
riedĠ outĠ
Ġrepresent ativ
-w inn
Ġkind leĠ
means ĠthatĠ
Ġwon âĢĻtĠ
Ġwear ĠbootĠ
Ġbeh indĠ
jew el
Ġsucc essĠ
relig iousĠ
Ġscot land
Ġtra um
gorg eousĠ
comple tion
chocol ateĠ
Ġrather Ġthan
Ġvirt ual
conduc tĠ
Ġexact lyĠ
gart en
Ġ&Ġco .Ġkg
tĠg mbh
ĠtheĠpeac eĠcor
hausĠ steuermann
andin av
tĠgmbh Ġ&Ġco.Ġkg
% )
( c
( d
, Ġanother
- look
- fre
- hour
. Ġtoday
: Ġa
; ĠandĠ
= "
a verageĠ
b ind
c el
d iv
d avidĠ
e ag
e ed,Ġ
f al
f ly
f ection
f urnitureĠ
h ub
h eâĢĻsĠ
h usbandĠ
j esus
k al
l it
l ind
m outh
n erv
o i
o oĠ
o âĢĻsĠ
r us
r istĠ
r ussian
s end
s ĠtheĠc
s impleĠ
v oiceĠ
w av
x in
y Ġa
¿ ½
ë ĭ
ï ¿½
Ġ ir
Ġ obtain
Ġ electronic
Ġ edition
in ĠhisĠ
in Ġplac
sĠ âĢľ
sĠ whil
on Ġof
on eĠth
on ĠhisĠ
tĠ isĠ
en v
en orm
re presentĠ
Ġs im
Ġs imple
at e
at ures
ing Ġcom
it imateĠ
.Ġ isĠ
.Ġ greatĠ
ar th
ar sh
,Ġ dr
,Ġ itsĠ
is .Ġ
is ol
Ġc ream
ĠandĠ keep
th ank
il oĠ
el andĠ
you tĠ
you Ġin
you nger
Ġp oor
for Ġus
st ain
st oneĠ
st riveĠ
ed -
ed ly
ed ĠtheĠd
ed ĠaĠm
ed ,Ġand
ch ant
ch att
Ġm ount
Ġh ot
Ġh eal
ec retĠ
Ġd educ
us ĠaĠcall
ac rific
ur eĠthatĠ
Ġf itt
Ġf avor
Ġf estival
ver tĠ
em i
em ission
em inar
Ġin Ġall
Ġin ĠtheĠd
Ġin tr
Ġin ventor
ation s
ation ,ĠandĠ
ation Ġor
am ple
lo os
ingĠ -
ingĠ question
ad at
Ġof Ġthis
Ġyou âĢĻreĠ
Ġg un
Ġg oldĠ
Ġg hz
ab aseĠ
ha red
Ġand ĠtheĠm
Ġand ĠtheĠb
Ġand Ġafter
Ġl y
Ġl td
pro pag
eĠt w
eĠt ri
eĠt ell
eĠt ableĠ
ĠthatĠ myĠ
eĠs erver
Ġre -
.ĠtheĠ new
ĠthisĠ month
iv e.
Ġfor dĠ
Ġfor ĠanyĠ
ĠtheĠs econd
enc e,
ell i
Ġwith ĠtheĠs
Ġwith Ġtheir
Ġall ĠthatĠ
,ĠandĠ you
,ĠandĠ itĠ
Ġpro gres
eĠin Ġa
Ġcon gres
pr ink
can notĠbeĠ
ĠisĠ veryĠ
ity ĠthatĠ
ĠtheĠc re
ĠtheĠf re
ĠtheĠf il
Ġcan ad
ind igenousĠ
Ġk in
Ġk ong
eĠandĠ other
ĠtheĠp olic
Ġap olog
ens ures
ens itiveĠ
Ġsp a
ĠatĠ our
Ġ( m
soĠ manyĠ
ĠtheĠd es
eas yĠto
ob jectĠ
ure .ĠtheĠ
eĠf riend
mak eĠup
Ġit 'sĠa
ĠhaveĠ to
eg u
lin ux
.Ġi Ġknow
.Ġi ĠjustĠ
Ġle agu
when ĠtheyĠ
ĠaĠs olution
ĠaĠs uper
ĠtoĠs upport
yĠof Ġyour
but ĠalsoĠ
ĠanĠ end
ĠandĠs outh
e, ĠasĠ
atedĠ s
ĠaĠf in
.ĠthisĠ year
mon day
provid ing
min or
min eral
sĠon Ġ
sĠon lyĠ
edĠwith Ġ
Ġgr at
ĠaĠl aw
fir stĠof
yĠandĠ friend
eli eveĠ
ing.Ġ weĠ
vis ibleĠ
Ġpr ison
ingĠc ustom
ingĠc ustomer
ship p
qual if
ĠtheĠn atural
car a
ether netĠ
co z
Ġwhich Ġyou
cr ucial
Ġcl oudĠ
back up
elect ron
Ġsup plement
ump tiveĠ
Ġind igenousĠ
Ġabout Ġtheir
cor p
cor eĠ
atur dayĠ
ett i
mad eĠup
Ġart ific
Ġart istic
dec reas
ingĠf eat
mayĠ haveĠ
mayĠ notĠ
Ġout putĠ
exc eed
ĠnotĠ onlyĠ
Ġlif e,Ġ
lead ersĠ
Ġdec ad
Ġaddition ally,Ġ
dep th
dep art
lim itĠ
outĠof ĠtheĠ
Ġtrad eĠ
Ġweb inar
pric eĠof
fre ez
offer sĠa
hav ing
continu esĠtoĠ
build ingĠ
Ġexperienc edĠ
start edĠtoĠ
ĠbutĠ i
onc eĠ
onc eĠagain
Ġspecial ist
Ġameric a.Ġ
process ingĠof
until ĠtheĠ
Ġhour sĠ
Ġhour sĠof
Ġrequ estĠ
ĠgetĠ your
olleg eĠ
oh io
Ġcours eĠ
energ yĠandĠ
appl i
auth entication
Ġoffic eĠ
reduc tion
Ġcent r
choos eĠfrom
vit amin
Ġpropert iesĠ
Ġnor thern
effort sĠtoĠ
Ġexc ell
acc ord
Ġassist anceĠ
Ġmay ĠalsoĠ
dom estic
Ġcap ac
ref us
makeĠ it
Ġpower ful
Ġcustomer Ġservic
spir it
Ð½ Ñĭ
wall paper
-f reeĠ
ĠtheĠsp ac
ĠtheĠph oneĠ
ĠtheĠph ysical
uppl i
combin ationĠof
aud ienc
polic yĠ
Ġcharacter istic
Ġinstall ation
Ġcal or
prep aredĠ
function al
Ġfunction al
Ġbab yĠ
ĠtheĠlat est
ĠtheĠbo ard
luck yĠ
Ġtherap eutic
Ġrest aurantĠ
ĠtheĠdata ĠsubjectĠ
Ġattract iveĠ
editor ial
Ġdecid edĠtoĠ
benef icial
achi ev
oppos it
zer oĠ
Ġcompl ianc
resultĠ in
liqu idĠ
plug in
Ġwid th
Ġflor ida
lob alĠ
uffic ient
eĠtechn olog
Ġreli ef
ĠcreditĠ cardĠ
relig ion
Ġcollect iveĠ
Ġarab ia
Ġherit ageĠ
Ġheav yĠ
enth usi
connectĠ with
Ġantiqu eĠ
Ġstra ight
Ġclin ical
asket ball
ĠtheĠgre en
ophistic atedĠ
.tag _uafv
ĠaĠrang eĠof
urop ath
ichelangelo Ġanton
( i
( or
, Ġat
, ĠaĠd
, ĠtheseĠ
- g
- idĠ
- day
. Ġstill
. Ġstep
6 1
7 1
7 14
b rown
b rief
b eĠtaken
d ail
f p
f ell
g p
g as
g olden
h ook
h ik
i âĢĻveĠ
i âĢĻdĠ
i ological
k b
k o
k een
n as
n ob
n ersĠ
n arrow
p ip
q ur
r ack
s uggest
u beĠ
v eil
v essel
w im
y )
y eĠ
Ġ )
Ġ ê
Ġ economic
Ġt x
Ġt at
Ġt ub
Ġa dĠ
Ġth riv
sĠ itsĠ
sĠ justĠ
sĠ whileĠ
sĠ doĠnotĠ
er Ġ(
on ion
on ial
or Ġsh
en edĠ
an ,Ġ
an im
re vers
re fin
re vir
Ġs itt
at ed,Ġ
at esĠtheĠ
ing Ġteam
ing ĠandĠt
ar ah
es /
,Ġ car
,Ġ no
is landĠ
Ġc v
Ġc art
Ġc utĠ
Ġc eremon
ĠandĠ ex
ĠandĠ mak
ĠandĠ whatĠ
th eĠm
th eĠc
el izabeth
Ġw ineĠ
Ġp itch
Ġp ier
Ġp ublication
for Ġs
for Ġour
st ak
edĠ work
ed Ġthis
ed ward
ĠtoĠ build
ĠtoĠ join
ĠtoĠ improveĠ
ĠtoĠ workĠwith
ĠtoĠ meetĠ
ĠtoĠ discus
ch eat
Ġm ir
Ġm enu
Ġm ilitaryĠ
Ġb id
ent ĠtoĠ
ent ially
Ġh it
Ġh olidayĠ
Ġd oneĠ
Ġd ryĠ
Ġd ental
ur a
im pression
esĠ up
ver ifi
Ġin ĠhisĠ
Ġin ĠfrontĠof
et rick
Ġto ĠaĠs
un install
un known
ingĠ under
ad equ
Ġof ĠtheĠt
Ġof Ġnew
Ġar l
Ġg etting
ex ampleĠof
ag e
eĠth ank
eĠth eĠsh
res olveĠ
ab ov
ha ul
with inĠ
with draw
ut yĠ
Ġand ĠtheĠf
Ġl it
Ġl ip
eĠt ag
ĠthatĠ sh
eĠs inc
con cert
con gres
.ĠtheĠ companyĠ
s.Ġ now
s.Ġ each
s.Ġ whil
and on
and al
e.Ġ now
e.Ġ how
e.Ġ itâĢĻsĠ
ess entiallyĠ
ep son
ep revir
Ġfor ever
Ġfor ĠtheĠc
wor s
Ġsh eâĢĻsĠ
Ġsh irt
your Ġhom
out iqu
,ĠandĠ our
âĢĻsĠ mostĠ
eĠin suranc
s>Ġ<s> Ġ"
sĠin t
sĠin ĠthisĠ
eĠtheĠ mostĠ
sh eet
ef in
Ġr andom
Ġat tain
ĠisĠ oneĠof
eĠm eĠ
ityĠ with
ĠtheĠc entral
iz ationĠof
eĠtoĠ us
Ġthat Ġall
eĠa war
ies ,
ies el
Ġk ing
Ġk il
ĠtheĠp ath
Ġex ecut
e. ĠthereĠar
eĠc ollection
s. ĠasĠ
s. Ġthis
Ġi Ġhav
man entĠ
ok ia
Ġsp otĠ
Ġsp anish
Ġ( d
eĠb atch
eĠb ecom
eĠp ack
eĠp leas
eĠp hon
tr ail
Ġis nâĢĻtĠ
sĠtoĠ getĠ
Ġtim e-
'sĠ "
Ġam end
Ġwill Ġhelp
.Ġi Ġcan
lik ew
comm andĠ
Ġthem ĠareĠ
ater al
Ġaf ghan
low lyĠ
.Ġs uper
aw ayĠ
Ġus ĠatĠ
ple mentĠ
Ġacc identĠ
ingĠs o
rough tĠ
eĠh uman
pres sur
dr agon
Ġag gress
Ġthes eĠm
ingĠtoĠ do
rem inder
vers usĠ
vers atil
well Ġknown
ĠanĠ importantĠ
ureĠ your
ĠandĠs ocial
ĠaĠb adĠ
ĠaĠb ook
emp leĠ
ĠtheĠl ateĠ
ĠaĠc lean
Ġne ed.Ġ
ageĠ or
bec ameĠ
read er
sĠon lin
plac eĠin
help sĠ
help sĠtoĠ
edĠby ĠtheĠc
ingĠb usinessĠ
Ġgr oundĠ
ingĠm anag
ibleĠ with
ĠaĠl im
ĠaĠl ight
Ġthey ĠshouldĠ
los sĠof
Ġpr ay
ĠtheĠg row
ĠtheĠg lobal
eĠon ly
ingĠc o
ingĠc ount
Ġcont roller
Ġcont emporaryĠ
sc riber
ĠtheĠn ext
ros oft
ident ification
Ġper Ġyear
gu ardĠ
fr uitĠ
ingĠd ist
cr ystal
old estĠ
Ġthos eĠin
.Ġm ostĠof
som eĠs
sĠto p
Ġind ex
Ġservic es,Ġ
Ġav enu
,ĠbutĠ itĠ
Ġy ester
ra eli
atur day
Ġtrans l
equ isit
.Ġh op
Ġstr uggl
Ġbr ight
Ġthank sgiv
Ġph oneĠ
experienc eĠwith
eh old
ah al
land ,Ġ
Ġthing sĠtoĠ
Ġstor yĠ
moreĠ aboutĠ
ĠasĠwell ĠasĠtheĠ
Ġqu ot
Ġwe apon
ĠmayĠ haveĠ
wer en
present ation
Ġcar ri
gl u
Ġtop Ġof
Ġter ror
Ġaut umn
oĠs or
eĠtr u
Ġaddition ĠtoĠ
rep ublican
enef itĠ
Ġstat us
Ġro t
e.Ġi Ġam
e.Ġi ĠwasĠ
Ġstart up
level sĠof
ÂŃ t
uk rain
Ġtechnolog y,Ġ
avel ength
wayĠ from
Ġpre vent
prot otyp
liv ingĠin
Ġbec am
famil y
until Ġ
Ġfl u
Ġhour s.Ġ
Ġwhil eĠtheĠ
Ġrequ iredĠ
ĠÐ ±
it'sĠ notĠ
enjoy ĠtheĠ
known Ġfor
Ġant ib
ĠneedĠtoĠ know
Ġwebsit eĠ
Ġgam eĠon
mov ement
step p
ĠmanyĠ year
Ġcount riesĠ
Ðµ Ð½
Ġsw eden
disc iplin
Ð¾Ð ¶
understand ĠtheĠ
Ġbetween ĠtheĠ
Ġtoo th
beli ef
Ġgl ad
Ġgl ass
sĠac c
Ġbecaus eĠ
Ġaltern ateĠ
Ñģ Ðº
ref und
prim arilyĠ
.Ġit ĠalsoĠ
ĠmightĠ beĠ
Ġsuppl ier
Ġsometh ingĠ
agn ific
.ĠheĠ wasĠ
ĠtheĠph il
,Ġfor Ġexample
ĠtheĠcountr y
uppl yĠ
anger ousĠ
nov el
eĠph oto
voic ecomputer
sequ entĠ
basic ally
eĠasĠ well
Ġhon eyĠ
Ġcompet itiveĠ
.Ġsom etim
ecom merc
Ġdes ir
Ġaren 'tĠ
Ġfron tĠ
upd atedĠ
ju ic
customer Ġservic
ĠreceiveĠ a
Ġexpert is
ĠtheĠfin estĠ
Ġjack et
eĠdevelop mentĠ
eĠmanag ementĠ
yester day
fut ureĠ
effectĠ on
estim atedĠ
det ect
Ġsatur dayĠ
ĠaĠperson al
Ġcounsel or
ĠtheĠtyp eĠof
ĠtheĠfr ench
Ġwait ingĠfor
ĠtheĠgovern ment
equival entĠ
Ġarthrit isĠ
Ġthom asĠ
electedĠ president
oistur iz
exclus ivelyĠ
redeem er
Ġadh dĠ
ohawk Ġrug
" Ġof
( a
, ĠthankĠyou
, ĠaccordingĠtoĠ
. ĠareĠyou
6 3
9 6
: Ġi
a Ã
b .Ġ
b other
b owl
b loom
c ableĠ
c aughtĠ
e esĠ
e igh
f avor
f elt
f ootball
h it
h id
i allyĠs
k yĠ
l sĠ
m ight
m irror
m agazin
n ar
p opulation
q Ġ=Ġ
s il
s ong
s port
s aveĠ
s ightĠ
s ecur
s outh
t urn
u ther
u ham
w ich
w ool
x box
y âĢĿ
Ã ¢
Ã ³
Ġ etc
Ġ ÑĢ
Ġ efficienc
Ġt ear
Ġt ower
Ġa Ġmor
Ġa esthetic
Ġth ro
Ġth ing.Ġ
er ial
on .Ġ
on Ġb
ou sĠa
Ġs u
Ġs olv
at ial
it ?
it .ĠtheĠ
it .ĠbutĠ
.Ġ *
.Ġ âĢĵ
.Ġ let
es ĠtheĠs
es ĠareĠs
,Ġ now
,Ġ well
,Ġ hisĠ
is ĠaĠgreatĠ
is rael
Ġc oldĠ
Ġc itizen
Ġc urriculum
ĠandĠ myĠ
ĠandĠ maintain
th os
th Ġannivers
el le
Ġw ak
Ġw ayĠof
you ĠdonâĢĻtĠ
you tubeĠ
Ġp od
for estĠ
ed ĠtheĠb
ed ĠtheĠt
ed ĠaĠ
ed ral
ro v
ro st
ro bin
ro zen
ch ronic
Ġm id
Ġm aximum
Ġm alibu
Ġb ear
Ġb ought
Ġh am
Ġh itĠ
Ġh eight
Ġd esc
Ġd oubleĠ
Ġd ivision
le w
le verag
ur ingĠ
Ġf elt
Ġf iber
id nâĢĻtĠ
esĠ itĠ
esĠ willĠb
Ġin ĠaĠs
et .Ġ
am el
Ġto Ġan
Ġto ĠaĠp
Ġto ĠanyĠ
Ġto Ġanother
Ġto Ġstop
ingĠ option
ingĠ gam
ad ow
if ari
ul ator
Ġar is
Ġyou ĠwantĠtoĠ
ex plan
ag est
res pon
ha z
Ġn et
Ġn iceĠ
Ġst emĠcell
Ġand ĠtheĠd
Ġand roidĠ
Ġl ay
Ġl aptop
com mentĠ
eĠt est
eĠt wo
eĠs et
eĠs inceĠ
eĠs eem
qu eĠ
up ervisor
eĠof Ġa
eĠof ĠitsĠ
Ġre ward
Ġre lev
con clusion
s.Ġ itâĢĻsĠ
Ġthe ater
per spectiveĠ
ap id
est yle
Ġfor Ġan
Ġfor est
Ġfor ĠtheĠs
e,Ġ b
Ġtr ash
Ġtr uly
anc ientĠ
Ġsh oulder
Ġon t
Ġon Ġour
Ġwith ĠaĠs
Ġwith ĠmyĠ
Ġwith Ġother
Ġwith ĠitsĠ
oc umentĠ
sĠandĠ isĠ
Ġcon fig
Ġcon flict
s>Ġ<s> Ġfor
sĠin ĠmyĠ
sĠin creas
etĠ for
sh areĠ
od ayĠ
Ġr ustĠ
Ġas ĠtoĠ
ĠtheĠm ap
ĠtheĠm odern
eĠm ix
we apon
Ġor Ġbetter
ity ,ĠandĠ
Ġcan Ġyou
iz esĠ
rec re
rec all
rec eption
Ġj esus
Ġj ordan
eĠa Ġnew
int r
ĠtheĠp ool
e. ĠtoĠ
eĠc al
eĠc ard
eĠc amp
Ġi ĠcouldĠ
Ġsp in
Ġsp ar
Ġsp ain
ib m
Ġ( c
eĠb etter
eĠb ott
eĠp iec
tr actĠ
sĠtoĠ helpĠyou
butĠ notĠ
eĠf urther
eĠf irst
Ġit ,Ġ
sp otĠ
ach Ġbali
how ĠitĠ
ĠaĠs ub
aw ar
Ġus eĠof
str ang
sĠs inceĠ
sĠs upport
ĠtoĠs ayĠ
ful Ġof
ug geran
ĠaĠp ict
ĠanĠ oldĠ
ĠanĠ email
ĠandĠs eeĠ
inter vention
inter activeĠ
ph p
Ġres erveĠ
ĠaĠb it
min i
ĠtheĠl ak
ĠaĠc or
Ġass embl
whatĠ happen
sĠon ly
dis put
endĠ on
ingĠb as
Ġgr ind
ingĠm ak
ingĠm odel
Ġyear s.
eĠisĠ s
ĠaĠl ink
son ,Ġ
eli ber
ĠtheĠg oodĠ
Ġact or
uth enticator
qual ifiedĠ
every wher
tern etĠ
sc rib
sĠthatĠ haveĠ
sĠthatĠ can
ĠaĠg am
ret ire
ret riev
gu itar
ingĠd irect
,Ġm ostĠ
Ġcl assĠ
rel ativeĠ
ath olic
ath edral
som etim
som eon
ys ql
.ĠweĠ wereĠ
anceĠ and
stor ag
stor yĠof
ĠweĠ will
Ġwhen ĠitĠcomesĠtoĠ
cor rectĠ
ĠtheĠw ar
att res
mad eĠtheĠ
mad eĠitĠ
ĠtwoĠ week
sur g
need ed.Ġ
Ġmin i
Ġmin ister
Ġen em
Ġbr anch
ingĠh ard
Ġph as
Ġph ysician
Ġdi eg
vol veĠ
eĠsh ould
just iceĠ
inst eadĠ
Ġaw areĠof
person nel
mayĠ notĠbeĠ
edĠm aterial
exc ept
Ġinter ior
uit ableĠ
,Ġwhich ĠwasĠ
what ĠtheĠ
compan ion
Ġaddition alĠ
Ġtrain ing,Ġ
Ġso ĠthatĠ
ĠpeopleĠ in
Ġif Ġyour
issu eĠ
ĠtheĠmostĠ importantĠ
18 8
Ġco al
s,Ġs o
eir a
feel ĠfreeĠtoĠ
consider edĠ
Ġactiv ityĠ
Ġactiv elyĠ
Ġcons umption
Ġdown town
ingĠt ableĠ
ingĠt oward
rib leĠ
gam esĠ
less lyĠ
,ĠitĠ is
,ĠitĠ will
eĠtheĠs am
sĠp rior
Ġsign Ġup
emb leĠ
ĠanĠex tra
Ġmar in
Ġfre edom
Ġmonth lyĠ
becom esĠ
health yĠ
.Ġf urther
ogn itiveĠ
ĠtheĠtim eĠtoĠ
feat uresĠ
ĠtoĠmak eĠtheĠ
ĠtoĠmak eĠsureĠ
forc eĠ
eĠsp eak
useĠ our
bur gh
pay mentĠ
Ġjust iceĠ
choos eĠtoĠ
eam lessĠgutter
Ġlong er
ĠwillĠb eĠs
Ġgre w
sm artĠ
Ġmad eĠ
someth ingĠthatĠ
Ġwin dĠ
dom inal
ĠthisĠs ummer
sĠinclud eĠ
jur isdiction
Ġdep artment
van ia
Ġtoward s
care fullyĠ
Ġsometh ing
Ġvol unte
isc ussion
ĠandĠw omen
implement ation
Ġtre as
Ġmus lim
Ġno .Ġ
Ġsens eĠof
would n'tĠ
appro pri
proper ly
ĠaĠcom prehensiveĠ
allow een
ĠtheĠfut ureĠof
ĠtheĠpres ent
refer redĠto
Ġchrist mas
edĠinto ĠtheĠ
Ġsha redĠ
eĠshouldĠ beĠ
Ġfut ur
partner ship
Ġposs ible
url =
visitĠ our
vin ey
remot eĠ
eĠbas edĠon
memor ial
Ġtemper ature
gall eryĠ
pict ures
anal ytic
Ġcountr y
Ġwr ong
libr ary
ĠaĠwideĠ varietyĠof
ĠrightĠ now
eĠinterest edĠin
ray mondĠ
flex ibleĠ
veget abl
Ġpor tion
Ġrev eal
mun ication
ÑģÑĤ Ð²
Ġtex as
Ġexper iment
Ġty coon
executiveĠ director
becam eĠa
degre eĠin
advis or
Ġenforc ement
Ġinnov ation
sĠam ong
brit ish
Ġluxur yĠ
Ġchampion ship
endoz a
onym ousĠ
Ġprov inc
olomit eĠpowder
Ġparam etric
assembly Ġshall
ucoĠ chatĠroom
curric ulum
uggeran ong
& m
' sĠandĠ
, '
- lik
. Ġal
. ĠaĠs
/ her
1 10
3 20
5 3
_ _
b und
c en
c oĠ
c old
c ulation
c ientific
c rowd
d esc
e j
f oot
f olk
g est
h ostĠ
i Ġm
i :Ġ
j im
k at
l ing
l aidĠ
m t
m tĠgmbhĠ&Ġco.Ġkg
n t
n u
n it
n ich
p our
p eter
p assĠ
s now
s Ġtak
s even
s impl
s yl
t y
t ub
u a
u um
w ineĠ
w itness
z ep
Ġ @
Ġ ..
Ġ idea
Ġ ÑĤ
Ġ entr
Ġa ĠmoreĠ
Ġa Ġproblem
sĠ notĠ
sĠ how
sĠ had
er Ġon
or Ġb
en omen
ĠtheĠ th
ĠtheĠ form
ĠtheĠ whol
an mar
re tain
Ġs urround
Ġs oftĠ
Ġs chedul
Ġs ymptom
at ri
at edĠto
at tract
at edĠbyĠtheĠ
ing Ġplan
ing Ġproblem
it ableĠ
.Ġ com
.Ġ new
.Ġ getĠ
.Ġ no
.Ġ peopleĠ
es '
es Ġafter
es ĠaboutĠ
,Ġ can
,Ġ how
is ĠandĠ
is co
Ġc lo
Ġc leans
Ġc ourse
th eĠd
th eseĠ
il son
el lyĠ
Ġw ag
you âĢĻr
you ĠmightĠ
Ġp ac
Ġp ip
st res
st retch
ed ĠaĠd
ĠtoĠ play
ĠtoĠ provideĠ
ĠtoĠ receiveĠ
ro yĠ
ro bert
Ġm ight
Ġm ost
Ġm ethodĠ
Ġb rief
isĠ still
Ġh ostĠ
Ġh oldĠ
Ġd ial
Ġd ail
le y,Ġ
le sĠmad
ac yĠof
ac redĠ
Ġf aster
Ġf antastic
esĠ &
esĠ likeĠ
ver b
em ma
ation ĠthatĠ
am pl
am sung
Ġto Ġtell
ingĠ $
ingĠ not
ingĠ each
ingĠ need
ad just
if er
wh isk
ter min
ul let
ul ationĠof
Ġal ik
ill ar
Ġyou ĠhaveĠtoĠ
Ġg b
Ġg olf
ag h
ag ra
ab ol
ab let
ha ust
our tĠof
Ġn urs
Ġn atureĠ
Ġst an
Ġst res
Ġst eveĠ
ak a
pro p
com eĠwith
ri ent
um or
per mitt
iv en
iv ely.Ġ
e.Ġ m
ess agesĠ
ev in
ap ump
be ingĠm
sĠof Ġa
sĠof Ġtheir
est imateĠ
ep hon
s,Ġ from
Ġfor Ġus
enc il
enc iesĠ
e,Ġ for
Ġtr ac
anc eĠto
ea ven
haveĠ anyĠ
Ġcon sc
Ġv ap
s>Ġ<s> Ġf
pr id
ly woodĠ
sh ell
sh otĠ
Ġr ud
Ġat ĠtheĠs
Ġas Ġtheir
ĠtheĠm ar
ĠtheĠm usic
ĠtheĠm oment
ĠtheĠm arketĠ
Ġcom esĠ
ĠisĠ on
ĠisĠ still
ityĠ (
ĠtheĠf ir
ĠtheĠf irm
,Ġs outh
eĠd escrib
ind icat
Ġthat âĢĻsĠa
ang al
Ġk en
edĠtoĠ b
Ġex tract
e. ĠthisĠisĠ
eĠc od
s. ĠtheseĠ
Ġi rel
Ġ( theĠ
eĠp rec
eĠp opular
ĠtheĠd river
tr avel
Ġis landĠ
eas yĠfor
ass ador
'sĠ mostĠ
Ġpl umb
ure ly
eĠf reeĠ
eĠf actor
mak ingĠs
Ġit s
Ġit Ġall
mor e.
sp ic
comm onlyĠ
Ġthem Ġon
new Ġyear
es.Ġ "
es.Ġ for
str aint
sĠs uchĠas
ĠtoĠs erveĠ
Ġacc um
ov ement
Ġun itĠ
eĠh our
eĠh eldĠ
y.Ġ our
ans asĠ
even Ġmor
usĠ isĠ
ian a
e, ĠtheĠc
inter action
ĠaĠf riend
eĠto Ġse
bo ast
ĠtheĠh all
sel ection
ĠaĠb as
emp tĠ
ĠaĠc los
air port
Ġass etĠ
fl ight
ingĠp ric
look Ġat
sĠwith Ġyour
par ad
edĠby ĠtheĠf
ingĠb eh
ingĠm ill
ingĠm usic
ĠaĠl ightĠ
oll ect
ix ma
Ġthey 'll
ing.Ġ itĠ
ingĠc ampaign
Ġse am
ed.Ġ âĢľ
know ĠhowĠtoĠ
Ġup per
heĠ hasĠ
doĠ it
doĠ weĠ
Ġany tim
bas ket
ingĠd ep
ingĠd ayĠ
whil eĠyou
.Ġm ohawkĠrug
und amental
.ĠweĠ can
Ġmon dayĠ
Ġmon ey.Ġ
fac ial
Ġim ageĠ
Ġmak eĠsureĠ
Ġservic e.Ġ
abil ity.Ġ
ĠtheĠw indow
ĠaĠw oman
mad eĠtoĠ
Ġart if
Ġtrans portĠ
need sĠtoĠbeĠ
Ġen h
a,Ġ which
ĠofĠ usĠ
cover ag
pec ific
ary land
ary Ġaid
Ġstor eĠ
Ġstor ag
kin dĠ
Ġwe ak
week lyĠ
develop mentĠof
exc av
Ġgu essĠ
esĠfor Ġ
Ġter rac
Ġdec ember
eĠitĠ wasĠ
la yout
Ġtrain edĠ
sĠb ab
ym path
Ġfr ust
Ġro leĠ
main lyĠ
real istic
wher ever
willĠbeĠ ableĠtoĠ
ĠaĠn on-
Ġcons ervation
loveĠ theĠ
liv edĠin
cur v
hol idayĠ
identĠ of
Ġfl ag
.Ġif Ġyour
ĠalwaysĠ beĠ
ĠalwaysĠ been
enn syl
Ġproduct sĠ
13 2
i- fi
17 0
wr app
Ġel imin
pri z
bab yĠshowerĠbingoĠcard
.Ġw oof
!Ġi ĠloveĠ
Ġinclud es
ĠtoĠp ick
Ġhand leĠ
Ġtry ingĠto
Ġbefor eĠtheĠ
youĠwill ĠfindĠ
emor ial
Ġint end
e,Ġs o
umb ai
possibleĠ for
09 1
Ġcent re
ins ert
choos eĠ
ii /
ĠwillĠbeĠ ableĠtoĠ
near ly
sm ith
Ġwin ner
increas eĠtheĠ
Ġamong ĠtheĠ
Ġarch iv
depend sĠon
Ġpric eĠ
sk i
Ġfeat ureĠ
Ġcomplet elyĠ
Ġnational ĠconventionĠheldĠin
fall en
ren ov
van illa
rev olution
els eĠ
Ġcre w
cert ifiedĠ
agn ost
isc oĠ
histor ical
ĠoneĠof Ġour
Ġbig ger
eav or
sĠwhoĠ haveĠ
inĠf rontĠof
wash o
veh icl
hy thm
integr atedĠ
Ġmil esĠ
cours eĠisĠ
Ġdem andĠ
rictĠ nin
Ġthemselv es.Ġ
ecom munication
mus lim
chan ic
makesĠ itĠ
major ityĠof
ĠasĠmuch ĠasĠ
uis in
ĠtheĠfollow ing
eĠdevelop ment
prefer redĠ
referenc es.Ġ
Ġmeas ures
necessar ilyĠ
gall er
Ġsqu are
regul ator
Ġawes omeĠ
eĠdec id
&apos; sĠ
fut ur
natur allyĠ
Ġinf oĠ
Ġteen ag
built -in
enalt yĠ
igr aph
compre h
eĠind ividual
organis ation
Ġappar entlyĠ
Ġstain lessĠsteel
pers ian
Ġchin es
Ġhaven 'tĠ
Ġtemp leĠ
ĠtheĠhelp Ġof
Ġarr ayĠof
Ġwis consin
sĠassoci atedĠwith
hes it
academ ic
ĠresultĠ in
ingĠbe for
audi Ġarabia
comeĠup Ġwith
eĠcurr entlyĠ
ĠassemblyĠ required:
oliveĠ oil
Ġpract iceĠ
ĠaĠlov elyĠ
eumat oid
Ġware hous
Ġwarr ant
Ġartific ial
apump Ġfur
ennsyl vania
! ĠitĠ
! ĠyouĠcan
, âĢĻ
, Ġtak
, Ġallow
, ĠasĠwellĠas
- month
. p
. a.
. Ġthat'sĠ
6 30
8 9
9 7
? !
? )
a Ġn
a rem
a ution
b s
b low
b rows
c d
c amer
d sm
d inner
d ynamic
d ouble
e _
e ant
f ax
f unn
f aster
f ascin
g ard
g old
h r
h em
h ors
i om
i as
k il
l esĠandĠ
l ueĠ
p izz
r entĠ
r ustĠ
r anch
r agon
s un
s ian
s oundĠ
s endĠ
s etting
s etĠup
t le
u ild
u leĠof
v aryĠ
w ak
x ic
y es
y Ġat
Î ¿
à ¸
â ģ
Ġ id
Ġ employ
Ġ earth
Ġ equipmentĠ
Ġ ingredient
eĠ &
eĠ un
Ġt eas
Ġt enn
Ġt ender
Ġa Ġyoung
in entĠ
Ġth ail
Ġth umb
sĠ sh
sĠ but
sĠ has
sĠ whenĠyou
er n
er Ġfrom
on Ġa
on ia
or Ġeven
en act
ĠtheĠ oldĠ
ĠtheĠ information
ĠtheĠ job
ou ter
an ĠandĠ
re form
re ll
Ġs a
Ġs of
Ġs ight
Ġs ustain
Ġs weetĠ
Ġs cheduleĠ
Ġs undayĠ
at e,
ing )
ing le
ing ,ĠtheĠ
ing Ġtechniqu
it isĠ
it Ġtak
it zer
al ad
al mostĠ
.Ġ z
.Ġ pr
.Ġ by
.Ġ keep
.Ġ click
ar eĠtheĠ
es om
es ĠandĠt
,Ġ will
is ĠtheĠs
Ġc and
ĠandĠ us
th reeĠ
il i
il leĠ
il ma
el veĠ
Ġw ww
you ĠwantĠtoĠ
Ġp rett
Ġp ointĠof
st amp
st ated
edĠ "
ĠtoĠ chang
ĠtoĠ obtain
ĠtoĠ createĠa
ro gen
ch ef
Ġb at
Ġb itĠ
Ġb urn
Ġb att
Ġb ird
ent ur
ent leĠ
Ġh a
Ġh ik
Ġh abit
Ġh undredsĠof
Ġd ent
Ġd iv
us ical
us eĠofĠtheĠ
Ġf enc
Ġf avourit
Ġin Ġan
Ġin ĠtheĠb
Ġin frastruct
Ġto Ġad
un itĠ
lo op
ingĠ "
ad ay
ad option
Ġof ĠtheĠh
ul g
Ġal oneĠ
Ġal ban
Ġar c
Ġg ap
ex pressĠ
res etĠ
res ort
with Ġother
our ag
Ġst y
Ġst ood
Ġst ageĠ
Ġst uck
ut om
ut ureĠ
pl ans
Ġl amp
com for
com ingĠfrom
eĠs endĠ
eĠs cal
qu ilt
up p
eĠof Ġtheir
ear l
.ĠtheĠ bestĠ
per spect
per iodĠof
ew er
iv e,
e.Ġ however,Ġ
ess ert
ev angel
ap ol
ĠareĠ all
est ination
Ġfor mal
ĠtheĠs enateĠ
enc los
e,Ġ whoĠ
Ġtr yĠandĠ
Ġon ĠtheĠc
Ġon Ġtheir
oc yt
gr it
gr as
Ġac compan
ateĠ on
ip t
ip per
out reach
from Ġour
eĠin volv
Ġcon sequenc
s>Ġ<s> Ġa
s>Ġ<s> ĠweĠ
sh or
sh ortĠ
other sĠ
Ġr oundĠ
ber lin
Ġas ian
Ġcom esĠwith
ĠisĠ itĠ
eĠm usic
eĠm arketĠ
Ġor ient
form ula
ĠtheĠc ost
ub b
eĠd riv
notĠ even
notĠ just
eĠtoĠ get
Ġthat âĢĻs
ĠtheĠb estĠof
Ġj ur
eĠa reas
ĠtheĠp otential
ast at
e. ĠthatĠ
e. ĠtheyĠ
e. Ġthen
s. Ġa
s. Ġand
s. ĠthereĠar
Ġi ĠwouldĠ
Ġi Ġknow
Ġtheir Ġnew
ĠatĠ your
Ġ( i.
eĠb lack
eĠb owl
eĠp os
iesĠ on
Ġtim es,Ġ
Ġtim e.ĠtheĠ
ne utral
butĠ itĠ
ingĠa uthor
cont est
ob es
ob viouslyĠ
ob serveĠ
ult iv
ult ure
af ternoon
yĠs ub
toĠ beĠ
Ġit .
Ġit .ĠtheĠ
Ġwill ĠhaveĠ
.Ġi ĠalsoĠ
lik eĠm
mor eĠinformation
ĠtheĠt rip
new lyĠ
ĠaĠs ignificantĠ
aw Ġcrusher
sĠs ub
ĠtoĠs ign
inc tion
inc tiveĠ
itt le
ifĠyou âĢĻreĠ
ĠaĠp leas
even Ġbetter
elyĠ with
ĠanĠ over
ureĠ which
ĠandĠs om
ĠaĠf antastic
Ġmor e.Ġ
Ġmor eĠdetail
Ġres ort
bo il
ener get
Ġnew .Ġ
min imal
ĠtheĠl ight
ĠaĠc lass
pre ferenc
fl atĠ
ingĠp ool
ingĠp erson
ĠaĠm ult
ement .
ing,Ġ which
dis charg
eĠthatĠ will
plac edĠon
se tĠof
se eĠtheĠ
Ġthey 'reĠ
includ edĠin
los Ġangel
di abet
eĠon c
eĠon lin
Ġup load
rat esĠ
co oper
urr ent
Ġwhich ĠtheĠ
gu arant
cr ash
Ġrec ently
Ġappl yĠ
,Ġi Ġwill
,Ġi 'm
Ġapp earedĠ
Ġsup pos
stor eĠ
ĠtheĠr is
dayĠ loan
Ġfin eĠ
ĠaĠw ater
by -
mad eĠin
Ġover ĠtheĠ
dec emberĠ
Ġmin eral
Ġmin imum
Ġman yĠof
.Ġh eĠisĠ
itĠisĠ notĠ
Ġthank sĠ
Ġthank ful
ĠofĠ each
ingĠh our
Ġdon âĢĻt
ĠsoĠ far
inst ead
io graph
Ġstor m
Ġout com
,Ġyou ĠareĠ
develop edĠ
Ġinter fac
Ġinter activeĠ
uit ableĠfor
ĠnotĠ sureĠ
ingĠyour Ġown
compan y.Ġ
dep loy
ott ag
Ġbu yer
Ġneed s.Ġ
Ġnot ification
ĠshouldĠ you
unc t
eĠw all
plan sĠtoĠ
ĠmoreĠ about
18 9
.ĠifĠyou âĢĻreĠ
Ġco conutĠwater
Ġstart edĠtoĠ
real ity
follow ingĠtheĠ
Ġalong sid
build ingĠa
Ġback Ġin
Ġback ground
Ġsub mitt
ĠandĠc los
eĠfrom ĠtheĠ
,ĠsoĠ youĠcan
ck e
16 0
Ġthre eĠmonth
,Ġwith ĠtheĠ
Ġthere 'sĠa
result sĠ
beg un
Ġfamil y.Ġ
Ġminut es,Ġ
Ġtalk ĠaboutĠ
becom eĠtheĠ
reason sĠ
Ġel ig
ĠtakeĠ plac
Ġfac ilit
,Ġbut ĠtheĠ
,Ġbut ĠalsoĠ
Ġsur g
ĠtoĠmak eĠsur
Ġweek end
Ġpat ientĠ
ĠtoĠp romot
Ġcor ner
Ġcor rect
ĠneedĠtoĠ beĠ
opportun itiesĠfor
eĠsur v
compl yĠwith
compl ianc
val entin
Ġaud io
sm art
sm ooth
risk Ġof
Ġoc cup
olar is
nes ota
Ġmov ementĠ
del ight
rock et
Ġhop eĠyou
Ġmain ten
evalu ation
limit edĠto
ĠdidĠ you
Ġdel eg
Ġcert ificateĠ
ĠtheĠsh oulder
explor eĠtheĠ
eĠph otos
would nâĢĻtĠ
ĠanyoneĠ whoĠ
ĠcanĠb eĠfoundĠ
ĠtheĠpres entĠ
!Ġ âĢ¢
Ġhon or
meas ures
grand father
Ġwindow sĠ
ĠitĠcom esĠto
ĠtheĠhous eĠ
kind sĠof
ĠoutĠof Ġ
Ġmobil eĠ
ĠtheĠcor rectĠ
optim al
optim iz
compar ison
wo of
cholar ship
roleĠ in
flor id
flor ida
proced ures
Ġche es
orm oneĠ
Ġhy dr
Ġassign ment
benef itsĠ
journe y
usp end
Ġcommitt eeĠ
Ġinit ial
exhib it
well- known
cult iv
eff ectĠof
Ġimp act
frank lin
rin agar
ĠtheĠhear t
locatedĠ on
elimin ateĠ
Ġappar ently
Ġintroduc tion
passion ateĠ
jam esĠ
Ġlat estĠ
ĠtheĠgovern mentĠ
Ġchi ef
ĠtheĠtechn ical
onom ic
Ġsome whereĠ
espit eĠtheĠ
ĠtheĠgreat estĠ
friger ator
ðŁ Ļ
sty leĠof
eĠbec am
ĠyesĠ overallĠproductĠweight:Ġ
ĠrentalĠtracker ĠplusĠ
andinav ian
ixma Ġmg
âģ Ħ
" theĠ
) Ġ-
, Ġtheir
, Ġthrough
, Ġturn
, ĠalongĠwith
- styleĠ
- relatedĠ
. ĠaĠp
. ĠanyĠ
/ "
/ ii/
1 12
? ĠweĠ
[ /
a iss
b et
b ik
b ath
b ond
b oost
c -
c in
c it
c av
c ultural
d ental
e ersĠ
f urnit
g ear
g ien
h tml
i .Ġ
j ail
j osh
k itĠ
m ot
m ulti-
n p
n est
o en
o âĢĻ
p ink
r ag
r uction
s in
s ister
s uccess
t i
t it
t alk
v ulner
y b
y on
y og
y ield
Ù Ĭ
Ġ ~
Ġ equ
Ġ eventĠ
Ġ ....
Ġt urt
Ġa Ġstat
in j
in crediblyĠ
Ġth reatĠ
sĠ "
sĠ look
sĠ him
er Ġwith
or no
en sĠ
ĠtheĠ "
ou ple
an oĠ
an ax
Ġs at
Ġs ter
Ġs lightlyĠ
at eĠto
at ingĠc
ing "
ing ĠhasĠ
ing Ġanother
ing ĠplantĠ
it esĠ
it ativeĠ
yĠ can
.Ġ of
.Ġ just
.Ġ notĠonlyĠ
.Ġ whileĠtheĠ
ar tĠof
ar mer
es "
es ĠtheyĠ
es âĢĿ
oĠ is
,Ġ mor
Ġc ableĠ
Ġc yber
om eĠof
om ination
ĠandĠ now
ĠandĠ soĠ
ĠandĠ off
ĠandĠ down
ĠandĠ has
ĠandĠ feel
ĠandĠ enjoy
il ip
il ity
Ġw rap
Ġp i
Ġp alm
Ġp olitic
edĠ if
ed ĠtwoĠ
ĠtoĠ watch
ĠtoĠ understand
ro c
ro th
ch at
ch os
Ġm ass
Ġm achineĠ
Ġm ostlyĠ
Ġb ur
Ġb ak
isĠ oneĠof
as an
Ġh i
Ġh p
Ġh r
ec ution
us edĠasĠa
ac le
ol oĠ
ol di
Ġf urnit
Ġf avoriteĠ
ig .Ġ
ver montĠ
em ad
Ġin k
Ġin ĠitsĠ
Ġin ĠloveĠ
Ġin corpor
Ġin strument
Ġto Ġadd
Ġto Ġallow
Ġto Ġask
Ġto ĠaddĠ
ir cle
ingĠ light
ingĠ equipmentĠ
Ġof ĠaĠs
Ġof ĠitsĠ
Ġal m
Ġal one.Ġ
ill ator
Ġyou âĢĻveĠ
Ġg ear
ex cess
ex erciseĠ
ag o
ag ed
res olv
res ervation
os ĠandĠ
Ġn igeria
Ġst ir
pro ph
pro portion
com esĠtoĠ
com plain
ĠthatĠ has
ot on
eĠs ign
qu areĠ
up plement
eĠof ĠtheĠb
.ĠtheĠ main
s.Ġ w
s.Ġ but
e.Ġ w
ev identĠ
be havi
sĠof Ġother
sĠa sĠs
s,Ġ isĠ
Ġfor Ġher
ant ,Ġ
ant icip
your ĠbusinessĠ
Ġall en
oc usĠon
oc umentsĠ
weĠ do
bu bb
eĠin Ġtheir
Ġcon duc
Ġv eteran
s>Ġ<s> Ġn
s>Ġ<s> Ġk
s>Ġ<s> Ġwhen
sĠin Ġa
sĠin Ġb
od g
ef flor
will ĠhelpĠyou
Ġr a
Ġr s
Ġr ating
Ġch ip
ĠtheĠm od
ĠtheĠm orn
ĠtheĠm ovi
Ġcom mentĠ
eĠm y
eĠm eal
Ġor al
ityĠ or
ĠtheĠc amera
ĠtheĠf ew
ĠtheĠf ood
ĠtheĠf ourth
eĠd et
eĠd raw
eĠtoĠ m
Ġthat Ġa
ĠtheĠb lack
ĠtheĠb utton
Ġj ud
Ġj oint
Ġk ick
Ġk een
ĠtheĠp ark
e. Ġsh
eĠc re
Ġi -
man ,Ġ
ens itiv
Ġsp ir
Ġsp eedĠ
ĠatĠ itsĠ
ĠatĠ homeĠ
Ġ( "
eĠp ass
eĠp eople
comp assion
ĠtheĠd evic
iesĠ (
iesĠ or
Ġis Ġalso
ingĠa g
ob st
ob viousĠ
ob sess
mak esĠs
sp ark
sp eedĠ
sp eech
ĠaĠs eparateĠ
es,Ġ but
es.Ġ you
Ġus ingĠtheĠ
str uggl
sĠs inc
sĠs ystem
ĠtoĠs olveĠ
inc ent
not Ġall
y.Ġ itĠ
ingĠtoĠ doĠ
go ing
go ingĠthrough
ire dĠof
rem ed
ĠanĠ easyĠ
ĠandĠs ervic
inter estĠin
inter actĠwith
ĠaĠf amil
bo hydr
reat mentĠ
Ġafter Ġall
mon ey.Ġ
min imiz
eb yĠ
eb ay
ĠtheĠl ightĠ
ĠaĠc o
ĠaĠc as
pre vention
whatĠ itĠ
read y
fl Ġjersey
ingĠp res
ingĠp ower
e- to-
look Ġlik
don ation
plac edĠin
se am
edĠby Ġan
edĠby ĠtheĠs
ĠasĠa Ġresult
Ġthey ĠalsoĠ
Ġcomp ens
Ġthis ĠarticleĠ
produc eĠ
produc edĠ
produc eĠa
know Ġwhat
qual ity,Ġ
ĠtheĠn ight
car bon
earch Ġfor
Ġwhich Ġis
ingĠd evic
Ġcl oud
Ġhow Ġyou
Ġsom eĠofĠtheĠ
whil eĠs
rel ation
rel ativelyĠ
ed,Ġ or
Ġthink ĠaboutĠ
Ġthink ingĠaboutĠ
ities ĠareĠ
cons ent
sĠfrom ĠtheĠd
Ġy og
Ġfin anceĠ
ĠtheĠw ood
med ication
rop p
dec ideĠ
dec lar
Ġman chester
Ġbr ad
ĠwhatĠ i
Ġallow sĠfor
struc tĠ
ah i
ĠsoĠ youĠcan
everyĠ dayĠ
peopleĠ toĠ
Ġout let
ĠmayĠ notĠ
vest ment
ĠinĠtheĠ world
eĠyour self
educ ateĠ
educ ator
Ġshow room
,Ġh ealth
Ġaddition ally
happ ens
Ġtrain ingĠandĠ
e! Ġ
Ġhom e.Ġ
Ġneed sĠtoĠ
Ġro bert
Ġpar alegal
ĠpeopleĠ andĠ
plan etĠ
Ġco ordin
ĠaĠv is
def end
feel Ġlik
-s creen
kn ock
âĢĻll ĠbeĠ
start edĠwith
ountr yĠ
law n
prot est
goodĠ new
,Ġt x
imag ineĠ
option al
Ġdevelop mentĠof
Ġinformation Ġon
,ĠitĠ was
mar chĠ
Ġthre eĠtim
Ġfamil y
Ġaccord anceĠwith
Ġway sĠtoĠ
click ĠonĠtheĠ
ai Ġchi
enjoy edĠ
mal ink
Ġspac eĠ
met ric
Ġevery dayĠ
!Ġi Ġam
Ġinclud eĠ
olit ician
Ġhand l
eĠsp ot
âĢĻr eĠa
Ġagre eĠwith
opportun ityĠfor
beautiful lyĠ
Ġlevel sĠof
Ġfeel Ġlik
pass wordĠ
Ð¾Ð ¼
meet ĠtheĠ
Ġstudent sĠin
object iveĠ
dat abas
Ġexc eption
Ġform Ġof
Ġauthor ities
compet itor
star ĠgameĠon
Ġintern al
nextĠ year
eventĠ of
clear lyĠ
conc eptĠof
Ġinvest or
Ġadmin ister
ĠtoĠc elebr
.Ġit âĢĻs
Ġbar bar
Ġmaterial Ġdetails:
Ġsuppl i
Ġcre ek
Ġdirect lyĠ
ham per
sĠup ĠtoĠ
ĠtoĠf ix
Ġbuild ing
Ġ* Ġm
Ġmus ical
ĠtoĠseeĠ how
special ist
Ġadvertis ement
effectiv ely
Ġannounc ement
combin edĠwith
integr ation
eĠph ilip
sĠbyĠ dr
doĠyou Ġthink
welcom eĠtoĠ
consist entlyĠ
ofĠcours e,
sal esĠ
strong lyĠ
ixt ureĠ
managementĠ system
eĠmayĠ beĠ
s- on
becomeĠ an
he ight
.c Ġ(
eoĠ of
rank edĠ
Ġcirc leĠ
Ġcirc uit
Ġent ryĠ
payĠ for
Ġstick garn
lookĠfor wardĠtoĠ
Ġcop y
imple mentĠ
Ġincreas eĠin
Ġprim aryĠ
Ġprim aryĠschool
Ġaccur ac
makeĠsur eĠthatĠ
Ġaim sĠtoĠ
eĠdep artment
ru lesĠ
sĠav ailable
Ġinit iativ
eĠpar tĠof
izon tal
emphas isĠon
illust r
trad itional
mag ic
Ġjapan es
.Ġnot e:
Ġneg ativeĠ
randĠ new
phil osoph
ĠanĠext rem
facilit ateĠ
herit ag
Ġhaven âĢĻtĠ
Ġintellig enc
news letter
ĠtheĠmajor ityĠof
Ġagric ultural
Ġtempor aryĠ
Ġstra ightĠ
ĠalongĠtheĠ way
Ġcamer as
eĠdid nâĢĻtĠ
ld a.Ġ
-to -d
Ġphys ic
underst ood
claimedĠ woodĠ
Ġcorpor ation
Ġtol lesĠmad
chand is
ebru ary
"ĠandĠ "
ĠrightsĠ reserv
Ġconven ienc
Ġank leĠ
eĠdiv .Ġi
Ġplent yĠof
ĠaĠcombin ationĠof
ĠÎ¼ m
Ġafghan istan
achĠbali yeĠ
eira Ġstickgarn
rictĠnin eĠdiv.Ġi
energet ic
cke ever
/ii/ iii
efflor esc
ĠtollesĠmad eiraĠstickgarn
ĠtollesĠmadeiraĠstickgarn Ġmetallic
! Ġw
! Ġl
' sĠtheĠ
) Ġof
) Ġpresent
. j
. Ġtheir
. ĠaĠb
. Ġthrough
. ĠtwoĠ
. ĠthatĠisĠ
. ĠaddĠ
; ĠtheĠ
< /
a >
a 'sĠ
a iredĠ
b ought
c of
c atĠ
c aster
c iĠ
d ear
e 's
f at
f el
f ellow
f iber
h abil
i ev
i Ġdon'tĠ
k h
k ept
l ayĠ
m eĠa
m urder
n ativeĠ
p oll
r yĠs
r ender
s at
s and
s ĠtheĠd
s ecurity
s weet
t l
u y
v m
v o
v dĠ
w ing
w anna
y lin
y .ĠthisĠ
z oo
Ã ¤
Ñ Ī
ï Ĥ
Ġ et
Ġ older
Ġ objectiv
eĠ #
in ent
in Ġd
in ingĠroom
Ġth ir
sĠ program
sĠ lead
sĠ hom
sĠ overĠ
er .ĠtheĠ
er ĠwasĠ
er ĠwhoĠ
on ĠtheĠb
or i
en ator
ĠtheĠ endĠof
re act
Ġs ent
Ġs entĠ
Ġs ever
Ġs eal
Ġs lic
at emal
ing Ġas
ing Ġwill
ing ,Ġt
ing ness
al dĠ
al though
.Ġ per
.Ġ letĠ
.Ġ doĠnotĠ
.Ġ introduction
es Ġan
es Ġas
es Ġthan
es cal
es ĠatĠtheĠ
,Ġ nor
,Ġ becauseĠ
Ġc rowd
ĠandĠ work
ĠandĠ communication
th eĠt
el ineĠ
you 'reĠ
you Ġdon'tĠ
Ġp eak
for ever
st em
st ersĠ
edĠ you
edĠ befor
ed ĠandĠt
ed ĠtoĠse
ed Ġabov
ĠtoĠ g
ĠtoĠ grow
ĠtoĠ writ
ĠtoĠ buy
ĠtoĠ maintain
ch eer
Ġm at
Ġm essageĠ
ent itl
Ġd ynamic
le m
le ak
le yĠf
us edĠon
us edĠbyĠ
us eĠitĠ
ac oĠ
ol er
Ġf ell
id ol
esĠ weĠ
esĠ between
em i-
Ġin n
Ġin ĠaĠm
Ġin ĠtheĠg
Ġto ĠaĠb
un ger
un fortunately
ir atent
ingĠ j
ad h
Ġof ĠaĠb
Ġof Ġcours
op eĠof
âĢĻ d
ill ness
Ġyou tubeĠ
ay sia
ex changeĠ
ex plic
ag enc
eĠth row
eĠth ought
Ġand ĠaĠd
pl as
Ġl en
pro xim
com esĠin
eĠt re
eĠt ip
ĠthatĠ of
ĠthatĠ work
ot iveĠ
eĠs ell
eĠs mall
up al
up Ġto
up Ġwith
eĠof Ġmind
Ġre pos
um myĠ
ĠthisĠ new
s.Ġ us
s.Ġ your
ew ater
iv e
e.Ġ pleaseĠ
ev an
ist s,Ġ
ist ical
ist ribut
be ver
ĠtheĠs creen
enc e.
e,Ġ your
Ġsh ock
Ġwith inĠ
ant sĠ
cl imat
ip her
ip adĠ
over look
out ,Ġ
out let
ea restĠ
Ġcon version
Ġv intag
s>Ġ<s> Ġhow
pr ing
pr oĠ
ly t
Ġad her
od a
Ġr ay
Ġr ough
Ġr atesĠ
Ġr fc
Ġch atĠ
Ġch arm
Ġas pectĠof
ĠtheĠm en
ĠtheĠm edical
ĠisĠ justĠ
ĠisĠ basedĠon
eĠm ark
eĠm ean
av ail
ĠtheĠc ityĠof
ĠtheĠc ostĠof
ĠtheĠf all
Ġcan n
Ġcan adian
eĠd el
eĠtoĠ help
Ġthat Ġtheir
Ġj ar
Ġk g
ong Ġkong
port fol
edĠtoĠ haveĠ
ĠtheĠp ain
ĠtheĠp ass
her o
her e,Ġ
Ġex clusiveĠ
e. ĠasĠ
eĠc aus
s. ĠtoĠ
s. Ġsh
Ġi Ġhad
ens usĠ
ok en
Ġlo ad
Ġlo dg
Ġsp ent
ĠatĠ m
ĠatĠ myĠ
eĠb l
eĠb estĠ
eĠb enef
eĠb ring
eĠp artĠ
ia ,Ġ
comp romis
ĠtheĠd igital
tr u
iesĠ from
Ġis ĠaĠ
ass et
ustĠ beĠ
eal Ġwith
og g
ure sĠin
eĠf ish
eĠf loor
eĠf ilm
mak ing
mak eĠthem
Ġit 's
eg in
.Ġi ĠdonâĢĻtĠ
lik eĠs
lik eĠyou
ĠtheĠt re
oneĠ for
low estĠ
.Ġs ub
.Ġs econd
ĠaĠs imilar
sĠfor Ġall
es.Ġ ifĠyou
which ĠareĠ
Ġus edĠin
Ġfrom Ġyour
sĠs ay
sĠs ervic
ĠtoĠs ub
ĠtoĠs cheduleĠ
Ġtak eĠyou
eĠh ard
eĠh old
eĠh istor
pres idential
dr amatic
not eĠthatĠ
Ġag greg
go es
go ingĠfor
ĠaĠp ublic
rem eĠc
âĢĵ Ġ
ĠandĠs upport
e, Ġt
ey es
sid ersĠ
ĠtheĠh and
ĠtheĠh otel
youĠcan Ġus
ĠmyĠ lif
eb ayĠ
ĠtheĠl ackĠof
ĠaboutĠ omegaĠ
Ġne edĠof
Ġass essĠ
ĠanyĠ question
ĠaĠm odern
loc ateĠ
dis abl
plac eĠto
par is
ingĠb etween
ingĠm yself
Ġher e.
ĠaĠl ater
ix th
includ ingĠ
includ eĠtheĠ
includ eĠa
Ġcomp on
ingĠc ours
edĠto day
Ġup Ġon
Ġper Ġc
cr imin
,Ġm r
,Ġi ĠwouldĠ
chang esĠin
und ai
app rec
ĠaĠh ous
ĠaĠh ead
Ġim mediateĠ
Ġmak eĠyou
Ġservic es
Ġbo y
Ġy etĠ
Ġy es,Ġ
ra j
.Ġin stead
ĠtheĠw ind
