{"!":0,"\"":1,"#":2,"$":3,"%":4,"&":5,"'":6,"(":7,")":8,"*":9,"+":10,",":11,"-":12,".":13,"/":14,"0":15,"1":16,"2":17,"3":18,"4":19,"5":20,"6":21,"7":22,"8":23,"9":24,":":25,";":26,"<":27,"=":28,">":29,"?":30,"@":31,"[":32,"\\":33,"]":34,"^":35,"_":36,"`":37,"a":38,"b":39,"c":40,"d":41,"e":42,"f":43,"g":44,"h":45,"i":46,"j":47,"k":48,"l":49,"m":50,"n":51,"o":52,"p":53,"q":54,"r":55,"s":56,"t":57,"u":58,"v":59,"w":60,"x":61,"y":62,"z":63,"|":64,"~":65,"¡":66,"¢":67,"£":68,"¤":69,"¥":70,"¦":71,"§":72,"¨":73,"©":74,"ª":75,"«":76,"¬":77,"®":78,"¯":79,"°":80,"±":81,"²":82,"³":83,"´":84,"µ":85,"¶":86,"·":87,"¸":88,"¹":89,"º":90,"»":91,"¼":92,"½":93,"¾":94,"¿":95,"Â":96,"Ã":97,"Ä":98,"Å":99,"Æ":100,"È":101,"É":102,"Ê":103,"Ë":104,"Ì":105,"Î":106,"Ï":107,"Ð":108,"Ñ":109,"Ö":110,"×":111,"Ø":112,"Ù":113,"Ú":114,"Û":115,"à":116,"á":117,"â":118,"ã":119,"ä":120,"å":121,"æ":122,"ç":123,"è":124,"é":125,"ê":126,"ë":127,"ì":128,"í":129,"ï":130,"ð":131,"ă":132,"Ĉ":133,"Ċ":134,"č":135,"Ġ":136,"Ģ":137,"ģ":138,"Ĥ":139,"ĥ":140,"Ħ":141,"ħ":142,"Ĩ":143,"ĩ":144,"Ī":145,"ī":146,"Ĭ":147,"ĭ":148,"Į":149,"į":150,"İ":151,"ı":152,"Ĳ":153,"ĳ":154,"Ĵ":155,"ĵ":156,"Ķ":157,"ķ":158,"ĸ":159,"Ĺ":160,"ĺ":161,"Ļ":162,"ļ":163,"Ľ":164,"ľ":165,"Ŀ":166,"ŀ":167,"Ł":168,"ł":169,"Ń":170,"eĠ":171,"Ġt":172,"Ġa":173,"in":174,"Ġth":175,"sĠ":176,"er":177,"on":178,"tĠ":179,"dĠ":180,"or":181,"en":182,"ĠtheĠ":183,"ou":184,"an":185,"re":186,"Ġs":187,"at":188,"ing":189,"it":190,"Ġan":191,"yĠ":192,"al":193,".Ġ":194,"ar":195,"es":196,"oĠ":197,"of":198,",Ġ":199,"ic":200,"is":201,"ion":202,"Ġc":203,"om":204,"ĠandĠ":205,"th":206,"il":207,"el":208,"Ġw":209,"you":210,"Ġp":211,"for":212,"st":213,"edĠ":214,"ed":215,"ĠtoĠ":216,"ro":217,"ch":218,"Ġm":219,"Ġb":220,"isĠ":221,"as":222,"ent":223,"Ġh":224,"ec":225,"âĢ":226,"ow":227,"Ġd":228,"le":229,"us":230,"ac":231,"ol":232,"veĠ":233,"ur":234,"Ġf":235,"id":236,"im":237,"esĠ":238,"ith":239,"ig":240,"ver":241,"em":242,"Ġin":243,"et":244,"ation":245,"atĠ":246,"am":247,"Ġto":248,"un":249,"ir":250,"lo":251,"ingĠ":252,"leĠ":253,"ad":254,"if":255,"wh":256,"Ġof":257,"ter":258,"all":259,"ul":260,"op":261,"Ġal":262,"âĢĻ":263,"ill":264,"Ġar":265,"Ġyou":266,"ay":267,"Ġg":268,"ex":269,"ag":270,"eĠth":271,"res":272,"itĠ":273,"ab":274,"ha":275,"with":276,"our":277,"os":278,"Ġn":279,"Ġst":280,"ut":281,"Ġand":282,"pl":283,"Ġl":284,"ak":285,"pro":286,"com":287,"entĠ":288,"eĠt":289,"ĠthatĠ":290,"ot":291,"Ġ<":292,"s>":293,"eĠs":294,"igh":295,"qu":296,"up":297,"ri":298,"eĠof":299,"Ġre":300,"ain":301,"con":302,"ear":303,"ect":304,"rom":305,"um":306,"oun":307,".ĠtheĠ":308,"ĠthisĠ":309,"s.Ġ":310,"Ġthe":311,"per":312,"and":313,"asĠ":314,"uc":315,"ew":316,"iv":317,"e.Ġ":318,"ess":319,"oo":320,"ev":321,"lyĠ":322,"ist":323,"ap":324,"andĠ":325,"be":326,"sĠof":327,"ĠareĠ":328,"est":329,"ther":330,"sĠa":331,"ep":332,"s,Ġ":333,"Ġfor":334,"ereĠ":335,"ayĠ":336,"ĠtheĠs":337,"enc":338,"iveĠ":339,"ud":340,"e,Ġ":341,"wor":342,"Ġtr":343,"anc":344,"Ġsh":345,"ell":346,"der":347,"Ġon":348,"oul":349,"Ġwh":350,"Ġwith":351,"ant":352,"cl":353,"your":354,"Ġall":355,"otĠ":356,"oc":357,"beĠ":358,"por":359,"ĠasĠ":360,"sĠandĠ":361,"weĠ":362,"gr":363,"Ġac":364,"art":365,"ateĠ":366,"gh":367,"ever":368,"ip":369,"tion":370,"over":371,"out":372,",ĠandĠ":373,"end":374,"tĠof":375,"Ġpro":376,"ack":377,"âĢĻsĠ":378,"ea":379,"from":380,"bu":381,"eĠin":382,"ial":383,"haveĠ":384,"Ġcon":385,"Ġv":386,"Ġ</":387,"Ġ<s>":388,"s>Ġ<s>":389,"sĠin":390,"pr":391,"Ġyour":392,"etĠ":393,"20":394,"ly":395,"eĠtheĠ":396,"sh":397,"Ġad":398,"od":399,"ough":400,"ouldĠ":401,"ef":402,"ust":403,"own":404,"other":405,"will":406,"Ġr":407,"ard":408,"ber":409,"li":410,"Ġat":411,"fer":412,"Ġch":413,"Ġas":414,"ableĠ":415,"ĠtheĠm":416,"Ġcom":417,"can":418,"ich":419,"ĠisĠ":420,"eĠm":421,"we":422,"outĠ":423,"Ġor":424,"ityĠ":425,"av":426,"ment":427,"Ġab":428,"form":429,"ity":430,"ail":431,"ĠtheĠc":432,"ĠtheĠf":433,",Ġs":434,"Ġcan":435,"ub":436,"eĠd":437,"iz":438,"act":439,"notĠ":440,"ish":441,"ind":442,"eĠtoĠ":443,"Ġthat":444,"rec":445,"ang":446,"work":447,"ĠtheĠb":448,"Ġj":449,"eĠa":450,"ies":451,"Ġk":452,"eĠandĠ":453,"ong":454,"port":455,"now":456,"ign":457,"edĠb":458,"edĠtoĠ":459,"int":460,"ĠtheĠp":461,"her":462,"erv":463,"ight":464,"Ġex":465,"ast":466,"aveĠ":467,"e.":468,"eĠc":469,"s.":470,"allyĠ":471,"Ġi":472,"man":473,"Ġtheir":474,"estĠ":475,"Ġap":476,"ens":477,"ition":478,"ok":479,"Ġlo":480,"Ġsp":481,"year":482,"ĠatĠ":483,"duc":484,"ib":485,"Ġ(":486,"soĠ":487,"eĠb":488,"eĠp":489,"ia":490,"comp":491,"cre":492,"ĠtheĠd":493,"tr":494,"iesĠ":495,"edĠin":496,"Ġis":497,"sĠtoĠ":498,"ical":499,"ick":500,"uch":501,"eas":502,"Ġtim":503,"ne":504,"ass":505,"ustĠ":506,"butĠ":507,"ingĠa":508,"'sĠ":509,"eal":510,"00":511,"ightĠ":512,"ark":513,"og":514,"Ġpl":515,"wasĠ":516,"Ġam":517,"cont":518,"ob":519,"ult":520,"af":521,"yĠs":522,"..":523,"201":524,"ure":525,"vid":526,"eĠf":527,"âĢľ":528,"ersĠ":529,"mak":530,"toĠ":531,"Ġit":532,"mentĠ":533,"ers":534,"ĠhaveĠ":535,"eg":536,"Ġwill":537,"lin":538,".Ġi":539,"vi":540,"essĠ":541,"lik":542,"mor":543,"sp":544,"ĠtheyĠ":545,"âĢĿ":546,"ĠtheĠt":547,"ous":548,"idĠ":549,"ach":550,"Ġle":551,"comm":552,"Ġthem":553,"ĠthereĠ":554,"ost":555,"ater":556,"how":557,"Ġaf":558,"oneĠ":559,"when":560,"pos":561,"eng":562,"new":563,"way":564,"br":565,"low":566,"elp":567,".Ġs":568,"ĠaĠs":569,"been":570,"ound":571,"do":572,"sĠfor":573,"aw":574,"es,Ġ":575,"y,Ġ":576,"clud":577,"to":578,"es.Ġ":579,"which":580,"Ġour":581,"Ġus":582,"Ġfrom":583,"ingĠtheĠ":584,"str":585,"ervic":586,"ostĠ":587,"ple":588,"eat":589,"sĠs":590,"ĠtoĠs":591,"inc":592,"Ġwor":593,",ĠtheĠ":594,"adĠ":595,"ienc":596,"itt":597,"Ġacc":598,"Ġtak":599,"ingĠs":600,"ication":601,"ifĠyou":602,"rough":603,"eĠfor":604,"ov":605,"oodĠ":606,"Ġun":607,"row":608,"antĠ":609,"eĠh":610,"pres":611,"Ġthan":612,"dr":613,"not":614,"ful":615,"Ġag":616,"eop":617,"Ġthes":618,"y.Ġ":619,"ug":620,"ingĠtoĠ":621,"ans":622,"yĠof":623,"but":624,"ingĠin":625,"go":626,"ool":627,"ire":628,"ĠaĠp":629,"even":630,"ĠtoĠtheĠ":631,"tain":632,"ll":633,"aus":634,"stĠ":635,"each":636,"iss":637,"arg":638,"rem":639,"areĠ":640,"âĢĵ":641,"vers":642,"âĢĻtĠ":643,"ook":644,").":645,"elyĠ":646,"well":647,"astĠ":648,"ĠanĠ":649,"Ġte":650,"usĠ":651,"ureĠ":652,"ĠalsoĠ":653,"s,":654,"ian":655,"ĠandĠs":656,"e,":657,"ĠitĠ":658,"inter":659,"ey":660,"ection":661,"ĠbeĠ":662,"atedĠ":663,"ual":664,"ĠaĠf":665,"ink":666,"hasĠ":667,"19":668,"eĠto":669,"ek":670,"ph":671,"Ġmor":672,"are":673,"Ġres":674,"omeĠ":675,"ember":676,"bo":677,"urn":678,"sid":679,"fic":680,"sĠareĠ":681,"ener":682,"ardĠ":683,"ĠtheĠh":684,"day":685,"reg":686,"sel":687,"ousĠ":688,"yst":689,"room":690,"ĠaĠb":691,"was":692,"youĠcan":693,"Ġthrough":694,"emp":695,"ric":696,"ĠmyĠ":697,"myĠ":698,"ĠwasĠ":699,"eopleĠ":700,"ood":701,"reat":702,"Ġadd":703,"Ġnew":704,"oundĠ":705,"Ġafter":706,".ĠthisĠ":707,"mon":708,"provid":709,"ectĠ":710,"min":711,"eb":712,"ĠtheĠl":713,"Ġtw":714,"ĠaĠc":715,"esĠandĠ":716,"air":717,"ĠaboutĠ":718,"Ġne":719,"ĠaĠ":720,"ageĠ":721,"pre":722,"ount":723,"Ġass":724,"fin":725,"whatĠ":726,"bec":727,"read":728,"fl":729,"ik":730,"ingĠp":731,"ĠanyĠ":732,"ĠaĠm":733,"usin":734,"elop":735,"esign":736,"get":737,"sĠon":738,"eel":739,"let":740,"loc":741,"eth":742,"whoĠ":743,"ata":744,"yp":745,"e-":746,"ement":747,"ing,Ġ":748,"edĠwith":749,"formation":750,"dis":751,"evelop":752,"edĠon":753,"look":754,"ĠofĠtheĠ":755,"don":756,"inĠtheĠ":757,"sĠwith":758,"esĠof":759,"cess":760,"endĠ":761,"amp":762,"eĠthatĠ":763,"ingĠandĠ":764,"jo":765,"plac":766,"ational":767,"aryĠ":768,"par":769,"help":770,"atch":771,"rit":772,"wereĠ":773,"ord":774,"byĠ":775,"ular":776,"Ġthen":777,"so":778,"se":779,"olog":780,"ystem":781,"veryĠ":782,"edĠby":783,"ingĠb":784,"Ġgr":785,"ingĠm":786,"utĠ":787,"Ġher":788,"Ġyear":789,"ari":790,"under":791,"itsĠ":792,"ibleĠ":793,"eĠisĠ":794,"ĠaĠl":795,"Ġwork":796,"son":797,"oll":798,"eep":799,"ĠasĠa":800,"ĠaĠd":801,"ix":802,"ower":803,"ann":804,"fir":805,"Ġthey":806,"includ":807,"yĠandĠ":808,"ator":809,"los":810,"eli":811,"Ġcomp":812,"gram":813,"'tĠ":814,"ing.Ġ":815,"Ġthis":816,"me":817,"vis":818,"perienc":819,"di":820,"ubl":821,"produc":822,"view":823,"eyĠ":824,"wouldĠ":825,"noĠ":826,"Ġpr":827,"ĠtheĠg":828,"eĠon":829,"ific":830,"10":831,"iffer":832,"anyĠ":833,"arn":834,"edĠbyĠ":835,"ingĠc":836,"requ":837,"Ġse":838,",Ġand":839,"Ġact":840,"ship":841,"ash":842,"sĠand":843,"uth":844,"Ġcont":845,"ed.Ġ":846,"az":847,"econ":848,"know":849,"oup":850,"Ġbe":851,"eĠwith":852,"qual":853,"every":854,"edĠto":855,"riv":856,"Ġup":857,"reatĠ":858,"oldĠ":859,"tern":860,"sc":861,"ally":862,"ingĠfor":863,"ject":864,"rat":865,"sĠthatĠ":866,"heĠ":867,"eĠyou":868,"ĠtheĠn":869,"),":870,"ĠaĠg":871,"ild":872,"gan":873,"Ġatt":874,"car":875,"alk":876,"earch":877,"justĠ":878,"doĠ":879,"ros":880,"ustom":881,"ident":882,"hap":883,"inĠ":884,"ether":885,"ret":886,"co":887,"yĠtoĠ":888,"Ġany":889,"urr":890,"amil":891,"ĠhisĠ":892,"Ġper":893,"getĠ":894,"bl":895,"Ġwhich":896,"ution":897,"bas":898,"gu":899,"ax":900,"fr":901,"ingĠd":902,"cr":903,",Ġm":904,"sit":905,"fect":906,"Ġcl":907,"ĠhasĠ":908,"Ġther":909,"chn":910,"edĠfor":911,"chool":912,"Ġhow":913,"Ġop":914,"ealth":915,"part":916,"Ġsom":917,"ner":918,"whil":919,"ank":920,"Ġother":921,"dĠof":922,"pon":923,"old":924,"ead":925,"aseĠ":926,"vel":927,"uf":928,"ton":929,"Ġrec":930,"loy":931,"hisĠ":932,"esĠtoĠ":933,"leg":934,"ingĠon":935,"Ġstud":936,"enter":937,"ession":938,"eck":939,"ingĠof":940,"Ġappl":941,"high":942,"sĠm":943,",Ġi":944,"Ġthos":945,"ementĠ":946,"rel":947,"Ġapp":948,"ath":949,".Ġm":950,"chang":951,".ĠitĠ":952,"back":953,"mer":954,"ble":955,"rip":956,"Ġdis":957,"200":958,"ext":959,"elect":960,"pect":961,"aid":962,"ient":963,"self":964,"und":965,"som":966,"ys":967,"ed,Ġ":968,".ĠweĠ":969,"pert":970,"ameĠ":971,"alu":972,"Ġsup":973,"Ġmon":974,"ĠtheseĠ":975,"app":976,"fac":977,"e.ĠtheĠ":978,"ict":979,"cal":980,"anceĠ":981,"ĠaĠh":982,"sĠto":983,"worl":984,"ativeĠ":985,"ump":986,"Ġim":987,"actĠ":988,"Ġmak":989,"ationĠof":990,"cer":991,"Ġthink":992,"ities":993,"red":994,"stor":995,"ollow":996,"employ":997,"ĠweĠ":998,"oneĠof":999,"ĠtheĠr":1000,"Ġind":1001,"cons":1002,"Ġservic":1003,"Ġbo":1004,"abil":1005,"Ġav":1006,"Ġabout":1007,"sĠfrom":1008,"play":1009,"Ġwhen":1010,"ourc":1011,"dayĠ":1012,",ĠbutĠ":1013,"Ġy":1014,"arm":1015,"esĠin":1016,"eter":1017,"cor":1018,"ra":1019,".Ġin":1020,"mall":1021,"ityĠof":1022,"s.ĠtheĠ":1023,"no":1024,"artĠ":1025,"Ġfin":1026,"reeĠ":1027,"Ġdo":1028,"umber":1029,"reĠ":1030,"ision":1031,"atur":1032,"ett":1033,"ĠtheĠw":1034,"oint":1035,"att":1036,"edĠandĠ":1037,"unt":1038,"...":1039,"med":1040,"whereĠ":1041,"onlyĠ":1042,"much":1043,"ryĠ":1044,"ron":1045,"stand":1046,"Ġspec":1047,"ry":1048,"ital":1049,"ould":1050,"ten":1051,"Ġ-":1052,"ĠaĠw":1053,"by":1054,"mad":1055,"theĠ":1056,"Ġart":1057,"rop":1058,"ĠtwoĠ":1059,"able":1060,"rect":1061,"sur":1062,"ures":1063,"es.":1064,"Ġover":1065,"Ġtrans":1066,"iqu":1067,"equ":1068,"ween":1069,"dec":1070,"Ġpart":1071,"ull":1072,"nâĢĻtĠ":1073,"itch":1074,"need":1075,"vent":1076,"ifi":1077,"ock":1078,"etween":1079,"off":1080,"befor":1081,"down":1082,"antĠtoĠ":1083,"Ġcomm":1084,"istĠ":1085,"Ġmin":1086,"olution":1087,"urch":1088,"Ġtechn":1089,"ingĠto":1090,"Ġman":1091,"import":1092,".Ġh":1093,"ours":1094,"Ġen":1095,"fort":1096,"olor":1097,"lif":1098,"sĠor":1099,"edĠs":1100,"Ġstr":1101,"Ġbr":1102,"becaus":1103,"itĠisĠ":1104,"Ġproduc":1105,"Ġthough":1106,"50":1107,"a,Ġ":1108,"ingĠf":1109,"iceĠ":1110,"ress":1111,"oveĠ":1112,"inu":1113,"Ġthank":1114,"long":1115,"ĠofĠ":1116,"ĠandĠtheĠ":1117,"ept":1118,"estion":1119,"oci":1120,"cle":1121,"Ġare":1122,"ingĠh":1123,"Ġph":1124,"iel":1125,"ĠwouldĠ":1126,"Ġdi":1127,"experienc":1128,"ineĠ":1129,"blem":1130,"ĠwhatĠ":1131,"prof":1132,"ittleĠ":1133,"aidĠ":1134,"arket":1135,"giv":1136,"vol":1137,"ated":1138,"keep":1139,"etter":1140,"Ġallow":1141,"struc":1142,"ĠbyĠ":1143,"âĢĶ":1144,"eh":1145,"open":1146,"eĠsh":1147,"riend":1148,"just":1149,"Ġdon":1150,"ah":1151,"portĠ":1152,"iteĠ":1153,"Ġteam":1154,"light":1155,"sĠ(":1156,"ĠsoĠ":1157,"hadĠ":1158,"everyĠ":1159,"cover":1160,"ather":1161,"Ġagain":1162,"inst":1163,"ingĠwith":1164,"30":1165,"ĠtoĠbeĠ":1166,"roll":1167,"land":1168,"s,ĠandĠ":1169,"Ġthing":1170,"irstĠ":1171,"erson":1172,"ublic":1173,"eer":1174,"io":1175,"pec":1176,"Ġknow":1177,"Ġbusin":1178,"ĠitsĠ":1179,"mostĠ":1180,"stat":1181,"eeĠ":1182,"tim":1183,"Ġaw":1184,"ary":1185,"person":1186,"ier":1187,"ean":1188,"aph":1189,"ivers":1190,"mayĠ":1191,"ivid":1192,"peopleĠ":1193,"rol":1194,"Ġstor":1195,"Ġout":1196,"Ġalso":1197,":Ġ":1198,"kin":1199,"vir":1200,"moreĠ":1201,"imp":1202,"ĠasĠwell":1203,"sĠtheĠ":1204,"program":1205,"Ġqu":1206,"uck":1207,"Ġwas":1208,"design":1209,"Ġwe":1210,"ĠmayĠ":1211,"eĠofĠtheĠ":1212,"pons":1213,"extĠ":1214,",Ġyou":1215,"Ġday":1216,"ission":1217,"Ġtyp":1218,"log":1219,"vest":1220,"wer":1221,"abl":1222,"gener":1223,"edĠm":1224,"alĠ":1225,"web":1226,"commun":1227,"ifferentĠ":1228,"edĠtheĠ":1229,"week":1230,"uallyĠ":1231,",Ġa":1232,"itiesĠ":1233,"ailableĠ":1234,"manag":1235,"ush":1236,"effect":1237,"12":1238,"develop":1239,"exc":1240,"call":1241,"ort":1242,"eĠthan":1243,"ĠatĠtheĠ":1244,"Ġinter":1245,"stud":1246,"ĠinĠtheĠ":1247,"uit":1248,"olic":1249,"present":1250,"has":1251,"inn":1252,"eĠyour":1253,"ely":1254,",Ġwhich":1255,"Ġalway":1256,"Ġsc":1257,"Ġhelp":1258,"sider":1259,"Ġanother":1260,"learn":1261,"however":1262,"ecur":1263,"what":1264,"ĠnotĠ":1265,"educ":1266,"Ġlif":1267,"ger":1268,"manyĠ":1269,"Ġgu":1270,"Ġcar":1271,"tt":1272,"Ġair":1273,"oper":1274,"Ġlik":1275,"Ġshow":1276,"unn":1277,"gl":1278,"ĠsheĠ":1279,"ason":1280,"lead":1281,"Ġreg":1282,"dition":1283,"nam":1284,"esĠfor":1285,"Ġturn":1286,"edg":1287,"Ġtop":1288,"dur":1289,"ganiz":1290,"ĠinĠ":1291,"Ġter":1292,"ism":1293,"event":1294,"ium":1295,"willĠb":1296,"Ġdec":1297,"000":1298,".Ġyou":1299,",Ġp":1300,"ingĠyour":1301,"ĠâĢĵ":1302,"Ġaut":1303,"prov":1304,"Ġown":1305,"eric":1306,"atter":1307,"oĠs":1308,"eĠitĠ":1309,",Ġh":1310,"compan":1311,"eĠtr":1312,"Ġaddition":1313,"onĠtheĠ":1314,"Ġcr":1315,"rep":1316,"happ":1317,"dep":1318,"la":1319,"ask":1320,"ister":1321,"ott":1322,"fil":1323,"ral":1324,"eĠand":1325,"Ġhigh":1326,"Ġtrain":1327,"essional":1328,"Ġgo":1329,"nor":1330,"sĠb":1331,"ribut":1332,"itor":1333,"e!":1334,",Ġor":1335,"ym":1336,"esc":1337,"require":1338,"eâĢĻsĠ":1339,"Ġfr":1340,"Ġadv":1341,"eak":1342,"Ġhom":1343,"unch":1344,"istor":1345,"poss":1346,"Ġlook":1347,"aut":1348,"lim":1349,"check":1350,"dren":1351,"ildren":1352,"Ġmed":1353,"Ġbu":1354,"leas":1355,"ification":1356,"!!":1357,"eu":1358,"enef":1359,"ideĠ":1360,"world":1361,"aj":1362,"Ġneed":1363,"Ġplac":1364,"Ġstat":1365,"Ġro":1366,"Ġnot":1367,"inal":1368,"outĠof":1369,"itâĢĻsĠ":1370,",ĠweĠ":1371,"ĠshouldĠ":1372,"haveĠa":1373,"hom":1374,"oic":1375,"ven":1376,"Ġpar":1377,"creas":1378,"unc":1379,"Ġso":1380,"Ġrel":1381,"sup":1382,"eĠw":1383,"redĠ":1384,"es,":1385,"Ġperson":1386,"ĠdoĠ":1387,"isĠa":1388,"oin":1389,"Ġtrad":1390,"15":1391,"kill":1392,"sĠc":1393,"Ġann":1394,"ĠpeopleĠ":1395,"etail":1396,"ocial":1397,"sĠofĠtheĠ":1398,"action":1399,"impl":1400,"y.":1401,"Ġauth":1402,"sĠyou":1403,"iat":1404,"Ġif":1405,"eed":1406,"lessĠ":1407,"te":1408,"issu":1409,"entlyĠ":1410,"into":1411,"main":1412,"ide":1413,"plan":1414,"ustomer":1415,"Ġ\"":1416,"still":1417,"Ġorder":1418,"giveĠ":1419,"istr":1420,"ĠtheĠmostĠ":1421,"aterial":1422,"ream":1423,"esĠareĠ":1424,",Ġd":1425,"thing":1426,"alleng":1427,"ĠmoreĠ":1428,"18":1429,"rang":1430,"ert":1431,"ĠandĠp":1432,"ental":1433,".Ġp":1434,"oft":1435,"entsĠ":1436,"proc":1437,"Ġsal":1438,"Ġweb":1439,"bal":1440,"ward":1441,"iful":1442,"e.Ġi":1443,"rist":1444,"ĠâĢľ":1445,".ĠifĠyou":1446,"ĠthoseĠ":1447,"fectĠ":1448,".Ġd":1449,"Ġco":1450,"haveĠbeen":1451,"Ġstart":1452,"eveĠ":1453,"net":1454,"Ġinst":1455,"Ġprovid":1456,"pric":1457,"fre":1458,"ential":1459,"ĠjustĠ":1460,"aster":1461,"both":1462,"enjo":1463,"complet":1464,"real":1465,"icip":1466,"graph":1467,"grow":1468,"reak":1469,",Ġb":1470,"hasĠbeen":1471,",âĢĿ":1472,"25":1473,"s,Ġs":1474,"odel":1475,"firstĠ":1476,"follow":1477,"su":1478,",Ġc":1479,"âĢĺ":1480,"eĠthat":1481,"aĠ":1482,".Ġb":1483,"Ġpres":1484,"wher":1485,"on-":1486,"esĠthatĠ":1487,"offer":1488,"hav":1489,"au":1490,"ior":1491,"list":1492,"sĠcan":1493,"tract":1494,"11":1495,"valu":1496,"continu":1497,"likeĠ":1498,"Ġalong":1499,"exp":1500,"Ġprogram":1501,"willĠbeĠ":1502,"Ġask":1503,"e?":1504,"eir":1505,"gre":1506,"ĠaĠt":1507,"cas":1508,"water":1509,"eĠor":1510,"ĠaĠn":1511,"ounc":1512,"uchĠasĠ":1513,"ĠaĠv":1514,"itedĠ":1515,"Ġdata":1516,"build":1517,"Ġapplication":1518,"def":1519,"hous":1520,"level":1521,"perform":1522,"group":1523,"ividual":1524,"win":1525,"e,ĠandĠ":1526,"overn":1527,"feel":1528,"press":1529,"war":1530,"ÂŃ":1531,"-s":1532,"aper":1533,"Ġcommun":1534,"bor":1535,"ris":1536,"esĠwith":1537,"consider":1538,"Ġbl":1539,"Ġback":1540,"'veĠ":1541,"oto":1542,"uman":1543,"information":1544,"illion":1545,"ableĠtoĠ":1546,"Ġactiv":1547,"uk":1548,"eason":1549,"right":1550,"sĠar":1551,"Ġtechnolog":1552,"kn":1553,"ĠaĠlo":1554,"ĠtheĠbestĠ":1555,"hear":1556,"yĠc":1557,"âĢĻll":1558,"avel":1559,"eliver":1560,"a.Ġ":1561,".\"":1562,"hand":1563,"Ġexperienc":1564,"ebr":1565,"atic":1566,"uss":1567,"Ġunder":1568,"iallyĠ":1569,"start":1570,"Ġby":1571,"respons":1572,"ountr":1573,"'ll":1574,"goĠ":1575,"jectĠ":1576,"law":1577,"Ġsystem":1578,"Ġschool":1579,"ĠbutĠ":1580,"Ġcons":1581,"ed.":1582,"ĠthatĠyou":1583,"rece":1584,"unction":1585,"wayĠ":1586,"ĠandĠm":1587,"Ġpre":1588,"eet":1589,"outh":1590,"ildĠ":1591,"âĢĻveĠ":1592,"uccess":1593,"aff":1594,"viron":1595,"aim":1596,"gether":1597,"never":1598,"Ġsit":1599,"Ġsub":1600,"ativ":1601,"prot":1602,"ityĠtoĠ":1603,"book":1604,"want":1605,"ĠandĠd":1606,"Ġdesign":1607,".,":1608,"goodĠ":1609,"him":1610,"Ġeach":1611,"ĠandĠc":1612,"elow":1613,"ing.":1614,"ĠandĠf":1615,"Ġdown":1616,"ferenc":1617,"Ġappro":1618,"n'tĠ":1619,"oos":1620,"eĠtim":1621,"question":1622,"ibil":1623,"ĠtheyĠareĠ":1624,"product":1625,"reallyĠ":1626,"ingĠt":1627,"ulation":1628,"ĠaĠre":1629,"loveĠ":1630,",Ġt":1631,"bin":1632,"ĠanĠin":1633,"imag":1634,"version":1635,"eĠfrom":1636,",Ġf":1637,"national":1638,"Ð¾":1639,"sĠd":1640,"onc":1641,"email":1642,"Ġaccess":1643,"cent":1644,"liv":1645,"avor":1646,".Ġfor":1647,"grad":1648,"portun":1649,"ness":1650,"Ġtoday":1651,"100":1652,"acter":1653,"option":1654,"eĠofĠ":1655,"evic":1656,"Ġdr":1657,"Ġdevelop":1658,"âĢĻsĠa":1659,"ĠloveĠ":1660,"member":1661,"Ġinformation":1662,"rib":1663,"ajor":1664,"e:":1665,"Ġhas":1666,"mentĠof":1667,"gam":1668,"ĠtheĠfirstĠ":1669,"ugg":1670,"'m":1671,"icleĠ":1672,"rightĠ":1673,"Ġ&":1674,"ster":1675,"âĢĻreĠ":1676,"less":1677,"only":1678,"research":1679,"ĠandĠt":1680,"Ġspecial":1681,"couldĠ":1682,"ientĠ":1683,"iousĠ":1684,"ĠtoĠd":1685,"cur":1686,"eĠi":1687,"lex":1688,"istic":1689,"Ġbec":1690,"ation.Ġ":1691,",ĠsoĠ":1692,"ioĠ":1693,",ĠitĠ":1694,"chi":1695,"âĢĻs":1696,"Ġget":1697,"Ġameric":1698,"mean":1699,"ck":1700,"put":1701,"leĠof":1702,"tĠofĠtheĠ":1703,"obil":1704,"lock":1705,"ledg":1706,"ĠaĠnew":1707,"sĠthat":1708,"resh":1709,"shouldĠ":1710,"spec":1711,"vari":1712,"eĠtheĠs":1713,"river":1714,"equip":1715,"16":1716,"oot":1717,"Ġser":1718,"load":1719,"ee":1720,"atesĠ":1721,"omen":1722,"ify":1723,"ĠthereĠar":1724,"had":1725,"Ġhealth":1726,"problem":1727,"pris":1728,"econom":1729,"eĠthisĠ":1730,"erc":1731,"yĠfor":1732,"apt":1733,"mar":1734,"ĠifĠyou":1735,"sĠp":1736,"Ġsign":1737,",Ġin":1738,"icular":1739,"beaut":1740,"urchas":1741,"eĠis":1742,"road":1743,"hol":1744,"vert":1745,"ĠwhoĠ":1746,"cred":1747,"who":1748,"Ġstand":1749,"famil":1750,"greatĠ":1751,"ng":1752,"init":1753,"usic":1754,"conn":1755,"s:":1756,"Ġthre":1757,",Ġwith":1758,"process":1759,"vide":1760,"until":1761,"find":1762,"emb":1763,"ublish":1764,"actic":1765,"count":1766,"oil":1767,"ĠanĠex":1768,"ĠcouldĠ":1769,"ĠhadĠ":1770,"199":1771,"tor":1772,"alsoĠ":1773,"ĠtheĠsam":1774,"Ġgroup":1775,"identĠ":1776,"univers":1777,"plain":1778,"Ġshop":1779,"Ġplan":1780,"14":1781,"Ġfl":1782,"econdĠ":1783,"Ġthere":1784,"Ġanal":1785,"urther":1786,"ength":1787,"order":1788,"Ġvi":1789,"umberĠof":1790,"eĠ(":1791,"eĠan":1792,"ingĠthatĠ":1793,"edĠfrom":1794,"Ġmar":1795,"Ġfre":1796,"Ġmonth":1797,"24":1798,"writ":1799,"ork":1800,"esĠtheĠ":1801,"esĠon":1802,"ingĠyou":1803,"ingĠup":1804,"ĠaĠfew":1805,"ouch":1806,"quick":1807,"ĠonĠtheĠ":1808,"Ġcompan":1809,"struction":1810,"head":1811,"itiveĠ":1812,"yĠin":1813,".Ġif":1814,"result":1815,"edĠp":1816,"Ġbas":1817,"Ġhour":1818,"clos":1819,"run":1820,"idenc":1821,"Ġplay":1822,"ĠalwaysĠ":1823,"beĠs":1824,"enn":1825,"servic":1826,"osp":1827,"Ġwhil":1828,"Ġprof":1829,"ww":1830,"yl":1831,"Ġrequ":1832,"beg":1833,"Ġwhat":1834,"employe":1835,"Ġproduct":1836,"13":1837,"Ġfamil":1838,"âĢĻm":1839,"Ġaround":1840,"Ġminut":1841,"i-":1842,"iec":1843,"Ġtalk":1844,"edĠup":1845,"sĠab":1846,"Ġaccord":1847,"findĠ":1848,"17":1849,"elf":1850,"een":1851,"hon":1852,"becom":1853,"ganization":1854,"wr":1855,"reason":1856,"ention":1857,"Ġlead":1858,"ross":1859,"health":1860,"createĠ":1861,"whenĠyou":1862,"ox":1863,"Ġeven":1864,"sĠisĠ":1865,"ating":1866,"user":1867,"inceĠ":1868,"curr":1869,"post":1870,"ecess":1871,"ĠÐ":1872,".Ġf":1873,"char":1874,"Ġmember":1875,"Ġhad":1876,"letĠ":1877,"ogn":1878,"education":1879,"larg":1880,"ĠgetĠ":1881,"qualityĠ":1882,"lightĠ":1883,"lastĠ":1884,"ser":1885,"Ġfil":1886,"Ġinto":1887,"Ġel":1888,"challeng":1889,"ĠtheĠtim":1890,"data":1891,"ess.Ġ":1892,"Ġchang":1893,"atural":1894,"pri":1895,"Ġway":1896,"idea":1897,"click":1898,"arden":1899,"mark":1900,"Ġamaz":1901,"ĠtakeĠ":1902,"it'sĠ":1903,"bab":1904,"job":1905,"yĠm":1906,"control":1907,"ai":1908,"ĠaroundĠ":1909,"everal":1910,"ĠavailableĠ":1911,"good":1912,"ror":1913,"org":1914,"ender":1915,"essĠof":1916,"Ġoff":1917,"riveĠ":1918,"enjoy":1919,"oder":1920,"reach":1921,"Ġfac":1922,"esĠs":1923,"canĠb":1924,"ensiveĠ":1925,"busin":1926,"forĠtheĠ":1927,"direct":1928,"Ġarea":1929,"yn":1930,",Ġbut":1931,"ither":1932,"lov":1933,"ĠthereĠisĠ":1934,"pleaseĠ":1935,"ield":1936,"report":1937,"es.ĠtheĠ":1938,"ĠandĠi":1939,"feat":1940,"uter":1941,"Ġhous":1942,"Ġstill":1943,"otion":1944,"engin":1945,"whileĠ":1946,"volv":1947,"mal":1948,"Ġsur":1949,".Ġw":1950,"expect":1951,"establ":1952,"etermin":1953,"establish":1954,"friend":1955,"ĠtoĠmak":1956,"irst":1957,"intoĠ":1958,"Ġspac":1959,"coll":1960,"ilyĠ":1961,"entic":1962,"urpos":1963,"ift":1964,"ultĠ":1965,"itchen":1966,"install":1967,"vironment":1968,"sĠhaveĠ":1969,"idd":1970,"ufact":1971,"Ġweek":1972,"ĠnoĠ":1973,"Ġnow":1974,"Ġliv":1975,"met":1976,"Ġevery":1977,"sĠwill":1978,"olleg":1979,"Ġreal":1980,"ument":1981,"canĠbeĠ":1982,"actor":1983,"ĠtimeĠ":1984,"link":1985,"lineĠ":1986,"oh":1987,"Ġtow":1988,"Ġteach":1989,"Ġcours":1990,"forc":1991,"ently":1992,"ural":1993,"irl":1994,"ummer":1995,"lower":1996,".com":1997,"isĠtheĠ":1998,"eful":1999,"impleĠ":2000,"Ġpat":2001,"Ġcomple":2002,"!Ġi":2003,"onder":2004,"idg":2005,"Ġtravel":2006,"fromĠtheĠ":2007,"Ġinclud":2008,"ĠgoodĠ":2009,"Ġlaw":2010,"sĠwereĠ":2011,"olit":2012,"ĠthatĠisĠ":2013,"earlyĠ":2014,"needĠtoĠ":2015,"though":2016,"withĠtheĠ":2017,"Ġexam":2018,"empt":2019,"econd":2020,"ĠtoĠp":2021,"Ġhand":2022,"eĠtheir":2023,"sĠatĠ":2024,"edĠbyĠtheĠ":2025,"known":2026,"far":2027,"Ġant":2028,"Ġcor":2029,"whether":2030,"abor":2031,"sĠinĠtheĠ":2032,"ait":2033,"Ġwell":2034,"ched":2035,"local":2036,"ueĠ":2037,"y,":2038,"Ġwant":2039,"Ġtry":2040,"energ":2041,"Ġu":2042,"ingleĠ":2043,"Ġtool":2044,"eĠsp":2045,"iesĠof":2046,"pleas":2047,"aĠs":2048,"Ġtell":2049,"erg":2050,"enough":2051,"ĠtoĠm":2052,"âĢĻr":2053,"afet":2054,"hea":2055,"ram":2056,"Ġtest":2057,"rest":2058,"ingĠfrom":2059,"ali":2060,"espec":2061,",Ġw":2062,"Ġoffer":2063,"word":2064,"Ġagre":2065,"ĠneedĠtoĠ":2066,"Ġwebsit":2067,"bestĠ":2068,"card":2069,"Ġsuch":2070,"ĠforĠtheĠ":2071,"Ġcli":2072,"etc":2073,"given":2074,"lean":2075,"opportun":2076,"Ġworl":2077,"mission":2078,"oon":2079,".ĠbutĠ":2080,"esĠand":2081,"Ġcas":2082,"Ġgam":2083,"conf":2084,"websit":2085,"Ġproc":2086,"commend":2087,"Ġbefor":2088,"Ġboth":2089,"uccessful":2090,"ateg":2091,"youĠwill":2092,"emor":2093,"etim":2094,"professional":2095,"alf":2096,"add":2097,"ĠareĠs":2098,"ĠyouĠcan":2099,"edd":2100,"Ġint":2101,"Ġtogether":2102,"ireĠ":2103,"mov":2104,".ĠâĢľ":2105,"step":2106,"ension":2107,"clean":2108,"ĠaĠr":2109,"er,Ġ":2110,"ester":2111,"Ġwater":2112,"ĠmanyĠ":2113,"ancial":2114,"ĠbusinessĠ":2115,"personal":2116,"ingsĠ":2117,"utter":2118,"Ġproblem":2119,"augh":2120,"beautiful":2121,"eatĠ":2122,"Ġread":2123,"ityĠandĠ":2124,"creen":2125,"Ġlevel":2126,"Ġpos":2127,"older":2128,"ationship":2129,"lot":2130,"ointĠ":2131,"-p":2132,"color":2133,"e,Ġs":2134,"fter":2135,"ĠsomeĠ":2136,"ĠwantĠtoĠ":2137,"lef":2138,"lesĠ":2139,"s.Ġi":2140,"appl":2141,"uff":2142,"plement":2143,"40":2144,"ilar":2145,"irc":2146,"ĠthisĠisĠ":2147,"contain":2148,"moreĠthan":2149,"ench":2150,"oub":2151,"Ġsm":2152,"Ġfeel":2153,"ĠwithĠtheĠ":2154,"ĠthatĠtheĠ":2155,"door":2156,"doesĠ":2157,"istration":2158,"auth":2159,"ma":2160,"Ġ$":2161,"'s":2162,".Ġa":2163,"Ġcount":2164,"eĠthem":2165,"umb":2166,"does":2167,"ĠasĠwellĠasĠ":2168,".Ġour":2169,"amer":2170,"eĠtheyĠ":2171,"ostĠof":2172,"ountĠ":2173,"ĠasĠtheĠ":2174,"astic":2175,"gett":2176,"donâĢĻtĠ":2177,"s!":2178,".Ġc":2179,"Ġgener":2180,"Ġvis":2181,"ers,Ġ":2182,"edĠthatĠ":2183,"whyĠ":2184,"beĠa":2185,"full":2186,"Ġhim":2187,"clus":2188,"Ġchildren":2189,"ĠtheĠtop":2190,"got":2191,"Ġtour":2192,"esĠto":2193,"imilar":2194,"Ġvari":2195,"Ġassoci":2196,"fill":2197,"Ðµ":2198,"Ġdef":2199,"useĠ":2200,"loor":2201,"âĢĻt":2202,"class":2203,"ĠhaveĠa":2204,"goingĠtoĠ":2205,"iredĠ":2206,"Ġbusiness":2207,"europ":2208,"pass":2209,"watch":2210,"ofĠtheĠ":2211,"ĠandĠb":2212,"ĠatĠle":2213,"ible":2214,"cern":2215,"vention":2216,",\"":2217,"Ġz":2218,"ination":2219,",Ġn":2220,"project":2221,"Ġret":2222,"either":2223,"tra":2224,"Ġpersonal":2225,"odern":2226,"s?":2227,"iseĠ":2228,"ĠandĠh":2229,"Ġoffic":2230,"playĠ":2231,"ucc":2232,"sĠasĠ":2233,"uredĠ":2234,"firm":2235,"importantĠ":2236,"possibleĠ":2237,"wantĠtoĠ":2238,"Ġsw":2239,"ĠallĠof":2240,"Ġaction":2241,"ethod":2242,"ĠthankĠyou":2243,"09":2244,"du":2245,"yleĠ":2246,"eral":2247,"reduc":2248,"ĠwereĠ":2249,"Ġdur":2250,"âĢĻdĠ":2251,"indust":2252,"Ġspeak":2253,"Ġleg":2254,"guid":2255,"worldĠ":2256,"landĠ":2257,"oor":2258,"s)":2259,"onĠ":2260,"thatĠ":2261,"show":2262,"angu":2263,"disc":2264,"return":2265,"found":2266,"ux":2267,"forĠ":2268,"edĠc":2269,"roduc":2270,"assĠ":2271,"odĠ":2272,"eĠup":2273,"ĠheĠ":2274,"Ġhav":2275,"Ġalread":2276,"propert":2277,"eople":2278,"bur":2279,"ensur":2280,"interest":2281,"power":2282,"tal":2283,"sĠlik":2284,"elcom":2285,"claim":2286,"ipp":2287,"indow":2288,"creat":2289,"enefit":2290,"pay":2291,"ingĠtheĠs":2292,"Ġcent":2293,"Ġcoll":2294,"uct":2295,"Ġprocess":2296,"Ġjust":2297,"ĠthereĠareĠ":2298,"littleĠ":2299,"ins":2300,"ingĠthem":2301,"chem":2302,"rial":2303,"foc":2304,"hereĠ":2305,"irdĠ":2306,"opular":2307,"Ð¾Ð":2308,"uleĠ":2309,"yĠisĠ":2310,"choos":2311,"imm":2312,"ĠgreatĠ":2313,"sĠofĠ":2314,"sĠat":2315,"Ġtrack":2316,"Ġmanag":2317,"vit":2318,"erĠ":2319,"elebr":2320,"eĠsur":2321,"anceĠof":2322,"position":2323,"basedĠon":2324,"aur":2325,"eam":2326,"uation":2327,"Ġbut":2328,"imat":2329,"lobal":2330,"eĠsom":2331,"s.ĠweĠ":2332,"uresĠ":2333,"meet":2334,"ĠhasĠbeen":2335,"edĠasĠ":2336,"olid":2337,"irt":2338,"sĠandĠs":2339,"Ġpropert":2340,"Ġtwo":2341,"yĠb":2342,"edroom":2343,"ingĠor":2344,"Ġstep":2345,"join":2346,"er.Ġ":2347,"icallyĠ":2348,"christ":2349,"Ġaccount":2350,"month":2351,"partĠof":2352,"understand":2353,"Ġstudent":2354,"key":2355,"Ġbetween":2356,"aint":2357,"epend":2358,"Ġprot":2359,"eĠmor":2360,"object":2361,"happen":2362,"my":2363,"Ġsmall":2364,"Ġmarket":2365,"Ġlong":2366,"ĠthatĠi":2367,"upport":2368,"annel":2369,"ĠaĠgreatĠ":2370,"60":2371,"Ġans":2372,"emon":2373,"otential":2374,"oog":2375,"Ġcondition":2376,"22":2377,"nia":2378,"prom":2379,"Ġcolor":2380,"Ġtoo":2381,"agesĠ":2382,"Ġnor":2383,"buy":2384,"selv":2385,"-in":2386,"dat":2387,"may":2388,"Ġcall":2389,"charg":2390,"ĠtooĠ":2391,"ingĠisĠ":2392,"izedĠ":2393,"Ġterm":2394,"gain":2395,"hel":2396,"Ġtem":2397,"ĠtoĠyour":2398,"perfectĠ":2399,"Ġchar":2400,"ity,Ġ":2401,"achin":2402,"198":2403,"hard":2404,".ĠtheĠs":2405,"Ġproject":2406,"effort":2407,"contactĠ":2408,"ĠthereĠis":2409,"better":2410,"ond":2411,"atform":2412,"ĠdifferentĠ":2413,"igital":2414,"compl":2415,"Ġexc":2416,"ĠwillĠb":2417,"putĠ":2418,"val":2419,"Ð¸":2420,"Ġaud":2421,"iction":2422,"Ġlin":2423,"e.ĠweĠ":2424,"Ġform":2425,",ĠthisĠ":2426,"ball":2427,"Ð°":2428,"fornia":2429,"acc":2430,"itĠwasĠ":2431,"ity.Ġ":2432,"Ġauthor":2433,"dist":2434,"ingĠtheir":2435,"Ġbook":2436,"first":2437,"ronic":2438,"ufactur":2439,"pat":2440,"walk":2441,"yĠwith":2442,"Ġmet":2443,"Ġmillion":2444,"ĠofĠs":2445,"plann":2446,"proveĠ":2447,"itten":2448,"ii":2449,"irm":2450,"aboutĠ":2451,"ooth":2452,"compet":2453,"beli":2454,"great":2455,"Ġdist":2456,"imum":2457,"amag":2458,"Ġgre":2459,"eĠinĠtheĠ":2460,"ĠwillĠbeĠ":2461,"near":2462,"Ġeas":2463,"item":2464,"ĠmustĠ":2465,"opp":2466,"plor":2467,"edĠinĠtheĠ":2468,"'reĠ":2469,"big":2470,"lic":2471,"rok":2472,"Ġdid":2473,"Ġgl":2474,"itĠis":2475,"condition":2476,"sĠac":2477,"eaut":2478,"ĠaddĠ":2479,"emberĠ":2480,"deal":2481,"sm":2482,"offic":2483,"Ġcreat":2484,"Ġpost":2485,"children":2486,"imal":2487,"Ġshar":2488,"buil":2489,"Ġlearn":2490,"visit":2491,"cap":2492,"Ġx":2493,"invest":2494,"represent":2495,".Ġ\"":2496,"star":2497,"ĠstartĠ":2498,"Ġrece":2499,"ecurityĠ":2500,"ribution":2501,"network":2502,"enticator":2503,"especiallyĠ":2504,"sol":2505,"ina":2506,"orig":2507,"Ġcover":2508,"Ġalthough":2509,"otel":2510,"rown":2511,"Ġassist":2512,"Ġapproach":2513,"eĠg":2514,"es,ĠandĠ":2515,"Ġmad":2516,"etyĠof":2517,"iffic":2518,"exam":2519,"odyĠ":2520,"effic":2521,"ortĠ":2522,"review":2523,"alt":2524,"ecut":2525,"Ġfriend":2526,"Ġintern":2527,"ountĠof":2528,"s>Ġ<s>Ġ":2529,"region":2530,"regard":2531,"endĠof":2532,"someth":2533,"ez":2534,"nextĠ":2535,"Ġachi":2536,"releas":2537,"Ġwin":2538,"esĠfrom":2539,"ountain":2540,"ĠforĠ":2541,"haveĠtoĠ":2542,"Ġview":2543,"eac":2544,"e'sĠ":2545,"fun":2546,"liveĠ":2547,"increas":2548,"it.Ġ":2549,"ed,":2550,"ounter":2551,"Ġvide":2552,"Ġissu":2553,"aft":2554,"Ġbecaus":2555,"21":2556,"Ġmay":2557,"Ġmuch":2558,"urs":2559,"unitedĠ":2560,"ageĠof":2561,"eptĠ":2562,"ĠfindĠ":2563,"lat":2564,"mustĠ":2565,"Ġtreat":2566,"ĠthreeĠ":2567,"ertain":2568,"Ġbetter":2569,"ector":2570,"eventĠ":2571,"print":2572,"knowledg":2573,".ĠasĠ":2574,"80":2575,"bar":2576,"Ġmy":2577,"Ġamong":2578,"ĠaĠlittleĠ":2579,"Ġspecific":2580,"ĠdonâĢĻtĠ":2581,".ĠtheyĠ":2582,"necess":2583,"ĠstateĠ":2584,"earn":2585,"worth":2586,"required":2587,"receiv":2588,"23":2589,"dom":2590,"hop":2591,"rac":2592,"ington":2593,"ĠthisĠs":2594,"implyĠ":2595,"risk":2596,"vertis":2597,"y-":2598,"ationsĠ":2599,"whol":2600,"sĠinclud":2601,"flu":2602,"clear":2603,"des":2604,"e)":2605,"ationĠandĠ":2606,"itĠof":2607,"uper":2608,"legal":2609,"Ġstrong":2610,"iam":2611,"recommend":2612,".Ġwith":2613,"ĠtheĠsameĠ":2614,"outĠtheĠ":2615,"companyĠ":2616,"engag":2617,"goal":2618,"Ġoper":2619,".Ġt":2620,".Ġwhen":2621,",Ġl":2622,"etwork":2623,"util":2624,"ĠonlyĠ":2625,"lookingĠfor":2626,"green":2627,".ĠandĠ":2628,"readĠ":2629,"Ġhear":2630,"ourn":2631,"important":2632,"den":2633,"woĠ":2634,"ing,":2635,"edĠa":2636,"adv":2637,"Ġarch":2638,"Ġstrat":2639,"conc":2640,"shop":2641,"recogn":2642,"Ġcontinu":2643,"maintain":2644,"yâĢĻsĠ":2645,"ers.Ġ":2646,"term":2647,"Ġresearch":2648,"Ġsupport":2649,"Ġadvanc":2650,"economic":2651,"iftĠ":2652,"Ġaltern":2653,"ordin":2654,"struct":2655,"number":2656,"Ġoc":2657,"ilit":2658,"imateĠ":2659,"uniqu":2660,"ulyĠ":2661,"Ġappear":2662,"suranc":2663,".âĢĿ":2664,"Ñģ":2665,"epar":2666,"remain":2667,"Ġyork":2668,".Ġall":2669,"wid":2670,"onlin":2671,"stateĠ":2672,"olar":2673,"esĠyou":2674,"ung":2675,"effectiveĠ":2676,"ttp":2677,"Ġtradition":2678,"iod":2679,"pt":2680,"Ġcap":2681,"Ġcamp":2682,"ĠtoĠb":2683,"Ġtook":2684,"eption":2685,"groundĠ":2686,"lyĠs":2687,"s.ĠthisĠ":2688,"Ġlocal":2689,"s,Ġand":2690,"eĠtoĠtheĠ":2691,"-c":2692,"nessĠ":2693,"ref":2694,"Ġpass":2695,"edĠf":2696,"ird":2697,"ingĠitĠ":2698,"ĠreallyĠ":2699,"ĠoneĠ":2700,"wouldĠbeĠ":2701,"ĠaĠgoodĠ":2702,"//":2703,"kid":2704,"mightĠ":2705,"someĠ":2706,"sĠf":2707,"Ġme":2708,"Ġhistor":2709,"edĠinĠ":2710,"committ":2711,"urnit":2712,"ifferent":2713,"depend":2714,"nes":2715,"ĠveryĠ":2716,",Ġg":2717,"Ġpric":2718,"Ġinvest":2719,"encour":2720,"ipleĠ":2721,"Ġdon'tĠ":2722,"escrib":2723,"Ġanswer":2724,"u.":2725,"inĠs":2726,"ingĠthisĠ":2727,".ĠyouĠcan":2728,"che":2729,"Ġmov":2730,"loadĠ":2731,"exist":2732,"Ġrep":2733,"Ġright":2734,"record":2735,"eĠbyĠ":2736,"makeĠ":2737,"del":2738,"later":2739,"Ġtouch":2740,"environment":2741,"ingĠw":2742,"ĠintoĠ":2743,"eĠtak":2744,"Ġadmin":2745,"e.ĠthisĠ":2746,"ouslyĠ":2747,"ared":2748,"rivateĠ":2749,"ription":2750,"nic":2751,"umer":2752,"ocument":2753,"practic":2754,"eĠman":2755,"90":2756,"e,ĠtheĠ":2757,"lish":2758,"rad":2759,"rain":2760,"sk":2761,"often":2762,"oment":2763,"Ġpay":2764,"Ġpoint":2765,"Ġfeat":2766,"ĠallĠtheĠ":2767,"availableĠ":2768,"doĠnotĠ":2769,"Ġautom":2770,".Ġafter":2771,"ais":2772,"ĠhaveĠtoĠ":2773,"ĠtoĠse":2774,"Ġperform":2775,"black":2776,"connect":2777,"sor":2778,"ĠoutĠ":2779,"inner":2780,"anĠ":2781,".Ġk":2782,"standĠ":2783,"Ġgrow":2784,"ground":2785,"prim":2786,"ĠableĠ":2787,"arketĠ":2788,"eath":2789,"Ġmedia":2790,"Ġcomplet":2791,"pack":2792,"ĠaĠch":2793,"Ġsay":2794,"icat":2795,"Ġpower":2796,"Ġnational":2797,"plant":2798,"Ġopen":2799,"ieldĠ":2800,"ĠalongĠwith":2801,"Ġstrateg":2802,")Ġ":2803,",Ġthen":2804,"jur":2805,"o,Ġ":2806,"ually":2807,"ĠtoĠc":2808,"Ġhapp":2809,"leep":2810,"ĠfirstĠ":2811,"ingĠroom":2812,"ressĠ":2813,"individual":2814,"ĠtakeĠa":2815,"box":2816,"fall":2817,"les":2818,"lam":2819,"til":2820,"enu":2821,".Ġit":2822,"election":2823,"rock":2824,"usedĠ":2825,"ĠactuallyĠ":2826,"ability":2827,"between":2828,"iou":2829,"Ġtrip":2830,"youĠareĠ":2831,"Ġpublic":2832,"english":2833,"ĠmoreĠthan":2834,"ysical":2835,"Ġindividual":2836,"ouncil":2837,"'sĠa":2838,"a.":2839,"aign":2840,"ors":2841,"Ġfind":2842,"Ġfull":2843,"quit":2844,"ableĠto":2845,"ured":2846,"common":2847,"vision":2848,"ifferenc":2849,"beforeĠ":2850,"Ġanalys":2851,"did":2852,"most":2853,"market":2854,"ule":2855,"erveĠ":2856,"ership":2857,"ĠsaidĠ":2858,"isk":2859,"edĠatĠ":2860,"âĢ¢":2861,"Ġdep":2862,"udg":2863,"e,Ġi":2864,"ĠwhereĠ":2865,"differentĠ":2866,"govern":2867,"ren":2868,"ondon":2869,"Ġcustomer":2870,"Ġhop":2871,"etic":2872,"ation,Ġ":2873,"iesĠandĠ":2874,"://":2875,"bon":2876,"didĠ":2877,"deliver":2878,"eem":2879,"van":2880,"ÑĤ":2881,"rev":2882,"Ġset":2883,"Ġpark":2884,"ed.ĠtheĠ":2885,"urb":2886,"ourt":2887,"Ġlarg":2888,"eĠsaid":2889,"eĠoffer":2890,"spir":2891,"wis":2892,"yc":2893,"yĠsh":2894,"ersĠandĠ":2895,"Ġbar":2896,"improv":2897,"esĠor":2898,"allyĠs":2899,"comfort":2900,"rectĠ":2901,"ibleĠfor":2902,"rather":2903,"ifiedĠ":2904,"character":2905,"point":2906,"eĠwasĠ":2907,"ingĠand":2908,"ĠtoĠgetĠ":2909,"Ġrem":2910,"weĠcan":2911,"overĠ":2912,"eĠinformation":2913,"ignific":2914,"spect":2915,"Ġword":2916,"draw":2917,"ĠawayĠ":2918,"Ġadditional":2919,"oogleĠ":2920,"caus":2921,"lor":2922,"via":2923,"Ð½":2924,"icle":2925,"els":2926,"ĠmightĠ":2927,"Ġmaterial":2928,"Ġnetwork":2929,"utt":2930,"ought":2931,".ĠsoĠ":2932,"finish":2933,"pond":2934,"electric":2935,"Ġsuppl":2936,"certain":2937,"-m":2938,"wall":2939,"ĠhomeĠ":2940,"weĠhaveĠ":2941,"Ġattack":2942,"particip":2943,",ĠasĠ":2944,"-f":2945,"500":2946,"break":2947,"pag":2948,"system":2949,"Ġcre":2950,"ĠmostĠ":2951,"ingĠour":2952,"Ġclass":2953,"cert":2954,"Ġtoward":2955,"'t":2956,"-d":2957,"ca":2958,"care":2959,"woodĠ":2960,"yĠand":2961,"sĠus":2962,"Ġsaid":2963,"ford":2964,"s.Ġin":2965,"eĠdo":2966,"egre":2967,"atedĠwith":2968,"phon":2969,"don'tĠ":2970,"Ġsometh":2971,"iateĠ":2972,"matter":2973,"anch":2974,"ston":2975,"agn":2976,"ĠtheĠsp":2977,"octor":2978,"Ġattend":2979,"offe":2980,"Ġthought":2981,"Ġquestion":2982,"Ġprofessional":2983,"Ġexample":2984,"rich":2985,"edĠtoĠtheĠ":2986,"Ġmain":2987,"whit":2988,"ocol":2989,"princ":2990,"ĠitĠisĠ":2991,"Ġamerican":2992,".Ġsh":2993,"set":2994,"indĠ":2995,"quar":2996,"ultipleĠ":2997,"location":2998,"Ġclient":2999,"eoneĠ":3000,"hib":3001,"ianc":3002,"night":3003,"ont":3004,"Ġsid":3005,"ingĠatĠ":3006,"Ġcurr":3007,"thingĠ":3008,"roy":3009,"ally,Ġ":3010,"ival":3011,"Ġdirect":3012,"olitical":3013,"ĠatĠleastĠ":3014,"yĠto":3015,"ingĠan":3016,".ĠheĠ":3017,"Ġbeg":3018,"ulb":3019,"evalu":3020,"Ġvol":3021,"abilityĠ":3022,"limit":3023,"otograph":3024,"ospital":3025,"-up":3026,"26":3027,"auc":3028,"ham":3029,"kitchen":3030,"uaryĠ":3031,"sĠup":3032,"istĠof":3033,"ies.Ġ":3034,"eĠandĠs":3035,"ersĠareĠ":3036,"quality":3037,"Ġindust":3038,"sĠaboutĠ":3039,"gotĠ":3040,"Ã©":3041,"Ġtown":3042,"orn":3043,",Ġj":3044,"isc":3045,"Ġcustom":3046,"Ġpolic":3047,"forĠyou":3048,"Ġmean":3049,"ĠdidĠ":3050,"expert":3051,"Ġnam":3052,"Ġstaff":3053,"eĠsoĠ":3054,"Ġacros":3055,"Ġvalu":3056,"ebook":3057,"repair":3058,"oud":3059,"reet":3060,"Ġsocial":3061,"ingĠtheĠd":3062,".Ġn":3063,"ĠandĠw":3064,"elev":3065,"Ġwrit":3066,"ĠtoĠf":3067,"Ġdel":3068,"Ġfollow":3069,"notĠbeĠ":3070,"obtain":3071,"seem":3072,"ifficult":3073,"-bas":3074,"eum":3075,"wareĠ":3076,"ĠusĠ":3077,"yĠf":3078,"oman":3079,"roadĠ":3080,"provideĠ":3081,"unteer":3082,"however,Ġ":3083,"Ġannual":3084,"aâĢĻsĠ":3085,"match":3086,"sâĢĻ":3087,"y.ĠtheĠ":3088,"Ġ...":3089,"sĠis":3090,"erver":3091,"atedĠin":3092,"itution":3093,"lear":3094,"entĠof":3095,"eĠmon":3096,"izeĠ":3097,"ired":3098,"ĠaĠlotĠof":3099,"histor":3100,"lack":3101,"mm":3102,"wood":3103,"ideal":3104,"iff":3105,"ĠoneĠof":3106,"Ġexp":3107,"student":3108,"45":3109,"runn":3110,"inĠyour":3111,".Ġg":3112,".Ġj":3113,"Ġcert":3114,"ĠtoĠhelp":3115,"Ġbig":3116,"Ġdetail":3117,"ureĠof":3118,"emerg":3119,"ĠartĠ":3120,"enceĠ":3121,"ellow":3122,"ultural":3123,"international":3124,"electronic":3125,"engineer":3126,"ĠalreadyĠ":3127,"sy":3128,"Ġtri":3129,"Ġtax":3130,"erĠandĠ":3131,"itut":3132,"stock":3133,"edĠof":3134,"Ġmodel":3135,"implement":3136,"oph":3137,"ĠlastĠ":3138,"being":3139,"rection":3140,"ĠtheĠph":3141,"mayĠbeĠ":3142,"Ġbuild":3143,"iĠ":3144,"meĠ":3145,"yer":3146,"Ġdu":3147,"usedĠtoĠ":3148,"verag":3149,"activ":3150,"ĠisĠtheĠ":3151,"....":3152,"ociet":3153,"operation":3154,"\".":3155,".ĠsheĠ":3156,"men":3157,"such":3158,"Ġ*":3159,"reli":3160,"Ġang":3161,"arr":3162,",Ġfor":3163,",ĠyouĠcan":3164,"Ġcol":3165,"Ġcell":3166,"Ġdevic":3167,"ĠtheĠsh":3168,"eav":3169,"yĠofĠtheĠ":3170,"ĠtheĠhigh":3171,"eautiful":3172,"unitedĠstat":3173,",ĠtheyĠ":3174,"vill":3175,"Ġtre":3176,"sĠwhoĠ":3177,"ateĠtheĠ":3178,"stant":3179,"Ġmus":3180,"ĠdayĠ":3181,"useĠof":3182,"explor":3183,"Ġstop":3184,"Ġlight":3185,"ĠtheĠcountr":3186,"whenĠi":3187,"fullyĠ":3188,"register":3189,"ĠcompanyĠ":3190,"ovi":3191,"s,ĠtheĠ":3192,"esp":3193,"edĠor":3194,"edĠout":3195,"Ġhuman":3196,"owl":3197,"opt":3198,"Ġgiv":3199,"Ġlist":3200,"ĠthatĠtheyĠ":3201,"Ġkn":3202,"Ġext":3203,"âĢĿ.":3204,"Ġgrad":3205,"production":3206,"ĠaboutĠtheĠ":3207,"north":3208,"tegr":3209,"uggest":3210,")ĠandĠ":3211,"-t":3212,"egr":3213,"yet":3214,"inĠf":3215,"sĠâĢĵ":3216,"edĠher":3217,"ingĠit":3218,"evidenc":3219,"Ġloc":3220,"boardĠ":3221,"wash":3222,".ĠthisĠisĠ":3223,"mediat":3224,"'r":3225,"veh":3226,"wear":3227,"Ġsearch":3228,"atis":3229,"oss":3230,"Ġla":3231,"ĠlittleĠ":3232,"introduc":3233,"ĠtoĠseeĠ":3234,"letter":3235,"Ġimag":3236,"decision":3237,"ieĠ":3238,"Ġroom":3239,"arant":3240,"esh":3241,"leav":3242,"e,ĠbutĠ":3243,"overall":3244,"ĠtheĠfirst":3245,"Ġkeep":3246,"Ġ--":3247,"ecurity":3248,"ĠorderĠtoĠ":3249,"businessĠ":3250,"fair":3251,"iation":3252,"public":3253,"Ġfun":3254,"loth":3255,"rior":3256,"ellentĠ":3257,"Ġonlin":3258,"Ġtaken":3259,"relationship":3260,".ĠitĠisĠ":3261,"videoĠ":3262,"oid":3263,"pick":3264,"serv":3265,"yt":3266,"yle":3267,"iter":3268,".Ġon":3269,"esĠ(":3270,"ĠalmostĠ":3271,"withoutĠ":3272,"ourne":3273,"uppl":3274,"ance,Ġ":3275,"eadĠ":3276,"Ġjob":3277,"duct":3278,"viousĠ":3279,"ĠaĠsmall":3280,"ological":3281,"ĠaĠlarg":3282,"gress":3283,"rid":3284,"organization":3285,"ingĠtoĠtheĠ":3286,"Ġclos":3287,"Ġno":3288,"Ġreview":3289,"anger":3290,"e.Ġs":3291,"Ġcontrol":3292,"entertain":3293,"ĠaĠhigh":3294,"special":3295,"28":3296,"aĠandĠ":3297,"custom":3298,"gen":3299,"nâĢĻt":3300,"park":3301,"Ġevent":3302,"sĠwhich":3303,"tĠin":3304,"usb":3305,"again":3306,"eĠthrough":3307,"ĠthisĠyear":3308,"Ġtru":3309,"ustral":3310,"eĠhas":3311,"launch":3312,"oubleĠ":3313,"70":3314,"col":3315,"driv":3316,"mitt":3317,"non-":3318,"Ġmind":3319,"Ġmeet":3320,"uneĠ":3321,"itĠwas":3322,"hair":3323,"concern":3324,"ance.Ġ":3325,"sĠinĠ":3326,"easyĠtoĠ":3327,"Ġplann":3328,"Ġaccept":3329,"remember":3330,"ĠhowĠtoĠ":3331,"kindĠof":3332,"onderful":3333,"homeĠ":3334,"netĠ":3335,"nov":3336,"publish":3337,"ÑĢ":3338,"oryĠ":3339,"eseĠ":3340,"Ġclean":3341,"Ġpag":3342,"forĠyour":3343,"staff":3344,"edĠat":3345,"unk":3346,"projectĠ":3347,"outsid":3348,"s>Ġ<s>ĠtheĠ":3349,"Ġadvertis":3350,"ĠthatâĢĻsĠ":3351,"Ġunivers":3352,"e,Ġand":3353,"etting":3354,"effectiv":3355,"Ġannounc":3356,"eur":3357,"hy":3358,"har":3359,"ious":3360,"mod":3361,"Ġsourc":3362,"Ġhead":3363,"olv":3364,"Ġfour":3365,"igation":3366,"ĠgiveĠ":3367,"ourtĠ":3368,"Ġnever":3369,"beh":3370,"Ġconn":3371,"Ġuntil":3372,"ugar":3373,"ĠdoesĠ":3374,"ĠarticleĠ":3375,"Ġblack":3376,"sĠtoĠtheĠ":3377,"uitĠ":3378,"eĠatĠ":3379,"oudĠ":3380,"Ġsens":3381,"Ġwalk":3382,"chĠ":3383,"combin":3384,"eadĠof":3385,"fromĠ":3386,"bert":3387,"integr":3388,"rais":3389,"receiveĠ":3390,"-tim":3391,"echn":3392,"ipl":3393,"last":3394,"wardĠ":3395,"ician":3396,"elin":3397,"edĠasĠa":3398,"Ġmil":3399,"imin":3400,"Ġstar":3401,"entĠin":3402,"essag":3403,"eĠinter":3404,"eĠph":3405,"icket":3406,"196":3407,"communityĠ":3408,"gar":3409,"sub":3410,"eĠit":3411,"Ġtext":3412,"anel":3413,"ingĠtheĠc":3414,"Ġfew":3415,"ĠofĠyour":3416,"respond":3417,"club":3418,"board":3419,"Ġoption":3420,"suranceĠ":3421,"aud":3422,"iar":3423,"would":3424,"Ġthous":3425,"alm":3426,"Ġprom":3427,"rot":3428,"ateĠandĠ":3429,"Ġresult":3430,"Ġrespons":3431,"longer":3432,"equipment":3433,"anguag":3434,",Ġsh":3435,"cup":3436,"pic":3437,"uel":3438,"uaf":3439,"ana":3440,"estĠof":3441,"Ġdeal":3442,"loodĠ":3443,"earth":3444,"appro":3445,"ĠtheĠservic":3446,"Ġlov":3447,"Ġitem":3448,"remium":3449,"productĠ":3450,"athroom":3451,"excit":3452,"cam":3453,"cours":3454,"iĠam":3455,"sĠbyĠ":3456,"ing.ĠtheĠ":3457,".Ġ(":3458,"young":3459,"choic":3460,"entr":3461,"imb":3462,"abin":3463,"otos":3464,"essential":3465,"eĠinĠ":3466,"ĠaboveĠ":3467,"ailyĠ":3468,"Ġlos":3469,"sĠonĠtheĠ":3470,"ĠaĠlong":3471,"doĠyou":3472,"ĠstudentsĠ":3473,"decid":3474,"original":3475,"ĠableĠtoĠ":3476,"35":3477,"eign":3478,"fo":3479,"ires":3480,"sĠt":3481,"welcom":3482,"Ġaug":3483,"replac":3484,"Ġsolution":3485,"Ġskill":3486,"ates":3487,"Ġcare":3488,"ilĠ":3489,"proper":3490,"eĠspec":3491,"Ġreport":3492,"ĠareĠyou":3493,"Ġveh":3494,"ustain":3495,"eĠday":3496,"commerc":3497,"tober":3498,"Ġresourc":3499,"regular":3500,"ĠanyoneĠ":3501,"particular":3502,"ĠworldĠ":3503,"solut":3504,"witch":3505,"ĠaĠcon":3506,"eryĠ":3507,"rea":3508,"ecret":3509,"Ġdem":3510,"leaveĠ":3511,"ĠyouĠareĠ":3512,"ayer":3513,"Ġgood":3514,"ĠtheĠmain":3515,"ization":3516,"egg":3517,"Ġuniqu":3518,"remov":3519,"ĠtheĠlastĠ":3520,"prett":3521,"whatĠyou":3522,"idential":3523,"ournal":3524,"):":3525,"determin":3526,"iĠwasĠ":3527,"ration":3528,"w.":3529,"Ġever":3530,"enior":3531,"Ġsk":3532,"itter":3533,",Ġinclud":3534,"ĠhereĠ":3535,"oseĠ":3536,"ĠandĠthen":3537,"weĠareĠ":3538,",Ġso":3539,"ĠcanĠb":3540,"likeĠtoĠ":3541,"fortun":3542,"written":3543,"flow":3544,"voic":3545,"Ġseason":3546,"Ġcred":3547,"them":3548,"edĠthat":3549,"ecaus":3550,"lev":3551,"Ġtotal":3552,"eĠsureĠ":3553,"ĠthisĠis":3554,"e.Ġin":3555,"thern":3556,"to-":3557,"Ġassess":3558,"sequ":3559,"urround":3560,"merc":3561,"Ġenjo":3562,"roller":3563,".ĠtoĠ":3564,"aĠc":3565,"aul":3566,"detail":3567,"lab":3568,"ĠaĠcom":3569,"orĠ":3570,"oftĠ":3571,"chair":3572,"allow":3573,"beam":3574,"edĠtoĠbeĠ":3575,"ĠhaveĠbeen":3576,"ingĠsystem":3577,"discover":3578,"application":3579,"aĠb":3580,"eek":3581,"Ġton":3582,"error":3583,"icro":3584,"Ġwomen":3585,"improveĠ":3586,"adem":3587,"resourc":3588,"beingĠ":3589,"artment":3590,"Ġcharg":3591,"ĠtheĠfut":3592,"ĠitâĢĻsĠ":3593,"spac":3594,"ĠagainstĠ":3595,"fig":3596,"four":3597,"girl":3598,"Ġten":3599,"orĠof":3600,"organiz":3601,"rew":3602,"ederal":3603,"Ġfe":3604,"ĠinĠs":3605,"Ġgovern":3606,"explain":3607,"agu":3608,"ootĠ":3609,"encyĠ":3610,"ĠtheĠpres":3611,"eĠcall":3612,"makeĠa":3613,"usĠon":3614,"basic":3615,"Ġinterest":3616,"european":3617,"27":3618,"eon":3619,"pm":3620,"polic":3621,"Ġapr":3622,"ino":3623,"erman":3624,"atingĠ":3625,"eld":3626,"edĠd":3627,"iment":3628,"ĠareĠtheĠ":3629,"about":3630,"perfect":3631,"sĠas":3632,"eĠmak":3633,"weet":3634,"s.Ġs":3635,"ĠlotĠof":3636,"commod":3637,"reath":3638,"uffer":3639,"Ġagainst":3640,"general":3641,"ercis":3642,"Ġtherefor":3643,"encourag":3644,"33":3645,"?Ġi":3646,"cut":3647,"further":3648,"ordĠ":3649,"itation":3650,"es:":3651,"elt":3652,"church":3653,"comeĠ":3654,"ĠforĠyour":3655,"wordĠ":3656,"Ġcheck":3657,"ĠtheĠbas":3658,"sĠtoĠbeĠ":3659,"wayĠtoĠ":3660,"ĠfromĠtheĠ":3661,"strateg":3662,"ampleĠ":3663,"seen":3664,"relat":3665,"consist":3666,"ideasĠ":3667,",Ġst":3668,"-year":3669,"cost":3670,"e;":3671,"natural":3672,"yetĠ":3673,"refer":3674,"Ġsport":3675,"ofĠcours":3676,",ĠâĢľ":3677,"ison":3678,"Ġmod":3679,"owder":3680,"Ġarm":3681,"Ġland":3682,"ĠtheĠsc":3683,"Ġchoos":3684,"ableĠandĠ":3685,"ĠtimeĠtoĠ":3686,"content":3687,"affic":3688,"rictĠ":3689,"ollar":3690,"ganis":3691,"rett":3692,"oneĠofĠtheĠ":3693,"Ġguid":3694,"support":3695,"shouldĠbeĠ":3696,"bablyĠ":3697,"hour":3698,"mas":3699,"s;":3700,"sal":3701,"tm":3702,"ĠâĢĶ":3703,"ingĠthrough":3704,"thisĠ":3705,"Ġpack":3706,"leaseĠ":3707,"Ġfish":3708,"very":3709,"ounsel":3710,"udd":3711,"antag":3712,"Ġcontain":3713,"Ġadvis":3714,"ĠorĠ":3715,"Ġorganization":3716,"Ġabil":3717,"arget":3718,"begin":3719,"amera":3720,"fa":3721,"hold":3722,"won":3723,"eĠasĠ":3724,"Ġtal":3725,"ĠaĠst":3726,"any":3727,"alway":3728,"also":3729,"esĠthat":3730,"Ġcenter":3731,"Ġbod":3732,"Ġbeli":3733,"ifyĠ":3734,"havi":3735,"andsĠof":3736,"client":3737,"etĠup":3738,"Ġrun":3739,"eĠcar":3740,"usinessĠ":3741,"Ġcomputer":3742,"communication":3743,"Ġgoal":3744,"!Ġ":3745,"blog":3746,"crit":3747,"keyĠ":3748,"rum":3749,"sĠi":3750,"ingĠst":3751,"ĠbestĠ":3752,"Ġhon":3753,"ider":3754,"ideas":3755,"eĠthereĠ":3756,"apan":3757,"clin":3758,"ĠasĠyou":3759,"ies,Ġ":3760,"strong":3761,"ixt":3762,"Ġcompet":3763,"managementĠ":3764,"graphic":3765,"listen":3766,"beginn":3767,"uxur":3768,"cardĠ":3769,"gres":3770,"human":3771,"meas":3772,"Ġend":3773,"Ġtask":3774,"inar":3775,"yĠd":3776,".ĠmyĠ":3777,"edic":3778,"iday":3779,"irth":3780,"ablyĠ":3781,"comment":3782,"artmentĠ":3783,".Ġsom":3784,"ĠhelpĠyou":3785,"processĠ":3786,"protect":3787,"www.":3788,"emonstr":3789,"-b":3790,"beĠtheĠ":3791,"top":3792,"ĠeveryĠ":3793,"ĠthirdĠ":3794,"Ġsection":3795,"Ġbelow":3796,"ingĠis":3797,"enceĠof":3798,"ancer":3799,"Ġwher":3800,"registration":3801,"Ġunderstand":3802,"elevision":3803,"best":3804,"iet":3805,".ĠwhatĠ":3806,",ĠwhoĠ":3807,"ilt":3808,"bey":3809,"s,ĠbutĠ":3810,"yourself":3811,"Ġplant":3812,"usiness":3813,"ĠyearsĠ":3814,"ĠseeĠ":3815,"scap":3816,"Ġattempt":3817,"Ġknowledg":3818,"video":3819,"Ġcharacter":3820,"cc":3821,"e/":3822,"etĠof":3823,"hn":3824,"purchas":3825,"say":3826,"ĠaĠsh":3827,"sĠ&":3828,"ature":3829,".Ġbut":3830,",Ġk":3831,"Ġcod":3832,"ĠofĠm":3833,"ĠthatĠweĠ":3834,"porter":3835,"Ġval":3836,"Ġkid":3837,"sĠmayĠ":3838,"Ġdisc":3839,"ĠtheĠrightĠ":3840,"Ġinstall":3841,"800":3842,"foundĠ":3843,"oz":3844,"Ġtast":3845,"involv":3846,"edĠthrough":3847,"ada":3848,"extra":3849,"oughtĠ":3850,"ailable":3851,"eĠdis":3852,"contentĠ":3853,"Ġlet":3854,"sĠsuchĠasĠ":3855,"notic":3856,"ĠaĠveryĠ":3857,"ĠtheĠnextĠ":3858,"Ġperc":3859,"Ġscienc":3860,"Ġauthenticator":3861,"oftwar":3862,"Ġreturn":3863,"licens":3864,"o-":3865,"tak":3866,"Ġ=":3867,"ĠaĠj":3868,"ĠtheĠtr":3869,"aleĠ":3870,"Ġpurchas":3871,"edĠand":3872,"asc":3873,"Ġfirm":3874,"ĠtodayĠ":3875,"ĠnextĠ":3876,"notĠonlyĠ":3877,"eĠback":3878,"eĠpart":3879,"Ġtime.Ġ":3880,"Ġthemselv":3881,"removeĠ":3882,"ingĠpart":3883,"ashion":3884,"ript":3885,"cali":3886,"business":3887,"leftĠ":3888,"aurant":3889,"dem":3890,"fund":3891,"material":3892,"oidĠ":3893,"wait":3894,"oreĠ":3895,".Ġl":3896,"Ġcal":3897,"ecom":3898,"Ġdes":3899,"usuallyĠ":3900,"eĠthey":3901,"platform":3902,"otor":3903,"eĠservic":3904,"ly,Ġ":3905,"likeĠa":3906,"197":3907,"aredĠ":3908,"Ġaddress":3909,"financial":3910,"Ġattention":3911,"equipmentĠ":3912,"Ġworld":3913,"believeĠ":3914,"ĠachieveĠ":3915,"--":3916,"/or":3917,"29":3918,"few":3919,"garden":3920,"mi":3921,"mus":3922,"paper":3923,"yĠthatĠ":3924,"Ġtv":3925,"reas":3926,"ing,ĠandĠ":3927,"es,Ġs":3928,"Ġcaus":3929,"Ġpeople":3930,"edĠit":3931,"edĠtoĠs":3932,"chan":3933,"Ġbreak":3934,"andid":3935,"e,Ġwhich":3936,"ĠwithĠ":3937,"Ġchrist":3938,"eĠmayĠ":3939,"sĠforĠtheĠ":3940,"moneyĠ":3941,"prep":3942,"helpĠyou":3943,"blu":3944,"Ġbox":3945,"alĠest":3946,"pression":3947,"variousĠ":3948,"aughter":3949,"Ġgeneral":3950,"sych":3951,"cod":3952,"dust":3953,"oak":3954,"ateĠs":3955,"Ġcost":3956,"exact":3957,"Ġnov":3958,"ighbor":3959,"Ġreason":3960,"istan":3961,"s,Ġwhich":3962,"Ġwho":3963,"porateĠ":3964,"associ":3965,"madeĠ":3966,"Ġtechniqu":3967,"ĠthoughtĠ":3968,"Ġstandard":3969,"44":3970,"host":3971,"popular":3972,"s-":3973,"wish":3974,"itiv":3975,"Ġcould":3976,"urg":3977,"osition":3978,"upportĠ":3979,"earli":3980,"Ġchoic":3981,"Ġchannel":3982,"estĠin":3983,"ĠtheĠday":3984,"Ġquick":3985,"ĠshouldĠbeĠ":3986,"growth":3987,"responsibleĠfor":3988,"doesnâĢĻtĠ":3989,"fortunat":3990,",ĠtheĠm":3991,"camp":3992,"function":3993,"said":3994,"Ġ]":3995,"Ġsol":3996,"ate.Ġ":3997,"itud":3998,"eltĠ":3999,"urt":4000,"Ġfact":4001,"ĠtoĠtheĠs":4002,"ĠofĠtheĠs":4003,"respect":4004,"within":4005,"s.Ġm":4006,"sheĠ":4007,"ĠtheĠback":4008,"iblyĠ":4009,"becomeĠ":4010,"john":4011,"Ġfinish":4012,"Ġstruct":4013,"Ġaward":4014,"priateĠ":4015,"etimesĠ":4016,"Ġinternational":4017,"arante":4018,".m":4019,".Ġand":4020,"cop":4021,"he":4022,"y,ĠandĠ":4023,"one.Ġ":4024,"ingoĠ":4025,"Ġpict":4026,"Ġhar":4027,"uls":4028,"Ġaren":4029,"hasĠs":4030,"grand":4031,"Ġchalleng":4032,"ityĠfor":4033,"workĠwith":4034,"Ġkitchen":4035,"eĠpres":4036,"computer":4037,"meetĠ":4038,"Ġappoint":4039,"tractor":4040,"whoĠareĠ":4041,"ecutiveĠ":4042,".ĠthatĠ":4043,"bi":4044,"bank":4045,"half":4046,"oth":4047,"rim":4048,"rout":4049,"solution":4050,"vot":4051,"yĠor":4052,"icĠ":4053,"Ġcertain":4054,"ĠandĠin":4055,"edĠinto":4056,"ĠtoĠget":4057,"Ġfunction":4058,"empor":4059,"ingĠout":4060,"perhap":4061,"sĠafter":4062,"easter":4063,"ĠtheĠcas":4064,"makesĠ":4065,"Ġafric":4066,"postĠ":4067,"bring":4068,"soon":4069,"byĠtheĠ":4070,"ĠpartĠof":4071,"rangeĠof":4072,"ussion":4073,"avorit":4074,"ĠtryingĠtoĠ":4075,"left":4076,"aĠd":4077,"eo":4078,"mit":4079,"pain":4080,"Ġtu":4081,"ingĠaboutĠ":4082,".Ġnow":4083,"ĠandĠother":4084,"elig":4085,"Ġwindow":4086,"fordĠ":4087,"ecision":4088,"ationĠin":4089,"abric":4090,"Ġlow":4091,"beach":4092,"s,Ġor":4093,"eĠdown":4094,"ĠitĠcom":4095,"Ġparticip":4096,"management":4097,"ottom":4098,"casion":4099,"ĠaĠvari":4100,"defin":4101,"sĠthatĠareĠ":4102,"initelyĠ":4103,"doesĠnotĠ":4104,".c":4105,"cul":4106,"i'm":4107,"moveĠ":4108,"ĠqualityĠ":4109,"orne":4110,"Ġsha":4111,"Ġsiz":4112,"ingĠtheĠm":4113,"estern":4114,"Ġcam":4115,"ĠtoĠyou":4116,"ĠtoĠus":4117,"Ġbab":4118,"ĠfoodĠ":4119,"ationĠfor":4120,"agg":4121,"riesĠ":4122,"ayĠof":4123,"eller":4124,"buildĠ":4125,"ĠcanĠbeĠ":4126,"Ġuser":4127,"phas":4128,",ĠandĠtheĠ":4129,"everyoneĠ":4130,"ĠtheĠright":4131,"eĠshouldĠ":4132,"Ġregion":4133,"possible":4134,"Ġtraditional":4135,"eoĠ":4136,"ially":4137,"nightĠ":4138,"rup":4139,"sl":4140,"Â®":4141,"inion":4142,"ingĠtheĠp":4143,"ĠandĠst":4144,"ĠtoĠkeep":4145,"Ġfoc":4146,"Ġfron":4147,"veryĠs":4148,"ĠinĠyour":4149,"upd":4150,"avour":4151,"eĠpeopleĠ":4152,"contact":4153,"ĠaĠsingleĠ":4154,"ĠtheĠlat":4155,"requir":4156,"Ġtransfer":4157,"ĠthingsĠ":4158,"born":4159,"afetyĠ":4160,"quarter":4161,",ĠthatĠ":4162,"ju":4163,"mil":4164,"tu":4165,"wa":4166,"enh":4167,"refl":4168,"ingĠthat":4169,".Ġhow":4170,"Ġpol":4171,"edia":4172,"agon":4173,"propos":4174,"rief":4175,"ellig":4176,"Ġconsider":4177,"eĠdesign":4178,"iesĠin":4179,"195":4180,"requirement":4181,"elf-":4182,"Ġpatient":4183,"alifornia":4184,"california":4185,",ĠtheĠs":4186,"nut":4187,"rap":4188,"rank":4189,"zz":4190,"Ġaway":4191,"inglyĠ":4192,"Ġcirc":4193,"ometh":4194,"ĠtoĠhaveĠ":4195,"ingĠ(":4196,"Ġyoung":4197,"Ġstock":4198,"ĠprojectĠ":4199,"eĠmyĠ":4200,"ĠtheĠbo":4201,"Ġjan":4202,"eĠby":4203,"ampion":4204,"everything":4205,"Ġsuper":4206,"duringĠtheĠ":4207,"Ġrelationship":4208,"ĠthoseĠwhoĠ":4209,"familyĠ":4210,"Ġfilm":4211,"focus":4212,"customer":4213,"hensiveĠ":4214,"piec":4215,"Ġent":4216,"erĠof":4217,"eria":4218,"youĠhaveĠ":4219,"Ġmethod":4220,"Ġfut":4221,"upon":4222,"Ġrad":4223,"eĠtoĠbeĠ":4224,"newĠyork":4225,"Ġrecord":4226,"Ġpartner":4227,"Ġactivities":4228,"ĠaccordingĠtoĠ":4229,"chedul":4230,"75":4231,"driveĠ":4232,"father":4233,"miss":4234,"ridg":4235,"sign":4236,"Ġ[":4237,"Ġversion":4238,"intĠ":4239,"atal":4240,"Ġanimal":4241,"Ġcolleg":4242,"rother":4243,"chain":4244,"Ġmen":4245,"ĠtoĠa":4246,"Ġgett":4247,"agre":4248,"itĠin":4249,"conferenc":4250,"Ġtraffic":4251,"partner":4252,"ĠoverĠ":4253,"becauseĠ":4254,"Ġbuy":4255,"yĠshower":4256,".Ġthis":4257,"88":4258,"cook":4259,"ein":4260,"iĠw":4261,"rical":4262,"sĠthrough":4263,"ware":4264,"reetĠ":4265,"Ġspr":4266,"channel":4267,"leyĠ":4268,"access":4269,"Ġfund":4270,"emotion":4271,"ingĠoutĠ":4272,"exper":4273,"eĠtheĠt":4274,"Ġnon-":4275,"Ġstay":4276,"Ġtrust":4277,"Ġtrail":4278,"eaf":4279,"ityĠin":4280,"mention":4281,"ĠtheĠcar":4282,"recip":4283,"Ġlot":4284,"ĠtheĠhous":4285,"everyth":4286,"film":4287,"ĠthereĠisĠnoĠ":4288,"headĠ":4289,"fluenc":4290,"cheap":4291,"kind":4292,"ledĠ":4293,"ĠoutĠof":4294,"ings,Ġ":4295,"ingĠtheĠb":4296,"aryĠs":4297,"icag":4298,"element":4299,"edition":4300,"ĠtoĠdo":4301,"Ġmobil":4302,"ingĠg":4303,"agaz":4304,"Ġlim":4305,"contr":4306,"conven":4307,"Ġonc":4308,"ĠwithoutĠ":4309,"ervation":4310,"ĠtheirĠown":4311,"ĠfromĠ":4312,"ifĠyouĠareĠ":4313,"ĠaĠpart":4314,"area":4315,"request":4316,"Ġseem":4317,"Ġcontent":4318,"fram":4319,"consum":4320,"ategor":4321,"Ġposs":4322,"36":4323,"fast":4324,"i.":4325,"oiceĠ":4326,"women":4327,"re-":4328,".Ġr":4329,".Ġhowever":4330,"stop":4331,"chap":4332,"url":4333,"ureĠandĠ":4334,"americ":4335,"Ġnatural":4336,"Ġshould":4337,"s>Ġ<s>Ġi":4338,"pract":4339,"activeĠ":4340,"Ġapprov":4341,"Ġlef":4342,"ĠsupportĠ":4343,"Ġindia":4344,"clusiveĠ":4345,"bit":4346,"cool":4347,"fresh":4348,"jack":4349,"las":4350,"mail":4351,"vil":4352,"inder":4353,"sĠwhen":4354,"ingĠmyĠ":4355,"Ġfound":4356,"quir":4357,"sĠap":4358,"ĠtheĠsit":4359,"udget":4360,"occur":4361,"former":4362,"visitĠ":4363,"ĠareasĠ":4364,"ĠtypeĠof":4365,"ĠtypesĠof":4366,"company":4367,"venu":4368,"Ġnorth":4369,"Ġgrowth":4370,"%Ġof":4371,",ĠtheĠc":4372,"99":4373,"bum":4374,"iber":4375,"payĠ":4376,"s/":4377,"school":4378,"veg":4379,"ycl":4380,"ĠtoldĠ":4381,"ertion":4382,"ĠtheĠworld":4383,"icon":4384,"immediat":4385,"embr":4386,"lop":4387,"ingĠnew":4388,"Ġshall":4389,"Ġonly":4390,"antastic":4391,"weetĠ":4392,"eĠbetween":4393,"ĠisĠtoĠ":4394,"Ġplatform":4395,"commission":4396,"placeĠ":4397,"Ġclub":4398,"Ġapprec":4399,"ĠserviceĠ":4400,"ĠproductĠ":4401,"Ġproduction":4402,"Ġmedical":4403,"oftwareĠ":4404,"currentlyĠ":4405,"Ġaudienc":4406,"bulb":4407,"king":4408,"major":4409,"na":4410,"t.Ġ":4411,"Ġtip":4412,"sĠh":4413,"onĠyour":4414,"inger":4415,"ingĠher":4416,"ĠanyĠs":4417,"ilm":4418,"fortĠ":4419,"edom":4420,"igg":4421,"Ġarriv":4422,"Ġarrang":4423,"withĠ":4424,"quot":4425,"e.Ġyou":4426,"ĠtryĠtoĠ":4427,"Ġaccommod":4428,"ableĠfor":4429,"ĠtheĠmon":4430,"eĠmin":4431,"ĠtheĠcor":4432,"ĠtheĠpastĠ":4433,"ĠisĠa":4434,".ĠiĠam":4435,".ĠthisĠis":4436,"ĠneedĠ":4437,"relax":4438,"consult":4439,"Ġenvironment":4440,"Ġautomatic":4441,"ustralia":4442,"commercial":4443,"'dĠ":4444,"eedĠ":4445,"fail":4446,"ler":4447,"luck":4448,"model":4449,"numberĠof":4450,"rand":4451,"sĠtoĠs":4452,"Ġtit":4453,"ĠtheĠst":4454,"atureĠ":4455,"ingĠat":4456,"yĠ(":4457,"esĠandĠs":4458,"amin":4459,"amountĠof":4460,"adata":4461,"ĠstayĠ":4462,"e,Ġor":4463,"Ġwhether":4464,"weightĠ":4465,"Ġthat'sĠ":4466,"brand":4467,"ĠalsoĠbeĠ":4468,"ĠaĠbig":4469,"Ġfinancial":4470,"Ġdoes":4471,"eĠtrans":4472,"!!!":4473,"Ġdevelopment":4474,"Ġrequire":4475,"ĠreceiveĠ":4476,"havior":4477,"ĠaĠvarietyĠof":4478,".ĠtheseĠ":4479,"fix":4480,"jan":4481,"purpos":4482,"ing!":4483,"ely,Ġ":4484,"isĠs":4485,"urv":4486,"lood":4487,"opulation":4488,"exercis":4489,"Ġstick":4490,"period":4491,"s,Ġinclud":4492,"Ġtrump":4493,"Ġacross":4494,"shall":4495,"weather":4496,"Ġexpert":4497,"ensureĠ":4498,"sideĠ":4499,"lookĠfor":4500,"ĠsomeĠof":4501,",Ġan":4502,"ynam":4503,"Ġey":4504,"alread":4505,".ĠitâĢĻsĠ":4506,"edical":4507,"ĠtoĠour":4508,"ĠbingoĠ":4509,"Ġhis":4510,"optim":4511,"clas":4512,"ĠtheĠfact":4513,"ĠkeyĠ":4514,"Ġtime,Ġ":4515,"likeĠtheĠ":4516,"ectionĠof":4517,"Ġrespect":4518,"understandĠ":4519,"oupleĠof":4520,"retail":4521,"Ġtherap":4522,"ementĠof":4523,"extrem":4524,"Ġtopic":4525,"ĠaĠnumberĠof":4526,"Ġamerica":4527,"Ġvideo":4528,",ĠtoĠ":4529,"32":4530,"aĠm":4531,"describ":4532,"eup":4533,"iĠcan":4534,"next":4535,"sum":4536,"warm":4537,"inĠthisĠ":4538,"orsĠ":4539,"yĠbeam":4540,"Ġcop":4541,"Ġpaper":4542,"Ġbedroom":4543,"entication":4544,"imple":4545,"esĠinĠtheĠ":4546,"Ġincreas":4547,"why":4548,"Ġgod":4549,"Ġsteel":4550,"ĠwithĠyour":4551,"Ġcombin":4552,"Ġabsolut":4553,"ĠtheĠfin":4554,"soĠmuch":4555,"ĠtimeĠandĠ":4556,"viol":4557,"ĠtheĠlarg":4558,"ĠcontactĠ":4559,"enterpris":4560,"Ġregard":4561,"builtĠ":4562,"atisf":4563,"64":4564,"rof":4565,"vin":4566,"ingĠall":4567,".Ġyour":4568,".Ġonc":4569,",Ġon":4570,",Ġif":4571,"isod":4572,"Ġwall":4573,"edĠhisĠ":4574,"Ġmusic":4575,"Ġbi":4576,"Ġbal":4577,"unit":4578,"eĠthis":4579,"itĠfor":4580,"abas":4581,"ightĠof":4582,"eĠofĠyour":4583,"Ġrest":4584,"uction":4585,"weight":4586,"Ġjack":4587,"ĠtheĠpart":4588,"ibr":4589,"achineĠ":4590,"programm":4591,"requiredĠ":4592,"Ġpresent":4593,"ĠcommunityĠ":4594,"aĠisĠ":4595,"eâĢĿ":4596,"iĠs":4597,"mc":4598,"mis":4599,"pointĠ":4600,"inĠa":4601,"sĠyour":4602,"ersĠin":4603,"Ġskin":4604,"Ġcard":4605,"ĠandĠyour":4606,"ĠstyleĠ":4607,"Ġlak":4608,"e.ĠitĠ":4609,"compar":4610,"morn":4611,"ĠtheyĠwereĠ":4612,"Ġafford":4613,"Ġaddres":4614,"ĠanyĠother":4615,"Ġprim":4616,"ingĠonĠtheĠ":4617,"noth":4618,"Ġenough":4619,"hadĠbeen":4620,"collect":4621,"heldĠ":4622,"recogniz":4623,"34":4624,"foodĠ":4625,"floor":4626,"honeĠ":4627,"http":4628,"music":4629,"wo":4630,"Ġemail":4631,"eĠl":4632,"ĠtheĠin":4633,"redi":4634,"ingredi":4635,"itiz":4636,",ĠheĠ":4637,"Ġpm":4638,"edĠmyĠ":4639,"cholar":4640,"entre":4641,"entir":4642,"Ġhard":4643,"irror":4644,"loan":4645,"osh":4646,"Ġnumber":4647,"conduct":4648,"sĠofĠs":4649,"episod":4650,"anceĠtoĠ":4651,"s>Ġ<s>ĠthisĠ":4652,"Ġchild":4653,"ĠtheĠmarket":4654,"many":4655,"ĠtheĠdata":4656,".ĠiĠhaveĠ":4657,"Ġaccur":4658,"prepar":4659,"aximum":4660,"community":4661,"development":4662,"cheduleĠ":4663,"yĠshowerĠbingoĠ":4664,"31":4665,"iĠhaveĠ":4666,"mobil":4667,"pot":4668,"Ġ.":4669,"erĠin":4670,"Ġsecond":4671,"ingĠcon":4672,"itect":4673,",ĠisĠ":4674,"ically":4675,"ileĠ":4676,"eldĠ":4677,"Ġpiec":4678,"edĠthisĠ":4679,"roleĠ":4680,"olf":4681,"ingĠl":4682,"Ġgarden":4683,"ĠandĠa":4684,"eĠsystem":4685,"construction":4686,"began":4687,"sĠago":4688,"ĠasĠmuch":4689,"haveĠth":4690,"Ġadjust":4691,"Ġexist":4692,"e.g":4693,"easier":4694,".Ġso":4695,"inc.Ġ":4696,"drink":4697,"ĠitĠwasĠ":4698,"flor":4699,"Ġpractic":4700,"Ġparticular":4701,"companiesĠ":4702,"specific":4703,"ootball":4704,"ĠwhileĠ":4705,"energyĠ":4706,"u.s.Ġ":4707,"300":4708,"a-":4709,"difficult":4710,"nation":4711,"roĠ":4712,"uis":4713,"vict":4714,"Ġeducation":4715,"er.":4716,"alĠs":4717,"Ġpain":4718,"Ġpotential":4719,"Ġdriv":4720,"usingĠa":4721,"Ġfail":4722,"Ġfood":4723,"Ġfactor":4724,"etĠal":4725,"age,Ġ":4726,"agram":4727,"abit":4728,"otoĠ":4729,"riedĠ":4730,"early":4731,"ly.Ġ":4732,"ĠtheĠfollow":4733,"ĠtheĠbook":4734,"ĠtheĠdevelop":4735,"providesĠ":4736,"identifi":4737,"changeĠ":4738,"ĠavoidĠ":4739,"ĠwhenĠyou":4740,"Ġareas":4741,"ĠdoĠnotĠ":4742,"wrong":4743,"Ġuaf":4744,"eorg":4745,"mix":4746,"Ġob":4747,"ĠtableĠ":4748,"ondĠ":4749,"restor":4750,"Ġsinc":4751,"ĠandĠg":4752,"edĠas":4753,"Ġfresh":4754,"age.Ġ":4755,"Ġrepresent":4756,"const":4757,"ĠtheyĠs":4758,"ework":4759,"Ġforc":4760,"eĠdevelop":4761,"Ġkey":4762,"cret":4763,"Ġit'sĠ":4764,"bridg":4765,"oven":4766,"minut":4767,"prevent":4768,"Ġbeen":4769,"qualityĠof":4770,"urrentĠ":4771,"craft":4772,"Ġopportun":4773,"ientific":4774,"medical":4775,"urchaseĠ":4776,"Ġstrength":4777,"Ġbrand":4778,"becauseĠof":4779,"proced":4780,"director":4781,"moreĠthanĠ":4782,"Ġgreen":4783,"-r":4784,"bod":4785,"drop":4786,"lad":4787,"town":4788,"onent":4789,"really":4790,"ingsĠandĠ":4791,"isl":4792,"Ġcalifornia":4793,"ily":4794,"Ġport":4795,"Ġpublish":4796,"forĠm":4797,"Ġblog":4798,"isĠof":4799,"olk":4800,"ĠofĠtheĠc":4801,"Ġgar":4802,"ĠgoĠ":4803,"Ġless":4804,"ĠthatĠitĠ":4805,"eĠsomeĠ":4806,"eĠoften":4807,"ivil":4808,"s,Ġc":4809,"weĠwill":4810,"Ġattract":4811,"ĠtheĠmin":4812,"ĠtheĠpeopleĠ":4813,"complex":4814,"easilyĠ":4815,"eĠtoĠs":4816,"seeĠ":4817,"Ġartist":4818,"Ġtransport":4819,"oliday":4820,"toberĠ":4821,".Ġthey":4822,"bag":4823,"fit":4824,"fish":4825,"mother":4826,"mind":4827,"Î´":4828,"ersĠtoĠ":4829,"icateĠ":4830,"Ġwar":4831,"stall":4832,"chin":4833,"ĠmarketĠ":4834,"Ġbenefit":4835,"acation":4836,"ationĠofĠtheĠ":4837,"plent":4838,"ĠthatĠs":4839,"quer":4840,"sĠad":4841,"anceĠandĠ":4842,"artmentĠof":4843,"edĠbyĠs":4844,"ulti-":4845,"remot":4846,"versation":4847,"eĠthatĠyou":4848,"ĠtheĠnational":4849,"Ġanyth":4850,"Ġclaim":4851,"media":4852,"Ġdecision":4853,"escription":4854,"Ġshopp":4855,"Ġlegal":4856,"ĠthousandsĠof":4857,"-w":4858,"55":4859,"bel":4860,"pet":4861,"eĠat":4862,"sĠlikeĠ":4863,"ĠtheĠnew":4864,"Ġseveral":4865,"ate,Ġ":4866,"essĠin":4867,"icl":4868,"edĠt":4869,"editor":4870,"ednes":4871,"leĠandĠ":4872,"eĠthen":4873,"ĠtheĠsecondĠ":4874,"grat":4875,"grap":4876,"s>Ġ<s>Ġw":4877,"Ġche":4878,"ervis":4879,"eĠcouldĠ":4880,"eĠbas":4881,"easyĠ":4882,"makeĠsur":4883,"âĢĿ,":4884,"ĠaccountĠ":4885,"ĠtheseĠs":4886,"ĠaĠfull":4887,"pret":4888,"prefer":4889,"Ġattorne":4890,"volum":4891,"calledĠ":4892,"ympt":4893,"heart":4894,"Ġbecom":4895,"prior":4896,"opportunityĠtoĠ":4897,"christian":4898,"ĠalternativeĠ":4899,"ymptom":4900,".ĠthereĠ":4901,"bb":4902,"freeĠ":4903,"hood":4904,"memor":4905,"ya":4906,"orm":4907,"Ġserv":4908,"ingĠtoĠs":4909,"aren":4910,"arch":4911,"ed,ĠandĠ":4912,"Ġmill":4913,"Ġhy":4914,"Ġdriver":4915,"ĠfreeĠ":4916,"s.Ġfor":4917,"e,Ġyou":4918,"antic":4919,"Ġrac":4920,"eĠafter":4921,"eĠcor":4922,"needĠ":4923,"eĠforĠtheĠ":4924,"beforeĠtheĠ":4925,"download":4926,"ĠtechnologyĠ":4927,"ĠtheĠsameĠtim":4928,"roken":4929,"Ġachiev":4930,"ratherĠthan":4931,",ĠtheĠf":4932,"Ġaim":4933,"ontĠ":4934,"referenc":4935,"relev":4936,"that":4937,"ilver":4938,"Ġwish":4939,"Ġmal":4940,"Ġdry":4941,"Ġfall":4942,"eĠthing":4943,"eĠshow":4944,"Ġremember":4945,"Ġrang":4946,"ĠisĠnotĠ":4947,"eĠdep":4948,"eĠcr":4949,"Ġspend":4950,"aftĠ":4951,"Ġaffect":4952,"ingĠservic":4953,"ĠitĠis":4954,"Ġassign":4955,"parent":4956,"ingĠback":4957,"ĠtheĠgam":4958,"decor":4959,"Ġregular":4960,"Ġdecid":4961,"Ġcommunication":4962,"gradu":4963,"universityĠof":4964,"sĠasĠwell":4965,"Ġtemper":4966,"ignificantĠ":4967,"vehicleĠ":4968,"alĠestateĠ":4969,"lip":4970,"n't":4971,"siz":4972,"Ġ'":4973,"eĠwork":4974,"sĠ-":4975,"ousĠs":4976,"ingĠhisĠ":4977,"ĠanĠun":4978,".Ġun":4979,".ĠinĠ":4980,",Ġit":4981,"edĠtheir":4982,"Ġdat":4983,"useful":4984,"ureĠtoĠ":4985,"verageĠ":4986,"ama":4987,"amm":4988,"eĠsay":4989,"Ġreduc":4990,"Ġreach":4991,"eĠinclud":4992,"william":4993,"berg":4994,"intend":4995,"trans":4996,"toĠtheĠ":4997,"ĠuseĠ":4998,"stra":4999,"presentĠ":5000,"ĠdoĠyou":5001,"eedback":5002,".ĠifĠyouĠareĠ":5003,"Ġcommunity":5004,"ĠfamilyĠ":5005,"features":5006,"config":5007,"clusion":5008,"utiliz":5009,"colleg":5010,"celebr":5011,"din":5012,"eil":5013,"i,Ġ":5014,"rent":5015,"yz":5016,"Ġath":5017,"sĠper":5018,"icin":5019,"Ġmeas":5020,"Ġinsuranc":5021,"ament":5022,"irit":5023,"ĠofĠp":5024,"eĠther":5025,"os;":5026,"plantĠ":5027,"Ġlondon":5028,"ĠthatĠwasĠ":5029,"quiteĠ":5030,"e.ĠifĠyou":5031,"Ġwhit":5032,"occasion":5033,"pren":5034,"lyĠandĠ":5035,"shar":5036,"ĠtimesĠ":5037,"ĠmoreĠinformation":5038,"ĠthroughĠtheĠ":5039,"Ġanything":5040,"ĠtheĠwayĠ":5041,"Ġtechnical":5042,"volunteer":5043,"ĠasĠwellĠas":5044,"ĠvariousĠ":5045,"agazin":5046,"yĠshowerĠbingoĠcard":5047,"benef":5048,"cast":5049,"dest":5050,"e\"":5051,"iedĠ":5052,"nav":5053,"setĠ":5054,"Ġtarget":5055,"Ġthreat":5056,"ersĠof":5057,"reportĠ":5058,".Ġwe":5059,",Ġyour":5060,"ĠandĠyou":5061,"Ġbill":5062,"entireĠ":5063,"Ġdeliver":5064,"lotĠ":5065,"ĠareĠt":5066,"ĠthatĠyouĠcan":5067,"umentĠ":5068,"s.ĠifĠyou":5069,"ander":5070,"Ġadult":5071,"Ġrental":5072,"Ġchurch":5073,"avell":5074,"Ġkind":5075,"cream":5076,"ĠamountĠof":5077,"makeĠsureĠ":5078,"Ġprinc":5079,"sĠandĠtheĠ":5080,"abilityĠtoĠ":5081,"sĠabout":5082,"lotsĠof":5083,"imatelyĠ":5084,"necessar":5085,"eĠmanag":5086,"Ġanalysis":5087,"chapter":5088,"ban":5089,"below":5090,"dog":5091,"eight":5092,"gall":5093,"journe":5094,"mos":5095,"pa":5096,"pict":5097,"ru":5098,"ry.Ġ":5099,"ruct":5100,"sĠall":5101,"sourc":5102,"suit":5103,"eĠwill":5104,"Ġsun":5105,"Ġsqu":5106,"Ġsouth":5107,"ingĠtheĠf":5108,"ing,Ġs":5109,"itself":5110,"esĠatĠ":5111,"esia":5112,"omin":5113,"styleĠ":5114,"Ġmajor":5115,"usp":5116,"Ġfurther":5117,"union":5118,"itĠwith":5119,"ĠliveĠ":5120,"Ġlink":5121,"otiv":5122,"rik":5123,".ĠtheĠc":5124,"ivelyĠ":5125,"beat":5126,"ĠonĠ":5127,"east":5128,"haveĠtheĠ":5129,"Ġconcern":5130,"Ġcommon":5131,"recentĠ":5132,"ĠtheĠdis":5133,"ĠtheĠdep":5134,"assion":5135,"Ġagenc":5136,"whileĠtheĠ":5137,"highlyĠ":5138,"ĠappleĠ":5139,".ĠitĠis":5140,"whereĠtheĠ":5141,"becomeĠa":5142,"Ġamazon":5143,"oubt":5144,"author":5145,"ĠxĠ":5146,"behind":5147,"150":5148,"38":5149,"48":5150,"gin":5151,"masĠ":5152,"nik":5153,"o.Ġ":5154,"y,Ġs":5155,"yĠandĠs":5156,"Ðº":5157,"Ġtend":5158,"ingĠandĠs":5159,"es.Ġs":5160,",Ġch":5161,"Ġcook":5162,"ĠandĠisĠ":5163,"Ġwatch":5164,"Ġpick":5165,"useĠtheĠ":5166,"usedĠfor":5167,"olveĠ":5168,"Ġintegr":5169,"ĠgotĠ":5170,"Ġgirl":5171,"eĠsub":5172,"upĠtoĠ":5173,"upgrad":5174,"s.Ġh":5175,"ĠforĠyou":5176,"weĠar":5177,"ĠactĠ":5178,"endantĠ":5179,"Ġpropos":5180,"âĢĻsĠs":5181,"Ġrat":5182,"manufactur":5183,"achi":5184,"rict":5185,"ĠactiveĠ":5186,"ĠrecentĠ":5187,"ĠmoneyĠ":5188,"ĠservicesĠ":5189,"importantĠtoĠ":5190,"ĠmayĠbeĠ":5191,"sĠcanĠb":5192,"Ġserver":5193,"createĠa":5194,"Ġposition":5195,"Ġrepair":5196,"urban":5197,"enhanc":5198,"different":5199,"iâĢĻm":5200,"ole":5201,"pin":5202,"rul":5203,"sa":5204,"sĠout":5205,"Ġscreen":5206,"atelyĠ":5207,"itment":5208,"alĠp":5209,"elyĠtoĠ":5210,"edĠh":5211,"edĠus":5212,"edĠthem":5213,"ĠtoĠlearn":5214,"ĠinĠtheĠm":5215,"ĠofĠtheĠp":5216,"Ġglobal":5217,"Ġstation":5218,"riendĠ":5219,"s.ĠitĠ":5220,"ĠtheĠsub":5221,"Ġwhol":5222,"Ġwithin":5223,"ocrat":5224,"Ġconf":5225,"ĠtheĠbest":5226,"Ġjoin":5227,"ers,":5228,"ĠtakesĠ":5229,"godĠ":5230,"internetĠ":5231,"regn":5232,"regul":5233,"means":5234,"ĠwhichĠisĠ":5235,"Ġclick":5236,"ingĠofĠtheĠ":5237,"Ġappeal":5238,"Ġdiscover":5239,"Ġawes":5240,"Ġstatement":5241,"enjoyĠ":5242,"responsibil":5243,"vironmentĠ":5244,"Ġsurv":5245,"Ġassociation":5246,"ĠcreateĠ":5247,"american":5248,"\",":5249,"-to-":5250,".Ġthen":5251,"??":5252,"god":5253,"googleĠ":5254,"judg":5255,"lu":5256,"Ð»":5257,"Ġì":5258,"Ġtelevision":5259,"ĠsecurityĠ":5260,"isĠtoĠ":5261,"Ġcult":5262,"Ġmark":5263,"Ġbeautiful":5264,"acyĠ":5265,"Ġgen":5266,"withĠyour":5267,"confirm":5268,"apos;":5269,"udgetĠ":5270,"202":5271,"eĠmanyĠ":5272,"avidĠ":5273,"eĠdec":5274,"Ġknew":5275,"speak":5276,"ĠaccessĠ":5277,"internet":5278,"display":5279,"esĠofĠtheĠ":5280,"eĠonĠtheĠ":5281,"high-":5282,"relatedĠ":5283,"undred":5284,"employer":5285,"Ġcommitt":5286,"eptemberĠ":5287,"ĠnotĠbeĠ":5288,"operat":5289,"eparateĠ":5290,"didnâĢĻtĠ":5291,"57":5292,"?Ġ":5293,"countr":5294,"dev":5295,"doneĠ":5296,"ey.Ġ":5297,"food":5298,"gor":5299,"ring":5300,"yester":5301,"Ð²":5302,"inform":5303,"Ġthurs":5304,"erĠtoĠ":5305,"ato":5306,"islam":5307,"omet":5308,"elyĠs":5309,"ely.Ġ":5310,"Ġwon":5311,"Ġwear":5312,"entryĠ":5313,"idoĠ":5314,"imension":5315,"ifĠi":5316,"ĠofĠb":5317,"ĠofĠd":5318,"oppos":5319,"Ġnight":5320,"probablyĠ":5321,"ivision":5322,"Ġshort":5323,"ateĠin":5324,"eĠcas":5325,"electrical":5326,"umpster":5327,"employeeĠ":5328,"lifeĠ":5329,"ĠautoĠs":5330,"Ġfram":5331,"Ġnotic":5332,"creditĠ":5333,"093":5334,"Ġtempl":5335,"Ġreceiv":5336,"Ġarchitect":5337,"ĠaprilĠ":5338,"Ġ=Ġ":5339,"exactlyĠ":5340,"&apos;":5341,"center":5342,"da":5343,"damag":5344,"eightĠ":5345,"lar":5346,"mart":5347,"master":5348,"pal":5349,"rateĠ":5350,"yĠst":5351,"invit":5352,"anal":5353,"ingĠmor":5354,"yĠon":5355,".Ġher":5356,",Ġwhen":5357,"icens":5358,"Ġwood":5359,"Ġflow":5360,"iron":5361,"agr":5362,"Ġlab":5363,"otton":5364,"conv":5365,"istsĠ":5366,"sĠav":5367,"sĠasĠa":5368,"e,Ġbut":5369,"ĠwhyĠ":5370,"ĠjulyĠ":5371,"here.Ġ":5372,"manyĠof":5373,"Ġspot":5374,"Ġspect":5375,"ĠtakeĠtheĠ":5376,"ugeĠ":5377,"photograph":5378,"cohol":5379,"standardĠ":5380,"Ġconsult":5381,"Ġprepar":5382,"protection":5383,"universityĠ":5384,"ĠprocessĠ":5385,"ĠatĠleast":5386,"promot":5387,"Ġcampaign":5388,"Ġenjoy":5389,"-th":5390,"-term":5391,".ĠthereĠar":5392,"devic":5393,"fut":5394,"ien":5395,"irect":5396,"non":5397,"past":5398,"rill":5399,"sens":5400,"Ð´":5401,"Ġtom":5402,"erĠthan":5403,"ilk":5404,"eleg":5405,"Ġwould":5406,"Ġpleas":5407,"stanc":5408,"ĠtoĠh":5409,"Ġfirst":5410,"idayĠ":5411,"Ġinit":5412,"hael":5413,"sĠoffer":5414,"sĠandĠother":5415,"ĠtheĠfron":5416,"izz":5417,"eĠpar":5418,"contribut":5419,"ĠtheyĠcan":5420,"ĠaĠper":5421,"monitor":5422,"ĠaĠmin":5423,"ingĠdown":5424,"ĠthereâĢĻsĠ":5425,"Ġindepend":5426,"ource,Ġ":5427,"educational":5428,"havingĠa":5429,"Ġprogramm":5430,"ĠdevelopmentĠ":5431,"couldĠbeĠ":5432,"ĠstandardĠ":5433,"restaurant":5434,"discuss":5435,"ynamic":5436,"preneur":5437,".Ġthank":5438,"aĠin":5439,"bre":5440,"cu":5441,"fastĠ":5442,"gb":5443,"mic":5444,"zer":5445,"Ġsav":5446,"Ġselect":5447,"ing.Ġi":5448,".Ġwhat":5449,"ĠcareĠ":5450,"Ġcountr":5451,"stuff":5452,"edĠaboutĠ":5453,"childĠ":5454,"Ġmic":5455,"âĢĭ":5456,"usion":5457,"ĠtoĠtheĠm":5458,"exhib":5459,"osen":5460,"akistan":5461,"ries":5462,"istak":5463,"sĠoff":5464,"ĠtryĠ":5465,"ĠonĠyour":5466,"Ġadvent":5467,"effectĠ":5468,"ĠatĠall":5469,"Ġcompl":5470,"Ġcommerc":5471,"Ġorig":5472,"iesĠtoĠ":5473,"iesĠthatĠ":5474,"Ġexpect":5475,"ogether":5476,"ĠtheyĠhaveĠ":5477,"ingĠinĠtheĠ":5478,"well-":5479,"ĠaĠyear":5480,"ĠyearsĠof":5481,"Ġmanufactur":5482,"ĠsoĠmuch":5483,"completelyĠ":5484,"performanc":5485,"ĠactivitiesĠ":5486,"ĠaccordingĠto":5487,"currentĠ":5488,"Ġvisit":5489,"efficienc":5490,"royal":5491,"Ġknown":5492,"Ġlocation":5493,"ĠtheĠlatestĠ":5494,"ingredient":5495,",Ġall":5496,"bill":5497,"cult":5498,"digital":5499,"gather":5500,"gift":5501,"global":5502,"journal":5503,"lak":5504,"modern":5505,"oist":5506,"pol":5507,"rub":5508,"sha":5509,"ugh":5510,"went":5511,"Ġtab":5512,"Ġticket":5513,"inĠtheĠm":5514,"oubl":5515,"restr":5516,"Ġsummer":5517,"ingĠspac":5518,"ĠanĠa":5519,"Ġcool":5520,"thetic":5521,"station":5522,"street":5523,"rob":5524,"child":5525,"Ġmemor":5526,"Ġhol":5527,"ursu":5528,"Ġfig":5529,"ĠinsuranceĠ":5530,"ally.Ġ":5531,".ĠtheĠt":5532,"ĠthisĠweek":5533,"climb":5534,"sĠinto":5535,"independ":5536,"eĠbecaus":5537,"sideĠtheĠ":5538,"ĠassistĠ":5539,"underĠtheĠ":5540,"visitor":5541,"ĠcontentĠ":5542,"Ġbeh":5543,"rael":5544,"super":5545,"Ġblu":5546,"ĠanĠexc":5547,".com/":5548,"Ġbutton":5549,"Ġangel":5550,"Ġtues":5551,",Ġal":5552,"bodyĠ":5553,"equal":5554,"fiveĠ":5555,"gaveĠ":5556,"hardĠ":5557,"mr":5558,"mooth":5559,"wast":5560,"Ð¼":5561,"eĠar":5562,"anag":5563,"ĠanyĠof":5564,".Ġus":5565,".Ġeven":5566,"ictĠ":5567,"ĠcityĠ":5568,"Ġwr":5569,"youĠknow":5570,"you'll":5571,"Ġdamag":5572,"ĠfoundĠ":5573,"ĠtoĠtheĠp":5574,"plus":5575,"otal":5576,"umn":5577,"estic":5578,"estim":5579,"Ġtrend":5580,"ĠasĠitĠ":5581,"Ġacadem":5582,"Ġcontr":5583,"shown":5584,"libr":5585,"Ġchem":5586,"izon":5587,"ies.":5588,"eĠco":5589,"eĠcover":5590,"eĠfin":5591,"ersĠand":5592,"vious":5593,"Ġprint":5594,"rossĠ":5595,"identify":5596,"crim":5597,"ĠsomeoneĠ":5598,"employmentĠ":5599,"sĠfromĠtheĠ":5600,"developmentĠ":5601,"iddleĠ":5602,"ĠvideoĠ":5603,"mustĠbeĠ":5604,"alwaysĠ":5605,"df":5606,"factor":5607,"iver":5608,"jay":5609,"jew":5610,"mostĠof":5611,"pc":5612,"rental":5613,"ysĠ":5614,"Ġ/":5615,"onsor":5616,"Ġsett":5617,"omain":5618,"edĠour":5619,"Ġmodern":5620,"Ġhair":5621,"Ġdocument":5622,"Ġfan":5623,"Ġfill":5624,"igger":5625,"emphas":5626,"Ġgot":5627,"ageĠd":5628,"resultĠ":5629,"Ġremov":5630,"umm":5631,"antlyĠ":5632,"weĠwereĠ":5633,"Ġconc":5634,"eff":5635,"Ġrunn":5636,"recover":5637,"ĠplantĠ":5638,"ure,Ġ":5639,"ĠtheĠtwoĠ":5640,"ĠourĠ":5641,"rowd":5642,"eĠhisĠ":5643,"ĠnewĠyork":5644,"final":5645,"includesĠ":5646,"scor":5647,"guarante":5648,"Ġapply":5649,"sĠmad":5650,"sĠmustĠ":5651,"Ġimp":5652,"ĠaĠwideĠ":5653,"german":5654,"Ġadvic":5655,"suppl":5656,"giveĠyou":5657,"sĠareĠs":5658,"equipp":5659,"plaint":5660,"marketĠ":5661,"urnitureĠ":5662,"ĠmoreĠthanĠ":5663,"ĠautoĠsource,Ġ":5664,":ĠtheĠ":5665,"cz":5666,"ey,Ġ":5667,"handĠ":5668,"hotel":5669,"natur":5670,"rition":5671,"y!":5672,"Â£":5673,"inĠtheĠs":5674,"Ġthrow":5675,"orĠin":5676,"enz":5677,"Ġsuit":5678,"ings.Ġ":5679,"ald":5680,"omatic":5681,"ĠputĠ":5682,"steel":5683,"isĠnotĠ":5684,"ĠfiveĠ":5685,"esĠwill":5686,"ifĠyour":5687,"ĠyouĠwill":5688,"Ġgreat":5689,"eĠtwoĠ":5690,"e.Ġfor":5691,"sĠofĠd":5692,"Ġtruck":5693,"ĠwithĠa":5694,"owner":5695,"liqu":5696,"crew":5697,"eastĠ":5698,"eĠfoundĠ":5699,".Ġi'm":5700,"more.Ġ":5701,"ĠtheĠteam":5702,"rowser":5703,"physical":5704,"ĠaĠbitĠ":5705,"provides":5706,"ologyĠ":5707,"heĠwasĠ":5708,"ĠstudentĠ":5709,"appoint":5710,"impactĠ":5711,",ĠwhichĠisĠ":5712,"sĠbetween":5713,"expensiveĠ":5714,"ebruaryĠ":5715,"Ġanti-":5716,"networkĠautoĠsource,Ġ":5717,"-basedĠ":5718,"Ġcertification":5719,"prettyĠ":5720,"Ġrequirement":5721,".ĠatĠ":5722,";Ġ":5723,"bol":5724,"careĠ":5725,"ka":5726,"lid":5727,"map":5728,"ras":5729,"rick":5730,"s'":5731,"Ñĥ":5732,"ĠtestĠ":5733,"inoĠ":5734,"ortĠof":5735,"enabl":5736,"ouble":5737,"Ġsaf":5738,".Ġfrom":5739,"esid":5740,"ica":5741,"through":5742,"Ġbag":5743,"Ġhost":5744,"impress":5745,"loom":5746,"ingĠover":5747,"ĠofĠtheĠm":5748,"Ġarth":5749,"expos":5750,"ĠnumberĠof":5751,"utton":5752,"ĠandĠtheĠs":5753,"plug":5754,"ĠthatĠis":5755,"Ġsho":5756,"oulder":5757,"iphoneĠ":5758,",ĠandĠi":5759,"sĠintoĠ":5760,"ĠrightĠ":5761,"ĠchildĠ":5762,"eĠmad":5763,"Ġjoh":5764,"ĠtheĠpower":5765,"ĠtheirĠ":5766,"inceĠtheĠ":5767,"Ġunit":5768,"eĠhigh":5769,"pressĠ":5770,"photo":5771,"ystal":5772,"readyĠtoĠ":5773,"Ġrecogn":5774,",ĠbutĠi":5775,"ĠwouldĠbeĠ":5776,"norm":5777,"connection":5778,"emblyĠ":5779,"Ġviol":5780,"ilitaryĠ":5781,"ĠcurrentĠ":5782,"**":5783,"capt":5784,"det":5785,"eousĠ":5786,"fe":5787,"nameĠ":5788,"ran":5789,"sw":5790,"sell":5791,"ventĠ":5792,"wentĠ":5793,"Ġsatur":5794,"es,Ġand":5795,"omb":5796,"eless":5797,"Ġwid":5798,"startĠ":5799,"edit":5800,"Ġbeach":5801,"ida":5802,"Ġinf":5803,"ĠinĠthisĠ":5804,"ations.Ġ":5805,"Ġalbum":5806,"rian":5807,"Ġreleas":5808,"s,Ġp":5809,"Ġconvention":5810,"priceĠ":5811,"Ġrisk":5812,"eĠaĠb":5813,"iesĠareĠ":5814,"egir":5815,"likeĠto":5816,"howĠtoĠ":5817,"howĠmuch":5818,"ĠaĠperson":5819,"Ġteen":5820,"interview":5821,"ectionĠ":5822,"ĠaĠcoupleĠof":5823,"helpful":5824,"azz":5825,"ganic":5826,"Ġimport":5827,"abilityĠof":5828,"Ġavailable":5829,"iodĠ":5830,"ĠlikeĠ":5831,"tein":5832,"classic":5833,"propertyĠ":5834,"complish":5835,"built":5836,"example":5837,"comfortableĠ":5838,"ĠabilityĠtoĠ":5839,"ĠitĠcomesĠtoĠ":5840,"120":5841,"78":5842,"ba":5843,"fam":5844,"ga":5845,"mill":5846,"oy":5847,"si":5848,"âĤ":5849,"inĠm":5850,"insp":5851,"sĠwillĠbeĠ":5852,"erĠfor":5853,"ingĠanĠ":5854,"als":5855,"es?":5856,",Ġour":5857,",Ġeven":5858,"Ġclear":5859,"Ġcounsel":5860,"theĠs":5861,"stay":5862,"stream":5863,"edĠover":5864,"edlyĠ":5865,"edĠtheĠs":5866,"chatĠ":5867,"Ġbillion":5868,"Ġhttp":5869,"ureĠin":5870,"Ġfloor":5871,"igen":5872,"illust":5873,"Ġyouth":5874,"haw":5875,"Ġlanguag":5876,"updat":5877,"Ġremain":5878,"umin":5879,"s,Ġbut":5880,"anta":5881,"gric":5882,"Ġrout":5883,"ĠtheĠbod":5884,"ĠjuneĠ":5885,"eĠhad":5886,"presidentĠ":5887,"notĠtoĠ":5888,"locatedĠin":5889,"frank":5890,"olden":5891,"Ġboard":5892,"ĠwhenĠi":5893,"innov":5894,"unnel":5895,"Ġapprox":5896,"Ġflor":5897,"quickly":5898,"Ġcentur":5899,"myself":5900,"ĠdidnâĢĻtĠ":5901,"eĠinterest":5902,"beyond":5903,"earlier":5904,"entrepreneur":5905,"hi":5906,"pool":5907,"rin":5908,"y'sĠ":5909,"Ïī":5910,"ĠoldĠ":5911,"oneĠs":5912,"Ġsell":5913,"Ġseat":5914,"itness":5915,"alĠandĠ":5916,".ĠpleaseĠ":5917,",Ġ\"":5918,"thĠof":5919,"illegal":5920,"eler":5921,"electĠ":5922,"ĠwantĠ":5923,"youĠmayĠ":5924,"Ġmer":5925,"Ġbench":5926,"Ġheat":5927,"Ġdream":5928,"Ġtot":5929,"ourĠ":5930,"ĠreadĠ":5931,"conutĠ":5932,"contract":5933,"epper":5934,"ĠshareĠ":5935,"ĠasĠi":5936,"endor":5937,"Ġvill":5938,"sĠinĠyour":5939,"ĠisĠs":5940,"ĠtheĠfinal":5941,"astruct":5942,"ĠtheĠdist":5943,"butĠi":5944,"eĠfeat":5945,"viouslyĠ":5946,"strength":5947,"ĠtheĠhear":5948,"ypt":5949,"eĠthatĠisĠ":5950,"ĠupĠtoĠ":5951,"amilyĠ":5952,"frastruct":5953,"Ġmoney":5954,"player":5955,"correct":5956,".ĠinĠaddition":5957,"Ġ-Ġ":5958,"profit":5959,"profil":5960,"ĠlifeĠ":5961,"building":5962,"ĠminutesĠ":5963,"Ġofficial":5964,"Ġswitch":5965,"objectiv":5966,"believ":5967,"efficient":5968,"Ġadministration":5969,"reflect":5970,".org":5971,"aith":5972,"bus":5973,"cell":5974,"cash":5975,"divid":5976,"ech":5977,"eableĠ":5978,"nin":5979,"prec":5980,"path":5981,"ry,Ġ":5982,"tag":5983,"window":5984,"eĠagain":5985,"Ġtel":5986,"Ġtap":5987,"onlineĠ":5988,"enalt":5989,"anish":5990,"Ġsession":5991,"Ġsucc":5992,"ingly":5993,"ingĠthis":5994,"itâĢĻsĠa":5995,"their":5996,"Ġpeac":5997,"Ġpanel":5998,"roof":5999,"entral":6000,"Ġhill":6001,"Ġhalf":6002,"usedĠin":6003,"usual":6004,"olec":6005,"esĠwereĠ":6006,"ĠinĠtheĠs":6007,"lob":6008,"wheel":6009,"ĠyouĠhaveĠ":6010,"eĠthes":6011,"Ġstreet":6012,"behavior":6013,"ĠonlineĠ":6014,"occup":6015,"portion":6016,"outcom":6017,"buyĠ":6018,"Ġconferenc":6019,"ĠasĠtheyĠ":6020,"ĠtheĠfull":6021,"recentlyĠ":6022,"Ġkm":6023,"ĠtheĠpast":6024,"icken":6025,"ersĠcan":6026,"likelyĠtoĠ":6027,"rows":6028,"ĠthanĠ":6029,"Ġtech":6030,"194":6031,"ageĠisĠ":6032,"diseas":6033,"visual":6034,"ĠtheĠgener":6035,"uffic":6036,"umption":6037,"standard":6038,"impact":6039,"excellentĠ":6040,"Ġdecor":6041,"ĠcompaniesĠ":6042,"idden":6043,"uccessfullyĠ":6044,"authenticator":6045,"Ġvisitor":6046,"eĠmoreĠ":6047,"origin":6048,"Ġgovernment":6049,"Ġathlet":6050,"hoodĠ":6051,"method":6052,"push":6053,"ray":6054,"raw":6055,"wif":6056,"y:":6057,"Ñĭ":6058,"one,Ġ":6059,"Ġschem":6060,"its":6061,",ĠitĠisĠ":6062,"Ġwash":6063,"stag":6064,"ĠtoĠwork":6065,"ĠtoĠprovid":6066,"Ġhotel":6067,"ectĠof":6068,"usher":6069,"iger":6070,"Ġins":6071,"ĠtoĠtheĠc":6072,"ingĠus":6073,"whiteĠ":6074,"ĠofĠour":6075,"Ġalmost":6076,"aboveĠ":6077,"ĠandĠareĠ":6078,"romis":6079,"estival":6080,"everyĠs":6081,"printĠ":6082,"ity.":6083,"Ġtime.":6084,"ure.Ġ":6085,"eĠfeel":6086,"ersĠwhoĠ":6087,"ĠtheĠtyp":6088,"commendĠ":6089,"ĠthereĠwas":6090,"bright":6091,"ĠaĠbeautiful":6092,"Ġassum":6093,"edĠwithĠtheĠ":6094,"partĠ":6095,"ixel":6096,"includes":6097,"Ġbeing":6098,"ternal":6099,"retch":6100,"mediateĠ":6101,"normal":6102,"credibleĠ":6103,"lightĠbulb":6104,"Ġcomplex":6105,"Ġproced":6106,"dueĠtoĠ":6107,"competition":6108,"Ġoperation":6109,"committe":6110,"eĠtaken":6111,"ĠpercentĠ":6112,"grapher":6113,"flex":6114,"osĠ":6115,"po":6116,"stĠof":6117,"sâĢĿ":6118,"yself":6119,"eĠâĢĵ":6120,"eries":6121,"outhern":6122,"ĠsetĠ":6123,"Ġscor":6124,"ary,Ġ":6125,",Ġv":6126,"ĠweĠd":6127,"youâĢĻll":6128,"edĠoff":6129,"Ġmatch":6130,"Ġdet":6131,"ĠofĠthisĠ":6132,"ula":6133,"ulum":6134,"itĠs":6135,"abet":6136,"eĠtechn":6137,"otyp":6138,"ighter":6139,"Ġreli":6140,"essor":6141,"encounter":6142,"ĠasĠweĠ":6143,"Ġproper":6144,"cann":6145,"ĠtheĠfr":6146,"ĠtheĠfac":6147,"angel":6148,"ĠtheĠpublic":6149,"ĠtimeĠin":6150,"observ":6151,"ersĠwith":6152,"makeĠtheĠ":6153,"whichĠisĠ":6154,"eĠhom":6155,"ingĠinto":6156,"191":6157,"regulation":6158,"ĠafterĠtheĠ":6159,"prehensiveĠ":6160,"partĠofĠtheĠ":6161,".ĠitĠwas":6162,"ĠmakeĠ":6163,"Ġdoor":6164,"Ġtransaction":6165,"Ġphoto":6166,"ĠwhatĠyou":6167,"lightlyĠ":6168,"generallyĠ":6169,"Ġinterview":6170,"Ġguest":6171,"Ġtermin":6172,"Ġrelation":6173,"Ġconsist":6174,"Ġsituation":6175,"Ġsubject":6176,"aughtĠ":6177,"chemical":6178,"Ġprotection":6179,"necessaryĠ":6180,"agnos":6181,"usband":6182,"ĠcreditĠ":6183,"plentyĠof":6184,"Ġcommercial":6185,".Ġat":6186,"driver":6187,"daughter":6188,"mir":6189,"paidĠ":6190,"sĠhaveĠbeen":6191,"ĠsaveĠ":6192,"ĠsinceĠ":6193,"es,ĠtheĠ":6194,",Ġhowever":6195,"Ġcash":6196,"Ġpet":6197,"ĠpleaseĠ":6198,"stick":6199,"Ġdigital":6200,"Ġdeath":6201,"leadĠ":6202,"igr":6203,"ĠtoĠtheĠb":6204,"ifĠtheĠ":6205,"Ġalcohol":6206,"resolution":6207,"itĠwill":6208,"without":6209,"ĠandĠall":6210,"ĠlightĠ":6211,"ĠthatĠwill":6212,"ota":6213,"eĠsc":6214,"upper":6215,"anceĠin":6216,"endedĠ":6217,"Ġcomment":6218,"trad":6219,"iesĠfor":6220,"ĠtheyĠwill":6221,"ingĠsom":6222,"answer":6223,"locatedĠ":6224,"edĠonĠtheĠ":6225,"relig":6226,"nothing":6227,"eholder":6228,"intoĠtheĠ":6229,"expens":6230,"quicklyĠ":6231,"Ġtreatment":6232,"ordinator":6233,"reveal":6234,"Ġdirector":6235,"ĠacrossĠtheĠ":6236,"ĠdoesĠnotĠ":6237,"rettyĠ":6238,"ĠbelieveĠ":6239,"Ġletter":6240,"emporaryĠ":6241,"veget":6242,"[Ġuaf":6243,"document":6244,"hor":6245,"length":6246,"Ġ+":6247,"ini":6248,"sĠover":6249,"ing:":6250,"Ġanim":6251,"yĠis":6252,"esĠasĠ":6253,",ĠwhereĠ":6254,"ĠandĠweĠ":6255,"Ġpor":6256,"champion":6257,"ĠtoĠtak":6258,"ĠofĠa":6259,"ive.Ġ":6260,"sĠofĠyour":6261,"Ġship":6262,"cloudĠ":6263,"tĠofĠ":6264,"Ġconstruction":6265,"odd":6266,"Ġaspect":6267,"mental":6268,"yearsĠ":6269,"ĠletĠ":6270,"Ġtakes":6271,"eĠhous":6272,"ĠtheĠhom":6273,"money":6274,"flict":6275,"ypsum":6276,"scription":6277,"front":6278,"faceĠ":6279,"ĠweĠhaveĠ":6280,"ĠaĠway":6281,"virt":6282,"realiz":6283,"ĠpresidentĠ":6284,"expand":6285,"focusĠon":6286,"ĠmanagementĠ":6287,"aurantĠ":6288,"perfectĠfor":6289,"princip":6290,"Ġvolunteer":6291,"introduction":6292,"Ġconnection":6293,"eĠspecial":6294,".ĠasĠa":6295,"95":6296,"aq":6297,"could":6298,"gon":6299,"ker":6300,"listĠ":6301,"mag":6302,"potential":6303,"season":6304,"Ñı":6305,"Ġthus":6306,"ers.":6307,"orrow":6308,"ĠsimplyĠ":6309,"ingu":6310,"esusĠ":6311,",ĠmyĠ":6312,"isp":6313,"Ġcelebr":6314,"ĠandĠhow":6315,"edĠhim":6316,"rod":6317,"Ġmix":6318,"Ġmaster":6319,"Ġmachin":6320,"Ġhor":6321,"le,Ġ":6322,"Ġfar":6323,"Ġfarm":6324,"esĠisĠ":6325,"emal":6326,"Ġinch":6327,"ullyĠ":6328,"resum":6329,"utor":6330,"eĠsolution":6331,"quis":6332,"eĠoff":6333,"s,ĠweĠ":6334,"outdoor":6335,"ĠtheĠcours":6336,"eĠcount":6337,"compre":6338,"neighbor":6339,"oga":6340,"after":6341,".ĠiĠthink":6342,"ĠtheseĠp":6343,"ĠaĠph":6344,"ĠtheĠlaw":6345,"whatĠisĠ":6346,"ingĠmachin":6347,"coach":6348,"Ġclas":6349,"Ġhowever":6350,"someĠof":6351,"ysician":6352,"oneĠofĠtheĠmostĠ":6353,"corpor":6354,"exception":6355,"supportĠ":6356,"eech":6357,"Ġanalyz":6358,"ĠmarchĠ":6359,"employeesĠ":6360,"featur":6361,"Ġcollection":6362,"official":6363,"ĠaugustĠ":6364,"label":6365,"networkĠautoĠsource,Ġinc.Ġ":6366,".)":6367,"42":6368,"eut":6369,"fieldĠ":6370,"hz":6371,"mom":6372,"ndĠ":6373,"pac":6374,"people":6375,"s\"":6376,"wedd":6377,"ani":6378,"atient":6379,".ĠnoĠ":6380,",ĠnotĠ":6381,"Ġcrit":6382,"elimin":6383,"Ġpers":6384,"Ġpurpos":6385,"ĠprivateĠ":6386,"forget":6387,"ĠtoĠdoĠ":6388,"cher":6389,"ĠmeĠ":6390,"Ġdin":6391,"lostĠ":6392,"ingĠexperienc":6393,"adian":6394,"addition":6395,"plusĠ":6396,"otic":6397,"Ġrev":6398,"udden":6399,"ĠallĠover":6400,"Ġacknowledg":6401,",ĠandĠs":6402,"oday":6403,"weâĢĻveĠ":6404,"ĠtheĠco":6405,"Ġjapan":6406,"ĠtheĠpar":6407,"fully":6408,"phoneĠ":6409,"photos":6410,"ĠtheĠnor":6411,"ĠweĠcan":6412,"consumer":6413,"Ġfinanc":6414,"wereĠs":6415,"Ġsoon":6416,"Ġauthentication":6417,"balanc":6418,"eĠthatĠtheĠ":6419,"wantĠto":6420,"industryĠ":6421,"Ġcollect":6422,"wholeĠ":6423,"advantag":6424,"Ġhappen":6425,"Ġlaunch":6426,"Ġconnect":6427,"particularlyĠ":6428,"Ġtalent":6429,"ĠthirdĠpart":6430,"itizen":6431,"Ġjohn":6432,"networkĠautoĠsource,Ġinc.Ġ'":6433,",Ġafter":6434,"46":6435,"costĠ":6436,"gutter":6437,"giftĠ":6438,"ios":6439,"jection":6440,"ken":6441,"kar":6442,"mat":6443,"mun":6444,"max":6445,"martĠ":6446,"rush":6447,"sureĠ":6448,"ta":6449,"tiveĠ":6450,"y?":6451,"sĠweĠ":6452,"sĠwouldĠ":6453,"onĠour":6454,"Ġsan":6455,"Ġsleep":6456,"ing?":6457,"ofĠ":6458,"iceĠc":6459,"Ġcup":6460,"Ġcloth":6461,"ĠwayĠ":6462,"Ġpolitical":6463,"rook":6464,"ĠmultipleĠ":6465,"entiallyĠ":6466,"leastĠ":6467,"urric":6468,"urpris":6469,"igan":6470,"ĠofĠf":6471,"Ġarab":6472,"abul":6473,"plastic":6474,"Ġacid":6475,"eĠind":6476,"eĠintoĠ":6477,"Ġcontractor":6478,"Ġrich":6479,"bertĠ":6480,"nowĠi":6481,"Ġspirit":6482,"Ġamb":6483,"urement":6484,"likelyĠ":6485,"eĠforĠyour":6486,"eĠhim":6487,"ollection":6488,"ublication":6489,"ĠtheĠgu":6490,"ĠseeĠtheĠ":6491,"Ġseek":6492,"uthor":6493,".ĠitĠwasĠ":6494,"Ġarticle":6495,"whatever":6496,"leadership":6497,"ĠlookingĠfor":6498,"Ġrock":6499,"imagin":6500,"Ġsignific":6501,"Ġrequest":6502,"clickĠher":6503,"headĠof":6504,"ĠclientĠ":6505,"patient":6506,"ĠtheĠhighestĠ":6507,"ytic":6508,"abinet":6509,"sĠass":6510,"39":6511,"benefit":6512,"deb":6513,"farm":6514,"field":6515,"iĠwouldĠ":6516,"lessĠof":6517,"nel":6518,"s:Ġ":6519,"usĠs":6520,"wonder":6521,"zen":6522,"Ġ:":6523,"inĠb":6524,"ĠthusĠ":6525,"onesĠ":6526,"organis":6527,"ĠtheĠother":6528,"ĠsimpleĠ":6529,"itâĢĻs":6530,".Ġnot":6531,"es!":6532,"esĠa":6533,"ĠandĠcan":6534,"elcz":6535,"youth":6536,"ed!":6537,"Ġbank":6538,"Ġdeb":6539,"Ġdoctor":6540,"Ġfire":6541,"Ġfield":6542,"igration":6543,"emin":6544,"ĠinĠa":6545,"ationĠwith":6546,"among":6547,"amaz":6548,"extr":6549,"Ġstag":6550,"eĠteam":6551,"ounder":6552,"ĠareĠnotĠ":6553,"estin":6554,"yourĠown":6555,"Ġadopt":6556,"Ġappar":6557,"creativeĠ":6558,"ĠtheĠdef":6559,"ersĠfor":6560,"ersĠhaveĠ":6561,"sĠforĠ":6562,"eachĠother":6563,"interior":6564,"ĠaĠdis":6565,"anna":6566,"carri":6567,"Ġpercent":6568,"ĠtheĠwater":6569,"ventor":6570,"downloadĠ":6571,"becauseĠi":6572,"ieldĠof":6573,"Ġdiet":6574,"escap":6575,"Ġadvoc":6576,"eeper":6577,"confidenc":6578,"Ġintroduc":6579,"doesn'tĠ":6580,"ycleĠ":6581,"Ġmaintain":6582,",ĠtheĠb":6583,"400":6584,"ault":6585,"c)":6586,"kel":6587,"knew":6588,"mitĠ":6589,"pir":6590,"wantĠ":6591,"Ġeither":6592,"Ġtun":6593,"sĠcom":6594,"sĠsoĠ":6595,"sĠwillĠb":6596,"orough":6597,"Ġsound":6598,"it.":6599,"areĠof":6600,",Ġr":6601,"ĠandĠfor":6602,"thon":6603,"Ġpump":6604,"ĠtoĠfindĠ":6605,"rog":6606,"ĠmyĠs":6607,"Ġmiss":6608,"asm":6609,"imul":6610,"imageĠ":6611,"Ġoften":6612,"ultr":6613,"restĠ":6614,"Ġneg":6615,"Ġlater":6616,"comb":6617,"ĠthatĠcan":6618,"apital":6619,"eph":6620,"s,Ġb":6621,"Ġvot":6622,"workshop":6623,"ĠiĠhaveĠ":6624,"Ġloan":6625,"uchĠas":6626,"assertion":6627,"controll":6628,"uresĠof":6629,"Ġagent":6630,"washer":6631,"ĠaĠâĢľ":6632,"finallyĠ":6633,"whatĠi":6634,"sĠwithĠtheĠ":6635,"ampaign":6636,"directĠ":6637,"itiesĠandĠ":6638,"eteran":6639,"ĠhighĠschool":6640,"Ġrelig":6641,"ocialĠmedia":6642,"definitelyĠ":6643,"Ġprefer":6644,"uggestion":6645,"lastĠyear":6646,"Ġelement":6647,"passion":6648,"governmentĠ":6649,"-year-":6650,"eastern":6651,"ĠtheĠlargestĠ":6652,"37":6653,"fc":6654,"frequ":6655,"gameĠ":6656,"iantĠ":6657,"iator":6658,"jam":6659,"ky":6660,"lateĠ":6661,"mb":6662,"messag":6663,"oter":6664,"priv":6665,"ruit":6666,"saf":6667,"suchĠasĠ":6668,"td":6669,"yes,Ġ":6670,"Â·":6671,"ĠâĢĺ":6672,"Ġtea":6673,"oneĠin":6674,"alak":6675,".Ġbr":6676,".Ġeach":6677,".Ġwhil":6678,"aryĠof":6679,"es.Ġi":6680,",ĠifĠyou":6681,",ĠespeciallyĠ":6682,"Ġcha":6683,"elic":6684,"Ġwedd":6685,"Ġpc":6686,"Ġprior":6687,"Ġpowder":6688,"edĠitĠ":6689,"edĠoutĠ":6690,"ĠtoĠfind":6691,"Ġdetermin":6692,"Ġdifferenc":6693,"olym":6694,"id-":6695,"esĠcan":6696,"ation.":6697,"ingĠr":6698,"eĠthink":6699,"reserv":6700,"resident":6701,"Ġstain":6702,"akeĠ":6703,"ĠthatĠyour":6704,"Ġrefer":6705,"Ġrecommend":6706,"s,Ġwith":6707,"e,ĠitĠ":6708,"e,Ġwith":6709,"Ġwheel":6710,"clar":6711,"Ġvision":6712,"Ġadapt":6713,"eĠaĠfew":6714,"ignor":6715,"enseĠ":6716,"comput":6717,"created":6718,"train":6719,"neg":6720,"Ġamount":6721,"spection":6722,"spaper":6723,"ĠtheĠtown":6724,"ĠthereĠwasĠ":6725,"ĠthereĠisĠa":6726,"sĠforĠyour":6727,"button":6728,"wasĠtheĠ":6729,"noĠlonger":6730,"oupleĠ":6731,"guard":6732,"ingĠoff":6733,"Ġimprov":6734,"tenanc":6735,"Ġtransform":6736,"generation":6737,"Ġscen":6738,"processĠof":6739,"ĠprovidesĠ":6740,"'veĠbeen":6741,"handleĠ":6742,"ĠbyĠtheĠ":6743,"putt":6744,"Ġfacil":6745,"ĠmustĠbeĠ":6746,"ÑģÑĤ":6747,"ĠawayĠfrom":6748,"certainlyĠ":6749,"appropriateĠ":6750,")Ġand":6751,",Ġas":6752,"ben":6753,"castĠ":6754,"circ":6755,"eâĢĻ":6756,"hill":6757,"luxur":6758,"nap":6759,"randĠ":6760,"tail":6761,"wonderful":6762,"yber":6763,"y.Ġi":6764,"Ġqual":6765,"Ġtex":6766,"inspir":6767,"Ġsam":6768,"Ġsong":6769,",Ġun":6770,"Ġcut":6771,"edĠintoĠ":6772,"edĠan":6773,"isĠon":6774,"leagu":6775,"esĠinclud":6776,"empl":6777,"ationĠisĠ":6778,"ingĠk":6779,"eĠtheĠin":6780,"haredĠ":6781,"Ġstuff":6782,"lyĠon":6783,"beingĠa":6784,"estimat":6785,"ĠshortĠ":6786,"yourĠ":6787,"pray":6788,"shmi":6789,"Ġcomfort":6790,"eĠmain":6791,"ĠthatĠareĠ":6792,"Ġexper":6793,"ultimateĠ":6794,"makes":6795,"Ġitself":6796,"ersĠto":6797,"achel":6798,"Ġleather":6799,"ĠaĠser":6800,"ĠaĠsimpleĠ":6801,"ĠtoĠsay":6802,"ĠtheseĠf":6803,"phil":6804,"ĠtheĠlong":6805,"ĠaĠmon":6806,"located":6807,"Ġgrand":6808,"Ġherit":6809,"atoryĠ":6810,"ternational":6811,"scen":6812,"guest":6813,"Ġdiseas":6814,".ĠweĠhaveĠ":6815,"Ġmany":6816,"Ġregister":6817,"Ġcrim":6818,"avoriteĠ":6819,"ĠanĠext":6820,"server":6821,"needĠtoĠbeĠ":6822,"heav":6823,"Ġretail":6824,"conutĠwater":6825,"'sĠin":6826,"49":6827,"65":6828,"bear":6829,"catch":6830,"doc":6831,"ied":6832,"sayĠ":6833,"eĠall":6834,"Ġty":6835,"Ġtrial":6836,"inv":6837,"incom":6838,"sĠif":6839,"sĠby":6840,"erĠor":6841,"ĠsingleĠ":6842,"Ġsociet":6843,"atom":6844,"atell":6845,"arrow":6846,"esĠar":6847,"es.ĠthisĠ":6848,",Ġis":6849,"thes":6850,"ilder":6851,"Ġwait":6852,"forĠa":6853,"Ġmother":6854,"ĠheĠsaid":6855,"Ġdark":6856,"idoĠs":6857,"Ġinvolv":6858,"iran":6859,"ĠofĠtheĠb":6860,"opinion":6861,"Ġtheor":6862,"pers":6863,"evil":6864,"Ġtruth":6865,"Ġvit":6866,"ĠisĠin":6867,"ĠtheĠcurrentĠ":6868,"eĠbook":6869,"Ġaccident":6870,"eĠhelp":6871,"ĠaĠbetter":6872,"Ġthroughout":6873,"ingĠph":6874,"coin":6875,"frontĠ":6876,"higher":6877,".ĠweĠareĠ":6878,"reeĠjay":6879,"ĠaĠweb":6880,"able.Ġ":6881,"ĠbrandĠ":6882,"designedĠtoĠ":6883,"weekend":6884,"Ġautosp":6885,"ottish":6886,"sĠbelow":6887,"imply":6888,"ĠmoreĠaboutĠ":6889,"meansĠ":6890,"university":6891,"currently":6892,"Ġteacher":6893,"knownĠasĠ":6894,"Ġagreement":6895,"held":6896,"Ġfeatures":6897,"uddh":6898,"Ġparticipant":6899,"extremelyĠ":6900,"ednesday":6901,"Ġdryer":6902,"Ġawesom":6903,"undredsĠof":6904,"gorith":6905,"alakshmi":6906,"reeĠjayalakshmi":6907,"reeĠjayalakshmiĠautosp":6908,"?âĢĿ":6909,"a)":6910,"bc":6911,"dg":6912,"dream":6913,"hir":6914,"ki":6915,"london":6916,"pull":6917,"ql":6918,"usĠin":6919,"woman":6920,"âĪ":6921,"ĠÎ":6922,"Ġengin":6923,"sĠher":6924,"ĠtheĠch":6925,"another":6926,"rear":6927,"atĠtheĠ":6928,"Ġanc":6929,".Ġ.Ġ":6930,"is,Ġ":6931,"Ġchair":6932,"ĠandĠsh":6933,"theĠb":6934,"elm":6935,"Ġwarm":6936,"Ġpal":6937,"Ġpriv":6938,"edĠ(":6939,"edĠdown":6940,"oward":6941,"olom":6942,"amental":6943,"ĠofĠc":6944,"ultĠof":6945,"exchang":6946,"executiveĠ":6947,"Ġlat":6948,"Ġlicens":6949,"provision":6950,"eĠtyp":6951,"riz":6952,"convention":6953,"construct":6954,".ĠtheĠn":6955,"ĠforĠa":6956,"ĠtrulyĠ":6957,"sĠandĠb":6958,"endar":6959,"Ġvan":6960,"lyingĠpart":6961,"ĠtheĠcr":6962,"indian":6963,"Ġjun":6964,"Ġextra":6965,"Ġexplor":6966,"eĠpat":6967,"ĠtheĠdesign":6968,"ersey":6969,"ĠleaveĠ":6970,"192":6971,"provideĠa":6972,"ethodĠ":6973,"e-mail":6974,"Ġyears.Ġ":6975,"ĠtheyâĢĻreĠ":6976,"Ġdisplay":6977,"appear":6978,"sĠfromĠ":6979,".ĠhereĠ":6980,"structor":6981,"filiat":6982,"oftware":6983,"ĠaĠlotĠ":6984,"ativelyĠ":6985,"Ġthere'sĠ":6986,"serviceĠ":6987,"largeĠ":6988,"bably":6989,"ynd":6990,"industry":6991,"Ġmanagement":6992,"valid":6993,"urnitur":6994,"Ġperformanc":6995,"spectiveĠ":6996,"eĠmonth":6997,"critical":6998,"ĠleftĠ":6999,")Ġin":7000,".ĠthankĠyou":7001,".Ġalthough":7002,"350":7003,"dict":7004,"favorit":7005,"hot":7006,"heat":7007,"lay":7008,"moment":7009,"small":7010,"uj":7011,"uin":7012,"west":7013,"winn":7014,"Ġtor":7015,"Ġaid":7016,"Ġaustralia":7017,"oneĠb":7018,"Ġsing":7019,"Ġsix":7020,"aroundĠ":7021,"esâĢĻ":7022,"ĠandĠitĠ":7023,"Ġbel":7024,"isĠin":7025,"Ġheav":7026,"Ġdegre":7027,"emper":7028,"Ġinstruction":7029,"amb":7030,"ĠtoĠtheir":7031,"ingĠv":7032,"ĠofĠtheir":7033,"resist":7034,"Ġnut":7035,"Ġnav":7036,"proof":7037,"eĠsal":7038,"andĠtheĠ":7039,"ive,Ġ":7040,"essel":7041,"estation":7042,"Ġformer":7043,"Ġaccomplish":7044,"ityĠisĠ":7045,"ubject":7046,"ĠtheĠpre":7047,"ĠiĠam":7048,"ĠapartmentĠ":7049,"assiveĠ":7050,"ersĠb":7051,"ers,ĠandĠ":7052,"likely":7053,"incor":7054,"evenĠthough":7055,"becam":7056,"flavor":7057,"ĠtheĠgovern":7058,"Ġanyway":7059,"legisl":7060,"facilit":7061,"ĠweĠareĠ":7062,"importanceĠof":7063,",ĠyouĠwill":7064,"studentsĠ":7065,"manyĠpeopleĠ":7066,"Ġhigh-":7067,"ointĠof":7068,"valueĠof":7069,"houseĠ":7070,"ibility":7071,"ibilityĠof":7072,"Ġsignal":7073,"ĠÐ¿":7074,"possibleĠtoĠ":7075,"ĠduringĠtheĠ":7076,"industrial":7077,"Ġcollabor":7078,"ĠthreeĠyear":7079,"esĠthatĠareĠ":7080,"emotional":7081,"ĠabsolutelyĠ":7082,"ervisor":7083,"idoĠserver":7084,"reeĠjayalakshmiĠautospin":7085,"%.":7086,".Ġst":7087,"47":7088,"broad":7089,"bedroom":7090,"deep":7091,"eetĠ":7092,"his":7093,"myĠs":7094,"machin":7095,"wal":7096,"weĠs":7097,"westĠ":7098,"Ġquality":7099,"eĠcan":7100,"Ġthick":7101,"eriesĠ":7102,"enth":7103,"enableĠ":7104,"recommendĠ":7105,"Ġson":7106,"Ġsend":7107,"Ġsimilar":7108,"ateĠof":7109,"ingĠanyĠ":7110,"along":7111,"esĠtoĠtheĠ":7112,"Ġcourt":7113,"elessĠ":7114,"Ġwer":7115,"Ġwinter":7116,"Ġput":7117,"Ġpool":7118,"Ġmis":7119,"Ġbest":7120,"Ġbowl":7121,"Ġhold":7122,"Ġhospital":7123,"ecos":7124,"Ġfix":7125,"ido":7126,"ĠtoĠthisĠ":7127,"ĠtoĠtheĠd":7128,"ingĠitsĠ":7129,"Ġgutter":7130,"restĠof":7131,"Ġlast":7132,"eĠtogether":7133,"s.Ġ\"":7134,"essageĠ":7135,"sĠofĠthisĠ":7136,"Ġtran":7137,"Ġshot":7138,"clip":7139,"ĠallĠyour":7140,"Ġround":7141,"ĠatĠtheĠsameĠtim":7142,"ĠasĠan":7143,"eĠdata":7144,"ized":7145,"workingĠon":7146,"Ġjourne":7147,"herit":7148,"eĠpower":7149,"compens":7150,"component":7151,"Ġplus":7152,"makeĠitĠ":7153,"ĠtwoĠs":7154,"Ġneighbor":7155,"preventĠ":7156,"ĠaĠmajor":7157,"ology":7158,"Ġcontact":7159,"eĠwithĠtheĠ":7160,"rativeĠ":7161,"Ġattach":7162,"Ġavoid":7163,"noon":7164,"attoo":7165,"ified":7166,"experienceĠ":7167,"itiesĠof":7168,"continueĠtoĠ":7169,"holiday":7170,"connectĠ":7171,"ennisĠ":7172,"Ġprofil":7173,"Ġleadership":7174,"ĠwantĠto":7175,"discus":7176,"ĠpropertyĠ":7177,"Ġprotect":7178,"ĠtermsĠof":7179,"regional":7180,"Ġclassic":7181,"sequenc":7182,"ĠgovernmentĠ":7183,"clinical":7184,"tubeĠ":7185,"alreadyĠ":7186,"regnanc":7187,"igenousĠ":7188,"'networkĠautoĠsource,Ġinc.Ġ'":7189,")Ġor":7190,",ĠasĠwellĠasĠ":7191,"?ĠwhatĠ":7192,"gat":7193,"labor":7194,"nr":7195,"psĠ":7196,"peac":7197,"uro":7198,"wild":7199,"Ġaverag":7200,"inem":7201,"Ġthird":7202,"environmentĠ":7203,"Ġsaw":7204,"Ġsecurity":7205,"ing-":7206,"Ġanton":7207,".ĠâĢ¢":7208,"es;":7209,",Ġus":7210,",Ġetc":7211,"Ġcity":7212,"Ġcoffe":7213,"Ġp.m":7214,"ĠtoĠgiveĠ":7215,"chester":7216,"Ġmc":7217,"Ġmp":7218,"ley":7219,"olph":7220,"urfac":7221,"illa":7222,"ageĠandĠ":7223,"ageĠfor":7224,"Ġnm":7225,"ĠredĠ":7226,"umstanc":7227,"ence.Ġ":7228,"Ġone-":7229,"grant":7230,"grav":7231,"eĠinĠyour":7232,"eĠinto":7233,"Ġvict":7234,"Ġrail":7235,"Ġrank":7236,"Ġchi":7237,"Ġchin":7238,"Ġabus":7239,"workingĠwith":7240,"needĠto":7241,"assess":7242,"ogu":7243,"ure.":7244,"ersĠon":7245,"moreĠs":7246,"ĠtheĠtechn":7247,"airyĠbeam":7248,"ĠneedĠto":7249,"siteĠ":7250,"faction":7251,"abilities":7252,"able,Ġ":7253,"equival":7254,"landscap":7255,":Ġ\"":7256,"ĠinterestĠ":7257,"Ġadvantag":7258,"Ġroad":7259,"Ġinstitution":7260,"sĠaround":7261,"ussian":7262,"protectĠ":7263,"Ġdownload":7264,"ĠserveĠ":7265,"ĠseriesĠ":7266,"ĠaccordingĠtoĠtheĠ":7267,"ĠÐ²":7268,"ĠintoĠtheĠ":7269,"directlyĠ":7270,"friendlyĠ":7271,"Ġantiqu":7272,"ĠsmartĠ":7273,"anguageĠ":7274,"Ġhaven":7275,"uniqueĠ":7276,"dependingĠon":7277,"Ġfocus":7278,"Ġcheap":7279,"Ġthursday":7280,"idoĠuaf":7281,"Ġtuesday":7282,"Ġarthrit":7283,"-year-oldĠ":7284,"badĠ":7285,"degre":7286,"gasĠ":7287,"jump":7288,"lan":7289,"lass":7290,"lunch":7291,"meal":7292,"multipleĠ":7293,"ni":7294,"och":7295,"pageĠ":7296,"spr":7297,"screen":7298,"ui":7299,"sĠbefor":7300,"ertĠ":7301,"ena":7302,"revenu":7303,"Ġself":7304,"atingĠtheĠ":7305,"itz":7306,"itĠall":7307,"itnessĠ":7308,"ary.Ġ":7309,"esus":7310,"ĠandĠk":7311,"ĠwoodĠ":7312,"eder":7313,"edicat":7314,"ĠhandĠ":7315,"Ġdest":7316,"aceĠ":7317,"imon":7318,"esĠhaveĠ":7319,"eta":7320,"ingĠoutĠof":7321,"advis":7322,"ifĠitĠ":7323,"ĠofĠg":7324,"ĠgaveĠ":7325,"agar":7326,"itĠfrom":7327,"Ġnecess":7328,"Ġstream":7329,"eĠso":7330,"queen":7331,"conversation":7332,"asĠwell":7333,"apon":7334,"ĠtheĠschool":7335,"cler":7336,"Ġvia":7337,"should":7338,"ableĠof":7339,"weak":7340,"ailor":7341,"recently":7342,"e.com":7343,"Ġapple":7344,"ĠspendĠ":7345,"ibl":7346,"compos":7347,"ĠtimeĠfor":7348,"Ġthem.Ġ":7349,"ostlyĠ":7350,"awn":7351,"Ġacceler":7352,"president":7353,"remier":7354,"190":7355,"ĠthroughoutĠ":7356,"mindĠ":7357,"ĠtheĠlif":7358,"endĠup":7359,"ordan":7360,"eliveryĠ":7361,"ĠtheĠgreatĠ":7362,"ificateĠ":7363,"Ġactually":7364,"everyon":7365,"eadlin":7366,"Ġapplic":7367,"some":7368,"conserv":7369,"ĠboardĠ":7370,"Ġfinal":7371,"lift":7372,"becauseĠitĠ":7373,"Ġphon":7374,"Ġphotograph":7375,"designedĠfor":7376,"exceptĠ":7377,"reput":7378,"grown":7379,"yĠcouncil":7380,"ibilityĠ":7381,"Ġdrug":7382,"varietyĠof":7383,"gotten":7384,"burg":7385,"interestedĠin":7386,"latestĠ":7387,"umerousĠ":7388,"hydr":7389,"ĠgiveĠyou":7390,"ĠvehicleĠ":7391,"ustainableĠ":7392,"immediatelyĠ":7393,"-the-":7394,"âĤ¬":7395,"gorithm":7396,"ecosystem":7397,"-h":7398,"?Ġhow":7399,"birth":7400,"diction":7401,"fitĠ":7402,"iĠthink":7403,"jon":7404,"jun":7405,"japan":7406,"nal":7407,"inĠour":7408,"insuranc":7409,"sĠunder":7410,"eness":7411,"ane":7412,"Ġsec":7413,"ingĠasĠ":7414,"ingĠabout":7415,"ituation":7416,"aries":7417,"esĠtoĠs":7418,"esthetic":7419,"icial":7420,"Ġcav":7421,"Ġpress":7422,"ĠtoĠbr":7423,"china":7424,"chosen":7425,"Ġmac":7426,"Ġbath":7427,"ĠheldĠ":7428,"Ġdev":7429,"Ġdeep":7430,"usal":7431,"ationsĠandĠ":7432,"allel":7433,"Ġgain":7434,"express":7435,"execut":7436,"ositiveĠ":7437,"Ġlas":7438,"ĠlessĠ":7439,"Ġred":7440,"aintĠ":7441,"constant":7442,"s.Ġd":7443,"s.Ġour":7444,"s.ĠâĢľ":7445,"e.ĠbutĠ":7446,"Ġfort":7447,"Ġtravell":7448,"yourĠf":7449,"ocean":7450,"sĠandĠp":7451,"iphon":7452,"ĠtheĠcount":7453,"eĠdur":7454,"eĠdetail":7455,"Ġjournal":7456,"intag":7457,"compared":7458,"ĠplayĠ":7459,"obl":7460,"egal":7461,".ĠiâĢĻm":7462,"spar":7463,"spend":7464,"ingĠsoĠ":7465,"uggl":7466,"eĠtooĠ":7467,"Ġresident":7468,"pre-":7469,"ing,ĠbutĠ":7470,"ritish":7471,"ĠbeingĠ":7472,"facil":7473,"ĠtheĠwall":7474,"ĠtypicallyĠ":7475,"Ġlife.Ġ":7476,"glas":7477,"leader":7478,"sĠcanĠbeĠ":7479,"greater":7480,"ĠappropriateĠ":7481,"Ġaccessor":7482,"rightĠnow":7483,"aptop":7484,"Ġpattern":7485,"opportunities":7486,"Ġintellig":7487,"Ð¾Ð²":7488,"Ġdidn'tĠ":7489,"ĠadvancedĠ":7490,"Ġalternativ":7491,"-timeĠ":7492,"ĠarenâĢĻtĠ":7493,"-sh":7494,"01":7495,"69":7496,"bound":7497,"burn":7498,"court":7499,"de":7500,"e,ĠsoĠ":7501,"hen":7502,"han":7503,"hang":7504,"hug":7505,"kick":7506,"metĠ":7507,"mountain":7508,"pi":7509,"pan":7510,"rust":7511,"sett":7512,"several":7513,"tleĠ":7514,"xx":7515,"Ø§":7516,"Ġ#":7517,"eĠv":7518,"eĠour":7519,"ĠaĠk":7520,"erĠisĠ":7521,"reward":7522,"ateĠtoĠ":7523,"ate.":7524,"ing.Ġs":7525,"ingĠwork":7526,"it!":7527,".ĠbyĠ":7528,".Ġit'sĠ":7529,"arc":7530,"esĠat":7531,",Ġwe":7532,"island":7533,"ĠandĠwill":7534,"Ġpath":7535,"edĠst":7536,"ĠtoĠknow":7537,"Ġbre":7538,"Ġbenef":7539,"Ġden":7540,"lesĠof":7541,"Ġfeet":7542,"imiz":7543,"etch":7544,"ĠtoĠshow":7545,"leĠin":7546,"ador":7547,"ĠofĠin":7548,"uly":7549,"eĠtheseĠ":7550,"Ġnear":7551,"Ġstyle":7552,"Ġlength":7553,"eĠsaidĠ":7554,"e.ĠyouĠcan":7555,"ĠtheĠsup":7556,"ĠtheĠshow":7557,"ĠtheĠspec":7558,"ĠtrustĠ":7559,"ateĠa":7560,"ateĠwith":7561,"ĠadultĠ":7562,"eĠmov":7563,",ĠsuchĠasĠ":7564,"Ġjo":7565,"eĠair":7566,"eĠarea":7567,"eĠcolor":7568,"manual":7569,"Ġ($":7570,"eĠpost":7571,"ingĠarea":7572,"eĠfac":7573,"Ġital":7574,"ersâĢĻ":7575,"ĠaffectĠ":7576,"ĠtoĠsaveĠ":7577,"goingĠon":7578,"verseĠ":7579,"ĠaĠmember":7580,"ritor":7581,"itsĠown":7582,"ĠaĠdifferentĠ":7583,"diet":7584,"Ġappli":7585,"undayĠ":7586,"unte":7587,"ĠaĠweek":7588,"Ġenforc":7589,"ingĠhim":7590,"Ġphysical":7591,"Ġscot":7592,"ĠdecemberĠ":7593,"eĠtrain":7594,"happyĠ":7595,"checkĠout":7596,"iativ":7597,"wardĠtoĠ":7598,"ĠdownloadĠ":7599,"credit":7600,"ĠthereâĢĻsĠa":7601,"ĠaroundĠtheĠ":7602,"serveĠ":7603,"olitic":7604,"Ġcentral":7605,"contactĠus":7606,"advanc":7607,"Ð½Ð¸":7608,"relatedĠtoĠ":7609,"Ġ].":7610,"ĠaĠparticular":7611,"practical":7612,",ĠtheĠd":7613,",Ġthey":7614,".Ġan":7615,".Ġalso":7616,"04":7617,"41":7618,"aug":7619,"broken":7620,"demonstr":7621,"fol":7622,"hospital":7623,"lag":7624,"oem":7625,"pu":7626,"rd":7627,"risĠ":7628,"rific":7629,"Ġep":7630,"Ġestablish":7631,"iness":7632,"Ġthom":7633,"sĠbutĠ":7634,"Ġsil":7635,"ingsĠof":7636,"ingĠwasĠ":7637,"ingĠhow":7638,"Ġcapt":7639,"ĠandĠitsĠ":7640,"thma":7641,"iltĠ":7642,"elv":7643,"forĠexample":7644,"ĠtoĠcom":7645,"Ġmax":7646,"Ġber":7647,"ĠbadĠ":7648,"Ġbreath":7649,"ĠdailyĠ":7650,"Ġdollar":7651,"using":7652,"Ġfir":7653,"Ġfast":7654,"esĠinĠ":7655,"embl":7656,"ations,Ġ":7657,"ado":7658,"advertis":7659,"aymentĠ":7660,"exclusiveĠ":7661,"Ġnon":7662,"ĠstreetĠ":7663,"ĠandĠtheir":7664,"aker":7665,"entĠwith":7666,"rivers":7667,"Ġtheat":7668,"e.Ġh":7669,"estĠandĠ":7670,"s,Ġetc":7671,"ĠforĠm":7672,"worry":7673,"ĠtrueĠ":7674,"octoberĠ":7675,"portĠof":7676,"ĠprobablyĠ":7677,"eĠint":7678,"Ġconduct":7679,"Ġvir":7680,"s>Ġ<s>Ġm":7681,"Ġrid":7682,"Ġrub":7683,"liber":7684,"Ġchicag":7685,"eĠmostĠ":7686,"format":7687,"actical":7688,"recordĠ":7689,"Ġkor":7690,"Ġkill":7691,"edĠback":7692,"ĠisĠan":7693,"positiveĠ":7694,"news":7695,"ĠaĠprof":7696,"argetĠ":7697,"ĠtheĠhistor":7698,"select":7699,"ĠaĠquick":7700,"seek":7701,"direction":7702,"ĠtheĠnumberĠof":7703,"ĠanywhereĠ":7704,"ĠanythingĠ":7705,"craftĠ":7706,"Ġopt":7707,"extend":7708,"Ġavail":7709,"neededĠtoĠ":7710,"givesĠ":7711,"repeat":7712,"limitedĠ":7713,"tech":7714,"Ġinstitut":7715,"freedom":7716,"ĠsubjectĠ":7717,"Ġdrink":7718,"lesson":7719,"ifyĠthem":7720,"metadata":7721,"Ġeverything":7722,"ĠtellĠyou":7723,"ĠtogetherĠwith":7724,"094":7725,"dueĠto":7726,"concept":7727,"Ġcapital":7728,"ĠpaymentĠ":7729,"washington":7730,"atisfaction":7731,"association":7732,"ĠfrontĠof":7733,"ĠjanuaryĠ":7734,"Ġtransportation":7735,"sĠavailableĠ":7736,"Ġbehind":7737,"ĠapproximatelyĠ":7738,",ĠsheĠ":7739,"250":7740,"85":7741,"?Ġy":7742,"aĠ(":7743,"bell":7744,"cross":7745,"dig":7746,"greg":7747,"ians":7748,"mw":7749,"mult":7750,"nd":7751,"sight":7752,"wind":7753,"y.Ġs":7754,"Ġver":7755,"eĠwhen":7756,"Ġtemp":7757,"inf":7758,"sĠl":7759,"ĠtheĠyear":7760,"aniel":7761,"rein":7762,"ĠsayĠ":7763,"ĠsoundĠ":7764,"ĠsiteĠ":7765,"Ġsuccessful":7766,"ingĠprocess":7767,".ĠjustĠ":7768,",ĠpleaseĠ":7769,"ĠcostĠ":7770,"omeg":7771,"thirdĠ":7772,"thĠcentur":7773,"yout":7774,"Ġpin":7775,"edĠafter":7776,"Ġmoment":7777,"Ġbus":7778,"ĠbyĠs":7779,"ĠhardĠ":7780,"Ġdinner":7781,"urder":7782,"Ġinnov":7783,"ationsĠof":7784,"ĠtoĠall":7785,"eĠtoday":7786,"ĠthatĠheĠ":7787,"eĠsens":7788,"eĠofĠtheĠm":7789,".ĠtheĠd":7790,".ĠtheĠf":7791,"s.ĠyouĠcan":7792,"perc":7793,"ĠonĠthisĠ":7794,"ocus":7795,"buf":7796,"berryĠ":7797,"ĠtheĠman":7798,"ĠtheĠmajor":7799,"ĠtheĠfield":7800,"ĠtheĠfilm":7801,"intention":7802,"Ġexplain":7803,"s.com":7804,"Ġlog":7805,"eĠpolic":7806,"createdĠ":7807,"iesĠwith":7808,"ogen":7809,"ersĠ(":7810,"ĠitsĠs":7811,".ĠiĠwasĠ":7812,"es,Ġinclud":7813,"es.Ġin":7814,"sĠso":7815,"ĠacceptĠ":7816,"ingĠinĠ":7817,"Ġresist":7818,"ĠtheĠhelp":7819,"empower":7820,"ĠaboutĠyour":7821,"lookingĠtoĠ":7822,"annual":7823,"includeĠ":7824,"requestĠ":7825,"qualification":7826,"highestĠ":7827,".ĠweĠwill":7828,"attleĠ":7829,"surv":7830,"justic":7831,"iodĠof":7832,"glass":7833,"laugh":7834,"chief":7835,"holder":7836,"crediblyĠ":7837,"initial":7838,"letĠusĠ":7839,"collection":7840,"Ġtowel":7841,"fullĠof":7842,"goingĠtoĠbeĠ":7843,"foundation":7844,"sĠatĠtheĠ":7845,"iii":7846,"ifficultĠ":7847,"efficientĠ":7848,"requiredĠtoĠ":7849,"Ġinvestment":7850,"delic":7851,"Ġlisten":7852,"behindĠ":7853,"Ġappointment":7854,"victor":7855,"straight":7856,"iceĠcream":7857,",Ġthough":7858,".h":7859,"/s":7860,"87":7861,"byĠs":7862,"caseĠ":7863,"cameĠ":7864,"dam":7865,"e:Ġ":7866,"gressĠ":7867,"jud":7868,"len":7869,"ness.Ġ":7870,"rdĠ":7871,"round":7872,"session":7873,"sinceĠ":7874,"uz":7875,"ÑĮ":7876,"ĠaĠspecial":7877,"Ġagric":7878,"Ġthorough":7879,"sĠw":7880,"sĠoutĠ":7881,"sĠwasĠ":7882,"onom":7883,"onĠthisĠ":7884,"realĠestateĠ":7885,"ara":7886,"arian":7887,"esk":7888,",ĠitâĢĻsĠ":7889,"iclesĠ":7890,"ĠandĠre":7891,"Ġwast":7892,"style":7893,"edĠunder":7894,"edĠall":7895,"ed.Ġs":7896,"ĠtoĠbeĠs":7897,"root":7898,"cha":7899,"Ġblock":7900,"Ġbeaut":7901,"ĠbloodĠ":7902,"Ġbrother":7903,"usingĠtheĠ":7904,"account":7905,"Ġfair":7906,"igu":7907,"ĠinĠmyĠ":7908,"ĠofĠmyĠ":7909,"ulin":7910,"Ġgall":7911,"Ġgerman":7912,"itĠcan":7913,"ourth":7914,"Ġnext":7915,"Ġand/or":7916,"akeholder":7917,"progress":7918,"entĠon":7919,"quant":7920,"ridĠ":7921,"eĠoffic":7922,"oost":7923,"ence,Ġ":7924,"Ġtra":7925,"clientĠ":7926,"ackĠof":7927,"Ġcompar":7928,"Ġorganiz":7929,",Ġsom":7930,"Ġcanada":7931,"ĠtheĠpurpos":7932,"Ġexchang":7933,"Ġspe":7934,"eĠpoint":7935,"track":7936,"Ġtimes":7937,"ĠtimeĠto":7938,"ĠplusĠ":7939,"ersĠthatĠ":7940,"england":7941,"ienceĠ":7942,"ifĠyouĠhaveĠ":7943,"eĠforĠ":7944,"yĠofĠ":7945,"ingĠintoĠ":7946,"193":7947,"ĠaĠcar":7948,"lookĠatĠ":7949,"ologist":7950,"arioĠ":7951,"carryĠ":7952,"Ġsome":7953,"storyĠ":7954,"consin":7955,"corporateĠ":7956,"ocket":7957,"ingĠhigh":7958,"ĠwhatĠisĠ":7959,"Ġoutdoor":7960,"ĠasĠwellĠasĠa":7961,",ĠyouâĢĻll":7962,"ĠatĠtheĠendĠof":7963,"Ġairport":7964,"Ġregulation":7965,"filter":7966,"Ġroof":7967,"himself":7968,"largestĠ":7969,"Ġfacebook":7970,"esĠsuchĠasĠ":7971,"lovelyĠ":7972,"ĠincludesĠ":7973,"ĠbeforeĠ":7974,"Ġcountri":7975,"Ġtempor":7976,"Ġgreater":7977,"ĠeasilyĠ":7978,"regardlessĠof":7979,"domin":7980,"desp":7981,"iami":7982,"environmental":7983,"Ġbeginn":7984,"ĠdidĠnotĠ":7985,"Ġextrem":7986,"entertainment":7987,"effectivelyĠ":7988,"Ġcareer":7989,"ĠfutureĠ":7990,"contractĠ":7991,"ĠareasĠof":7992,"ĠtheĠdevelopmentĠof":7993,"ĠtheĠgeneral":7994,")ĠtoĠ":7995,",ĠanĠ":7996,",Ġalthough":7997,".Ġthes":7998,".Ġanother":7999,"07":8000,"aa":8001,"bour":8002,"cm":8003,"cancer":8004,"eover":8005,"fli":8006,"fire":8007,"gorg":8008,"iĠwill":8009,"mel":8010,"mok":8011,"paint":8012,"rh":8013,"sen":8014,"sec":8015,"yellow":8016,"Ã¼":8017,"Ġtag":8018,"sĠdur":8019,"oudĠof":8020,"aria":8021,",Ġwhil":8022,"isedĠ":8023,"Ġwonder":8024,"Ġpast":8025,"forward":8026,"stead":8027,"edĠabout":8028,"ĠtoĠensur":8029,"Ġmag":8030,"Ġbroad":8031,"ĠhotĠ":8032,"Ġdepend":8033,"usi":8034,"useĠa":8035,"accur":8036,"terior":8037,"ayment":8038,"ĠgoogleĠ":8039,"exactĠ":8040,"ably":8041,"Ġnic":8042,"Ġstra":8043,"Ġstyl":8044,"Ġli":8045,"Ġlayer":8046,"eĠtook":8047,"sĠoffic":8048,"sĠam":8049,"s,Ġm":8050,"classĠ":8051,"Ġyourself":8052,"Ġrain":8053,"Ġcan'tĠ":8054,"intens":8055,"ĠiĠwasĠ":8056,"Ġspeed":8057,"comple":8058,"creaseĠ":8059,"edĠinĠthisĠ":8060,"Ġisrael":8061,"easy":8062,"Ġleav":8063,"whenĠtheĠ":8064,"booĠ":8065,"ĠthroughoutĠtheĠ":8066,"previousĠ":8067,"financ":8068,"whatĠweĠ":8069,"getsĠ":8070,"sĠonĠyour":8071,"see":8072,"ingĠbutĠ":8073,"ĠyearsĠago":8074,"ario":8075,"identifyĠ":8076,"ĠstudyĠ":8077,"highlight":8078,"ĠweĠar":8079,"surpris":8080,"offeeĠ":8081,"beforeĠyou":8082,"ingĠtogether":8083,"ĠallowsĠyou":8084,"ĠitsĠown":8085,"Ġawaren":8086,"studentĠ":8087,"Ġguard":8088,"ĠlikeĠtheĠ":8089,"ĠdoĠi":8090,"ĠalongĠtheĠ":8091,"âĢĻveĠbeen":8092,"loveĠtoĠ":8093,"ĠaccessĠtoĠ":8094,"Ġplayer":8095,"Ġleader":8096,"whetherĠyou":8097,"eĠspac":8098,"ĠvarietyĠof":8099,"ĠpersonalĠdata":8100,"sĠlikeĠa":8101,"olidayĠ":8102,"ĠtooĠmuch":8103,"Ġpassion":8104,"u.s.":8105,"ĠtoĠseeĠtheĠ":8106,"government":8107,"Ġbegan":8108,"iplin":8109,"ĠuniqueĠ":8110,"eligibleĠ":8111,"aryĠschool":8112,"Ġappreciat":8113,"block":8114,"cityĠ":8115,"doubt":8116,"fitt":8117,"lect":8118,"nessĠof":8119,"pil":8120,"pump":8121,"purchaseĠ":8122,"rink":8123,"sav":8124,"successful":8125,"uv":8126,"voc":8127,"wiseĠ":8128,"Ñħ":8129,"Ġenc":8130,"Ġtable":8131,"sĠshouldĠ":8132,"Ġshap":8133,"ĠseptemberĠ":8134,"yĠp":8135,".ĠnotĠ":8136,".Ġhowever,Ġ":8137,"around":8138,"arilyĠ":8139,"isĠan":8140,"isĠthatĠ":8141,"Ġclin":8142,"ĠcaseĠ":8143,"ĠandĠn":8144,"ĠandĠun":8145,"ĠandĠhisĠ":8146,"ĠpageĠ":8147,"chocol":8148,"ĠmoveĠ":8149,"isĠnot":8150,"ĠheadĠ":8151,"Ġdescription":8152,"urd":8153,"emĠcell":8154,"etition":8155,"etric":8156,"ationĠand":8157,"ingĠun":8158,"whoĠs":8159,"Ġalign":8160,"aylor":8161,"Ġgather":8162,"withĠyou":8163,"comingĠ":8164,"eĠturn":8165,"Ġreplac":8166,"s.Ġyou":8167,"periodĠ":8168,"ucial":8169,"e.Ġon":8170,"apor":8171,"sĠofĠm":8172,"sĠagain":8173,"Ġforeign":8174,"antly":8175,"ĠasĠpartĠof":8176,"Ġvoic":8177,"odium":8178,"otherwis":8179,"canĠhelp":8180,"ichel":8181,"ĠisĠnot":8182,"eĠmarket":8183,"Ġabov":8184,"eĠdi":8185,"eĠdevic":8186,"Ġspok":8187,"Ġspread":8188,"yearĠ":8189,"eĠpark":8190,"traction":8191,"contribution":8192,"yĠservic":8193,"urelyĠ":8194,"command":8195,"ĠthereĠwereĠ":8196,"brit":8197,"eather":8198,"interpret":8199,"Ġafternoon":8200,"provider":8201,"flictĠ":8202,"ingĠpeopleĠ":8203,"donesia":8204,"esĠofĠ":8205,"ĠaĠlif":8206,"Ġseen":8207,",ĠandĠthen":8208,"scal":8209,"carry":8210,"coal":8211,"Ġperiod":8212,"Ġrecover":8213,"Ġapplianc":8214,"ientist":8215,"Ġcommitment":8216,"becauseĠtheĠ":8217,"institut":8218,"Ġbusiness.Ġ":8219,"stateĠof":8220,"ĠautoĠ":8221,"depos":8222,"ĠlookĠatĠ":8223,"Ġparent":8224,"wayĠof":8225,"ĠeachĠother":8226,"centr":8227,"Ġdraw":8228,"familiar":8229,"embly":8230,"ĠfreeĠtoĠ":8231,"ĠtoĠmakeĠ":8232,"ĠassociatedĠwith":8233,"Ġprotocol":8234,"ĠcreativeĠ":8235,"capital":8236,"printableĠ":8237,"Ġmyself":8238,"wholes":8239,"encourageĠ":8240,"primaryĠ":8241,"espit":8242,"usbandĠ":8243,"uafv":8244,"Ġadvisor":8245,"ĠsectionĠ":8246,"chanism":8247,"Ġsaturday":8248,"âĪĴ":8249,");":8250,",Ġto":8251,",ĠtheĠp":8252,".s.Ġ":8253,".ĠanĠ":8254,"ares":8255,"bad":8256,"cutĠ":8257,"dark":8258,"doctor":8259,"gun":8260,"keptĠ":8261,"liter":8262,"nger":8263,"oard":8264,"sent":8265,"sĠtheĠs":8266,"sman":8267,"yĠtheĠ":8268,"zon":8269,"ingĠplac":8270,".Ġor":8271,".ĠhisĠ":8272,".Ġpleas":8273,",ĠnoĠ":8274,"icienc":8275,"Ġcamer":8276,"Ġcandid":8277,"Ġpot":8278,"forum":8279,"edĠtheĠc":8280,"edĠtheĠp":8281,"chanc":8282,"Ġbott":8283,"Ġbrown":8284,"Ġdifferent":8285,"verify":8286,"Ġinjur":8287,"Ġarr":8288,"Ġgift":8289,"age.":8290,"itĠon":8291,"osoph":8292,"Ġstopp":8293,"Ġlower":8294,"eĠtalk":8295,"eĠofĠour":8296,"consc":8297,"bean":8298,"sĠofĠtheĠc":8299,"s,Ġi":8300,"ĠwithĠour":8301,"ĠasĠpossible":8302,"Ġacqu":8303,"artridg":8304,"haveĠto":8305,"printer":8306,"Ġren":8307,"Ġrather":8308,"eĠmay":8309,"eĠmember":8310,"formĠof":8311,"eĠdid":8312,"eĠtoĠyour":8313,"worksĠ":8314,"ĠtheĠbottom":8315,"here.":8316,"s.ĠtheyĠ":8317,"Ġlock":8318,"Ġsponsor":8319,"ĠtheĠdi":8320,"ĠtheĠdecision":8321,"ĠtimeĠwith":8322,"ĠtimeĠyou":8323,"needĠfor":8324,"Ġplug":8325,"Ġaffair":8326,"oneĠwith":8327,"ĠaĠpar":8328,"ĠaĠpower":8329,"Ġresolution":8330,"yster":8331,"ĠtheĠliv":8332,"ikeĠ":8333,"ĠaĠman":8334,"lett":8335,"Ġgraph":8336,"undertak":8337,"everythingĠ":8338,"Ġperhap":8339,"ingĠdis":8340,"related":8341,"electedĠ":8342,"ĠaĠhand":8343,"Ġcommission":8344,"profitĠ":8345,"eĠshop":8346,"insteadĠof":8347,"ĠawardĠ":8348,"itiesĠfor":8349,"studyĠ":8350,".ĠyouĠwill":8351,"ĠâĢĵĠ":8352,"eĠandĠtheĠ":8353,"Ġtraining":8354,"Ġfriday":8355,"checkĠoutĠ":8356,",ĠweĠareĠ":8357,"techn":8358,"180":8359,"responsibleĠ":8360,"ĠtodayâĢĻsĠ":8361,"edĠupon":8362,"Ġelection":8363,"ĠwayĠtoĠ":8364,"collabor":8365,"coloringĠp":8366,"applic":8367,"ĠcountyĠ":8368,"eĠsometh":8369,"christmasĠ":8370,"promis":8371,"Ġglas":8372,"examin":8373,"necessary":8374,"Ġheart":8375,"ĠcontinueĠtoĠ":8376,"packag":8377,"improvement":8378,"eĠdoes":8379,"ĠcustomersĠ":8380,"expertis":8381,"Ġmuseum":8382,"perhapsĠ":8383,"Ġafrican":8384,"eĠminister":8385,"Ġdatabas":8386,"ginia":8387,"Ġchemical":8388,"virtual":8389,"!\"":8390,")Ġfor":8391,",ĠatĠ":8392,",ĠaĠs":8393,"bak":8394,"counter":8395,"dateĠ":8396,"harm":8397,"iac":8398,"jer":8399,"juneĠ":8400,"lord":8401,"languag":8402,"mp":8403,"odĠof":8404,"sound":8405,"winter":8406,"xiet":8407,"ython":8408,"inĠt":8409,"Ġthread":8410,"sĠwhereĠ":8411,"tĠs":8412,"repl":8413,"Ġspl":8414,"Ġsuccess":8415,"Ġselection":8416,"ates,Ġ":8417,"ingĠstrateg":8418,"itĠandĠ":8419,"alesĠ":8420,"altern":8421,"isit":8422,"Ġcancer":8423,"theĠp":8424,"Ġwis":8425,"Ġpad":8426,"Ġpopular":8427,"stitut":8428,"ed?":8429,"Ġmicro":8430,"âĢ²":8431,"Ġdog":8432,"Ġdrop":8433,"Ġdomain":8434,"le-":8435,"le.Ġ":8436,"usingĠ":8437,"acific":8438,"ola":8439,"olin":8440,"olidĠ":8441,"ureĠtheĠ":8442,"ĠfebruaryĠ":8443,"eton":8444,"aminĠ":8445,"ambooĠ":8446,"ĠtoĠt":8447,"ĠtoĠst":8448,"ĠtoĠachieveĠ":8449,"undr":8450,"ingĠi":8451,"whos":8452,"ulat":8453,"abb":8454,"withĠa":8455,"Ġlunch":8456,"progres":8457,"eĠtoldĠ":8458,"ĠthatĠh":8459,"concret":8460,".ĠtheĠb":8461,"s.Ġif":8462,"ively":8463,"istry":8464,"ĠwhiteĠ":8465,"grandĠ":8466,"bug":8467,"Ġveg":8468,"otherĠhand":8469,"Ġrul":8470,"Ġatl":8471,"ĠatĠany":8472,"eĠmaterial":8473,"ĠtheĠfloor":8474,",Ġsp":8475,"eĠdef":8476,"mann":8477,"itional":8478,"Ġ(s":8479,"ĠtheĠdifferenc":8480,"negot":8481,"controller":8482,"eĠfil":8483,"oneĠisĠ":8484,"strument":8485,"ingĠtoĠbeĠ":8486,"yĠoffer":8487,"boy":8488,"ingĠper":8489,"ampleĠof":8490,"anner":8491,"situation":8492,"facebook":8493,"ĠmakesĠ":8494,"ĠmakeĠa":8495,"corner":8496,"Ġphil":8497,"ĠwouldĠlikeĠtoĠ":8498,"logg":8499,"Ġregistration":8500,"Ġcrusher":8501,"s,ĠsoĠ":8502,"handl":8503,"ĠaĠreal":8504,"centur":8505,"acteria":8506,"ĠifĠyouĠareĠ":8507,"Ġcompanies":8508,"ideaĠof":8509,"ĠtowardĠ":8510,"especially":8511,"ĠpositiveĠ":8512,"Ġsmart":8513,"maybeĠ":8514,"accept":8515,"representativ":8516,"mightĠbeĠ":8517,"committeeĠ":8518,"didĠnotĠ":8519,"Ġremot":8520,"Ġextension":8521,"ĠtheĠfuture":8522,"Ġdiscussion":8523,"Ġchristian":8524,"ĠnovemberĠ":8525,"fortunately":8526,"embran":8527,"sĠasĠwellĠasĠ":8528,"Ġcommitte":8529,"ĠanĠexcellentĠ":8530,"sĠassoci":8531,"olympic":8532,",Ġar":8533,"67":8534,"_uafv":8535,"ae":8536,"aver":8537,"bloodĠ":8538,"cloth":8539,"dal":8540,"dress":8541,"differenc":8542,"georg":8543,"holdĠ":8544,"jectĠof":8545,"listĠof":8546,"pleĠ":8547,"r.Ġ":8548,"rail":8549,"rug":8550,"wire":8551,"yĠstor":8552,"eĠk":8553,"eĠwas":8554,"Ġtank":8555,"erâĢĻsĠ":8556,"en,Ġ":8557,"enateĠ":8558,"Ġsem":8559,"Ġsecur":8560,"ĠsecondĠ":8561,"Ġsector":8562,"Ġsoftwar":8563,"ĠsafetyĠ":8564,"ingĠtheĠt":8565,"itsĠs":8566,"alcon":8567,"icsĠ":8568,"Ġcamera":8569,"ĠandĠon":8570,"ĠandĠeven":8571,"thre":8572,"else":8573,"Ġwestern":8574,"youĠtoĠ":8575,"ĠpayĠ":8576,"ĠpostĠ":8577,"Ġpush":8578,"forĠall":8579,"styl":8580,"ed.Ġi":8581,"edĠatĠtheĠ":8582,"ĠtoĠmyĠ":8583,"roidĠ":8584,"Ġmom":8585,"Ġbit":8586,"Ġhors":8587,"leans":8588,"leather":8589,"usc":8590,"ĠinĠm":8591,"ĠinĠour":8592,"etal":8593,"ameter":8594,"lott":8595,"adeĠ":8596,"ĠofĠtheĠf":8597,"ĠgameĠ":8598,"exual":8599,"withĠthisĠ":8600,"Ġlabor":8601,"Ġliter":8602,"Ġluxur":8603,"comesĠ":8604,"ria":8605,"s.ĠitĠisĠ":8606,"and-":8607,"evolution":8608,"ĠasĠsoon":8609,"s>Ġ<s>Ġh":8610,"Ġrug":8611,"ĠatĠthisĠ":8612,"ĠcomprehensiveĠ":8613,"eĠmustĠ":8614,"Ġorganis":8615,"ĠtheĠbigg":8616,"Ġi'm":8617,"soĠfar":8618,"ĠtheĠdayĠ":8619,"ĠisĠalsoĠ":8620,"ĠtimeĠof":8621,"ĠtimeĠi":8622,"wasĠpost":8623,"es,ĠbutĠ":8624,"y,Ġor":8625,"ĠuseĠtheĠ":8626,"reatment":8627,"mont":8628,"providedĠ":8629,"ĠaĠ$":8630,"flag":8631,"ĠaĠlistĠof":8632,"Ġworkshop":8633,"sĠandĠtheir":8634,"ĠtheĠnam":8635,"hapter":8636,"Ġanyon":8637,"Ġsomeon":8638,"ĠstudiesĠ":8639,"appleĠ":8640,"storm":8641,"eptember":8642,"professor":8643,"ĠteamĠof":8644,"ĠtoĠbeĠa":8645,"timeĠ":8646,"nament":8647,"companyâĢĻsĠ":8648,"asket":8649,"euro":8650,"Ġsalt":8651,"ĠstartedĠ":8652,"icipal":8653,"heard":8654,"startedĠ":8655,"central":8656,"videos":8657,"Ġbasic":8658,"Ġspeaker":8659,"ĠtreatmentĠ":8660,"engagement":8661,"concil":8662,"Ġanswer:":8663,"Ġmovement":8664,"iousĠs":8665,"Ġbegin":8666,"Ġgiven":8667,"ĠaĠlargeĠ":8668,"ustralian":8669,"Ġassessment":8670,"Ġlandscap":8671,"faith":8672,"avourit":8673,"laser":8674,"Ġtablet":8675,".ĠtheyĠareĠ":8676,"59":8677,"gent":8678,"hes":8679,"iativeĠ":8680,"ld":8681,"lap":8682,"mac":8683,"mand":8684,"movi":8685,"sĠthem":8686,"section":8687,"Ñĩ":8688,"Ġ|":8689,"Ġer":8690,"Ġeffort":8691,"Ġah":8692,"ĠaĠplac":8693,"Ġalex":8694,"inĠtheir":8695,"inĠmyĠ":8696,"info":8697,"onĠmyĠ":8698,"tĠwith":8699,"relyingĠpart":8700,"Ġsafet":8701,"alegal":8702,".Ġy":8703,".Ġcan":8704,".Ġdo":8705,".ĠinĠtheĠ":8706,".ĠwhenĠyou":8707,"oĠc":8708,",Ġbr":8709,"ioni":8710,"ĠandĠch":8711,"elyĠandĠ":8712,"streetĠ":8713,"ed,ĠtheĠ":8714,"ĠtoĠoffer":8715,"asp":8716,"Ġfavorit":8717,"Ġfabric":8718,"immer":8719,"esĠyour":8720,"Ġinc":8721,"ĠinĠtheĠc":8722,"ationsĠfor":8723,"amentĠ":8724,"ĠofĠhisĠ":8725,"ĠyouĠtoĠ":8726,"ĠandĠthatĠ":8727,"probably":8728,"comesĠwith":8729,"upload":8730,"romot":8731,"umbl":8732,"ivor":8733,"sĠatt":8734,"epic":8735,"ĠforĠall":8736,"ĠtheĠsystem":8737,"Ġshor":8738,"ĠoneĠs":8739,"Ġall-":8740,"Ġvirt":8741,"ĠyourĠown":8742,"Ġadam":8743,"Ġchina":8744,"Ġchampion":8745,"ĠcanĠi":8746,"ĠcanâĢĻtĠ":8747,"actual":8748,"actuallyĠ":8749,"indon":8750,"india":8751,"workĠin":8752,"itionĠof":8753,"eĠbedroom":8754,"easil":8755,"assign":8756,"eĠfr":8757,"eĠfound":8758,"ersĠfrom":8759,".ĠiĠloveĠ":8760,"spot":8761,"oston":8762,"y,ĠbutĠ":8763,"es.ĠweĠ":8764,"fulfill":8765,"ĠageĠ":8766,"ansion":8767,"ĠaĠpr":8768,"e,ĠthisĠ":8769,"interestĠ":8770,"ĠbeĠableĠtoĠ":8771,"ĠaĠfre":8772,"ĠtheĠlast":8773,"Ġtwent":8774,"ĠaĠcall":8775,"ingĠpr":8776,"ingĠmon":8777,"ĠworkingĠwith":8778,"wouldĠhaveĠ":8779,"ĠtheĠgre":8780,"Ġcontribut":8781,"eĠyouĠwith":8782,".Ġmay":8783,"extension":8784,"ĠtwoĠyear":8785,"ĠmindĠ":8786,"givesĠyou":8787,"webinar":8788,"excel":8789,"excell":8790,"willĠbeĠa":8791,"ĠfridayĠ":8792,"possiblyĠ":8793,"levelĠof":8794,"ĠaccessibleĠ":8795,"uggleĠ":8796,"obileĠ":8797,"Ġthree-":8798,"ĠhadĠbeen":8799,"Ġfilter":8800,"Ġsurpris":8801,"personalĠdata":8802,"Ġtourism":8803,"Ġdefin":8804,"classroom":8805,"uccessĠ":8806,"immun":8807,"christmas":8808,"competitiveĠ":8809,"ĠdistrictĠ":8810,"investig":8811,"kidsĠ":8812,"sorb":8813,"ĠableĠto":8814,"ĠlargeĠ":8815,"ĠlastĠyear":8816,"entertainmentĠ":8817,"approach":8818,"Ġaugust":8819,"chanical":8820,"rupt":8821,"ville":8822,"utorial":8823,"comprehensiveĠ":8824,"ĠaĠmonth":8825,"(s":8826,"-to":8827,"54":8828,"600":8829,"900":8830,"aĠis":8831,"away":8832,"batter":8833,"coffe":8834,"dm":8835,"dish":8836,"fear":8837,"fashion":8838,"fabric":8839,"heal":8840,"jul":8841,"nearlyĠ":8842,"oof":8843,"switch":8844,"wideĠ":8845,"yard":8846,"yardĠ":8847,"Ġe":8848,"Ġo":8849,"eĠ-":8850,"Ġtattoo":8851,"sĠhisĠ":8852,"eremon":8853,"oral":8854,"ĠtheĠwork":8855,"retĠ":8856,"Ġscr":8857,"Ġsugar":8858,".Ġv":8859,".ĠwhyĠ":8860,",Ġpleas":8861,"Ġcouncil":8862,"ĠandĠhasĠ":8863,"than":8864,"Ġwind":8865,"ĠpartĠ":8866,"Ġprep":8867,"Ġpsych":8868,"edĠaĠb":8869,"ĠtoĠre":8870,"ĠtoĠother":8871,"Ġmos":8872,"Ġmult":8873,"Ġmovi":8874,"Ġball":8875,"ĠbodyĠ":8876,"Ġdescrib":8877,"acqu":8878,"ĠtoĠthem":8879,"unlessĠ":8880,"admin":8881,"whelm":8882,"allyĠandĠ":8883,"Ġalt":8884,"ourism":8885,"Ġston":8886,"eĠtop":8887,"eĠserv":8888,"eĠsupport":8889,"Ġref":8890,"s.ĠheĠ":8891,"andom":8892,"eway":8893,"e.Ġour":8894,"ĠtheĠsid":8895,"iveĠandĠ":8896,"Ġtrick":8897,"outstand":8898,"endoz":8899,"ackag":8900,"Ġvacation":8901,"sho":8902,"Ġjul":8903,"Ġjew":8904,"e.ĠsoĠ":8905,"manageĠ":8906,"manner":8907,"ĠtheĠdetail":8908,"ĠhaveĠtheĠ":8909,"ĠusedĠ":8910,"arelyĠ":8911,"ĠaĠcr":8912,"ĠaboutĠit":8913,"Ġasset":8914,"Ġassertion":8915,"sĠwithoutĠ":8916,"ĠaĠday":8917,"ĠtheĠgreat":8918,"eĠyouĠhaveĠ":8919,"ĠaĠgreat":8920,"co.":8921,"guy":8922,"athan":8923,"Ġimplement":8924,"Ġindian":8925,"armac":8926,"medicin":8927,"Ġtransmission":8928,"Ġphys":8929,"ĠallowsĠ":8930,"ĠweightĠ":8931,"manager":8932,"ĠairĠcondition":8933,"Ġfranc":8934,"Ġco-":8935,"s,ĠsuchĠasĠ":8936,"ĠunderstandĠ":8937,"Ġmarri":8938,"ĠmonthsĠ":8939,"ĠbasedĠon":8940,"honor":8941,"lastĠweek":8942,"Ġsurfac":8943,"installation":8944,"Ġlawyer":8945,"chedule":8946,"Ġjustic":8947,"Ġdistribution":8948,"ĠoctoberĠ":8949,"Ġadministr":8950,"participant":8951,"ĠindustryĠ":8952,"ĠsocialĠmedia":8953,"idealĠfor":8954,"ophistic":8955,"ĠenjoyĠ":8956,"ofĠcourse,Ġ":8957,"tml":8958,"eĠtheyĠareĠ":8959,"Ġlimit":8960,"Ġspectrum":8961,"chatĠroom":8962,"inguish":8963,",Ġtoo":8964,"52":8965,"aĠh":8966,"bow":8967,"cb":8968,"courtĠ":8969,"diss":8970,"ei":8971,"gestĠ":8972,"iouslyĠ":8973,"junction":8974,"lb":8975,"lc":8976,"lamp":8977,"mount":8978,"mosp":8979,"nurs":8980,"ruleĠ":8981,"sĠthan":8982,"simplyĠ":8983,"warn":8984,"yd":8985,"zad":8986,"Â°":8987,"Ġobject":8988,"Ġevalu":8989,"Ġengineer":8990,"eĠareĠ":8991,"eĠhasĠ":8992,"Ġtil":8993,"Ġtur":8994,"Ġauction":8995,"inĠtheĠc":8996,"sĠg":8997,"sĠdown":8998,"sĠshow":8999,"onĠp":9000,"ĠtheĠonlyĠ":9001,"oupl":9002,"Ġsand":9003,"Ġsuggest":9004,"Ġself-":9005,"atedĠbyĠ":9006,"ingĠsh":9007,"ingĠcan":9008,"ingĠwater":9009,"arrang":9010,",Ġcalifornia":9011,"Ġwest":9012,"Ġprec":9013,"stuck":9014,"edĠwhen":9015,"ed,Ġs":9016,"edĠandĠs":9017,"chicag":9018,"Ġmatter":9019,"Ġmirror":9020,"entry":9021,"Ġdeck":9022,"usesĠ":9023,"academ":9024,"imental":9025,"igeria":9026,"Ġindonesia":9027,"amper":9028,"lost":9029,"ingĠother":9030,"adium":9031,"Ġalert":9032,"illino":9033,"ĠyouĠmayĠ":9034,"hare":9035,"withĠour":9036,"ĠandĠalsoĠ":9037,"ĠlistĠof":9038,"eĠschool":9039,"ridĠof":9040,"Ġreferenc":9041,"conduc":9042,"e.ĠâĢľ":9043,"sĠofĠtheĠs":9044,"Ġshad":9045,"antageĠof":9046,"ĠallĠofĠtheĠ":9047,"articleĠ":9048,"ateĠfor":9049,"eĠincreas":9050,"eĠindust":9051,"ĠatĠtheĠtim":9052,"Ġasthma":9053,"ĠtheĠmountain":9054,"we'reĠ":9055,"ity.ĠtheĠ":9056,"eĠdeliver":9057,"recruit":9058,"workedĠwith":9059,"ĠtheĠbig":9060,"Ġjudg":9061,"ongo":9062,"Ġ(g":9063,"ingĠafter":9064,"'sĠs":9065,"eĠfram":9066,"ers.ĠtheĠ":9067,"egment":9068,"moreĠf":9069,"enguin":9070,".ĠseeĠ":9071,"Ġworth":9072,"Ġunion":9073,"drug":9074,"phys":9075,"ĠresultĠof":9076,"Ġtwitter":9077,"whoĠhaveĠ":9078,"e-up":9079,"ritical":9080,"Ġcontribution":9081,"eĠyouĠareĠ":9082,"Ġattitud":9083,"doĠnot":9084,"co-":9085,"ĠperfectĠ":9086,"fruit":9087,"Ġclimb":9088,"ĠrecordĠ":9089,",ĠiĠam":9090,"ĠtheseĠareĠ":9091,"calcul":9092,"Ġimm":9093,"ĠthinkĠof":9094,"redĠto":9095,".ĠinĠfact":9096,"madeĠa":9097,"ocktail":9098,"ingĠhom":9099,"operator":9100,"companies":9101,"ymbol":9102,"ĠroadĠ":9103,"Ġrelax":9104,"Ġauthentic":9105,"definit":9106,"pressureĠ":9107,"warr":9108,"heartĠ":9109,",ĠsoĠi":9110,"Ġmembership":9111,"umbia":9112,"pattern":9113,"refresh":9114,"ĠtowardsĠ":9115,"career":9116,"unitedĠstatesĠ":9117,"villag":9118,"Ġdemand":9119,"beyondĠ":9120,"sĠmayĠbeĠ":9121,"Ġpartnership":9122,"convenienc":9123,"Ġleft":9124,"Ġarrangement":9125,"Ġorigin":9126,"oistur":9127,"equippedĠwith":9128,"hawk":9129,"ersĠbibleĠ":9130,",ĠareĠ":9131,"-on":9132,"eâĢĻdĠ":9133,"hal":9134,"heĠisĠ":9135,"habit":9136,"motiv":9137,"pop":9138,"sinc":9139,"sĠanĠ":9140,"summer":9141,"tg":9142,"ìĿ":9143,"Ġic":9144,"Ġemb":9145,"Ġutil":9146,"ĠideasĠ":9147,"eĠas":9148,"Ġtough":9149,"onto":9150,"anic":9151,"Ġsnow":9152,"Ġsenior":9153,"ingĠwhich":9154,"it's":9155,"yĠwasĠ":9156,"alon":9157,"arb":9158,"arin":9159,"arri":9160,"ariesĠ":9161,",Ġfrom":9162,",ĠjustĠ":9163,"icator":9164,"isation":9165,"Ġcm":9166,"ĠcameĠ":9167,"Ġcounter":9168,"elder":9169,"Ġpakistan":9170,"steadĠof":9171,"edĠg":9172,"edĠtheĠf":9173,"ĠtoĠcreateĠ":9174,"roveĠ":9175,"Ġmeal":9176,"Ġmission":9177,"Ġmotor":9178,"Ġbudget":9179,"entĠandĠ":9180,"Ġhum":9181,"ĠdriveĠ":9182,"lemon":9183,"usedĠto":9184,"ĠfeltĠ":9185,"ĠinĠf":9186,"Ġinform":9187,"unish":9188,"ingĠâĢĵ":9189,"ulf":9190,"âĢĻ.":9191,"ager":9192,"Ġlibr":9193,"protein":9194,"comeĠtoĠ":9195,"eĠtax":9196,"ĠthatĠwouldĠ":9197,"e.ĠitĠisĠ":9198,"beingĠs":9199,"s,Ġin":9200,"s,Ġyou":9201,"e,ĠweĠ":9202,"cloud":9203,"ĠasĠlong":9204,"sĠandĠc":9205,"grac":9206,"grain":9207,"proud":9208,"eĠtheĠbestĠ":9209,"short":9210,"uster":9211,"can'tĠ":9212,"ichigan":9213,"eĠmod":9214,"weâĢĻll":9215,"weâĢĻreĠ":9216,"Ġorganic":9217,"avid":9218,",Ġsc":9219,"eĠdon":9220,"eĠare":9221,"ĠtheĠposs":9222,"Ġexact":9223,"Ġ(h":9224,"Ġ(or":9225,"ĠisĠthatĠ":9226,"ĠisĠaĠs":9227,"ney":9228,"neither":9229,"eĠfamil":9230,"makeĠyour":9231,"ĠtheĠtotal":9232,"ĠthemĠin":9233,"waysĠtoĠ":9234,".ĠsomeĠ":9235,"sĠsom":9236,"eĠhand":9237,"dry":9238,"goesĠ":9239,"goingĠto":9240,"llc":9241,"Ġresum":9242,"Ġreserv":9243,"sideĠof":9244,"ĠaddressĠ":9245,"ĠaĠcertain":9246,"ĠaboutĠhow":9247,"ethnic":9248,"whoĠisĠ":9249,"ingĠbyĠ":9250,"underst":9251,"scop":9252,"ingĠforĠtheĠ":9253,"ingĠday":9254,"ĠclimateĠ":9255,"Ġthere.Ġ":9256,"Ġrecip":9257,"ingĠofĠ":9258,"Ġmonday":9259,"ĠaĠhealth":9260,"ĠaĠhalf":9261,"whereĠyou":9262,"surfac":9263,"Ġtransformation":9264,"ingĠtool":9265,"Ġarea.Ġ":9266,"Ġphotos":9267,"ublican":9268,"glad":9269,"ĠgodĠ":9270,"euerman":9271,"Ġannivers":9272,"lessĠgutter":9273,"whereĠtheyĠ":9274,"ĠtoĠdetermin":9275,"chiev":9276,"Ġflash":9277,"eĠanother":9278,"Ġrequir":9279,"clickĠon":9280,"opportunity":9281,"claimedĠ":9282,"creatingĠa":9283,"-inch":9284,"hardĠtoĠ":9285,"distribut":9286,"investmentĠ":9287,"eĠdoesĠ":9288,"ĠacrossĠ":9289,"ĠtoĠhelpĠyou":9290,"emergenc":9291,"emergencyĠ":9292,"reliableĠ":9293,"stantial":9294,"Ġcredit":9295,"Ġpackag":9296,"wonâĢĻtĠ":9297,"edicatedĠ":9298,"demand":9299,"campaign":9300,"ĠsolidĠ":9301,"Ġafrica":9302,"proposal":9303,"focusedĠon":9304,"888":9305,"Ġrestaurant":9306,"ĠtheĠnorth":9307,"abulousĠ":9308,"negativeĠ":9309,"euermann":9310,"'.":9311,"(andĠ":9312,",ĠasĠa":9313,".ĠthatâĢĻsĠ":9314,"ceĠ":9315,"cat":9316,"dp":9317,"death":9318,"easĠ":9319,"fan":9320,"goneĠ":9321,"iĠwas":9322,"pen":9323,"pastĠ":9324,"sd":9325,"sam":9326,"sĠthisĠ":9327,"sĠtheyĠ":9328,"sung":9329,"uzz":9330,"vacation":9331,"yrightĠ":9332,"zo":9333,"zip":9334,"Ð¿":9335,"Ġem":9336,"Ġroll":9337,"Ġti":9338,"Ġthin":9339,"sĠv":9340,"sĠitĠ":9341,"orang":9342,"Ġsea":9343,"Ġsecret":9344,"atingĠin":9345,"ingsĠareĠ":9346,"ingĠwhatĠ":9347,"itleĠ":9348,",Ġ(":9349,",Ġit'sĠ":9350,",ĠwhileĠ":9351,"isĠalso":9352,"omestic":9353,"ĠandĠl":9354,"ĠandĠour":9355,"th,Ġ":9356,"Ġwent":9357,"Ġwelcom":9358,"Ġwoman":9359,"Ġpremium":9360,"stantĠ":9361,"edĠtheĠm":9362,"edĠaĠp":9363,"edĠthatĠtheĠ":9364,"chip":9365,"Ġmap":9366,"Ġhall":9367,"Ġholiday":9368,"Ġdut":9369,"Ġdemonstr":9370,"used":9371,"Ġfellow":9372,"ĠinĠc":9373,"ĠtoĠavoidĠ":9374,"unday":9375,"ingĠ&":9376,"ulk":9377,"Ġalgorithm":9378,"Ġargu":9379,"ĠgiftĠ":9380,"agen":9381,"agent":9382,"aboutĠtheĠ":9383,"Ġnation":9384,"Ġnatur":9385,"Ġliqu":9386,"comeĠin":9387,"eĠsheĠ":9388,"ribeĠ":9389,"eĠofĠc":9390,"Ġrestor":9391,"conclud":9392,"s.Ġp":9393,"s.ĠbutĠ":9394,"essay":9395,"Ġtroubl":9396,"Ġallerg":9397,"grab":9398,"Ġconfirm":9399,"s>Ġ<s>Ġb":9400,"shot":9401,"willĠnotĠ":9402,"Ġrh":9403,"canâĢĻtĠ":9404,"Ġorang":9405,"eĠdayĠ":9406,"notĠjustĠ":9407,"notĠonly":9408,"index":9409,"ĠtheĠball":9410,"ĠtheĠbenefit":9411,"eĠaĠlotĠof":9412,"ĠtheĠpict":9413,"eĠcreat":9414,"Ġ(b":9415,"eĠposs":9416,"ĠtheĠdoor":9417,"yĠsystem":9418,"whenever":9419,"whenĠitĠcomesĠtoĠ":9420,".Ġse":9421,"ĠaĠsecondĠ":9422,"ĠusedĠtoĠ":9423,"strict":9424,"eĠhereĠ":9425,"note:":9426,"ingĠindust":9427,"evenĠif":9428,"argin":9429,"remind":9430,"s,ĠthisĠ":9431,"ĠitĠwas":9432,"atedĠfrom":9433,"ĠresultĠ":9434,"boot":9435,"mondĠ":9436,"edĠbyĠa":9437,"ingĠbe":9438,"ĠaĠdec":9439,"announc":9440,"divers":9441,"requires":9442,"azil":9443,"knowĠhow":9444,"Ġbeam":9445,"ĠaĠgener":9446,"ĠsomeĠs":9447,".ĠweĠar":9448,"employment":9449,"ĠtheĠrisk":9450,"attack":9451,"Ġartwork":9452,"needsĠtoĠ":9453,"eĠshopp":9454,"Ġstory":9455,"generateĠ":9456,"Ġscientific":9457,"Ġguarante":9458,"ĠairyĠbeam":9459,"ĠlikelyĠ":9460,"glassĠ":9461,"proven":9462,"eĠtravel":9463,"Ġcris":9464,"venueĠ":9465,"ĠanĠint":9466,"eez":9467,"ĠhouseĠ":9468,"Ġcorpor":9469,"ĠdefinitelyĠ":9470,"guidelin":9471,"distribution":9472,"engagementĠ":9473,"ĠinvestmentĠ":9474,"Ġadminist":9475,"drawn":9476,"auction":9477,"colour":9478,"ĠuniversityĠ":9479,"audi":9480,"ĠtheĠbasic":9481,"routin":9482,"eligibleĠfor":9483,"random":9484,"ĠaffordableĠ":9485,"ĠaĠwideĠrangeĠof":9486,"Ġrecognition":9487,"ĠconventionĠheldĠ":9488,".ĠtheĠnadĠ":9489,"omegaĠ":9490,"!)":9491,"%,":9492,"(p":9493,")ĠisĠ":9494,",ĠthereĠareĠ":9495,"-of":9496,"-minut":9497,".d":9498,".Ġthat":9499,"06":9500,"bil":9501,"bed":9502,"dial":9503,"dollar":9504,"ft":9505,"feed":9506,"flower":9507,"feltĠ":9508,"ietĠ":9509,"iolog":9510,"ji":9511,"matt":9512,"patch":9513,"q:":9514,"roundĠ":9515,"sn":9516,"sĠalsoĠ":9517,"usĠof":9518,"usĠfor":9519,"vr":9520,"Ġ.Ġ":9521,"Ġoil":9522,"ĠÏī":9523,"eĠweĠ":9524,"Ġtol":9525,"Ġtall":9526,"influenc":9527,"sĠwork":9528,"onic":9529,"onym":9530,"orĠother":9531,"enroll":9532,"Ġslow":9533,"ĠsendĠ":9534,"Ġscal":9535,"attĠ":9536,"ated.Ġ":9537,"ings.":9538,"it,Ġ":9539,".Ġdr":9540,"esĠasĠa":9541,",Ġmak":9542,",Ġnew":9543,"isĠanĠ":9544,"iscal":9545,"they":9546,"ileg":9547,"Ġwal":9548,"ĠwentĠ":9549,"ĠwestĠ":9550,"Ġpur":9551,"stayĠ":9552,"edication":9553,"edĠanĠ":9554,"ĠtoĠgo":9555,"Ġmr":9556,"Ġbed":9557,"Ġbrowser":9558,"ĠheatĠ":9559,"Ġde":9560,"Ġder":9561,"useum":9562,"Ġflex":9563,"esĠwhich":9564,"esĠâĢĵ":9565,"ĠinĠwhich":9566,"Ġinvit":9567,"exclus":9568,"expression":9569,"ourselv":9570,"ĠandĠtheĠc":9571,"comeĠup":9572,"eĠtoo":9573,"eĠsuch":9574,"upil":9575,"Ġrepl":9576,"ĠreportĠ":9577,"s,Ġd":9578,"ancel":9579,"ellect":9580,"deriv":9581,"anton":9582,"outputĠ":9583,"earedĠ":9584,"Ġconcret":9585,"s>Ġ<s>Ġin":9586,"sĠinĠour":9587,"willingĠtoĠ":9588,"Ġram":9589,"ableĠt":9590,"canadian":9591,"eĠmeet":9592,"ĠtheĠfl":9593,"notĠbeen":9594,"ishop":9595,"Ġjam":9596,"eĠaf":9597,"edĠbetween":9598,"edĠbelow":9599,"eĠcurr":9600,"eĠcertain":9601,"ĠiĠcan":9602,"ĠiâĢĻm":9603,"manufact":9604,"eĠpre":9605,"eĠpict":9606,"compat":9607,"assist":9608,"urementĠ":9609,"ersĠwill":9610,"makingĠa":9611,"egreeĠ":9612,"ouseĠ":9613,"ously":9614,"oster":9615,"wayĠto":9616,"broughtĠ":9617,"ingĠsc":9618,"ĠtheseĠb":9619,"y.ĠweĠ":9620,"butter":9621,"ĠaĠprivateĠ":9622,"minimum":9623,"Ġtwic":9624,"ĠassemblyĠ":9625,"sĠwithin":9626,"placeĠtoĠ":9627,"ingĠbook":9628,"Ġcomponent":9629,"diagnos":9630,"ĠtheĠgarden":9631,"ĠsetĠof":9632,"qualifi":9633,"Ġupdat":9634,"ĠtheĠnumber":9635,"franc":9636,",ĠmayĠ":9637,"edĠforĠtheĠ":9638,"ĠrecentlyĠ":9639,"Ġstudio":9640,"changesĠ":9641,"backĠtoĠ":9642,"undredĠ":9643,"Ġimmediat":9644,"ityĠofĠtheĠ":9645,"no.Ġ":9646,"uresĠandĠ":9647,"life.Ġ":9648,"eĠshall":9649,"Ġinteraction":9650,"Ġterritor":9651,"ralph":9652,"proceed":9653,"Ġprovides":9654,"valueĠ":9655,"ĠaskedĠ":9656,"performanceĠ":9657,"ĠanĠincreas":9658,"meanwhil":9659,"ĠifĠyouĠhaveĠ":9660,"Ġwhatever":9661,"Ġminutes.Ġ":9662,"findĠoutĠ":9663,"ĠÐ½":9664,"ĠavailableĠin":9665,"directly":9666,"emptyĠ":9667,"ĠclientsĠ":9668,"Ġsmooth":9669,"powerful":9670,"ĠexcellentĠ":9671,"fundĠ":9672,"recognition":9673,"Ġmeans":9674,"ĠdueĠtoĠ":9675,"Ġcolour":9676,"berta":9677,"decidedĠtoĠ":9678,"properlyĠ":9679,"ĠtheĠscen":9680,"ascin":9681,"riminal":9682,"embrac":9683,"relevantĠ":9684,"yĠshowerĠbingoĠcardsĠ":9685,"Ġthreaten":9686,"endantĠlightĠbulb":9687,"Ġproposal":9688,"ĠwholeĠ":9689,"islamic":9690,"ĠindependentĠ":9691,"ĠimportantĠ":9692,"Ġwashington":9693,"Ġperspect":9694,"ĠancientĠ":9695,"!ĠthankĠyou":9696,")Ġis":9697,",ĠtheĠt":9698,"56":9699,"aultĠ":9700,"brother":9701,"ct":9702,"council":9703,"eyĠs":9704,"hou":9705,"hotĠ":9706,"iĠhadĠ":9707,"machineĠ":9708,"sac":9709,"sia":9710,"saidĠ":9711,"ulesĠ":9712,"western":9713,"za":9714,"Ã¶":9715,"Ġenerg":9716,"Ġearn":9717,"Ġideas":9718,"ĠtextĠ":9719,"sĠyouĠcan":9720,"sĠbasedĠon":9721,"sĠregard":9722,"ery":9723,"Ġseven":9724,"atedĠtoĠ":9725,"ingful":9726,"itu":9727,"ĠanĠhour":9728,"al,Ġ":9729,".Ġch":9730,".Ġwell":9731,".ĠoneĠof":9732,"arter":9733,"oĠisĠ":9734,",ĠwasĠ":9735,"icesĠ":9736,"icatedĠ":9737,"Ġwinn":9738,"Ġpop":9739,"ĠpastĠ":9740,"Ġpaul":9741,"stitution":9742,"edĠitsĠ":9743,"ĠtoĠ$":9744,"rocer":9745,"robertĠ":9746,"chand":9747,"Ġmention":9748,"Ġmountain":9749,"Ġmessag":9750,"owel":9751,"Ġdaughter":9752,"uses":9753,"acy":9754,"acleĠ":9755,"oliveĠ":9756,"uration":9757,"ureĠto":9758,"Ġfur":9759,"Ġflight":9760,"ide,Ġ":9761,"esĠlik":9762,"ĠinĠb":9763,"ĠinĠtheir":9764,"etm":9765,"ĠtoĠtakeĠ":9766,"irr":9767,"irtĠ":9768,"ingĠevent":9769,"Ġalumin":9770,"eĠthos":9771,"ĠandĠtheyĠ":9772,"plic":9773,"Ġlad":9774,"s.Ġhowever":9775,"e.Ġif":9776,"essayĠ":9777,"sĠofĠour":9778,"ĠforĠtheir":9779,"ĠtheĠsun":9780,"e,ĠyouĠcan":9781,"Ġtrigger":9782,"ance.":9783,"ĠallĠ":9784,"otĠof":9785,"sĠandĠservic":9786,"ateĠyour":9787,"Ġprov":9788,"haveĠyou":9789,"ĠtheĠmost":9790,"we'll":9791,"eĠdist":9792,"ĠtheĠbar":9793,"eĠaut":9794,"iestĠ":9795,"intageĠ":9796,"eĠcoll":9797,"s.Ġafter":9798,"eĠbusinessĠ":9799,"compil":9800,"ĠisĠanĠ":9801,"Ġisland":9802,"icker":9803,"Ġplastic":9804,"ersĠor":9805,"ers'":9806,"line.Ġ":9807,"Ġthem.":9808,"enger":9809,"brandĠ":9810,"tooĠ":9811,"erviceĠ":9812,"sĠsuch":9813,"ĠtheĠhol":9814,"ĠtheĠhealth":9815,"ĠtheĠholiday":9816,"montĠ":9817,"ampton":9818,"Ġgrant":9819,"Ġyears,Ġ":9820,"ĠworkĠwith":9821,"loss":9822,"inĠother":9823,"coordin":9824,"basis":9825,"partyĠ":9826,"esĠtoĠbeĠ":9827,"Ġstudy":9828,"highĠschool":9829,"athem":9830,".ĠmostĠ":9831,"changeĠtheĠ":9832,"sometimesĠ":9833,"ĠtheseĠar":9834,"calm":9835,"sĠtogether":9836,"actĠwith":9837,"conservation":9838,"dayĠof":9839,"muchĠmor":9840,"ĠartistĠ":9841,"Ġtransition":9842,"decad":9843,"edĠsomeĠ":9844,"Ġbridg":9845,"ĠthanksĠtoĠ":9846,"ĠthanksĠfor":9847,"eholdĠ":9848,"ĠtypeĠ":9849,"Ġscript":9850,"Ġguy":9851,"ymn":9852,"ĠbuildĠ":9853,"sĠcouldĠ":9854,"ĠifĠtheĠ":9855,"lessĠsteel":9856,"istryĠof":9857,"process.Ġ":9858,".ĠifĠyouĠhaveĠ":9859,"Ġcoach":9860,"ĠprovideĠ":9861,"windĠ":9862,"ebru":9863,"ussia":9864,".ĠifĠtheĠ":9865,"ĠaroundĠtheĠworld":9866,"oxy":9867,"alibu":9868,"authnr":9869,"filledĠwith":9870,"092":9871,"discussion":9872,"ensureĠthatĠ":9873,"Ġnormal":9874,"eparat":9875,"ĠmeetĠ":9876,"ĠanalysisĠ":9877,"characteristic":9878,"Ġindustry":9879,"Ġindustrial":9880,"Ġimagin":9881,"Ġsensor":9882,"Ġvehicle":9883,"ĠwhereĠtheĠ":9884,"ruption":9885,"ĠlotsĠof":9886,"ĠtheĠfactĠthatĠ":9887,"ĠrangeĠof":9888,"agraph":9889,"plaintiff":9890,"impressiveĠ":9891,"eutic":9892,"urriculum":9893,"estinian":9894,"Ġreligion":9895,"atellit":9896,"olomit":9897,"Ġvictor":9898,"ĠtheĠbiggestĠ":9899,"!ĠtheĠ":9900,",ĠthereĠar":9901,".ĠthereĠareĠ":9902,"08":9903,"216":9904,"700":9905,"aqu":9906,"aĠfor":9907,"crib":9908,"categor":9909,"dut":9910,"eiv":9911,"friendĠ":9912,"gart":9913,"ho":9914,"heatĠ":9915,"i'veĠ":9916,"privateĠ":9917,"political":9918,"sch":9919,"weĠoffer":9920,"yan":9921,"Äģ":9922,"Ġequipment":9923,"ĠtargetĠ":9924,"ĠaĠstrong":9925,"Ġaegir":9926,"Ġsin":9927,"Ġsoul":9928,"Ġsimpl":9929,"ing,Ġand":9930,"itĠtoĠ":9931,"itĠalsoĠ":9932,"yĠfrom":9933,".ĠoneĠ":9934,".ĠmanyĠ":9935,"es)":9936,",ĠbyĠ":9937,"isĠaĠs":9938,"Ġcast":9939,"Ġcross":9940,"ĠandĠmor":9941,"ĠandĠsp":9942,"think":9943,"ilig":9944,"Ġwir":9945,"Ġwonderful":9946,"Ġweather":9947,"Ġpair":9948,"Ġpull":9949,"Ġpaint":9950,"forĠmyĠ":9951,"forwardĠ":9952,"foreign":9953,"edĠyour":9954,"ed:":9955,"edĠaĠs":9956,"Ġmm":9957,"Ġmust":9958,"Ġbuck":9959,"Ġbatter":9960,"Ġbathroom":9961,"Ġhug":9962,"olour":9963,"Ġfoot":9964,"Ġfaith":9965,"emen":9966,"Ġinsid":9967,"amber":9968,"ĠofĠthem":9969,"ĠofĠtheseĠ":9970,"residential":9971,"itĠwouldĠ":9972,"eĠse":9973,"riev":9974,"Ġreally":9975,"convert":9976,"s.Ġwith":9977,"asĠof":9978,"ooter":9979,"approv":9980,"beatĠ":9981,"e,Ġin":9982,"Ġshoot":9983,"Ġshipp":9984,"ĠsheĠsaid":9985,"ella":9986,"Ġwithout":9987,"overeign":9988,"endant":9989,"Ġprogress":9990,"eaper":9991,"Ġcontract":9992,"Ġven":9993,"sĠinter":9994,"sĠinĠtheĠs":9995,"eĠmightĠ":9996,"aven":9997,"ĠtheĠcap":9998,"workĠon":9999,"Ġjersey":10000,"ies.ĠtheĠ":10001,"ies,ĠandĠ":10002,"intellig":10003,"ervision":10004,"Ġexpos":10005,"eĠcap":10006,"eĠbar":10007,"creativ":10008,"ĠtheĠdeaf":10009,"Ġleas":10010,"ĠthemĠtoĠ":10011,".Ġsinc":10012,"awl":10013,"ĠusuallyĠ":10014,"ingĠsomeĠ":10015,"ingĠskill":10016,"ingĠinformation":10017,"ĠitĠwill":10018,"ĠaĠfreeĠ":10019,"phereĠ":10020,"eball":10021,"ĠaĠ\"":10022,"finally":10023,"getĠtheĠ":10024,"disappoint":10025,"ĠtheyâĢĻr":10026,"ingĠcap":10027,"rival":10028,"ĠattendĠ":10029,"coon":10030,"Ġthere.":10031,"Ġoptim":10032,"Ġsometim":10033,"ĠstudioĠ":10034,"ĠaĠhug":10035,"redeem":10036,"neededĠ":10037,"Ġcommand":10038,"Ġdirection":10039,"institution":10040,"whatĠtheyĠ":10041,"ĠsheĠwasĠ":10042,"Ġcrystal":10043,"ĠgoingĠtoĠ":10044,"worldâĢĻsĠ":10045,"teen":10046,"Ġcommunities":10047,"protocol":10048,"eĠtimeĠ":10049,"membership":10050,"ĠcouldĠbeĠ":10051,"Ġrequired":10052,"ĠÐ¸":10053,"letĠmeĠ":10054,"ĠavailableĠfor":10055,"ĠlivingĠroom":10056,"efullyĠ":10057,"ĠagreementĠ":10058,"Ġprocess.Ġ":10059,"gettingĠ":10060,"Ġvisual":10061,"Ð¾Ð³":10062,"Ġmetal":10063,"roker":10064,"desir":10065,"radio":10066,"Ġpayment":10067,"principl":10068,"Ġdetails:":10069,"Ġknif":10070,"eĠspecific":10071,"clinic":10072,"Ġcompetition":10073,"nutrition":10074,"ĠpossibleĠ":10075,"Ġarrival":10076,"makeĠsureĠyou":10077,"ĠtheĠdepartmentĠof":10078,"Ġlabel":10079,"exhibition":10080,"rubber":10081,"famousĠ":10082,"ufficientĠ":10083,"usalem":10084,"\"ĠandĠ":10085,".-":10086,"66":10087,"72":10088,"aip":10089,"dailyĠ":10090,"eâĢĻsĠa":10091,"fact":10092,"federal":10093,"feedback":10094,"hat":10095,"hidden":10096,"iant":10097,"layer":10098,"premium":10099,"ryp":10100,"sea":10101,"sĠtheĠm":10102,"search":10103,"skill":10104,"securityĠ":10105,"tos":10106,"tri":10107,"uallyĠs":10108,"vas":10109,"vac":10110,"veteran":10111,"wan":10112,"ÙĦ":10113,"Ġos":10114,"Ġenter":10115,"ĠtreatĠ":10116,"injur":10117,"sĠback":10118,"sĠwer":10119,"er'sĠ":10120,"on,Ġ":10121,"enem":10122,"reallyĠs":10123,"Ġsl":10124,"ĠsideĠ":10125,"Ġscholar":10126,"atedĠby":10127,"attern":10128,"ings,":10129,"ingĠapplication":10130,"ingĠplant":10131,"ĠanĠamaz":10132,"Ġanxiet":10133,".ĠwhereĠ":10134,"isĠthat":10135,"isĠaĠc":10136,"Ġcategor":10137,"Ġcotton":10138,"ĠandĠhaveĠ":10139,"throp":10140,"elong":10141,"Ġwild":10142,"Ġpuls":10143,"ĠprettyĠ":10144,"forĠtheir":10145,"stack":10146,"eden":10147,"role":10148,"Ġmel":10149,"Ġdish":10150,"Ġdivid":10151,"us,Ġ":10152,"uslim":10153,"actĠof":10154,"Ġfrequ":10155,"Ġfather":10156,"esĠonĠtheĠ":10157,"igor":10158,"emble":10159,"Ġincom":10160,"ĠinĠtheĠf":10161,"ation.ĠtheĠ":10162,"amousĠ":10163,"Ġtoy":10164,"allic":10165,"Ġgender":10166,"ageĠin":10167,"haven":10168,"ourse":10169,"Ġnature":10170,"utral":10171,"Ġlan":10172,"eĠteach":10173,"ĠthatĠwas":10174,"eĠofĠthisĠ":10175,"conversion":10176,"s.Ġb":10177,"permission":10178,"anda":10179,"istryĠ":10180,"sĠaf":10181,"Ġforward":10182,"worn":10183,"grill":10184,"grind":10185,"fromĠyour":10186,"eĠinvest":10187,"proudĠof":10188,"Ġadh":10189,"Ġrais":10190,"liz":10191,"we'veĠ":10192,"weâĢĻr":10193,"Ġabund":10194,"Ġabsorb":10195,"ĠtheĠbank":10196,"portsĠ":10197,"ignal":10198,"ĠtheĠpal":10199,"ĠapartĠ":10200,"ĠatĠhom":10201,"Ġ(t":10202,"eĠpurchas":10203,"Ġtime,":10204,"ingĠaĠb":10205,"afeĠ":10206,"eĠfl":10207,"eĠfull":10208,"ersĠwereĠ":10209,"ĠhaveĠyou":10210,"commitment":10211,"oneĠor":10212,"es,Ġor":10213,"es.Ġour":10214,"ĠourĠwebsit":10215,"inct":10216,"eĠhealth":10217,"drain":10218,"ureĠisĠ":10219,"photoĠ":10220,"boatĠ":10221,"sĠareĠnotĠ":10222,"ethic":10223,"ĠyearĠ":10224,"ĠaĠlow":10225,"eliev":10226,"ĠaĠgu":10227,"identity":10228,"coast":10229,"friger":10230,"Ġopinion":10231,"someoneĠ":10232,"ed,ĠbutĠ":10233,"correspond":10234,"ĠaĠwell":10235,"ocketĠ":10236,"Ġbrush":10237,"eptic":10238,"ĠdirectĠ":10239,"keepĠyour":10240,"pectĠof":10241,"ushion":10242,"eĠtrad":10243,"Ġmedicin":10244,"ĠbuyĠ":10245,"ĠstatementĠ":10246,"Ġparam":10247,"valuableĠ":10248,"expectĠ":10249,"Ġconsum":10250,"ĠpreviousĠ":10251,"Ġsubscription":10252,"nessĠandĠ":10253,"variet":10254,"eepl":10255,"Ġmarch":10256,"feature":10257,"Ġeveryth":10258,"Ġvariet":10259,"eĠsureĠtoĠ":10260,"Ġtwo-":10261,"Ġexcit":10262,"Ġdistrict":10263,"investor":10264,"Ġhistoric":10265,"chees":10266,"ĠrightsĠ":10267,"ĠcompleteĠ":10268,"renew":10269,"Ġremover":10270,"ĠsupplyĠ":10271,"Ġgradu":10272,"inĠfact":10273,"ĠthousandĠ":10274,"Ġpromis":10275,"Ġpromot":10276,"figureĠ":10277,"Ġtherefore,Ġ":10278,"ĠpercentĠof":10279,"museum":10280,"prepared":10281,"fortunatelyĠ":10282,"expertĠ":10283,"practiceĠ":10284,"villeĠ":10285,"kingdom":10286,"Ġattorney":10287,"ometric":10288,"ĠaĠminimum":10289,"restriction":10290,"Ġwritten":10291,"Ġacademic":10292,"ageĠdoor":10293,"illegalĠfish":10294,"ĠsignificantĠ":10295,"ĠaĠseriesĠof":10296,"aminĠdĠ":10297,"(s)":10298,",ĠaĠm":10299,".ĠalsoĠ":10300,".ĠthereĠisĠ":10301,"05":10302,"bandĠ":10303,"bott":10304,"cp":10305,"cad":10306,"dpr":10307,"dead":10308,"e'":10309,"eor":10310,"eâĢĻs":10311,"fi":10312,"fantastic":10313,"garn":10314,"husband":10315,"iĠcouldĠ":10316,"ml":10317,"mo":10318,"nail":10319,"nature":10320,"ped":10321,"pursu":10322,"tc":10323,"tyĠ":10324,"udĠ":10325,"y,ĠtheĠ":10326,"ê³":10327,"Ġë":10328,"Ġeat":10329,"Ġeffect":10330,"ĠÑģ":10331,"eĠwhich":10332,"eĠaboutĠ":10333,"ĠaĠwork":10334,"Ġahead":10335,"eras":10336,"enforc":10337,"ouredĠ":10338,"anit":10339,"releaseĠ":10340,"atil":10341,"atingĠs":10342,"atientĠ":10343,"ingĠareĠ":10344,"ingsĠin":10345,"itĠtheĠ":10346,".Ġover":10347,".Ġother":10348,",Ġof":10349,",Ġright":10350,"icul":10351,"isĠalsoĠ":10352,"isdiction":10353,"Ġcatch":10354,"Ġcultural":10355,"Ġcivil":10356,"Ġchapter":10357,"ĠandĠwith":10358,"Ġpan":10359,"forĠthisĠ":10360,"forĠtheĠs":10361,"edĠoutĠof":10362,"edin":10363,"ĠtoĠgoĠ":10364,"roph":10365,"chicken":10366,"entin":10367,"entire":10368,"Ġdam":10369,"leaf":10370,"acular":10371,"oli":10372,"ureĠfor":10373,"Ġflower":10374,"Ġfashion":10375,"imult":10376,"imulation":10377,"esĠf":10378,"eman":10379,"ĠinĠmind":10380,"Ġinfluenc":10381,"etnam":10382,"amic":10383,"ĠtoĠtheĠt":10384,"unableĠtoĠ":10385,"iraq":10386,"lovel":10387,"ully":10388,"optĠ":10389,"eĠthre":10390,"eĠthingsĠ":10391,"abeth":10392,"absolut":10393,"hak":10394,"Ġstrik":10395,"Ġstretch":10396,"utual":10397,"ĠandĠtoĠ":10398,"pros":10399,"eĠtown":10400,"riber":10401,"ĠrealĠestateĠ":10402,"roman":10403,"romantic":10404,"oung":10405,".ĠtheĠm":10406,"s.Ġwhen":10407,"e.ĠheĠ":10408,"evolv":10409,"beingĠp":10410,"ĠtheĠseason":10411,"e,Ġh":10412,"e,Ġm":10413,"Ġtrim":10414,"Ġwhy":10415,"ĠwithĠthisĠ":10416,"october":10417,"Ġacquir":10418,"artin":10419,"overnor":10420,"tĠoff":10421,"bust":10422,"Ġconv":10423,"shin":10424,"Ġadmission":10425,"Ġrr":10426,"Ġchronic":10427,"ĠasĠanĠ":10428,"cannotĠ":10429,"weal":10430,"notĠhaveĠ":10431,"ĠtheĠbox":10432,"eĠclos":10433,"eĠcustom":10434,"eĠcours":10435,"ĠiĠloveĠ":10436,"ĠiĠhadĠ":10437,"enseĠof":10438,"okay":10439,"ĠlotĠ":10440,"neyĠ":10441,"assembly":10442,"ingĠare":10443,"Ġplat":10444,"eĠfun":10445,"Ġit.Ġ":10446,"spread":10447,"ĠleadĠ":10448,"Ġlemon":10449,"incident":10450,"remark":10451,"areer":10452,"sĠareĠavailableĠ":10453,"ĠaĠbitĠof":10454,"mond":10455,"ĠtheĠla":10456,"ethodĠof":10457,"discount":10458,"sĠwithĠ":10459,"parentsĠ":10460,"helpedĠ":10461,"ology,Ġ":10462,"Ġcompared":10463,"anyĠquestion":10464,"ĠseeĠa":10465,"sĠthatĠyou":10466,"sĠthatĠwill":10467,"ĠaĠgood":10468,"getĠyour":10469,"blank":10470,",Ġmar":10471,".Ġmr":10472,"worldĠof":10473,"Ġboil":10474,"Ġyet":10475,"nothingĠ":10476,"Ġoverall":10477,"Ġmanual":10478,"Ġstrang":10479,"Ġbring":10480,"ression":10481,"ingĠhealth":10482,"profession":10483,"gives":10484,"eĠshipp":10485,":ĠâĢľ":10486,"communicateĠ":10487,"itiesĠin":10488,"whatâĢĻsĠ":10489,"ĠlikeĠa":10490,"onĠtheĠotherĠhand":10491,"happy":10492,"happyĠtoĠ":10493,"ĠadviceĠ":10494,"!!!!":10495,"Ġstatistic":10496,",ĠweĠhaveĠ":10497,"ĠsalesĠ":10498,"completeĠ":10499,"winner":10500,"ĠaĠlocal":10501,"heardĠ":10502,"ĠthatĠyouĠareĠ":10503,"wantsĠtoĠ":10504,"lessĠthan":10505,"Ġspecializ":10506,"ĠseriesĠof":10507,"vertical":10508,"Ġanalytic":10509,"employeeâĢĻsĠ":10510,"reasonableĠ":10511,"oxid":10512,"ĠÐ¼":10513,"expectedĠtoĠ":10514,"establishedĠ":10515,"ĠtoĠmakeĠa":10516,"iddleĠof":10517,"ĠnoĠlonger":10518,"Ġanticip":10519,"ĠwantedĠtoĠ":10520,"youĠwillĠbeĠ":10521,"ĠareĠsoĠ":10522,"ĠallĠofĠyour":10523,"ĠheĠwasĠ":10524,"payment":10525,"Ð¾Ð»":10526,"Ġtracker":10527,"sĠact":10528,"ĠinternetĠ":10529,"liveĠin":10530,"901":10531,"ĠhappyĠ":10532,"ĠtriedĠtoĠ":10533,"ĠfundĠ":10534,"removal":10535,"relatedĠto":10536,"Ġdesk":10537,"Ġsoldi":10538,"Ġregional":10539,"proposedĠ":10540,"sĠappl":10541,"ĠtheĠmonth":10542,"ĠtheĠcorner":10543,"ĠdoesnâĢĻtĠ":10544,"constitution":10545,"necessaryĠtoĠ":10546,"chapterĠ":10547,"ocratic":10548,"entryĠwasĠpost":10549,"viously":10550,"Ġconcept":10551,"ĠaspectsĠof":10552,"additional":10553,"achelor":10554,"Ġgraphic":10555,"conciliation":10556,"warrant":10557,",Ġthat":10558,",ĠthereĠ":10559,",ĠaĠb":10560,",ĠaĠc":10561,"-Ġ":10562,".Ġsp":10563,"03":10564,"77":10565,"batt":10566,"bird":10567,"clo":10568,"cription":10569,"julyĠ":10570,"ket":10571,"lac":10572,"luc":10573,"lash":10574,"ntĠ":10575,"niceĠ":10576,"oet":10577,"ograph":10578,"psych":10579,"raid":10580,"similar":10581,"vendor":10582,"wimm":10583,"weld":10584,"y,Ġand":10585,"eĠad":10586,"Ġtissu":10587,"Ġash":10588,"increaseĠ":10589,"onĠtheĠs":10590,"oneĠtoĠ":10591,"onĠtheir":10592,"Ġsn":10593,"Ġsum":10594,"Ġsyn":10595,"Ġsquar":10596,"ing.ĠthisĠ":10597,"ingĠprogram":10598,"ingĠaroundĠ":10599,"iten":10600,".Ġre":10601,".ĠitsĠ":10602,".Ġdur":10603,"espres":10604,"esĠthrough":10605,",Ġnot":10606,",Ġwher":10607,"ome":10608,"thm":10609,"Ġwrot":10610,"ĠpointĠ":10611,"Ġpopulation":10612,"stunn":10613,"stopp":10614,"steuermann":10615,"edĠhow":10616,"ĠtoĠhisĠ":10617,"ĠtoĠensureĠ":10618,"chill":10619,"chron":10620,"Ġbon":10621,"Ġbeat":10622,"isĠ(":10623,"isĠnow":10624,"ecast":10625,"least":10626,"ĠfieldĠ":10627,"Ġfootball":10628,"esĠis":10629,"emtos":10630,"ĠinĠtheĠp":10631,"ĠinĠorderĠtoĠ":10632,"ationsĠin":10633,"ĠtoĠtheĠf":10634,"ĠtoĠshar":10635,"Ġalleg":10636,"âĢĻ,":10637,"ĠarriveĠ":10638,"Ġge":10639,"Ġgas":10640,"withinĠtheĠ":10641,"ĠlanguageĠ":10642,"ottĠ":10643,"eĠseveral":10644,"quiet":10645,"ries,Ġ":10646,"concent":10647,"ewayĠ":10648,"e.Ġwhen":10649,"lyĠwith":10650,"aps":10651,"s,ĠitĠ":10652,"ĠtheĠsummer":10653,"enceĠin":10654,"ĠonĠmyĠ":10655,"ĠwithĠm":10656,"climateĠ":10657,"acket":10658,"eared":10659,"Ġconven":10660,"lyn":10661,"Ġrule":10662,"ĠatĠa":10663,"Ġchocol":10664,"Ġasia":10665,"outĠon":10666,"Ġabs":10667,"ĠtheĠcolor":10668,"ĠtheĠcustomer":10669,"ĠcannotĠ":10670,"eĠdeal":10671,"eĠtoĠour":10672,"eĠandĠi":10673,"edĠbas":10674,"e.Ġafter":10675,"eĠclean":10676,"ensor":10677,"ĠatĠwork":10678,"ibly":10679,"ingĠasĠa":10680,"ĠitâĢĻs":10681,"spiredĠ":10682,"brightĠ":10683,"branch":10684,"Ġuseful":10685,"note,Ġ":10686,"remis":10687,"ĠtheĠland":10688,"predict":10689,"ypto":10690,"ĠofĠtheĠyear":10691,"donald":10692,"joint":10693,"placesĠ":10694,"noĠidea":10695,"Ġactual":10696,"oupon":10697,"ĠupĠwith":10698,"identif":10699,"ĠhisĠown":10700,"ingĠdata":10701,"oneĠofĠour":10702,".ĠinĠthisĠ":10703,"ĠaĠwonderful":10704,"ventur":10705,"eĠshar":10706,"justĠasĠ":10707,"ingĠwithĠtheĠ":10708,"Ġquit":10709,"Ġtypical":10710,"Ġturnover":10711,"Ġcraft":10712,"departmentĠof":10713,"Ġhigher":10714,",ĠweĠwill":10715,"team":10716,"Ġinstagram":10717,"rightĠtoĠ":10718,"ĠtechnologiesĠ":10719,"Ġpre-":10720,"wantedĠtoĠ":10721,".ĠforĠexample":10722,"Ġseries":10723,"ĠshopifyĠthem":10724,"eĠanĠ":10725,"honest":10726,"Ġu.s.Ġ":10727,"restaurantĠ":10728,"Ġzeal":10729,"Ġlegisl":10730,"focusĠ":10731,"oogle":10732,"promotion":10733,"betterĠthan":10734,"investment":10735,"ĠmaybeĠ":10736,"widelyĠ":10737,"dependentĠ":10738,"Ġlarger":10739,"eĠmoneyĠ":10740,"ĠassessmentĠ":10741,"criteria":10742,"ider-":10743,"beginningĠof":10744,"ĠunderstandingĠof":10745,"taken":10746,"fortunately,Ġ":10747,"ĠtheĠcaseĠof":10748,"eĠdownload":10749,"Ġshare":10750,"Ġapproval":10751,"Ġaccommodation":10752,"ĠautomaticallyĠ":10753,"chines":10754,"ednesdayĠ":10755,"ĠkindsĠof":10756,"576":10757,"analys":10758,"Ġremoval":10759,"innovativeĠ":10760,"ĠtotallyĠ":10761,"Ġathletic":10762,"championship":10763,"quisition":10764,"Ġspiritual":10765,"junior":10766,"indonesia":10767,"ellectual":10768,"imultane":10769,"!Ġh":10770,"!ĠweĠ":10771,"%Ġoff":10772,")ĠtheĠ":10773,",Ġab":10774,",Ġadd":10775,"-off":10776,".Ġto":10777,".Ġam":10778,".tag":10779,"43":10780,"62":10781,"98":10782,"?ĠtheĠ":10783,"?Ġif":10784,"camera":10785,"candid":10786,"dimension":10787,"eater":10788,"gender":10789,"hall":10790,"iĠknow":10791,"jok":10792,"led":10793,"les,Ġ":10794,"mell":10795,"micro":10796,"nod":10797,"pg":10798,"pur":10799,"poor":10800,"puls":10801,"rud":10802,"ss":10803,"sĠtheĠp":10804,"six":10805,"shap":10806,"vc":10807,"xl":10808,"xĠ":10809,"Ð±":10810,"Ð·":10811,"ðŁ":10812,"Ġq":10813,"Ġip":10814,"ĠendĠ":10815,"Ġenglish":10816,"Ġelectric":10817,"Ġai":10818,"Ġa.m":10819,"inĠan":10820,"inĠtouch":10821,"sĠâĢĶ":10822,"err":10823,"ĠtheĠstor":10824,"ĠtheĠperfectĠ":10825,"ouis":10826,"ousĠin":10827,"Ġswe":10828,"ĠsetĠup":10829,"ati":10830,"atl":10831,"ingĠatĠtheĠ":10832,"ingĠproduct":10833,".Ġis":10834,".ĠbeĠ":10835,".ĠwhileĠ":10836,"esir":10837,"oĠ(":10838,"oĠd":10839,",Ġher":10840,",ĠinĠtheĠ":10841,",Ġhowever,Ġ":10842,"isan":10843,"ĠcourtĠ":10844,"oma":10845,"omentĠ":10846,"theĠf":10847,"elter":10848,"youĠwith":10849,"youâĢĻreĠ":10850,"youĠneedĠtoĠ":10851,"Ġped":10852,"sty":10853,"entor":10854,"entenc":10855,"Ġdifficult":10856,"Ġdumpster":10857,"usually":10858,"olt":10859,"olish":10860,"ureĠs":10861,"esĠd":10862,"esĠus":10863,"ationĠtoĠ":10864,"ationĠ(":10865,"amar":10866,"ifĠtheyĠ":10867,"âĢĻsĠtheĠ":10868,"illow":10869,"exampleĠ":10870,"residenc":10871,"Ġluck":10872,"prob":10873,"eĠtool":10874,"rier":10875,"romotion":10876,"umentsĠ":10877,".ĠtheĠfirstĠ":10878,"e.ĠwhatĠ":10879,"ĠtheĠsmall":10880,"Ġtrap":10881,"ance,":10882,"anceĠwith":10883,"ĠoneĠofĠtheĠ":10884,"ghan":10885,"overwhelm":10886,"s>Ġ<s>Ġp":10887,"s>Ġ<s>Ġour":10888,"etĠwith":10889,"effortĠ":10890,"ownedĠ":10891,"ĠatĠtheĠm":10892,"ĠatĠtheĠtop":10893,"canĠi":10894,"canĠalsoĠ":10895,"formal":10896,"ĠtheĠcity":10897,",Ġsay":10898,"izabeth":10899,"ĠtheĠbusiness":10900,"eĠandĠmor":10901,"ĠtheĠpump":10902,"e.Ġall":10903,"Ġapartment":10904,"ĠatĠs":10905,"edĠinformation":10906,"Ġislam":10907,"easily":10908,"neak":10909,"eĠfollow":10910,"egon":10911,"ingĠsession":10912,"ingĠsometh":10913,"eĠforĠyou":10914,"ĠunitedĠ":10915,"dryer":10916,"ĠtheseĠc":10917,"goĠtoĠ":10918,"argain":10919,"e,Ġthen":10920,"atedĠfor":10921,"ĠaddedĠ":10922,"Ġtwist":10923,"esĠandĠother":10924,"letâĢĻsĠ":10925,"looksĠlik":10926,"place.Ġ":10927,"Ġground":10928,"includedĠ":10929,"noĠmatter":10930,"Ġpract":10931,"ĠtheĠgameĠ":10932,"Ġsequ":10933,"ĠbeingĠa":10934,"Ġupon":10935,"scienc":10936,"rosoftĠ":10937,"guilt":10938,"frust":10939,"riptĠ":10940,"extensiveĠ":10941,"Ġboot":10942,"corn":10943,"ablesĠ":10944,"lifeĠandĠ":10945,"Ġbrain":10946,"becauseĠtheyĠ":10947,"experienceĠin":10948,"Ġoutsid":10949,"ĠdaysĠof":10950,"generic":10951,"ĠinterestĠin":10952,"operateĠ":10953,"ĠturnedĠout":10954,"willĠbeĠs":10955,".ĠyouĠmayĠ":10956,"ĠhighlyĠ":10957,"ĠrelatedĠ":10958,"havingĠ":10959,"ĠbackgroundĠ":10960,"sĠareĠtheĠ":10961,"ĠexperienceĠ":10962,"ĠexperienceĠin":10963,"eĠtimeĠtoĠ":10964,"onceĠyou":10965,"uggestĠ":10966,"Ġ&Ġco":10967,"processor":10968,"Ġcompany":10969,"canĠbeĠd":10970,"Ġsurger":10971,"expectedĠ":10972,"metal":10973,"ĠcaseĠof":10974,"ategoryĠ":10975,"aught":10976,"Ġansw":10977,"sĠacros":10978,"Ġsharp":10979,"builder":10980,"ĠassistantĠ":10981,"somethingĠ":10982,"knowledgeĠof":10983,"Ġoccur":10984,"committedĠtoĠ":10985,"ignificantlyĠ":10986,"Ġdui":10987,"ĠtheĠfirstĠtim":10988,"Ġpromotion":10989,"abinetĠ":10990,"ecomp":10991,"ĠquicklyĠ":10992,"eĠpresent":10993,"Ġpolish":10994,"rapid":10995,"ĠappreciateĠ":10996,"atisfy":10997,"Ġbalanc":10998,"ĠlessĠthan":10999,"destination":11000,"ĠaĠperfectĠ":11001,"ĠimpactĠ":11002,"normallyĠ":11003,"preced":11004,"Ġcriminal":11005,"yndrom":11006,"urolog":11007,"edicatedĠtoĠ":11008,"reinforc":11009,"ĠaĠpowerful":11010,"Ġveget":11011,"zaditen":11012,"ĠconventionĠheldĠin":11013,"!Ġyou":11014,")Ġwith":11015,".a":11016,"02":11017,"022":11018,"a,":11019,"band":11020,"bathroom":11021,"breath":11022,"cium":11023,"dl":11024,"doubleĠ":11025,"hitĠ":11026,"iew":11027,"ianceĠ":11028,"mg":11029,"motor":11030,"mistak":11031,"oop":11032,"skin":11033,"safet":11034,"uan":11035,"ueĠtoĠ":11036,"yoga":11037,"Â©":11038,"Ð³":11039,"Ġtunnel":11040,"ĠtennisĠ":11041,"Ġtutorial":11042,"Ġaust":11043,"ĠaheadĠof":11044,"in-":11045,"inĠtheĠf":11046,"insuranceĠ":11047,"sĠmor":11048,"sĠhadĠ":11049,"onyĠ":11050,"tĠg":11051,"orĠfor":11052,"orĠher":11053,"ĠtheĠper":11054,"ĠtheĠâĢľ":11055,"atingĠa":11056,"atedĠandĠ":11057,"ingĠcondition":11058,"ingĠproject":11059,"ingham":11060,"Ġank":11061,".Ġmor":11062,"aryĠandĠ":11063,"icles":11064,"ichael":11065,"isĠaĠm":11066,"Ġcur":11067,"ĠcardĠ":11068,"Ġcrown":11069,"thĠandĠ":11070,"Ġwire":11071,"ĠwideĠ":11072,"Ġwednesday":11073,"youĠshouldĠ":11074,"Ġpriz":11075,"strip":11076,"ĠtoĠher":11077,"ĠtoĠchoos":11078,"chest":11079,"Ġml":11080,"ĠmostĠof":11081,"Ġbad":11082,"Ġbirth":11083,"ĠdeĠ":11084,"Ġdos":11085,"Ġdub":11086,"acros":11087,"Ġfear":11088,"Ġfederal":11089,"immediateĠ":11090,"verification":11091,"amatic":11092,"irk":11093,"ĠofĠtheĠd":11094,"Ġalter":11095,"Ġgal":11096,"ageĠofĠ":11097,"Ġnik":11098,"Ġstack":11099,"ĠlateĠ":11100,"eĠtry":11101,"otter":11102,"contractor":11103,"conflict":11104,"s.Ġon":11105,"ivity":11106,"eviceĠ":11107,"sĠofĠb":11108,"estyleĠ":11109,"sĠare":11110,"s,Ġh":11111,"Ġforum":11112,"ency":11113,"enceĠandĠ":11114,"ĠtroubleĠ":11115,"ĠonĠtheĠs":11116,"ocurr":11117,"ĠasĠpossibleĠ":11118,"sĠandĠm":11119,"Ġprovision":11120,"s>Ġ<s>Ġs":11121,"sĠinvolv":11122,"otherĠthan":11123,"Ġaspir":11124,"eĠdidĠ":11125,"eĠdisc":11126,"workingĠin":11127,"Ġjos":11128,"edĠbecaus":11129,"inton":11130,"ĠtheĠpeac":11131,"hereĠtoĠ":11132,"Ġextr":11133,"ĠexecutiveĠ":11134,"e.ĠanyĠ":11135,"eĠcam":11136,"eĠclear":11137,"s.ĠsoĠ":11138,"eĠbec":11139,"eĠbusiness":11140,"eĠposition":11141,"assemblyĠ":11142,"ingĠaĠ":11143,"ultimat":11144,".Ġi'veĠ":11145,"spok":11146,"engineĠ":11147,"elph":11148,".Ġsc":11149,"ĠtakingĠa":11150,"rowdĠ":11151,"eĠhead":11152,"y.Ġin":11153,"issan":11154,"s,ĠasĠwellĠasĠ":11155,"atedĠon":11156,"boostĠ":11157,"urnish":11158,"sĠareĠa":11159,"regim":11160,"myĠown":11161,"flat":11162,"flash":11163,"flamm":11164,"e-of":11165,"ingĠman":11166,"ĠaĠdist":11167,"Ġprinter":11168,"ificat":11169,"ĠseatĠ":11170,"ed.Ġin":11171,"Ġattribut":11172,"blanc":11173,"basedĠ":11174,"french":11175,"ingĠdesign":11176,",Ġmay":11177,"ĠsometimesĠ":11178,"Ġstudies":11179,",ĠiĠhaveĠ":11180,"self-":11181,"ĠmakeĠyour":11182,"ationĠofĠ":11183,"ĠtheĠwin":11184,"medium":11185,"whereĠyouĠcan":11186,"rontĠof":11187,"madeĠof":11188,"madeĠfrom":11189,"ĠpartyĠ":11190,"Ġtechnician":11191,"becauseĠyou":11192,"Ġdivers":11193,"atedĠtheĠ":11194,"everyĠday":11195,"coverageĠ":11196,"virginia":11197,"Ġquarter":11198,"ĠdaysĠ":11199,"weekendĠ":11200,"managedĠtoĠ":11201,",ĠwhichĠis":11202,"ĠalwaysĠa":11203,"ĠalwaysĠs":11204,"manyĠother":11205,"Ġairlin":11206,"ĠairportĠ":11207,"Ġdeclar":11208,"provinc":11209,"department":11210,"Ġfrank":11211,"mainten":11212,"e.Ġi'veĠ":11213,"Ġinstance,Ġ":11214,"ĠinsteadĠof":11215,"havingĠtoĠ":11216,"Ġconserv":11217,"ĠanĠintegr":11218,"ĠtoĠdeliver":11219,"erciseĠ":11220,"marri":11221,"ĠgroupĠof":11222,"eĠany":11223,"Ġrealiz":11224,"enoughĠtoĠ":11225,"ĠoffersĠ":11226,"Ġproceed":11227,"ĠaĠrang":11228,"Ġsmil":11229,"ĠtheĠtopĠ":11230,"reduceĠtheĠ":11231,"immigration":11232,"buyer":11233,"Ġeasier":11234,"sĠacross":11235,"dealĠwith":11236,"capableĠof":11237,"ĠfriendsĠandĠ":11238,"receivedĠ":11239,"received":11240,"delet":11241,"Ġfeatur":11242,"ĠnationalĠpark":11243,"enuin":11244,"Ġdepos":11245,"lordĠ":11246,"anchis":11247,"ĠcurrentlyĠ":11248,"Ġvolum":11249,"historic":11250,"relief":11251,"vehicle":11252,"upplier":11253,"iously":11254,"ĠsportsĠ":11255,"Ġdiscuss":11256,"ĠcouldnâĢĻtĠ":11257,"Ġpictur":11258,"eograph":11259,"Ġradio":11260,"atalog":11261,"experiment":11262,"Ġdoesn'tĠ":11263,"grateful":11264,"Ġconfidenc":11265,"convinc":11266,"restrict":11267,"Ġfig.Ġ":11268,"Ġcontrast":11269,"eĠfinish":11270,"sĠmustĠbeĠ":11271,"liquid":11272,"inspiredĠ":11273,"yptocurr":11274,"ĠtheĠpreviousĠ":11275,"idoĠauthenticator":11276,"iblical":11277,"obligation":11278,"despit":11279,"Ġadministrator":11280,"mospher":11281,"ersĠbibleĠcoloringĠp":11282,"ĠadministrativeĠ":11283,"aipur":11284,"ecomputer":11285,",Ġam":11286,",ĠaĠp":11287,",ĠthereĠisĠ":11288,",ĠthisĠisĠ":11289,"58":11290,"?Ġwell":11291,"aĠl":11292,"bm":11293,"bn":11294,"bleĠ":11295,"cow":11296,"cutt":11297,"dos":11298,"dens":11299,"differ":11300,"eâĢĶ":11301,"fle":11302,"goldĠ":11303,"hun":11304,"hash":11305,"iedĠwith":11306,"jac":11307,"lon":11308,"mith":11309,"nc":11310,"nos":11311,"neck":11312,"numerousĠ":11313,"oir":11314,"paul":11315,"rĠ":11316,"sĠan":11317,"seat":11318,"sink":11319,"social":11320,"tar":11321,"twoĠ":11322,"va":11323,"vic":11324,"Â»":11325,"Ùħ":11326,"Ġemploye":11327,"Ġegg":11328,"Ġepisod":11329,"Ġtar":11330,"Ġtight":11331,"Ġtah":11332,"Ġtabl":11333,"ĠaĠsp":11334,"ĠaidĠ":11335,"sĠprovid":11336,"sĠwho":11337,"sĠwhoĠareĠ":11338,"onn":11339,"enessĠof":11340,"ouver":11341,"ĠsureĠ":11342,"Ġsister":11343,"ĠselectĠ":11344,"atabas":11345,"ingĠthes":11346,"ingĠthing":11347,"ingĠwas":11348,"ingĠaround":11349,"itial":11350,".Ġboth":11351,".Ġwhether":11352,".Ġdon'tĠ":11353,"esĠall":11354,"esĠandĠtheĠ":11355,",Ġre":11356,"ico":11357,"ican":11358,"Ġcat":11359,"omach":11360,"ĠandĠher":11361,"Ġpen":11362,"Ġpas":11363,"Ġpeter":11364,"ĠpaidĠ":11365,"Ġpixel":11366,"edĠsh":11367,"ed.ĠthisĠ":11368,"rootĠ":11369,"chor":11370,"Ġmg":11371,"Ġmolec":11372,"asĠa":11373,"ecureĠ":11374,"Ġdig":11375,"usa":11376,"uspect":11377,"olina":11378,"ureĠm":11379,"Ġfuel":11380,"idi":11381,"Ġin-":11382,"ĠinĠh":11383,"etup":11384,"atĠleastĠ":11385,"lodg":11386,"ingĠre":11387,"adoĠ":11388,"whoseĠ":11389,"ĠofĠh":11390,"ĠofĠl":11391,"Ġarrest":11392,"exas":11393,"exclud":11394,"agic":11395,"restĠofĠtheĠ":11396,"reserveĠ":11397,"itĠor":11398,"withĠm":11399,"ĠnearlyĠ":11400,"ĠstandĠ":11401,"Ġrefl":11402,"Ġreput":11403,"convers":11404,"consequenc":11405,"e.Ġc":11406,"e.ĠmyĠ":11407,"ĠareĠa":11408,"eston":11409,"eptĠof":11410,"ĠforĠthisĠ":11411,"ancell":11412,"Ġshower":11413,"Ġon-":11414,"Ġwhom":11415,"yourĠneed":11416,"artist":11417,"overĠtheĠ":11418,"Ġprotein":11419,"eah":11420,"haveĠan":11421,"Ġvent":11422,"ĠyourĠhom":11423,"Ġador":11424,"ownersĠ":11425,"otherap":11426,"Ġchrom":11427,"ĠtheĠmember":11428,"ĠtheĠmoreĠ":11429,"available":11430,"eĠdoĠ":11431,"workersĠ":11432,"Ġexpression":11433,"eĠcost":11434,"s.ĠandĠ":11435,"ĠiĠthink":11436,"Ġ(p":11437,"eĠbut":11438,"eĠbyĠs":11439,"eĠboth":11440,"eĠpay":11441,"icketĠ":11442,"ickman":11443,"ingĠagain":11444,"contin":11445,"makingĠitĠ":11446,"makeup":11447,"ĠwillĠnotĠ":11448,"sponsor":11449,"Ġaffiliat":11450,"oneĠcan":11451,".Ġso,Ġ":11452,"award":11453,"es.ĠitĠ":11454,"ĠusingĠ":11455,"ĠtoĠsell":11456,"ĠtakeĠyour":11457,"ingĠschool":11458,"ingĠsolution":11459,"preserv":11460,"Ġaglim":11461,"butĠtheĠ":11462,"ingĠinter":11463,"ĠmoreĠs":11464,"Ġresidential":11465,"youĠcanĠse":11466,"reativeĠ":11467,"ĠaĠclear":11468,"parallel":11469,"veryĠbestĠ":11470,"ingĠbut":11471,"Ġgram":11472,"ingĠmethod":11473,"eĠisĠnotĠ":11474,"wouldĠyou":11475,"wouldĠbeĠa":11476,"ingĠcl":11477,"Ġcontroll":11478,"riven":11479,"heĠwas":11480,"ĠtheĠnation":11481,"Ġattestation":11482,"Ġpermission":11483,"bless":11484,"crack":11485,"ĠsomeĠcas":11486,",ĠiâĢĻm":11487,"Ġdisorder":11488,"ĠweĠwereĠ":11489,"oneĠofĠtheĠbestĠ":11490,"consolid":11491,"nois":11492,"attend":11493,"attach":11494,"medic":11495,"ures.Ġ":11496,"ingĠfac":11497,"ĠphotoĠ":11498,"experiencedĠ":11499,"peopleĠwhoĠ":11500,"ponsor":11501,"Ġalways":11502,"Ġguess":11503,"Ġauto":11504,"eĠtrack":11505,"Ġtrainer":11506,"Ġfrench":11507,"Ġmedic":11508,"Ġmedication":11509,"ĠplaceĠ":11510,"ĠandĠpepper":11511,"netic":11512,"continueĠ":11513,"ĠaĠlot":11514,"ĠaĠlov":11515,"lawyer":11516,"Ġconsumer":11517,"productiveĠ":11518,"ĠaccessĠto":11519,"livingĠroom":11520,"lessĠthanĠ":11521,"prison":11522,"greatĠfor":11523,"ecessaryĠ":11524,"ĠtheĠtimeĠ":11525,"Ġfacial":11526,"friendly":11527,"collectĠ":11528,"ĠcorporateĠ":11529,"ĠtoĠmoveĠ":11530,"etc.Ġ":11531,"Ġintens":11532,"Ġtourist":11533,"dui":11534,"Ġalready":11535,"Ġsmaller":11536,"-in-":11537,"contactĠusĠ":11538,"Ġexcel":11539,"valle":11540,"ĠaudioĠ":11541,"districtĠ":11542,"Ġmetadata":11543,"ĠthisĠseason":11544,"desk":11545,"ĠheartĠ":11546,"importantly":11547,"edĠaway":11548,"Ġinvestig":11549,"eĠmanufactur":11550,"quiteĠa":11551,"Ġremodel":11552,"participateĠin":11553,"againstĠ":11554,"determineĠ":11555,"Ġvalle":11556,"involvedĠin":11557,"believeĠthatĠ":11558,"ĠcertainlyĠ":11559,"kindleĠ":11560,"convenient":11561,"immediately":11562,"ĠtitleĠ":11563,"ĠaccurateĠ":11564,"victim":11565,"Ġopportunities":11566,"Ġstrengthen":11567,"belong":11568,"graduateĠ":11569,"destroy":11570,"mosphereĠ":11571,"uspension":11572,"ĠtheĠfrontĠ":11573,"Ġmichael":11574,"Ġoriginal":11575,"ĠtheĠheartĠof":11576,"washerĠdryer":11577,"Ġnutrition":11578,"legislation":11579,"Ġlaser":11580,"ĠaĠprofessional":11581,"letĠusĠknow":11582,"ichelangel":11583,"wealth":11584,"!âĢĿ":11585,",ĠtheyĠareĠ":11586,"-dayĠ":11587,".Ġas":11588,"130":11589,"345":11590,"51":11591,"73":11592,"aer":11593,"aĠf":11594,"aĠk":11595,"bw":11596,"bitĠ":11597,"bitĠof":11598,"city":11599,"counsel":11600,"dar":11601,"gal":11602,"gov":11603,"ij":11604,"iatedĠ":11605,"million":11606,"oardĠ":11607,"ptĠ":11608,"pas":11609,"pectĠ":11610,"pair":11611,"peak":11612,"ryĠtoĠ":11613,"typ":11614,"ues":11615,"vd":11616,"vastĠ":11617,"y;":11618,"ye":11619,"Ð¹":11620,"íķ":11621,"Ġ>":11622,"Ġ,Ġ":11623,"Ġeconom":11624,"Ġerror":11625,"Ġenterpris":11626,"ĠaĠspecific":11627,"inĠtheĠp":11628,"inĠwhich":11629,"sĠeach":11630,"sĠhasĠ":11631,"sĠhaveĠa":11632,"era":11633,"erĠand":11634,"one-":11635,"organ":11636,"ĠtheĠworldĠ":11637,"ouston":11638,"anĠin":11639,"Ġsy":11640,"Ġsor":11641,"Ġsoft":11642,"Ġsetting":11643,"Ġsatisfaction":11644,"ingĠcompan":11645,"itl":11646,"alanc":11647,".Ġcheck":11648,".Ġfollow":11649,".ĠdoĠyou":11650,"icoĠ":11651,"icism":11652,"isa":11653,"isnâĢĻtĠ":11654,"Ġcities":11655,"ĠandĠnotĠ":11656,"ĠandĠhelp":11657,"theyĠ":11658,"Ġpic":11659,"Ġpil":11660,"Ġputt":11661,"strik":11662,"edĠvia":11663,"ed;":11664,"ĠtoĠdis":11665,"ĠtoĠdevelop":11666,"roid":11667,"roleĠof":11668,"chen":11669,"Ġmail":11670,"ĠbeĠa":11671,"Ġbey":11672,"ĠboughtĠ":11673,"ĠbudgetĠ":11674,"Ġdress":11675,"uring":11676,"esĠm":11677,"emaleĠ":11678,"ĠinĠorder":11679,"amak":11680,"amount":11681,"uni":11682,"iri":11683,"loon":11684,"ingĠgroup":11685,"ingĠjob":11686,"ingĠeventĠ":11687,"ultra":11688,"Ġarg":11689,"external":11690,"resid":11691,"hausĠ":11692,"ĠnightĠ":11693,"Ġstrip":11694,"plat":11695,"comic":11696,"compris":11697,"comesĠfrom":11698,"comfortĠ":11699,"ĠthatĠin":11700,"ĠthatĠour":11701,"ĠthatĠhasĠ":11702,"eĠsection":11703,"upcom":11704,"eĠofĠtheĠs":11705,"Ġrecr":11706,"s.Ġhow":11707,"s.ĠwhatĠ":11708,"e.Ġ\"":11709,"e.Ġwith":11710,"beer":11711,"sĠagoĠ":11712,"s,ĠwhoĠ":11713,"ĠforĠmyĠ":11714,"ĠforĠhisĠ":11715,"ĠtheĠskill":11716,"e,Ġinclud":11717,"Ġsheet":11718,"ĠallĠaboutĠ":11719,"outlin":11720,",ĠandĠother":11721,"eau":11722,"eĠinstall":11723,"Ġconversation":11724,"princeĠ":11725,"prais":11726,"prilĠ":11727,"Ġadoption":11728,"willĠalsoĠ":11729,"Ġrent":11730,"Ġraw":11731,"ĠtheĠmor":11732,"Ġcomb":11733,"eĠmuch":11734,"outĠfor":11735,"aving":11736,"avityĠ":11737,"ĠtheĠcenter":11738,"izeĠtheĠ":11739,"eĠtoĠgetĠ":11740,"ĠthatĠthisĠ":11741,"worker":11742,"Ġjump":11743,"ĠjesusĠ":11744,"e.Ġa":11745,"e.ĠandĠ":11746,"Ġspeech":11747,"Ġ(âĢľ":11748,"eĠbr":11749,"eĠbelow":11750,"eĠbox":11751,"ĠtheĠdem":11752,"ĠisĠaĠm":11753,"negl":11754,"ingĠaĠnew":11755,"wasĠnotĠ":11756,"contemporaryĠ":11757,"eĠfre":11758,".ĠiĠwouldĠ":11759,".ĠiâĢĻveĠ":11760,"âĢĿĠandĠ":11761,"Ġleak":11762,"whenĠh":11763,"brain":11764,"tool":11765,"ĠtoĠsupportĠ":11766,"ĠtakeĠcar":11767,"ingĠsoon":11768,"eĠhear":11769,"evenĠmoreĠ":11770,"remodel":11771,"internal":11772,"ĠmoreĠin":11773,"Ġresidenc":11774,"ĠtheĠhuman":11775,"ĠafterĠ":11776,"ing,Ġor":11777,"eĠthatĠi":11778,"ingĠbecaus":11779,"ĠaĠdi":11780,"firmed":11781,"wouldĠnotĠ":11782,"eĠonlyĠ":11783,"ingĠcenter":11784,"requireĠ":11785,"Ġbehalf":11786,"qualityĠandĠ":11787,"ĠaĠglobal":11788,"coastĠ":11789,"ingĠdi":11790,"crush":11791,"backĠin":11792,"ĠdisplayĠ":11793,".ĠweĠalsoĠ":11794,"Ġsupporter":11795,"ĠaĠhom":11796,"ĠimproveĠ":11797,"ĠmakeĠtheĠ":11798,"ĠmakeĠitĠ":11799,"abilitiesĠ":11800,"ĠyesĠ":11801,"ĠtheĠwr":11802,"needsĠof":11803,"ĠenvironmentĠ":11804,"edĠservic":11805,"Ġstraw":11806,"long-term":11807,"pecial":11808,"statement":11809,"statistic":11810,"personallyĠ":11811,",Ġyou'll":11812,"login":11813,"edĠmeĠ":11814,"study":11815,"studio":11816,"hasĠtheĠ":11817,"learnĠmoreĠaboutĠ":11818,"Ġcarbon":11819,"operational":11820,"ĠlikeĠtoĠ":11821,"unnyĠ":11822,"namentĠ":11823,".ĠyouĠareĠ":11824,"filiateĠ":11825,"ificationĠof":11826,"worldwid":11827,",ĠweĠcan":11828,"Ġso,Ġ":11829,"issuesĠ":11830,"Ġcoast":11831,"freeĠof":11832,"completeĠtheĠ":11833,"offersĠ":11834,"ĠaĠvide":11835,"considered":11836,"knif":11837,"unctional":11838,"neverĠbeen":11839,"Ġappropri":11840,"ĠwhoĠisĠ":11841,"embedd":11842,"Ġflavor":11843,"edĠfromĠtheĠ":11844,"closeĠtoĠ":11845,"wrap":11846,"largelyĠ":11847,"featureĠ":11848,"Ġeveryon":11849,"ĠeveryoneĠ":11850,"websiteĠ":11851,"gettingĠa":11852,"Ġzon":11853,"insight":11854,"Ð¾Ð´":11855,"eĠmoreĠthan":11856,"validĠ":11857,"Ġauthoriz":11858,"capac":11859,"haveĠtoĠbeĠ":11860,"Ġoperat":11861,"ordinaryĠ":11862,"radioĠ":11863,"Ġfeature":11864,"ignificant":11865,"careful":11866,"Ġcurrent":11867,"ĠpolicyĠ":11868,"Ġexpens":11869,"strategic":11870,"Ġbelief":11871,"Ġcompetitor":11872,"prepareĠ":11873,"exactly":11874,"agreement":11875,"sĠapp":11876,"ĠtheĠsituation":11877,"eĠtransfer":11878,"januaryĠ":11879,"straightĠ":11880,"Ġprincip":11881,"Ġsunday":11882,"ĠtheĠfront":11883,"independentĠ":11884,"criminal":11885,"[Ġuafauthnr":11886,"ypsumĠpowder":11887,"uddhistĠ":11888,"Ġtranspar":11889,"Ġthird-":11890,"Ġdestination":11891,"liberal":11892,"athematic":11893,"!).":11894,"(b":11895,",ĠaĠ":11896,",Ġthis":11897,".Ġthough":11898,".Ġtop":11899,".ĠthereĠis":11900,"480":11901,"91":11902,"?Ġor":11903,"a.ĠtheĠ":11904,"buck":11905,"bench":11906,"cleĠ":11907,"cript":11908,"flyĠ":11909,"fight":11910,"fuel":11911,"ge":11912,"hp":11913,"hum":11914,"mid":11915,"o.":11916,"oat":11917,"panel":11918,"ryĠandĠ":11919,"rington":11920,"rule":11921,"san":11922,"saw":11923,"sgiv":11924,"sugar":11925,"tv":11926,"urop":11927,"wrot":11928,"xim":11929,"yal":11930,"ydr":11931,"Î»":11932,"ĠearlyĠ":11933,"ĠetĠal":11934,"Ġtill":11935,"ĠtreeĠ":11936,"Ġax":11937,"ĠaverageĠ":11938,"in,Ġ":11939,"insid":11940,"inĠorder":11941,"Ġthirt":11942,"sĠour":11943,"sĠnear":11944,"relyĠon":11945,"Ġsq":11946,"Ġsweet":11947,"atedĠb":11948,"ately":11949,"ing/":11950,"ingĠch":11951,"ingĠwell":11952,"Ġanatom":11953,".Ġ-":11954,".ĠdonâĢĻtĠ":11955,"esis":11956,"oĠof":11957,",Ġlik":11958,",Ġboth":11959,",Ġwho":11960,"Ġcabinet":11961,"ĠandĠover":11962,"ĠandĠnew":11963,"Ġpound":11964,"Ġpink":11965,"Ġpatch":11966,"stress":11967,"ed)":11968,"ĠtoĠitsĠ":11969,"ĠtoĠhaveĠa":11970,"ĠtoĠreach":11971,"roch":11972,"choiceĠ":11973,"Ġband":11974,"Ġbik":11975,"ĠbioĠ":11976,"Ġhir":11977,"Ġdan":11978,"usersĠ":11979,"uspic":11980,"oleĠ":11981,"urk":11982,"ĠfullyĠ":11983,"imper":11984,"esĠover":11985,"esĠbyĠ":11986,"verg":11987,"ĠtoĠspeak":11988,"unicipal":11989,"loans":11990,"ingĠusĠ":11991,"leĠd":11992,"ifĠh":11993,"ulner":11994,"Ġalon":11995,"ĠyouĠneedĠtoĠ":11996,"ĠgasĠ":11997,"extract":11998,"eĠthoseĠ":11999,"Ġstamp":12000,"Ġandrew":12001,"ĠlandĠ":12002,"prohib":12003,"comeĠfrom":12004,"ighbour":12005,"ries.Ġ":12006,"s.ĠmyĠ":12007,"ivesĠ":12008,"ĠtheĠsiz":12009,"ĠtheĠserver":12010,"ancouver":12011,"ĠonĠa":12012,"ĠwithĠher":12013,"ocrac":12014,"sĠandĠcondition":12015,"weĠknow":12016,"overcom":12017,"Ġprob":12018,"Ġvoter":12019,"Ġadachi":12020,"ody":12021,"otherwiseĠ":12022,"Ġris":12023,"liver":12024,"liament":12025,"fertil":12026,"ĠtheĠmet":12027,"ĠtheĠmanyĠ":12028,"ĠcomeĠ":12029,"canĠyou":12030,"eĠmet":12031,"ĠorĠother":12032,"ĠtheĠcityĠ":12033,"ĠtheĠfamil":12034,"eĠdifferentĠ":12035,"Ġexercis":12036,"ĠexampleĠ":12037,"s.ĠsheĠ":12038,"Ġapart":12039,"iah":12040,"cretion":12041,"creating":12042,"truth":12043,"ĠisĠaĠf":12044,"sĠtoĠhelp":12045,"ultureĠ":12046,"ultimatelyĠ":12047,"eĠfind":12048,"makeĠan":12049,"viation":12050,"moreĠin":12051,"âĢĿĠin":12052,"ĠtheĠtour":12053,"ĠtheĠtwo":12054,"posal":12055,"brush":12056,"brought":12057,".Ġsuch":12058,"sĠforĠsal":12059,"inctĠ":12060,"ingĠsit":12061,"eĠheĠ":12062,"ĠthanĠtheĠ":12063,"drill":12064,"drais":12065,"ĠagentĠ":12066,"ĠtheseĠday":12067,"goingĠ":12068,"boat":12069,"ĠmyĠf":12070,"ĠmyĠown":12071,"Ġnews":12072,".ĠthisĠwill":12073,"ingĠprof":12074,"edĠonĠ":12075,"edĠonlyĠ":12076,"ritain":12077,"ordination":12078,"ingĠboth":12079,"ollabor":12080,"ĠaĠdailyĠ":12081,"edĠbyĠour":12082,"ingĠcost":12083,"azyĠ":12084,"carth":12085,"identical":12086,"Ġanywher":12087,"edĠforĠ":12088,"Ġrecall":12089,"ĠapplyĠfor":12090,"ĠthoseĠs":12091,"relativ":12092,"backgroundĠ":12093,"Ġyard":12094,"Ġyoga":12095,"ĠfinallyĠ":12096,"italian":12097,"ropical":12098,"ures,Ġ":12099,"Ġminor":12100,"ingĠtooĠ":12101,"Ġstrain":12102,"Ġdiabet":12103,"volunte":12104,"Ġdon't":12105,"everyĠyear":12106,"ĠthingsĠthatĠ":12107,"Ġdays":12108,"nameĠisĠ":12109,"northern":12110,"ĠfruitĠ":12111,"ĠlookĠat":12112,"ĠpartĠofĠtheĠ":12113,"grew":12114,"border":12115,"sĠaroundĠ":12116,"Ġtechnology":12117,"goĠon":12118,"Ġsite.Ġ":12119,"gradeĠ":12120,"holster":12121,"ieceĠof":12122,"ĠavailableĠtoĠ":12123,"canĠbeĠs":12124,"intoĠyour":12125,"Ġexamin":12126,"ĠtoĠputĠ":12127,"Ġwell-":12128,"ĠbeforeĠyou":12129,"ĠvisitĠ":12130,"uredĠin":12131,"ĠallĠofĠour":12132,"ĠhavingĠa":12133,"createĠtheĠ":12134,"accessĠ":12135,"Ġvideos":12136,"ĠdonâĢĻtĠknow":12137,"required:":12138,"recommendation":12139,"Ġoccasion":12140,"Ġpassword":12141,"Ġhistorical":12142,"ĠsaysĠ":12143,"betweenĠ":12144,"iousĠandĠ":12145,"ĠanalysisĠof":12146,"Ġsetup":12147,"ĠremoveĠ":12148,"certifi":12149,"certification":12150,"-based":12151,"eumat":12152,"ÑĢÐ°":12153,"Ġmilk":12154,"ĠlovelyĠ":12155,"ĠresourcesĠ":12156,"Ġapril":12157,"ĠagainstĠtheĠ":12158,"ĠthereforeĠ":12159,"ĠyearsĠold":12160,"ĠtheĠboardĠ":12161,"iconic":12162,"ĠproductĠweight":12163,"lookĠforward":12164,"ĠgarageĠdoor":12165,"relevant":12166,"navig":12167,"ĠrentalĠtracker":12168,"responsibilityĠfor":12169,"countryĠ":12170,"Ġwon'tĠ":12171,"Ġtomorrow":12172,"illustrat":12173,"originallyĠ":12174,"ĠcomfortableĠ":12175,"documentĠ":12176,"eĠpatrol":12177,"incorpor":12178,"Ġarthritis":12179,"constantlyĠ":12180,"ĠbenefitsĠ":12181,"Ġkorea":12182,"Ġcomparison":12183,"flix":12184,"co.uk":12185,"ĠweightĠlos":12186,"ĠtheĠlaunch":12187,"emtosecondĠ":12188,"ĠproductĠweight:Ġ":12189,"!ĠthisĠ":12190,"(e.g":12191,",ĠthereĠis":12192,".).":12193,".Ġadd":12194,"68":12195,"aun":12196,"averag":12197,"beĠt":12198,"bourn":12199,"budget":12200,"budgetĠ":12201,"besid":12202,"cos":12203,"cak":12204,"cycl":12205,"dot":12206,"difficultĠ":12207,"golf":12208,"hab":12209,"iĠloveĠ":12210,"iĠhad":12211,"jesusĠ":12212,"oesĠ":12213,"ographic":12214,"ps":12215,"petĠ":12216,"paid":12217,"sf":12218,"sess":12219,"sâĢĶ":12220,"tw":12221,"ueĠto":12222,"var":12223,"vital":12224,"wir":12225,"yr":12226,"yuk":12227,"Ġest":12228,"eĠanyĠ":12229,"eĠstor":12230,"iner":12231,"inyĠ":12232,"influ":12233,"sĠit":12234,"orient":12235,"ĠtheĠk":12236,"aneĠ":12237,"animal":12238,"ĠsuchĠasĠ":12239,"ĠsoftwareĠ":12240,"Ġsilver":12241,"atoĠ":12242,"ing;":12243,"ings":12244,"ingĠtheseĠ":12245,"ingĠwhen":12246,"album":12247,".Ġwill":12248,".ĠdoĠ":12249,"aryĠtoĠ":12250,"isĠaĠp":12251,"Ġcaf":12252,"ĠandĠwasĠ":12253,"ĠandĠgetĠ":12254,"ilet":12255,"elet":12256,"ĠweĠs":12257,"edĠisĠ":12258,"edĠaĠc":12259,"edium":12260,"edĠaroundĠ":12261,"ĠtoĠw":12262,"ĠtoĠuseĠ":12263,"rovers":12264,"chrom":12265,"charm":12266,"Ġben":12267,"Ġbali":12268,"ĠbootĠ":12269,"Ġhusband":12270,"Ġdiction":12271,"urtĠ":12272,"Ġfeedback":12273,"imentĠ":12274,"igare":12275,"Ġinfo":12276,"etical":12277,"ĠtoĠthatĠ":12278,"ĠtoĠthink":12279,"ĠtoĠtalk":12280,"ĠtoĠstartĠ":12281,"ingĠrelationship":12282,"ulateĠ":12283,"Ġyou'll":12284,"Ġgold":12285,"Ġgeorg":12286,"rescu":12287,"itĠup":12288,"ourish":12289,"Ġnod":12290,"Ġstakeholder":12291,"ĠandĠan":12292,"ĠandĠto":12293,"ĠandĠtheĠp":12294,"plash":12295,"ĠlineĠ":12296,"eĠser":12297,"queryĠ":12298,"conflictĠ":12299,"andin":12300,"ucoĠ":12301,"beingĠin":12302,"beingĠd":12303,"sĠoften":12304,"ĠforĠour":12305,"ĠtheĠsal":12306,"ĠtheĠskin":12307,"ĠtheĠsouth":12308,"iveĠof":12309,"ĠsheĠisĠ":12310,"ĠwithĠyou":12311,"enda":12312,"endedĠup":12313,"Ġvin":12314,"Ġvendor":12315,"s>Ġ<s>Ġd":12316,"sĠinĠtheir":12317,"otherĠ":12318,"willĠhaveĠ":12319,"Ġrust":12320,"ĠruleĠ":12321,"bern":12322,"eĠmatch":12323,"eĠmedical":12324,"we'r":12325,"ĠtheĠclos":12326,"ĠtheĠfound":12327,"ĠtheĠfoodĠ":12328,",Ġsinc":12329,"eĠdiv":12330,"eĠdecision":12331,"eĠdirect":12332,"reck":12333,"workedĠ":12334,"ĠtheĠbritish":12335,"Ġju":12336,"Ġkinder":12337,"ignition":12338,"intel":12339,"eĠcould":12340,"eĠcustomer":12341,"s.ĠthisĠisĠ":12342,"Ġii":12343,"manyĠs":12344,"ĠspentĠ":12345,"Ġ(f":12346,"eĠbutton":12347,"eĠpowder":12348,"compon":12349,"composition":12350,"sĠtoĠyour":12351,"assag":12352,"Ġplent":12353,"context":12354,"eĠfill":12355,"ĠitâĢĻsĠa":12356,"egar":12357,".ĠiĠwas":12358,"speed":12359,"ĠtheyĠcouldĠ":12360,"âĢĿ)":12361,"ĠtheĠtool":12362,"whenĠitĠ":12363,"engageĠ":12364,"englandĠ":12365,"newspaper":12366,"brid":12367,"y,Ġwhich":12368,"ĠuseĠa":12369,"strain":12370,"ĠwordĠ":12371,"ingĠsuch":12372,"eĠforĠall":12373,"eĠhop":12374,"notification":12375,"eacher":12376,"ĠanĠopen":12377,"s,Ġthen":12378,"ĠaĠfun":12379,"ficial":12380,"ĠaĠbl":12381,"ĠwasĠin":12382,"ĠtheĠlist":12383,"previouslyĠ":12384,"readyĠfor":12385,"lookingĠatĠ":12386,"endĠofĠtheĠ":12387,"veryĠwell":12388,"ĠgrandĠ":12389,"ĠaĠdata":12390,"lossom":12391,"wouldĠlikeĠtoĠ":12392,"noĠoneĠ":12393,"101":12394,"ashboardĠ":12395,"aza":12396,"eĠwithoutĠ":12397,"Ġupd":12398,"coordinator":12399,"coconutĠwater":12400,"Ġperfect":12401,"cruis":12402,"crisp":12403,"ĠhowĠmuch":12404,"oldĠtest":12405,"legend":12406,"legallyĠ":12407,"sĠmightĠ":12408,"ĠaĠhugeĠ":12409,"sĠtooĠ":12410,"sĠtoday":12411,"reditĠ":12412,"playersĠ":12413,"rah":12414,"ĠtwoĠof":12415,"Ġenroll":12416,"eptor":12417,"ĠallowĠyou":12418,"lightly":12419,"ĠsoĠmanyĠ":12420,"ĠstorageĠ":12421,"communities":12422,"geran":12423,"esĠforĠtheĠ":12424,"ĠtopĠ":12425,"eventuallyĠ":12426,"ymmet":12427,"possess":12428,"Ġmedium":12429,"Ġsoil":12430,"ĠpeopleĠwhoĠ":12431,"rangingĠfrom":12432,"ĠsaleĠ":12433,"Ġpresenc":12434,"explo":12435,"lawĠfirm":12436,"productsĠ":12437,".ĠforĠmoreĠinformation":12438,"eĠofĠ$":12439,"resultsĠin":12440,"sĠaboutĠtheĠ":12441,"canĠbeĠa":12442,"ĠtoĠpayĠ":12443,"Ġtestimon":12444,"uccessĠof":12445,"ensureĠthat":12446,"eĠsomeoneĠ":12447,"s.ĠweĠhaveĠ":12448,"compliment":12449,"biggestĠ":12450,"Ġcoverag":12451,"deserv":12452,"advantageĠof":12453,"recognis":12454,"width":12455,"Ġcampus":12456,"ĠtoĠbeĠtheĠ":12457,"ĠperformanceĠ":12458,".Ġkg":12459,".ĠitâĢĻsĠa":12460,"electionĠof":12461,"Ġclassroom":12462,"s.ĠinĠaddition":12463,"Ġdirectly":12464,"ingĠtheĠdist":12465,"overallĠproductĠweight:Ġ":12466,"customersĠ":12467,"outsideĠtheĠ":12468,"Ġvehicl":12469,"regularlyĠ":12470,"ĠaĠcombin":12471,"perfectlyĠ":12472,"Ġbeliev":12473,"ĠaĠshortĠ":12474,"ĠtheĠtrans":12475,"ascular":12476,"ĠchristmasĠ":12477,"Ġquickly":12478,"ĠappointmentĠ":12479,"ĠfocusĠon":12480,"Ġfront":12481,"avouriteĠ":12482,"milk":12483,"waitĠ":12484,"Ġjanu":12485,"agreementĠ":12486,"ĠbedroomĠbench":12487,"https":12488,"constantĠ":12489,"s>Ġ<s>Ġwelcom":12490,"ĠthursdayĠ":12491,"Ġframework":12492,"ĠtemplateĠ":12493,"Ð´Ðµ":12494,"elegantĠ":12495,"jewish":12496,"mbh":12497,"ĠtexasĠ":12498,"Ġvitamin":12499,"ĠÎ¼":12500,"wholesal":12501,"ĠtheĠdirection":12502,"definitely":12503,"oxygen":12504,"ichelangelo":12505,"Ġrecruit":12506,"igarett":12507,"%ĠofĠtheĠ":12508,",ĠalsoĠ":12509,",ĠaĠf":12510,"-a":12511,"-mak":12512,"-level":12513,"-and-":12514,".ĠatĠtheĠ":12515,"/m":12516,"360":12517,"?\"":12518,"?Ġyou":12519,"?Ġwhat":12520,"],":12521,"_assertion":12522,"beĠtoĠ":12523,"ci":12524,"cienc":12525,"festival":12526,"hu":12527,"kenn":12528,"lav":12529,"les.Ġ":12530,"must":12531,"nl":12532,"ny":12533,"ohawk":12534,"p.":12535,"pp":12536,"ril":12537,"test":12538,"tax":12539,"ually,Ġ":12540,"ycle":12541,"Ãł":12542,"Ġec":12543,"Ġear":12544,"Ġriver":12545,"Ġevidenc":12546,"Ġtailor":12547,"Ġa.":12548,"inĠall":12549,"inessĠ":12550,"inaryĠ":12551,"instruction":12552,"inĠorderĠtoĠ":12553,"Ġthrill":12554,"sĠshouldĠbeĠ":12555,"onĠm":12556,"ontoĠ":12557,"ĠtheĠproblem":12558,"ĠtheĠuser":12559,"ĠtheĠopportunityĠtoĠ":12560,"ousĠandĠ":12561,"reaction":12562,"Ġsch":12563,"Ġsle":12564,"Ġsort":12565,"ĠsizeĠ":12566,"Ġsuffer":12567,"ĠseparateĠ":12568,"Ġsouthern":12569,"atent":12570,"ingĠmoreĠ":12571,"ingĠanĠin":12572,"ingĠprocessĠ":12573,"ita":12574,"itar":12575,"it'sĠa":12576,"yĠhasĠ":12577,".Ġ&":12578,".Ġ[":12579,".Ġcar":12580,".Ġcall":12581,".ĠgoodĠ":12582,"aril":12583,"arab":12584,",Ġz":12585,",ĠoneĠ":12586,",Ġinc":12587,",ĠwhatĠ":12588,",ĠinĠ":12589,"icated":12590,"isĠaĠf":12591,"ĠandĠbeĠ":12592,"thew":12593,"ello":12594,"eland":12595,"Ġwa":12596,"Ġware":12597,"Ġwarr":12598,"Ġpoll":12599,"Ġpred":12600,"ĠpurchaseĠ":12601,"edĠâĢľ":12602,"edĠdur":12603,"edĠaĠf":12604,"edĠawayĠ":12605,"chart":12606,"Ġmental":12607,"Ġmagazin":12608,"Ġbulb":12609,"Ġbottom":12610,"isĠfor":12611,"Ġhang":12612,"ĠdavidĠ":12613,"urger":12614,"ĠfriendĠ":12615,"Ġinspir":12616,"lover":12617,"lotion":12618,"ifth":12619,"ĠofĠan":12620,"ĠofĠall":12621,"ulu":12622,"opter":12623,"opposition":12624,"Ġalp":12625,"Ġarrow":12626,"ĠyouâĢĻll":12627,"agueĠ":12628,"resortĠ":12629,"itĠseem":12630,"ĠnameĠ":12631,"utah":12632,"ĠandĠam":12633,"ĠandĠadd":12634,"eĠtour":12635,"ĠthatĠitĠisĠ":12636,"eĠskill":12637,"eĠsuper":12638,"quietĠ":12639,"Ġreaction":12640,"Ġrevenu":12641,"congrat":12642,".ĠtheĠonlyĠ":12643,"ista":12644,"sĠofĠall":12645,"sĠofĠtheĠm":12646,"estrian":12647,"s,ĠyouĠcan":12648,"encod":12649,"Ġtrul":12650,"ancyĠ":12651,"anceĠon":12652,"Ġshin":12653,"Ġshift":12654,"ellingĠ":12655,"ĠoneĠor":12656,"article":12657,",ĠandĠisĠ":12658,",ĠandĠweĠ":12659,"ending":12660,"eaway":12661,"Ġconjunction":12662,"s>Ġ<s>Ġon":12663,"s>Ġ<s>ĠifĠyou":12664,"ly-":12665,"Ġadequ":12666,"odor":12667,"willĠhelp":12668,"lib":12669,"Ġattraction":12670,"Ġchanc":12671,"ĠchoiceĠ":12672,"Ġasid":12673,"eĠme":12674,"eĠmajor":12675,"weigh":12676,"ĠorĠin":12677,"avoid":12678,"mentor":12679,"Ġabstr":12680,"formatĠ":12681,"ĠtheĠfederal":12682,",Ġsuch":12683,"izeĠyour":12684,"notĠin":12685,"eĠtoĠdo":12686,"recycl":12687,"Ġjer":12688,"Ġjon":12689,"ĠjointĠ":12690,"Ġjaipur":12691,"Ġexhib":12692,"eĠcenter":12693,"eĠcounter":12694,"s.Ġall":12695,"Ġi'veĠ":12696,"yearsĠof":12697,"Ġ(andĠ":12698,"eĠpaper":12699,"eĠpointĠ":12700,"ĠtheĠdifferentĠ":12701,"ĠisĠaĠp":12702,"ĠamountĠ":12703,"ĠitsĠm":12704,"ers,Ġs":12705,"Ġwilliam":12706,"more,Ġ":12707,"ĠtheĠtw":12708,"newsĠ":12709,".ĠsinceĠ":12710,"doingĠ":12711,"ĠusingĠa":12712,"ingĠtheĠrightĠ":12713,"straw":12714,"ĠtoĠsom":12715,"ifĠyouĠcan":12716,"ĠthanĠever":12717,"notĠtheĠ":12718,"Ġago":12719,"s,ĠandĠtheĠ":12720,"eyeĠ":12721,"Ġrespond":12722,"ĠtheĠhospital":12723,"ĠaĠbusinessĠ":12724,"Ġnewspaper":12725,"oundĠof":12726,"monic":12727,"ĠaĠmuch":12728,"edĠwithin":12729,"disclos":12730,"displayĠ":12731,"looksĠ":12732,"lookedĠ":12733,"donâĢĻt":12734,"inĠtheĠworld":12735,"ingĠmember":12736,"ingĠmaterial":12737,"Ġhere.Ġ":12738,"ĠyearsĠandĠ":12739,"ĠaĠdayĠ":12740,"fireĠ":12741,"Ġcomput":12742,"viewĠof":12743,"eĠonĠyour":12744,"Ġsee":12745,"Ġbehavior":12746,"edĠtogether":12747,"Ġupgrad":12748,"ternoon":12749,"ĠaĠgrow":12750,"friday":12751,"Ġthermal":12752,"nership":12753,"ponent":12754,",ĠiĠwasĠ":12755,"Ġdiscount":12756,"electro":12757,"Ġmonitor":12758,"calendar":12759,"Ġmakeup":12760,"ĠtheĠrac":12761,"abilityĠandĠ":12762,"cordĠ":12763,"attention":12764,"attempt":12765,"ĠpartiesĠ":12766,"ingĠtop":12767,"ĠthanksĠto":12768,"long-":12769,"cleans":12770,"experience.Ġ":12771,"s,ĠandĠother":12772,"status":12773,"Ġdays.Ġ":12774,"generally":12775,"effectsĠof":12776,"125":12777,"Ġinterpret":12778,"Ġshowcas":12779,"gladĠ":12780,"Ġtop-":12781,"duringĠa":12782,"company,Ġ":12783,"Ġhighlight":12784,"requiresĠ":12785,"Ġfruit":12786,"suppos":12787,"eĠwant":12788,"sĠclos":12789,"ĠifĠi":12790,".Ġprior":12791,"252":12792,"expansion":12793,"ĠaskĠfor":12794,"ĠaĠnic":12795,"ĠaĠnatural":12796,"defens":12797,"Ġtechnologies":12798,"ĠthatĠyouĠwill":12799,"Ġsitu":12800,"ĠaĠreason":12801,"curric":12802,",ĠitĠwasĠ":12803,"eĠtheĠsameĠ":12804,"ĠhealthĠandĠ":12805,"ĠthreeĠs":12806,"140":12807,"resultingĠin":12808,"ospel":12809,"Ġoffens":12810,"directorĠof":12811,"lovesĠ":12812,".com.":12813,"Ġcompletion":12814,"whetherĠor":12815,"ĠgamesĠ":12816,"confidential":12817,"ĠlevelĠof":12818,"containsĠ":12819,"Ġsmok":12820,"umbleĠ":12821,"Ġhimself":12822,"ĠtheĠtopic":12823,"ĠassociateĠ":12824,"Ġdefens":12825,"industry.Ġ":12826,"burs":12827,"hereĠar":12828,"monthlyĠ":12829,"patientĠ":12830,"Ġmetallic":12831,"something":12832,"advic":12833,"Ġarchae":12834,"Ġocean":12835,"Ġstrategic":12836,"didn'tĠ":12837,"mostlyĠ":12838,"Ġwords,Ġ":12839,"participateĠ":12840,"villageĠ":12841,"espiteĠ":12842,"driven":12843,"outsideĠof":12844,"Ġuniversity":12845,"subject":12846,"Ġresponsibil":12847,"courseĠ":12848,"ĠtotalĠofĠ":12849,"ĠaĠcommon":12850,"ĠfeetĠ":12851,"won'tĠ":12852,"ĠthemselvesĠ":12853,"waitingĠfor":12854,"Ġnovember":12855,"updateĠ":12856,"Ġcircumstanc":12857,"framework":12858,"weightĠlos":12859,"ĠtheĠfinish":12860,"Ġadjustment":12861,"riedĠoutĠ":12862,"Ġrepresentativ":12863,"-winn":12864,"ĠkindleĠ":12865,"meansĠthatĠ":12866,"ĠwonâĢĻtĠ":12867,"ĠwearĠbootĠ":12868,"ĠbehindĠ":12869,"jewel":12870,"ĠsuccessĠ":12871,"religiousĠ":12872,"Ġscotland":12873,"Ġtraum":12874,"gorgeousĠ":12875,"completion":12876,"chocolateĠ":12877,"ĠratherĠthan":12878,"Ġvirtual":12879,"conductĠ":12880,"ĠexactlyĠ":12881,"garten":12882,"Ġ&Ġco.Ġkg":12883,"tĠgmbh":12884,"ĠtheĠpeaceĠcor":12885,"hausĠsteuermann":12886,"andinav":12887,"tĠgmbhĠ&Ġco.Ġkg":12888,"%)":12889,"(c":12890,"(d":12891,",Ġanother":12892,"-look":12893,"-fre":12894,"-hour":12895,".Ġtoday":12896,":Ġa":12897,";ĠandĠ":12898,"=\"":12899,"averageĠ":12900,"bind":12901,"cel":12902,"div":12903,"davidĠ":12904,"eag":12905,"eed,Ġ":12906,"fal":12907,"fly":12908,"fection":12909,"furnitureĠ":12910,"hub":12911,"heâĢĻsĠ":12912,"husbandĠ":12913,"jesus":12914,"kal":12915,"lit":12916,"lind":12917,"mouth":12918,"nerv":12919,"oi":12920,"ooĠ":12921,"oâĢĻsĠ":12922,"rus":12923,"ristĠ":12924,"russian":12925,"send":12926,"sĠtheĠc":12927,"simpleĠ":12928,"voiceĠ":12929,"wav":12930,"xin":12931,"yĠa":12932,"¿½":12933,"ëĭ":12934,"ï¿½":12935,"Ġir":12936,"Ġobtain":12937,"Ġelectronic":12938,"Ġedition":12939,"inĠhisĠ":12940,"inĠplac":12941,"sĠâĢľ":12942,"sĠwhil":12943,"onĠof":12944,"oneĠth":12945,"onĠhisĠ":12946,"tĠisĠ":12947,"env":12948,"enorm":12949,"representĠ":12950,"Ġsim":12951,"Ġsimple":12952,"ate":12953,"atures":12954,"ingĠcom":12955,"itimateĠ":12956,".ĠisĠ":12957,".ĠgreatĠ":12958,"arth":12959,"arsh":12960,",Ġdr":12961,",ĠitsĠ":12962,"is.Ġ":12963,"isol":12964,"Ġcream":12965,"ĠandĠkeep":12966,"thank":12967,"iloĠ":12968,"elandĠ":12969,"youtĠ":12970,"youĠin":12971,"younger":12972,"Ġpoor":12973,"forĠus":12974,"stain":12975,"stoneĠ":12976,"striveĠ":12977,"ed-":12978,"edly":12979,"edĠtheĠd":12980,"edĠaĠm":12981,"ed,Ġand":12982,"chant":12983,"chatt":12984,"Ġmount":12985,"Ġhot":12986,"Ġheal":12987,"ecretĠ":12988,"Ġdeduc":12989,"usĠaĠcall":12990,"acrific":12991,"ureĠthatĠ":12992,"Ġfitt":12993,"Ġfavor":12994,"Ġfestival":12995,"vertĠ":12996,"emi":12997,"emission":12998,"eminar":12999,"ĠinĠall":13000,"ĠinĠtheĠd":13001,"Ġintr":13002,"Ġinventor":13003,"ations":13004,"ation,ĠandĠ":13005,"ationĠor":13006,"ample":13007,"loos":13008,"ingĠ-":13009,"ingĠquestion":13010,"adat":13011,"ĠofĠthis":13012,"ĠyouâĢĻreĠ":13013,"Ġgun":13014,"ĠgoldĠ":13015,"Ġghz":13016,"abaseĠ":13017,"hared":13018,"ĠandĠtheĠm":13019,"ĠandĠtheĠb":13020,"ĠandĠafter":13021,"Ġly":13022,"Ġltd":13023,"propag":13024,"eĠtw":13025,"eĠtri":13026,"eĠtell":13027,"eĠtableĠ":13028,"ĠthatĠmyĠ":13029,"eĠserver":13030,"Ġre-":13031,".ĠtheĠnew":13032,"ĠthisĠmonth":13033,"ive.":13034,"ĠfordĠ":13035,"ĠforĠanyĠ":13036,"ĠtheĠsecond":13037,"ence,":13038,"elli":13039,"ĠwithĠtheĠs":13040,"ĠwithĠtheir":13041,"ĠallĠthatĠ":13042,",ĠandĠyou":13043,",ĠandĠitĠ":13044,"Ġprogres":13045,"eĠinĠa":13046,"Ġcongres":13047,"prink":13048,"cannotĠbeĠ":13049,"ĠisĠveryĠ":13050,"ityĠthatĠ":13051,"ĠtheĠcre":13052,"ĠtheĠfre":13053,"ĠtheĠfil":13054,"Ġcanad":13055,"indigenousĠ":13056,"Ġkin":13057,"Ġkong":13058,"eĠandĠother":13059,"ĠtheĠpolic":13060,"Ġapolog":13061,"ensures":13062,"ensitiveĠ":13063,"Ġspa":13064,"ĠatĠour":13065,"Ġ(m":13066,"soĠmanyĠ":13067,"ĠtheĠdes":13068,"easyĠto":13069,"objectĠ":13070,"ure.ĠtheĠ":13071,"eĠfriend":13072,"makeĠup":13073,"Ġit'sĠa":13074,"ĠhaveĠto":13075,"egu":13076,"linux":13077,".ĠiĠknow":13078,".ĠiĠjustĠ":13079,"Ġleagu":13080,"whenĠtheyĠ":13081,"ĠaĠsolution":13082,"ĠaĠsuper":13083,"ĠtoĠsupport":13084,"yĠofĠyour":13085,"butĠalsoĠ":13086,"ĠanĠend":13087,"ĠandĠsouth":13088,"e,ĠasĠ":13089,"atedĠs":13090,"ĠaĠfin":13091,".ĠthisĠyear":13092,"monday":13093,"providing":13094,"minor":13095,"mineral":13096,"sĠonĠ":13097,"sĠonlyĠ":13098,"edĠwithĠ":13099,"Ġgrat":13100,"ĠaĠlaw":13101,"firstĠof":13102,"yĠandĠfriend":13103,"elieveĠ":13104,"ing.ĠweĠ":13105,"visibleĠ":13106,"Ġprison":13107,"ingĠcustom":13108,"ingĠcustomer":13109,"shipp":13110,"qualif":13111,"ĠtheĠnatural":13112,"cara":13113,"ethernetĠ":13114,"coz":13115,"ĠwhichĠyou":13116,"crucial":13117,"ĠcloudĠ":13118,"backup":13119,"electron":13120,"Ġsupplement":13121,"umptiveĠ":13122,"ĠindigenousĠ":13123,"ĠaboutĠtheir":13124,"corp":13125,"coreĠ":13126,"aturdayĠ":13127,"etti":13128,"madeĠup":13129,"Ġartific":13130,"Ġartistic":13131,"decreas":13132,"ingĠfeat":13133,"mayĠhaveĠ":13134,"mayĠnotĠ":13135,"ĠoutputĠ":13136,"exceed":13137,"ĠnotĠonlyĠ":13138,"Ġlife,Ġ":13139,"leadersĠ":13140,"Ġdecad":13141,"Ġadditionally,Ġ":13142,"depth":13143,"depart":13144,"limitĠ":13145,"outĠofĠtheĠ":13146,"ĠtradeĠ":13147,"Ġwebinar":13148,"priceĠof":13149,"freez":13150,"offersĠa":13151,"having":13152,"continuesĠtoĠ":13153,"buildingĠ":13154,"ĠexperiencedĠ":13155,"startedĠtoĠ":13156,"ĠbutĠi":13157,"onceĠ":13158,"onceĠagain":13159,"Ġspecialist":13160,"Ġamerica.Ġ":13161,"processingĠof":13162,"untilĠtheĠ":13163,"ĠhoursĠ":13164,"ĠhoursĠof":13165,"ĠrequestĠ":13166,"ĠgetĠyour":13167,"ollegeĠ":13168,"ohio":13169,"ĠcourseĠ":13170,"energyĠandĠ":13171,"appli":13172,"authentication":13173,"ĠofficeĠ":13174,"reduction":13175,"Ġcentr":13176,"chooseĠfrom":13177,"vitamin":13178,"ĠpropertiesĠ":13179,"Ġnorthern":13180,"effortsĠtoĠ":13181,"Ġexcell":13182,"accord":13183,"ĠassistanceĠ":13184,"ĠmayĠalsoĠ":13185,"domestic":13186,"Ġcapac":13187,"refus":13188,"makeĠit":13189,"Ġpowerful":13190,"ĠcustomerĠservic":13191,"spirit":13192,"Ð½Ñĭ":13193,"wallpaper":13194,"-freeĠ":13195,"ĠtheĠspac":13196,"ĠtheĠphoneĠ":13197,"ĠtheĠphysical":13198,"uppli":13199,"combinationĠof":13200,"audienc":13201,"policyĠ":13202,"Ġcharacteristic":13203,"Ġinstallation":13204,"Ġcalor":13205,"preparedĠ":13206,"functional":13207,"Ġfunctional":13208,"ĠbabyĠ":13209,"ĠtheĠlatest":13210,"ĠtheĠboard":13211,"luckyĠ":13212,"Ġtherapeutic":13213,"ĠrestaurantĠ":13214,"ĠtheĠdataĠsubjectĠ":13215,"ĠattractiveĠ":13216,"editorial":13217,"ĠdecidedĠtoĠ":13218,"beneficial":13219,"achiev":13220,"opposit":13221,"zeroĠ":13222,"Ġcomplianc":13223,"resultĠin":13224,"liquidĠ":13225,"plugin":13226,"Ġwidth":13227,"Ġflorida":13228,"lobalĠ":13229,"ufficient":13230,"eĠtechnolog":13231,"Ġrelief":13232,"ĠcreditĠcardĠ":13233,"religion":13234,"ĠcollectiveĠ":13235,"Ġarabia":13236,"ĠheritageĠ":13237,"ĠheavyĠ":13238,"enthusi":13239,"connectĠwith":13240,"ĠantiqueĠ":13241,"Ġstraight":13242,"Ġclinical":13243,"asketball":13244,"ĠtheĠgreen":13245,"ophisticatedĠ":13246,".tag_uafv":13247,"ĠaĠrangeĠof":13248,"uropath":13249,"ichelangeloĠanton":13250,"(i":13251,"(or":13252,",Ġat":13253,",ĠaĠd":13254,",ĠtheseĠ":13255,"-g":13256,"-idĠ":13257,"-day":13258,".Ġstill":13259,".Ġstep":13260,"61":13261,"71":13262,"714":13263,"brown":13264,"brief":13265,"beĠtaken":13266,"dail":13267,"fp":13268,"fell":13269,"gp":13270,"gas":13271,"golden":13272,"hook":13273,"hik":13274,"iâĢĻveĠ":13275,"iâĢĻdĠ":13276,"iological":13277,"kb":13278,"ko":13279,"keen":13280,"nas":13281,"nob":13282,"nersĠ":13283,"narrow":13284,"pip":13285,"qur":13286,"rack":13287,"suggest":13288,"ubeĠ":13289,"veil":13290,"vessel":13291,"wim":13292,"y)":13293,"yeĠ":13294,"Ġ)":13295,"Ġê":13296,"Ġeconomic":13297,"Ġtx":13298,"Ġtat":13299,"Ġtub":13300,"ĠadĠ":13301,"Ġthriv":13302,"sĠitsĠ":13303,"sĠjustĠ":13304,"sĠwhileĠ":13305,"sĠdoĠnotĠ":13306,"erĠ(":13307,"onion":13308,"onial":13309,"orĠsh":13310,"enedĠ":13311,"an,Ġ":13312,"anim":13313,"revers":13314,"refin":13315,"revir":13316,"Ġsitt":13317,"ated,Ġ":13318,"atesĠtheĠ":13319,"ingĠteam":13320,"ingĠandĠt":13321,"arah":13322,"es/":13323,",Ġcar":13324,",Ġno":13325,"islandĠ":13326,"Ġcv":13327,"Ġcart":13328,"ĠcutĠ":13329,"Ġceremon":13330,"ĠandĠex":13331,"ĠandĠmak":13332,"ĠandĠwhatĠ":13333,"theĠm":13334,"theĠc":13335,"elizabeth":13336,"ĠwineĠ":13337,"Ġpitch":13338,"Ġpier":13339,"Ġpublication":13340,"forĠs":13341,"forĠour":13342,"stak":13343,"edĠwork":13344,"edĠthis":13345,"edward":13346,"ĠtoĠbuild":13347,"ĠtoĠjoin":13348,"ĠtoĠimproveĠ":13349,"ĠtoĠworkĠwith":13350,"ĠtoĠmeetĠ":13351,"ĠtoĠdiscus":13352,"cheat":13353,"Ġmir":13354,"Ġmenu":13355,"ĠmilitaryĠ":13356,"Ġbid":13357,"entĠtoĠ":13358,"entially":13359,"Ġhit":13360,"ĠholidayĠ":13361,"ĠdoneĠ":13362,"ĠdryĠ":13363,"Ġdental":13364,"ura":13365,"impression":13366,"esĠup":13367,"verifi":13368,"ĠinĠhisĠ":13369,"ĠinĠfrontĠof":13370,"etrick":13371,"ĠtoĠaĠs":13372,"uninstall":13373,"unknown":13374,"ingĠunder":13375,"adequ":13376,"ĠofĠtheĠt":13377,"ĠofĠnew":13378,"Ġarl":13379,"Ġgetting":13380,"exampleĠof":13381,"age":13382,"eĠthank":13383,"eĠtheĠsh":13384,"resolveĠ":13385,"abov":13386,"haul":13387,"withinĠ":13388,"withdraw":13389,"utyĠ":13390,"ĠandĠtheĠf":13391,"Ġlit":13392,"Ġlip":13393,"eĠtag":13394,"ĠthatĠsh":13395,"eĠsinc":13396,"concert":13397,"congres":13398,".ĠtheĠcompanyĠ":13399,"s.Ġnow":13400,"s.Ġeach":13401,"s.Ġwhil":13402,"andon":13403,"andal":13404,"e.Ġnow":13405,"e.Ġhow":13406,"e.ĠitâĢĻsĠ":13407,"essentiallyĠ":13408,"epson":13409,"eprevir":13410,"Ġforever":13411,"ĠforĠtheĠc":13412,"wors":13413,"ĠsheâĢĻsĠ":13414,"Ġshirt":13415,"yourĠhom":13416,"outiqu":13417,",ĠandĠour":13418,"âĢĻsĠmostĠ":13419,"eĠinsuranc":13420,"s>Ġ<s>Ġ\"":13421,"sĠint":13422,"sĠinĠthisĠ":13423,"eĠtheĠmostĠ":13424,"sheet":13425,"efin":13426,"Ġrandom":13427,"Ġattain":13428,"ĠisĠoneĠof":13429,"eĠmeĠ":13430,"ityĠwith":13431,"ĠtheĠcentral":13432,"izationĠof":13433,"eĠtoĠus":13434,"ĠthatĠall":13435,"eĠawar":13436,"ies,":13437,"iesel":13438,"Ġking":13439,"Ġkil":13440,"ĠtheĠpath":13441,"Ġexecut":13442,"e.ĠthereĠar":13443,"eĠcollection":13444,"s.ĠasĠ":13445,"s.Ġthis":13446,"ĠiĠhav":13447,"manentĠ":13448,"okia":13449,"ĠspotĠ":13450,"Ġspanish":13451,"Ġ(d":13452,"eĠbatch":13453,"eĠbecom":13454,"eĠpack":13455,"eĠpleas":13456,"eĠphon":13457,"trail":13458,"ĠisnâĢĻtĠ":13459,"sĠtoĠgetĠ":13460,"Ġtime-":13461,"'sĠ\"":13462,"Ġamend":13463,"ĠwillĠhelp":13464,".ĠiĠcan":13465,"likew":13466,"commandĠ":13467,"ĠthemĠareĠ":13468,"ateral":13469,"Ġafghan":13470,"lowlyĠ":13471,".Ġsuper":13472,"awayĠ":13473,"ĠusĠatĠ":13474,"plementĠ":13475,"ĠaccidentĠ":13476,"ingĠso":13477,"roughtĠ":13478,"eĠhuman":13479,"pressur":13480,"dragon":13481,"Ġaggress":13482,"ĠtheseĠm":13483,"ingĠtoĠdo":13484,"reminder":13485,"versusĠ":13486,"versatil":13487,"wellĠknown":13488,"ĠanĠimportantĠ":13489,"ureĠyour":13490,"ĠandĠsocial":13491,"ĠaĠbadĠ":13492,"ĠaĠbook":13493,"empleĠ":13494,"ĠtheĠlateĠ":13495,"ĠaĠclean":13496,"Ġneed.Ġ":13497,"ageĠor":13498,"becameĠ":13499,"reader":13500,"sĠonlin":13501,"placeĠin":13502,"helpsĠ":13503,"helpsĠtoĠ":13504,"edĠbyĠtheĠc":13505,"ingĠbusinessĠ":13506,"ĠgroundĠ":13507,"ingĠmanag":13508,"ibleĠwith":13509,"ĠaĠlim":13510,"ĠaĠlight":13511,"ĠtheyĠshouldĠ":13512,"lossĠof":13513,"Ġpray":13514,"ĠtheĠgrow":13515,"ĠtheĠglobal":13516,"eĠonly":13517,"ingĠco":13518,"ingĠcount":13519,"Ġcontroller":13520,"ĠcontemporaryĠ":13521,"scriber":13522,"ĠtheĠnext":13523,"rosoft":13524,"identification":13525,"ĠperĠyear":13526,"guardĠ":13527,"fruitĠ":13528,"ingĠdist":13529,"crystal":13530,"oldestĠ":13531,"ĠthoseĠin":13532,".ĠmostĠof":13533,"someĠs":13534,"sĠtop":13535,"Ġindex":13536,"Ġservices,Ġ":13537,"Ġavenu":13538,",ĠbutĠitĠ":13539,"Ġyester":13540,"raeli":13541,"aturday":13542,"Ġtransl":13543,"equisit":13544,".Ġhop":13545,"Ġstruggl":13546,"Ġbright":13547,"Ġthanksgiv":13548,"ĠphoneĠ":13549,"experienceĠwith":13550,"ehold":13551,"ahal":13552,"land,Ġ":13553,"ĠthingsĠtoĠ":13554,"ĠstoryĠ":13555,"moreĠaboutĠ":13556,"ĠasĠwellĠasĠtheĠ":13557,"Ġquot":13558,"Ġweapon":13559,"ĠmayĠhaveĠ":13560,"weren":13561,"presentation":13562,"Ġcarri":13563,"glu":13564,"ĠtopĠof":13565,"Ġterror":13566,"Ġautumn":13567,"oĠsor":13568,"eĠtru":13569,"ĠadditionĠtoĠ":13570,"republican":13571,"enefitĠ":13572,"Ġstatus":13573,"Ġrot":13574,"e.ĠiĠam":13575,"e.ĠiĠwasĠ":13576,"Ġstartup":13577,"levelsĠof":13578,"ÂŃt":13579,"ukrain":13580,"Ġtechnology,Ġ":13581,"avelength":13582,"wayĠfrom":13583,"Ġprevent":13584,"prototyp":13585,"livingĠin":13586,"Ġbecam":13587,"family":13588,"untilĠ":13589,"Ġflu":13590,"Ġhours.Ġ":13591,"ĠwhileĠtheĠ":13592,"ĠrequiredĠ":13593,"ĠÐ±":13594,"it'sĠnotĠ":13595,"enjoyĠtheĠ":13596,"knownĠfor":13597,"Ġantib":13598,"ĠneedĠtoĠknow":13599,"ĠwebsiteĠ":13600,"ĠgameĠon":13601,"movement":13602,"stepp":13603,"ĠmanyĠyear":13604,"ĠcountriesĠ":13605,"ÐµÐ½":13606,"Ġsweden":13607,"disciplin":13608,"Ð¾Ð¶":13609,"understandĠtheĠ":13610,"ĠbetweenĠtheĠ":13611,"Ġtooth":13612,"belief":13613,"Ġglad":13614,"Ġglass":13615,"sĠacc":13616,"ĠbecauseĠ":13617,"ĠalternateĠ":13618,"ÑģÐº":13619,"refund":13620,"primarilyĠ":13621,".ĠitĠalsoĠ":13622,"ĠmightĠbeĠ":13623,"Ġsupplier":13624,"ĠsomethingĠ":13625,"agnific":13626,".ĠheĠwasĠ":13627,"ĠtheĠphil":13628,",ĠforĠexample":13629,"ĠtheĠcountry":13630,"upplyĠ":13631,"angerousĠ":13632,"novel":13633,"eĠphoto":13634,"voicecomputer":13635,"sequentĠ":13636,"basically":13637,"eĠasĠwell":13638,"ĠhoneyĠ":13639,"ĠcompetitiveĠ":13640,".Ġsometim":13641,"ecommerc":13642,"Ġdesir":13643,"Ġaren'tĠ":13644,"ĠfrontĠ":13645,"updatedĠ":13646,"juic":13647,"customerĠservic":13648,"ĠreceiveĠa":13649,"Ġexpertis":13650,"ĠtheĠfinestĠ":13651,"Ġjacket":13652,"eĠdevelopmentĠ":13653,"eĠmanagementĠ":13654,"yesterday":13655,"futureĠ":13656,"effectĠon":13657,"estimatedĠ":13658,"detect":13659,"ĠsaturdayĠ":13660,"ĠaĠpersonal":13661,"Ġcounselor":13662,"ĠtheĠtypeĠof":13663,"ĠtheĠfrench":13664,"ĠwaitingĠfor":13665,"ĠtheĠgovernment":13666,"equivalentĠ":13667,"ĠarthritisĠ":13668,"ĠthomasĠ":13669,"electedĠpresident":13670,"oisturiz":13671,"exclusivelyĠ":13672,"redeemer":13673,"ĠadhdĠ":13674,"ohawkĠrug":13675,"\"Ġof":13676,"(a":13677,",ĠthankĠyou":13678,",ĠaccordingĠtoĠ":13679,".ĠareĠyou":13680,"63":13681,"96":13682,":Ġi":13683,"aÃ":13684,"b.Ġ":13685,"bother":13686,"bowl":13687,"bloom":13688,"cableĠ":13689,"caughtĠ":13690,"eesĠ":13691,"eigh":13692,"favor":13693,"felt":13694,"football":13695,"hit":13696,"hid":13697,"iallyĠs":13698,"kyĠ":13699,"lsĠ":13700,"might":13701,"mirror":13702,"magazin":13703,"nar":13704,"population":13705,"qĠ=Ġ":13706,"sil":13707,"song":13708,"sport":13709,"saveĠ":13710,"sightĠ":13711,"secur":13712,"south":13713,"turn":13714,"uther":13715,"uham":13716,"wich":13717,"wool":13718,"xbox":13719,"yâĢĿ":13720,"Ã¢":13721,"Ã³":13722,"Ġetc":13723,"ĠÑĢ":13724,"Ġefficienc":13725,"Ġtear":13726,"Ġtower":13727,"ĠaĠmor":13728,"Ġaesthetic":13729,"Ġthro":13730,"Ġthing.Ġ":13731,"erial":13732,"on.Ġ":13733,"onĠb":13734,"ousĠa":13735,"Ġsu":13736,"Ġsolv":13737,"atial":13738,"it?":13739,"it.ĠtheĠ":13740,"it.ĠbutĠ":13741,".Ġ*":13742,".ĠâĢĵ":13743,".Ġlet":13744,"esĠtheĠs":13745,"esĠareĠs":13746,",Ġnow":13747,",Ġwell":13748,",ĠhisĠ":13749,"isĠaĠgreatĠ":13750,"israel":13751,"ĠcoldĠ":13752,"Ġcitizen":13753,"Ġcurriculum":13754,"ĠandĠmyĠ":13755,"ĠandĠmaintain":13756,"thos":13757,"thĠannivers":13758,"elle":13759,"Ġwak":13760,"ĠwayĠof":13761,"youĠdonâĢĻtĠ":13762,"youtubeĠ":13763,"Ġpod":13764,"forestĠ":13765,"edĠtheĠb":13766,"edĠtheĠt":13767,"edĠaĠ":13768,"edral":13769,"rov":13770,"rost":13771,"robin":13772,"rozen":13773,"chronic":13774,"Ġmid":13775,"Ġmaximum":13776,"Ġmalibu":13777,"Ġbear":13778,"Ġbought":13779,"Ġham":13780,"ĠhitĠ":13781,"Ġheight":13782,"Ġdesc":13783,"ĠdoubleĠ":13784,"Ġdivision":13785,"lew":13786,"leverag":13787,"uringĠ":13788,"Ġfelt":13789,"Ġfiber":13790,"idnâĢĻtĠ":13791,"esĠitĠ":13792,"esĠwillĠb":13793,"ĠinĠaĠs":13794,"et.Ġ":13795,"amel":13796,"ĠtoĠan":13797,"ĠtoĠaĠp":13798,"ĠtoĠanyĠ":13799,"ĠtoĠanother":13800,"ĠtoĠstop":13801,"ingĠoption":13802,"ingĠgam":13803,"adow":13804,"ifari":13805,"ulator":13806,"Ġaris":13807,"ĠyouĠwantĠtoĠ":13808,"explan":13809,"agest":13810,"respon":13811,"haz":13812,"Ġnet":13813,"ĠniceĠ":13814,"ĠstemĠcell":13815,"ĠandĠtheĠd":13816,"ĠandroidĠ":13817,"Ġlay":13818,"Ġlaptop":13819,"commentĠ":13820,"eĠtest":13821,"eĠtwo":13822,"eĠset":13823,"eĠsinceĠ":13824,"eĠseem":13825,"queĠ":13826,"upervisor":13827,"eĠofĠa":13828,"eĠofĠitsĠ":13829,"Ġreward":13830,"Ġrelev":13831,"conclusion":13832,"s.ĠitâĢĻsĠ":13833,"Ġtheater":13834,"perspectiveĠ":13835,"apid":13836,"estyle":13837,"ĠforĠan":13838,"Ġforest":13839,"ĠforĠtheĠs":13840,"e,Ġb":13841,"Ġtrash":13842,"Ġtruly":13843,"ancientĠ":13844,"Ġshoulder":13845,"Ġont":13846,"ĠonĠour":13847,"ĠwithĠaĠs":13848,"ĠwithĠmyĠ":13849,"ĠwithĠother":13850,"ĠwithĠitsĠ":13851,"ocumentĠ":13852,"sĠandĠisĠ":13853,"Ġconfig":13854,"Ġconflict":13855,"s>Ġ<s>Ġfor":13856,"sĠinĠmyĠ":13857,"sĠincreas":13858,"etĠfor":13859,"shareĠ":13860,"odayĠ":13861,"ĠrustĠ":13862,"ĠasĠtoĠ":13863,"ĠtheĠmap":13864,"ĠtheĠmodern":13865,"eĠmix":13866,"weapon":13867,"ĠorĠbetter":13868,"ity,ĠandĠ":13869,"ĠcanĠyou":13870,"izesĠ":13871,"recre":13872,"recall":13873,"reception":13874,"Ġjesus":13875,"Ġjordan":13876,"eĠaĠnew":13877,"intr":13878,"ĠtheĠpool":13879,"e.ĠtoĠ":13880,"eĠcal":13881,"eĠcard":13882,"eĠcamp":13883,"ĠiĠcouldĠ":13884,"Ġspin":13885,"Ġspar":13886,"Ġspain":13887,"ibm":13888,"Ġ(c":13889,"eĠbetter":13890,"eĠbott":13891,"eĠpiec":13892,"tractĠ":13893,"sĠtoĠhelpĠyou":13894,"butĠnotĠ":13895,"eĠfurther":13896,"eĠfirst":13897,"Ġit,Ġ":13898,"spotĠ":13899,"achĠbali":13900,"howĠitĠ":13901,"ĠaĠsub":13902,"awar":13903,"ĠuseĠof":13904,"strang":13905,"sĠsinceĠ":13906,"sĠsupport":13907,"ĠtoĠsayĠ":13908,"fulĠof":13909,"uggeran":13910,"ĠaĠpict":13911,"ĠanĠoldĠ":13912,"ĠanĠemail":13913,"ĠandĠseeĠ":13914,"intervention":13915,"interactiveĠ":13916,"php":13917,"ĠreserveĠ":13918,"ĠaĠbit":13919,"mini":13920,"ĠtheĠlak":13921,"ĠaĠcor":13922,"Ġassembl":13923,"whatĠhappen":13924,"sĠonly":13925,"disput":13926,"endĠon":13927,"ingĠbas":13928,"Ġgrind":13929,"ingĠmak":13930,"ingĠmodel":13931,"Ġyears.":13932,"eĠisĠs":13933,"ĠaĠlink":13934,"son,Ġ":13935,"eliber":13936,"ĠtheĠgoodĠ":13937,"Ġactor":13938,"uthenticator":13939,"qualifiedĠ":13940,"everywher":13941,"ternetĠ":13942,"scrib":13943,"sĠthatĠhaveĠ":13944,"sĠthatĠcan":13945,"ĠaĠgam":13946,"retire":13947,"retriev":13948,"guitar":13949,"ingĠdirect":13950,",ĠmostĠ":13951,"ĠclassĠ":13952,"relativeĠ":13953,"atholic":13954,"athedral":13955,"sometim":13956,"someon":13957,"ysql":13958,".ĠweĠwereĠ":13959,"anceĠand":13960,"storag":13961,"storyĠof":13962,"ĠweĠwill":13963,"ĠwhenĠitĠcomesĠtoĠ":13964,"correctĠ":13965,"ĠtheĠwar":13966,"attres":13967,"madeĠtheĠ":13968,"madeĠitĠ":13969,"ĠtwoĠweek":13970,"surg":13971,"needed.Ġ":13972,"Ġmini":13973,"Ġminister":13974,"Ġenem":13975,"Ġbranch":13976,"ingĠhard":13977,"Ġphas":13978,"Ġphysician":13979,"Ġdieg":13980,"volveĠ":13981,"eĠshould":13982,"justiceĠ":13983,"insteadĠ":13984,"ĠawareĠof":13985,"personnel":13986,"mayĠnotĠbeĠ":13987,"edĠmaterial":13988,"except":13989,"Ġinterior":13990,"uitableĠ":13991,",
[...]
